[PAD]
[UNK]
[CLS]
[SEP]
[MASK]
.
/
:
=
|
،
؛
؟
ء
ا
ب
ة
ت
ث
ج
ح
خ
د
ذ
ر
ز
س
ش
ص
ض
ط
ظ
ع
غ
ف
ق
ك
ل
م
ن
ه
و
ى
ي
##و
##د
##ا
##؛
##ل
##ع
##ي
##ق
##ح
##ر
##ف
##خ
##ش
##ن
##ك
##ب
##،
##ه
##ج
##ط
##ة
##ص
##س
##ت
##ث
##ذ
##غ
##م
##ز
##ض
##ى
##ء
##ظ
##؟
ال
##ال
##ان
في
من
##ما
##له
الم
##ين
ان
عل
الا
##لا
##ها
وال
##را
##ية
##وا
##نا
بن
عن
##ير
##ول
الله
اب
##ار
##يه
##ون
##ذا
وا
على
##لم
قال
##هم
##يا
##لك
##اب
الع
الح
##ري
لا
##ام
##يد
##يل
ما
الت
##ست
وق
بال
##ات
عليه
الق
##من
الى
او
كان
##دي
الس
##ور
الن
##بي
##اء
##حم
##يم
##مر
##ته
##كر
##عد
وه
مع
##با
الش
##بد
##وم
##حد
الج
##عل
##بر
اي
الر
اخ
##مع
##اد
الف
##كم
##ود
وس
الص
##وله
##في
فق
##رب
##عة
الب
##حمد
الخ
له
الد
##لى
وان
الك
##رة
ابن
ذلك
الذ
لم
##رج
وك
يق
ولا
##لي
##اف
لل
هذا
##بة
به
##ني
عبد
##اي
صلى
وي
وت
##وج
فان
اس
##بل
فا
##رف
##ذه
##لام
##رك
تع
##اه
ثم
اذا
لان
ابي
انه
هو
وج
##رو
##قد
ابو
##كون
ول
##مل
وهو
##نة
##وس
ام
يع
##يس
حد
##كن
##حي
##صل
##ديث
قوله
##قة
بين
##فر
##اس
قد
وسلم
بع
##مة
فيه
وع
الث
##دة
##اني
محمد
##فس
بعد
##به
##جل
غير
##يت
##وق
اع
##تى
وقال
##رض
حدث
##سول
##شر
فقال
الذي
الط
علي
##حت
##لف
##اق
يت
##هر
##لت
مس
##اع
وم
##ذلك
##قي
كما
##مي
##وب
عمر
##الى
##ضي
##بع
##لق
كل
##اج
وقد
عند
##هما
##دا
رسول
ومن
النا
الاس
الان
##صر
##ة،
##يب
المس
##اح
الز
##هل
##غير
است
حتى
هذه
التي
عنه
شي
تعالى
وب
يج
##وت
##وف
##وع
وفي
حدثنا
##بت
##يف
##ضا
##خل
احد
##سن
##وي
##قل
وكان
##تاب
##يات
##رى
##نى
اص
##ده
ين
ون
##وز
والم
##كل
بل
##فع
المع
الغ
##وه
##لة
يكون
ذكر
##وى
##فت
بعض
##لب
##رت
##مه
مت
مث
##اص
##رد
##راء
يا
##ثر
منه
##عم
##ماء
##حر
##مس
اليه
فل
##خت
##ضع
##فة
##قت
اش
النبي
وما
الو
##كان
##الة
##هد
لي
المت
##سب
##در
##مان
اج
عام
##عا
##يرة
يقول
بها
##فا
فلا
فه
##رق
##لاث
##سم
فيها
يد
الي
##قول
##حة
##اري
##عت
فت
الاخ
قبل
اد
##دين
##حا
##وال
مال
سلم
لو
اك
##قا
كانت
ات
##لاة
##لها
##ه،
##ارة
حديث
##نت
الاول
##مت
الناس
##رات
احمد
##مام
وح
##ية،
والا
واب
والت
##عي
##ظر
##ورة
سب
اله
يوم
##راد
الل
##ذكر
با
عد
اهل
بان
##رح
##تب
ولم
سنة
##سان
##سل
واحد
الام
وص
##راه
المن
اح
بد
اق
مج
##حاب
لانه
الشي
##از
##ره
##الم
##خرج
ايضا
حي
بم
يس
##ريق
الحديث
##يع
روا
اما
##وة
يح
ليس
##زل
##شت
يم
نفس
هي
لما
وف
##شي
يص
##لاف
المو
##قط
القر
##تها
##جد
##ضل
##ينا
##جر
##نس
مو
##ند
##حيح
##طل
للم
مح
باب
ثنا
قول
اذ
##مال
مثل
وهذا
##زي
امر
كتاب
فال
##حق
نس
منها
##ماع
##فق
اخبر
كث
تق
##خذ
##على
##باس
##رع
وهي
يست
##لال
اول
##تي
##وان
##يلة
##رس
رضي
##وية
بق
الوا
الدين
ولو
##عيد
سمع
##بير
مق
كال
##خص
واما
##يمان
يو
اف
لها
قل
##كا
##وات
انت
ولك
ثلاث
وغير
##رم
اخر
بما
##سة
##طا
رج
تح
الرح
الذين
##يمة
بكر
##زم
##ديد
##راة
##صف
##نه
اث
شيء
حيث
الرا
##ياء
##ضر
والع
##ين،
لت
##ناء
##حو
لهم
##كة
دا
##لاء
البي
##بار
##خر
##واب
##انية
الصلاة
تم
##كت
بي
##سر
فهو
تن
فقد
المص
سل
تت
##وك
##قدم
قت
##عب
##بح
عب
قلت
بح
##سي
ولي
الاست
##طي
يش
##ذي
##جب
بت
فاذا
فانه
##يام
رب
سعيد
مالك
##ها،
##راهيم
##ميع
يز
وخ
##دينة
مما
##صد
هنا
انا
مست
##رط
##ولا
الحسن
##اهر
دون
##ادة
قب
رجل
عمرو
##مات
وقيل
جاء
##سا
##كي
##طر
##طع
حق
الرحمن
##ليل
الظ
للا
##تم
مش
المج
الارض
المح
فيما
##طان
وجه
ابراهيم
الض
انما
عشر
المش
الاسلام
##يدة
الاص
##فظ
اه
ولكن
بك
لكن
##يرا
##وجه
##طلق
والس
##جة
##لاق
منهم
الال
القا
عليها
##انه
يقال
والح
##ذهب
موس
##وح
اخبرنا
##ذر
##طة
نا
##ريد
##حيى
##ظم
##حدث
اكثر
##زة
والله
يكن
##تق
النس
انها
##امة
##ضاء
الملك
##قص
تص
مسلم
##لات
##نف
##دم
رحم
المست
المسلم
##قر
##واء
لك
اخت
فلما
تو
الشيخ
##طن
الاج
وش
##ناه
حين
ود
##الح
حال
حم
صاح
بخ
تج
السلام
مص
بش
وابن
سن
وث
صحيح
الاع
وز
##غة
عم
الاش
يخ
عليهم
تس
يحيى
واذا
##اك
##نب
يجوز
ارب
##نيا
يعني
لع
عز
##ولة
عباس
القران
العلم
الرجل
فعل
##بلغ
فس
ور
##قال
بالم
فى
الثاني
روى
العل
##انا
##ضة
الما
##طب
##الي
##ينة
شع
##صار
##امل
حكم
واست
##غي
##بيع
##ثل
علم
##رام
##ضى
الامر
##ركة
##شا
##افة
##ضم
ابا
فع
وانما
##ذب
خال
##دل
##رار
الامام
تكون
##طف
زيد
##وص
اصحاب
المال
##لهم
يب
##باب
وقوله
تش
باس
اخرج
ومع
را
يك
لق
ملك
تحت
##قه
الكتاب
البر
وار
نص
وذلك
##الث
##هب
دين
##زا
قيل
غيره
والن
##دت
فلم
##يش
المد
##فه
داود
##حاق
والج
وعلى
موسى
##ظهر
##هم،
طريق
##يك
يف
##جم
البا
كلام
##سين
الحق
##الب
##شرة
ترك
##يهم
##جه
فما
##راب
عا
مد
نفسه
العرب
الاح
قالوا
رواه
بني
##نع
##شة
##ختلف
شييا
جميع
سمعت
يمكن
##ريم
##لاد
##روف
جع
الاية
##ثمان
معا
جمع
بذلك
الحج
##فتح
مات
وليس
وعن
وكذلك
##عين
ست
##راي
واس
صد
راي
وله
##عه
تلك
الخط
بالت
عق
##يادة
يل
الحكم
كثير
##ي،
لله
فكان
##لاح
تك
فك
##اله
##اهد
##ياس
##فل
صاحب
قا
##وء
وقت
الاولى
ار
هم
عبيد
بالا
##يق
المومن
ابيه
##حدة
##صب
اخذ
السل
##ونه
اسحاق
اعلم
الوق
##ذك
والث
مر
والش
تد
##ولى
عمل
الدنيا
وابو
لاب
جل
##ان،
##ماعة
##صة
هر
وبين
المنا
##شد
بلغ
##خاري
فج
المق
اغ
##وري
##بات
يزيد
فر
هل
خمس
##ملة
##عود
##بس
كنت
خلق
##وض
تا
رحمه
سبح
العالم
##حل
##يز
فمن
الاد
فلي
لن
كانوا
رواية
الاخر
كذا
ضع
##معنى
بر
الانسان
فن
اسم
ذكره
كذلك
##هن
##حرم
تقدم
الاب
##راق
##ريب
##راج
الفت
عدد
##ابت
اخرى
##عر
والق
نع
نحو
##افر
##دى
المغ
##داد
##فار
والب
يجب
والص
الماء
##افعي
فوق
##يني
##وجد
البخاري
##رفة
##يار
##قيق
ابى
##ريك
جز
بط
##افظ
قوم
##اريخ
##اسم
خرج
##جا
##افع
مخ
سا
سعد
##ذن
##مار
وكانت
والد
##وبة
##ثير
##حن
ثلاثة
خلال
جعل
والخ
##تمع
اعت
##ولي
##صور
##ويل
اني
##بين
اراد
وط
لمن
وهم
راس
عثمان
##اتي
رق
حسن
السنة
يغ
##امر
##ومة
هريرة
احدهما
الجمع
القول
##حمل
للت
لح
##هور
##جلس
عنها
##رجع
معه
##وجود
خير
الكلام
انس
الحم
اط
اشت
##وها
##وسف
زوج
قام
##قى
يعلم
##ماعيل
سي
##هار
##علق
رك
##اته
بس
العمل
##سبب
المدينة
سليمان
اليوم
عبا
جعفر
##ابة
النار
انته
واق
##ديم
##وفي
##ته،
##وسط
بج
وذكر
##ارب
معنى
##فيان
ورو
##عى
##الت
ولد
بعضهم
تف
الجنة
انهم
قر
##يح
موضع
وجل
بص
نعم
##ارض
##ماية
وتع
##زوج
##فى
##ظيم
البحر
الاف
##واه
دخل
واج
عاي
##وط
مك
حدثني
فض
تخ
الاصل
وكذا
سورة
##نان
##ايي
##مرة
الحا
احت
##اة
##نية
##وني
##ا،
##ك،
قتل
الثالث
سبحانه
##ابر
شرح
المسلمين
##كره
##تهم
يحت
يوسف
##يده
بيت
بالع
##جز
##مو
واع
##قيقة
##بان
نسبة
والك
##زيز
صلاة
##راف
##لفظ
قالت
شاء
لنا
الله،
##قات
صف
الشافعي
الول
صح
والف
##رير
##واد
واحدة
##لمة
##خد
واص
سفيان
##الف
##واز
هناك
از
##اره
ير
واخ
بغير
كتب
دع
وجود
##ريح
اض
وعل
شيخ
عدم
##بعض
##داء
##تين
##طاء
القاضي
النساء
لب
بالله
مرة
##ايل
##هاب
##ارث
وعد
كيف
نظ
##تل
##عام
المراة
##سبة
وغيره
جه
الرج
خط
اسماعيل
##ناد
عين
يعرف
كم
##راءة
##ثبت
##نين
وغ
##ارج
ويقال
نز
##امع
عايشة
##راك
قدم
تط
اصل
##راض
رم
##ماد
وفيه
يط
بلا
انتهى
##بال
##تك
اخرجه
##ياد
الصحيح
صالح
##ريف
##اث
عنده
##ياة
تست
بالق
##اصة
##كثر
واخرج
وضع
##حب
قاله
حك
باع
خالد
حس
طل
بنت
##هي
##ورا
العلماء
قط
فار
عشرة
الساب
التع
يتم
حر
الاز
##بط
امن
##فسير
بقوله
يصح
القاسم
بالح
##نات
بهذا
يريد
##وار
هولاء
##ضح
##الية
الدار
##شام
##غل
دار
حج
نق
لكم
##كاة
موا
##كس
##شف
##صرف
البل
سواء
نف
##سلم
يعت
##راس
قري
فات
البد
##باع
بخلاف
##كاح
##ون،
الاق
##هري
مكان
##بيب
التح
##مش
##صي
سم
##هاد
عرف
##جي
##وجب
العبد
المذك
##صا
##كام
فقط
##سط
##يسى
وكل
##وث
الات
سبيل
المومنين
وين
بالن
فصل
##اجة
##عدة
ضعيف
بغ
الايمان
##ارية
ممن
اليها
تب
الثانية
##انة
##ونس
##يدي
المسجد
رايت
الحسين
فح
قدر
ايام
يض
ذلك،
ذات
الجز
للع
##ذاب
##ارك
##ربي
رس
##اتم
##طق
المخ
بينهما
حني
اقت
رجلا
الحي
الوقت
الفق
العق
يخرج
حا
الباب
ري
نج
مط
مصر
ارض
الحد
الروا
دخ
العام
##فاق
##كذا
وام
بمعنى
##قع
لفظ
انك
##لاي
وجد
##راط
خلاف
وقع
بشر
وانه
لانها
العد
العزيز
الحال
الشمس
فلان
##باح
##بري
##وهم
خلف
بهم
ظهر
##روع
##رجل
تعد
بيع
اية
سلمة
الفا
بالك
ايا
المعنى
##ى،
ويت
الفر
##اذ
تقول
فد
يدل
رقم
لكل
الليل
##ناس
الثلاث
وير
##انب
ورد
##ما،
شر
شرط
##فاء
بسبب
منهما
يذكر
انظر
##جاب
نظر
الولا
بمن
عبدال
كله
##غم
##فن
##هادة
الخطاب
صار
لج
##يدا
##رفع
##رمذي
الاعم
امراة
البيت
مل
فهذا
فقلت
##صول
##الك
الجن
المراد
الموت
عيسى
##ذين
العباس
للح
ثابت
قص
الخام
##ذف
عليك
##اية
##وقع
يه
اللهم
والذي
مض
وحد
المط
##فاع
##فض
جن
الزوج
##يذ
السماء
الحرب
##طقة
الصحاب
##ينه
حل
رد
##يية
القيا
الحارث
##قطع
حنيفة
مسعود
عما
بالس
##ايب
رفع
##ادر
المر
##وما
بانه
##راييل
##اعة
##هاء
شهر
##منع
والان
شخص
ارت
ضرب
بعده
القوم
وات
راى
##يته
النفس
قرا
بدا
##زع
واش
العين
##شاء
مغ
هشام
الموا
##وقف
الصف
مكة
الشيء
##ونا
##زمه
##يا،
الرسول
سبع
##لث
##سمى
الدع
مدينة
المشت
لد
المك
##قدر
عاد
القيامة
يرو
الوجه
##فرق
##اتل
ولما
كلا
##لية
##شرين
جماعة
##حه
##ويه
##ثال
وبعد
الاث
##غيرة
ابت
البع
معاوية
خص
وعبد
##ونة
المتحدة
##ورية
##قدير
##وذ
الحر
##جرة
افضل
##فص
كون
السب
##ياض
##زلة
##هاية
وض
تز
نصف
ظاهر
يدخل
##حاديث
اليهود
##بض
وبال
##باد
##فرد
لقد
التج
در
يشت
يصل
كت
ياتي
الحافظ
##ودي
##خدام
السلطان
فاما
اجل
##ثة
##اهرة
##اير
فص
الصد
اربع
ويج
عرض
تغ
##موع
يقت
القد
الري
المصنف
نه
جابر
##اعر
حول
عامر
##واج
##وته
ويع
فلو
##وخ
بشكل
شك
بيان
##فعل
وانت
عنهم
وانا
ذي
بب
فتح
فاست
وظ
الاخرى
اربعة
##بغي
##بيرة
مثله
##حوه
##غر
البص
فم
مرت
امير
##قين
ذهب
ثبت
فهي
البق
##واع
خل
ايها
بفتح
##يث
الفضل
واد
##يي
##بيعة
ثقة
يقع
##ابل
اولى
##فسه
تاريخ
وبه
##ودة
##م،
وهذه
##قبل
توفي
رو
الفعل
عليكم
المذكور
زاد
الشام
خبر
ومنه
التن
الحك
كلها
##بيه
حاتم
الاعت
وصف
##قوب
اللي
كفر
الشع
البيع
كف
##ابع
المسالة
##مد
ينا
اقل
عي
اذن
الانت
عقد
##شيء
##ولد
##اش
##سك
والتي
مه
##ير،
عدة
عندما
الكر
لذلك
واله
انفس
##نون
الثام
اولا
##خدم
كثيرا
الصحابة
##ياب
التش
وروى
اكبر
خلا
حن
ونسبة
النج
جزء
قطع
نصر
يده
فيكون
##هات
##راع
##يمين
حص
##خي
طالب
الزبير
السن
النب
##انون
العقد
قيس
##ابه
للس
يوما
جمي
المز
ليست
التق
الامة
فب
الجواب
##وير
شه
##رش
فرض
طلب
يونس
الرز
مسالة
##مير
امام
والط
وصل
##يين
يرد
مطلق
ادم
##بعث
مب
فيقول
شهد
المقد
ولهذا
##رجة
لص
##قب
##بارك
ماء
##اتب
والسلام
ليلة
الحاكم
##وعا
##ارس
وتعالى
الوليد
منا
امت
فاع
القص
القرن
والغ
##وين
الامير
احب
الجمعة
مختلف
المعت
عنهما
بالج
عاص
##دية
##ق،
يوجد
##روة
تر
##ظام
##تماع
ضمن
##ضان
كبير
##ربة
احدى
##ضب
##الا
جاز
منذ
الترك
تل
العمر
##عة،
##فو
##بدا
اسلم
والر
الاخرة
والز
تفسير
يدع
اكت
معناه
ترج
قلنا
##ات،
ينت
وبلغ
جميعا
لس
واح
##قض
##لايكة
دفع
النص
روي
##دع
احسن
الزهري
الطريق
يقوم
قبله
ترى
مخت
##ريج
اختلف
حصل
الدولة
##كب
فليس
ذو
الاخت
وثلاث
##والي
مقد
##كرة
الترمذي
##وام
##طه
اثر
الخبر
حمل
وابي
تعل
##يو
النظر
معل
##قتل
كنا
##ناده
الولايات
وسلم،
والمع
##د،
الواحد
ماية
فذكر
##هام
##بة،
وجعل
مذهب
واي
##نام
جهة
دليل
عطاء
المض
##شية
نزل
العديد
عليه،
ويقول
والثاني
الطلاق
وعند
رييس
بعث
اليهم
وو
ورس
وهب
اعمال
الكل
اعط
##ذيب
##كلم
##ضمن
##جاج
قتادة
##صدق
ونحو
عاما
دي
جاي
التص
باق
صفة
##رر
##روج
##فعة
الارب
##صى
ينبغي
الرجال
الطب
##اجر
الحياة
القلب
يرجع
مثلا
العربية
الهم
بناء
به،
منصور
سال
الصح
##سكر
##ريقة
زيادة
ذا
للن
يعقوب
##امعة
المل
منك
زياد
الاسر
يفعل
##اعي
##ارع
طال
شديد
العم
اتى
##وغ
ومنها
دل
##رة،
##ظاهر
يصلي
يعمل
الحس
فهم
ورب
امرا
ايوب
يرى
وحدث
حماد
##ربية
يعد
ففي
نب
الدم
كس
اللفظ
علينا
ومحمد
الشرع
##نم
جدا
مز
لغير
اعد
##حيث
حجر
##ضية
فيهم
ارا
##يفة
##اء،
##احة
سبب
الروم
##ياتي
ويم
كثيرة
فرع
##موعة
الانب
##ولف
##بره
اسراييل
##برة
##ضافة
ضد
افت
الخلق
الاحت
رمضان
##ديق
مرض
##تبار
كا
##هير
##لاك
اللغة
نوع
التك
##بلة
##وفة
##طين
##ظمة
بالص
الاك
##تان
بث
##ميز
صل
الرك
##صية
##بعين
##واف
للج
الظاهر
الشرط
بري
##عمل
يقولون
##يج
##راح
##طيع
جرير
الاغ
الشعر
بار
سبق
منع
##بيت
الور
السوال
يجعل
الخامسة
##مهور
شعبة
النف
اين
بنا
محل
##يها
هكذا
ويد
جد
كانه
محم
##يبة
##شى
نقل
##خير
مبا
حسب
##حاد
رجع
الرييس
عهد
عبدالله
تكن
##خة
يثبت
ياخذ
فرق
والنس
كعب
وغيرهم
##شار
فاس
دينار
يلزم
المه
خاصة
مرا
اللا
الكبير
لغ
##سام
هار
الامور
حرب
الزكاة
##ايق
مجلس
سر
نافع
اليك
الجنس
صلا
##قوله
الخير
##يه،
يبلغ
بوا
##ياه
##كين
##جع
##ثى
المعروف
الكتب
حميد
##يان
الشرح
الرزاق
اشهر
يظهر
احدا
الانص
##زن
##را،
يحدث
المث
الثامنة
##لاب
وست
##ريض
##مبر
##زب
##ضوع
تنا
معين
##يتين
##انيا
بينهم
خمسة
فرا
##له،
باسم
##وبا
##ناع
##يهقي
داخل
فهل
مرو
##ذل
الوج
ملي
شريك
جديد
##امت
اهم
##ملك
تعلم
##ال،
##زق
ماله
امره
بالش
فضل
##مى
الدول
ويست
الشيطان
طب
البلاد
##باط
بالنس
وامر
اليمن
حب
الشر
##دق
النكاح
موت
القضاء
السكان
##ومن
لش
##ونها
الحل
وخمس
الار
##ليلا
##زاء
لابن
##س،
##كار
منت
الميت
##نج
الصالح
##مشق
فقالت
##رابي
##ركز
فانها
التعل
الاي
سير
السج
شبه
##يلي
درا
عمران
بعدها
انزل
يمنع
الدا
جنا
لقوله
الاقت
مولى
##تمد
##صح
مدة
حالة
ورواه
##ريكي
راسه
بهذه
العقل
اوا
##نا،
##طية
العا
##كى
##فين
وقرا
واخذ
عباد
القل
الذى
الفتح
ولان
الوز
##يل،
كونه
##ظة
العراق
##بيان
كلمة
باست
منكم
الجنا
##ديها
##باني
فله
يسمع
وتس
يجد
جواز
##ايفة
الموس
جنس
سيل
##روب
##فيه
معد
نحن
كن
يقبل
حبان
##دان
##فيف
##ختار
##خول
##صاد
بضم
قلوب
##طفال
##ليفة
له،
للش
المف
##طال
اخبرني
الحمد
##ن،
حلف
##شرون
اسمه
السيا
بكل
فقالوا
ربك
بلاد
البغ
العصر
##وش
واحمد
حجة
##وفى
بالب
قولهم
##ومات
الها
الكريم
يات
الشاعر
يملك
##طار
الدي
للك
##لامة
حرف
##حقق
الطعام
ورسوله
##حمة
الست
حقيقة
عاصم
وعليه
والاست
مخل
سهل
ابدا
ربه
طلق
فكيف
##انع
##ولها
##فاظ
وحده
وعنه
فش
ولذلك
ساير
##خبر
كتابه
##قاء
متوسط
الابل
ومنهم
وجب
##ايما
مقام
##افية
مطلقا
##حتمل
واعت
الكثير
اصاب
العب
سيد
بقي
عبر
##ريعة
السيد
##صال
##ايع
اعظم
##طلاق
وعمر
اصبح
المشرك
قريش
##طلع
##ريع
البقرة
التاريخ
ويل
نقص
##مة،
اكل
##اقة
نت
حبيب
ينظر
يحل
##قاط
وانشد
لهذا
##اهل
لين
##قصود
امنوا
دولا
##ندي
##فعول
حيا
ورا
ويكون
مف
زا
##علم
الليث
الملايكة
##عن
وجوب
##بعة
يعتبر
##تر
المذهب
بدر
##يران
##ريس
اليس
عص
المشتري
بام
بحيث
الخل
##يره
الكف
المثل
الجامع
جملة
يحصل
##وعة
خيرا
حض
وشر
اليد
قبض
عض
##روط
الانبياء
ابنه
اثناء
##ظن
رجال
لام
##وفا
بشيء
معت
جانب
##جار
##وحيد
بالنسبة
يديه
##ذان
الجل
##بول
تاب
وترك
الشرك
##بادة
وجهه
العامة
قسم
قصد
##امن
للق
مجاهد
##جلي
##عله
الشخص
والل
فجعل
##حف
وفى
الانصاري
عبارة
وبعض
القت
صحي
سج
بير
عالم
حرم
الخد
استخدام
معمر
##ري،
ايمان
##مكن
دعا
الخلاف
ويح
وغيرها
##ايف
العاص
دولار
##نتين
سكان
الفرق
عدي
موجود
بز
##احب
نبي
سقط
عندي
ليل
##ايلات
وراء
##طاع
انب
ذاك
يلي
جبل
الثلاثة
فيهما
حفظ
وتح
السم
##رفه
الخلا
ضر
الذكر
مجموعة
##يلا
والارض
غز
يجز
##قف
سما
والاخ
نعيم
##فقه
الثمن
اللب
لاحد
معهم
يحتاج
المهم
بالغ
المنت
الجماعة
الجديد
يقدر
نور
مني
هد
ذكرنا
سوى
ولقد
##ومه
كقوله
مجال
واحدا
زمان
واخرجه
الجيش
الرواية
انواع
اشد
##ثله
##كمة
##ارق
##عمال
الرابع
العايلات
ساب
البعض
مشت
خطا
##ضرب
القدر
غل
##ب،
##ور،
##طى
غيرها
##صلة
##وبي
الولد
##نك
انسان
الاسم
حاج
##عدم
الثق
الكافر
اصحابه
الاسود
المغرب
بعضها
يقل
صورة
اصب
فعلى
اسناده
واف
وهل
قالا
تبع
شيبة
##ناك
عبادة
فخ
لابي
خارج
##درسة
بالخ
الكم
دم
عروة
##ويا
##يهما
الفس
##ارت
##قون
الشمال
اعتق
تزوج
الامريكي
##ورد
ليلا
##لمه
بينما
السر
##عبة
الوض
##بية
البشر
فخرج
اقول
##بعون
الكبر
فقيل
##ويت
##عار
ونا
##حية
ارد
بينه
كلامه
بكسر
يحب
##كية
واصحاب
والمن
##ذات
قيم
بف
كبيرة
خاص
##قيم
الوس
والى
نهاية
الحب
##ثرة
##اده
مرف
قراءة
ويس
الهد
قوة
##تنا
عظيم
##راز
الزمان
عادة
##كرم
البايع
صدق
##غفر
##وضع
الربيع
ته
الخمس
الاعمال
وصح
##يء
بدل
التو
والاع
عندهم
الصل
##لكم
صحة
يومن
الثالثة
اليمين
##بته
وفيها
ولكنه
الخص
امة
عظ
ليت
##ميم
ارسل
معرفة
##انت
وسمع
##جمة
اهله
قلب
حاجة
قضاء
لسان
الشه
##ريط
##و،
الخارج
##اط
اموال
##كال
شعر
##طلب
الكفر
##حث
والاس
##ركب
الفل
بلفظ
##اني،
##حديد
لز
##ساب
شيت
راج
سالت
##حيط
##جلة
ستة
فاخذ
صاحبه
بغداد
ادرك
لغة
##سمية
##حى
ربيعة
بالف
بات
صدر
لانهم
حسين
سليم
##وبه
الفجر
ويجوز
النسايي
وقالوا
وتش
وعشرين
##فان
التا
ها
اسماء
الهند
لهما
يتعلق
يحمل
قرب
تعت
يسمى
بيده
واخت
##قطني
منطقة
حذ
وخرج
عج
واث
##فعال
فجاء
معاذ
##سليم
بحسب
##بيح
##شيخ
هارون
ظل
##يري
ثلاثا
عنه،
مفت
مقت
السما
##ودا
المرض
##يد،
الوضوء
المعل
فيه،
الايات
بدون
موق
ذك
ونحوه
##كرمة
الرق
رح
اقر
زمن
عذاب
الاعلى
##قة،
الوط
وقول
وجوه
النعم
حقه
##املة
تقع
##براني
جبير
سلام
##وده
ومسلم
لديها
سالم
امه
##دي،
التس
السابق
##طرة
الساعة
شيخنا
##دد
للص
المنذر
شرع
الضر
معظم
النوع
والام
ثمان
نقول
نش
التد
درجة
##جاز
القسم
##برا
الاحاديث
ولل
المجتمع
تقدير
ويق
شهاب
##قلب
الحيوان
الذهب
نشر
##كيل
النو
##نز
خد
الواجب
##رون
اختلاف
اجمع
زوجها
اطلق
##ملكة
##يتها
##ناها
لكان
والمراد
الظهر
##ثه
فعله
بالمع
لكون
##ثم
##لاج
##زام
الشرق
مهم
المام
##تهما
البيان
الساد
##عتين
الحن
واحت
##عون
عوف
##ارح
لكنه
##قوا
العظيم
وهما
شهادة
##ويد
المرت
قيمة
ثلث
الكفار
عبيدة
يقرا
احاديث
##دون
شعب
السفر
بمع
العباد
السلم
فالم
دخلت
وذ
متى
##طح
وقف
##ضعف
الحاج
صلاته
نهى
##هول
بيد
الدعاء
##ذة
بالاضافة
دور
ومر
النهار
وجاء
##صارى
انفسهم
##سية
حينيذ
بنفسه
روح
السلف
للد
بنو
طلحة
احدكم
نزلت
حنبل
التف
تمت
يشترط
وهكذا
سيف
البصري
حديثه
الحجاج
دمشق
يقتضي
##وا،
##زية
خي
##حمر
##قية
##قاد
نفسي
صور
درهم
##مين
اجر
##هاجر
بطن
فانت
وفا
يسال
محا
رض
الرس
ارس
حمزة
فصار
عال
الرحيم
العذاب
الحكومة
وكتب
##جيل
##غا
جاءت
##كمل
كذب
##بايع
يكره
معروف
##ليف
غال
الاعمش
فاب
بالد
الفقه
يعود
يلزمه
نسب
اوليك
والذين
الحجر
خز
الصغير
الثوري
الاما
لاست
نظام
تجد
اقام
مضى
الخاص
حرام
طول
وربما
التط
مول
##صره
الاسلامية
مسا
فيمن
ذر
##بريل
الاحكام
مصدر
فيت
##ثناء
بمنزلة
الخمر
واجب
علمت
الاكثر
##خا
يمت
##غب
##صير
محت
الجد
اشار
غاية
ميت
السي
لط
ولاية
تقوم
##مته
##قام
ويا
بالر
قرية
##مسك
بحر
جريج
الاشياء
##هة
ياكل
فاد
##ينية
ترت
جده
حوالي
شان
وفر
الالف
كلهم
ومات
##لا،
يدي
وغيرهما
وبر
السف
##ار،
اساس
وتن
القياس
##رز
حفص
لنفسه
بطل
ملكه
احكام
كاف
الزيادة
وايضا
بقية
حجم
##تبة
الاعرابي
قصة
للب
عملية
##انى
كالم
اعل
الرغم
اعلى
الرابعة
الموضع
##رارة
##وتر
##اهما
مكت
طرق
الاصول
ايد
##اسة
##اجد
وقل
مرات
وجمع
العربي
تعرف
##اخر
اظهر
بنى
قلبه
##وضا
جامعة
والمر
##ركات
للناس
##بعه
باي
وتم
يحرم
##بوت
الحقيقة
##تيجة
صوت
ظن
جبريل
##وبية
##وايد
المسيح
يجمع
##ريكية
الصوم
الرب
منه،
سيا
جوا
يتع
اسد
##يما
##تيبة
الواو
عندنا
##فهوم
##هارة
الفصل
اثبات
اجتمع
الفرنس
##تهن
فامر
لخ
الدهر
##ولوج
##حاكم
##يم،
المنطقة
نكاح
مسجد
##فسد
عليهما
والست
مروان
الذه
##واح
##ذى
##ظل
يوجب
##ارف
المقصود
##لاه
##ستان
وتت
والمعنى
لعدم
##اربعة
ثالث
يفت
##لاع
الحرام
تقل
تلق
بهما
المب
##ربه
##شهد
##ابات
والاق
الطيب
تال
امية
ماجه
##ظلم
كنتم
##ذوف
واهل
##ينات
وروي
##طنين
يسم
##ريت
القتل
حام
ادع
الانصار
المولف
##يون
##ختص
ونحن
شركة
يقتل
الشهادة
نفسها
المصر
القراءة
الفقهاء
سمي
##خلص
الالباني
##ثا
التاس
يحتمل
عنا
برو
##يص
صنع
##تما
المدين
العن
##ثلة
##زمة
مريم
لاح
اللام
بلد
##وسي
اقرب
اهلها
امري
الخاصة
اختي
فرس
الحجة
واختلف
##نوب
واض
انف
##غت
الجاه
توا
الايام
ساق
المجموع
القب
المشهور
##باه
نفي
اولاد
تسع
الاسناد
قليلا
فترة
انق
##رعة
عش
الثلث
##يوم
المسلمون
المكان
مومن
جايز
السبب
بالان
صاد
ند
##با،
ملا
سف
الراس
الاجتماع
اخبار
واه
كر
سق
المسيب
##سه
الياء
##يال
تجب
ربنا
امور
##ورات
ايات
تيم
وبا
عيينة
جم
وثمان
الاه
يوميذ
قتله
##اتها
استح
##عاية
المجلس
##ناة
الحرم
النهي
الوف
##قران
قامت
اصبحت
قليل
جا
اشبه
الاساس
المتن
فبلغ
الشهر
ثعل
الاخبار
##صن
واخر
مسل
البلد
القس
يكتب
بمكة
##خصوص
البيهقي
يرت
المشركين
##زال
اسرة
المحت
التاب
الدارقطني
شاه
طرف
##كو
زعم
الدرا
##ندا
محمود
هاش
##بتدا
##ضت
الشعب
علق
المحرم
العلوم
المبارك
الادب
تعداد
بها،
ثوب
##خلف
حقوق
الجمهور
الكا
التى
سبعة
واكثر
محمدا
عني
تكلم
ومما
##ايية
والنسايي
طاهر
للان
##روض
لولا
صرح
معي
ضمان
القيام
الاقل
جس
ترد
شعيب
يوا
انش
حضر
حياة
شا
ثمن
فاج
فكل
النع
والاح
ارى
ظهور
المطل
الرد
صدقة
وسط
زين
مكر
##قاب
اخيه
باطل
الايمة
فاص
المقت
##ايها
ربي
##صلح
شمال
##ضرة
##بهة
ورج
لر
##به،
##حول
سنوات
يضمن
عاق
جامع
قس
رحمة
واخبر
وعدم
الاشع
وجدت
##ىء
اليه،
النووي
تذكر
يشاء
طايفة
الاتحاد
الحاجة
ادعى
النظام
لاجل
##قلة
باح
برق
الخز
عتق
##نيسة
اطلاق
ينزل
##سع
##هنا
ساعة
لف
هما
والار
##واعد
تخرج
جما
اى
##خاص
##معي
نقله
وكيع
اصحابنا
طعام
قصر
وتق
الجزء
مختلفة
يمين
عقبة
الموجود
اصلا
بالل
مي
##لامه
##تا
الجهاد
تمام
قضى
يبقى
وفتح
الكبرى
ظاه
##الته
اخره
يطلق
افراد
##زلت
الاشت
الته
##زيد
المبا
التوبة
لبعض
المطلب
قبلها
فاح
##يمون
نحوه
تام
##ده،
مم
الوار
ادى
القايل
فغ
##وبر
والاج
ببعض
##صلحة
النصف
##فعله
##ياسية
##الات
##طات
##رحلة
يروى
والمت
شرب
يعيش
وقعت
شمس
السك
الامريكية
الذك
المصري
ناس
##صاص
ضعف
الاض
محر
##ت،
القدي
##رين
عامة
##دة،
لعل
الراي
حركة
وكيف
التيم
تما
علمه
##وره
لدى
فهذه
علماء
وحديث
راه
نك
الناس،
يحكم
مالا
باج
##خب
باد
##سون
العسكر
يودي
##مييز
يلت
ومس
تعمل
الريا
نح
الذهبي
الخامس
الملا
زكر
يشهد
##سى
وتوفي
عاما،
نسمة
نوا
فاني
##زوم
##ليين
والسنة
النهاية
##فرة
والجمع
ابل
##جلت
ربما
الجملة
اشارة
قريب
فرد
مهر
##بن
اوله
المغيرة
##براط
##ليس
##يتم
فام
##طلح
سفر
##برت
لمع
دخول
##ناعة
يقطع
تقديم
##ركه
##راجع
انبانا
انح
كمال
اريد
الاور
ووا
الصاد
يسلم
الجبل
العدو
العامل
ترا
##سات
فقام
ومعنى
يصلح
##ايط
##شاف
عمار
اللغ
القانون
##حرير
تاس
موج
فارس
سه
##سطة
##خال
جواب
بقدر
سنين
فرج
##خذه
هن
الشعبي
الارا
واعلم
انتم
يخل
علما
ويمكن
لحم
الاحد
فانهم
##وليك
فاط
السع
##نامج
اربعين
فيج
يطلب
الجاهلية
الجميع
عكرمة
سوا
فانما
امراته
تنت
الاسرة
اخذه
##وضة
الدليل
عمله
نوف
حقا
الثوب
غسل
تقبل
هاشم
##زين
مجموع
ولده
اصله
وقتل
بنسبة
الروح
معها
الدخول
##ونية
اللسان
الكث
الوقف
##غيير
ظلم
ذكرت
مرفوعا
خلافا
##فقة
تعرض
يعلى
السكانية
الواق
##خيص
منز
وعلم
##ريمة
زال
غالبا
قيام
اجاز
يسقط
الاعلام
##روح
##جرد
تحقيق
الميم
الواقع
النسب
السنن
##داية
وعمل
للغ
كره
هلال
الامم
##بيرا
##ابا
الحالة
والحديث
##ذاك
ابتداء
##خرة
الرجوع
مقص
الحمل
غريب
يزل
يضرب
ويش
وقوع
قاد
تقي
كلما
رسوله
العالمين
ويحتمل
##قها
الفترة
##احية
الفاس
##نيف
اللبن
##روفة
##عدا
اثار
نط
فاف
الحدود
##خصيص
سبي
البناء
مرد
احوال
يقدم
محرم
باعتبار
كاس
عرفة
التوحيد
بالاس
##صلي
اسامة
##هود
الامريكيين
قومه
##يغة
الخروج
الانف
طويل
حما
فز
##وكل
سكن
##بك
##روس
باط
تحمل
موضوع
##ادل
دينه
البريط
التفسير
كامل
##فاف
واشت
اتخذ
عطف
الدية
عشرين
والاص
##اعات
اقبل
المكت
##بايل
يستحق
احق
وعلي
##سلة
وحم
للخ
##صيل
اياه
يختلف
خلقه
##نها
لهذه
##يسر
يرفع
نها
اتفاق
##تني
##قطة
يث
اخي
حديثا
ارج
تبين
##غار
ورجل
الكوفي
القلوب
##بدل
وثلاثين
ربيع
##ليب
العلاء
المادة
رضى
الوطن
نصب
الخيار
اصول
##وزع
وكانوا
نهر
الاموال
فاجاب
يامر
جر
بعضه
التعليم
تصح
القوات
اسباب
بنفس
##دادي
العرش
المثال
الاخير
##دوا
##واري
العهد
سوء
##ذاء
والاربعة
بالمدينة
العشر
حذف
دينا
جرى
سلطان
زكاة
صال
##عاء
والاخر
اصح
ينفع
بينة
يدفع
##ويلة
الخيل
يزال
##اربة
##متع
اظ
اشترى
##تهاد
يلق
الراء
يستطيع
##زو
##اطب
##طعام
##نو
يرض
والض
بيته
المذكورة
قدره
##وحة
مناف
العبادة
الصواب
القديم
غالب
الجوه
النسخ
زهير
فقل
مقابل
اثبت
هج
##بغ
ترجمة
النح
نجد
والمش
المرا
طالق
وسكون
احدها
فايدة
##ليت
##خلوق
##ودية
يعتقد
الخال
جهن
##زاب
الوسط
ماذا
القضا
اعادة
ني
متفق
وزاد
##لاص
##امي
##رقي
النون
الصفة
رش
كفروا
سبحان
##راهة
##يبه
الاسماء
استع
اقوال
الاربعة
الاط
الرسل
##عدل
الصحي
ذوي
المرو
الاثر
هلك
المفت
حظ
القتال
يدعو
قلوبهم
نار
الوجود
يصير
بالحق
الريح
دولة
اسمع
الفرد
يذهب
بدلا
الوح
الصدقة
##فذ
##لط
##بيض
الحركة
شكل
التم
خش
ووجه
اقرا
الرهن
سنن
خرجت
قياس
فاخبر
##وريا
##واية
العدل
الصوت
العالمية
حسان
##سته
نوح
##ني،
الفرس
زكريا
التركيب
القدرة
##شري
النور
محد
يترك
##تهي
طا
##زه
##مية
الصورة
##جلد
##ذج
##لبس
عرق
القبر
الضمير
##حاك
المهملة
الكس
عبده
والترمذي
العدد
##راسات
##بدو
##روق
بول
ناد
عدا
شدة
اثنين
بشرط
الشريعة
المبيع
متعد
احي
##بحث
يخفى
السود
##عتبر
الطبري
الامن
بذ
##نبي
الحديد
##زار
جال
الاصح
رافع
تميم
بكم
تغير
الرازي
فرعون
بحق
فاعل
##ع،
بامر
ناق
القبض
تمر
##ثنى
ابواب
الطويل
منس
الصحة
تعتبر
ومثله
صلاح
فالا
المنافق
انكر
المصدر
الهمزة
البصرة
##اعد
##ر،
النخ
ركعتين
##رجمة
الهج
الصبح
مركز
الوهاب
##ولية
خيار
الفي
مليون
المختلف
عدل
##فيذ
##عوا
النز
يضر
حاز
##فاعل
الخطا
حدود
تدل
سوال
تلف
##ولت
قانون
القطع
نسخ
والثالث
لحق
خروج
هذا،
تدخل
السكن
القاطنين
بدات
الكوفة
التخ
بواسطة
حكمه
والاب
مخال
##واة
منص
الابت
جهنم
الطبراني
الخطيب
##تة
بانها
السماوات
الفقيه
وعشرون
بالضم
##كه
##واق
اتباع
ومت
الشارح
انثى
زوجته
ومثل
عنك
##مامة
ونس
يقصد
حكيم
##ونهم
انهما
##ضيف
فط
طريقة
لات
الزم
الصفات
##شرق
كذ
##سد
القيمة
##وي،
##الها
فيقال
الصحيحين
تبارك
الينا
##وه،
بسم
##ورث
الباقي
كبر
فيها،
القاهرة
صرف
##افظة
##وم،
وعلا
الصبي
##الد
##ريضة
بو
كام
العص
بالث
البحث
بالكسر
العدة
الداخل
البيض
المحل
الوصية
الاكبر
##اند
بداية
الماضي
مار
التل
الصيد
غدا
بسن
الغير
##هى
اخو
ويك
واقام
يشبه
##ابلة
##نسا
فانا
بالز
الفض
غر
القمر
اضافة
الكامل
##ادم
غيرهم
جعله
##دح
الشركة
برا
##اتهم
يموت
القبلة
##ريل
لاهل
ابنا
فعليه
##ينيذ
وجهان
ناحية
سيما
##وية،
رسم
##عداد
واصحابه
##بها
قتيبة
وذكره
اختيار
##قطاع
عقيل
##احل
##وهر
ففيه
الجوهري
تحريم
العض
فكانت
طلاق
نشا
توجد
السين
الشريف
موقع
بعيد
ولانه
سماع
##ضاع
شاهد
ورق
الغالب
خليفة
الكه
يبق
اورو
فيك
الضع
##ياط
##انها
علة
حرا
بدليل
قاضي
##خصص
سيب
الرحم
جار
وحدثنا
درج
##ثي
##همة
الاله
وحسن
وصار
الفرض
للف
شرف
فين
اهد
باص
سهم
وعب
مجرد
انشد
النعمان
##درس
البغدادي
يتكلم
##صرة
السادس
يكفي
##غط
العيد
بعضا
وماية
سيده
يجري
##مني
##طراب
##سف
##راقي
##غال
وقالت
بقول
عليا
##هاز
اللج
عبدا
الفرج
ذكرها
ادخل
بالفتح
كع
اللق
##فاعة
القدم
يروي
باذن
بمثل
مسايل
حسنة
الاصمعي
القصاص
والده
فكذلك
مشروع
##ارى
##ناول
لبس
فوا
وحدة
##يتي
نصيب
الطرف
ذه
حلب
##دار
نوى
##ربت
المملكة
الغرب
يضع
قبر
لغيره
السايل
الكلمة
جنوب
##دها
وبد
اتبع
##لفة
المرء
##اهدة
جهل
صوم
الاقتصاد
##روي
الاطفال
بابن
الجسم
وكما
الفاعل
معلوم
واصل
فدخل
##جت
ومح
المناطق
##نوا
الهيث
الاتي
منكر
الجم
##علوم
القرية
الصور
تقري
##فوا
يبين
كثرة
وبالت
المنكر
##زى
الهوى
##مرت
القوة
سار
الكتابة
شرك
افريق
جارية
ريح
الجماع
اشهد
##ود،
بالاج
##تهد
نفسك
نسخة
عشر،
عط
الذكور
متعلق
اللحم
الاكل
##ناية
اقامة
والبيهقي
الاخيرة
الكعبة
الوكيل
والبا
السير
وكم
الضمان
مجهول
طاعة
صغير
تبلغ
اعضاء
واك
سك
المقام
الباء
##كم،
مجاز
العتق
وتج
مثلها
##باء
حياته
موته
عصر
الدعوة
تسمى
عمير
والمس
الفراء
الاذن
والنا
قيمته
لاج
##ياش
اشياء
الحنف
الرش
فذلك
يرج
نساء
مذ
##فلة
صغيرة
الاختلاف
سبت
##عها
لزم
امكن
##ناهم
الاثار
نفع
التقل
استق
التاسع
##جح
وهناك
العلة
الشباب
النخل
الشديد
واربعين
وكسر
القصر
##اض
##كرر
قضا
الصديق
##رحمن
خر
الفريق
السموات
تاثير
##ثيل
##طفى
##ورت
اعتبار
##مه،
البار
روس
شرق
الاشارة
##عان
##صم
بلى
ويب
حاله
مارس
##شق
بيوت
المغني
ربهم
جمال
نتيجة
قاي
كي
سرا
##ولات
##هج
تحدث
##قسم
ومج
##كندر
كافر
م،
الكمال
##يات،
والاد
المحدث
اجتماع
السعود
صفات
مرس
##ثار
عطية
ثمانية
للام
الغسل
بلغت
الملوك
تعلق
يوخذ
المحر
سع
الاسلامي
عجز
ودخل
احدهم
الفطر
بالط
##غض
كبيرا
الخوف
وصلى
ادري
##بوع
سجد
عذ
##دلال
##خط
قيد
##سفة
##ولاد
وانظر
##زاز
##ملوك
تقت
مواضع
##ادث
واني
بينها
ربكم
كشف
العادة
##اغ
استحق
الانعام
##مانية
ربع
فاطمة
النصر
عايلة
المهاجر
قيا
الظن
اثنتين
كقول
بمس
للاست
الرياض
الثقات
##ماه
القيم
محذوف
وخمسين
المدني
الانس
يمينه
فضلا
##فسخ
تصرف
وسل
##لزم
بض
##فف
##رتيب
التصرف
ابنة
دلالة
جديدة
بمصر
المالك
النية
ثق
قدي
##وة،
يسب
زايدة
الرم
البط
وحكم
دونه
##ارم
احداهما
##زت
والمح
##فرض
##اقب
##وزاعي
المركز
شق
التهذيب
الهجرة
الحيض
ونقل
الوجوب
ضم
المسا
تفعل
رغ
##صه
طيب
##راها
كلم
##ساكر
##وون
كثر
الوع
##مهورية
اردت
الخلف
برد
بسر
طبع
باخ
مطل
##ح،
##ولوا
كفارة
خوف
المحيط
الطرق
وتقدم
احدث
خزيمة
##الهم
واراد
مجتمع
انبا
قريبا
نعلم
المطر
خذ
##ايج
المي
##وكم
##نث
قدمت
##صاف
المتقدم
الحض
دول
الحص
##حوا
الاجل
##بي،
ناف
##عقد
السابقة
عقب
فانك
جان
فريق
الامبراط
تحل
##ناق
عفان
##جاه
يسار
هند
بالام
زرعة
حف
الوطني
حذيفة
خطب
##ايخ
قايمة
لاي
يمس
يكت
المريض
##رتها
اجزاء
تريد
##عات
النوم
انشاء
السمع
الكذب
اداء
يبيع
وابا
##اكيد
ديوان
##عية
تظهر
##واني
الكون
كانا
كه
##ختلاف
اسلام
##فاض
السيف
فرغ
ولعل
المفس
المدة
ليلى
##لبية
الستة
عمه
ابناء
غض
المسي
فعلت
للسكان
فمات
مناس
القديمة
قايما
ميل
سيرين
رسالة
الوارث
وقبل
واقت
شرا
##شم
##رن
الخي
##ول،
الشرعية
يراد
##فون
تصل
قايم
الشافع
##راء،
وسب
جيش
شم
فلانا
يولي
يعبد
ثبوت
##كلة
مفعول
الجوز
##انيين
المولى
واذ
مام
##بتها
وحكى
العلامة
مظ
بالمعروف
##ورك
قبول
شري
الموضوع
##كتور
حزم
##ز،
مباشرة
##جهة
خرا
لزمه
##شتري
تركه
كمن
لست
##ضيق
##راث
##فير
##بيعي
لاص
فقتل
##علقة
قض
يسير
الخش
وقدم
ركعة
المعرفة
مضم
واربع
عاش
عرفت
##جن
النهر
المساجد
واغ
##راير
##ازي
الخليل
##غداد
والوا
البينة
لقول
ليكون
##لي،
والمغ
يبطل
اقوى
##وجوب
وفقا
دام
صحيحه
روية
ومعه
الحضر
##طاعة
تض
لكونه
يستخدم
تنبيه
ديس
##فية
##ذور
والمست
##سيم
شاة
دايما
والشر
السابع
نية
بذكر
الربا
اسما
##جان
النبات
ثان
المعجمة
##يتان
بالمس
البلا
يتبع
خالف
ثلاثين
الاناث
صن
##اعا
##نة،
كلاهما
للط
مجمع
##كما
ذكرناه
الخوا
وعدد
والاش
والعمل
##زر
نعمة
##ومية
الجزا
عباده
فية
الجوا
تمكن
##حتها
##اوز
وتص
نظرا
الفار
فوجد
الاحوال
سياتي
##خله
الامان
منزل
##ابق
##خلت
اكتوبر
وخل
المخت
وسبعين
التوراة
اخراج
هذين
شب
صب
محدث
الجبال
##وانين
يخاف
اخذت
عتبة
مسلمة
رزق
##كاف
دراسة
##ذبح
الاخذ
لمدة
المقدس
##ذاهب
بعدما
وهى
##ويات
##قيب
السا
##جات
قوما
##اصي
حبس
##يراث
فكتب
الظالم
##حكم
التراب
وكتاب
وفاة
يشير
انكم
المعد
الاندل
القيس
وذهب
ووضع
##رضا
ممت
الخليفة
واضح
كش
الحنفية
المسل
فالت
المقر
عظم
واز
ابان
وتد
تجعل
يفهم
ولن
حلق
خصوص
جعلت
##تها،
##فساد
##اصب
والحسن
العج
مستوى
القطان
المنع
الحدث
احيانا
القصة
##شير
وستين
التر
##تهى
السورة
##لمي
السجود
قولا
اور
العليا
المختار
وسيل
النوا
يعلمون
مناز
##ثق
##رايض
المصرية
مراد
سيبويه
عون
الدور
##فاوت
##نهي
ثانيا
الاسباب
جزءا
سوف
##عدد
قايل
##خم
بعين
ويو
##ش،
امين
الشك
وتوزع
##راعة
بالاست
المسايل
علا
ادارة
ضرورة
عسكر
والظاهر
المظ
سطح
جيت
فاي
##سطين
الارد
سميت
مبتدا
ينكر
قضية
##ظا
المياه
##مشقي
##لاة،
##كات
##كاية
ولدت
الحميد
راجع
طويلة
الدر
كتابا
الجانب
صدوق
##ماس
امتي
مايو
التمر
عس
فاخرج
التقدير
الاحرام
يعط
##فور
##شه
##جاوز
اطفال
فتنة
الود
لاع
##ورخ
الحكمة
بلال
##نده
استعمال
عياش
التجارة
جيد
##وادث
وتك
وتسعين
تعيش
واسع
اتفق
تستخدم
دعاء
الطاقة
عياض
العشاء
مخلوق
الاصحاب
هات
الجه
وايا
##ناف
ريا
##عاة
##يدية
اواخر
##فيع
شج
سد
##يساب
الاقرار
##حرك
سلف
الاسراييل
الاذان
حزب
المنصور
الوطنية
##قار
يدرك
بحديث
الغربية
مخرج
##يبا
وبهذا
تدع
وعاد
الانجلي
كيل
الجار
قولان
الباطل
##علها
وعز
##بالغة
انتاج
##يزان
الازهري
##حك
اسناد
##قرا
العاق
##صاب
يلحق
الزا
العلا
راب
جزاء
الجزيرة
ههنا
اخوان
المعلومات
الاطلاق
النضر
الزنا
حلال
يخالف
##ونيو
الوصول
الذمة
والاول
##انس
حبي
فصلى
الوصف
الاسلام،
ببغداد
ومايتين
النبى
الاحمر
احتمال
واط
الصبر
الاجماع
وانها
يفيد
شرعا
الكلب
##حان
##خوذ
والعشرون
مرتين
##ذار
يمر
استغ
##خروج
##منة
العوا
##وقت
الدمشقي
الدين،
##نبيه
ووقع
##ارضة
##قيت
سبتمبر
بينا
والاف
يقضي
مسند
##وهن
##ورها
ايضا،
اليا
الزمن
وتخ
##بون
رفض
##فاد
وليست
الزوجة
الادلة
كار
يكونوا
##وسى
##لوب
ماجة
بطريق
خمسين
المخلوق
النقل
جند
يكفر
الطي
الفات
تقد
##فاية
وقام
تسا
##طبي
المايدة
بشير
الفساد
مقدار
وحتى
واليه
عجل
##ميس
##يفا
اوروبا
وصححه
تجوز
اوس
الفرا
اوت
الاجتماعية
##وجيه
الطريقة
الفقر
تسمع
منها،
ثور
وايل
الذات
وسياتي
يناير
امثال
افعل
يهد
للر
والتع
##درك
اوايل
غلام
فساد
والحاكم
البن
عذر
كانها
خار
النبوة
##سكري
##ضرورة
##ولهم
مقا
الحنفي
الدال
##لين
يحلف
عمارة
##عده
##طت
المتوفى
الفية
الحديث،
عكس
فيجب
شروط
الضحاك
وساير
فيا
المعاني
المطلق
##ساير
الهدى
##لاوة
الجديدة
##حاوي
##حها
الليلة
زي
غلب
مثال
عه
النصارى
ظهرت
لعبد
ودفن
للمسلم
الركوع
ملكا
عليها،
الموج
##يعة
ارتفاع
حسنا
##طوف
يعطي
وفاته
قاتل
مشهور
السوق
##وعه
امامة
الهاء
مفر
يحسن
##قدام
الرضا
العراقي
باستخدام
صفوان
قي
يصدق
وسبع
بمر
يعنى
الشاهد
لاخ
سنة،
##وابه
فانزل
شعره
اجد
ولفظ
عندك
ايمة
فاعت
شهاد
##هو
عالما
والبر
##ادية
عينه
##لالة
الرسالة
##وول
##راته
واقعة
دعوى
حز
انتقل
التاء
البال
##ادات
##رات،
حافظ
يبت
هام
بقاء
الجمل
الثان
شجرة
##جال
مخالف
خليل
مدرسة
عقل
العلاج
جزيرة
خاف
##تماعي
صارت
ابوه
##هرة
ابريل
ويوم
الفاء
بيننا
بمت
مكتب
تقرير
مشي
تبر
الاوسط
الولي
ديسمبر
الكاف
##ضيع
يصف
راك
وثمانين
اتيت
##وسع
تضمن
##صوص
وعم
ادريس
##ط،
حدوث
الامت
الكاتب
##لمان
الاجر
جايزة
العظم
نفسه،
##قتها
بثلاث
حامد
##تمام
الناصر
الكلي
##وفق
سوق
ذبح
الاجارة
العلمية
##قله
اليون
##ثور
قم
القرا
مون
##وصل
##قاق
جنب
وانتم
تاتي
الصيام
حصين
القرشي
##اوي
يعرض
انى
هيية
نوفمبر
المهر
رجب
الصلح
بعينه
الازواج
يبعث
موص
وجهين
مفهوم
لقي
العرض
امرهم
##تهر
##يرة،
##ضايل
##وس،
اشكال
مكانه
##راءات
تحديد
ونظ
والناس
النفي
المثنى
##شرع
الثامن
##لو
##ايم
باحد
المختلفة
التحريم
ويحيى
البعير
المشي
اعرف
وكنت
ضمير
المشار
##افا
##بيل
المومنون
الصحيحة
حازم
##لوا
اغسط
سود
فاش
##وسا
##يتهم
##قم
عملا
حساب
##ل،
##ج،
السياسية
غن
ويروى
المجاز
##وردي
عبدالرحمن
الدرد
##ايض
لعمر
زم
شعبان
لتح
يفرق
الهواء
وحا
الاعراب
الوضع
الطهارة
##ورهم
الاستع
##روه
##اهم
##لايل
بالفعل
##زيل
علقمة
##ايص
صحيحة
يخت
البك
وادي
بحكم
الواحدة
محب
الصدر
صالحا
نم
مرك
ولذا
الزجاج
##خاذ
حكى
القن
فذكره
ويجب
واول
الباري
##مي،
الاحزاب
القرب
##بث
المواد
اهلك
ذن
وامت
النفقة
بوجه
ونحوها
يشعر
##ضاه
الشيب
##ريبة
##ماية،
التنا
العشرين
مصعب
ثعلبة
صنف
محمد،
اورد
اعطى
اوصى
ركب
كالت
الوحد
كسر
##صبح
واحد،
الغربي
##حون
معينة
جاه
وظاهر
انصرف
نذر
##ونات
والشافعي
مسلما
المنزل
بعدم
اند
قوا
النجوم
##قيقي
جري
السد
الراه
الهل
يونيو
##بيعية
الطلب
الحقوق
نخ
الدولي
نست
##بروا
وفق
عوض
بدين
اعاد
شيوخ
##ركان
##رتب
##امين
##عاون
الجنوب
الاثنين
عمر،
سببا
الافراد
اجاب
اختار
##جارة
##ومنين
##قاضي
الروايات
##لها،
لامر
وبالتالي
ايجاب
استطاع
الهداية
فلذلك
قولك
قطعا
اليم
مذك
وارت
يحفظ
فرقة
##ياطين
##ودع
المفعول
تتبع
مقدم
مان
نايب
النجم
الابن
##تهاء
الحزب
فضيلة
للنبي
الحروف
كلية
لرسول
جي
مسح
##حيي
##يمه
قوات
الدينية
والصلاة
والمج
حيان
##لاط
البول
ابلغ
الغز
سبعين
وحق
الاهل
كونها
الصلاح
صع
##دب
كاب
النق
##داة
توجه
المدعي
طر
حكاه
##ملت
يعتق
الاراضي
والاصل
القرى
يوليو
الضرب
ره
فتكون
اغت
جون
الثابت
تقريبا
الاوق
جلس
رده
ناصر
الارض،
##رال
لرجل
الخدري
الشارع
##جين
فسر
ايديهم
يجتمع
##رامج
ومالك
بتح
والمنا
متن
ففعل
والحق
لث
المدرسة
العرف
##سر،
عمن
ولها
وتكون
جمادى
ايدي
الاوزاعي
تفرد
اسود
البصر
##راحة
ثاني
امكان
كتبه
كتبت
##وفيق
الدولية
فكانه
##هرا
تتم
الكفارة
اليهودية
##قاطعة
قاعدة
ويقولون
##متها
حارث
اعلام
والصواب
تسعة
المكي
##بارا
المجال
##سايل
فرنسا
ادنى
تبعا
واربعون
##فيل
الكنيسة
فقوله
عمره
دراهم
المقري
##كد
الذنوب
التغ
##كث
طاع
##ياته
القضاة
ورث
##وبات
##موذج
##فعي
##لون
حالا
##ليك
ضرر
##صت
السعودية
الصغيرة
الزواج
الحجاز
##ذير
##بز
قرات
لحديث
اذهب
##ردد
يوثر
##تكم
تسليم
والذ
تجمع
بمجرد
الاو
الفروع
يمن
لذا
عموم
النحو
##ضه
لاول
سلسلة
##فسر
الصلاة،
##وطة
حري
واسم
الفكر
الافعال
اعني
غزوة
تاج
الوزير
ولكنها
والقول
وحر
ظاهرة
سقوط
يخلق
الذا
اوجه
والدار
القليل
اللجنة
عمرة
اذكر
بخط
فسخ
قلا
وطي
عاب
فارسل
الطاعة
اقسام
ومد
سواه
برج
مسي
ملت
تاخذ
كبار
الدابة
##يلان
اغسطس
يحد
بره
برنامج
##شك
الانتق
الاعراف
##ويلا
ينسب
العسكرية
قدرة
الاخلاق
خلفه
مقر
##صدر
معشر
##لفه
##فصيل
مطر
##فصل
رجاء
ملوك
الجراح
ظاهره
##طبق
##ربوا
##مرار
اثنان
ثقات
سبا
برقم
هز
خان
فنزل
العموم
المعا
جزي
خفي
صفر
الجمال
الفلك
البير
##موا
##عته
##نيه
ارايت
افتت
كري
##لول
اوجب
بالاع
البح
قبيل
صغ
وبقي
##افات
للز
شوال
رغم
##بارات
بيعه
ويخ
##هما،
دعوة
##دا،
نادي
اليت
الاشخاص
الصفحة
المسمى
الفرع
مانع
##وكيل
القط
المستقبل
الصلوات
لوا
##نق
كاتب
القادر
غيره،
وتا
عظيمة
يختص
حصول
سنان
قبيلة
توق
متع
##ضيه
حكومة
تعليق
عيد
بقل
اصط
الواس
##اليف
تعود
##سيط
الامراء
وسعيد
الشجر
ميمون
تثبت
##جور
الثياب
منظمة
دية
نفقة
وخلق
##عتها
##ديعة
المسند
النصوص
الصباح
مرحلة
وحمل
القاف
ونص
وتقول
يفر
صحيحا
والصحيح
الفلسط
نطاق
سلمان
##اوى
يومنون
الكت
كرا
الاعضاء
الشعراء
وزارة
انحاء
##بطة
مري
اخرى،
البدن
حرج
الاستثناء
ميس
يبدا
فقت
وجوده
قلبي
تختلف
جذ
الطواف
الجلد
تبا
الموقع
الضل
المقا
وبي
ساك
يصيب
الحول
والتح
معهم،
الناقة
##خابات
عدو
تشت
تث
هاه
المجر
يغفر
##مون
كب
الكثافة
ترجع
##ويم
ورفع
يحنث
##سله
كح
الوجوه
ايت
وزن
حوا
تسم
##ماغ
لاس
برك
##يرها
باسناد
اعم
فاض
احياء
##وزن
فسمع
##بابة
كيفية
معك
ولولا
##يب،
التوا
تهد
ياء
##روك
##شديد
المعتمد
تجري
##واكب
كريم
ينقص
##هاج
الحفاظ
بيروت
##فهام
باله
الشافعية
لنفس
المعيش
الكبيرة
غفر
صريح
##ليج
##هزة
المنبر
الرييسية
لقب
رز
الطفل
تاكل
##ولوجيا
جور
الدفاع
بكتاب
الالفاظ
مهدي
خيبر
كات
اسر
المطلوب
##يمي
زوجة
افعال
السياسي
ذنب
نفر
شاعر
تملك
شار
فدل
المسلمين،
حجاج
ولت
العالية
العال
السبت
نقد
##عث
الافت
نو
المحا
العملية
قن
الدرداء
السبع
ومنا
وطلب
الشرقية
##هورة
الهيثم
يشرب
وجماعة
بدمشق
زع
يظن
قادر
##ويج
##لاما
##وفية
##خان
رات
##شون
البلدان
غد
##فال
##ديب
الغنم
حكما
التب
##خشري
##البة
بالناس
الهي
القوا
##فات
فبراير
عضو
مدى
يحتج
يتخذ
يمكنه
فيس
التالي
باشا
مرج
الجر
بالقرب
الديم
خا
##فوظ
تغيير
السايب
يصنع
منظ
الكلا
الصحاح
متر
المدونة
الوطء
علامة
ذاته
بمح
تولى
الابيض
غرب
وبلغت
الابد
##حات
وبعث
الشرعي
جمل
الاخوة
المهدي
جمهور
##الج
حيات
##مارة
##لاحظ
السبيل
##صرح
عوا
سين
##وانة
موم
##بور
تعريف
تلا
الارت
وتب
##ايز
رضا
الالم
السلمي
مجرى
##كير
علاقة
الفتنة
بالماء
تات
##ولاء
الجرح
الغر
يسجد
طهر
دريد
جوز
##وتي
واحتج
الجهل
##حين
الظلم
القاعدة
الاشعري
الصغ
##ارات
لا،
الروس
يود
تزال
الجبار
منى
فبعث
##فيد
فيع
##حيان
وافق
الولاية
خطاب
المسح
وملك
مناطق
الجزاير
معرف
فاخ
يجلس
##ستر
تحد
##فقا
سرق
رايته
ومعناه
يهود
الرحمة
نبات
ثواب
العش
يقسم
وابراهيم
النفوس
محله
ويه
المرك
الطل
الاسكندر
##فارقة
مجلة
المرسل
الكرم
عمي
التاويل
##نانير
وانهم
شارك
شهدت
قار
هبة
اولياء
التابعين
##اذن
صحبة
رفعه
الروضة
فذهب
##رية
شريح
المم
ومش
الجارية
يدعى
##ماح
##ووا
بحث
تاويل
والمد
تاخير
##ذري
الاول،
لبي
فيلم
وعرف
##عليم
الدست
مادة
##ندق
##فرقة
المتكلم
الشيعة
غضب
فاز
لكي
الاقوال
##وقة
الوحدات
حوله
السحر
حصلت
المدن
عود
يستحب
ثقة،
للرجل
عرو
##ضيح
بكون
جرت
النها
ابيه،
قتال
ووق
النقص
سويد
حقيق
وهنا
طلوع
الحكيم
قاسم
##ف،
قرى
الشجرة
##ث،
##في،
##حمله
##تابعة
##بيين
##اقه
##الوا
##وزيع
لازم
يستعمل
المحم
كتابة
مسج
حمله
الحاضر
فوال
لعب
قاب
وزير
اسفل
وزعم
اير
الوحي
مرب
بجميع
##صاء
مهما
النحر
رووس
مقاتل
يمتنع
الفيلم
الترجمة
تضم
##ارا
باف
وسايل
##باير
وحينيذ
ونصف
##زوجها
يعتمد
نظير
عت
فرو
امريكا
الحلف
ثياب
الطير
ضبط
كاد
تعالى،
مقار
شيء،
##طور
الصمد
اباه
واصله
تيمية
السهم
يفعله
الاتصال
##غى
القبور
الغلام
لتع
والاربعون
معنا
العفو
##ونك
عندها
صاحبها
ربا
كثافة
##ظار
المشروع
واشار
الحساب
نظم
فيست
يصبح
المحي
##خصة
##ضاح
الضرر
بفعل
الاصابة
وصاحب
يرث
اختلفوا
##خف
ياب
يخلو
وحدثني
##مارس
ياس
المانيا
وضم
المتاخر
##ومي
تعبد
الواقعة
علي،
الطاي
##صفات
والعلم
الاوا
شديدا
##لاقات
نسبه
المجد
##ثنا
##تاء
النه
##جو
الورثة
والحمد
وعرض
مختل
تطلق
والات
##رجان
شجر
السلاح
لهن
بكير
وسن
التلف
##حاول
وحيد
امته
لديه
##معة
الحرف
فعلم
الاجتماعي
فاقام
##هان
جلال
لون
##اكل
##قدمة
اسحق
بقا
مستح
وفل
خلافة
الجنسي
##رجال
قرر
هدى
##شيم
يخبر
يقيم
بحال
ولهم
الدراسات
واصبح
احداث
التحقيق
الحصول
##ايه
زوال
##واك
انني
وقتها
موضعه
البشرية
##لتها
المهاجرين
صلات
##اموس
فاشت
لانهما
منح
الغيب
صي
امرنا
الخلافة
وهولاء
الحمام
عينا
مقدمة
ابعد
اقيم
الفرنسية
بنات
فهر
نزول
عليم
الثواب
امتنع
اعتبر
##يميا
##باعه
الفاتحة
تعيين
قوي
الشب
علوم
شانه
الثورة
يقر
النجاسة
ثانية
العشرة
يزعم
ودع
بابي
ارش
##داخل
##قن
وتف
الشمالية
الاداء
وفيما
وضعت
##طباء
واسحاق
##رنت
يقاتل
فليت
اشرف
ارق
للذين
العرقي
اولها
الاحداث
##جود
وعمرو
##قلال
الحوا
التعريف
لير
##يفاء
الوتر
الاتفاق
بمث
##قوم
مرسل
لابد
بالليل
تارة
##عير
الكلبي
يقرب
##ديك
حاليا
لها،
الفسخ
##شل
جناح
وجبت
ناج
فيد
يبدو
التعبير
##عداء
لفظه
الوسطى
يخص
اليكم
انفسكم
تطوير
مور
فلسطين
برب
مذه
##طنة
الزمخشري
خراسان
##سبه
الممت
داره
افريقيا
الاخرين
##يقى
النحل
ونزل
فنا
فدعا
##ولده
بور
يريدون
##يط
وسار
##عيان
ويعرف
واطلق
اموالهم
البروت
اجرة
الحرة
ذم
الفرقة
##دته
هاهنا
عيب
عمليات
الاستق
ارادة
الالت
الخطبة
فيجوز
واو
وبها
ورض
الزرع
والثانية
النقد
فف
سكت
##ذية
##راسة
ورحمة
اليقين
تصدق
المنافقين
الترتيب
البقاء
##عدى
للانسان
واللام
واسمه
الدكتور
جميل
الموجودة
وللم
اسال
الموطا
داع
##طاب
بنية
صلة
فوضع
الحيوانات
يشمل
ادراك
تشمل
##صوب
##امه
سجلت
وصلت
الروية
اخرون
شيب
معركة
السوفي
علاج
وعثمان
وشهد
##خلها
والرا
##عتق
يكنى
##عاب
وضوء
الكويت
الجامعة
القران،
العمرية
يعل
##رمى
ابطال
اربعا
وبن
حيوان
ريب
##ريان
منهن
##شاط
ديار
حرمة
عالية
والظ
صحاب
قطعة
الروض
فخر
الوسطي
منزلة
اتاه
الاسد
باه
الهذ
التعليق
لعم
اشتراط
##غو
حالات
رشد
ناي
البراء
الدوري
اهمية
##هلك
العمرة
مجل
تاليف
ليب
طرا
احتج
##ضار
والستون
فضيل
روايته
فرجع
راشد
##شارة
قصيدة
عذا
##همية
##عيين
يحضر
الاستاذ
##جى
العمال
##كبر
##براء
شبهة
مسك
فالج
يسكن
الفن
تقديره
لبن
فاتى
تحقق
المدعى
ويدل
لاحت
بلدة
بعدهم
##ماة
العز
##شرط
والفر
عمدا
الظل
همام
والعل
##كز
الربح
الفاظ
معاني
الاولين
المسيحية
درس
الوظ
الموق
فوجب
##صرا
##وارث
فيح
ابيض
##حاث
الافضل
##اعه
يمشي
حارثة
بانهم
وردت
الدعوى
تسمية
لال
نرى
والامر
الاساسية
##نوي
نبيه
وبما
ازالة
##هدى
شريك،
المدا
وقطع
عامل
فعلا
ارتفع
##ذم
يقف
شراء
التمييز
التميم
الغرض
القبول
تماما
يتضمن
فنقول
الجيم
تطبي
##ادا
تفت
غاي
مقيمة
تبطل
فقط،
وينبغي
جلد
##نيع
تخصيص
المعاد
طبقات
الرييسي
اجعل
الرفع
للنس
متعددة
فيكم
لعام
صيد
غاب
##ديان
التالية
التيمم
##لقى
واحسن
النسبة
ولنا
فسال
##صبحت
والوجه
والجواب
القدس
وكلا
الحديثة
موجودة
##شرت
تفسيره
يدعون
قايلا
##غان
وتست
##اها
فرح
الاقامة
زالت
الغد
##فها
الرشيد
قبي
اليهودي
الاحياء
اعين
العنب
الهدي
سمعه
##وست
المخط
العسكري
الحاجب
طه
اتم
لانت
بالاح
استط
البريطانية
جزم
المبت
الطالب
##عال
السكنية
##وكب
التركيبة
الجواز
سام
##ورى
السكر
ينقل
للاس
المسافر
المنك
والفرق
العلل
##باي
فخذ
ورجع
المجموعة
##قتال
السلطة
المهل
المشرق
يدعي
تنظيم
المكاتب
##رب،
##فاه
سور
ومست
والشيخ
المحب
ترتيب
واشهد
يعقل
بقيت
الشكل
##الله
اعطي
ابليس
ودعا
اثم
البحرية
شهرا
##جاة
سلك
##يسي
##يدة،
مخالفة
مصطلح
ودفع
الخارجية
دابة
لعن
##غيب
##نار
##خدمة
فيل
التوفيق
تخل
الجزاء
##طها
اعتقد
عف
استعمل
ورك
القسمة
البغوي
وعندما
الماية
غنم
فعند
##ويض
الوك
المسيحي
نعم،
ينفق
##ضيا
##ساس
المدينة،
##افه
الوادي
فحدث
فلن
احر
فينب
الفقراء
والنهي
لجميع
المعروفة
فاق
جوف
##يناه
الكاث
كلامهم
خطر
فمر
الخلايا
منق
قواعد
فاقبل
اجراء
مخط
##صرت
درجات
اكرم
##نيت
##اءة
##دال
خدي
ماخوذ
المدارس
جبال
##اسب
مختصر
##وعية
المرتهن
صيام
الاحيان
##نيته
موقف
الموذن
تمن
زيدا
تركت
البداية
نقطة
لماذا
فانظر
عظيما
بالصلاة
نبينا
اخرين
وبذلك
##ندية
استد
##الجة
وقدر
يكاد
القصص
اخر،
##رجم
اننا
فوج
ينتفع
##برد
الشروط
اعوذ
بخمس
##ولو
منصب
ترجمته
##احبه
يجزي
الشرقي
بالوا
ولين
والتق
المعيشية
المتعلقة
##ثمانية
السحاب
تاسيس
##قدار
العثم
والدين
الحنا
المري
يعملون
وبعضهم
الحاء
للامام
فلك
##يارات
سابقا
اخبره
زرع
انطلق
تعليم
وقلت
صناعة
الحالات
ينافي
غلط
القصد
المكر
تشير
ورف
الميزان
الاثير
كاملة
والاخرة
ايق
فينا
فلق
اتي
الاعراض
زينب
##بتم
الراوي
الاجتهاد
وبل
لاحقا
##عفر
##قود
مولف
بدء
امنا
الكافرين
للمسلمين
لاحق
نن
الهبة
مساحة
البخ
الوث
الاصليين
يرون
مبني
ليد
الصالحين
مالي
العاب
##نتي
عددا
المعتزلة
الحلق
سمى
مصد
##يابة
اجز
انتهت
لى
##يدان
الرافعي
هدي
لوجود
والحر
الشخصية
طريقه
مبلغ
فضله
الازدي
##عدت
المرج
تمنع
صم
الخالق
##ظهار
اخرها
وقاص
قبره
باك
قراء
##ريقا
##ام،
الشا
ستين
فتن
لكنها
اخاه
الجزية
القايم
ناب
العظ
سيدنا
وحصل
بتق
ركن
جب
السلام،
واتق
الالكت
سمرة
وسم
ستر
##زما
اليدين
اقرار
##انيث
الاوروبي
قديم
العوام
القاتل
لرب
للاسر،
عليهم،
الاصبه
الموكل
##حش
##واص
والستون،
البعث
بيني
الثقفي
مشترك
##غبة
بدعة
لند
##قراط
لصاحب
المالية
المزني
الرعاية
سماه
ليث
فو
بشي
ثعلب
##اخ
الانواع
تامل
##الة،
تاخر
مخلد
هجر
للمراة
الحرارة
خدمة
قلة
وتر
##زله
##صفه
وها
يدا
نبت
##لتين
القراء
سابق
واسعة
التقريب
وجميع
نقض
السفينة
اجمعين
مجد
##جس
##يله
المول
اعلن
واليوم
يتصور
الخميس
الذنب
حاكم
مخصوص
نجم
هود
لقاء
##زون
معبد
ظاهرا
##ادة،
مبين
دما
##عبد
بعمل
##وقا
عساكر
ترب
باذ
اصيب
الجهة
بالتح
بكرة
عار
انعم
##ضد
##فيق
##رعى
مهمة
وزوج
الصناع
معصية
ماتت
##رافي
##رايب
العلم،
الشراء
وخمسماية
ابني
كد
المامون
##وايف
##ولاية
##زايد
كيس
تضع
##ذون
شباب
##رييس
##ادثة
بعل
الصرف
احمر
اعداد
الطبقة
لبنان
تالفت
##امى
بالقران
##ليط
يحر
ذكرا
فبين
نعت
الاسراء
دعم
تبقى
ساد
##ازة
التسليم
فول
بالمن
يتنا
القبايل
صلوات
والحكم
##خفض
اتحاد
تقرر
##سي،
معيلات
##يفية
المحلية
بالبيت
##ورة،
ذرا
خف
المعلم
الغضب
منتصف
ويز
مقب
الراهن
العت
معروفة
اللون
فوالله
ممل
حصن
##علان
ساي
فينبغي
تعا
##يرات
رحل
الارش
يقبض
وسواء
##بر،
امامه
حمد
بمتوسط
مصلحة
##رفا
تتعلق
ويتم
##عاما
##يوب
سافر
الانترنت
خوفا
الفرايض
الوفاء
##ودها
اقدم
##كمال
فكرة
قدمه
لاه
جرح
لبني
##اقا
شرحه
سقطت
##صيب
الحلال
معج
اسمها
تعلمون
تحصل
قطر
نظرية
يخطب
كافة
يلبس
كرم
##حلل
##طاه
##باحة
اصلاح
الصين
والتص
##ليظ
##ميص
مدين
الطبيعية
اجت
الوزراء
شييا،
##راده
القضية
##ثلث
##اهدين
واخبرنا
كسب
الميلاد
انفق
خام
لفت
##تابع
##وفير
المشترك
المرحلة
خصوصا
##شات
الغاية
النت
الشاة
البزار
البيوت
التيمي
نمير
خلافه
جماع
##طاة
##لحة
النخعي
بلغني
للصلاة
التقي
قات
الاجزاء
القاري
فالله
##مله
##نبية
قبضه
المديني
الظاهرة
##زير
ونع
الغايب
والنصارى
المفرد
للث
ويزيد
كراهة
رمى
##عديل
العايلة
الاعظم
##هولة
وابت
المطب
الجاهل
ضلال
فضرب
وجل،
الامبراطورية
طلقها
##ختيار
##ياسة
الاسدي
العبارة
الممكن
##خفيف
درهما
عنوان
بعن
##عا،
انشا
يدري
النعمة
بارض
يشتري
وخاصة
##طانيا
الداخلية
##جيب
##راهم
اعطاه
الزرك
سننه
##فك
الاير
وته
احل
وضرب
واقع
ينتظر
قايد
##ريش
عقوبة
ناز
##ناصر
عرب
##زوجة
تي
جام
موك
##بيث
تابع
الموصل
ولى
##خاب
يتق
مصر،
العود
الشريك
الدلالة
##وفر
فاذن
الحرير
ودين
مقابلة
يغلب
##نانة
اغلب
##ثرت
فيقولون
سكانها
يكذب
##اقات
اجماع
لجنة
ذهبت
تفر
بالات
هشيم
وثلاثماية
##عق
قليلة
يوكل
ماك
القعدة
القاموس
الواسطي
الاكت
حروف
الزناد
تنفيذ
البطن
##وجل
لاصحاب
يلب
قرن
المورخ
قتلت
تسقط
وحفظ
الجع
##ماليك
##مرا
الوقوف
سح
الركعة
بمال
حيض
الكريمة
مكروه
السوء
##جية
حرة
##كح
القولين
تشهد
##سلطان
##باغ
المنهج
توك
الطبيعي
##سند
##دف
فسلم
##حتاج
بترك
انكار
الارج
والحا
##شع
رسولا
لسانه
الصفا
مقتضى
الوجهين
ويوجد
##حوص
رجاله
وزيد
سهيل
نفوس
##ويين
والعد
وولد
الاجرة
حاشية
وتارة
الاستدلال
تصحيح
ثمر
الولاء
خيث
هاجر
شوا
السري
##ومين
النيل
مين
اضط
الاقتصادية
##نيين
فنزلت
اصغر
مسنده
مسب
اقسم
نام
مشرك
وصفه
جسم
فانطلق
المرف
##قان
اخطا
سري
##ليغ
بيتا
وشرح
تعين
##حيض
الملكية
##بيها
الشياطين
الاحسان
##فيض
ابرز
وكانه
وظهر
افلا
بانت
موال
البه
##لفت
يتمكن
حكاية
ومتى
يهدي
##عتم
حفظه
ولله
نصه
##مالي
الخوارج
حدثه
منفعة
ترض
الغني
بصورة
العصب
اخذها
اليمنى
بيانات
الكلمات
بسط
تول
القى
استخ
شديدة
بالحج
النظ
وامه
يشرك
بتلك
المنام
الغاصب
واحدة،
الهر
العيش
بزيادة
الشهود
والدليل
الخمسة
يكثر
يفسد
توس
قرار
كلب
اناس
بخير
يرف
##دعاء
صبر
داء
ويذكر
الرواة
بالمر
المروزي
طواف
والايمان
وحج
السادسة
فاراد
اعداء
وابنه
والعشرين
ماي
المصحف
بذلك،
يليق
شقيق
تمثل
اسرع
بالشام
توضا
الحرية
مبت
حرك
##قتضى
ورايت
طاي
عباس،
##قلت
حفر
صر
وفت
خبره
الطبيعة
عديدة
وعبارة
لار
وابى
##اهن
متق
شكر
اسس
مقل
المحد
وثبت
##باق
لدين
فالقول
سيدي
##وكة
##قق
##ران
يرب
بغيره
الحوادث
امس
##فهم
جوان
تحفة
##فلان
##بله
##شفى
اكمل
التشهد
##مر،
الموحدة
الجنوبية
صلي
##وسة
التجارية
ويعت
عوانة
القوى
وكثير
الغن
قرط
السابعة
باسناده
وسمعت
بيس
اضاف
منهم،
اكره
عارض
مباح
الباطن
##مشق،
الترا
##غني
##سانه
الخلفاء
الكهر
شاذ
المعلوم
المصاب
##ولين
تزيد
دنيا
غرض
مالك،
الفرنسي
رباح
معرو
تحول
مصنف
##وصية
##ادي
تحتوي
##دتهم
الدفع
استعم
الامراض
واجبة
بوجود
مرح
معدل
يشكل
##واهر
تشبه
بعيدا
منزله
ودا
##طوا
يعذب
ركعت
السور
##واتر
##يلاء
الكهف
##انف
الخدمة
تحتاج
##وتها
المضاف
##فعه
##صادي
وفد
##رادة
غيرهما
##بيد
للمع
الارث
الضوء
مقاطعة
##كاته
القي
والما
توقف
الشيوخ
##صرون
عملت
سمعته
واجاز
بيض
المحكمة
تسل
##يمم
الهادي
الربع
سلامة
الاختيار
##دو
صحت
اتقوا
والنهار
زر
حدثت
وفعل
هنالك
رجلين
الاولى،
اخلاق
عزل
صدي
صام
الاربع
بالذكر
الرياح
قديما
التميمي
اوج
كلمات
الاوقات
امرت
اخوه
الحقيقي
قدمنا
لديهم
بياض
معجم
دينهم
##قته
##فقته
دفن
دليلا
الطلاب
الجناية
والطبراني
بلوغ
##اه،
المعين
محافظة
انفا
وكلام
##اسن
باث
##ليله
نبه
##ساء
ضل
##قوط
للمت
شاب
والفق
وتط
قبايل
وكر
المالكية
فقرا
استمر
##راكز
##رامة
يتبين
اياها
اليسرى
الهيية
امل
باش
##ناط
##ياح
الدماغ
المحسن
تقتل
##يدها
الاعتبار
دوا
الهاش
الوال
##زول
الصدق
طوال
يبر
ضي
##كنت
البين
والمراة
الاصلي
بالاق
##غون
وقته
الجمعية
شمر
قيمتها
فاسد
قلعة
والو
البحرين
##شكل
هرم
الامين
وعق
بشار
صبي
سكر
كفار
واستدل
والنف
اظهار
وخص
صحته
ويص
##ناب
العالمي
وتشديد
والال
فمنهم
سلاح
هب
المنفعة
الكاثوليك
وياتي
##افل
شرطا
كرة
##قدرة
واختلفوا
محاولة
وصية
ظهره
##لاقا
معرض
فاك
بالدين
الاحتجاج
العيب
##ايشة
خطي
##غاء
ظفر
يتناول
الدوا
امي
مختلطين
صري
صيغة
يعرفون
الرزق
احرم
اطراف
الدنيا،
سواد
وفض
اللات
لاق
##حص
##يمن
يجيء
##تسل
يتوقف
##اصد
العلاقات
استدل
##واجه
اعراض
يمثل
انقطع
الامرين
##خلي
يسر
اذنه
الشري
يغير
الاسي
##ارة،
الاصط
وممن
بماء
##ربين
##نيات
الجغ
نض
ذمة
سان
##ابها
##ابط
نصيبه
لهم،
ووف
صليت
يراه
نجاح
يصوم
فالح
##يتك
وطل
لاد
البقر
الابتداء
الاصبهاني
ارم
ممكن
تصنيف
##قايد
الكندي
الماوردي
البريطاني
الشرطة
الركن
المشركون
##وتا
باقي
ووج
##ابقة
طعاما
تتضمن
الاندلس
اعتقاد
بكذا
بمثله
القرطبي
صوته
##ليما
مطب
الاستغ
محمول
استقر
الفارسي
بارك
عيني
منعه
الدراهم
##انهم
##كرون
الحضرمي
بصفة
الانتاج
عرقين
##حته
لانا
اقصى
##يقظ
بايع
بدي
ثيا
##روية
##قيقا
الدرجة
وثلث
صدره
يصلون
راوا
مية
اكله
بعنوان
##طعن
ازواج
يقوله
##رفت
##خه
##غيل
##ريته
دلت
يوافق
فضة
##طم
نسي
تستطيع
اللح
البيانات
رضوان
##طبة
التفصيل
فاكثر
بالاب
المتوسط
شخصية
##ثلا
##حة،
ومعلوم
الوكالة
بطولة
##ياع
يوذن
الباحث
عنقه
مفس
بلغه
التلخيص
عوضا
تعذر
الادمي
##تج
شبكة
الساق
المنظ
رجوع
ومنع
##يلون
تهذيب
وبع
شغل
وبنو
يضم
لمس
##وتهم
ويجعل
##همه
حملة
العبادات
الاعرج
الشوا
لذ
الجزي
كانما
بينكم
وصد
السنة،
ارادوا
##جابة
الصال
التشبيه
وانزل
الفقير
##ويس
##فيت
طويلا
عربي
لانك
موض
المسك
شد
باتفاق
الشفعة
##فسهم
متروك
للعمل
بنحو
امسك
لهيعة
##جمع
فرب
##حيوان
##غيث
ايران
وسي
بالكتاب
العثمانية
الجوزي
نهي
ومل
هاني
الصهي
ضعفه
عرش
##عاد
وافت
تجاه
البدل
التسمية
اعمالهم
موسسة
يتحقق
فتى
وبينه
العار
ببل
النسي
##اصيل
ميم
جنة
لتن
اكس
واجبا
قناة
السجن
فكر
للمست
كالح
اماما
فطر
##خاء
العقول
الشتاء
دايرة
واستمر
##يقات
طع
ويشت
##شابه
الازهر
اصابه
##زد
عنكم
مند
بالقاهرة
##واي
وكت
وانك
##مول
غم
##ياز
الحدي
##شيا
اتينا
البلدة
##عرض
الجنسية
ينقض
براس
الفلا
##حيته
كور
المعاصي
فراى
##هداء
تركها
العلمي
تحتها
ويعلم
بيضاء
##يف،
المجا
مواقع
السياسة
تودي
الياب
تعني
الدراسة
فقه
وغيره،
يفتح
##يرية
ذكروا
والكلام
##نصر
بطلت
يتعين
النظم
معناها
يحج
تراب
تسال
الصادق
وبيان
افر
فرط
موجب
البدع
فسار
يقولوا
البالغ
صحيفة
يظ
اوقات
سفي
العطار
الهلال
##مامه
العاصمة
ثوبا
شهادته
يصرف
بسب
اخاف
ميلا
ولدها
اتت
مسمى
المحيطة
##وازن
الواقدي
الطبيب
##وب،
ادب
##يتا
للمس
يسمح
##انك
##لاها
الفرات
بالمال
المقدم
##واضع
راح
ينفذ
##فاضل
الايجاب
بظ
امرات
خزا
##قضي
الحفظ
##ضرا
غيا
##جاد
صديق
اعطا
عفا
النصب
##برية
تفرق
الميراث
الصداق
بقيادة
##ضحية
وامره
بعدي
يطلع
اجله
التكبير
الكلية
نقي
##ووس
الجلال
البلاء
اسيد
##اعية
سيكون
##حدة،
ولعله
سوريا
يعلمه
مضر
للمدينة
بالاجماع
هى
تسب
##وى،
الموص
يبعد
##ادت
لزوم
ووجد
باللغة
غري
تجاوز
تقطع
الشيباني
##ذكره
النش
##داني
العقوبة
مضاف
تناول
احمد،
حدثنى
##ايزة
يتعرض
اسقاط
والكتاب
العالي
بطريقة
##ليق
الالمانية
##راقبة
##حسن
لعله
عضوا
##طاقة
##جوم
طيبة
محبة
##كي،
ميز
##انات
قرة
الاعتقاد
الظالمين
يرويه
الانتفاع
كالص
مرسلا
الاثم
السلوك
حينما
##يدر
مدح
الولادة
بالكل
##زيون
ميتا
حضور
الاعيان
فاعلم
وستماية
يعين
ضوء
هاج
يجبر
مقامه
##طيل
الجو
وارسل
صدقت
والرجل
الخطابي
القواعد
مقصود
اتخاذ
اجرا
##ارعة
عنها،
المحلي
برجل
بشان
روم
##ايرة
استخدم
وبم
السبعة
مها
##اهره
راينا
##دلالة
الاصلاح
مشرو
متاع
تقدر
##الين
الشرف
ويعتبر
اسقط
المصادر
##صري
##قرير
المفا
المحبة
المومنين،
الانق
الكباير
جورج
احتاج
الخضر
الجسد
لمر
##بوا
الميتة
النداء
دارا
وبدا
النيساب
البلق
الناحية
الجوية
يغسل
وسنة
##تيق
الاولاد
والكس
جعلها
فقتله
شداد
ولكل
القاد
##وف،
تحرير
الفوا
##ديت
عاز
اعرض
ناقة
اكثرهم
الجوهر
مالكا
##خفاض
كافرا
مقط
رقبة
ويرجع
عليهن
البيضاء
اهت
##يثاق
مصطفى
مزيد
بصر
قيادة
جعلنا
عيش
السماع
الضحى
الفم
نيوي
ويغ
يعيد
##فاة
فقدم
منهج
ابيات
الراجح
##حقاق
علمنا
##بسه
مقارنة
الاصغر
تقدي
اضع
للاب
##يهم،
##وراء
الزيت
السواد
تمييز
جرا
تحر
##غام
##اين
اجازة
##شاة
يتوضا
وحين
نظرت
ازد
بسند
##وعي
##فخ
عر
وجزم
يتزوج
فوايد
بموجب
ولدا
بيانه
##لح
فروع
##لندا
##ركوا
الياس
المعركة
الجنازة
ينصرف
وانكر
نجيح
فمع
العوض
الوداع
يتحدث
بالحديث
##ضرر
ليف
احم
الرمل
##جير
معه،
والنساء
الكواكب
وزيادة
العقاب
تسبب
##رايع
##خن
بحلول
المرضى
فجمع
ثمانين
المستاجر
##بيس
معان
يحم
خلع
العمد
##اوية
الايط
هدية
##ادلة
الموتى
الشيخين
خيثمة
والجماعة
ضيق
تحرم
طاير
##اثر
يعطى
والمسلم
نخل
وامراة
الحادي
تمس
تراه
واتبع
جزا
توبة
العظام
مشايخ
اشترط
شخصا
##عرف
مود
الفتى
##بادر
رحيم
الجليل
##يوش
السفن
اليمان
غيب
لتكون
بذل
مصالح
ثابتة
##نزير
شغ
المرة
خطبة
يركب
##قصى
ووصل
عزيز
اغفر
مردويه
الاردن
##عو
بهن
الديار
قدرته
عاج
سرعة
طلقت
##ساط
##وكا
##ضحك
الجح
الاخر،
مسلم،
انقطاع
##طول
حملت
وخلف
تنس
التنبيه
ومث
##نتان
##بانية
اسبان
##وعات
السكيت
واختار
##حوث
ايل
##قراطية
فقلنا
العقيدة
المكلف
##صان
طف
##قتله
الطحاوي
دقيقة
المعصية
اختاره
وامن
حفصة
شيطان
بريطانيا
تاوي
النيسابوري
الدجال
ياذن
البدر
الاسنان
نتايج
بالعلم
##كنى
النم
الجما
اكون
ذراع
البرق
خات
##طلان
والدي
ينتهي
جاءه
القلعة
##خ،
تعلي
وارث
الترج
وخير
الاشرف
##بتهم
الوحيد
##اسد
##انيد
##يقن
البتة
##الفة
##ياف
عقله
الشركات
اللط
صاع
##غيره
بيم
##راوح
احفظ
مياه
الوالد
طاف
عامي
لقوم
تفصيل
زيارة
##طيط
رع
كناية
العجز
المجمع
غزا
السلامة
وعنده
##يرك
بايات
تغلب
اولاده
انج
قذف
كقولك
للشيخ
تذهب
##غن
ومص
راف
الاحوص
##وت،
ادلة
السام
##بهما
وتلك
##فتين
##طاليا
والقص
كالا
خس
حكمة
##اد،
##ورين
تاريخه
##كنا
البعيد
النذر
المظفر
الزركشي
الماموم
مولاه
ابنته
بدع
##فروا
يصلى
##يناف
المناسب
مغني
فحينيذ
قدامة
عبدة
وصدق
محرما
جهاز
وصول
يعم
مسدد
الثقة
فنظر
تلقى
لكثرة
رحمهم
النبوية
كنيسة
تزوجها
وسع
بطلان
ساله
تبت
يكبر
الفيل
اللخ
خشية
اضطراب
##راتيج
التحرير
باعه
جمعة
هول
نفسا
البعد
##رحل
يطوف
عمرها
رهن
##راهية
قابل
شيبان
الاذى
##فاضة
يوصف
دورا
وسبعماية
##شب
احا
الرقيق
المصلي
التابعة
صغيرا
القلم
حماية
الطبية
يلتفت
##ستاني
مفتوحة
سند
##ثيرا
##والد
الموقف
##يمة،
الملت
وهن
والتقدير
##رامه
لمح
ويخرج
الغنى
##والهم
السيرة
نارا
الضعيف
##ايح
الخراج
للمنا
تحته
تشكل
فهد
بذا
مضي
الاشعث
الجهاز
اشر
جوهر
مبار
الخزرج
عمان
العظيمة
كرب
وسيلة
##نايم
ابد
الفضاء
المصطلح
التعليل
ليا
##ويق
الموصلي
توب
بسرعة
المتوكل
##يوطي
##طيب
الانجليزية
مسافة
واقبل
والمق
الصامت
جدي
وفرق
##ساك
احتيا
مدل
واسماعيل
خدم
اذى
واربعماية
وولي
السراج
الاستح
شهيد
الاصنام
ثوبه
فوقع
ويدخل
جمعية
##ريدة
بكثير
ويسمى
تومن
سياق
استوى
الظرف
##قاتل
بلده
المفضل
السنوات
قح
##فش
وجملة
ارضا
يومين
الاصلية
##ضوا
##فرا
الحربي
اناء
معن
مشار
##صدقة
النار،
عدتها
ناص
بسي
الزوال
اليها،
قبلك
والمص
يام
استحباب
##فتها
##اناث
اصدق
ذمته
##صروا
باريس
حرمت
السند
اماكن
المانع
وجعله
التث
ظالم
عزم
واظهر
كالع
الغاز
المقال
السدي
لاخر
يتح
اياس
الاولياء
بابا
نون
##رىء
روسيا
المسرح
فابى
انط
ثمنه
##ديمية
يمينا
يتقدم
الصنا
المامور
جهد
اثاره
ورقة
الصراط
يذ
البرية
ذكور
##عدام
مملكة
بالامر
الغزالي
اقراره
بضع
الطايف
المصلحة
امها
مصادر
والجد
موجودا
جرم
ويكره
##بى
ادت
الضرورة
حث
حية
وجها
والقمر
##باطل
سجود
المنس
مكس
توحيد
رمي
##اديث
##كف
الكراهة
اعطاء
الحمار
يسعى
نبيا
العيون
الانسانية
##وارد
اخا
لبيك
لعلي
تاك
##ريا
البرت
مغل
الاحتمال
الحايط
الرضاع
بالقول
عبدي
مقال
خلقت
الانهار
سجل
##شة،
الكسايي
وعين
بابه
والثلاث
حاجته
وبعدها
وكره
استن
الكافي
استثناء
ميسرة
بريدة
يضل
ينتقل
##ختم
مباراة
##مره
الثقافة
مسرح
الاربعين
##شين
اكتشاف
اعرابي
بثمن
التاريخية
المخرج
كثيرة،
مفع
الجاني
اصد
دقيق
بدرا
استه
تعارض
المفهوم
##طيه
##واته
وراى
##ذبين
قضي
اختصاص
ارجع
##ضاف
ياخذه
ونه
##غ،
كج
سعيد،
العرق
اشتد
بردة
النحاس
فاين
الاسيوية
##ليها
يلعب
قتلوا
##وند
##عتهم
كول
توفى
الهدف
الواردة
بالو
سفينة
ظرف
وتغ
باكثر
المستحق
المخزوم
بفضل
علية
الاناء
تدري
موقوفا
احد،
خمسماية
##اكين
##ميزة
والشع
الابواب
الضعفاء
النزاع
المسب
خلت
دفعه
بصيغة
##تابعين
المواضع
الحالي
تطور
براءة
وقتادة
##ولوجية
رام
بالايمان
والقران
فيب
عسى
المطلقة
ايمانهم
وليلة
##لل
المزيد
النط
ذوات
الشرب
فاغ
كذلك،
الزي
مملوك
##شاير
##سال
فوقه
##كنة
اطار
انتقال
##افي
وقفت
الجنة،
التابع
برم
فتحت
فتقول
وشي
اثنا
فريضة
غي
##دعي
المتقدمة
##رسة
الصيف
كمثل
العاشر
المشاركة
تقدمت
يولد
عينيه
##غيرات
خرجوا
لقيت
يعرفه
شرعي
الحية
##بهان
مدا
جيم
##عظ
خالق
تقتضي
دعوا
الافارقة
##ايته
لندن
افطر
دبر
والبد
حنين
المستوى
الة
وكثرة
##لاس
فالق
وصحبه
يهت
فضايل
امرو
مومنا
يعبر
صدور
سرية
الوزن
المهلب
تبد
منقطع
العقود
##الع
الشفاعة
رابع
##ايير
##روري
بعلم
الحش
معطوف
امرها
فلهذا
اولي
الموافق
الشان
الطيال
الاستخ
الاوروبية
الاشكال
التقوى
اليهما
##ص،
ولع
العمليات
الطبعة
ومال
ادخال
سبيلا
##ندوق
رجعت
القم
فترك
مراده
اراه
والامام
تصبح
معروفا
ودي
فالص
##ماله
اكتب
الجمهورية
العثماني
الاجسام
فهما
##صون
##اريع
شذ
التام
يرسل
الفص
مطرف
حامل
بعير
الدالة
لمحمد
كلف
الذبح
المثال،
والفت
##زيه
الاضافة
##شط
الحوض
الاشج
اسيا
الشكر
وتل
ده
منفر
العصور
##ينا،
سلوك
بكلام
تنظر
وجده
يرضى
اصلها
حش
التت
الملك،
##باك
قولي
لصالح
فرفع
خت
قطعت
العلاقة
معلومات
##شره
القرار
الاذر
اوضح
السياق
تصميم
السيطرة
##رتهم
والانثى
##دن
واخرون
الساح
##ايك
يخشى
قوية
وخال
##غه
##خار
اقتصاد
تتخذ
مضت
اعجب
والعرب
بركة
##واس
##احف
دخوله
رياض
##ظيف
##يروس
اكد
نعرف
جف
وياخذ
حاضر
بحد
السيوطي
##طنطين
جدا،
ميراث
##اجي
رسل
مسروق
ادا
تعتمد
اللم
الرويا
الحنابلة
حلقة
الاخلاص
فدع
وحيث
الاشراف
سحر
ووص
السوري
بدار
ذنوب
سيية
يتغير
موسم
##غوا
الجند
قبلهم
يرحم
الله؟
الرمي
##نعة
المضم
القوانين
حنث
دونها
خمر
##رباء
الكرام
النض
فاصبح
تنزل
##بو
الفتوى
باز
السعي
##ظلة
بالض
يباع
##سنة
العطف
برهان
##هوة
الثناء
صادق
معط
##صر،
الانكار
منصوب
باختلاف
##خمة
يعارض
المها
مدار
عات
##ضحى
مدن
اورده
طاقة
المتع
العذ
الناظر
##لازمة
##يدات
الغذا
المتاخرين
تصوير
الفاسد
المباح
##رهن
دير
##وع،
للمشتري
ويظهر
المقدمة
الفتن
صلوا
تحري
سريع
كالج
الحجاب
باذنه
##اصم
محال
الصالحات
ورم
الطيبي
نصفه
الخليج
تصنع
للبايع
الزهد
الخلع
اللغات
توجيه
جالسا
مجر
حادث
افع
مسيرة
وترت
حرارة
للنساء
والمقصود
بالنظر
حديد
خاتم
##خصصة
الموفق
المنظمة
لله،
##ليث
اعطيت
خلقا
اركان
بمدينة
##ماري
وعطاء
##قيما
محتاج
##روا
النسخة
المبار
المصالح
المستقيم
بقتل
المذاهب
وقولهم
كين
##يعاب
بالسيف
انقضاء
يختار
شهود
ساكنة
المنذري
مبارك
##رحام
النقطة
بيمينه
وحدها
الشعبية
قياسا
انع
المشايخ
المالكي
فامت
فاقت
وسليمان
خارجة
مرضه
والاقت
الموسم
منف
باطن
توثر
##راجعة
العدالة
الصحية
يجعله
والفضة
بباب
وشبه
ذيب
اخذا
عهده
الانتخابات
الاعداء
صداق
الاشتراك
حاول
تحرك
##يض
الشبهة
البرنامج
مجلد
تور
##لقب
##ك؟
اتصال
واللفظ
مساجد
المال،
لباس
تطلب
##حلة
##لهما
##ذهبت
الوقت،
التبر
مستق
كلاب
فوجه
فاحت
سنا
##ضمير
للتع
باهل
قاص
العبيد
##ءوس
رايه
وانس
تصد
انجلت
التكليف
الطول
العط
البلوغ
الامر،
داب
جنات
تعظيم
بالياء
اسلمت
جمهورية
ينه
يسن
معص
الامانة
الكبار
مبدا
##وضوء
##حنون
البزاز
يومر
المشهورة
الفاضل
بالعمل
فالذي
الخف
طرح
لبيد
ضربه
التقدم
نشرت
الفضة
والحم
يغني
الانفال
فسب
##بلس
كساير
شاع
طلبه
يوج
##متين
مقدر
كالس
مشى
مكي
اجما
جمعت
العالم،
النجار
الضغط
البرد
##اثة
##تباره
وسجل
##طرب
واضحة
جبر
جالس
##خين
والتك
##فقوا
ظنه
##ظي
العس
اراضي
##هنية
اعلنت
##اطر
ونظر
##رها
الاقليم
لتش
الحلبي
انسانا
رجلان
الخاء
فتع
كسرى
##ظرة
وقص
زيد،
##خلا
صخر
ارباب
اتفاقا
##ونث
مقبول
الحادث
امراء
##فرت
التاثير
الاطباء
مهملة
مثقال
الثمرة
الحسنة
رجليه
الماج
مناق
يحتوي
كاذ
تلت
ضربت
##راره
##ذكير
اللحي
فاشبه
كص
النحوي
الهمداني
ذكر،
السعادة
واين
الصوفية
تحم
##عبين
اصابع
لشيء
##زان
الكلاب
ترفع
والكل
##كملة
مستقيم
نيويورك
الماء،
اثره
الاكا
##فضل
لوق
وضعه
واختاره
الكفاية
انتشار
يذكره
اخوة
ومجاهد
فعال
##لكه
الحبس
الاخرى،
اعراب
يسيرا
قلابة
كلاما
##ذره
واصبحت
طي
اطول
منسوخ
##رقا
نهار
طاوس
طبقة
زواج
السح
واجاب
اصبع
انفرد
الدواب
ربح
مدر
##املات
اقتصر
الموال
التوضيح
ولفظه
##دمير
هاتين
يجزيه
##زء
##بعاد
عمد
والبحر
قصيرة
اللخمي
ولست
لظ
##قيقه
قبلكم
الارواح
الديوان
##مرق
للمومنين
كفا
والمسا
كاملا
يهم
نال
عمرو،
الكشف
الاباء
الصحابي
العرب،
الادارة
##واريخ
##زوق
تلم
##كومة
السودان
قاس
جاوز
شبيب
راع
اوفى
اكان
ابراهيم،
تونس
سماء
والخل
الثمان
منازل
اسبانيا
نسال
صحيح،
بالذي
المحكم
الفلسطيني
الكيميا
تقسيم
فرايت
الاسماعيل
##حيل
القريب
معلومة
يتج
تصف
دينارا
الجماعات
##لاته
النصاب
التشريع
سيار
انتهاء
المتحدة،
غنى
تجارة
المثليين
وموسى
وفلان
البس
الزوايد
خروجه
اسبوع
جزر
التقى
##وحا
واذكر
وللا
##زني
##ذبه
عجلان
السبكي
الهاشمي
الشين
وكس
التجار
يوت
العقبة
##قدة
##وقه
الاطراف
وور
الواقف
موافقة
سماك
الهذلي
الاقتصادي
##ارير
امان
##اصله
القايمة
يلقى
##اما
والملك
فكما
فحمل
اصوات
جني
شيخه
محض
بحمد
معلق
استاذ
الغي
يحسب
الليالي
الفطرة
##راعية
الجعد
##يلة،
تميز
وحل
بالمعنى
##ماك
يرم
الوراق
القطاع
الوحدة
الاهلية
تسلم
الدماء
فتامل
الحبشة
دق
لعلكم
كريب
صغار
بكار
كق
للاخر
تعدد
قصاص
##سنا
الوصل
ركبت
قصده
نصوص
نيل
حمدان
ساح
للات
الاعشى
راسها
##عدوا
الجس
سعة
رط
مرارا
##رارا
وذا
واكل
وقبض
يجر
وبالله
ويصح
الاماكن
طارق
##نيس
##قتين
تصاني
واكت
فكذا
قدير
والرج
شجاع
خبرا
##انية،
المهذب
صلح
##قضت
فكانوا
الاخوان
رخص
ينوي
مرتبة
طهارة
##يفه
الضعف
للذي
##طهر
ومضى
عيون
بقد
الاشجار
##شطة
بكر،
تطبيق
##راكب
والنبي
ختم
التقليدية
حاصل
ارسال
الحيا
ومق
بفت
##ماذج
سعود
##ريقي
ليسوا
مذكور
الكنا
غس
ارسلت
المنازل
اعبد
طبيعة
جمعه
يصدر
##بود
##وصول
يقصر
##طيق
اناث
والتد
بالاخ
صفحة
##ربها
زمانه
الشهير
##ظه
##راجه
لاحتمال
الاوس
الشيخان
لكرة
##فارق
##هايم
##عيش
الروايتين
يفطر
مهران
المرتبة
##ثمار
اسالك
نجس
الحقيق
اهلي
##صيحة
التحليل
مذهبه
الشهيد
##ياتهم
##معوا
وبناء
الحكومية
##عمد
الفايدة
سلا
##حابة
وجهها
اشتهر
##طاط
للمن
ويحرم
كانهم
متصل
البنك
وتحت
تطلع
اثني
البرلمان
##حقه
الفلاح
الكثيرة
اوص
للمش
تردد
ينقطع
بثلاثة
العدا
يستلزم
دينار،
ساعات
##صين
يخال
قولنا
السكون
##فة،
يشارك
##ليون
متنا
لفلان
##زة،
الجنين
فيم
فور
والاعت
##ستها
الوصي
لض
شىء
مناسبة
الغزو
حمار
الورد
للملك
الحجارة
المنطق
الموتمر
فالع
وعبيد
رغبة
يزول
اياما
##حمته
يترتب
تزوجت
الحلم
صيا
مقتل
##ولايات
تصير
الوعد
بالبصرة
ماري
رفعت
الحق،
اسحاق،
وقوم
كالش
جنبا
حقها
المجيد
اطعم
##جليزية
فيهن
ووصف
التز
صبا
اعيان
وكلاهما
استحقاق
وجوههم
الايمن
تعملون
فساله
القوي
نفذ
الاسكندرية
والاسلام
برس
كنانة
قبلت
زادت
كالن
الباه
الدارمي
الطايفة
##واط
بالرفع
الاجابة
الاداب
##بق
سبيله
نجا
الدواء
قولها
بصري
##حنا
##ايهم
واجيب
الفوز
ثالثا
المفسرين
وبيع
الطبقات
مسكين
وذو
شفع
وراي
والتن
اشتراه
فيش
القض
الانفاق
الحروب
تابعة
بكثرة
فيصير
##قرية
الصغرى
البرهان
وطن
نزاع
كيلوم
##ينت
عنق
ويبقى
كفاية
بقوة
الهلاك
يهودي
اظن
ولكنهم
مكة،
فلها
التنزيل
##زدق
زل
الاشهر
ساع
##جون
والحاصل
##دين،
التفت
بالموت
بطنه
الطايي
الشق
نفى
الحزن
خصايص
القذف
فعلوا
النمو
الجنب
##بالغ
الاذرعي
##شرا
شتى
خسر
وحي
رويا
الارادة
##تموه
اعمل
ينس
الجنايز
الفهم
العنف
ارك
##ذكار
المخالف
فليست
المحقق
وبح
شاي
شبيه
##خرا
دخلوا
الشراب
##خرف
السلطات
فاكل
فاسلم
ادي
غاز
##ضاعة
شن
الازرق
عذابا
وعيسى
##شاب
السهو
يدر
اتق
بوضع
المعالي
الطاهر
فنحن
وكون
الباقون
الغنيمة
توجب
لوجه
##مالك
الكلم
الحرمين
مستقبل
ولكني
##شرح
رعاية
والنار
##ضور
الحسنى
الشام،
معجمة
اقليم
##ورته
بالذ
التصريح
يشك
اجيب
اليق
ماد
الكهربا
فارق
الحاصل
عرضت
فنس
زايد
##جاع
بالطلاق
مكتبة
الوقوع
صفوف
طرد
##مم
الصبا
هلاك
العناصر
وحرم
يورث
يرا
للعالم
ساج
بخبر
بسنده
يظلم
همزة
واتى
واجه
اهلا
عاقل
برامج
يسبق
الغناء
##رطان
الجلوس
الالماني
مجموعات
الرومي
اعتبارا
فاتاه
##شن
وجوز
##رازي
الثاني،
اليتيم
زار
##موم
كثير،
تدعو
تكره
مزا
تجار
وبعده
مرفوع
الافكار
العكس
الحبل
الرجلين
متص
دست
##ولاه
عادت
ايمانا
مشكلة
وغيرهم،
ه،
وثلاثة
مدخل
حكي
العسل
سبقت
عرضا
مسو
حملها
##نتها
والاولى
دمشق،
تخلف
##هره
الاخضر
خض
وملا
مطلع
الظروف
الخدمات
##غور
تصور
اربعون
الحرث
##جيء
##حام
يبكي
##اهية
رقيق
المواز
العناية
جميعها
الاستفهام
ردا
##طانية
السلعة
الاسواق
الده
##يدته
اجهزة
ايه
وجن
الامكان
الاثبات
الجنود
الخصم
والحد
##جموعة
الحقايق
اباحة
قومي
الزوجين
##وسل
##عدون
اصدار
##قبه
ذكرته
سفيان،
معقل
بالاسلام
##نيان
##ثوم
العجم
يكلف
##مرات
##طون
تخري
##فاءة
المعارضة
عدى
يستطع
فوز
النادي
ورسول
الهروي
القضايا
الرمة
المبتدا
هذا؟
ونعم
اطلع
نورا
##وهب
امرك
وبك
طلع
الشهاب
الزهر
والرك
ممد
اسلامه
رجله
سانت
واعظم
قرابة
##سمة
الفوايد
النشاط
جمعا
سط
نزع
بصف
نوم
##يريا
والاحت
الهندي
زفر
ومسا
الحسن،
زن
اسلوب
مرور
قريبة
الصلة
الراف
##ولون
للعبد
الظهار
ينطق
ابي،
الانتقال
تحليل
يتصرف
تزل
##رضه
الناب
علامات
حلت
حراما
حصة
السورية
هوا
لاغ
##فيز
##سباب
##قايه
الاساسي
وشع
العلوي
اجماعا
واخره
اياك
مولا
ويعقوب
الفور
رجالا
ثورة
##ثاله
هوى
وسال
واسلم
الزايد
##ويف
المبالغة
##جزء
اصلي
##فلس
الاسراييلي
والمل
##روز
ففيها
ياق
الجرا
##حايا
الجوع
لتق
الحمى
السدس
بصره
والمال
##بتين
##وافق
لوط
شيخا
مشك
تحصيل
##لج
الاصوات
ظلما
والسل
بماية
اليوم،
##صلت
سرير
##هداف
منسوب
بمثابة
مررت
سياسة
الكرماني
قادرا
ليح
التاج
سمعنا
القرون
رتبة
##قتهم
بحجة
لا؟
الصغار
النظرية
اوق
فاجتمع
بعضكم
الجان
والفعل
##يرت
اعتمد
##روها
محكمة
العدم
ورواية
التعامل
##وضح
وبني
افاد
نوعا
العادل
المعارف
التما
المصطفى
محي
ايما
رشيد
الزراعة
موقوف
عدمه
معلوما
المنقول
الضلال
الخلال
قصير
وخالف
داود،
##كيم
التقليد
نموذج
القاب
وصفت
وطء
نمو
##منى
الطيالسي
شهيدا
اسعد
المنكدر
##دنا
الثانية،
خب
##فادة
النزول
##غرب
بتحديد
المهمة
يرك
الاربعاء
ابتدا
مبر
والسن
اشهب
للزوج
بالنصب
##جها
##يمته
جاءهم
ارسلنا
وجمعه
##وصاف
قاموا
الامامة
##افرين
العقلية
الجهات
القايد
##جاعة
الصراع
وشرط
##وطء
ويرى
التطوع
##ض،
ثلاثماية
والقا
المسوول
محص
عايد
البيوع
الميل
الفنان
##رجات
اري
اضل
اصدر
حبل
مستقلة
القصيدة
اختلفت
عناصر
الفارس
##يس،
##يسير
معهد
##وعب
قال،
الصلت
توفر
##سها
الغل
الصنع
ليعلم
فخرجت
الهجوم
انذاك
صلب
فعلها
واجعل
يملكه
ومرة
البكر
احيا
مستقل
##وءة
##ريقية
ردها
الصالحة
الفتاوى
ملكت
واقل
دولار،
الابيات
تاي
ربها
اعيد
الطهر
حولها
حرية
بكونه
موتمر
الغيبة
ولايته
جندب
يوضع
المدنية
الحامل
##شاه
بيل
الاذ
خطة
حكمها
غروب
##ياسات
المحرر
##بادرة
والعقل
ممنوع
طريقا
فقطع
يفضل
البراز
ساكن
لحكم
ثوبان
نجاسة
وجدنا
حاي
الصلب
ايطاليا
##نسية
المحدثين
المقدسي
ينال
ارفع
وقسم
برسول
الساحل
##والة
العوامل
الوديعة
تحسين
والاي
المتعة
والشمس
العذر
يتوب
مكث
الرجعة
##تكلم
مولده
هذ
كذا،
لتلك
سلمة،
رييسا
فصارت
فلت
ينعقد
التطبي
اهداف
للاسلام
استغفر
سيرة
فاوليك
يستوي
سخ
##حرر
منده
لمسلم
والماء
تها
مثنى
مراحل
واحب
##بسط
الصحف
خيل
معكم
اخص
الكتاب،
الوفاة
وقر
##امية
تضرب
طاعته
صنعت
لفي
ينظرون
صراط
عبادي
التمثيل
##قيف
##مها
تحكم
كثرت
الاجنبي
تبدا
##وكس
الصحراء
وسبب
ماج
جلب
##ددة
نيابة
ببد
فقهاء
الروسية
توخذ
بالكوفة
وقدمه
موث
حصر
الخض
##حدر
المسجد،
امارة
افتى
واجتمع
كذبت
قمت
اللازم
البيية
الطرفين
صدقه
كمية
##تي،
مجالس
اضطر
هدا
##وثر
ونت
حبا
##ثاء
تموت
##اور
تشكيل
يفصل
المخاطب
نوفل
##رايط
العاقل
والرب
##عي،
بتاريخ
للغاية
وسقط
بدنه
الموصى
الادوية
الفرقان
##لايين
المساواة
تاكيد
مفرد
نحر
##وصى
##اتبة
##اري،
##ناكم
##يسابور
بذي
الالهية
اصبغ
الفلسطينية
اعز
يوخر
ضغط
وقا
لصاحبه
جنازة
اشعار
يمسح
كفى
باغ
والاك
يشرع
والبل
الحصين
الانثى
ميتة
ناظر
السجدة
##بعد
##جلب
فجلس
ويقوم
مسجدا
يقضى
وفاء
وادعى
مواد
النمل
مكحول
صباح
ترق
وول
وحضر
##وظ
الزاي
##ديو
الخبز
يكلم
والسر
السنين
المنق
##خيرة
المكتب
##بسوط
قومك
التصوير
بمكان
فراس
تصلي
بالالف
قسمة
ونحوهما
المتح
مراعاة
دايم
الطاير
الند
وبت
الابصار
##فا،
##فري
والوق
العارفين
عدن
والبغ
اعماله
##نياء
##ياتها
حنظلة
تمسك
العقيلي
المجهول
واقد
##نهم
مدير
الحديبية
كرد
انيس
تفيد
والمغرب
##حال
القيادة
وتز
ركعات
العظمى
الفصول
وعظم
اقدام
الصوفي
فسد
الاضطراب
الرطب
صفية
اشراف
غسله
الايت
صالح،
وعملوا
يجيب
الاموي
فسقط
دب
خلالها
يطالب
جنى
لوي
انضم
الطفيل
##اكد
##ينيا
فقيه
##سانا
جنسه
##غرق
اباح
رسميا
قولين
والعصر
كذبوا
##لتهم
المحال
عموما
##وطا
الشفيع
يزد
موسى،
المشتركة
يذبح
##وابا
ببيع
وقري
اضرب
الرومانية
الوعيد
فثبت
##رسي
الاسلحة
السرقة
##انيها
المستخدم
فضالة
يتن
القبل
الاصابع
##لهم،
غني
لبيان
الفريضة
وظيفة
##علي
بتع
##تنب
##اتى
دمه
الاتيان
##وان،
##بوته
الباس
بلسان
ازداد
العجل
باليد
خفت
الحنب
الانسان،
تحب
بوس
جح
فكره
جعلوا
رف
ومعرفة
تامر
##يرته
الصفار
عنى
والبخاري
الثانوية
الحما
يتميز
فحكم
بخلافه
امريكي
الخصوص
اغنية
لذي
امانة
ونقله
المقتول
عبرة
حمص
المنافع
استر
غياث
##ربون
##ذروا
##دبر
رحلة
يقم
استمرت
نزيل
فنه
غلاما
باطلا
##ايى
الصدقات
كاين
الجبهة
الاقصى
والمعت
فلين
عشرون
يحي
البلاد،
##التين
##اهرا
الاعتماد
لحوم
نذكر
النفل
وسمي
مباشر
السبعين
والرابع
تكلف
دماء
وكنا
حدا
الرسمية
المعجم
المناسبة
يتعدى
الكفالة
بالخيار
ظلموا
بتص
سايل
اتهم
##اهة
اللوح
غيري
غسان
التزام
الشح
واستقر
سعى
فقبل
رحمته
##هيل
القطب
اعتراض
بتك
روينا
حقي
شفاء
تتكون
ثمرة
يطعم
##فتي
##ونت
عدوا
اذان
هلا
تكت
واخبرني
وحسب
##كول
باليمن
##دفع
منش
ارضه
##ثني
##غنى
الحظ
اكن
حضرت
بيوم
هامش
ركع
يتفق
##مان،
الموافقة
يتكون
للحق
##فقات
طعن
التعرض
##شاركة
##علة
بايد
مكلف
المطالبة
##يت،
التعاون
##مات،
مركب
المود
طاب
##اغاني
اعترف
الاغت
يمسك
##طوع
بيتي
مخافة
الحرمة
##زيمة
فقول
وكف
يسع
فيخرج
النتايج
فانكر
العر
الرحمن،
##يرون
الالكترون
##ياق
قوانين
المدح
##خيير
فير
ووز
خمسا
تقليد
دعوت
للعلم
##شح
معارض
محفوظ
سوداء
والحال
المفر
الحالية
الغريب
الحميدي
والنب
وكيل
لعمل
عنده،
واسر
النقي
الجذ
للاناث
خفيف
نصا
##قاذ
صفاته
الرملي
سبعون
النفاق
##ادوا
اجزا
تخريجه
ايم
الاسبوع
##ونغ
شح
ضاق
المستع
معاد
شريكه
انض
التحت
للفق
##كتو
وكالة
##باين
تعبير
التخصيص
رفاعة
##لتم
لويس
الهول
##رعان
حط
لامت
الشوك
للوا
اخل
##خدمت
##البا
يتولى
اطل
##سوف
عتاب
غيرك
الورق
للنا
##بيا
طلقة
شهداء
اقيمت
غصب
الجنابة
تذ
ومحل
الجغرافي
الامبراطور
##قا،
وبالم
بموت
التوق
فرضا
الجرج
صايم
##قاش
الطف
##طعمة
الهندية
فهولاء
امثلة
الاستقلال
الجام
سببه
الموسيقى
لاحدهما
##كله
##حا،
ايهما
##زوا
ليال
هدم
شرطه
المعلق
كانون
المباراة
الامثال
لبث
الاحم
وجهة
محددة
ونصب
يهلك
واتباع
##مارك
لواء
الغذاء
يرغب
لفظا
سنتين
النعيم
لفر
اللازمة
والعبد
##ضره
ياتيه
المسافة
##فيها
يشق
اياته
واذن
سحنون
التصديق
اصناف
اشخاص
كبد
الاهتمام
##رضى
محالة
لفظة
الفراغ
بقر
وقصد
الصبيان
واهله
##بايح
مستحق
اجره
ذرة
قان
وعقد
##كنه
اختلفا
ياسر
ينتج
الفنون
المحار
اصلح
اللقاء
##قراطي
بالاد
الملكي
يفس
##وهوب
امتناع
الشاب
علل
والنظر
بست
الواضح
اجارة
دف
السوا
الجهد
##رويج
وعليها
الموسسات
المكتبة
اطاع
يمنعه
لاث
السريع
البريد
##رابة
اسف
وخبر
الشدة
الازد
##صرين
بالتع
الثلاثاء
##لاحظة
المني
بكت
##وانا
قدرا
هدف
زه
##قليل
للاش
الثقافية
فسكت
سوار
المحافظة
مريض
جدة
##بيحة
الفز
اشرك
تكرار
##جعل
بالبر
والتش
اليابان
الوارد
وامثال
صورته
##ساد
##حظ
صححه
يحاول
بالعين
دلال
يتجاوز
الاعتراف
##فز
##كرين
لك،
ترجيح
القان
القرض
والاث
ملة
مستويات
الرعد
الفاح
الكفيل
بلي
والحج
مكتوب
ينام
الخر
ولكم
##زاق
ويستحب
يبد
بعبد
##ضايه
حقق
بعشرة
##فصال
اوتوا
قلتم
المرسلين
غرفة
فاه
فبال
الطيور
واخرى
العبدي
الضم
مليار
الاحتلال
امهات
وينت
##اكم
قطاع
تعليل
مشابه
للحصول
بالرغم
وتاريخ
الكيل
الاستس
القطر
ونف
ايضاح
تكر
الملي
حمر
وافر
روايات
##روضة
##ساني
والتس
الشمالي
بالتق
##يهود
##وعظة
قديمة
الليل،
الفريقين
الشهداء
الحياء
بالنار
##يقية
وكلما
القنا
الداعي
يساوي
المغربي
حزن
##وليد
روايتان
المسلمة
فيلزم
بالاف
والاه
مناد
المكتوبة
كلي
##ريين
والحكمة
ووقف
والطب
لور
ويرد
لذلك،
دنا
الامصار
##وثان
الايمان،
السرير
##ومنات
ويط
دعواه
ليع
المبين
اباء
##يابي
يشفع
وثقه
ساهم
##جموع
انجلترا
##يكم
##قافي
وظاهره
حلم
البري
ينادي
الاستعمار
مرزوق
يقتضيه
ارجو
##سلط
والجن
وقوعه
اخذوا
المخلوقات
متسا
يصب
##كا،
مصل
##الس
بعيدة
اصابت
ببر
بيعها
توزيع
##ينة،
وتسمى
الخزاعي
المدر
يستدل
الدقيقة
الرسم
الحايض
فلل
الفرزدق
دواء
ضربة
الردة
طعم
بعده،
اراك
الحراني
لكتاب
المصل
مجازا
المجاورة
##يجار
يره
الانح
البنات
سعد،
تترك
للاول
الاقدام
ومكان
جسده
عاصمة
حبة
اسط
الزاهد
السينما
الاسراييلية
ودم
للض
يدور
الاتية
صحابي
التربية
بجانب
يساعد
البشري
وتعتبر
##وذك
اعج
الادنى
صفته
تخت
صا
##خيل
والدارقطني
نقلا
قوس
هريرة،
علاء
تدور
التراث
بامره
الارق
بالثمن
##؟؟
##بادي
يرزق
ينبت
الذيب
والشي
وبنى
الاظهر
دورة
##كتب
الاعتكاف
الحبيب
المخزومي
بالملك
الاقرب
##اربه
##قيح
اللحياني
المنصوص
ارواح
الدستور
##حتين
المنه
بهدف
استاجر
والنون
معرفته
للرجال
غص
الكسر
##قي،
مكانا
الفرنج
طلبت
ايمانكم
##وهما
القود
عزوجل
وقلة
هبيرة
##الق
##رى،
متعلقة
والجملة
النمس
وحب
الامثلة
الغرماء
والخبر
##ذرت
ويقع
رياسة
ضعيفة
فرواه
السرا
فرصة
عظام
بالشيء
الفنية
##اقبة
قوى
العروض
مبنى
##اصرة
الهيثمي
##ندس
الانباري
كيسان
والتابعين
بالاص
المعز
##طيية
فتت
##وسطة
الامل
الهة
لفترة
فالجواب
ذراعا
المحتاج
يلا
البنت
يميز
لجواز
وسعد
النبيين
خلي
##قده
##رتين
تكوين
ميمونة
لاز
##واله
والملايكة
عربية
فاخت
فعرف
وولى
والبي
يرده
بنصف
الثنا
حمى
ويلزم
##شوا
يصر
##قيها
##بتي
فاصاب
المسيحيين
موافق
تصلح
العجب
الحباب
خديجة
فربما
الصي
اعمى
فهرس
الاباحة
الكافرون
فكم
تدبير
مرق
المذ
غفور
الاعمى
##رور
اجنبي
الجنوبي
اوسع
العساكر
##ديس
##ركين
عذب
##طاني
القاضى
تفض
قبوله
فاته
العربية،
اجتمعت
بتقديم
الاخفش
تزويج
##قصير
تكتب
الامارات
بنيت
الرجل،
فوقها
مراتب
##اسي
والتف
فماذا
الشورى
المحق
لابيه
ينقسم
##ياذ
##جزات
العراقية
ووك
العجلي
وارض
انشدني
غايب
يطا
الاعلان
فابت
مكاف
طلعت
جناية
شراب
الزمر
وشك
المجتمعات
احصاء
للحديث
وبركاته
وانصرف
وثي
ليم
##باده
النجا
وصلاة
والاغ
يكف
ارتك
فاعله
ساحل
وجوبا
حيز
والاخرى
##كاك
فريد
##فتاح
كالق
والعين
##تح
الصلي
كيد
مطابق
##عاقد
كلثوم
رويته
المتاع
فوات
نريد
##اييل
جحد
##كنولوجيا
##ايله
البيت،
لمالك
##جيع
نادى
الامارة
خرق
واتخذ
بالاش
روحه
الصايم
يوتى
العنق
##خور
##امله
##ابي
الصناعية
التركة
وجهك
توهم
المفصل
فاتي
فسوف
قدرت
##وبهم
الركعتين
شهرين
##ذكرة
دنانير
نشاط
##راليا
الفخر
قاض
الطين
##شان
ونقص
عبيدالله
المملوك
فيدخل
شت
قلبك
يليه
حاف
الموصوف
المرس
##لقه
خفض
والرسول
فظهر
كالتالي
##دخل
##خفضة
بهم،
حذر
هرب
العودة
قعد
تخريج
رءوس
يدخلون
اوليا
الموجب
المقل
تسمح
يرتفع
حدة
ونشر
##لاقة
وساق
سلب
##اته،
ودرس
الحشر
##رافية
##رفين
رفي
الجي
##ذبون
سنت
وتولى
وضعها
قصص
يتصل
اتجاه
الجهني
فولدت
غيلان
وطب
##عاير
وبشر
رمض
اصابة
##لايي
للاص
والاسم
##ضحة
الفيز
يزوج
وتو
والقاضي
يلي،
بتشديد
يتف
طن
واتقوا
معينا
عندهما
الفقر،
بعثه
لكونها
جاهل
رايحة
بخل
##فران
بالاتفاق
مهد
يساره
قران
وبعضها
السعدي
الكاثوليكية
شريعة
وحكي
بالضرورة
الماضية
الوالدين
اجود
الجهر
يتصدق
ذهاب
عصب
مشه
المسلحة
التحكم
الصاغاني
امنت
تبوك
وخلال
تصريح
حبيبة
روبة
والانس
خادم
##اهري
ودليل
مرة،
بالكلية
بالواو
الكلام،
ومذهب
فحسب
##ظف
عصره
المقط
وجع
##زيارة
الدولة،
مذاهب
##فر،
الجمه
فجاز
اعلان
ضمرة
##واتها
لاكثر
والي
اسهم
والقياس
والعشاء
يري
بالباطل
واعل
والثانى
رتب
طاق
منتخب
باقية
نطق
##معه
ابصار
بيعة
##كاثر
كثيرا،
المضاربة
الشامي
العطاء
الدعم
تدفع
نيته
فامره
الدايم
التاخير
التاسعة
بسيط
العلو
المواقع
توفير
##معون
المستخدمة
##راتيجية
انز
انظمة
يتابع
جنود
والدعاء
##متاع
تحسب
المرجع
التنفيذ
##لافا
النساء،
سبعا
ثيابه
وجوبه
يخاطب
تود
##بادل
وتعالى،
قريشا
##كبوت
اللوا
الاصم
وسفيان
##خالف
نجوم
يحيي
واسناده
يطول
ثابتا
##ايكم
نسلم
دال
##ها؛
يدك
##كاة،
عاقبة
يميل
تدعى
طيبا
الاسفل
عسكرية
##وقية
الذهاب
تحويل
خطوط
يعدل
فمتى
استقبل
جين
يعجب
فدخلت
والثوري
##جام
بحسن
معاملة
محطة
استعماله
##جتمع
ودر
الطاء
اخف
شاهدا
ربط
المخالفة
تعدادي
##ميين
##ضعيف
##جران
رايتم
اظهرت
فاخبره
سره
الطاع
وعظ
ممتنع
تشرين
##زح
وطا
المركزية
##معت
للاع
##افى
##لة،
اللعب
تقا
بملك
عرضه
##كوم
والجل
الصناعة
اتباعه
الكاينات
يعجز
عندكم
افاق
القدير
قسمين
الترغيب
ثبتت
وبخ
ينتق
جمرة
يعانون
مقالة
للاخ
الاجازة
اعلاه
فظن
وثق
وكثر
ويعمل
##لاغ
الخارجي
محتمل
اختبار
اقف
والعق
والموت
التدبير
الكن
##مهيد
العليم
بمش
المغصوب
اتاني
الخلاصة
موز
الجدار
جوابا
قبيصة
قالها
الراعي
##مساك
عروبة
فصح
##كروا
تكرر
انزلت
تركيا
يشار
##يكاني
الحركات
شريف
##ستم
العلماء،
تنازع
اللذين
وفيهم
##انا،
الحداد
مشهورة
فذكرت
زهرة
##كلي
ملايكة
فصا
اوصاف
##قطعت
مره
وتنا
##هلة
ذهبا
وخصوص
اسرار
بالبيع
بالارض
الفاي
العبودية
##ديقة
يعتد
السيارة
بصحة
توج
هداية
بظاهر
جير
بالله،
##وات،
الثعل
##وحى
الثمار
متح
وثنا
مجلسه
فالمراد
التفريق
لغات
مريضا
ملم
مليكة
اهدى
##كة،
البياض
الخبيث
البت
نهارا
##ورو
شعرا
نعبد
##ونيا
والته
يومه
اسن
وبان
سمعوا
زنى
طلاب
##انم
##واحي
قدموا
مومنين
باطلة
فظ
نوعان
السباع
اقترح
##وضات
يحبه
فاتبع
##فضيل
فجاءت
والمشهور
وليه
الضبي
الفلاسفة
الحاس
ولح
فحذف
المتقين
الاعادة
بمق
اللعان
نات
اتوا
العمل،
فيق
عماد
يغتسل
البلقيني
##ريث
باسمه
القش
##ارها
انتقلت
الدلايل
##ارته
الطايرة
##يدين
دامت
شريكة
جو
انص
رضيت
فرسه
اكلت
بخطه
بلغة
هاء
الصهيونية
ويعد
وضعف
مامور
ويف
المان
العمي
##سلسل
فارت
انفه
الانجيل
تامة
تراجم
تشبيه
##غتسل
قضايا
حايط
ساف
##كنون
وتبعه
شرعية
قثنا
ياقوت
فث
##وارزم
راحل
مشاركة
البرم
##وطن
اتس
##ياء،
بكلمة
المباشر
##طلبه
بطون
الارحام
##تن
السارق
فالن
##اهدوا
البسيط
فاضل
##وتين
الابتد
ذلك؟
جريدة
وراس
وثالث
مطالب
##حيف
##فره
التهاب
الشامل
البطولة
كاني
البكاء
وعايشة
##ميته
صالحة
بشهادة
فكانما
وبالا
الفلسفة
الصعيد
##كاه
النابغة
العماد
##اسية
فقير
مطلقة
واياكم
والهم
السيل
فيصح
##وقي
اللغوي
مشقة
الاصل،
خوا
قرينة
##اليب
الحصر
اشك
حلالا
والضمير
##نسي
الخراس
تكونوا
##لس
##معا
روضة
وترتفع
استشهد
الذاتي
##صايد
بهاء
##دره
الفحل
ويحت
بصد
خاصا
دينكم
اويس
ردي
شارع
غا
يحيط
اللطيف
يعمر
تنفع
لاعب
##اخير
##روى
شيتم
المعاملة
ويحك
##وفه
الثمر
استبد
##يمها
الندى
خرجه
تطهر
النبلاء
وجعلت
الديمقراطية
ارحم
##يهن
بيدي
بولاية
##جاجة
بعقد
شرحبيل
##زته
وحلف
بتن
لقمان
وموا
##ارن
عثر
مرتفع
فانصرف
وفضل
صه
انخفاض
الخفي
وتفسير
##شي،
المستدرك
النموذج
اجتمعوا
بالانجليزية
طبي
رمضان،
##شاد
لاشت
ذل
##عمة
##زعة
##حي،
الافلام
انصار
##زموا
##ظى
الدقيق
الرقبة
مسعر
عقيدة
وبالج
والحسين
اولم
وتمت
##طي،
روما
##حاضة
##ابيع
ساعد
حلول
ابدا،
احكم
عصبة
##الي،
##دران
مستع
كليب
وشرب
جها
زرارة
محظ
مير
بشدة
دان
المهد
النبي،
يرمي
فجعلت
يحمد
النفط
واخوه
ادركت
##اتين
اخته
تقرب
يكشف
التقييد
المدى
انفسنا
المماليك
استيفاء
فلقد
فالاول
وثلاثون
القوس
تستعمل
قتي
تصيب
##اويل
الاسرار
اكر
وقضى
اعقاب
يحول
##ظلوم
باحسان
بالذهب
لحاجة
المنتخب
زلت
لدفع
اللاتي
العداوة
اسند
يفعلون
يتوهم
والباقي
يرق
##لى،
كوكب
وصرح
وهشام
الجهمية
بالعقد
فاشار
المجلد
الشبكة
لعلم
الموارد
الاستعمال
الحلقة
الحكم،
راسي
متنوعة
والجب
عدلا
حوش
الثدي
امك
اطيب
قنا
فقالا
كانك
فطلب
السوداء
بالقدر
شركاء
لمعنى
العثور
وبقيت
يزعمون
اللباس
يجيز
والرد
لاختلاف
##وبري
##سيك
رزين
وخط
##ماته
##وزة
ولمن
بصير
والعمرة
ففتح
منافع
##صيان
معيلون
الخلايق
تخاف
النهايي
طار
وماله
عمرا
عرفا
شرقي
##امة،
غرم
علموا
كذاب
العقلاء
صعد
الطور
ونشا
تتميز
المجتهد
واختلاف
النطق
الاعداد
الجواهر
وركب
غفلة
والاصح
المعتق
المجنون
معتقد
جديدا
##يذان
##فيين
##راضي
بحم
وثم
اليسير
لتحقيق
اشعث
يعبدون
وفس
مواجهة
استقل
بالال
الفضايل
الكبد
الانث
الحرب،
دراسات
دلايل
تلزمه
قاعدا
اقطع
عنهم،
عملها
يحيى،
وصلوا
لهولاء
بلق
##رورا
المصباح
تقر
مصن
المور
يطع
التدريب
العضو
البخاري،
بالمت
النفسية
الاسلمي
قضيت
##يهة
##تقال
والقط
مرث
ضعيفا
وجعلنا
الجود
استقبال
يسبب
واحكام
جهاد
بحلب
والانصار
دوري
ممارسة
واحي
##برز
التحالف
التركية
صريحا
والنفس
جبلة
يوق
فياخذ
الممارس
##ركا
والفضل
وتسع
محذ
لزوج
ميد
تركيب
اتخذوا
واثبت
وتعد
الزب
##واها
##لز
تارك
بالسنة
تصديق
صادقا
يباح
حصته
الحيوية
مختصرا
راهويه
رحي
جيدا
باقل
##وها،
##دهن
حمير
بالعد
##باشر
التشريق
الجا
##وجة
خلايا
قذ
الدرهم
##يكته
الاولية
يكمل
بعدد
مطعم
وصنف
##فد
المنعم
ويشترط
وذاك
فتاوى
الحلي
الخندق
سيارة
تاسست
بقايا
يخلف
البرا
##راتها
ارسله
##صوا
العصبية
المرات
وعبر
وقاتل
اعتما
طفل
واللسان
##غية
##رفق
النفسي
الحكام
الفزاري
شركات
##برين
محسن
##امنوا
الموحد
##جدد
مساعد
قوت
##كونة
استخلف
والكسايي
##وفة،
مفا
المباشرة
المتمر
الظلام
ثلاثون
السرية
الاسماعيلي
ملح
نقصان
مربع
لعموم
العقار
يضاف
##فقت
ذكرهم
ملف
التغيير
ذنبه
وسكن
وظل
##باج
الجوي
الزراعية
تركته
##طوير
الصيغة
العاقلة
الشبه
وغيرها،
ايمن
السييات
ابيها
ذلكم
جاءكم
وطيها
##متهم
حقيقته
تلام
الايسر
الكرة
بسكون
##ضون
ينهى
وشيخ
جاءوا
دراسته
مردود
الذاتية
قبح
لاش
الراجز
##وثة
##واجد
بغداد،
الوصا
الاجنبية
فيصل
والعياذ
مخالفا
ضاع
قبيح
كخ
##طرت
المبلغ
##ديع
تعطي
الحال،
##بتك
الرسمي
الاديب
فانهما
تمثيل
جميعه
فيات
##هيية
ذرية
وراءه
الحنطة
فولد
وتعل
مشاهد
بالهم
اتصل
حجارة
بجمع
اثنى
حاس
التقرير
الترجيح
ظروف
بخصوص
ونست
زنا
المقدسة
يساله
تقولون
##وصي
المقالة
قاطع
بعينها
منبه
كله،
لذكر
الثابتة
##يعه
الغصب
محج
والباء
حاد
عبدان
ليش
السابقين
الذمي
الانوار
اداب
النخلة
الامتناع
خدمات
ويجمع
مسوول
##ريه
##مالا
عقود
حجاب
اجريت
الوسايل
والستين
##دتين
تنتج
اعناق
مشارك
الشهوة
##داول
المره
مدارس
متعم
المتنا
للامر
الصحابة،
رخصة
التوجه
النفع
الاخرة،
سجن
رداء
وقوة
وجابر
الشافعي،
الحنث
طور
لاحمد
بمقدار
تقرا
والاحسان
افتتاح
جوار
اساء
باية
فاحسن
الزع
العين،
الديني
عقاب
الليثي
معهما
وليا
معارضة
نظرة
يعاقب
لذة
الشمس،
سياسية
تسعين
فاضلا
الادراك
معلم
مولانا
وايت
ازال
وقلنا
الساكن
##جوا
السيدة
بالقتل
قبلة
يسمعون
التلاوة
##ستير
مشكل
التنظيم
الملكة
رسالته
بطلب
بالنون
اشتق
الريف
جيل
زعموا
للمر
الحجم
قدمناه
افسد
##رابا
##ازم
طرابلس
بغض
تري
عتقه
وظايف
##ضلال
طبيب
واشد
ديف
تضر
الحقيقية
بالتشديد
واقر
البجلي
للعد
بوجوب
##يادي
بالتاء
عجب
تغي
كوم
##كلف
الكاملة
فشل
يقارب
التطور
##هية
باختيار
المحفوظ
لتس
يبني
الافاق
المكروه
شامل
مواطن
واثنى
فصلت
##شو
##اعم
وصارت
والثق
بالمد
القناة
فليح
##كر،
مشتركة
فمس
هير
##ويح
المقبري
##قصة
بتس
نعل
الاسيلة
ونق
خرجنا
جيدة
عبدالم
يفسر
الستر
الايدي
المنح
##ركون
انتفاء
مشاكل
##طو
واهم
اضعاف
وتاب
عوامل
يتعلم
استدلال
يطهر
وثمانماية
صفا
##ادها
المجموعات
بقطع
تجر
##ماها
##يفور
خن
لامه
لاعت
مصيبة
محرمة
مستقب
لهب
مستد
بمنى
بقيمة
والكر
واور
البرامج
لسنة
بمعناه
##واصل
امرين
##حويل
مجالات
للحكم
قبلي
الاسبانية
##راما
تشي
العنكبوت
تكاد
يبرا
سنه
الكام
اختلط
فدفع
ندب
قراءته
الرجم
اطلقت
الاذا
بوق
مغيرة
الظنون
ايام،
باربعة
يعطيه
امكانية
الضي
النتيجة
الزور
##بلوما
والمذهب
حلي
دو
بجواز
تقولوا
التحق
للمح
حوض
المصير
ديني
قطعه
خث
تفسد
وجاز
وبط
ينص
مشغ
مسلمين
حمراء
افق
##صق
جوازه
المقاومة
بحضرة
البوا
الطبع
الحمراء
والمروة
تقييد
والرق
والذكر
وجلس
صومه
كوفي
العزة
فيو
والعم
مضمون
متابعة
التاكيد
حالهم
فركب
استمرار
عصمة
##ايي،
اجتهاد
ذويب
الذم
بلاء
وجودها
العزم
الشريفة
ظلمة
يعقد
وكذب
الانفس
حت
العمارة
النباتات
التسبيح
ورييس
فتب
جعفر،
قرانا
عازب
اود
يعظم
الملح
ويمنع
جدار
غزة
شبر
فواد
معاهدة
يبحث
بالنفس
عبدالع
الاوثان
وقعة
بضعة
ساء
للقاضي
##لتا
اعترض
الرحمان
الصدور
كفه
لتص
يرفعه
افي
الشيرازي
##يرهم
##اقاة
الشاي
يقتصر
الشخصيات
حاملا
بعثت
حمام
ترون
اسل
وحمزة
الدرر
##لقت
واعمال
فقر
نصاب
كذبا
الحذاء
وطايفة
فقيها
##روجين
##رسوله
مقيم
الحنبلي
انقضت
السمن
غار
السطح
زاده
مفتاح
فكنت
ونصر
يزداد
خبير
الغم
الجيوش
##خى
مثلي
فلان،
حرفا
احضر
ووال
##جاح
يفوت
منكرا
فغضب
##ذام
المعارض
اصابته
صاعا
وافضل
وحال
قاعد
##سبون
المقابل
##فرع
شام
وولده
الشما
##ومها
باخت
##يارا
الكسب
جلاله
الوهم
وليت
يروا
يصرح
##رعه
تعم
ونها
كراهية
والقدر
الغنايم
علو
الله؛
للتح
##ينها
العجاج
اجزاه
الطوايف
##كشف
##وزا
تدريب
المطاف
ينب
المنافقون
مبالغة
لحظة
يوكد
جلوس
القربى
##ينيات
##وطات
بيانا
حبه
##خام
البلاغة
الحملة
بالقياس
ومنذ
مقاومة
استخدمت
باسا
الصريح
وحماد
القرنين
الاستحقاق
##وسية
ذى
التانيث
الرياضية
الجنيد
##ماثلة
وعده
قبة
بعرفة
الالمان
بحرف
يخرجه
##بلها
الغيث
الراش
##بكات
##رعها
الاسنوي
##لات،
املك
منيع
افتتح
قصور
كنيته
وخد
صنا
الرغبة
معالجة
الهندسة
المولود
النطاق
##ظمه
والسجود
حزام
##كتة
الالب
فظاهر
تشار
احتجاج
السيارات
خلط
تابعي
يوف
والسي
نغ
الحمر
اليمامة
الاعتراض
ثماني
كتابي
مبنية
##ياج
للاح
اهتمام
وضبط
المشاهد
الاقسام
##صارا
المتقدمين
الاستخدام
ياتون
##دلس
يستدرك
كفي
الموت،
مزد
الصحيح،
فسي
الخفين
اهون
##كتوراه
الحين
وكفر
الناتج
وغالبا
يضره
ظال
ينج
##مايه
الاكس
فري
تقضي
بعد،
الانساب
##فتاء
هنري
##قولة
المنهاج
##تناب
فروة
ذاه
النايب
القيامة،
الطيران
ملكها
مناك
بالظ
فذاك
##وايية
بالعدل
بقوم
شعار
بتقدير
واتم
الدخان
وصله
يمد
اوتي
الكشاف
ريت
لدي
فقيرا
خراج
طوله
##راش
ابتد
لطيف
صعب
خاد
السعودي
الارثوذك
انتها
لاصحابه
ازل
##بارته
افلح
منط
المقص
##اقل
يذكرون
عشرا
سماعه
##يرين
الشاذ
##هده
احرامه
الرحلة
تصغير
اليونانية
الورى
سلطة
المبرد
القومية
##منا
##ايغ
يقومون
واياك
##نتم
الجميل
##ملا
البركة
يدخله
قبور
ايامه
مقبل
يخرجاه
واولاد
ويثبت
تصدر
وعدمه
الترب
للاج
وتوجه
قمي
النبوي
جيمس
اختص
##طنطينية
مايتي
مساعدة
رزقه
اقوام
يوضح
فعاد
لابنه
ومغ
العاشرة
الميقات
الصاحب
اعتم
##اعها
طايرة
للمناطق
افرا
باول
فغير
##ويب
هذان
الاية،
قدما
بمنا
وكونه
وصالح
الخشب
فاقول
معتم
يستر
بالنبي
سلمى
##انين
اميرا
الفتوح
عام،
افريقية
بوج
عايل
وادخل
احببت
##ماء،
ينته
الاتراك
السوفيتي
ورود
الابحاث
اعتماد
كك
غرة
اخضر
العمري
خلاد
السيوف
امراض
اتمام
الوحيدة
وخالد
الوزارة
بينهما،
اتفاقية
ياكلون
السيية
الصير
لحد
كاست
والور
خارجا
يامره
##اجم
جاك
صاعد
كز
بوصف
والاز
متم
للترجمة
المسلسل
الصعب
##نته
ينصب
لكنهم
جميلة
مراكز
يرجى
السلسلة
المخد
كغ
##فرون
مرجع
مخر
بقضاء
سنده
الديمقراطي
رحمهما
حار
بالسن
فادخل
##صعة
##دري
الخطر
زعيم
ايجاد
ناسا
فوت
الخادم
الامطار
##سيما
المدبر
ويويده
شمل
مدي
وورد
سيت
نسوة
بجامعة
الافق
منفردا
##رابه
الفكرة
البحر،
مطار
الاغاني
ايمانه
مدع
والاجتماع
سريج
نكل
اللواء
الالهة
البادية
سجدة
عثمان،
حادثة
##وطي
##نادا
الموقوف
فاخذه
ونسب
##تيك
البيعة
دعوته
المذكورين
##قيع
##اليين
والواو
ولاء
يكونا
وجاءت
##حاة
قريظة
وتشمل
الاركان
فمثلا
واثر
ويشهد
المنظمات
ونفس
وكفى
ووس
##روان
وشدة
القصير
جاهلا
اظلم
ونهى
عجبا
صبح
اذرع
غش
فقبض
فاتوا
كوك
بذاته
المعدة
لصحة
واوا
مترا
اربعماية
حرملة
لاحظ
اضعف
محيط
احتمل
صنعاء
عملوا
والانت
سليمان،
##طاف
##تبع
##بيك
##وابط
##راكي
ابغض
الخول
ناسيا
جراح
الميلا
الغاء
اخبركم
فالوا
ثالثة
سفره
والقر
مسهر
##خلع
نشات
الذل
يزيد،
ينصر
يستقبل
##زاة
برفع
وعادة
قف
احرام
تفتح
الحسنات
والولد
شميل
اقبلت
بالنهار
التخفيف
بجامع
الطلبة
##طفة
الجيل
فلانة
فالظاهر
البنية
حان
ايسر
لمنع
البدعة
جاءني
نواحي
ومصر
الحمض
لقا
اهتما
واربعة
فدية
جود
السلطان،
السمك
الطعن
البابا
واضاف
والليل
مقاب
الطايرات
تنتهي
فعن
ولاه
كالخ
تصرفه
الموسسة
ينفي
##عمون
الكنايس
الين
بعلمه
تحريف
بقرة
عشية
فنف
العراق،
فقاتل
مجن
تقريب
##جبه
ذكروه
تحق
فاتيت
##منت
اجمعوا
الاقط
اصبت
سمح
##كري
العلي
##رفون
طير
المعتبر
فارج
##مور
##لافة
استولى
بقصد
الجنرال
##زي،
باعمال
وقامت
رهنا
فتم
القانونية
شها
الزرق
##نمية
لعنة
##باعة
##رفوا
لثلاث
نظيره
لمست
صوتا
ترم
ولب
البيزن
الكاس
عليك،
تجربة
والدع
وحدات
السماء،
وبينهم
وصفاته
ثقل
لونه
الشهوات
لمش
صوف
النواب
بعدك
المحتمل
الدني
عددهم
لزيد
نبا
الاضحية
اوحى
الخلي
##نيها
روت
يون
وتزوج
والتج
يمدح
نظره
##صرها
المعتاد
الطويلة
تعديل
ريال
وباب
واظ
ويصلي
##اهدا
سلعة
الرومان
جوانب
اليسار
قربة
قوام
الجب
##طايا
عقدة
وبقية
فراغ
الراكب
##رايي
##اليم
فقضى
عقلا
يفرض
اجمل
الغف
الدن
تتع
بتحقيق
صلاتهم
##وايي
والشام
##ستانت
يفسخ
نصير
صرفه
تفاوت
وجدوا
والمغني
والدم
الشرايع
التمتع
عبدالعزيز
اتلف
للسيد
يكونون
وتخرج
##زيين
فنون
زمزم
##وانه
##امنا
الاكراه
روبرت
##شفت
المبحث
التعيين
الفاسدة
بالشرط
اصحابي
##افعال
القبيلة
الحصن
والموا
فلولا
اجتها
بالتص
الزبير،
فطلق
##تين،
والقيام
قارب
وجعلوا
##ضرت
تسجيل
استي
فسالت
##وافقة
الاغلب
##قيه
والتعديل
صاروا
يحق
اتلاف
الحضارة
نر
علمية
فسره
شانها
المخلص
استا
خاط
هواه
##لك،
يفتقر
فالك
سالته
بفض
وقتا
الغذايية
وتخفيف
قادة
وصي
صدرت
المغازي
شواهد
بالذات
هجوم
الاطل
اخيرا
يتس
ورغم
باعت
ناخذ
معتبر
الجرجاني
الاندلسي
الارشاد
الاغنية
يكر
الارس
##زيرا
بالكلام
##انيون
##فارسية
جميعا،
عكا
يويد
##ساوي
الاديان
شاكر
يامن
يتحرك
شو
فتس
ورده
الير
والقدرة
التوكيل
الصوف
رجوعه
المعتمر
##فقود
جميعهم
والانسان
المراة،
استخدامها
سميع
العصا
النوى
نكاحها
البراءة
استراليا
كاليفور
واشن
الجعفي
للقران
فافت
##لبن
بيتها
كذبه
##نتهم
الضيف
المويد
المعج
اجابة
الشركاء
امروا
كالذي
الاجهزة
والثالثة
كافية
وعدة
كلها،
الحضور
عدوه
لخبر
مقبرة
نسايه
لزيادة
غرس
مهرجان
القنوت
شطر
المعدل
الناسخ
##طفه
مجه
المحافظ
الالعاب
السعيد
##طمة
ببينة
يتطلب
##وعها
الاسلامية،
التعلم
المطالب
الباهلي
المشقة
بطول
تخفيف
بذن
فمه
##تهم،
##ميها
اكتشف
وانته
الاسط
فهناك
طرفي
عصا
حركات
العورة
بالرج
وتقدير
معاوية،
الجور
اعرفه
الاوصاف
النجاشي
الاستواء
توفيت
اجلس
تركوا
فراش
المنش
ازواجه
شعري
بلغنا
الكع
استش
خلل
اسوا
والباقون
وامام
سبحانك
##طلة
##راري
فرانس
تصانيفه
يلم
عبس
سابع
واورد
##كوا
الشعوب
الاشهاد
وارد
كقولهم
جوابه
##عيته
المفتوحة
دالة
رمز
تلزم
تكبيرة
##ولوجي
الجانبين
تاويله
كاليفورنيا
##اع،
##وزي
الملة
##كافي
للاحت
اشتغل
درهم،
المختصر
يجعلها
##رحه
اشعر
طلاقا
وماء
قدرها
بالخير
امد
العباب
تعط
المرور
الصاب
وقرىء
##صالح
##فته
وعندي
نسبيا
##وبين
المكره
قتيل
التنمية
عنب
يحبس
والياء
الوان
وسميت
هان
##وود
##زعه
الاسلوب
سحاب
ظلت
ومك
انتخابات
متصلة
يوما،
والخام
بقرب
سبل
نادر
واليا
##شرات
وحده،
السامع
وجهي
لعلهم
بالكامل
##دعو
الجوان
وتقديم
##قهم
##بعها
نزلوا
التفاعل
##قلاني
المتفق
##ضين
##طة،
##فرغ
##يادات
##خالفة
راكبا
يخرجون
##زج
شاهين
والصف
##حرز
المشاكل
راحلته
##ضها
الخرقي
المنزلة
مبينا
الزهري،
##عادة
##منه
وسر
وكن
الصنف
البخارى
صناع
كالب
الالوان
العاملين
محاسن
الجهم
##رتم
حاضرا
الدينار
##فارة
وبنت
الرافضة
نصي
جسر
خمسون
واولى
##شيته
محس
الاخرون
المشك
##نفل
##عدهم
الاثرم
لفعل
ملايين
##حار
المساكين
طين
واستق
اطلاقه
تلبس
الانصاف
وغل
يسمعه
للمرة
مكانها
فجر
ابط
بماله
كالك
مهاجر
ابنها
عتيق
الذهن
ضربا
##ثوا
الزين
وخصوصا
الطاعات
بعض،
ملخص
##لاء،
بنفسها
الرخصة
فبينما
وسلامه
الاستي
##تاح
جحش
##شده
البهايم
وعاصم
التجارب
النبيذ
وتعلم
بطنها
ادعاه
تساوي
الخنزير
ينزع
عقيب
وعيد
رجعوا
واشنطن
السلا
المعص
الاوراق
جليل
القح
البغي
مسلمون
المعتز
باللسان
الراية
ميثاق
هيل
اللعبة
تار
وترا
الديون
احص
تطوع
السرور
وفع
ويريد
عادته
التخيير
الحمصي
الخياط
الظهور
يناسب
وابد
توضع
الامة،
شعبية
الابار
للكتاب
طبق
موه
##وران
بمشي
##وق،
عورة
يتب
الفواد
##دود
##اعدة
الحج،
ضعيف،
الرياسة
الحالف
عروض
##روني
##يمياء
حيوة
بالاصل
الداخلي
بوزن
##ذرهم
##باره
يتخ
غايبا
يشتمل
المحرمات
والراء
الفاك
الانشاء
محق
بقى
تنقص
وينظر
مختص
المعهد
والمعروف
الرض
شعراء
اغتسل
الاحنف
تخص
##يلعي
بمست
بكى
خالفه
الوظايف
وانق
مسر
تنبت
واقول
القراءات
ارادت
دفاع
طرفة
التكرار
وكيلا
اساسي
قتادة،
تجزي
وجمعها
##ديه
الحوالة
الدورة
الخيرات
ديم
متصلا
يستغفر
##ضمام
ابر
لشخص
الفقهية
ترجم
فرك
ذلك؛
الجمعة،
يتوجه
ويعتقد
للشي
اداة
المتعد
ووث
الموصي
الاقتداء
اطلب
يرجعون
هجرة
السويد
تدرك
والند
وتكلم
الظلمة
##فوع
اوقع
قويا
الحادثة
وبارك
وطريق
الرجاء
##خره
فقراء
الفريابي
##ذرون
ادعوا
فاجابه
الرو
سخر
الاسته
المقدار
المشهود
بروت
زبيد
اساليب
واحدها
المتنبي
وسكت
يهب
الفداء
يعيشون
مخف
فاسدا
دينية
##وهات
المجرد
حضرة
النووية
##فلت
وعشر
##مانينة
الاسباني
شط
##رتك
التسعين
##ضط
ينو
امركم
والاخت
مطلوب
محارب
فقدان
مقيد
##علماء
استك
اساسا
كفرا
القايلين
منزلا
##ادرة
لاخيه
برز
ماض
يقينا
ويسلم
دعي
والطاعة
##اسيس
##لكة
الغين
##ودهم
العزى
المشكلة
خطيب
وعلمه
اللحية
المرق
التغير
ويقرا
ثمنا
الفراش
سراج
واقامة
بغي
##وبى
ظه
##قاه
حدثناه
##ظيما
وجدته
جبار
شيوعا
رقاب
افعاله
محركة
تفس
لعبة
يفارق
لحيته
لاني
الصفوف
للذكر
العام،
بضرب
فلسط
فجعله
ويوخذ
شعبة،
##ريري
الفيء
الاجانب
اخرجت
الحكماء
شهرة
##طفل
ارقم
اختها
المشارك
والشعر
التدريس
##يسة
ونافع
##ضاة
المتق
الهيكل
واضع
لغتان
الكسوف
قطب
نيك
السكري
واحيانا
للمفعول
الاختصاص
الاكاديمية
##طيها
حقايق
عك
الجبر
سياسي
روساء
واتفق
##الون
المباني
الدرس
يتاتى
لواحد
قطن
تقسم
بحذف
بشرا
وبينها
لحقوق
التواصل
اياهم
##وبته
##راسان
وكبر
الكهربايية
خامس
حليف
حبسه
تعجب
واستح
ويترك
واخذت
عث
الحصار
معز
باعتبارها
استاذن
##يلية
جعلته
يمضي
طريف
الماخوذ
بولا
الانتهاء
ارطاة
ركوب
فامتنع
الحياة،
الروي
المتولي
مثله،
الانظمة
باعتباره
نذير
وبيت
الخلية
والمومن
##وبة،
مطيع
افاده
تعمد
استث
يواجه
##بعوث
الموهوب
##شروا
كالز
لموا
##وعيد
كريست
النجاة
المميز
يقين
اللفظة
فمعناه
##ذق
##غلب
##ريفا
وخمسة
##تداء
##اهرات
اليهم،
الكرسي
وخذ
سنويا
ووجهه
لوس
فالش
انوا
##خس
المند
لذاته
بلدية
بنحوه
##تبين
##باعا
##حمده
نقلت
شهوة
تظ
الاطعمة
حقهم
والانجيل
النجاح
سخط
غادر
اصبهان
تقام
ودون
##ارد
القرابة
مصدرا
المصريين
اللاتينية
لشدة
حده
القومي
حذفت
عكسه
##واجا
واولا
المصاحف
مسافر
الموضوعات
الخاتم
باخذ
ميناء
يسافر
المقيم
##وته،
بالمح
التنفس
الخفيف
اسكت
##سيا
تمتلك
تند
لانفسهم
الرشد
طوايف
##كاء
المركب
الركب
حسنات
بيا
بسهم
الاستش
الني
وطال
اصابعه
الان،
حظر
الغار
التركيز
اصر
حيلة
منفصل
##رافه
اللاعب
يستطيعون
الخصومة
بالكفر
التفكير
ذري
القيد
يستمر
الازار
باستثناء
المدايني
خم
واستغفر
واخيرا
الضبع
سريعا
اره
لهو
##وري،
المضارب
جسد
مضط
البكري
نفقته
علاق
ثمة
##حيفة
تعدي
الجحيم
حوادث
##يسية
الاتباع
ارتد
بيمين
تابعه
حوشب
المناخ
فيحتمل
لقل
تعي
افض
اصحابه،
ابصر
غلا
##ورا،
##يديو
احكامه
خشب
##شيش
كنز
علاقات
جماهير
##قرة
وحذف
لعدة
الجامعات
المرفوع
صغر
معالم
طلبا
للرسول
نمر
التربة
الزبيدي
فاختلف
هاد
الفدية
الرضاعة
انعقد
الزاني
مشهد
الشاملة
الرع
خلقنا
الوجيز
سيم
الفرار
عبيد،
اغنى
التسوية
عاشوراء
تميل
الالباب
ذكوان
غداة
وعص
صفين
المزد
فاخذت
نيس
التحتية
فتا
كندا
النات
تحية
تحوي
تيسر
الكيميايية
##ضو
عرفوا
وسوء
البند
فدا
للاف
يعتقدون
الزعفر
##هدف
المغناط
كتبها
##رفض
مستمر
لحما
الشعر،
دعت
يبيت
فيز
والتم
المحسنين
الازل
ومثال
ويحمل
اشتريت
قوته
وداود
المراب
وجرى
تتراوح
##اريا
الماشية
سلط
خالد،
##راعي
يجاوز
غزو
واصلح
والصفات
المرتد
فزاد
اتاك
دعاه
فبقي
بالنص
الجزري
##وك،
خاض
تعرضت
وثيقة
تناقض
الامساك
##ماوي
والمدينة
الاتجاه
##حرمة
نسمع
كفرهم
التين
باجماع
قلق
افكار
والفاء
##اطير
والعلماء
زينة
وبالجملة
##درون
فاطر
اميال
مصرف
يوقف
زريع
الاهداف
العارف
والزبير
مناه
المسع
لاجله
وقياس
ويطلق
وعباد
بالمش
القلب،
فحم
لوج
وهيب
فالمعنى
واستن
اتفقوا
ووفقا
براء
ويونس
##ءة
بنص
##جديد
##قاليد
وعكرمة
##جاني
الذخيرة
الدرع
والمك
##لاحقة
متعمدا
خضر
يعز
احس
مكن
وديعة
##ينغ
##ديون
المرتبطة
اكم
ضمنه
حرق
##اعته
نكرة
تسليما
عرشه
##بهم
زيت
لضعف
الشعور
الابر
اجرى
بالتك
حسن،
فاعطاه
كالغ
يخف
لحمه
سعر
وره
##وفان
##قرر
الرجال،
ساقط
باللفظ
للبر
اتيان
ملحو
الامام،
البحوث
المعاملات
واثبات
تنقسم
مشتق
هزيمة
##اتلة
عطفا
عرضة
حماة
التصميم
##درة
منج
اصطلاح
بالشف
##ابرين
طهور
حملا
والفتح
برواية
عجيب
فيرجع
الاستر
وزين
اموالكم
##حرق
##هادات
انظروا
بقت
صبرا
ليوم
الواج
##ضرات
منتهى
##مرقند
جايزا
لول
ثمنها
الخير،
العدوي
والعا
الصحافة
##قدت
خصال
بلادهم
المادية
الربوبية
كارل
الشفاء
##رك،
وني
الثقافي
التقديم
يحمله
توكل
فليتامل
البحار
حلة
##فيا
الرفعة
فاننا
مقسم
اصحهما
وكثيرا
والرس
فاقر
ولبس
المعرف
عاملا
سهما
يجدون
مرثد
ساحة
اتاهم
وعلق
يزيل
بينك
وضعفه
نهج
الحبوب
ورقاء
ضابط
نفوسهم
##ومة،
رسله
ادركه
ورثته
العالمين،
انزلنا
قميص
بدت
وزنا
قولوا
عمود
النقصان
بحيرة
المضي
بمحمد
بالحكم
الفاسق
هامة
تعزيز
وروينا
لجمع
وقيد
التوكل
الكوفيين
ميرا
لصلاة
لسن
لتك
تباع
الرجز
مختار
عنصر
مثلما
##حلول
##دس
لي،
والهند
قيامه
وامي
وابوه
##جيبة
للضرورة
متعل
المنص
للمسا
لموسى
الشديدة
بالتحريك
##ابد
الوحش
##لالات
بالاول
العامة،
سعي
يحا
منقط
وسا
ويبلغ
مصحف
السلع
وجعفر
والعراق
لعذر
##حيز
والامير
##فسة
انس،
المبر
الغا
حاجب
العنصر
التردد
المساعدة
الطاغ
الزكاة،
تنفي
اعمار
يستح
ردت
وعاش
##متي
##بارة
ودار
الجوارح
فاسق
وجوبها
الصينية
##يتين،
بقلبه
كيلومتر
السميع
والاحاديث
##كيك
انجاز
مبادي
##سيمات
العنبري
عبدك
يوصي
ثبوته
مناقب
القدح
والفقه
##ويع
##باعد
فاخرجه
رسايل
ورسوله،
بالفاء
الطبي
تفريق
للدولة
ويامر
مكرم
الفين
ببناء
يجاب
باء
اسير
مبد
الكثرة
##وجا
مجيء
بيعا
ودخلت
##طس
قتلهم
فحل
ليالي
المجاهدين
السرعة
##غلظ
فالان
خطوة
شهدوا
قادرة
يلحقه
مكسورة
يتجه
بالاخر
##رضت
يجهر
للميت
طالب،
ورع
القميص
##بيثة
تفصي
بريء
الدايرة
الوالي
الجدل
وصفا
بالعراق
يسبح
لاقت
مصاب
والشرب
بصلاة
العظمة
يفضي
الكربون
تبيع
##نجي
الاند
ويعود
##ناء،
براسه
اشتراها
الرسايل
وكله
تكذيب
##ضطراب
مجنون
التركي
انشده
البناني
الاولي
والصبر
المبنى
نسخت
مستشفى
عمال
ضح
##تد
ولانها
رمل
لطلب
مناة
وكال
والعت
المذكور،
الاوز
طعامه
ورحل
يول
والكافر
المودع
واجل
وبسبب
بالجنة
##حتهم
تبدو
فاتت
خاطب
تعب
واعطى
##عنة
العارية
والميم
النفس،
العيوب
الادبية
التامين
ضامن
الهيد
النقض
تشاء
شاس
فينت
تمتد
دفعة
ميات
فتبين
##جوز
والحارث
صبيا
##رونا
الكلاسي
ميزان
الانجليزي
الاتق
فينظر
تسعى
تكليف
منعت
لازمة
جث
والاوزاعي
كبير،
البكت
بوت
صحب
جانبه
مخاط
لغرض
ينفعه
##ماثل
دينك
التصويت
الحفر
داي
والرواية
##نعت
يتذكر
الزوجية
##سمت
محفو
وظن
هلم
مستقر
##عهم
ستكون
تبعه
تحيض
فيمكن
طوا
يقابل
اكابر
والادب
الثلاثين
لامراته
المنتجات
جينا
حينها
طرفه
زهر
الخار
المثناة
لازما
##امها
بالعكس
مفعولا
راحة
عصى
الجناح
لبد
العبرة
الاعتدال
سو
خديج
غنيا
معدلات
اطعام
فبايع
الجزم
المعنى،
الفرصة
المخل
جهته
العلى
عزله
رواد
رت
رود
غلبة
##ذرة
بموته
##جر،
ابوك
دفعها
وقدرته
تحفظ
محدود
خفيفة
ليصبح
الاصناف
دن
عزة
مشاهدة
بدن
التحلل
افس
وسماه
##اتيح
والتاريخ
دجلة
ضده
ناه
والنهاية
التبع
جندي
نمط
فروى
طبيعي
شايع
القطعة
شاك
وذكرت
الطريق،
للظ
الزينة
يروه
مماثلة
تذكرة
شرو
نحوها
##انبياء
للبل
##اجز
راها
للتق
القطن
المحص
زاوية
المجالس
يقص
تهدف
يشتغل
بقين
الماذون
والتعليم
اضر
بقتله
بيتك
بامراة
حالها
واوليك
للدين
يواخذ
ينفرد
الزيارة
بفعله
بلاده
##قيته
الاضط
ماتوا
نصفها
تحسن
القاهرة،
يصبر
الظفر
وساله
تنقل
افواه
نفوذ
مضاع
الضرير
##سو
الالتزام
كاذبا
المشر
والدر
البدايع
شاركت
والاقتصاد
##ضن
##باض
مرحبا
يدها
عينها
اسلموا
اسراييل،
الهاد
سيفه
حريث
المتب
نسا
الاصيل
يومنا
عودة
والموس
السمعاني
فاقتل
تعقل
##رارية
عرفه
الانتخاب
##جدوا
الخصايص
القشيري
ويذهب
بلدان
وليها
فصول
نفعا
يمتلك
جواد
يسيل
الخطوط
مصف
كلوا
بقبض
قمر
وقراءة
ابيك
متحف
##نسبة
##لتي
ليخرج
قبله،
يدرس
النعل
لتحديد
المخطوطة
وتقع
##يسا
الحارثي
مطابقته
قابلة
اخرجها
فوقف
الشمسية
##تلوا
الاغنياء
نعرفه
المبسوط
ارث
##شارد
##لندي
واخذوا
الوسيلة
لوحة
امتداد
بواجب
القتلى
عايذ
فرسا
##رته
امم
##ارسال
قدميه
ثابت،
لحظ
للاد
بالصواب
##يرو
محلها
يملكون
فيجعل
قدوم
وخلع
التزم
غام
##وخي
المصلى
المضارع
##فعوا
يعلق
منظور
كتلة
بحرية
بود
الصفقة
الكرب
هناك،
العينين
ممثل
الذراع
لقال
ورثة
##وذا
تقط
مولد
الحوت
يدخلها
مستان
كتبهم
##رنا
استيناف
الحاوي
هو،
بطلاق
قياما
غيبة
فبان
لحاج
واشتغل
يضعف
بخلق
والصالح
بتد
الاتصالات
عري
تتطلب
المغفرة
مسلسل
تفضيل
##يقي
الخطاب،
الماجشون
فيقع
##غفار
الحث
وهد
والسلام،
اضيف
رجل،
راكب
ثقيف
فذهبت
بمقتضى
جاب
##زها
اقتضى
موحدة
اختياره
افلام
بريد
الشطر
افرد
يقام
ويحب
الايلاء
استس
والشرح
غرف
##ظرت
اصنع
المتصل
تدعون
العصبي
##لتك
وصفة
امكنه
وصرف
سادس
تصحيحه
تنكح
نايم
راية
منازلهم
القريبة
السكوت
##فيك
الرقم
##بش
وجواب
للتجارة
ضرار
للشافعي
راء
الخا
الجنان
والبيان
تقنية
تنك
نقلها
ورجاله
القاء
ضمانه
مخرمة
##لان
##احات
يصعد
ابين
سابقة
اتفقا
مخزوم
طبقا
تقف
الاجير
##نساء
بكرا
الخراساني
##عكس
اعتكاف
تزول
حاك
قرض
وسوف
الجارود
المقدر
قلوبكم
بدور
تنتقل
##نود
ويرفع
التقسيم
والاجماع
يضيع
وقفا
الفني
##متم
بالقضاء
بفر
##عك
بعدها،
##فقين
تعتد
وسالت
##اهيم
واموالهم
يمتد
معق
افصح
فضحك
والسبب
قاضيا
يديك
وموضع
اكلها
ريش
الحرج
##ومون
##قلين
حجرا
حايض
اعوام
يستقيم
مفتوح
##قدس
سهام
لوجوب
ويضع
بالعيب
والخد
اليماني
فحمد
##جته
نقيض
غليظ
##ذت
المشرو
##ستي
معدان
محافظ
الباقية
يشا
مظهر
باطلاق
الاستغفار
خالدين
يكفيه
ونساء
طبيعية
النفا
مثبت
تاثر
تاء
حذا
مقيما
وسير
الكوكب
الانام
يحقق
واعاد
علمي
اوراق
ممر
الشم
ادخلوا
##تون
##بعا
يديه،
سرح
الحرك
كو
كوس
لسل
السهل
##طيعة
صهيب
بسنة
كهر
فيصلي
الجسر
##وعظ
لبون
النمط
##فتهم
بالتخفيف
باليمين
##فصلا
بذات
رفيع
##رجح
تشك
اياكم
فاصبحت
فلعل
البلخي
تختص
##وجهة
ضخم
بجل
الطوسي
يغضب
استطعت
يتاخر
يسمون
الاوايل
العشرين،
ملاحظة
نصفين
يبغض
المفتي
العصمة
انث
##انيه
الجيد
والواجب
فتاة
فهمه
خمرا
##صام
بالقبض
##سكين
بسببه
الساع
وطول
يومي
صعصعة
الحواري
ايقاع
الصاع
متلازمة
المواطنين
الامريك
ومسح
توقع
##ونسي
وزر
زماننا
والترك
وكسرها
##يافة
فانى
مساء
الاقتصار
بولد
وباط
الاوجه
##اقط
والتر
فالس
الامامية
يرجو
مميز
النصيحة
فمنها
حياتها
ميدان
##وحش
ستون
##يية،
##اب،
فاحب
امرني
الميز
تولوا
مظاهر
بقراءة
##نجاء
موارد
المركزي
التاجر
##طفان
##نادق
الارضية
بدرهم
##حاء
##زلي
##متك
يوسف،
واقيم
##تكف
خواص
مستحب
ببلاد
##عجل
##تيال
حكمت
عشاير
##مادي
المسكين
رواحة
نقاط
التيار
دح
ازيد
ايراد
ورجال
لجه
القراض
النقاد
بعوض
مسالت
تربية
والقضاء
وصفها
الالكترونية
بدله
##طا،
##اهير
استفهام
بالصبر
الانما
##جاسة
وادى
التخلص
الارهاب
البصريين
المتوقع
واحتجوا
كجزء
بالنا
القربة
##بيوتر
والجمهور
##قش
عالي
وترى
كرام
##ومان
وحديثه
##يبات
والعالم
وقاله
العزل
فرنس
للجمع
السلفي
الاهواء
يقدح
بسوء
وجعلها
الغروب
الواح
الهرم
##ساعة
وتمكن
ينكح
اجن
قلم
علام
وبدات
الروسي
يتل
##ياك
بالسي
بذاك
عيبا
كانتا
احسب
##قارنة
المناه
بالاولى
البحت
فلانه
الاستيلاء
الاعور
الطيبة
درو
صندوق
الجريمة
##كسه
النسيان
السو
مساف
##ويز
يرتبط
الخيال
##طعمه
المرتفع
الاشتغال
##ماج
تجتمع
مدني
الملقب
الحماية
##برع
تلقي
ضبطه
##لاقي
اخذنا
ورسله
قولهما
اسماعيل،
امره،
والصد
الممثل
قرطبة
تنزيل
والدارمي
دوام
هزم
الحلية
والخير
##لاصة
مجز
محاس
الافريقي
واضحا
ادوات
سنين،
بالبل
الواسع
##رتي
رهط
الايد
بنس
فتلك
##راتي
نفيه
القسامة
لرو
يفي
كرامة
##فول
افندي
##كايات
والليث
الدموية
الذاكرة
الصحيفة
حافظا
لمكان
والدها
رضاه
##درج
##لمين
لحسن
يخطي
تساعد
حسبما
اليونان
الالة
السلطنة
دفعا
##ياكل
كمل
فياتي
المكس
ويليام
زمانا
##طوي
والحاوي
يشد
ابتغاء
البرتغ
فسم
التهمة
للسي
العامري
تخفي
ومحا
امبراط
##بيرات
اثما
فاعرض
ديوانه
منطق
##بل،
اللوم
ظننت
ناقص
خلقكم
##ادير
التحفة
رييسية
والاكثر
اللزوم
اقبح
##اس،
بعم
##نى،
المسعودي
بالرجل
الباحثين
كونهم
##ديين
##عدين
الغريم
يقاتلون
والحب
فبينا
جاد
فالاولى
والشراب
عايشة،
والحيوان
متك
المحذوف
##جزه
سموا
بواحدة
ظنا
##يايه
العدول
طالبا
غلي
##دير
الطهور
ونظرا
الايطالية
تنه
جرد
استب
##ذرا
باياتنا
مطلقا،
والعامل
المراس
المجلة
العقوبات
لعمرو
اراء
الصنعاني
الميد
الاطلاع
طالت
رابطة
يفقه
واسطة
تكثر
التجربة
ماب
##شاش
جاره
المعادن
##برهان
تعبدون
فزع
اللهو
اقدر
يبيعه
الرسوم
رياح
كوا
القديس
##زاع
البخت
وفهم
الاوكر
والملا
المنهي
الاشعة
فاعط
ووجود
الرياضي
عداوة
اشع
اجمالي
اسوة
##ويته
اشته
ذنبا
فصاعدا
يتهم
فقدت
المشترى
العقايد
واعط
القه
يسوغ
وعليك
المذكر
الرقي
الدخل
اعمالكم
الواجبات
الايطالي
تحريمه
المستشفى
لزوجها
مفه
سلمت
اختلافا
الغرر
ثلثه
ووافقه
وسبح
وقالا
##عمله
سبط
فحص
فشهد
واعلموا
الصادر
الزوا
مغفرة
فتوى
يكسر
الشعير
احاط
##اتبه
والكذب
الباب،
خبز
تضمنت
المنية
الباجي
وتقل
مكاتب
ثناء
لاف
##رتبة
ترتبط
##غله
الدمع
بحفظ
المستمر
والشهادة
حنطة
انفع
اتبعه
كمس
##در،
شهور
بالدعاء
##وجي
فتق
اقتل
وظهور
حلب،
##صحاب
##بايي
فعلي
يار
الرغ
بابل
موضوعة
يشغل
حرمه
كيلو
كوريا
قدس
فرقا
يصد
مصح
اهمها
رسمية
ملء
العي
لاسباب
بقولهم
##قبله
الخلق،
غلبت
عبادته
والخص
التض
الضاد
تطلي
وخرجت
اعتمادا
خذوا
ويقت
لمصلحة
بصحيح
ايس
وشارك
غاف
يقاس
موضعا
تسي
بصوت
فراشه
اعتقه
فوصل
##حمه
اللبنانية
الفاحشة
الواعظ
المجاهد
جهم
العافية
##يتنا
ضخمة
الخمسين
معين،
وطلحة
##رف،
واللا
بعذاب
##نفذ
نظاير
محدد
##مح
يجي
العاصي
سنوات،
ذاتها
والاخبار
فاسدة
بطال
استثنى
تحالف
بالقر
بحاجة
##قصان
##رايها
ولابي
مسعود،
الانصاري،
روز
يخدم
خاصة،
مومنة
الداء
تعز
مراجعة
المخصوص
للال
الخولاني
##مارات
وغسل
الدبر
##وهية
ببيان
ويسن
احسان
وحمله
الكفرة
تلد
الظلمات
الذال
##باقي
غيرها،
اشهر،
الضلالة
##وضي
تجه
تاما
بحي
يومنوا
هلكت
امسى
الاختبار
بغل
##هرت
##دايا
قمة
والمه
تدريس
اصدرت
وكذا،
وحسنه
نافلة
الفراق
تضي
جريمة
القلق
موخرا
##طبخ
##نش
المنورة
بنك
الغلط
التقنية
تعجل
بايدي
المتكلمين
حايل
##اف،
الجنون
للفقراء
الرحل
##جيين
##كندرية
تمليك
اخباره
بعتك
والزكاة
تجديد
##حبته
اسكن
المحام
عرفات
بوص
##وفاء
##وقوف
المدخل
شييين
للاطفال
ومخ
باحت
تقوى
رغب
الشروع
تستحق
الاوامر
##ايش
توف
حبيش
عرفنا
كسبت
الغفاري
اقا
التهد
##شتراك
والحرام
فجل
معرب
الراغب
##ولان
ابطل
الوصايا
ليه
##اجرة
النايم
##فاك
##ماش
وفارق
والمسلمين
جماعات
واتوا
دموع
استعداد
يجده
بديل
موضعها
كيلا
الحسيني
طراز
موعد
النفر
المدل
وقب
وقرب
##رار،
عفو
كاذب
فقمت
مقدما
عميرة
والطلاق
والهاء
فيبقى
المحس
يخلص
##شيح
لتج
وامرهم
بالدي
تيمم
##ولة،
وهبت
التتار
اضاء
##حداث
الختان
الدوام
ويويد
صخرة
الزخرف
ينح
الغراب
وانشدني
##طىء
مولود
فذ
وتعرف
بالعربية
واشباه
وناقة
الفضيل
هرمز
وبنات
غف
الصانع
حسنه
وقرات
مشددة
التجاري
مواز
##ايتين
##اق،
##ضاها
فهلك
اذربي
اثبته
طولا
المصابين
الجعل
يسرق
فرضه
مشابهة
##طير
بعتق
مولاي
##طهير
روب
راسه،
جنبه
المنط
مكية
نزار
ثامن
مكتوبة
مشر
واكرم
وعا
يزاد
كان،
ولزم
مثلهم
تجنب
لمسا
ونتيجة
وخطب
مقبولة
ويقدم
##عتك
بدنة
يحدد
##علومات
تقييم
##خري
وسجد
الاكتفاء
وكلمة
يقعد
اذه
##لاتين
اخذته
##قلية
متا
قباء
تكذب
ادخلت
بالقوة
يور
تقم
التعظيم
مولاهم
واسط
محدودة
اسباط
زوجا
##كرت
##وقها
واطيع
تراجع
والغل
فاعلا
النهايية
شما
انزله
##وفيت
دني
رطب
اضافية
بالار
احواله
والجهاد
##ستون
يدين
الاحول
##وريوس
المعتصم
قولكم
حلفت
الاستسقاء
الاخراج
##وضوع
بسل
ودل
التصنيف
ببط
الحف
قراها
قريش،
التمويل
بخمسة
فالواجب
لاخذ
والضحاك
ثمار
نيسابور
التمهيد
اليسر
القمح
الضرايب
ومعاوية
العزيز،
الصيني
عقبه
الليبر
المالي
المولد
الصايغ
##واهم
لظهور
##تدي
يبنى
مزاحم
رص
##ييا
مقصور
العاملة
بالنية
الاجمال
صاحبي
ببيت
##فلسفة
الحصى
الموصول
##سلت
طبعة
ضياء
تنعقد
يدفن
فسالته
مازن
كابن
##دام
##يبها
يجدوا
البخل
والاعمال
شيوخه
##يتكم
بانواع
##تقاء
نضرة
الخس
والخمس
قصي
البرج
المناسك
##ركت
جيشا
الطاعون
يبصر
صاف
التفاوت
بطي
##نثى
الامهات
الاشجعي
والنه
راسا
الفرح
ويبدو
اخبرت
واستع
مملك
وسمى
يستحقه
الكنز
بجه
##راة،
اوامر
العتيق
##لالا
مقطوع
نفا
يوهم
درست
فبعض
يظل
الحكاية
اودع
غافر
##صته
الزيلعي
الجزر
ارتكب
الايرانية
اشجار
تقصير
داخلة
والباطل
الابناء
دقايق
##احا
يده،
النافلة
المفسرون
يتبعه
للمتق
والبيع
اسرى
تفقه
سينا
لبل
والضرب
##ميري
وكلها
وتبين
اجنبية
##ازن
المصن
الوقود
والفساد
##ابن
رقبته
##سرا
##اتحة
المنصب
##راسية
مارك
نماذج
المحققين
جشم
##نافس
وشعبة
الماز
بسهولة
وعي
المتحف
##عنبي
تلفت
##ضلة
المفلس
يتش
الغبار
بالسلام
ساقه
ادر
فليقل
التحول
مراقبة
الشوق
وتلا
بعيرا
داف
عطا
وقيس
##خرون
تتغير
ينشا
فعيل
فحدثني
نداء
يبدل
والكفر
مرتبطة
ونسبه
##همان
حياتهم
بعرض
موسس
##رايق
قعود
اثرا
حاضت
ابحاث
ينشد
الجمهوري
صعيد
والعدل
الصم
لتت
واللغة
فافهم
##ثت
بدخول
التوجيه
مساكن
الوعي
بقراء
واعد
الخاس
والغنم
مواليد
الايق
فاول
توقيع
قبلنا
البييية
نيو
وباس
الداعية
قومهم
التعزير
رقيقا
##فتان
شفعة
لحي
تدريج
اجبر
للما
فامسك
العيدين
##جني
النهى
بدم
طلي
الفخذ
ونح
المار
امنة
مثلا،
##رقه
رييسي
باصحاب
##هر،
اللذان
فراق
##ستين
نرج
الفيدر
##ويلات
اذنت
##كها
امريكية
تموز
##ذكور
##زالي
راني
التامة
الرقا
رجح
خزاعة
نحوا
##خيم
بصيرا
##ارتها
بعدة
فعد
بالدم
وصيته
اثنتي
تركيز
مكانة
صوابه
والمسي
تقاتل
مقعد
نقط
الواجبة
الجري
محلا
##ويرية
بامكان
##خها
##قييد
فتقدم
فرسان
##واحش
الاراء
للحد
والمز
فران
الارتفاع
ازمة
خصمه
##زوين
متاخر
جهات
المحمد
الغفلة
حصار
عسر
يتمتع
قيصر
ويقيم
##بابات
النجس
تحريك
المرح
قرون
باداء
##ضعة
التلم
ذيل
المختص
الاحق
يهودية
الهمز
خطبته
الغاف
تسير
واستعمل
سقي
الحاق
يتغ
تدا
البوم
والاية
فاختار
الارسال
ابويه
التعدي
تخصص
بالقلب
##مانه
سكون
والمكان
##جوج
##ذاكر
هذيل
الوجد
باين
اسهل
ذكرهما
##وكول
اخراجه
وحش
##صدار
مالها
بكاء
يهتم
ومه
سرعان
##انو
فيغ
والخلف
سلالة
الاحتياط
مشروعية
شير
شفاعة
مالية
اخرجوا
مضافا
المزي
الحيرة
حنيف
ترتفع
لقيه
يلقي
وصحح
الاذكار
علمهم
صيدا
انتخاب
حروب
فسدت
البركات
صعوبة
النمر
يستقر
انشدنا
مايتين
الجراد
الرهب
السه
الفيروس
وعاء
##شر،
ورحمته
القير
والخوف
بالقيمة
##سكي
والخلاف
##صيص
##لقي
##وموا
ضررا
اتخذت
مونة
فهى
نسيت
تتزوج
البروتستانت
الراشدين
تدمير
زمعة
الانشطة
ونب
درب
الخلوة
والرحمة
ضلالة
كراع
منفصلة
##راقب
##وايته
اخشى
للارض
وسبعون
استقلال
ويسال
البالغة
حمض
مطلب
التعليمية
التاليف
للذ
حديقة
القبيح
##ادى
سرد
وقصر
بدفع
سيوف
الكريم،
يسالون
بوقت
##غات
علمتم
الراحة
نقدا
القانوني
فبعد
سقى
مسكينا
موكدة
##ليو
يسيرة
ما،
يقلب
قلوبنا
وتركه
يضمنه
والمساكين
مليح
الاصولي
لعباده
##اريات
المعقول
##دتك
فضربه
كفره
##روهم
واسكان
الهدية
حاطب
##يهقى
خشي
اخوته
جاءك
مواقف
القرعة
لحصول
مطالبة
ياخذون
المرب
##وخة
##بطت
الفرسان
مختلفة،
موظ
جمعها
##عارف
عارفا
حجه
فداء
لبر
اوح
لترك
تعجيل
للجد
وموس
جوه
##ينك
والرع
هنا،
جودة
##وحدة
##راتهم
##ويها
خوارزم
صير
للسلطان
الضان
المجوس
بالقوي
يبلغه
##ذبية
تخالف
بالزنا
##ستان،
##طفاء
والعلوم
##يلين
المسو
ذكرى
ستيف
وسطه
يوحى
يوحنا
##نفقة
##ذبهم
اجتماعية
##ترا
ويسم
فهلا
وخاف
ندري
بنفسه،
ينفقون
خالصا
واصلها
يضحك
ينك
الغداة
فرجعت
الدرجات
استيقظ
تعدى
##احبة
الباقين
بالعمرة
وكشف
واحدا،
ارتفعت
فاء
وحكاه
طري
القعود
وارى
##كارا
انتظر
اليتامى
فوجدت
##لكات
مقالات
خاي
صادقين
عزي
##صفور
العاقد
اخيك
كتابته
ملكة
دهر
عفي
ونز
ثنايي
وتحقيق
##قيد
الصخرة
المعقود
الثور
وماذا
والزهري
سيق
ولادة
##طاكية
تسكن
بالقسط
صحتها
ولاة
شذرات
اشتراك
مبنيا
ساجدا
واصط
الغابة
الملف
فمعنى
لانتاج
فون
بلالا
كسبه
خالدا
شاعرا
الميلادي
اكتسب
شفاع
مسار
ونقول
للحاجة
الروماني
لليهود
يعاني
وقدره
##بريت
هض
شوبري
اطال
سات
الدنانير
المقدام
وارج
يلبث
فها
الكرامة
وحس
الاثرية
السكنى
المنير
هيكل
اندر
نومن
للانت
المثبت
النقاش
ويكنى
##ضاوي
الخبا
واشتد
يقود
صواب
##رونات
المشهد
بناه
##طلبات
زد
##عليل
بعمر
المواقف
عقده
الافريقية
الحارث،
المجالات
وفسر
القار
بلسانه
موصوف
##غلا
والمي
القبط
##معاء
ولج
سيس
ونفي
تطا
الضروري
هادي
فباع
القدرية
الزاد
##ماير
احرف
نواس
مركبة
درع
حفل
المنتج
التقليدي
بيوتهم
##جيز
المغرب،
مكافحة
البو
للقضاء
المطلوبة
اكثرها
تقليل
الفضيلة
باثبات
##خرت
جماعة،
##مارية
طاهرا
##ثيق
##ذوا
الايتين
##وتة
والكثير
البصرة،
يوصل
ديارهم
سواها
كراء
الخطب
اسق
الاستثمار
يشكر
لوز
ذهبوا
الرضى
لدراسة
ويصير
الشبهات
يجل
الفناء
ترتب
شوك
فالحق
اتش
الوص
سحب
الحذف
والتاء
الحرص
##ريفه
##عدية
الزنج
كولوم
وخر
والاثار
الاحاد
تخبر
اوان
للعامل
الثمانية
باخر
الارمن
ويدعو
نواه
معتمر
نسبته
الجوهرى
الجودة
متفرقة
اقوم
واعادة
الكهرباء
جازت
مفسدة
عقدت
واجر
الصا
بانك
الابرار
الورع
يوجه
اراده
ادعاء
والالف
وقلب
وسالته
الذرية
المساقاة
بتش
وفتحها
المحظ
فلب
واليمين
بالعقل
التعب
الرفق
ويصل
##وجر
وبسط
##ويك
اليمن،
##خاطب
##ختي
##وكيد
الهجري
بالاي
وتبع
ولحق
قررت
بالغة
زاي
الافر
ينق
بالقراءة
##شعر
الرياء
الهوية
فكت
الفيديو
##وضاع
مفردا
يشعرون
الجماهير
عارف
الجواد
لمت
طرفا
فزعم
ركعتي
باربع
طلاقها
التعا
دفعت
وصوله
تنقضي
انهار
يخفف
سييات
الحلفاء
وكلم
السليم
فبكى
وفرض
ومز
لتم
الخبرة
والتمر
الجميلة
تقلب
##رضة
الحديثين
لعد
المجمل
التعرف
النضير
خليلا
##نكم
التعم
بيية
قاط
##قابلة
ففر
##لاله
المقيد
وود
وجي
يستن
العادية
وعام
السبق
##برس
اليما
كالبيع
##موح
انتشرت
المقب
وقتلوا
والمجر
صرت
المقاصد
واعتبر
الحلول
وضح
وامها
نوره
خليج
للفر
ادم،
شمالا
استجابة
ادوارد
عداه
قطني
بالغيب
ارادته
##رقت
بمحذوف
مفل
وتصرف
فهنا
كالف
الرياضيات
سفن
المكنون
المتعلق
سيدها
يملا
الاستيعاب
وقضية
المزارع
الملابس
ديفيد
وهار
قالوه
بهيمة
وعليهم
زوا
مسلك
لبناء
استخدامه
شريكا
عابد
الديانة
المنهال
السفلى
توافق
الصق
الناقد
##شيط
##ضعت
يبايع
تبكي
الادباء
البحري
##ابرة
##ابة،
الجوار
مسقط
بولندا
شكا
توصل
جلدة
وذات
عرس
الادارية
وارتفاع
اسابيع
السرخ
يتبعون
الاقارب
محرك
##طرف
##راوي
الاستد
مملوكا
##اثير
الحرس
بالشفعة
ثقافة
الطوا
عامين
المقابلة
دستور
نيسان
سمن
هوازن
والبيت
الصافات
سيطرة
نخلة
الالات
المقبرة
الصادقين
شعاير
ضيف
توماس
المازني
فتحها
الاستقرار
بالجز
هيهات
اكسيد
فصد
قع
##ضاعف
وقط
وروح
اساسية
والقتل
وبالر
كابي
اليومية
##خارى
نصابا
العدوى
تنص
##ابيب
رابعا
صفقة
بهرام
فرف
تنسب
يتمثل
فصلوا
دابته
لعلاج
يراجع
حقيقي
الشوون
وملايكته
اخاك
تنزي
مبيع
الحور
المايية
ارتباط
والاحكام
جدع
##كك
الطراز
سمت
##صها
##لنا
للبخاري
الموضعين
اخى
##اعت
كالث
بوز
سعادة
فيض
شعير
الاعتداء
قدح
الره
الزبيري
مقدرة
خباب
سرت
التفضيل
##صبة
##رفيه
الابراء
##طبيق
الاشعار
وصى
مستعم
والشافع
المحرمة
وحذ
والبقر
ويكفي
اليابانية
تشا
جبه
والهي
قطعها
ايرلندا
طايرات
الصار
خالصة
كتبا
بمرض
##ثان
والقلب
##دايد
للمص
القسطنطينية
لحن
استقرار
معم
جوايز
وشد
الحوار
معتب
امداد
يتوقع
باعادة
الزايدة
يتحول
التقصير
ظاهرها
خزاين
بوش
##انغ
حال،
الحجرات
الخيرية
المتعددة
ياتيهم
البطلان
الفلاني
للفت
تهم
##ريها
اردنا
لاعادة
للمتقين
غربي
والصوم
فاخبرته
الاستقبال
الميثاق
بتف
ونظيره
اضمار
حجب
مماليك
الحط
راجعا
##سما
##رامات
الفايق
استج
فرايض
##اهي
موطن
واقرب
##طش
المصرف
وباقي
توم
الجرايم
##نايه
يلتزم
وسنن
يخالفه
وبق
ويحكم
عدنان
التعديل
صيغ
الدم،
يسلك
الاجراءات
عهدا
يطلقها
مسد
##شارا
محبوب
قاف
جلده
لامراة
البوس
يقيد
الاصطلاح
عظمة
الرصاص
تجز
لابراهيم
السماح
ثمامة
التعلق
الخانية
غياب
وقرر
وغلب
بالحاء
تحولت
قصدا
فجاءه
نكون
ميلاد
اسمايه
حتي
قود
المنى
اسنان
فعمل
##جدة
المجرمين
جوفه
رويت
المحض
كبرى
ثبات
##ديقه
قتلا
سالما
الوثايق
حلا
يشاهد
دافع
##كروه
بجنا
حقيقية
الصيرفي
استطعتم
ضحى
رواة
بطرس
تشارلز
وشق
زكاته
الشيوعي
ياتوا
ميا
امال
المركبات
##ودان
##كيين
شكرا
نجح
عضد
الذباب
لدينا
وهب،
##زيرة
والقاسم
واعترض
اصابهم
يركع
الندب
والمض
بصيرة
بامور
نايبا
نيف
الحسين،
عقول
##اييس
المكارم
والتقوى
شبع
يمل
##هملة
##طانة
انسا
زيار
مراة
بالاك
معطوفة
كرس
الحادية
##يناهم
السلب
وبات
والنخ
الورقة
بطوله
برح
بينت
تحصي
بعت
فكبر
##صات
##بارهم
اعلمه
سماها
##يلى
الناظم
الاستمتاع
المداين
العروس
الخبر،
الصليب
اترك
تحتمل
بواحد
##فلحون
هرقل
غناء
الكبير،
زب
صيف
عرج
كرر
خيره
المورخين
المصيبة
مدرك
بغيرها
##ختصاص
يخطر
لطف
##جلوس
عنهما،
واختيار
فالتفت
وانتهى
الفردية
شين
##ايا
يقرر
##لتان
##داوي
يحكي
عقدا
لزوجته
مختلفين
تسليمه
يسوع
##سار
##ولته
الثرى
ليقول
لوك
كالد
##راجعه
النهضة
اللباب
يجادل
باسماء
تركي
التصوف
صدورهم
الطيبات
بالتد
عذرا
الهات
البيهقى
مثلك
الرباط
وحفص
عددها
ثانيه
مراب
فاضرب
احوالهم
التثنية
غفل
##علهم
المعتقد
وقومه
فتوضا
وانتق
يدركه
ادخله
ايوب،
##طفي
الحيل
اقصر
بمد
الرابطة
يراها
ولحم
سقف
المستثنى
النوادر
لنفسك
وعشرة
فترات
عشرة،
خفية
المفض
وصاح
والقسم
ارجح
احدنا
المتا
اهمله
##ية؛
سنته
بالغا
الركوب
عشرات
سرى
كالمس
همز
سرج
##ورون
##ليلها
غرق
ركبتيه
الخضراء
المصلين
ياخذها
يوقع
تقويم
البلدية
المضادة
التمس
القارة
فاجاز
الاسف
ماله،
رومان
الهما
والقوة
اللقطة
واليهود
عظيم،
والزم
تدبر
لاخت
فحا
جاءنا
##اناة
القتيل
زجر
صعود
طبيع
بالرد
الغمام
مدريد
الدكتوراه
خلقها
وعدا
لمثل
##روفه
يغيب
صبيح
للي
اولا،
شف
##اقت
جهر
بالخروج
##وبان
رقعة
الامور،
عصام
سكوت
البلاغ
موصولة
وحبس
راسك
والقبول
تغتسل
ارتكاب
الصب
مصيب
وتقوم
والكتابة
متقدم
ويكتب
بديع
مكتوم
الاضحى
واستمرت
واصاب
الشهور
والحساب
الخواص
تفاعل
فجعلوا
والسم
العمامة
فملك
تقدمه
سياس
الضفة
بسبع
ابرا
وايد
##ودين
داخلا
لعمري
مايكل
بايديهم
مزي
القزاز
يوول
##نزه
براي
الصباغ
##طر،
المشروط
داري
##يامه
يحبون
والصدقة
اللقب
مونت
لدلالة
##متنع
وامثاله
##ءا
فيرد
موتها
اسمعيل
تبرع
المعطوف
يوس
املاء
بجوار
والعقاب
##وكد
مسه
خلفا
الثقيلة
الجوانب
تولي
الاضا
فادع
الجوامع
العباسي
الفضلاء
عبدالملك
عنبسة
واسب
##نسيق
##بهت
##اعف
سفرا
محار
اذنا
خلاصة
واقتصر
مظل
ابقى
الاستبراء
تشغيل
بارت
ووجوب
وسبق
العاقبة
يفرغ
بحج
بالكذب
الجوف
التنفي
بالدخول
تواجه
سبرة
واظهار
فللم
اهله،
صحبته
فيشت
فاذ
الاحرار
الانتصار
ويقدر
وتنت
الطحا
يجهل
تاثيرا
راد
ويغفر
القصيرة
سهوا
وامتنع
الخلاء
النشر
الابهام
الحديدية
ينتقض
والعبادة
عمدة
##يكية
##جهيز
ساقطة
الغزل
لعايشة
##عليق
والتخ
تشريع
ذوا
الموالي
ادمي
والزيادة
كبيرة،
##شفيات
مظنة
فنادى
هني
المراه
عنت
الثلاثي
حصوله
رين
##قوبة
لحقه
والذى
التوقف
ومقت
##ساة
تجارية
لنقل
محدثا
المنثور
الغفور
##قاض
اذنيه
الاواخر
##ونين
الاجمالي
وبايع
الزيتون
ويقتل
وتحد
محكم
المقابر
##لته
القصور
للسنة
بمساعدة
الفعال
تفضل
القفال
اسفار
##طلوب
ملكهم
فارسي
##راهين
وزراء
لاستخدام
تخلو
الصع
بوجهه
وضل
##ماعه
الالاف
بلغوا
النصرانية
يعجل
عامر،
##وقد
##وفاة
المرهون
كفل
##شوف
لتصبح
والشراء
وخمسون
اسلامية
صنيع
بندار
##رامية
جبير،
##حبة
التمسك
السبي
وحكمه
سماعا
المنتهى
باتجاه
الكتر
يخافون
بالبين
وصحيح
##لافه
للقيام
المقالات
ومض
فالتق
نعمه
الفج
وكلهم
بابها
##بدة
فاطلق
البصير
بالباء
للبيع
اثرت
يطلبون
##برات
الحظر
الجمرة
لانتفاء
التكاليف
غنيمة
فمكث
المبادي
وارتفع
دواب
وشه
خبيث
بالحر
##ويي
رووسهم
ثمود
اولو
الكميت
واقره
رسوم
خدمته
رباع
السرطان
الموظ
##يفي
##سلات
بموضع
للحرب
وستون
ليبيا
فيلزمه
والاعمش
الاشتراكي
##اسا
الواهب
##هيمن
لعبت
الجماعة،
لكانت
عربيا
يلاحظ
##راغ
##اتا
##نيك
تواضع
حاص
لمجرد
المواطن
الناتجة
للنفس
بانفس
##احظ
##انته
خلفهم
بمعروف
جمعوا
الالبوم
فلست
اجتهد
فلعله
تعلموا
فورا
##غرة
##هاره
وسهل
استطيع
اتانا
##رطب
ورزق
واموال
التجمع
ونحوهم
المشيية
##ثمر
الحربية
وغيرهما،
مجمل
طولها
كريمة
الفتاة
##سمه
##زمي
##خرية
مرضى
يجعلون
القليلة
للعم
##كاها
تخف
شربت
المهنية
حنيفة،
##دينا
يحرك
والروم
النيابة
الكرخي
وطعام
للحاكم
السلطانية
والدنيا
والشرط
##طلاع
الغابات
والحياة
بالمق
يغت
بالبينة
فانكم
المقاتل
لدعم
فلهم
وبلاد
وظيف
باقيا
##يتون
حديثة
الالكتروني
السواك
ويضرب
عاقلا
عسكري
ويفعل
##قاة
الهامة
محرز
يرجح
الصناعات
البرقاني
بسيطة
شوون
فيخ
بينهم،
محبته
والفس
##حيين
للقرية
خطط
##سوا
تلحق
بالاعت
المبدا
##ريبية
##وثق
السقوط
الانقطاع
ملعب
يمارس
الردى
الثبوت
وذكروا
##وبها
للكافرين
فرص
مخير
صراع
##قدمه
واستغ
عرضها
داني
التفرق
حق،
العيني
الشت
ووجدت
الدنمارك
التناقض
القاهر
الدافع
فاوحى
ينف
ستماية
ذنوبه
فاغفر
الزام
سبقه
حلية
الروم،
مارت
##قوس
منخفضة
فلابد
للموت
مروا
الضعيفة
تلي
لقلة
##يته،
فيحرم
فيقوم
جلي
##ونه،
الخطة
يجوز،
والمعرفة
بخت
الاسماك
الاستنجاء
الشهيرة
مراس
قاعة
الدايمة
السهام
##لقين
##قتان
غريبة
مالكه
واجمع
##صيته
الحليم
صباحا
ورح
اظنه
تحدد
رواها
والعرض
المعتم
لحماية
للجميع
الانساني
القعنبي
اتاكم
خالص
بعشر
##يتة
مسكن
##اربها
الستين
علوا
##ريز
ماس
الاسير
طلبة
##جهول
والليلة
اذربيجان
عنوة
مجلدات
يضي
##حتم
الانفراد
ناع
الابعاد
##مرة،
مسير
الخيط
زراعة
الثانى
##طنبول
##واما
الردي
دخولها
ويسقط
دقة
الكحول
موخر
والشعير
احتلال
##امير
تبعد
بالنساء
قتيلا
اذار
للاعت
##جره
##وتو
##فارات
زيادته
ذب
بينهن
بدرجة
البصري،
بالرب
عجايب
تعيينه
محلة
سيع
كاش
##وضوح
##ولا،
الابطال
المخبر
##قدا
وبطل
بحوالي
لحفظ
نفخ
والخروج
ملكية
##نازير
الكذاب
والنصر
وترج
للعب
الحرام،
الجايزة
الاستيناف
المظلوم
##اسات
المستعير
##ابتداء
يفتي
جهود
وانتقل
ويحصل
انبياء
انزال
##ايس
اعتبرت
فيص
الترم
الجراحة
سجوده
##حاف
يمكنها
شاءت
حجته
ترضى
فقولوا
بالشك
الوسيط
الكتلة
باعها
تشتمل
نجران
الية
بالشر
مثاله
احوج
اقبال
اليهود،
اقامته
##نين،
يتحمل
اخرهم
لاهله
وتفقه
رون
بالخبر
##ميزا
ليق
##مانة
بعمرة
وجهه،
ضمنها
انتشر
غلظ
تعليقا
##حدا
##هباء
للشيء
رواته
للاق
ورش
حرس
ومعظم
حسام
##وبيخ
فسجد
بالقبول
نادرا
الرماح
الغفار
يسهل
الاستمرار
اللين
حاولت
العقلي
تاريخية
عبارته
والروح
وفوق
##ميزان
المترجم
بالاحت
وبينهما
التشغيل
للسل
بانفسهم
اياتنا
العابد
بقلب
عقر
انتظار
زايدا
المبكرة
قراه
والخط
فشرب
رطبا
##وفت
بايمان
الركاب
باستمرار
نفعه
الحذر
##فاوض
مضمومة
ندا
##طعات
للجيش
موجبا
المكتوب
حاب
##بوط
تتمة
يطيق
يجت
فاتقوا
الظاهرية
ملابس
والسنة،
الامريكية،
الشاه
المدير
تلعب
بارد
المرافق
دكين
فيحمل
ياكله
بثلث
صايما
الثلج
##نر
مجا
فمضى
فاتته
##دعوة
السني
المعدن
وزنه
تشخيص
ريتشارد
##وشي
المساعد
تطوعا
بالفارسية
##شرهم
واعطاه
المعلى
القلا
شهادتهم
صبغ
##جاء
الرعية
يتعا
باكم
تدفق
يتضح
يوفر
انساب
رسمي
رطل
##هارته
الموسيقية
بجد
اصفر
اللاه
##دمه
ادعت
عادل
الفردوس
##سا،
اخوانه
##خلل
متكلم
تغرب
مباحا
##لام،
باعلى
##غيبة
للحكومة
ايديكم
برض
الي،
الاموات
وافقه
واشتهر
سرقة
الرعب
الدجى
وايمان
##حدون
بالامس
كمع
بانشاء
تتنا
اختصار
خطه
هق
##لقا
فمثل
واكبر
يريده
البرازيل
نصلي
الاكابر
تتخذوا
غصن
الدعا
اكثر،
يعلموا
مناسب
دخلها
رزقا
والتل
الشريكين
سرطان
استقام
اكا
نفلا
الابتدايية
ذمي
##ورغ
فايد
سلمنا
صحف
مجالد
حاجي
الكاين
حوايج
##غوط
الادوات
التعجب
نزلنا
فلينظر
ويوسف
##روت
استحب
بالتن
اشتمل
حرص
الواسعة
الكلابي
القبة
التوالي
الغلاف
حزيران
خاش
ووقت
بنقل
ريحا
الاكثرين
جنين
الهام
حرام،
##سبت
تنكر
كرها
المسير
الاولم
انعقاد
طمع
ونور
خشبة
كشفت
بالمكان
ويدفع
سلطانا
فبدا
بالمست
والبصر
فوقهم
##غرس
النسك
واستخدام
الجمحي
عارية
غرر
جلا
جبهة
##همات
تقيم
يعلمها
الزاوية
القوية
لقضاء
لقومه
بفتحتين
خدا
مات،
ويمت
القرانية
كتابنا
الرحال
لولده
##زمت
فانته
##حاطة
##طروا
معمر،
النهار،
كميات
##انيف
الذرة
جرايم
هين
رميت
خلافته
مشيخة
ثنتين
يضيق
بنيه
الكري
الجزايري
شملت
صاحبكم
جهلا
يعذر
تبدل
فلله
للقوات
وانواع
##ذيرا
##ساطة
متعدد
##كلما
الظواهر
بالبد
لبسه
السعر
الكوفة،
تعدل
سيرته
قسط
لبيت
تمشي
التكذيب
انوار
ولادته
حمده
##ندة
وايم
##رموت
فكلما
النصراني
##ابير
ونظم
ينتمي
منبر
للدلالة
صلاها
البستان
دونهم
بالمنا
قسمت
واطلاق
الخيانة
استجاب
اقم
التنوين
اندل
بالقل
القرم
ثلاثا،
ديننا
سريعة
مجته
يقتله
عجبت
##واء،
نكح
ضحك
##يمات
ونش
العصر،
##هاه
الاسفار
فالخ
تاسع
الانجليز
تضل
كير
ندم
المعالجة
نصيبا
مرتب
يربط
السنية
حرث
لمعرفة
مسرحية
العطش
الرقة
ابايهم
الوظيفة
الشفق
المحرك
##ضير
##قاية
بالعذاب
صديقا
حلاوة
صانع
عير
##يديا
##فرقا
تكبير
واهلها
معجمه
معلقا
وفقه
تقارير
فليراجع
والبع
السجد
يعاد
يصيبه
جلست
##بينه
الوليد،
##حميد
اولادهم
رحيما
الخبث
##خذة
مرتفعة
ابصارهم
الشايع
للماء
صيانة
##وز،
المعظم
تشعر
وبينك
لاننا
معتد
ووكيع
حياء
واستشهد
##عقاع
نودي
##ءوا
اصبحوا
دايمة
بالحسن
ليتني
العربي،
لماذا؟
فراي
وفصل
تنفذ
مصري
تغطي
حملته
زور
##رداد
والطحاوي
والشعبي
طرقه
المطبوعة
الدقاق
مملوكة
ثار
كغيره
##السي
اجسام
بالظاهر
حجج
فحلف
بيديه
المحاكم
##ومل
مجي
الشيء،
القدماء
شرقا
الخم
للمبالغة
منذر
النحاة
عيناه
كمر
##حج
الظاهري
والسماء
فناء
نفل
المجني
##وني،
التوسع
والقى
الرقاب
الثريا
خصم
يعقلون
اشكل
باحسن
هاب
متعلقا
معايير
يحس
النافع
##بادلة
الديلمي
##ضرع
والفروع
هشام،
الرايحة
التونسي
ربعي
هولندا
تقال
وشمال
الطعام،
ايهم
لربه
بنفي
واخذه
المفروضة
ففى
المبادرة
بشراء
يونس،
اثرها
ظهرا
وبحلول
وكانا
بدمشق،
تناوله
توبته
المدنيين
##ستهم
تقنيات
نبوة
ابق
وانى
المعبود
نزوله
شرطة
بريت
السوفيت
والصل
بستان
لنع
##ناه،
بنوع
استقال
زوجتك
يصلوا
صنعة
##وكي
جهالة
وحجة
غدر
فيقت
##اعى
تايم
والسين
نسل
الشوارع
بالاية
قراب
القادة
الدعاة
الزجر
مدبر
يعرفها
الجهالة
المركبة
##فعلها
بكفر
ارتحل
البعثة
الظالمون
يال
المودة
معلقة
وربك
ممكنا
ثغر
الاوعية
##اريو
الضحايا
##تلر
مبكر
منعها
وعليكم
السرى
ولدي
لمنا
الزبر
مخصوصة
زك
##فنه
بالرك
للور
الاصبع
التاريخي
للرك
اسلف
##مامها
لتد
بحاله
وهرب
الكوم
يقبله
##خلة
برلين
اتقى
صدري
سبعماية
والاجتماعية
وهلك
المقار
نادرة
نجاحا
شره
السوف
يستجيب
تبرا
قسما
وايام
العادات
المعارك
لانفس
ضخ
وعلا،
وبشكل
وابعد
وهارون
المحلى
مانعا
امراتي
التصحيح
داعية
لياخذ
الاولون
اهلية
كاينا
شاذان
بادر
غرا
وسام
الرمح
##خلهم
وسلام
مقرا
مندوب
##روء
##مار،
واصح
للامة
خلون
وافتى
##برك
##كميل
البذر
للتص
الحكومات
بنور
نفسها،
والحنا
لقتال
والمخ
السكينة
المحاس
المشاريع
ايلول
فسل
التقارير
##بتان
واعوذ
تمتع
خويل
وفساد
قصرت
وكيفية
متاخ
اللبس
يته
وقفه
نصرة
تغيرت
وكمال
يشركون
بالسر
يشهدون
قاتله
اوحي
السويس
##داقة
محاولات
ويقبل
مقات
الحواس
والظلم
وتصح
##عتي
جذب
قيرا
ومرا
وينزل
سالوا
الخالص
معجزة
##عاش
##يقين
بالحجارة
تاه
ومنت
باجرة
روض
##انة،
الملل
يدفعه
فاخبرني
امتك
تشبيها
ظلمات
معروف،
عسكره
والجار
المزارعة
##وهم،
ابعث
فتنا
مفصل
السخا
المماثلة
##برى
ياثم
##رام،
واتباعه
توت
فكن
فصاح
والخامس
فرانسيس
##عز
عملي
دعايه
مشاريع
##ذاذ
ابوها
وعلما
اقتراح
##ياطة
لهي
يحجب
بقيد
طاووس
بالمسجد
محيي
ووجب
##ضات
بدونه
والاستق
منصوص
عليه؛
##اهده
ردوا
والاقامة
وتصل
اينما
مضل
الثعلبي
وعبادة
بواسط
وظهرت
استهلاك
جيب
لبابة
انجيل
تقديمه
مثالا
يخير
مدنية
تفاصيل
لدن
فسمعت
بصفات
المناعة
بردا
دبليو
الضيق
اباك
المجته
وثانيها
بغية
طلبوا
يتخلف
##ظره
تنزيه
الموجبة
التنفيذي
عوده
يبالي
تزعم
##تك،
الشها
نعمته
القاضي،
المفروض
هال
##كسار
للامم
شراح
بالبناء
التزويج
سيتم
انكره
عنان
للحال
العشيرة
البطي
تنقطع
الفعل،
جزييا
ارشاد
لرا
##ضايع
الممد
السط
وزيرا
##خوله
##وكالة
الانتشار
##ريكا
صلاتي
##ظير
##ياطي
فافعل
الجاري
الفه
فجاة
ينقلب
فجيت
شخصيات
وعندهما
تليها
غذا
هاي
وذي
اوكر
التدخل
انفاق
والعي
العير
التحديد
##دارات
احبه
افراده
للاشارة
معدن
خليلي
##لايا
اعتراف
الصناعي
فعليك
##غيان
جلود
وكتبه
ونج
واخراج
للحج
طالما
##خاير
ايار
يعترف
علمها
القوم،
نطفة
خرب
##لايه
##تهاب
##انق
العسر
الزمان،
المرد
يطيع
ورضي
اعجاز
##ليفة،
العصبة
بقط
فالمس
ماريا
##برغ
طلبها
امثالهم
البهيمة
فست
وباع
##مثل
القلة
فحسن
وشهر
مامون
النوافل
بعدهما
مصنفه
مجتهد
يستاذن
الورا
العقد،
##بديل
كفوا
##اجا
يوذ
ساعدة
سلمه
مدته
الحيلة
ظالما
ذكره،
والبغوي
الاذاعة
والدة
ومولده
احسنت
جسمه
غريبا
وفعله
والسب
للمومن
الثمانين
##ثن
تعظيما
المعرض
يسمي
المضمون
ومعاذ
القدوم
باتباع
التواضع
وتضم
التمام
عبادك
فاذكر
يمكنهم
الاستخبارات
والفض
التفاضل
بيناه
##ضيب
فساده
شهدا
منصور،
الممل
##ادف
انهى
احاديثه
تفعلوا
القصار
##باشرة
اليك،
بمنع
ياسين
##كيه
الدلو
يستحيل
الازمة
بالمغرب
تطهير
بدءا
العسقلاني
والكت
اضحى
بالاندلس
ضروري
يمان
الاستجابة
وزوجته
دروس
##هارا
البسي
الحسد
مورخ
الاجناس
وضاح
للحياة
استغنى
المساحة
التعبد
لدرجة
التقويم
شرعه
وصلا
مفيدة
المبد
افيد
يطل
ولدته
التمليك
تقديرا
##ناعه
اجتهاده
##غين
##بغى
لوم
السفيه
يستفاد
واستولى
الفعلية
مفيد
يحتاجون
##نعا
قتالا
مركزا
ديك
الغايط
رقي
شربه
##ظرا
اللولو
خلقهم
لشيخ
بينته
الاحبار
الابوين
واقف
قهر
والقل
وجمهور
والنكاح
موافقا
لضرورة
وقيام
ويلك
##باحث
وشت
وبذل
فتكلم
العبر
مجانا
بالنكاح
تغني
نصارى
واجد
للحر
وصحة
الاصفر
تنتشر
احمل
##اذان
المقرر
الحلواني
فوض
##دينة،
##تيان
نخرج
يله
شيبة،
يان
##زقه
لايم
##موهم
تفرقوا
الكوا
تعال
المواهب
ومعهم
بعثني
##سل،
فكسر
الكنى
يقوى
##افة،
امينا
الغوث
متط
اهواء
فبد
مشهورا
فرضت
النيران
الخبير
كريما
للعبادة
##ذع
بهد
خالية
##رافيا
قو
الصدي
ترابا
طبر
الجهود
ويلزمه
الاشتراكية
لاثبات
##رقوا
الماضي،
نايبه
هالك
##يناء
##صفح
به؛
تدعم
##ينهم
اوسط
##اعي،
##ندى
المثلي
النخيل
جرب
خفف
##وقوا
##غانستان
##وذن
علقت
الاهم
بادي
موسيقى
لشركة
باخراج
والامت
صديقه
السهمي
جاري
البان
##عاذة
رفضت
##نايي
هديه
الذكاء
##كمان
اتجه
الالهي
وارثه
سها
##لمس
الجريري
الضخم
تتمتع
الاضرار
مذكر
البينات
##افيا
فانشد
##ضايا
سهو
بالنب
##لقوا
تسميته
اعتمر
الابل،
المصايب
والنصب
صحح
وخروج
الاظ
يفيده
اكبر،
خشيت
الصفر
لعلك
سورية
المومنات
تتكلم
المبتاع
العابدين
فعم
##ريطة
الاسبان
نعلمه
وحاصل
التقا
ويضم
##ها؟
سراقة
تحمله
حرير
##ضوب
الحليفة
منافق
مجددا
##هاض
غندر
القاه
الثبات
اجناس
تصحيف
تفري
تعليمه
الخصال
ينز
كراه
معقول
##رايية
واستدلوا
خيف
والامة
اجراءات
سواله
التخطيط
وتحمل
وعالم
استاج
العظيم،
اخواننا
بخر
فالامر
باحدهما
الاستحباب
تبعث
##جيات
انهن
للمد
وتظهر
رمح
المثلية
عشيرة
علاوة
السرخسي
سجدتين
وصر
المحاسن
شارح
بالتي
بالشهادة
المنفرد
الوافر
ذوو
وثالثها
##جرت
وليل
الاسلامي،
وحقيقة
سواء،
فخطب
##يرى
الوجه،
ثلثي
الاعمش،
استخرج
اصوله
خلقك
والريح
وقوف
البديع
##كوت
وقبله
غانم
كوب
كتم
##غاني
اصبر
ونصه
اقطاع
وشعر
##ابرات
وانح
بعيب
الغليظ
مستانف
العميل
اختلافهم
##لازم
بنوا
يختلفون
العضوية
والبحث
بعثة
مسيح
قتلته
لقيته
وقضاء
ينجس
الهزيمة
يوميا
جوزيف
الاستحسان
بامت
غب
الطلق
اجلها
باض
##حنث
تزداد
التذكير
النصيب
استخراج
نشاء
والاسود
خضراء
ليك
لوح
موسسات
وهدى
الاكوع
وشرحه
المراكز
التكملة
فقات
بايعه
الارجح
الاحتفال
الفجر،
والقد
الافطار
منفع
بهز
عناية
الرياضة
اقتضاه
شكلت
جيوش
اشير
##رهيب
امرة
تغل
ذريته
اجده
المستهلك
تطورت
وضمن
مشتركا
المسور
المراحل
يعالج
يوص
بالتوبة
خصي
الالتفات
العوفي
تتحرك
شابا
ربى
داعي
##نبط
افترض
ديته
وطاعة
وحف
العايد
قضاعة
الحطب
والعامة
ترس
مصدق
لعا
الرها
يندب
واثار
مقصوده
الحيات
قيس،
ترث
وسيد
ويبين
##رفته
فرجها
لجا
علته
##وتك
تكشف
يغشى
مصلح
نوعين
احتياطا
يداه
يتيمم
##فنون
متحرك
انفصل
ظلال
العتي
قصب
##حشاء
يعفو
جميلا
وخالفه
فيهم،
قبولها
القاطع
يعترض
تدريجيا
الحريق
بالانت
ابيت
واطلقهما
المحمود
راق
والوج
السبا
الشيعي
بشرح
موصولا
فخل
اللاحقة
الضالين
الزوجات
امتثال
املاك
غضبه
سارة
الصغر
ويحل
وتجب
وعجز
تجده
فرده
##شيت
اعتباره
##فاها
##سلية
قدمها
الاستيفاء
همدان
جدد
استفاد
تفضي
منك،
موجبة
##زيغ
لادم
بالرق
البسط
ادام
عياله
والطريق
الشهادات
الغرفة
والسيد
وريح
ويطلب
وتاخير
بطعام
منخفض
للوصول
لجعل
ويدع
تظن
##شيه
الدفن
##شتاين
يهوديا
مولفات
ضمت
واية
ياايها
المتحدث
مقعده
قضاة
تاكلوا
الفيزيا
دمر
##لندية
##وفون
صرا
القاسم،
سلطانه
غضون
التلفزي
ونوى
والاعراض
##فيظ
مساكين
نافع،
والاخلاق
##طفال،
فنعم
الدار،
فخرجوا
الاشتقاق
الادم
القابلة
الكاذب
الحبر
الافاضة
والبس
ونهب
والخز
الفزع
النك
يوذي
اهلها،
معتمد
بعهد
مسكر
باشر
نلت
بدو
المحاربي
شعور
تجلى
ياج
لانشاء
البيضاوي
تبنى
للقا
ازهر
حجرة
الفاط
يملكها
ابره
##وزون
صاحبة
فعرض
يحتسب
زنج
كاث
بالعبادة
وعزاه
الامي
الخ،
المحتار
الميكاني
تعبر
وصور
جرج
اشارت
نبيهم
انزلناه
انشيت
قرق
الاسطول
##اكنة
البلد،
التقط
عقولهم
وصورة
بالتس
التلفزيون
متهم
ادفع
المنف
عالمية
متفاوت
واسماء
##رعات
بتسليم
حكمته
ابتاع
العمى
اون
بالما
المكرمة
اليمني
وذهبت
##سق
وتغير
المنظر
بحل
الغرق
ينع
اجابت
يختم
المعاصرة
بصاحب
حلو
الخلل
عاليا
تلقاء
بموا
الارثوذكسية
##يعاد
الراحم
العباس،
وقلبه
يتعذر
شماله
يسميه
العلامات
المودب
##زات
بالفر
##عبان
فوادي
الاطعام
##ديمي
ولابن
واسال
وهذان
والثناء
يوتر
عملك
القديمة،
مشايخنا
برف
التور
عبدوس
المسماة
ضعفا
عيسى،
غيبته
ءامنوا
خبث
##طارات
جراء
الطباع
متف
منهاج
وفرس
ميك
##ارين
القصب
الاسرى
الرزاق،
وشرع
والاموال
والصالحين
ليحيى
انتصار
المصي
خازم
كغير
والايمة
والدته
المصرية،
اتبعوا
##ياها
التخصص
##قيان
والمث
##طالب
##فيته
الدبلوما
##فعية
المستعان
##طرق
فلير
التكوين
طهرت
ينسى
ولهما
جهله
بروية
السعد
##افير
بعمله
الاسانيد
مرات،
##ادن
اسيرا
حدد
##وفرة
نمت
اصابها
شباط
السبيعي
نكت
يحاسب
وشاهد
ركوع
واجتماع
شديدا،
يخضع
العدوان
لاقامة
واعم
المبكر
نستطيع
وضمها
وانتهت
توسع
فقيه،
العراقيين
لحل
##اييد
لنس
##غف
والولايات
المخدرات
ثنية
هتلر
مجاهد،
لايات
الشيوعية
راض
رخ
##ايين
بخي
تراض
والمجتمع
العك
والاظهر
ورجح
منصرف
##نابة
وليد
تتج
بالجيم
الجنسين
واليك
قلته
فردا
ويجري
لوجب
حكام
##ماض
وسد
اجور
تتعرض
واثلة
لعبده
طوبى
التلبية
والاخذ
احداها
غالبية
سني
وغر
وكتبت
السحرة
هذه،
واستد
الفارسية
الساعي
للعلماء
تكفي
الاعتاق
##مرقندي
ممدود
تجل
مستند
مخاض
نجعل
ولق
فلذا
واسعا
واحضر
تابوا
ايصال
منهي
تربة
موسرا
بخراسان
تغطية
واشهر
نوحا
السختي
ولغ
محصن
موالي
حيي
يتكلمون
بعضنا
##نتاج
##طيين
سرب
ووعد
الرقاشي
قاري
يجامع
قلع
ولكنا
وبينكم
والاقرب
القيود
فسق
فعالية
موضعين
تظلم
رماه
شدد
فليصل
تيقن
متاب
وري
السريعة
بالتعاون
دبي
النكرة
الناطق
لكثير
##ء،
الكراء
الضب
التكفير
لغو
الساعدي
بنيسابور
المشكل
والجمال
ملب
الفا،
مطابقة
والعديد
##ذ،
سيفا
وظلم
وايوب
حلقه
وجنوب
البيع،
الحضانة
تعليقه
الثغر
تامين
رجم
تمرا
شاطي
واضرب
فعالة
طلا
الشاهدين
يتردد
ومب
احداهن
##فاهم
تتجاوز
والكاف
كمثله
يلزمها
مرداس
سارية
السابق،
لبعضهم
تعاون
##ياخ
بالحم
فاجعل
كاتبه
والمصنف
لقط
يقاب
الالزام
##رابعة
فاشترى
حمرة
والزوج
##بيته
محلية
مخرجا
همه
العاد
المكث
سوط
اغا
رييسهم
السفلي
البنوك
ماخوذة
ذكرناها
التوحيد،
الكناية
وافقت
الفسق
تربط
تزايد
والصيام
تابعا
الكور
الزنى
البحيرة
تخلي
جنسيا
##جة،
##واترة
قايله
الصهيوني
تطع
البعيدة
وترد
هاما
جانبي
حدثا
بالمومنين
الدارين
للعالمين
المنايا
نصراني
بالزيادة
منظومة
وسج
وتعت
##ويش
بيعت
عاقلة
##ضاد
##زيق
تكاليف
بشران
##جعله
وياكل
وبالرغم
بالوجه
منصبه
متقارب
الاقال
وسورة
البشرة
الدير
المولفين
زعمت
تحيط
عتب
اللغوية
والمجنون
صدقات
##ونا،
اثباته
واقاموا
الاوقاف
التمكن
##عدة،
الباق
برضا
شفي
عقال
للقتال
تشارك
انكاره
##راب،
الخلاص
تقتلوا
البحتري
دواد
##وليا
السادة
استغلال
##فايدة
باصل
قبورهم
##باش
يقض
ينفسخ
ينفخ
والقراءة
خراش
وضوءه
جرحه
دمع
غازي
##لظ
##مز
والطي
اخرا
يعص
##رافات
المخاطر
ويتبع
جنيه
الحرارية
والمشتري
وجوابه
تنشا
حققت
مرغ
##جاهات
##فوف
فيروز
بعدا
عامدا
يستند
اثارة
بالاخرة
##راجح
وخمسماية،
بالاز
يبسط
المشكلات
اوها
باحدى
##اول
##طعم
ياتيك
وافاد
النقود
توسيع
الصندوق
فخذه
بيده،
بطر
ابقاء
اجلا
المحارم
الجزايرية
##ونى
يتد
بيقين
نظمه
##كرا
##قدوا
وبص
##تز
الصلاتين
يستفيد
##فاعلات
الموجودات
##اعرة
ومقتضى
تفهم
وابلغ
كفيه
المقدمات
النواة
##رجت
ولام
المعايير
عروة،
صوب
يعنون
بليل
بحجر
يحملون
البارد
ارط
عرا
الساحة
الطر
الاغراض
ملاحظ
ابالي
الضخمة
غاد
بالمثل
واعرض
##حدد
يتكرر
والخلق
باحكام
تبادل
شركا
لنفسي
الجاحظ
شقي
الغض
اياد
تلب
##يهني
##كرمة،
الاستفتاء
##اتمة
معتق
ويكثر
البروتين
بتم
المحبوب
كاره
حيضها
للمال
##سفية
الهمام
الحاف
لاطلاق
##بيبة
يذكروا
##غرا
اوثق
ونسي
اقاموا
##ريمه
والمرسل
طوعا
##بعاث
عشره
لقوة
خيرا،
غنية
##قوت
توضيح
البث
الكفاءة
الزن
احلف
اغلاق
فنظرت
خطوات
حرز
##زاير
مناسك
الجزييات
والمام
فحصل
البزازية
الكناني
تظل
لعدد
موذن
مكارم
سودة
كاه
وستة
لولو
روايتين
للمالك
تجارب
فسكون
والفقهاء
فيثبت
اكذب
الضبط
يطير
خده
القعقاع
لبقاء
بحمل
ذباب
غيث
التفرقة
امرىء
عملهم
حضره
##لميذه
الجذع
لملك
وبعضه
وكيله
والجزاء
والثلاثون
يبال
نفعل
نجيب
انقلاب
ويشبه
تتحدث
بحثه
اكتساب
##يي،
امساك
النهدي
ظهير
الرات
يصعب
##صفى
المجادلة
تنبيها
بالصحة
##زويني
مشيية
دولية
التحديث
يخرجوا
اعدايه
##دهم
##قس
المتهم
خطيية
الاقليمية
واحل
##يثار
عظيمة،
والعربية
الحاشية
الاستقامة
اتفقت
##خدمه
كفن
السفل
المدرس
ركعتان
معسكر
##ذهبي
الهجر
الطايفتين
والجبال
يوفق
الصخور
تسوية
تشابه
والجميع
سرور
ابنك
وقتله
والخيل
ناقته
والتحقيق
بفرض
وجمال
المعالم
المستقلة
##ذنوب
الطلاق،
يشر
التسلسل
الغساني
معامل
مطال
##رسول
##جبت
ومعها
الحميري
##جرا
اسواق
والتب
المفيد
قتالهم
تخضع
المغناطيسي
وصلة
يظنون
خفاف
انخفض
فسمي
الصلبة
للثاني
ذها
صفي
الايج
بيدك
ميوية
المفتوح
فيف
نبيكم
خاتمة
ثوابه
جويرية
مناكير
فيليب
الحز
الرط
الولاة
ووافق
فضاء
ومغني
الاخيار
موصول
بصرى
##او
الحزم
المتشابه
فالحكم
انبت
تعالي
تركز
سهلة
رمت
افك
حلقات
مصدقا
هاذا
كفت
بقص
بتمامه
فوه
الخت
ونظير
الروياني
الاختلاط
بثوب
حظه
ترو
تيار
والالت
كليا
العتب
وتث
واخبار
نقصت
باطنا
بالقص
للعلوم
شيوخنا
ايدينا
والوليد
يتوصل
والكسر
المرجح
حولا
##وحد
بالاه
##طاها
واطيعوا
ليون
المتوسطة
شرعت
التشديد
الفلب
كتبنا
الفلسطينيين
خويلد
افقه
لود
القناع
وسق
##قيط
##ذيبه
القول،
واحر
الامدي
نعوذ
الافات
حاصله
ملكي
ذاتية
يسمونه
اولادكم
المتظاهر
الاتفاقية
ولعب
يبس
الاقالة
بالجمع
وواحد
تحزن
النقاط
اسطنبول
حرب،
اعينهم
##ماتها
الضابط
وتمر
تشد
يغرم
فيحتاج
الصمت
##وجها
انفقت
قاصدا
العارض
ويقطع
يدرى
فاتحة
الاكسجين
الكعبين
واستخلف
الحجج
المغربية
##التهم
غبار
القرظي
تجيء
راوه
تكفير
لطيفة
انشات
الشافعى
بصدق
فيقتل
للفعل
الثيب
بدوره
الحسب
متناه
لبنها
خفاء
وتابع
الواضحة
انتفى
بمثلها
##حاس
انقل
فوقعت
الموالاة
النمسا
بالرجال
النبت
اشق
بيته،
اهالي
وشرف
باقامة
فادعى
باختصار
ووهب
للحسن
ضرورية
شعرها
ومثلها
مفعل
مهاج
وضي
اعان
##طانية،
امثالها
وامس
الكيمياء
فيروس
ومشي
ملحق
الفكرية
اخلاص
ويستخدم
تمرة
ادل
قرره
المظالم
ينكرون
يهدف
سوي
كاع
لعلمه
وصفهم
الارز
يمينك
باقرار
السفهاء
يقتلون
ويات
المغير
انطاكية
التكنولوجيا
عيينة،
الذهبية
مكره
اثقل
المشاعر
البدء
افمن
عقلي
الكمبيوتر
تولد
##مروا
##كرمه
يحذف
##صاله
الاوت
العرا
باكستان
الانثيين
غطفان
السمرقندي
المنجم
المقنع
لخمس
الصنايع
اوف
المبارك،
فيعلم
الشيطان،
بدلالة
نيوز
الانسجة
الابدان
قلبت
الاستعداد
الفتيات
جناب
ندبا
وتطوير
لقيام
تقدم،
كونوا
المفقود
صريحة
تهمة
كاي
باينا
الموثر
رضع
انتخب
##مهم
بعبادة
الغلة
الاختلافات
الموظفين
رصد
##خون
السمس
السياس
الوراث
وحن
تلخيص
العادي
معدود
يكفيك
##لفا
امامهم
السيرا
المعمر
الغلو
تخفى
المكسيك
عسل
كرو
امورا
اشترك
الثقيل
والدعوة
صمت
وتفرق
التهديد
القرط
الضامن
حمي
يناد
باللام
الاساليب
ييس
وصنع
المدعو
والشرك
ورايه
الاهواز
حكيما
نسك
المقربين
مذهبهم
الخفيفة
وتشت
بيبرس
الاغذية
مخلوقة
العبسي
ويشير
لنبيه
للموس
الروساء
اللذة
عمك
والبزار
للشمس
الحاسوب
##برق
ويراد
تبني
وحاج
وابنا
##ويه،
الطاغوت
عدوان
صفرة
ماه
تكلفة
الحموي
المرش
واكد
لاك
ينفك
##بج
واحاديث
والمصدر
الامنية
بخروج
فهزم
شبرمة
رستم
ابدل
لدع
بالجامع
والربيع
خبيب
لارت
##اقم
اخبرهم
وخارج
للجنة
القضاء،
جيران
فقامت
الطعم
وفيات
معا،
فكلم
كاتبا
الناصري
حدثتني
الغام
##فايه
مسيلمة
تلاوة
الممر
والره
بحبل
اختلاط
للنظر
ذبحه
ملام
اعلم،
خلاله
وسمعته
اللواتي
واعلن
##وما،
ستا
يدعوه
ووصفه
شرعيا
شاملة
والرف
ومهما
تكملة
الاعدام
والوس
للتد
##زدلفة
معسرا
يعا
##ضارات
اتحد
الفرنسيين
جراحة
اجنب
الاعجاز
وسافر
يتزوجها
لتعلم
تقتضيه
الممن
بنون
اوغ
مسعدة
اكف
##اوف
##شها
والجر
الشحم
وتركت
الوه
والهر
وعامة
بذنب
وعامر
مصير
البروج
الاسود،
هيد
لامته
الهذيل
عتيبة
فناد
##اح،
والمومنات
بحقوق
السقط
##داح
اشعة
كيت
وقيمة
وتحدث
##قيقته
ازواجا
##نغ
والحجة
##عينه
التنوخي
هبت
فاث
للتش
حادي
وادرك
استبدال
قانع
المستعمل
اوى
والدال
يقدرون
لثبوت
ترام
##شفة
بناها
اللاعبين
واليد
ويضمن
##يسيا
المجن
دينه،
وتذكر
ورحم
للتك
يناقض
##ضبط
اقطار
##يناك
مطبعة
تطي
للولايات
الكتب،
تثبيت
اوجبه
اركب
##ثية
مسندا
المتصلة
قبضة
اخبرناه
المطهر
الاعلى،
ذاهب
##سوم
اشتر
واصلاح
يقتص
الاحتراز
المحلوف
ميقات
ارشد
عيوب
##سامح
##نوية
##افية،
فانني
ومنعه
##خلية
والخلاصة
بالمغ
صداقها
وكلامه
##بلسي
والديه
فارس،
تفرض
الاماء
والرو
ولوا
فهرب
##فقون
اشتملت
النكاح،
كرهت
المفردات
لنب
مذهبنا
##بكة
##ادته
المستح
##نجس
تتمثل
البالغين
ارف
##افعة
النحويين
يتسع
مخطوط
##دادا
قرع
المنتقى
اللبناني
استعادة
عريض
النماذج
وعذاب
الزل
مشرف
مقصودا
وطنية
كبي
وجا
فلحق
تغيب
المقتدر
الصبغ
##وريين
حاضرة
بنعم
ايكم
وانشا
وعتق
المعينة
المشددة
الغربية،
تبديل
بطاعة
رباط
القادمة
والافضل
بقليل
ستي
عمى
مرادا
المفترض
غضبا
قوايم
##موه
وطالب
##اثيرات
افاض
تهب
وتوق
سمعتم
والعقد
خير،
لزمته
الجاهلية،
##يلت
##اقها
الانكلي
##عارا
مكتوبا
التراويح
العبارات
وبقوله
##والدين
بالصوم
بشهر
الاشارات
سفين
##ظري
المقاطعة
الشيوع
عيال
الوفد
يامرهم
البرتغال
والحنابلة
سديد
ضيع
فمش
وانف
##سوخ
##وازي
لافت
والمعد
فراه
الوثي
لوصف
قتلى
تخلق
الجندي
عجوز
بتب
اوتر
وتعظيم
تهامة
##ظان
يكتفي
والاختلاف
وجدها
الادميين
بوب
التحذير
يقتضى
الايضاح
الرتبة
خاليا
واكثرهم
بون
الممالك
معارك
استوفى
لارج
الصحبة
مفتي
لمرض
التبرع
فوث
ادعو
واوص
الصنعة
يتك
الموسيقي
الراهب
باهله
فند
##نتا
القبيل
كالصلاة
الفيزياء
شعي
الابا
##شدد
دمج
دليله
ضب
بالراي
وطيب
اعطيته
شرايط
منطلق
المتابعة
عقار
للعهد
تحي
غرار
ابعاد
فالقى
ويحفظ
اغاني
بلوغه
##جبا
الفط
المعجزات
زوجي
العضلات
النرويج
الدولا
##تابك
ليصل
الشايعة
##وقات
يزرع
##نظر
فتل
مختلفا
بروتين
معصوم
##يروز
ابيح
للاتحاد
يضيف
للصا
يحز
فالاق
بحثا
تجهيز
فباي
##ماق
##ثره
وسبعة
اموت
##رادات
فلماذا
##ينيين
فاخذها
بى
زريق
سمرقند
##بهات
خاله
##دعة
فاثبت
المعق
يردها
الصادرة
المسرحية
##ذذ
متشابه
لفقد
##بيلية
ثدي
هت
واغت
الحزام
بمعرفة
ينطلق
فتك
##قصاء
الاتحادية
التغي
وتوفى
##عاها
واستطاع
ناجية
وسالم
ولابد
كالاج
مقداره
بالحد
متش
تناز
##لم،
يصاب
بقرينة
هواء
مرتبط
الكامنة
سيدة
وسعى
متعة
يحذر
لزوال
الوفيات
##ايية،
يتلو
##ريبي
المخلوقين
مجهولا
تسن
لسب
##فيس
المستم
##هم؛
##ورن
كبيع
ويصبح
يسرع
مقيدا
خلص
##طانا
وماية،
وحلق
بالديار
فصر
اختراع
انطلقت
برايه
والسلطان
بكف
معاوضة
وسيا
ولقوله
فتش
وصلي
تكسر
ونادى
بنفسك
جلسة
تركة
وقبول
الحالين
المكاتبة
##شميهني
ترعى
خاس
بنصب
بالمراة
عرفها
غلة
غراب
نومه
##باطا
##ملوا
##قاوة
يسي
واقعا
تستمر
وفضله
انقطعت
الجين
الزيات
فكذب
لتعذر
والوز
وحاصله
الشارب
ويومن
وبري
سمعا
عاشر
الكهربايي
ضامنا
الحمرة
قلناه
المهندس
برياسة
بناحية
الكلاسيكية
ترع
يباشر
السياسات
الاخطاء
انباء
الاردنية
المونث
السيادة
وبحث
وند
##راتين
عدت
بمكة،
المدثر
الحجرة
يطرح
خطا،
المحدود
تحاول
ضربين
جبهته
الهض
كثيرون
فادرك
المراجع
##كررة
الذيل
الهجمات
ظله
بالفاظ
البكتيريا
بالشراء
ضرا
فاكت
والشجر
تطل
فته
الجايز
والتفسير
الهرب
خثيم
باقراره
##ورثته
الاشر
متس
وغاية
قبضها
والواقع
اقامت
##تقاد
عطاء،
العمود
الدب
ينشر
للمض
##فلون
يدعوهم
وتستخدم
بنعمة
اثنتان
والقصر
الاتمام
المعتضد
الذكرى
ينفعهم
نوبة
الفواحش
بدعم
للايمان
وجدتم
ويروي
معظمها
التغذية
سترة
بالرجوع
ا،
صاب
لخص
اشرب
ادهم
الساحر
القسط
##برون
ويحدث
الخشوع
قاتلوا
مكون
برزة
لقت
منقول
والراي
التكلم
الضباط
الباحثون
للفاعل
ونهاية
السماك
لدخول
نوادر
ننظر
جموع
##رج،
اغار
ابتلي
معلما
الموجر
ضاب
المزا
لايق
يتقون
الجماعية
اعبدوا
الثقل
تتالف
الموحدين
وقضي
الاخطل
اخراجها
نصل
##وجبه
اقرع
تهديد
البكال
فيحصل
لتقديم
الشوكاني
عتي
بذكره
نواب
نذرت
التجا
الثاء
لسيده
وانعم
جواهر
يسد
المخابرات
مضمر
والطير
بيوتكم
ووقعت
الفوارس
التزا
ومعت
الازمنة
يضلل
التشريعية
تجلس
حسا
طوى
خلوا
اثبتت
لضمان
اوحينا
الخوار
##زعات
شبة
الاصفه
والاذن
مستانفة
سويس
القاص
القادم
استراتيجية
وتسعماية
المحصنات
##ذته
##حده
الاشربة
البشر،
ثقيل
كادت
القزويني
الغزاة
##المين
بسيف
ماكولا
مناقشة
سفل
يحافظ
بلفظه
اقتصادية
ظهوره
الاستراتيجية
بدر،
##لاند
فيديو
##غاف
بثقة
خزانة
يبذل
فصيح
شايعة
##ينو
وجواز
للحزب
سكة
فشي
التها
اعلاها
الملق
يعادل
جنوبا
صاحبه،
الصغاني
مولفاته
يعلو
مخففة
##جري
ثلاثتهم
كاهل
وختم
بنشر
والنور
يارسول
كيميا
البور
والصلاح
الفقرة
الفقه،
استحسانا
لظاهر
واليمن
الحار
تغلي
اتباعا
فعندما
وصلاح
المفسر
المذم
العقيقة
يودى
وبنا
وبكل
باكل
المكفول
نتاج
يجزه
سحابة
احسبه
التعذيب
الحاضرين
شرايع
اكمال
اكراه
المقبل
بالمسلمين
جوع
حارب
ثلثماية
الصوتية
للنب
ظهرها
ويشرب
اسعار
##ضاض
والحزن
الكيس
##انيته
متفرق
##غيظ
ارن
نواة
البسملة
الجمار
الباردة
بالعود
الخرق
وادع
سواك
والاكرام
الندم
##عد،
وعكسه
##داها
انهاء
انبيا
لوازم
اليقظة
اقرت
رقية
سكنت
ابله
التغيرات
تعاني
وصدر
سلما
والمنت
##غد
تقريبا،
العقل،
المنكر،
طلاقه
باني
خراب
صوا
عقا
المذا
##وريات
الفحم
الراسم
منتق
الدهن
الامد
دارت
تاريخها
اعدل
للدفاع
##ايبة
بالدليل
الاغتسال
يومها
قتلها
التخلي
يظلمون
الساج
البطر
التصرفات
تاجر
والحجر
السجستاني
تدر
ماجد
##قاها
والعباس
المشبه
البرلم
مجهولة
عايدا
بطرق
##عتان
وطنه
السخاوي
اسيلة
المعاهد
تتوقف
وجهت
نهايي
بمصر،
يرع
##الية،
ابوا
تتن
المغل
##فارس
اقتداء
لرسوله
فتست
والاشت
صدقوا
القايلون
تمكنت
مفض
بنتيجة
يوشك
##واتيم
بسورة
##ءون
فاهل
اتع
##طعنا
الثلثين
الارتباط
لتب
استواء
وينهى
شرار
##هاهم
البضايع
يتراوح
الاوليين
يسوق
النظريات
سكنى
والابل
جابر،
##دات
المصدق
تركنا
المناصب
ركاب
بدينه
هو؟
يتلقى
يستقل
سوءا
الماجستير
##ديا
والمثل
نجدة
للحفاظ
الخلقة
دعاة
حضرته
والنسايى
التوصل
##مارا
##صبغ
المناق
جعلناه
ارايتم
وتبقى
الميدان
البضع
استعار
##يفة،
اشتري
منتج
عاف
الاحاطة
والفرس
بازاء
مصنع
وربيعة
وبينما
دخله
توفيق
القيسي
الممتنع
عذابه
الخبيثة
يكتبون
الواقع،
يتقي
اراض
مذب
##ريحة
بقيمته
تحقيقا
لكلام
الوقعة
هجمات
انتفع
للتن
بالطعام
معذ
والمفعول
يقبضه
الدنيوية
افساد
يرمى
الكونية
وكقوله
ربه،
منسوخة
ملحوظ
الوقاية
خيانة
توكد
الاضطرابات
##فالات
وابل
##واتهم
لامكان
جمه
وافع
##رايين
فوجهان
والمجرور
وفقد
لنفسه،
المراتب
مورد
الاسعار
المستنصر
فحضر
السياحة
بظهور
جوي
غربت
بالجر
الداع
##يادته
يقلل
فورد
الامداد
الحجة،
قط،
والغضب
المضمر
اكاديمية
غطاء
فراجعه
المظهر
والمقت
##قتك
والحل
المناقب
مهت
وبث
اتيته
بيضة
طفلا
ارو
محقق
تشرب
تتحقق
للشخص
البسيطة
بالهاء
وتمام
ومشى
خوان
للمشركين
بولي
ذهل
الانفصال
تتناول
الكوفيون
قانونية
النسل
ويجاب
##سلوا
ففرق
لمجلس
تقص
تنح
الخلط
اعتقاده
المولفة
فطرة
تعطيل
تقصر
التعارض
كاز
اسفر
وحول
اضرار
وثمانية
بالاعمال
سيرا
الساعات
وبالك
رجعة
جهينة
القتال،
بفاتحة
النواحي
الاستعارة
الارجنتين
وانقطع
##اييا
وتوجد
المصري،
خبرة
يرس
بالاسم
ومدينة
المسالتين
خطيرة
بالنذر
المقداد
موجلا
جزييات
شات
##فح
##كرير
يحلق
ظرفا
تفريط
يورد
المستمع
الاكثرون
نابل
التوزيع
مستمرة
والبناء
فحين
الجدول
يتعامل
صرحوا
المخطوطات
النظرة
##بيط
يحارب
اصحابها
خلفها
البنا
اهتدى
،و
اعادته
منامه
واوصى
ويفت
بتخفيف
بالقيام
فامن
وكاتب
فاجر
انهيار
خلفاء
عورته
متاعا
الضحك
مصب
##كيت
المتعلم
بالسجود
دمي
ويفرق
كهيل
##يها،
##شيد
البطل
ينكره
اجساد
الشامية
رفيق
انقلب
التخلف
كليهما
ورسم
ويسجد
مراجع
المهمات
اخرجاه
خطايا
التطبيقات
يغر
واسمها
يبيح
يوم،
اغراض
المشاركين
قيده
والنجوم
كنف
##دهور
اللذات
صفراء
فكون
فرحا
فمال
ولرسوله
##حاباة
فرغت
نهض
لسبب
مميزة
والها
الفريد
للرب
اعرابيا
الفنانين
رايا
تاخذه
طلحة،
الفتح،
وتحريم
والنبات
السلبية
##لاثة
والسعي
فليكن
الاقاليم
ثقي
الاعصاب
بريرة
ابتدع
معتبرة
فاحشة
تضمنه
للمعت
وحقوق
##ظما
لاداء
للمجتمع
الكرك
مهرها
مومل
التطبيق
الدعوات
السجدتين
كتيبة
اتسع
سعدا
عاهد
فالف
فانهزم
زمنه
للعديد
اصلا،
##طرون
نكاحه
واليت
الجينات
ليز
المتط
والسدي
غزوان
والافعال
لمدينة
اغلق
اصلية
وحميد
كبرت
يسري
الالية
تحلل
اليوناني
الاستعانة
صهي
لحر
##ذوذ
الفوت
##عرية
منهما،
وفايدة
مذموم
للشيطان
بمحل
للهجرة
انكروا
اليابس
واتبعوا
##ميت
يثاب
معذور
لوضع
بشروط
اخوك
جاءتهم
والحرب
الجلالة
الموث
عودته
والجهل
يلتمس
يندفع
فعلته
والجماع
##لكان
يتوكل
المتضمن
مشاعر
يشترك
بجزء
مهام
مفارقة
مناص
التوسل
اسلحة
وللت
اهدي
اطلقه
العجوز
صياغة
##نية،
وتاتي
المهاجرون
حبال
وتامل
التشخيص
جريج،
الاوط
السقاء
##وفين
اقارب
واثناء
فيرى
بتحريم
فصي
لرفع
تجن
قايدا
فبطل
الاكراد
للمرء
##نشاق
الحاد
مويد
الاستفادة
يبط
منتجات
##ذاة
التونس
فاعتبر
احاد
بحضور
جانبا
انصاف
الخدم
تعالوا
الفضل،
فوجده
##شور
الف،
فتزوج
للجنس
يكرهه
تنتمي
نستعين
يقوي
##ويية
جريان
وطبق
وافض
العنوان
##سيل
والثلث
##برج
دخلنا
حاتم،
المثلثة
نافعا
موقت
اكتفى
اعمالها
المذهب،
طهمان
مسموع
تسبيح
مهج
وعرضه
الممارسة
للعين
جدول
##كبرون
التست
يتسبب
عدوهم
انقضى
اخلف
قدروا
##ذلل
الظهر،
المنطقة،
عفوا
واوجب
وبلا
يجرى
مكات
تخي
صنعه
ذالك
اولى،
##لاتهم
حزنا
تمنى
##سس
ولات
المنخفضة
يسكت
بحب
السختياني
لجاز
تبي
لنف
الاطار
اسست
يدافع
جنون
باصبهان
السبل
الثوري،
شهادات
##صرهم
تخلص
باطل،
مباريات
حفرة
نان
وجرح
واشرف
خلدون
منعك
ميث
ملجا
تانيث
بعموم
فتوجه
##راهن
المحراب
نظر،
العضد
المسيول
وبالاضافة
التواتر
ادن
كلمته
يحصى
يزن
الوثيقة
سيدا
##وضى
اجبار
رحله
ويبطل
ناتي
رحمك
اوروبا،
مخصص
##روبة
متخ
مسافرا
السق
شافع
ثمانون
##اجيل
##اصمة
تكلموا
موضوعا
##يبس
الفضايية
ببلد
بسا
الطوال
حيثما
هايلة
يلقب
متت
الباطلة
كساء
ترجعون
المسبب
##وايات
للعرب
وشرعا
استنادا
المحددة
عشت
كهيية
حفظها
المقتضي
البختري
يتالف
ارباع
خارجية
جذع
ظلمه
فاخر
##بيري
مظلمة
##رقية
ودخول
بالتوحيد
لبنا
يرمون
السابقة،
وجيزة
هذي
##ليان
لتطوير
##يكة،
واخيه
وزوجها
للورثة
اللتين
يقيمون
##جهز
راجعون
اجازه
ضار
فنع
قضت
##خوا
السنا
الراحلة
التاريخ،
فزارة
متزوج
##والها
المدني،
قطرة
الكونغرس
##سرة
الاهمية
الاستماع
اهو
##لقاه
اضا
ت،
قرضا
لحا
يعقب
احترام
واعتمد
هدفا
مجلسا
الزعيم
الثوار
والمسجد
باري
فنز
العمدة
##حض
##مايم
المعبد
متقد
للمسي
الاوكرانية
مودة
الغيرة
والكا
التصور
الزه
نسبا
مضمونة
سباق
مخطط
##حمود
المستق
المستن
تجميع
والنع
مضرة
ليدخل
المقطوع
مذا
والقي
وانطلق
##زل،
ممثلة
ببغداد،
الضياء
الكليات
مروي
وكيع،
فيسقط
فيضمن
الاعين
فاعبد
فاعجب
والمسالة
اجزايه
يسل
##قلها
##ميل
ابكي
بعص
وحض
فليص
حسبي
##رافة
##ونكم
الشقص
الدجاج
احلام
هديا
تدخلوا
معانيه
انضمت
##صنة
والاثر
والخطاب
حياته،
بحقه
يتقرب
افة
##قليد
المعهود
اليزاب
كندة
ويلت
والاصول
الاطلسي
المزع
الذاريات
نسايهم
اخبرك
الاشباه
لعنه
زبد
والشيء
متاعه
فرش
لطول
مستحقا
دهن
نذكره
الابه
ينحر
الظهير
فجرى
الشخصي
المليح
جغ
ينطبق
البدا
دفنه
تره
لموس
غيركم
ينبه
ليسا
الالوهية
##بابه
المواقيت
قصدت
استعارة
اهتم
وطرق
كسرت
المختلفة،
نافذ
العثمانيين
ومساحتها
وهبه
الكوثر
البيتين
تنقض
فاتخذ
ملازم
المعدوم
يهتدي
المذنب
خاب
ظني
ماز
##بيون
ونهر
##فعها
للمك
وسطها
السرة
المنافسة
لاربع
الهاتف
وذك
انتفاع
الحريري
تفسيرا
تكمل
مجيد
حواء
موط
فصالح
مهنا
زياد،
والاتحاد
تله
شبل
امية،
فاستع
الكردي
وطلق
لكما
ليتم
رابعة
والبعض
والاشارة
للملايكة
افغانستان
بالعبد
الشف
ايماء
الخضوع
##صارى،
يدعيه
حرمته
الوب
السقف
ولازم
وبالف
وحيا
البربر
مسجده
فضيلته
غايته
مفار
مراك
قلبا
الشرك،
ذروة
مكونة
بنظام
القنية
##اجد،
##فعا
والنظم
لجماعة
التصانيف
حضرموت
القدر،
كماله
الفها
وعروة
نفقتها
مبشر
النسبية
التامل
القادسية
يحزن
تمثال
المصد
الاحجار
يسالونك
يطلبه
##طالبة
وتابعه
جريح
يرعى
##ومهم
##قييم
صاحبك
نظرنا
انية
الكاهن
نجسا
يربوع
المازري
سمة
رجلا،
ناقصة
ماشيا
الخاف
##ليته
وجرت
تحبون
يخوض
مفاتيح
اولادها
تحا
كفاءة
وعت
يجتهد
اعدا
ويقضي
والمومنون
توسط
موسكو
##موما
يصح،
سجدا
غرايب
اجري
مستقيما
عمق
##شاكل
##رابطة
واسمع
بالتراب
سمك
ارضى
##مانا
والاط
الموضحة
والعجب
الثالث،
ممس
الاغر
متوسطة
والحالة
يطرد
زان
فني
الاوضاع
النبا
الباشا
مخاطب
البقعة
السقي
محطات
تذكرون
المبيت
ماوه
استل
الغدر
##اشع
فغسل
اذهبوا
مستقلا
امثاله
##قاومة
##ناهى
وثان
##وراة
الجوزاء
زهد
الشجاعة
قلد
امواله
للبشر
طبعا
يابى
قهرا
مقياس
##جميل
تشترط
مغم
رويناه
الكويتي
واداء
##ستا
فانتم
فخاف
ساحر
سول
##غاث
##اجع
متضمن
تنتظر
وحصلت
ندع
للبحث
واتفقوا
فرات
يفيض
فتوح
الحيضة
باحاديث
فغلب
فلسفة
بجنس
قليلا،
بجر
مظلم
##سلها
التمار
الجدد
المعاصر
السوفيتية
عشاء
الرص
كاحد
##هدة
##سح
والحمل
ينبغى
انت؟
المسافرين
صبروا
لعظم
وازالة
القوت
الرفاع
ومعا
مقصورة
خصلة
ووع
وزم
ونظام
انتقاد
يخبره
اضطرابات
واوضح
اميل
امه،
يشتد
لقيط
حاكما
فالى
ولسان
بدايع
ارسلان
##اسق
سمعان
اثلاث
المحيل
قصايد
الدروس
الجبل،
قه
الصعود
بعذر
بكونها
زوجه
واعلى
بمنطقة
الغرور
عجرة
السامي
فتجب
انماط
وردا
والانصاف
نبوته
تواجد
واطعم
تاكيدا
فليم
المشاة
الاحساس
بالبينات
##ايتها
##تبوا
والسير
وشهادة
بالحجاز
مريد
##لاعب
##ايرات
وساعد
##روش
الابدال
الميا
والمومنين
للمحرم
جعلهم
فمنع
الحرز
المتمردين
عقايد
نراه
##حتك
الوغى
مصلى
واسد
مصدرية
حواشي
الواحدي
المجتهدين
مني،
ويث
نفيل
يثرب
وموت
يسته
الادبي
نصره
ضاح
ككل
##ودى
وعزل
اقاربه
الاعذار
رهنه
ابشر
سراح
القيوم
وتوس
بغتة
والمعتمد
المحلل
محاربة
زوجها،
الانصار،
##والى
كالر
بسلام
معينة،
تذبح
كظهر
والرضا
الغش
جوية
وتسعون
##بب
فاصل
لبست
وغضب
يذكرها
وجوهكم
وحمد
مماثل
وبالغ
مساحتها
ومفهوم
الباطنة
والصاد
اشبهه
وخبره
بجير
فحفظ
باسلام
فعلة
اجرته
##راضا
اوجد
وابقى
##ولادة
يفقد
طويلة،
يرجون
وبيس
هنييا
##جنون
##اجاة
ليظهر
واحدتها
العدو،
المطار
ينافيه
نشهد
يزني
افترى
##كافحة
بمرو
جيء
الاملاك
##يك،
الديك
مطي
##ضيحة
الدراسية
للفظ
اسات
ويشمل
العبادة،
النقدية
قلما
##رشح
فشلت
الهند،
داعش
فاتيته
النهج
المعماري
تستطع
ثالثها
التوقيع
ملخصا
يي
##وعد
فيذهب
فيعتبر
العايل
##يبين
النفوذ
اجتمعا
السكك
الفاكهة
رياء
فبا
الجمر
والجنة
بوك
ايتها
الاعمال،
تصر
طوي
##سة،
صدقته
بظلم
ضياع
عامله
مجاوز
بالاشارة
المروءة
##ماي
##يدون
وجزء
والمالك
اصحابك
اشتكى
ناقصا
ترف
قصره
مكا
افضى
رايك
صفحات
القدوس
عايلته
ضحايا
وعهد
نصبه
الاوطار
يثير
##اجه
نصرانيا
يكرهون
كافيا
قميصه
والطا
##ايت
الحافظ،
الانتباه
عفيف
همة
ورتب
الحام
الحدا
يمشون
حجره
##المة
المهام
والضلال
##فاخر
سليمة
والعتق
وكبير
اشباه
يغطي
وصفته
الجهال
كلبا
ودنيا
فازت
وستماية،
المبطل
ثوابا
للاث
والرجال
بهامش
احجار
خولة
رقيقة
كلمه
امضى
##اقان
بقرية
لعثمان
بالاذن
والرض
متجه
لتغ
قلبه،
جبراييل
خلية
معجز
الفحص
فاقل
فالغ
وخوف
##اليون
فرانك
تايل
مناخ
صلاحه
البشارة
ومخت
بالتمر
اقوالهم
##ضيض
سلطنة
الحمير
وقوعها
التوازن
وحص
لقولهم
للامير
الغذايي
بخد
##زعوا
باخبار
خبي
##ومته
##يتو
اكثره
بشهاد
##يشة
النصرة
خرقة
فحكمه
المكرم
##راقه
الخرط
التحية
بالشعر
يوافقه
يتحدثون
##ريخ
ابايه
فاسال
الخلود
ابوابها
المنسوب
والرجوع
المتحركة
حله
القرينة
والاعلام
مطبوع
##خلات
ينبي
يثني
الكيميايي
##رايه
ابلا
يحكى
التقنيات
والاستع
بورت
بالعم
السكين
وتصد
الشعرية
فاخذوا
جيشه
صان
يترب
راو
يصليها
بمل
منظر
والهدى
وثمانون
قحطان
ضيا
الشجاع
الاقبال
انشطة
انتج
##كتات
مذكورة
استعمله
النسيج
بركات
والمنع
غدوة
تاخيره
لوقوع
الغيظ
المعراج
غضبان
والجامع
المضطر
اللحظة
العتاب
##حدين
تتوفر
الدموع
يتلى
والمف
استعمالها
##راية
استحل
المعنيين
شعاع
مغفل
التقرب
زرق
عور
نصح
رايتك
الفهري
لنظام
تريدون
الافرنج
تنته
شعوب
اسفله
##ظمات
يعامل
##بتنا
بدقة
مالكها
بالوحي
الحشرات
شياطين
موف
ليعمل
والساد
الاضداد
وادم
المسالك
والصبيان
تبعهم
بالثاني
مشروعا
الشمايل
السالك
الربط
ونك
تقارب
بحقيقة
اختل
مشيرا
الكيفية
مضارع
موجة
الرووس
للخبر
وشريك
##وثي
المخاط
الظاهر،
والمحبة
مخالفته
##رافا
والنقل
جملتها
خفتم
بنكاح
الغرة
فصلا
الافتتاح
وعرفت
##ارقة
تعميم
سببها
الخاصة،
فيكت
مقابر
واجمعوا
فامرهم
شارب
فتامله
يستدعي
يفترض
عاجز
ببع
يدوم
المهند
هدبة
يتناوله
المسالة،
مقيدة
وازد
متساوية
صنم
باسقاط
طريقين
مضطرب
##ثرا
##مط
الفايز
توصف
الادعاء
عالميا
شبابة
ووهم
##بدال
الخنثى
بمدرسة
المغنى
انغ
##وعود
وماجوج
دمت
ويقل
ويسر
مالم
كالمت
برماوي
المقارنة
بارسال
ينوب
والصفة
بيتر
الحدوث
صلاتك
##لاحا
السباق
صاحبنا
تبدي
لخلق
ابوي
يتمنى
للمولى
ربيعة،
قربه
معبود
قوله،
اشارات
كاله
كالان
المادي
##داده
حكومية
معانيها
التتابع
الرخ
المعم
المعاف
والتسليم
تدارك
حضوره
عتقت
الملاح
لتخ
الدواير
##حوش
##بات،
بكلية
مخلصا
تجدد
##مايهم
وللب
الفرعية
سفه
##ذاني
وبحر
بمص
بعضا،
لاغراض
اعناقهم
فلزم
ومايتين،
ومسجد
الساكنين
##واهي
تكلمت
وعمله
القضايية
شيد
الانباء
نذره
فتحة
وليعلم
ودية
فرسخ
اسمعه
المسابقة
ونزلت
ثلاثي
واحكم
بدينار
مسوولية
فديك
الاء
بنجاح
وحما
والمثبت
بفضله
اعمارهم
وسيف
وفاز
بخمسين
خسارة
كلتا
فسيل
فلقيه
##نيب
بالحجر
تمي
لته
لاية
بعشرين
فتعين
تقبض
##ضرته
المستشار
مرش
اعملوا
الراحمين
رعيته
الورم
المعلمين
الانقلاب
##سور
نسيان
##واتا
##جبال
المحجور
اوسق
المصابيح
العلية
المدار
ظنوا
واهلك
مباحث
التواب
تفوق
اسلم،
والمعاصي
كاشف
حنبل،
الاهلي
نايما
الرباني
الطابع
##ضاءة
اليمنية
##غاله
للوجوب
ادبر
بك،
سميث
##ضج
التقاليد
حفظت
النوعين
موعظة
الثغور
##ارثة
اليزابيث
هون
##نان،
عمامة
زيادتي
الضرورية
ففت
تنوع
البقية
اصابك
القرارات
لعمرك
اخرت
##بلت
درة
يديها
منته
بعيره
##حاها
يستعين
ركوعه
والفي
افهم
وثب
الاودي
والوصية
الغطاء
خالدون
كاج
نكر
##ذبة
النوبة
##بانة
صلحا
الفصح
نهيه
علينا،
طولون
جدعان
وسعة
##رحيل
اثواب
ديون
الاعا
اغتيال
مرضا
فقتلوا
##دتها
مركبات
##بني
البز
للمق
الظباء
ودعم
هولاء،
يكفرون
##ليفه
الرجيم
الكبرى،
ساكنا
يما
##مينة
ماكس
مالك؟
الداين
جنادة
الايراني
محتاجا
خايف
المميزة
العذب
السمان
بالمدرسة
المروذي
زمنا
عنترة
فحق
فرمى
وتوا
وتسلم
ليعرف
قسمان
طابع
##انيت
تنال
والطيب
حماس
تضمين
ينسخ
درك
طبعه
وبغير
وقولوا
بيروت،
اشتهرت
تنافي
السماوية
مقبلا
النعام
الاستيذان
##هيج
الاخيرة،
هممت
هيب
وانضم
##وحيده
##نفية
الجرم
الرداء
تعلقت
المفاهيم
وافعال
للخروج
##حاصل
الشهرة
ننت
يتاثر
##اريين
عمومه
والرعاية
للكفار
صاغ
##لاعه
البنين
الانك
تحص
ينازع
وللح
وناد
وليام
كالط
##سران
هناد
والسكون
سدس
واذكروا
دماغ
الدلال
##وتن
الاحبة
مهلك
الاميركية
ممكنة
بوجوه
##طط
##لفون
بجايزة
اعطاها
المسبوق
##ايد
ناش
والصح
حربا
بنايه
خيال
والاقرار
انفقوا
دوي
القابل
لديك
بند
##يعوا
باستعمال
بالباب
فاغت
##قدمت
المتاحة
حالية
الربيع،
الانتقام
والمسلمون
تعقلون
وصبر
الجديد،
شهادتهما
سيتي
بالصد
قشر
التصدق
كتابات
مضمونا
بتقوى
مارتن
##ثة،
وطوها
ساه
السنتهم
اجمال
يزور
والله،
زايدة،
الفاسي
الانذار
مفردة
وبخاصة
لعلى
حدثهم
##اقفة
الحقبة
بجعل
بارز
##ضيت
الاصدار
حقه،
المقاتلة
والكتب
الهموم
##تفع
المساء
##ساعد
روحي
الاختصار
سواهم
المسوولين
##يعا
##مرها
##رجيح
عليما
وفات
عوضه
حران
معار
وعمار
حميم
ازار
طبية
باتت
اضي
لوال
غيرهم،
والمحدث
الصقر
الطواري
##خلال
ادرى
والثواب
تستر
الميلاد،
الحراري
تعطى
ثنايية
غرضه
ساس
الانبياء،
مشروعة
وهاجر
الخمر،
نابليون
لولي
انقاذ
استثنا
الميث
واعيد
الفك
ويختلف
ومف
موثر
جدته
اظفار
اسلاف
##وسه
##هن،
وللع
الصورتين
تتابع
يقولها
##انيوم
المجتمع،
ثلثا
القسري
فبه
الرباع
فسلمت
الشرعية،
وبحسب
الدباغ
##وزه
طريقها
ولدك
صبيحة
منظمات
يوجبه
حقل
المتف
المقصد
عادوا
وبج
ينظم
مترو
عاشت
الواحد،
الامعاء
معمول
الديات
بعرف
اقمت
لنحو
الخلد
صوابا
النقاب
لنا،
وينقص
جنازته
نقصه
خياط
الوقايع
تدعي
قومه،
##ليم
المخصص
للموا
المحليين
تجرى
##صباء
والغرب
افتراض
حفاظ
بالخلافة
تيس
انهزم
يثق
غذاء
##نط
حيوية
واجت
والانق
وتركوا
رشيدي
والبرد
محفوظة
نيران
##رفي
يصور
وتعقب
ونحوه،
فوجدته
مدلول
ذرو
قعر
بانق
فعلوه
بوادي
المراقبة
الايو
##حتي
فعلنا
يفكر
بشيء،
ويحسن
حفظا
زاذان
هبط
ورمى
القواد
واقرا
فكلوا
بولس
غفرت
وساء
الزوجان
فبما
بالعتق
##اشية
باطنه
##شلونة
اهتماما
مبي
يطي
##يمتها
##ادب
ولعن
فلس
##سموا
للمريض
المرادي
داوود
الخطوة
اجرهم
اولهما
الهولندي
وقدمت
المنفصل
فعل،
بالمص
##زايم
رضاع
الرف
والكبر
جاووا
ساهمت
التنفيذية
زبر
واللبن
البها
وجبل
##ميرا
##مسا
قتله،
للتعليم
وتعمل
الياباني
لاقل
قانوني
للقر
##فسق
##نعيم
فنسب
ينتشر
سطر
##كلين
كتابك
الملعب
اشرت
الاديم
بالصدق
بالثلث
##وابق
والاخلاص
الجرمي
لازالة
حجا
منكرة
وسطا
الغيوب
والشاهد
المكذبين
المعترض
المحكوم
والسوال
##اذى
العجايب
الكعبة،
زنت
عراق
##ووي
##خراج
عصاه
اندلاع
والرفع
الصابرين
يدبر
الحجامة
العنبر
غرنا
اسلامي
جحر
الفع
الكافية
ويتق
فاذهب
اعجاب
متوال
قبل،
يستخرج
##زا،
##باته
الارقام
بلخ
المهرجان
ظهورها
تذك
##ثها
عندهم،
وباء
يجاهد
والمختار
الافك
المهت
وقفة
فتخ
خصص
وسلطان
ينصح
المحتملة
المخلصين
طيف
ووه
##داب
ومقاتل
##ضمون
الاغلبية
غفورا
يعول
المنادي
للتم
فتصير
تكفر
باختياره
نهب
##بنا
صيفي
يتصف
فتد
المشاهدة
تيسير
والوعيد
تعريفه
لاجتماع
خطيبا
الطحاوى
حريم
##لوك
يتبعها
جندل
للصايم
بوم
##حيت
تمث
الاحص
عصابة
وزعموا
تصانيف
##ثهم
بالوطء
##رجاع
تصوم
اعطوا
للبلاد
لادارة
نصيحة
خيرة
المون
الميس
##ارقه
كط
##زلوا
بتج
سيطر
صحراء
ويتع
الرقمية
اديب
باليوم
ونوع
يبول
خلقه،
دخان
الهلالي
فرنسا،
##طته
فيقدم
فلكل
طوق
والنسب
والهبة
مزارع
الجهاد،
موكدا
رقة
##عاذ
فصدق
الكوفى
الكسوة
جبة
ظواهر
##صوبة
واحدى
ضعفاء
الحيوي
وبالنسبة
فجلست
حور
القراني
حبذا
قمع
ياف
##سير
##مرون
اقتضاء
ومحله
منزلته
المعجزة
مفسد
وكانها
علم،
والشكر
نقش
الاشتر
مصاد
قصيدته
الفعلي
السهيلي
اللف
لموت
فالد
الحجاج،
ايقاف
كاذبة
افا
ظبي
شعرة
القدوة
##زنا
##قاطه
القاذف
طاهرة
بالفت
بالطاعة
ابنتي
النازية
يقولان
يستثنى
تتقون
المحور
المعروفين
اللغة،
الملام
متبر
##صدقاء
هارون،
مدة،
السكران
جامعا
يدعم
تتصل
المطيع
خلقة
احسنوا
صلبه
بارزة
فرجه
الخطايا
المحمول
##وادي
اعض
الغدة
بالمقارنة
دونك
واولاده
وههنا
الرية
الاماني
يرثه
ويعطي
الحاجات
##ستن
والارادة
الحسية
نوعه
السفر،
المعدنية
اللاهوت
عمة
واكمل
افادة
##ضمض
اغنياء
البدنية
البقاع
الكسرة
عفان،
السرح
الحجري
##بطه
جرير،
ابدى
الفوات
يعظ
الذهلي
##قبال
اسراف
يحط
مبلغا
فارجع
السكة
الغرف
كتابه،
##بحه
توضح
يفعلوا
ارح
شتم
غابت
مبس
الالواح
صدقا
يدخلوا
شبهه
الرقاع
لاهلها
الهيدروجين
المراسيل
ياجوج
القفا
الفهر
واخلاق
كرهه
دنياه
نرجو
للبد
المتوفي
المعتمدة
##زاه
المية
المعني
مشد
بعثنا
##مارسة
##يموس
الحديقة
وتعلق
والتغ
والحافظ
واسراييل
لمجموعة
بدورها
تكف
نعي
وتخصيص
يعفى
باضافة
شجاعا
بكتابة
الهدايا
مصباح
القدمين
واورده
بله
سيك
لخدمة
##ياحة
الزحف
سمعها
للحافظ
عادية
بلدا
##كانة
الاجري
صدام
يشاركه
كنه
برحمته
يطمع
النصح
الانزال
الديباج
المقطع
والرم
المتعاقد
محصور
بالخاء
##هاجرين
واخرين
ظهورهم
بشبهة
والبعد
حسد
الازهار
مخصصة
بالسين
عظمت
استحسن
فريقا
قفل
##يلد
##بيهات
يقنع
للزوجة
المحصول
ومركز
والكرم
وقعد
يشكو
جسما
بسطام
عويم
كرك
العهود
والقصد
وطرد
المرفق
##سبا
بنته
بسام
ببني
تجعلوا
للمسجد
##غها
الناشر
شيكا
الديلم
بمسجد
بقبول
تبليغ
تاسس
يذم
بالسل
##ذهان
الغصن
الكمية
الهدنة
منصوبا
بالقتال
هوية
نفرا
نوعية
فصاروا
براون
الجوايز
جذور
اجرت
الحنظ
محدثة
علقة
##عمرات
##طفية
وفاطمة
صعبة
الخفاف
للوكيل
اعلا
لتف
علقه
مهنة
بطاقة
فيتم
بالشرع
فكانها
العاجز
للحم
تقوية
معاشر
للنظام
##دادي،
لنبي
المغاربة
فشق
جذيمة
منفرد
##اييات
ويفتح
تمكين
والقوا
تفقد
##صرفه
رث
##رطبة
ستره
فاحضر
القنوات
ورفض
الزند
وابناء
كسوة
بيدها
مكروها
الاستهلاك
حيل
النسوة
بشخص
الحاضرة
صلاتكم
رايتها
ساعة،
انقص
الناقص
اشكو
تطيب
للعلاج
الدراوردي
فاصبر
غربا
خصه
الهمة
فروخ
المحدد
بوضوح
واسن
للغة
تعتق
الوطي
سيلت
الغلبة
##رايح
##صيبه
والنخعي
سياسات
##ياجات
البنيان
للشر
وزع
وتعرض
فدفن
فاسقا
نشرها
المروة
والضم
##اسير
##وقراط
والصحة
ياخذوا
نفق
اللول
الجديدة،
##غارا
له؛
وكثرت
##وبون
اختر
وده
اخيها
والايات
والعذاب
##ونسون
الحاكمة
مرافق
ونعوذ
شريط
يهاجر
والميزان
وتمامه
تقدموا
انفسهم،
مقدمات
لرج
وتتم
الغزي
ادوا
عمري
وذكرنا
والكف
والمعتزلة
العلق
وهزم
الشقيق
للخير
##جل،
وحبيب
نقصا
الاندلس،
ايجابية
##لقون
تحذف
جهز
خطورة
نفير
البريطانيين
الحضرية
لاسيما
خبا
البيضة
بالنصف
التمرد
النقب
الدستورية
بالضرب
محارم
انتقض
تعلمه
الخصوم
حسناته
هبته
انتصر
##شاور
جليلة
فهن
##نبور
حظا
لدا
اغلبية
بكلمات
والاستغفار
بالاسكندرية
بحديثه
يركز
فيسب
اخترت
الثلاثة،
قصبة
سالني
للجماعة
مطا
العطية
اوضاع
وددت
والقوم
واقفا
والانف
لسانك
واربعماية،
الفاظه
بالمنع
ذكاة
طغ
##ارون
الفروض
يعرج
##عمري
امران
يرخص
جنت
ريد
كرسي
وانش
مروان،
فدخلوا
عكرمة،
يوثق
عجيبة
##ركة،
تصب
فرقد
والغالب
رحلته
غمر
خطابا
توليد
وانزلنا
لونها
الخدي
المعاص
##سيين
وداع
بوين
تكل
يايها
واللي
التنب
المنخفض
وخش
الصحفي
بالفضل
فابوا
ضمنا
خما
يخر
الكشميهني
تاول
المفاصل
لقطع
الحرا
الرماد
##رق،
وثايق
وصفنا
المحمدية
##حالة
واهد
اصبعه
##شيق
لحركة
التنوع
الالفية
قبلها،
##ساتين
للطاقة
مسابقة
##اكس
تركب
وبير
الالحاد
وشمل
##زايدة
وصاروا
خلكان
والباب
والراس
الجحد
ومهر
##قتي
##شا،
اقتر
ضربته
##ابهة
حوار
##ذوب
فيعمل
ابتل
الراحل
الباك
عابدين
اقواما
نفيا
الثقافات
يخلط
فمسح
ديل
فيعت
اوقف
الرقص
الانطا
وبكر
ونجد
الموكد
##اذبة
رجعيا
المريخ
الاستعمارية
والاقتصادية
زجاج
فارسا
واشترط
##سيس
##سرت
المجل
واظن
عدوى
يستوفي
السليمة
معاص
##علن
والسياسية
ارضعت
الحبة
المتبادر
الالقاب
والنحو
للدنيا
انعمت
يحمي
مسن
##نتج
بايام
عده
والرابعة
##وامل
##زمين
بيك
يهدى
نوبل
الجامعي
انعام
وجدا
الغزال
تميم،
زوجتي
مضاد
وتحسين
دلالته
تدرس
ورت
والحقيقة
بالصفة
المكلفين
وارضاه
خلقوا
يتيم
شمالي
والهد
##رجي
يوحي
بالحياة
حنيفا
كسرة
قلبها
يعارضه
ران
طيلة
ماذ
وتعليم
##ذهبه
##فعيل
قتلوه
العبد،
وبلغني
بالهمز
العملة
اقاتل
نسيم
معتدل
الوعظ
ففعلوا
البخيل
الاحقاف
وسما
الماهية
باسلوب
برحم
يغل
وخرجوا
التابعي
لتحسين
ازالته
الاثنان
التسعة
سهلا
كفارا
حينا
اعتذر
ويدعون
تقريره
قادرين
حركته
##رجا
الاستطاعة
##صاير
بالسجن
افتح
واسل
ذكرتم
فمنه
الجزع
بالغسل
التفويض
ينفر
واسقط
الكفر،
كباير
الطمع
اشتبه
##جزية
مطولا
فرحون
قضيته
والابت
القري
يقنت
لسبع
ذاكر
سكين
مقاصد
اياه،
والانعام
المشتبه
بالدنيا
برت
مفصلا
ادراج
##تبى
المتص
فشبه
وجر
قدومه
والحاجة
ومعناها
مقصودة
البارحة
الساكنة
ورغ
زكرياء
فالاصل
الدقة
وصاحبه
اللفظ،
حاجتك
جاهد
سليما
وجهات
ثلاثية
سيارات
الطبر
اقب
اموره
اثارها
صادر
لرد
##ظرية
العملاء
النفاس
يجلب
المسودة
بافضل
بمعدل
##تكاب
الحسني
الجامعية
القلوب،
يسكنها
مستقبلا
##ديته
##كانية
يخفي
الادب،
صقلية
والارت
متواضع
تقابل
الابنية
وطبع
واعراض
لساني
المبني
##براطورية
وجرير
ينبع
تصنيع
الاجد
بالفق
##سندر
الوريد
فالذين
انفاس
ريحه
الريب
##واض
##ستور
بالوضع
الجياد
لفظها
المعيشة
ماكول
تلميذ
##هيد
فسماه
تملكه
يتما
تنمية
المغول
بطرف
يطيب
بالجواز
ترجح
ذميا
مخص
اعضايه
الراس،
نزهة
والثقافة
بالتكبير
القيروان
ارحام
التبري
بالنف
##ديرات
استف
فسادا
الريفية
فتاب
والذهب
السحب
المنصوب
افراز
تسمي
وبالق
موصوفا
امع
وامسك
##ودون
ويودي
اسا
ودوا
والخطيب
البدو
المخطط
اشرنا
بقعة
وخدم
نتج
جاهلية
فالحديث
الصواريخ
الراى
جديد،
دبره
ميكاني
تكفل
الاخلاقية
مقطع
ويحتاج
العلوية
الحاقة
الساعة،
المطلب،
والشافعية
صبيان
ولاح
اختصارا
واخبره
بغرض
الزعفراني
الاولمبية
الحلة
النشا
##وله،
مخاطر
لينظر
احمق
عامة،
تنشر
اعدت
يكرم
الخيام
والنق
للسهو
اثارهم
الصغاير
المعاهدة
فجا
وعدل
فاتفق
اوهايو
جول
حيضة
منكبيه
امراة،
المورخون
لقص
استيجار
وندب
##وهام
مشتقة
صدوقا
يخصه
وشيء
للغير
##قولون
المعاوضة
الفخار
متوق
والتوحيد
الشرع،
الطا
ليج
اليز
تصني
بساط
خميس
التسم
الكروم
باجراء
يبتدي
الجاذبية
ويبدا
والسمع
مقدور
صادقة
ويخاف
كاص
والنصف
الاقناع
التجريد
اللاجيين
الممارسات
كولومبيا
شربة
##غمت
تعهد
وبحمد
##رعوا
لغيرهم
##يادا
النقيب
فالب
يستع
المفتاح
السدوسي
تقضى
##تمون
صدوق،
يجتمعان
ضباط
الاجرام
ارزاق
عوف،
تطبيقات
السواء
انتقد
دمياط
ثني
لسر
##ليح
رايهم
ففعلت
رفقة
المرام
القذا
للوارث
والاكل
واصيب
منزه
دولته
الحنفي،
بدعوى
شبيهة
غرناطة
تعذيب
ارجاء
مظعون
تروي
حتما
مبسوط
يهل
موشر
فنية
دعاهم
الاعلامية
ضبة
نما
الاشهل
الحد،
##وامر
##ابته
يستمع
والشارح
وادارة
قضايه
بمشييته
كورة
الكار
نعمل
بالاجتهاد
سيناء
واحا
##ورج
##وبية،
زوجت
تاريخيا
امتدت
الجبلية
البروتينات
اخبارا
المستحاضة
بعثك
العرقية
##روسيا
اقرارا
تضاف
صلت
ابدال
لحمها
بعلة
الاقطار
فطلقها
الكلى
مولاة
والخارج
نفاه
اذنها
عيار
##صاح
##ساع
الحالتين
الراج
مكان،
##ايرين
نشره
الفيض
تسبق
كنية
الكي
استيعاب
اتاها
محور
مكونات
لاحكام
انكرت
حبر
فروض
لوجد
ومراده
الضرع
مدعي
الفيدرالية
والتصرف
حمدا
اللاحق
التسجيل
لعلة
شبرا
الوصال
والبخارى
صيحة
ووسط
فيمتنع
ليعبد
بمذهب
ثلاثة،
شانهم
فاكهة
السعة
فحذ
القصوى
قبضته
الاذنين
والسنن
كيان
العيال
الرضي
##وسين
حسبك
المضمضة
واكثرها
عنف
وايق
##ياضة
وعمرة
وفاقا
كلفة
احضار
وناب
قنوات
الطيار
الراشد
والدواب
بسببها
السنوي
كعب،
وتشير
ومحبة
بصور
معدي
ايش
للرد
مبطل
تسلسل
القابض
الكراهية
يقرع
##اسل
سترا
يرشد
التغل
واستثنى
اعتمده
ميش
##هال
الطرا
الزبد
ادخ
##ريقه
موكد
النسايية
تكنولوجيا
وثلثماية
حذافة
وافعاله
مناصب
القرام
يصرفه
يامركم
##كنز
ببطن
الملتقط
اعتمدت
##ونة،
مدحه
الجيش،
لامره
مدرس
مستعمل
رددت
التاويلات
الصواف
##لفى
وصلها
وثابت
اناسا
لشي
الصخر
والعباد
قرين
بالغين
يجتمعون
اسقطت
ميراثه
صامت
العنان
التطهير
استهلك
اختارت
وعمره
الكوفي،
والعدوان
ركعتين،
حارة
مبالغ
بالبعث
وميك
يشبع
والصبي
بشر،
منقطعا
بظهر
شينا
##شاشة
تغفر
سيره
حياتي
دورات
جديدة،
غوا
كوت
معظمهم
##تار
الحضرة
بمهر
التمكين
مجتمعات
الدورقي
لفض
الخالية
تاتيهم
ووجوه
خساير
الاشراك
وراجع
وارادة
تعرفه
البلدين
العباسية
السجل
احسانا
للاز
فعول
الاموال،
لاصلاح
فالانسان
للمدعي
المشهورين
استقرت
وتقديره
فسا
##حنة
العقيق
التعدد
##اءه
الشدايد
الفارق
##شارات
اقتضت
اعطني
الكاذبين
محظور
##خات
والامن
##حمت
الشاط
الرمادي
##ودوا
لعملية
جدل
مبط
##معهم
يتركه
تمويل
المكسي
دورها
الاصفهاني
فبات
##ضاره
##وديوم
حملوا
ننس
بنفسي
مقاما
الموالية
فلسطين،
تخفيفا
جمة
التوكيد
تسجد
غنايم
منحت
##بهن
تجعله
الوراثية
##فنا
##يداء
وصوم
كالاب
لتعلق
لكنا
يرتد
تفتقر
اشركوا
مال،
ثناوه
للاخت
حالته
ثانوية
فرايته
الصفي
فعلهم
والغرض
يزالون
##قايق
انخ
والاطفال
الوافي
الاجهاض
الرجس
رسلا
تلقت
يكذبون
الكات
فالز
علمته
بالطريق
##زيم
اصولها
المعسر
الواثق
لقصد
مهموز
مركبا
كواكب
##غوت
الوفا
وسلك
به؟
فتدبر
الشيخ،
والخطا
عيدا
المصلح
##هاة
اكدت
##يناها
##ناهي
بصنع
الخلفية
##زبان
وصحب
الانتظار
موقعها
توجهت
ويده
بالجد
الغان
توبي
رموز
المروي
وشهدت
ردة
##ذرية
جعلا
بالتالي
موليا
مجتهدا
جحيفة
اندي
متبا
يشرف
اعتقت
المقدرة
المقدس،
عاصم،
بضمتين
شارل
مستقرة
مناهج
اخفى
للمام
سيء
بالسماع
منعوا
ذريعة
شبكات
##يدهم
وترب
بمدة
بوقوع
ابدان
بلقب
روك
الابي
الطرد
##شتي
مستثنى
بالمصدر
الوضوء،
افريقيا،
المقامات
دعاني
##؟؟؟؟
##جلى
والقت
التكلف
الباطنية
بحالة
الاحتجاجات
تربي
ضروب
##ماتة
الحماني
حاض
##دعون
اللايق
الصالح،
ضال
اباد
متقدمة
فلوري
##ندب
الكفار،
واضط
بالطبع
طيبات
بدعوة
البكالوريوس
وراح
تنطق
راوي
فذكروا
القديم،
يعلن
غريم
##رجه
شاهدين
اخواني
معتبرا
تنام
صني
الدواد
بشعر
وفرنسا
وولا
امثل
فيه؛
وبهذه
كنايس
حجر،
الجليد
التكن
اخوات
##اهيل
لتر
تاليفه
رسلنا
سلاما
عبلة
والبه
العشق
الساجي
والتشديد
تحط
##وين،
التوس
ونون
##قر،
وشخص
بثبوت
حضارة
للخلق
الهييات
التراخي
لولد
##بيره
والفكر
رما
لباب
للولد
##طاول
المشرف
حسرة
تجدوا
احتجوا
المنكرات
ضاقت
اان
والوقف
والاوجه
فالث
يستغرق
حكمنا
حلفه
تحريمها
والتعبير
مسيول
زمام
##كاني
اليهن
كنوز
##مرد
فتر
نسايكم
ورعا
المزاج
سرقت
المرحوم
فرم
وسخر
اعور
المناوي
جزما
حليم
بدايات
مغرب
بفتحها
اكلة
اللغو
فوافق
اشتقاق
القصايد
موذ
نسبت
والنفقة
الانحراف
لجل
##اريف
اشجع
##رسالة
تحقيقه
الرحيل
تجرد
راغ
عشري
والاجارة
ثقيلة
الافتراض
فانطلقت
بصفته
انفص
قدام
حاجا
معيار
الفاجر
ابنتها
النسفي
المصطلحات
الصوري
وجامعة
تشجيع
فراسخ
شقه
##فله
المديون
بتهمة
##صاره
بالتش
##وطنات
لفوات
المختل
بالتحريم
جولة
##روحة
والمجاز
يحشر
للتاكيد
مرسوم
يفرح
الساحلية
كني
لتست
ويلحق
اقاويل
سوم
غدت
##وارح
التنازع
اخطاء
تنفس
باس،
واجماع
حسبنا
ظلام
لقتل
الشن
##حيق
الهمذاني
والمنكر
قين
##وجات
الانج
والعن
شكلا
لينا
الصن
والشك
فرقت
والنسيان
وتجعل
وطر
اساله
والمجد
كفاه
تلقاه
نسخه
العقا
الفتيا
حماد،
للمسافر
الكفن
والعفو
الابق
واعجب
المكونات
مهند
وشبهه
فحيث
##علب
وقفوا
مباركا
ومنصور
الاسم،
بدراسة
يفلح
الاحرف
ميزة
المقبوض
ازا
##سلي
##وافل
##باذ
اكرام
محبا
بالايات
برشلونة
ازاره
فارقت
مكرها
تبل
اولهم
##سمها
تسعا
ركنا
باموال
قبضت
المسيب،
وسبعماية،
الجغرافية
بالابتداء
فجعلها
الكرى
سهمه
بقراءتي
##صع
ماء،
ويسعى
التونسية
يقرون
غيرت
##ردل
حقك
المشا
منافاة
تير
شل
ظهري
ميسر
هايل
الطوفان
سلبه
وغنم
الصيدل
الفصيح
الاعل
عاين
يطيل
بناته
العنا
مسالك
##قل،
##ضعفين
الثالثة،
##صالات
ارساله
راعي
##ايقة
##داين
مصم
المنار
خاصية
هجرية
فوثب
##دية،
ابطا
بالخل
ويعيد
##ضا،
يدى
نسالك
محمية
موقعا
قطيعة
الزيادي
الاحلام
وطريقة
عصرنا
الجزيية
تزويجها
ازواجهن
فذبح
##جزة
رجعنا
قضاه
##من،
فاظهر
وزياد
غزاة
الفصاحة
الاصوليين
بالسوء
خصومة
دحية
شوق
لرييس
صلاته،
الفواكه
يكرر
والوسط
انتهوا
تخال
وغالب
يرفض
كهل
ويقف
المعطي
اللعن
بتاويل
المشركين،
عشير
وشكر
مدبرا
اغر
اسمك
مضطر
التغييرات
##تابة
تقصد
رفعها
امتد
مختصة
غط
يقبلها
وجامع
الاداري
تومنوا
فشد
ولقب
حصاة
وباي
تايمز
##يلها
ومعد
يسهم
سمحت
يعدو
والهمزة
الدرج
##كنها
اشراط
يسا
يلد
صلاتها
##الكم
بنين
لمص
وعلماء
تطير
التصغير
##زلهم
لقريش
والنشر
قضاوه
فولى
والطعام
وتبلغ
ونزع
##وانية
بشك
احتراز
##طارد
فلقيت
بالقد
وعندهم
المفاسد
ثقب
خضع
اسب
مالت
التشبه
مجتمعة
التكاثر
الكوك
##طيته
##غلبة
الجميع،
ووضعت
بالاحسان
الاحمق
تبيين
والغر
##بيكم
رجس
المشكاة
يمكننا
شاء،
الدعاء،
كفرح
والغسل
الحيوانية
حقوقهم
والطبري
اكملت
للبلدة
##البه
النعت
المدخول
مبينة
##كارى
تنافس
مخلصين
لفهم
توكيل
##مسة
##تبط
رجلي
تتمكن
لكني
والاخرين
سالك
اسقف
##سم،
وثوب
احرز
الحبال
الغريبة
يكلمه
شاءوا
بالانسان
امورهم
الطبيع
المستحب
خاتما
والوقوف
##كروس
الناشية
اهلاك
اشتدت
جده،
المحيض
يطعن
وتقر
يناله
الكثير،
تهدي
الرقابة
حمارا
شبابه
##هارة،
للعباد
بشرى
سليم،
عقلية
زرعة،
فتزوجها
الهنود
محذور
اطمان
كفالة
مزرعة
تناسب
المفسدة
بالسب
يتساء
يمنح
والصلح
##ناهما
العينة
وقايع
خطرا
##صيبة
مهرا
جنسا
##خالفته
كرز
ويصدق
الاجراء
الازمان
اعمالا
مذهبا
تمنح
والنعم
يعرفوا
فرارا
يزوجها
لارجو
ديز
قفاه
وياء
والصدق
يجه
المعمارية
بتركه
تاثي
ساكت
وغن
محذوف،
منقذ
متفر
حالي
طعمه
مجنونا
منير
##ولدة
البتر
لقبه
اذكروا
نازل
لدينه
السرج
اريك
هيا
##رازا
احرار
والسفر
صحية
الرهبان
الاسهم
وضعوا
التعجيل
الفلكية
شفيع
فندق
وتصدق
ينجو
والسكر
نبانا
حميد،
يوجر
دوق
سرك
والفل
النميري
الداري
قصته
شايعا
##كشاف
بالرم
فاهلك
المقيمين
الجمعيات
والارض،
والثلاثة
حباب
وبار
مستهل
الاتلاف
الايقاع
ريع
الدرك
متنه
فالمع
ملعون
بروتوكول
شحم
ملق
##قلا
الحصاد
والسلاح
توص
الفاصل
ضغ
الحان
وتض
المسار
##حاولة
##كييف
نير
بالهدى
املا
بطلانه
ووثقه
انفسخ
نبذ
بادية
وتجمع
سمات
ماذون
##ادق
##يتها،
##طلقة
يزكي
تسجي
تشرك
صحاح
##ريعته
للقوم
يجمعون
عورات
الزانية
انت،
واخوان
الصفراء
ربكما
يرتكب
يتعد
بالمدينة،
اعتقها
حيدر
##طرا
الذكاة
عدول
ويسمع
فيقبل
القشرة
والحركة
مامورا
وسنده
حديثي
بمقت
احتلت
عادتها
حبست
الحقيقة،
استطلاع
والبغضاء
هش
وترتيب
##از،
وشمالا
اغلظ
##خبين
##ين؛
نقضه
تفسيرها
لمساعدة
المعيار
انتخ
اثقال
تطمين
تمامه
لمواجهة
##ثلي
##افها
موقوفة
توال
نقر
##عايه
اقبض
خالفت
عيلان
وكث
ومنطقة
##صرية
تحضر
##صحف
ياتين
بنسب
الجسيمات
الرياسية
لانسان
تحال
##ذر،
الاثني
يابس
حابس
فشييا
ريف
ظنك
واحتمل
الخان
بيرا
المفوض
الابتلاء
طبعت
بالكتابة
##والديه
واتهم
الجبن
ليخ
##كتم
مستن
التنوير
وهدم
والقاف
البلاط
تين
اوقية
البلوى
يلزمهم
شرفا
المتم
بحركة
نجحت
يخصص
بالتم
قرنا
عهدهم
ارسلناك
التخريج
خامسا
##باكات
بارا
وشم
واجتناب
يعجبه
مقرر
##بار،
##عبية
البارزة
بياء
امهم
ومجلس
ومدح
ونبه
متكلما
والكبير
واشربوا
عجزه
السايلة
بزوج
##غيت
بالكر
سياسيا
على،
بالحب
جزية
المهدى
##وكو
وخي
الاعوام
##وغا
الانسحاب
القرافي
الجاهلين
اوما
كبشة
شهري
الغري
##تموها
حربي
الاحتفاظ
التجي
بالنهي
رجا
وتعقبه
بالقصر
فاعطى
خراسان،
اخطات
والدهر
بالحكمة
يخرجها
##وذة
الخزرجي
الحنيف
عينك
موضوعات
وعج
اعرب
النسيم
نصبت
صاروخ
للكل
ومرض
وفسره
صراحة
ضريبة
##وفها
تدم
##ييات
ولرب
الموض
بالترك
وعندنا
يعتبرون
السفاح
اعطاهم
للوز
وعما
المستويات
دخلا
مباشرة،
زح
##زويج
البني
يعينه
مسيرته
ومخرج
##سبين
يفوق
التعميم
طهارته
التحويل
الثروة
تسافر
واصول
موقعه
المجرور
باشياء
فذا
مهي
##طني
##ايها،
الغرام
تنج
ناطق
قرص
قيود
المرجية
فخير
كشاف
##صص
عمها
##جيكا
اكتفاء
تقلد
استطاعت
عوق
فيضرب
ابيهم
الخفية
الامال
يحفر
السموم
والفقر
والخدمات
قفا
دوره
لكا
والاض
اقضي
غشي
##تس
ايذن
بحرا
المواجهة
العميد
ناصح
يتجزا
التساوي
##ايق،
تعقب
اعوج
يستس
تشديد
نفاق
امتصاص
الاجتماعية،
الطايفي
جامعه
الشبكات
الاسراع
والحن
داعيا
بولاق
خبيرا
وسقوط
وجمل
هيبة
يحتمله
بالبحر
ويلز
التفات
مجموعه
زعمه
بعملية
التحقق
الفحول
##جيج
نشاة
الاردني
الشحنة
فيوخذ
بالخي
والمواد
المتبايع
جمعهم
نحت
انسب
وانكم
ويجلس
تتحول
خروجا
الترمذى
تذر
وامان
التملك
القطي
وسلم؟
وخلا
يعلمهم
المنقطع
مشاهير
##وح،
والطرق
طلقتم
خلة
##علك
##يما،
##جعه
وسعها
الداير
##يسون
يصط
حمزة،
##بيعه
الحاصلة
صمم
فايق
##كية،
##ابعه
داخلية
الذكر،
مخلوقا
بهمزة
التكلفة
الفلس
الخزانة
تسميتها
خفة
##يذه
##طري
لوحظ
اللعنة
وينسب
بغسل
مضادة
الصفدي
حبك
اموالا
العجمي
غفار
##جعا
القهر
يبخل
الاعتقال
رييسة
فراغه
زعماء
وتهذيب
اقعد
الحصون
طيران
الخريف
اعتقل
موقتا
يتجر
##وفوا
بغلة
التسع
محاكم
##غته
للقتل
وتعا
المستخرج
البشرى
مبتدع
امراتين
عوج
##شستر
فاشهد
وجهل
##اتيان
منسوبة
كحل
مثناة
عزا
عقيد
اكتشفت
ولماذا
المختصة
العبرية
اساطير
##وتون
ليلته
حذرا
جعدة
نرد
اخطب
نفسك،
الرجلان
##ريما
التزوج
وبدل
##باخ
عدالة
تكساس
القلعة،
تواصل
الامتثال
مصنفات
##رايم
الضباب
القدسي
تثنية
عميق
فبع
معونة
الاخوات
بجيش
فحبس
مزينة
سافرت
##غة،
البش
وانب
والشهداء
بلادنا
واشترى
ويهدي
##صرة،
وارجو
برده
مرتين،
للشباب
واصحابه،
تهلك
محتملة
والاجتهاد
##تنبوا
النقيض
شفا
##ثناة
عبارات
الانصراف
الرطوبة
كبيرا،
هيت
##احشة
وبالح
تخدم
شرور
ارسطو
الاكبر،
والباطن
المستشفيات
وتعني
الوجهان
ويعني
اسنانه
مديرا
الزبرقان
انذر
لامير
اخبرته
والخش
خلفية
صرفا
واجازه
تاركا
جلوسا
لحرب
ويتوجه
الوت
فقعد
مسته
يلج
مشتمل
فحملت
الاقا
وتحديد
عمره،
##بعيض
فتركه
موقتة
اعطاك
العرس
ماوها
المودي
حكمهم
والخمر
رووا
تعتقد
##هامه
معسر
المستد
عمله،
طريقته
ويقسم
تلقوا
اوكرانيا
اديم
شوكة
وتسليم
الاساءة
باشت
واعتقاد
شانك
الوسطى،
دج
سلي
ظبيان
مبادرة
اذاعة
والاصحاب
المعير
متوا
ادوار
نسيية
واظنه
##ودد
ومالي
ويتجه
ببساطة
يصيح
مضغة
للدكتور
الانفجار
عاتقه
بويع
تفي
الافع
وبس
حاله،
واستعمال
اساسيا
تمكنه
حيوانات
نموذ
الخرطوم
##فينة
العثمان
اوطان
##رويه
بانف
##نسوة
تخزين
عدمها
ببعضها
فالصحيح
دس
الموات
المريد
المرعى
مخيم
لفظي
مباحة
المريي
النطفة
ذبايح
منة
##امح
فنقل
بالعهد
بروح
لاجراء
التنافس
السياسيين
ليبين
وضيق
##درايية
القاهري
غيرة
الاجيال
طالوت
تيمور
الخوارزمي
يعرب
يتطهر
معاذا
ثروة
فغل
##لاتها
ومجموعة
الناف
لبعد
حسنة،
والتجارة
ولمسلم
ضربها
مسوولا
ليشمل
دهرا
شفت
##كنات
##منوا
السوط
وساد
وجلال
فترى
##رادى
التعريض
اخوانهم
وعملا
وضبطه
##ثلها
اوزار
ولاجل
حملك
##وضه
العذراء
ذاتي
##ذال
ماشية
المسلك
فتفرق
تفوت
وامكن
##فعلن
وكرم
ماخ
الشفع
واحدته
والشرف
المطعم
الشريعة،
المكسورة
تواتر
سقت
مضيق
نفسية
يستغني
الادوار
المواشي
واعتم
زمنية
لطايف
مقلوبه
عاجزا
مفهومه
فسمى
الملاحظ
الماكول
والقصاص
والمشي
والحس
غاص
منية
استيلاء
احدا،
المتد
حلها
الاتها
تعامل
نظمت
وغدا
واحفظ
للدار
خفيفا
الانتخابية
ذاق
اتل
الرافع
فسمعته
التذك
الزهرة
##دهد
ذكرك
الصليبية
لحاجته
خداش
##افاة
الاحباب
الشمسي
الجنايات
القراين
ودينه
بالعديد
حسي
للسايل
المارك
كلامه،
وضربه
راجعة
وحكمته
الكتاني
بمبلغ
الاكثار
الهجرة،
البصرية
ضن
كلكم
##ميراث
استص
الويل
رايتهم
ويعرض
ملازمة
تباعد
تلمسان
العاش
بالعب
##اتر
وسعت
الكندية
احال
قوموا
لسوء
بزعم
انفذ
يسقي
واتصل
ترمي
البغدادي،
يحص
وجهان،
الاعاجم
والزمان
الديانات
وماتت
توقفت
تسر
ريس
سارق
ولقي
الزرقي
احرى
##يامين
المجلات
وينه
الجانبية
طيء
الحوير
اخفاء
فاقطع
##لاميذ
ولزمه
باسباب
مدافع
بالتف
وليم
وبول
برون
وبدون
مسالتنا
دراج
مقول
الحسان
بالمل
الشد
المواريث
عواقب
عان
الحافر
##ديقا
يتقبل
المستر
محمولة
الكهنة
##صموا
غنمه
وسخ
وانشاء
الغشاء
اعترفت
تبق
حبها
جرحا
والحو
الزبيب
توثيق
ضروريا
الكتيبة
استحي
##قاظ
##بادية
للجهاد
عالمي
فقتلوه
لهيعة،
بضاعة
ضارب
يوه
فتصدق
تشغل
وظنوا
اصواتهم
ماهية
وقليل
فاولى
خالفوا
##يادية
المزار
يذهبون
خالي
ابراء
##اتك
الخث
وصوابه
باسكان
مطرد
فطاف
قرم
المظاهر
احتيج
رايتني
السايدة
ويقر
ولص
##حاضر
فسبحان
اسكتلندا
المشروعة
والرعايتين
صواريخ
كدر
##ضرم
وسرعة
البوي
يقذف
يعض
المجيء
علمك
وارثا
لكمال
مختارا
الاضاحي
لساير
والراجح
##مل،
والمرا
نسج
تقربوا
فعبر
فعله،
ولايات
محضة
القبر،
عهدة
لصد
##وشة
المراكب
وتقبل
اصنام
وحركة
اللوحة
##قراره
صغره
الصيا
نبى
رشدا
##ناقشة
الافتاء
##بورغ
الصالحي
القبلية
بالوضوء
القف
اليشك
فحج
عادتهم
اللحوم
المدلول
تزا
وقصة
اوك
اللحن
لتاكيد
والجيم
مفيدا
الطفولة
وزهير
##دى،
شيعة
المسلم،
مغر
مزية
الملايكة،
سمر
##روسية
اشبيلية
توضي
المجردة
الزرقاء
##يلي،
مسم
يكسب
المدع
فرضها
ساروا
ثوبي
اسمي
اداه
برود
بلى،
دالا
ضريح
ملاك
واضافة
بالور
اهبط
سعدان
حصان
القبلة،
والوتر
الانجاز
##عيها
تحديث
للشركة
استدعاء
القرء
الالي
والدتها
الشواهد
##نوت
##ريسي
الصنم
الزراعي
عنهن
##فاذ
تجريد
موجل
الخيول
اوربا
لفق
بالنسب
وانتفع
نبيذ
التطوير
وتتبع
اندلعت
التوتر
النفقات
الداني
وكعب
فاليوم
##صارهم
شهر،
حذفه
زاهر
لوقت
نتكلم
انقض
##راكم
فتج
##وذية
والامراء
رداءه
ماعز
الفجور
ويصف
بمجلس
افضل،
الفيلسوف
نفت
ادناه
##حاض
والاولاد
دمها
المحرم،
الجماعي
يرحمك
فحسب،
دانيال
فشر
المتلف
العقرب
نظريات
وللش
خاضع
كوز
##عاف
واحده
مشروط
##رابها
نحاس
وايتاء
اثلاثا
ياك
##رسه
مقرونا
اشتمال
##وثيق
وامراته
مضار
يبيعها
اتساع
رحب
زانية
التهم
اصم
تشركوا
يغادر
هاشم،
قحافة
وثانيهما
بزع
##باة
##ويان
يبن
طريقهم
المعتبرة
يحزنون
دبل
##يابه
وتوجيه
بطيب
جنابة
حقيقتها
معالج
##ازى
وفارس
جوامع
محفوظا
فيظهر
التشي
كالمن
اخره،
مقتضاه
والحي
التروية
اوصي
قدوة
تحصى
لنفي
كنان
ليص
والتقى
المستعمرات
الابلاغ
ساعدت
مقتض
والساب
اباها
يهجو
ترحم
يدعوا
##دامات
فرضية
هاربا
دوران
القتل،
استعملت
انبيايهم
ماجور
التايب
ومعمر
مساويا
نافذة
الكماة
ودور
نصبا
عبيده
يقلد
وحملت
الامتحان
اطلعت
الاعصار
بالقاف
حذو
عذرة
الموجات
ينتظرون
وخت
يشرح
رافعا
بمشيية
حرمان
وربع
الفلاحين
عاك
الموز
اللصوص
عادي
ديانة
ثانيها
##السيوم
خاقان
##خارف
الماع
القيت
متعين
رايي
تفصيلا
واسباب
اسي
وجنا
وسلم؛
قربت
فاحش
##سلخ
وليسوا
جزع
ارضهم
خاطر
تكرير
باجر
سلبية
والوص
##وسي،
المايتين
فكشف
وردان
الداخلة
السعودية،
##وطنين
استمع
##ثر،
تنمو
يضبط
الفرص
عطش
بركعة
##ففة
التحريف
الريش
ويستثنى
وامير
الغرب،
لتنفيذ
##خنة
الرمال
سعيدا
اطلاع
احتجم
مهلا
التحقيقات
استاذا
نحب
##التي
اجتماعي
فتف
ادبار
عفير
اعجم
مخنف
حارس
الاخص
نفسي،
يستاجر
طهورا
ابرزها
استاذه
للقلب
يعن
والاخرة،
الخشبة
مبتدا،
اللحظ
يبع
##طاير
وخاص
المحلة
والصغير
عمت
يعدون
تعريض
الطح
##قلد
والعرف
يغفل
السنوية
##نزيه
مده
مرم
فانف
استند
ونال
دارهم
يتقيد
محذورة
لايج
الشريط
وتوقف
والميسر
اكلا
وصيا
قومها
تهتم
##داخلة
ضلالا
صابر
قصا
والايام
ادركته
والكلب
الاودية
##يلندا
التحمل
وقس
والمقام
الاميرة
وضويه
واحوال
عضوية
اللجوء
هندسة
وانهما
ومابعد
حديثها
يستحل
اعتقال
سايلا
بقدرة
المستمرة
محمودا
موتي
المعاصرين
المندوب
اينا
تمه
ومقد
تتفق
ودعاء
تحديدا
كنع
محمل
الاكرم
##ابية
##فسكي
يتخير
الاحصاء
الشرطية
الممتدة
##طره
##عايا
بدعاء
انكسر
##راخ
ونفى
بلبن
وخلاف
المستوعب
الاخرين،
نورث
تاثيرات
##جي،
وتفر
تنق
نزه
قرارا
اغير
انفصال
الجولة
فاحر
##جددة
النسوية
بالموصل
كفيل
كافرين
مقاعد
##عيذ
تنصب
العلوم،
ثوبين
الاورام
الاستغناء
امراتك
لفساد
والانبياء
لمذهب
يضاعف
الغلمان
وحكمة
وابان
والتنا
نعيم،
قبيحا
فاصبحوا
نيكولا
تلميذه
شجع
##ضحت
تعقد
##قدمين
عميس
تخطيط
نزولها
وبالعكس
سابور
الشرقية،
يكتسب
البخار
##موك
لاقى
وسعه
الايام،
العداء
الخبراء
ويخت
##هلال
متزايد
فالمت
لتعليم
العباد،
البيزنطية
الكفين
اعود
##كان،
ليله
اكثم
رايد
احتل
وجودا
برقوق
سواه،
##عداوة
##ضارة
امشي
سلول
عبثا
عطفه
احتمالية
نفذت
الشطرنج
رفق
مفاعل
هاري
القهوة
للنف
اتيتم
بالنصر
عليكم،
التابوت
ورفعه
بالضمان
وثمود
ينفصل
للمشاركة
قبالة
الادغام
الارباح
تالله
ناسخ
رهب
لزيارة
القوق
للطب
تعادل
وفاق
الداودي
المصرى
المملوكة
لذات
نل
الجدة
المحارب
اسرته
المعادلة
قراءتها
المحاملي
الخاسرين
مايل
محلي
ترسل
المرتفعة
وواحدة
باطراف
فنهى
جونسون
##طفا
يتيسر
البييي
تمضي
بيوتا
اعجمي
اوساط
وبينا
القاعد
لوف
الممات
المفلحون
واحق
فالحاصل
##حوها
لقمة
مخد
فاعاد
لاحدى
مكل
الحقد
حيضا
ورخص
قصرا
طبخ
المرتضى
يفترون
الاكتشاف
فداك
البضاعة
كالذين
اثمان
الخصيب
المامومين
اجرها
السامية
فيبطل
ويفهم
الغنوي
يصحب
يطاها
يبادر
بالحمد
الدرب
ولقا
واللحم
##شوش
والغم
بعضهما
بقيام
فاستقبل
عبادة،
جزيي
موكله
كوين
السالم
فقصد
بمرا
اقروا
ويقصد
تثير
الاقطاع
للبي
عداد
صحيحة،
##يمامة
صنعوا
اطباء
يورو
اسبق
محركات
سلخ
الاعطاء
محرم،
متفقون
اقد
بلت
##ته؛
للسر
##مانيا
يومهم
مشا
طالق،
باردة
جنايته
الرموز
فيذكر
الشراح
الجدران
بهجة
بانا
ملكوت
استحقاقه
برع
حنا
##افح
يعكس
والعافية
العلمانية
النجف
الشماخ
احساس
التدليس
التفاصيل
اضطرب
بالاقرار
للمرتهن
بخص
حريق
وقي
##صدع
ضربات
##سكرات
والرياض
باحث
جاع
##ظايف
النسا
وتختلف
بالحقيقة
كتايب
متعديا
مواضعه
الغنية
وضمان
قسطنطين
العشب
حيوانا
خيمة
عجي
كمه
##حط
الفلق
الثمرات
##وهة
بقايه
حقبة
بكاس
والدخول
بشرطه
حلوا
ضربان
تعبدوا
اتيناهم
الايتان
وبقى
اتيا
تماما،
والمنافقين
للمعنى
غان
##ذفه
بهولاء
وسلمة
احتياج
لنقص
اعتاد
اقامتها
المبتدعة
غيرنا
ونقض
فليات
##كتبة
ستار
واصبر
يعتذر
##كيهم
حسنها
ووحد
نبيك
كردي
سهولة
غلمان
فريدة
مهدى
هواك
##طاي
##واره
للبيان
الميت،
نكاحا
حظي
النخبة
الصاروخ
الانضمام
المتطوع
عدوك
نصرا
المباركة
للمساعدة
والزوجة
العروق
ولبن
عمرك
عامرة
للاه
اقترب
ومروان
انصرفوا
وحقق
الحوايج
وخلص
العيس
الذر
الاستعاذة
##يكو
الاختبارات
المطبوع
معاهد
يجزم
مجاشع
##نبوا
خطير
الزهرى
البروتستانتية
الوراثة
اتدري
الافلاك
حاصلة
الاعتصام
تقديمها
معرضون
يلعبون
غسلها
الثنايي
ناح
الجواري
تصلى
والمعاني
زواله
المغيرة،
سارت
قاع
نثر
والقطع
وتما
##ساكره
اعتاق
عطس
الزر
ملكه،
مرفوعة
البولندي
تودى
بالشيخ
اقواله
##غلت
##ابض
يسود
دوني
باسنا
امامنا
سعاد
والثقافية
العصيان
صرد
يها
##ذله
المكون
واياه
ماخذ
التيه
احسانه
بشارة
سيي
التقاء
الدمشقي،
بقتال
ويمن
يشته
ناكل
المقذوف
برجله
مجلز
اروى
طايف
وويل
الموقت
فلقي
احلى
تنفق
##ساها
عميد
لتعزيز
انشاها
##اليه
الاخنس
المدافع
لسنا
معتمدا
مزيج
سويسرا
غلامه
##وامع
##روفا
لتحرير
والصحابة
بالعفو
معدوم
##بيله
الطرس
المعنية
محضا
افادت
وقاد
##مامته
الدينية،
تحلف
عقوب
يضربون
قياسه
وقاموا
تخصيصه
معطوفا
الهولندية
مملكته
يضح
بينات
مونث
السوفييت
لنت
##عقاد
الرفض
الحميم
الزركلي
##فورد
العون
والتنمية
تقوله
واستخدم
الدمياطي
جدير
يثبتون
المهملة،
والمرض
فارسلت
سهمان
وتجوز
المتظاهرين
وتميز
بصحته
يضحي
الاحكام،
مجردة
سمو
الكسندر
##جبين
مشاة
البرز
فاروق
خلو
بالامور
والحرية
كورت
استلم
المتخصصة
##قاما
والحجاز
الاقلام
موتا
الشمالية،
يوتي
السمر
الصها
ويكت
بالعرف
سالوه
مراكب
##يليا
فيهما،
الزيدية
المستقل
حصى
رييسيا
حبيب،
ثنى
##غره
المغضوب
اعتكف
كلمت
يبل
البر،
وتركها
عهدي
اعمدة
الارقم
غور
بالقرية
النوم،
الخيل،
وعمران
غزية
الميكر
عزيزا
قصف
واستب
لقرب
ياتيها
تقييده
وافى
استبعاد
العمران
وراوا
عتقها
للناس،
التبليغ
منفردة
حقة
وضر
المخر
واتي
وايمة
امض
بعق
المصطلق
باسرها
الاحسن
خرجا
لمنظمة
فاردت
التنزيه
اهاب
وولاه
##مص
الكاش
##راد،
موري
وعلمت
يحرص
المات
وكاس
اقض
لقى
بالاشتراك
لاتفاق
قابلا
مسبقا
##شوست
##يني،
##وارج
بلح
وليكن
المحاصيل
بالاث
يرثي
الرسول،
بالري
ولغيره
اعي
استويا
يصنف
يرونه
منعهم
النعاس
سباع
لجب
لافضل
بالصدقة
الفال
فقدمت
التحكيم
الشرط،
خصوصية
الامثل
اختيارا
باسانيد
يشتبه
المحتوى
ناجي
الرفاعي
التذكرة
متب
وحصول
فماتت
احرق
ظهار
يتر
ليقوم
كلهن
معدودة
الثمن،
مضاعفة
##خانية
اسري
##رفها
##رقون
واستقبل
جعلوه
كرمان
والاحوال
##ملها
والتوبة
اللقيط
##رارها
##وطنة
وعلة
فاستاذن
لحمل
الذاهب
وجماع
المسن
##جدية
تملي
اعتدى
امنتم
الاقراء
المولفات
المدينى
هاجم
خنزير
واليس
للرحمن
متطلبات
اراني
يحرق
بالتب
##درالية
انتجت
باسلامه
لقوا
المدرب
والرسل
جملا
لاخراج
نعد
ابرد
العث
التاثيرات
الجيران
والنص
والصرف
مضاربة
يليها
حلمت
طوافه
مسيحية
بجا
ومكث
المتخصص
سلطات
وغز
حشر
تعق
##يتني
بخارى
عزمت
وطني
بقدرته
وجاه
المنون
يستمعون
الكتف
باثنتين
فتحا
الخطوب
صادف
والتكبير
اديت
بصدقة
##يجة
المخصصة
الخطيية
والعز
يلونهم
دعوتهم
مفتوحا
لرواية
وعملت
فاعتق
بالولد
المصح
الاف،
وبرع
القرد
للرييس
الثل
الهتهم
##صفية
المشرفة
يبرح
ازدياد
مجردا
اديبا
الموضوعة
السندي
بكا
##ه؛
واوج
##حمي
استوت
المستدل
الانصارية
تتبعوا
والشا
عودا
ويمين
وايدي
الفتيان
وسهم
الخب
فتخرج
وحوالي
ورثه
لكم،
يعدم
تمرد
بقلة
##قاع
لاكت
لتوفير
اعتد
وينتهي
وسنذكر
الثنايية
كيوم
القاها
همته
نزعه
شاهده
يلقون
جيف
الهالك
قبري
##وصوف
اقتدى
خبرها
حاجز
تطليقة
الضمة
والقرى
والكفارة
للسلام
سبحانه،
النباتية
منحة
وقولي
للاغ
والسيف
العاملي
العملي
اردتم
قسمه
حى
بتغيير
فليتبوا
ضمنت
حريز
تعبيره
للفنون
##ميله
##رتان
بخيل
والكفار
سمير
ردود
لغيرها
الموقتة
سكران
ابسط
استانف
المعاش
##شتم
المستشر
سنجر
والهوى
الخصوصية
بفل
السرط
الغرم
اتلفه
بمضي
ذاكرا
الدس
فليل
تاخرت
احكامها
نهاه
وباسناده
الاندية
متصرف
مستغ
الضياع
الانتداب
فخالف
السفير
جرجان
العاج
بمجموع
وواجب
متقاربة
القهار
والعشر
ميلان
بعلبك
المستخدمين
قواد
بالعل
اودية
السرد
وجدي
فالاس
مستل
لحزب
واجبات
فحذفت
##ضمان
والده،
الصدمة
كفة
الدف
فاصلح
الغازي
والاجل
وشركة
كذابا
لبنى
التفسير،
نضلة
امبراطورية
##جله
يقا
وتجاوز
المجروح
بنتا
فدعاه
وكا
استماع
متخصصة
ودعوا
الاعتذار
الدهون
لقطة
وانكار
مسخ
داخله
المحطة
برحمة
واخلاص
ريبة
وتضمن
اسفا
وعطف
باظهار
##وليكي
باربعين
القسمين
بوصفه
اهلكنا
والموسسات
لوارث
التحدث
الاسقع
##قلبة
وحماية
للاكل
الارضين
مصغر
بشاة
تشق
المبنية
فالاست
يهدم
الانطاكي
الكفارات
الماس
والزاي
الترمذي،
سينما
فيشترط
الحويرث
زوايد
ليلي
##انج
عنزة
العلايي
وسجود
فقرات
وتلف
افات
باقت
الثقفى
وحاول
جزيية
الانقياد
##شندي
بالصف
##جزاء
والزهد
ومسالة
فلبس
وقذف
اسره
التشريح
والطواف
يمنعك
بامان
الاشياء،
يلتقي
ببدر
##شمي
فيمنع
بالراء
الرفي
المسروق
لتقدم
قرنه
والمنسوخ
واضطراب
انيسة
##غناط
##اميم
المتعارف
فالبيع
تتاثر
عمته
ويلبس
المهيمن
الاصدقاء
معلى
الخوض
باعداد
فعليها
##وار،
سلفا
التغليظ
فنزلوا
وكرمه
غروبها
##بايية
الرضع
وصولا
راضيا
بالنيات
يعقوب،
##ذلان
ياتى
قرىء
مكروهة
وانفس
ادايها
يضطر
حاجتي
عجزت
بالواجب
مهل
##عني
وانثى
وعمه
اللطف
يسقى
افل
الجلسة
استحسان
زعمتم
وضوح
حقا،
سعيه
للجدل
موهب
علمني
واللق
اعاده
العاص،
هاجروا
لنه
المعمول
##جعلها
الدستوايي
المناسبات
والضعف
##انيك
##طنها
للحركة
القدوري
امتلا
ويستعمل
بروك
والمشركين
ثيابا
عاتكة
الزعفران
فبادر
ايفان
وتوكل
##بت،
متغير
##قصا
تبصر
##واعق
##وبيته
وتنظيم
اخلص
باضمار
##باري
وسرعان
يموتون
##برها
يتلف
بجواب
واخوته
عادات
فسبح
لروسيا
فيضع
بابك
يستخلف
وغض
والزع
الحليب
النادرة
عاجل
قرارات
يقابله
شابه
امست
الحاكم،
ذكاء
ايديهما
لخوف
لامتناع
متقدما
مرع
##حل،
احتفظ
التركم
ويعتمد
وسقطت
شراحيل
والكم
اسنده
المسكن
##يكس
احترازا
شربها
الفرس،
المرسوم
يفعلها
والدا
وجه،
##سمين
##قاطع
المصانع
##ضمين
صدرك
البنفس
يلبسه
التوقيت
كوفى
الحديثة،
افاء
مستخد
بالكثير
الصالحون
السلفية
خروجها
اللمس
##زيا
الدية،
يحضره
الضح
المقدور
جدران
رست
هكت
##علت
لانس
واجرى
طهران
دوس
##لازل
مهين
استبراء
السادات
ساقها
الحلب
فمنعه
ارضها
خيط
يبتغون
النظير
بساير
قوص
الحارة
الباين
خلقناكم
فضول
الاقوام
##ونسو
جنوده
تعلقه
##جموعات
كذاك
فضربت
مغول
وبالاس
والنسبة
الاسناد،
الموجة
اليمين،
ووصلت
يعجبني
مفص
مبعوث
##نبه
##روسة
ومنكم
##لبها
فترد
الاقرع
غنما
عريضة
واضل
القولان
الشعثاء
الاقتراح
صوتها
فطال
الامير،
والعلاج
الضيافة
##ناعات
يمنعون
العجيب
ليحصل
خبزا
تمل
بالتسليم
تميزت
بمقبرة
كلت
الحطيية
والعام
المسوولية
ينعزل
لخل
والفاعل
اسطول
محاكمة
فوصف
واليها
ويتل
ومقام
اليور
اكلم
وعلل
المخالفين
المحسوس
غزل
وعقب
مثلثة
وارحم
واقوى
خيلا
النزع
الدرة
اساءة
##انيق
يمض
##وتهن
الشاميين
وعادت
فاقبلت
##عوبة
##نباط
##كينة
بالفي
موصوفة
بالتصغير
تراس
سيادة
##جلا
الشىء
يعهد
يعنيه
النازل
وطاعته
الوليمة
رفعا
تهوى
رياضة
اوجبت
لثلاثة
هدر
البقل
وابيه
عقدها
ماوى
وتلقى
الطمانينة
##دايه
اتخذه
##كاما
السياحية
الاقليات
الهجاء
لبيع
##ابقات
##ودته
وكلت
تعاد
وعلو
والارشاد
المطي
وعقل
بعضهم،
والقرب
اعطاني
الصغير،
فيحلف
التراجم
شوقا
انجل
العشاير
##وبرا
تحبس
بشع
##حلوا
ونايب
خوفه
المحاربين
تشر
عقي
عراقي
المنة
يكونان
##فتر
##عب،
حمية
البصيرة
والزرع
عظيما،
الغرباء
قصاصا
بورك
المذب
موحد
يستحي
الراح
تراها
عذره
انصر
مايدة
الخيرة
وعشرا
يشغله
بسقوط
استاجره
زدت
##وننا
التيسير
المساجد،
تدعوا
مقامات
خاتمه
التبيين
تشكرون
النجاسات
اثبتوا
خطبنا
الزمنية
عوام
##غز
وقوته
الفترة،
##ريكه
##وط،
خور
ندى
##كاملة
اوامره
للشك
تفا
بنصر
التقاط
التواريخ
وثياب
##قالا
ينهض
انواعا
سنام
الميسر
ولاي
المتحرك
برزت
الامامي
الثلثان
يصنعون
##كته
اضحية
##سابهم
مواضعها
الدواوين
ثي
فعا
الراد
المته
حلوان
واحترز
وتاخذ
وراسه
معرضا
شييان
بالجهاد
فسخه
اهواءهم
اوري
الاسكت
ليقتل
مجرم
لكنت
اطلقوا
لضرب
وذل
والفا
الجذا
فاسر
الناصح
متميزة
فكنا
برسم
العنزي
فيء
بشق
المعتادة
جنسها
التالي،
قرد
الحسبة
##حملها
يعيب
التسهيل
الاسراف
وبرا
فضح
##سهيل
مظلوما
التسل
الرباب
الناطقة
وصب
والاثبات
اوليايه
الثعلب
خايفا
لاظهار
لعطاء
يلبي
المناظر
قومنا
عينيك
الحاجة،
المكونة
التحرز
وبغض
دينها
الابعد
المجلس،
تخرجه
لصاحبها
مزدلفة
##وفيتش
بليغ
الاباط
##حدار
وسماع
الكول
وعزم
حملات
##باتها
ذاكرة
فوجدوا
حذاء
عيادة
واليقين
اخبرنى
انتباه
بحري
الشهر،
بذبح
شاهدان
خذها
مرجح
##ثمة
##ثورة
##مج
الحشا
مثلت
اختبارات
والصيد
وخرجه
تاويلان
شيكاغو
تلفظ
موفق
اصالة
الغمر
اهوى
بالدراهم
السامري
##وسيا
الاملاء
##زاين
الشعار
شغلت
لامتي
ومكر
واتخاذ
نوعها
##سابا
العهدة
الفشل
المخاض
الرباعي
يمانية
الحقل
اجتناب
وحرك
اللع
المنفي
بقلعة
وعرضها
النفايات
عهود
##منها
سمعة
فعلان
الركاز
##حيان،
##اسر
##عارات
لقياس
بالحال
انفسها
مختصا
والجمعة
اتباعهم
الزمن،
والعلة
لتنظيم
دعواهم
الضالة
يشترى
فصعد
تضعيف
بفساد
ساجد
يفرد
البغل
يترجح
ومراد
والمحرر
لقبول
وعلوم
بالرواية
يكتم
افتتحت
تحس
والقانون
##كسرت
هجرته
والسادس
طفيل
##انه،
وسلموا
بعدت
تمد
تتلى
والجرح
حلفاء
العصاة
المنزلية
باصحابه
ضالة
مندة
الميناء
##لكية
التتر
متوجها
وشرك
الحكوم
##قبلها
فاشتد
ذنوبكم
مستعمرة
المتبقية
##يلاد
الايادي
برقة
الحكومي
ذبحها
لبنان،
عراة
عرفته
فاستغفر
وراءها
تعاطي
تبحث
##ينين
للعام
اعالي
بتاخير
وقعوا
وحديثا
مشكلات
ذهن
صبرة
المومل
وعمارة
جهرا
الدعوة،
تمارس
حثمة
بالوصف
يراعى
الرخاء
الفجار
##كانه
المتون
مقرن
بتوق
الظبي
الاليم
المقرىء
الخزاز
تلفزي
الاغتصاب
تختار
شتاء
المفاوضات
مدرسا
السيرافي
تفعله
##صمة
مايه
تعويض
الامراء،
وكتابه
الجعدي
حركتها
الزوج،
قبلهما
##نفس
واراه
وابطال
تراكم
الفاسقين
اعتبارها
اخلاقه
احتياجات
دقيقا
كند
السداد
اكتسبت
ينتسب
الاقتراع
استعان
يحملها
نوب
##زعت
الاساطير
يلجا
غلبه
مشييته
انطلاق
واعتقد
الجدال
وتدخل
عاجلا
روج
والكمال
الحسي
النامية
##احته
وذوي
الحرم،
مواليه
الخارجة
تدرون
انجز
اصطفى
تحذير
عزاه
رويدا
واخرها
ازواجهم
يوتيه
بستة
لتبين
مارب
وبرة
##موس
وبفتح
للموكل
المتنوعة
لمعاوية
جاهلي
اليربوع
##ضطرار
تجيب
للعقل
اقتص
المضروب
جايز،
ونظاير
##وقراطية
ثيبا
المحمل
والعدد
الغيم
متمت
انتشارا
بالامام
قاتلهم
فيلي
اعيا
##ويري
وثلاثماية،
ونهيه
بفلان
##ربته
ونفذ
##شاها
الشاطي
ضيقا
فحمله
النديم
فتصح
بتخ
بنار
بالخص
الفحشاء
وتاخر
يتحلل
##قلان
متميز
باذان
والصبح
بغيا
زيادات
انقراض
معقدة
للحمل
للاقت
تفويض
للعقد
يلقاه
البطالة
عني،
السطر
السراب
##عماله
تركوه
فرقوا
والاعتبار
بالفضة
الوظيفية
##اقي
##وريس
يقترن
السينمايي
قدمي
طريقان
تعرضوا
هاتان
اصيبت
اليشكري
##ست،
الكاذبة
اسوار
ليزيد
##سبير
باعيان
والاداب
المعدات
يعطون
القلاع
فقص
بتصرف
لحقت
الاقوى
فاستح
الارواء
قابوس
المفارقة
##كم؟
احدثه
تفكر
مطاب
الركبة
بالخلق
فالمش
يشبهه
##وليت
ابنية
جزاك
لبشر
قدمته
مرضية
تقدما
حمران
ماذونا
كاح
##راك،
ويخبر
##وفاك
نسمة،
تنظم
واسته
ورجعت
ورجحه
الوعاء
المهارات
المعصوم
يميني
يغن
خلوة
الملحق
مفاهيم
نين
##يلو
البطين
تستند
التنور
مشتر
شغله
يقصده
اضيفت
##سامة
##ينز
الخاطر
وجنة
حدايق
تنف
والسياسة
راغب
يفنى
كتبوا
منزلي
ادايه
المرابحة
صوفي
عصي
فيسلم
القداح
##ايتهم
##والم
فجميع
تخير
رشدين
يبعثون
تسيطر
ويلاحظ
واتاه
خلفي
المحتال
المحدودة
ببي
وقدرة
ونحوها،
صلينا
يضرهم
الانش
اتصف
##طففين
تهت
النتاج
ورايته
ممارس
شعرت
وذكرها
بصريح
الافراط
وظلت
الجنس،
يقدمون
تحسبن
ولزوم
لعباد
العلمية،
والنوع
اطرافه
المعتدل
##شال
والاناث
##روهن
مسام
الهوايية
الهبوط
##يع،
المناظرة
خارجه
مبال
الاقران
##ارهم
استرق
مثلكم
المتواتر
مكانه،
الاسترالية
##راتيجي
الفان
وتمسك
والمستوعب
وينا
الصر
وتجد
واسامة
اثباتها
السحور
مستعملا
تايب
##لن
##سابه
وقواعد
ويصرف
بحضرته
تدركه
والخنزير
وطاف
وفعلا
معنيين
الدروع
تعكس
يعطف
ذكري
اصدقاء
مخاطبة
تشكلت
##حلال
الموجهة
ومول
ونفع
##حاك،
اقرض
يسرا
ورغب
بطاعته
انكشف
بزوال
طغي
فرجة
العف
الاسكن
والشين
##راق،
الحملات
##وازية
اقرانه
حضروا
وارادته
وتاثير
للناظر
مشغول
طرس
وولاية
##دوز
بنع
##ديش
الجمع،
راته
بالشي
وشغل
راهم
القياسي
بوابة
الفسطاط
تسببت
##ثات
سنقر
خطابه
التحصيل
تاكلون
المبالغ
والرح
وابر
ينجح
يستجاب
الموجل
##لاطون
لومة
الدما
للقل
##كانها
فتوفي
انتق
تزد
يمنعها
القطان،
مريدا
المفرط
جيو
زاهدا
شقيقه
##طاس
الحاسب
لاعمال
الدمام
للدم
وتذهب
نجده
تاخيرها
انذا
وسلامة
لقلت
المزمل
صرفها
بالقاهرة،
سفيه
##ريجي
ماضي
التقت
ويض
المزدلفة
تان
غلاف
هادوا
##ذوق
بادنى
وصدقه
سنتي
والثمن
بالجهل
الحلقات
ببير
زكي
قعدت
وثبوت
الولد،
التصريف
يظهرون
مقصورا
الاستسلام
بزيارة
يراس
##خية
اوز
الجيدة
ونفسه
والتخفيف
المستحيل
الاعياد
وعدت
اللييم
عظمته
فانظروا
لمصدر
تملا
انسحاب
مقدرا
غنا
غرين
نالت
لاعلم
التضحية
بالوجوب
التغلبي
والشرق
##يلته
بالقدرة
الواصل
همذان
لحج
فيينا
##راوية
تعس
وبغ
وفص
والفايق
فيتعين
حمامة
موجه
نقيب
نجاة
##اطة
وانفرد
عدله
فعلتم
فرعية
الجمهور،
سدرة
اضافته
الليبرالية
للمصنف
##ودت
بعبارة
بقوا
الاعمار
##صاها
مقابله
##صبه
وعضو
##قاعد
امارات
##خرط
بالنقل
خلقي
صلبة
ملاء
يلف
##سيد
بتاسيس
الاجناد
ارها
##اثا
التحدي
جنسية
اللقاح
تقريرا
كيلومترا
تاييد
واتخذوا
كنى
خيرها
وادراك
المقتر
السرايا
شيم
مسطح
اصطف
لوحات
بالمشي
محمولا
انطلقوا
والشعراء
انواعه
بطانة
النبل
ومنك
تتواجد
قتلة
بالاكل
يسمونها
الاهوازي
المقصودة
القمة
كليات
ولد،
بغا
بالسوية
درر
وحاشية
بقدره
دلف
##سلا
واديا
قارن
بمناسبة
المناهج
واكم
الجموع
اخيه،
الذوق
يعزر
اتح
رجحه
زوجات
يسبحون
فباعه
يريب
وبمن
الظه
تخشى
تسلط
الظهيرية
مراه
##بوس
##حموا
الصوديوم
ويصلح
المتك
وثاب
تاويلا
ارواحهم
بالحمل
المعالج
عبق
الظاء
يغزو
رمزا
الموصل،
الكاري
الثنية
وبانه
الموخر
اربابا
تطعم
وتحول
واثنان
بكمال
##شقاق
المفسدين
الدوران
يوزن
##شفه
الفروق
ياوي
والاكت
مطاع
نتبع
المختارة
للاتباع
عاقلته
سويا
مذكرة
##ظمت
لمصر
ولده،
المسموع
بدلها
بحار
يبدي
##هوات
للولي
##زيمات
نسق
للار
اختير
والثمار
جذعة
ازدادت
وطبقات
تحصيله
الاذهان
النادر
فتارة
فتحه
لتحقق
بهذا،
##وارثه
عصم
وهكذا،
التضعيف
للتي
فلا،
والاثم
بدراهم
محنة
امامك
القياسية
المصيصي
انام
السهر
ومقر
موكل
والاستدلال
وذهاب
يشهدوا
خو
فيجد
ادوية
باينة
عدالته
يضرك
ودخلوا
وازداد
الفاحش
القرامطة
تفيض
##فارد
مستحبة
وعقبة
##وافر
بالمه
الرملة
الاسلم
اكفر
الالياف
تفريع
الاطلاق،
مادام
الاسقف
الويب
احلت
وخيار
الافهام
الريان
مزاج
تعترف
المبهم
الجسم،
الغزوة
جوده
فيصبح
##قطعة
المحنة
برية
اموالنا
زاير
الاواني
العنت
وجحد
الناقل
يدريك
وحسين
عديدة،
عبور
يبقي
والخاص
قصيرا
انقسام
مومنون
الرازي،
لاجلها
جونز
برهن
السوفييتي
خادما
فروي
##صلب
الاناض
لحكمة
جهده
البدنة
الفلسطين
ومسلم،
يفتر
ووادي
المقاطعات
ريق
ثمرات
فتنت
الام،
تخطي
نظروا
الفلسفية
فوالذي
هرمون
والثلاثين
عصفور
##جعة
الرطبة
بساتين
قدرنا
كونهما
البيزنطي
تكذبان
جثة
##وريد
##لهن
فاحتمل
المعبر
ليط
السجلات
لكونهم
اسبابه
وبخلاف
زحف
يتفاوت
والاختيار
محام
مكش
فعلمت
##قعة
واطال
##ديح
فعلية
وكلوا
امتار
الاكتياب
تغييرات
الايلي
الرفيع
المتكبر
البرون
حرجا
فريدريك
دحيم
اجنحة
ليقولن
صغارا
قنت
والوث
بالنع
##اتون
الفيت
##ربيا
وجزاء
##رضوا
للمنت
وخسر
والسما
يغلق
حسبت
وصفات
الجنايية
ماركس
والمناطق
المساعدات
##بوب
الاكمل
واصد
الترفيه
ويبت
يتواجد
اتدرون
يبصرون
منتف
الذهب،
لاتحاد
باصبعه
القراات
ظفرت
موثرا
يفقهون
ابرهة
بوف
ومواضع
محك
قليل،
مصانع
تقدمها
عاصيا
العبور
رحلات
خياره
مظفر
الاحيان،
بنقص
ليوسف
ادق
##طلبة
نسيج
لنشر
الهامش
اخبارهم
استحالة
صلاحها
اندفع
افعالهم
ودعوة
##الحة
المورث
العبادي
البساتين
للنهي
##وجين
الشييين
جلالة
الاسمية
الباطل،
الرضوان
##زمان
##ونته
واغفر
مايتا
وتوزيع
فاجلس
الهوا
فالاص
يستب
تميمة
الضال
وشروط
المذكورة،
افتقر
وتنفيذ
يكتفى
##سية،
الموه
العذري
الجفاف
##واتف
مستو
مساو
والواحد
الاستهزاء
التخصصات
جذا
شيا
طابت
طباع
القيء
وتلق
الاسقاط
وكانما
ودام
والامانة
بالدار
توكلت
هتك
ماضيا
ومجاز
وحط
يصفون
ارضية
تراني
والتدبير
هضبة
ضيعة
البليغ
قدرات
يحث
##طارا
بشهوة
بطونهم
والدولة
ارضي
الحالات،
سكنية
ضيقة
كاق
انابيب
الشفا
اعياد
اقناع
فالوجه
بتعيين
انفجار
يخالط
للواحد
كفيلا
اعتكافه
الفوضى
##ايبين
ويسب
احدهما،
الشاعر،
اختصاصه
اضافي
موته،
زوجين
سماحة
غريمه
##راتيجيات
وقاتلوا
ابواه
الحت
الفصيل
وانفق
للوق
اشكر
نهوا
واجب،
فاحكم
نحكم
واباح
وكنيته
##ذهل
اعانة
القرص
بخار
تادي
ميخ
والافت
السريرية
سادة
الفكري
##فيفة
##ازف
يستق
بماذا
مصغرا
الشمال،
الفرضية
غلم
الذبيحة
وعلامة
الاولوية
اذل
فالاف
لقاح
##عهن
للتس
حلل
نهيك
##ارعون
اللامع
رضوا
وفتحت
تحققت
جابرا
العثمانية،
الخصب
الانبار
الاحمر،
مسيحي
ناجحة
الموك
مقالته
##كتف
والشدة
حدوثه
بثمنه
استيصال
تورث
اليل
متخصص
عداده
##ناديل
يبلغوا
المنتظر
والتعظيم
بمرور
لتجنب
خليط
شاق
مطع
الارم
القين
الغنا
الاشاعرة
قايلة
والخي
النبيل
##وكان
##طلت
الترس
بالدر
النسر
##حادي
التحري
بالجملة
يفسره
اصابتهم
وطاوس
لوزارة
بخيبر
##يتد
يتيح
شرطهما
الاختين
يجعلنا
##خاذه
معيط
البقيع
الاصبغ
ستالين
صفاء
دخولهم
جاريا
كارول
استدراك
قرابته
##زامن
ولكنك
كروم
وارادوا
البهجة
التفريط
يعطوا
مباد
الشخير
##افعين
بي،
دعني
وضعته
المكان،
تراج
البوص
وعيون
##يتش
بتطوير
مستوفى
الفتاح
##وافذ
تقتصر
للاستخدام
وبيانه
تلبية
##رهم
##زز
##اليات
وجزا
بدونها
تجا
تكبر
وغفر
العواقب
##ودور
فاوجب
والاصابة
الاونة
الاطفال،
فاحد
والنجم
الاحصان
##جا،
يرضي
الابداع
تحركت
البوسنة
مميزا
نوت
ونكاح
الغدد
يسره
واسرع
قتلنا
جنوبي
مبهم
الاشعاع
والسرقة
ككتاب
##ناني
انجلي
وجوها
والمونث
متاحة
مجاهدا
##كتين
توعد
تجبر
والشمال
فضلت
ويعبد
ذهب،
والهداية
ونصفه
مسوولة
مجزوء
نحل
##نبل
الدروز
الكرا
ونخ
مشارق
والسيا
وتسعة
واحتمال
الصواب،
مقلوب
طيور
##نحة
العجلة
معادن
جاير
##ترات
##اليل
والمسك
لعين
فسكن
الحاجز
نفيس
##وذه
السمات
##علج
##بتون
وحجاج
بمج
##طاهم
مستقرا
فحديث
##رشيد
ياتيني
يبتغي
للزراعة
السراويل
التجيبي
##خرفة
##بكر
الموجه
اخلق
الراب
البيولوجية
رحمها
الايرلندي
شاذة
بحت
دوما
لفا
##رجون
ويرضى
ويملك
الارزاق
فتبسم
منقطعة
وقات
##باية
متج
متغ
الخطط
سيط
مركزية
الاسكندرية،
##حور
##كاس
##ظمي
وعف
بنيان
لحية
بسيفه
مريم،
يظنه
الطرماح
عتيك
فنب
##ذبت
القامة
الفوقية
ولغير
ومي
العامي
شهوته
القوايم
رشيق
المراجعة
الاقدار
معها،
الختم
تتش
الاحوال،
السايد
ابياتا
والنبوة
توات
فتجد
اتزوج
تسيل
لعشر
لسيد
الاربعة،
المرض،
##دونيسيا
شوارع
ويمتنع
ضواحي
فخلع
ميرك
بالادلة
وتغيير
##روون
يعصم
يتخلص
بحالها
##ذرين
وزار
نفاس
يهوى
ويحلف
يراعي
وشعيب
نقت
الكالسيوم
يسق
نعامة
بالحجة
العقدي
وانهزم
واختلفت
طمعا
فصب
يطف
##عالب
قتل،
اضاع
الشعبي،
فاخبرهم
مقاطع
بحدوث
مجييه
##ريرا
##امرة
والبصرة
##جزيه
امتحان
الرسل،
نافية
##وياء
##ضته
معادلة
ايج
##ايصه
والتاخير
المقادير
اياي
ومرك
يتعبد
تفعلون
نويت
الاحمد
##لمون
النوق
استلام
بكيت
واريد
والبلا
مضادات
شكله
اتقاني
المسوولة
سايق
الحضارات
الخالي
يمكث
بقياس
##كارم
اصابوا
جمر
فانتهى
متتابعين
امرهما
للاية
فجايز
ازرق
الموتمرات
يشتريه
##اعيان
##وبا،
بذله
التابعين،
صيامه
##لاحي
ولاهل
متبع
تكبيرات
زوجك
بالسكون
ببطلان
اجمعين،
الوظيفي
وجنوده
العتبية
تتقدم
وقتنا
صفد
##اثية
شرطية
ردته
معتاد
وفرقة
كافرة
استطاعوا
##عنا
بنوه
الحيز
يقطر
اعجز
موثرة
##ماتهم
المايع
للاشخاص
فتاويه
وباطنا
##لهل
حديثهم
وطرح
امنين
التتمة
المانيا،
دعى
كوني
##يتر
اتصاف
وطرا
وردها
شرطها
الدولية،
وامرت
كرهوا
والحدود
الفصولين
والعتاق
حوت
المبدل
وافعل
اسمان
##ضييق
المعتل
وحرب
الابط
مرتبا
مرضاة
وذبح
لورثته
لاحب
##منون
وتعود
##روبا
بحساب
مستخدم
الاصلين
##وديعة
بيانها
وساروا
يعتكف
حديثين
بتل
وشراء
الحجام
والفطر
المرغ
##وديو
فاسقط
المبعوث
واقطع
بعباد
منه؛
وارش
موجات
بالمرض
يهتدون
##ختر
للمرض
بالخط
اللسان،
القدم،
ويخالف
متفاوتة
##ونني
وضعا
وتحديدا
الريق
والاجر
واشر
وخلفه
المكية
ثقافية
ذوى
غرام
##هدي
##ذبا
##ربة،
اتعرف
وحجر
عدلت
تسهيل
والدية
موقفه
بالرسول
نشاطه
يحفظه
وامنوا
صبري
ماهان
وحرف
تاملت
المحاضرة
فيشمل
فسميت
اضم
المذي
العضل
القطا
النقا
وانقطاع
صاحبا
تجويز
خالط
وغاب
كتمان
الطويل،
بارتفاع
خالة
الشبع
استكمل
يجبه
وصيام
الاصمع
العليا،
يعطيها
المجرمون
حقيقيا
للسيطرة
فبت
ووت
عليه؟
للخدمة
##فرين
وذم
مانعة
حكاها
سقيم
موات
وقرن
تنفسخ
الفتحة
جزافا
السلف،
رغبته
فيصدق
##ايبه
الاستث
فروا
الرواتب
فالمقصود
نبهان
اا
لمكافحة
ويتصدق
المعتدة
المنتشرة
الاصلاحات
بيه
صورا
بنب
العزي
تصرفات
الانقسام
والسلوك
المتاخرة
##خش
السلط
بشرية
التقديرات
جوادا
الحمل،
ادراكه
بالهمزة
فكتبت
زيارته
الجنات
بعدكم
وحز
والتمييز
بحاج
النسايى
واستحق
الصفرة
باقيه
للدراسات
درجته
غيظ
بتنفيذ
اطف
دولي
نحمده
وتحقق
يتفرقا
والعزى
دارك
فاتك
الجزار
ويميت
البطون
ندعو
فعظم
فعرفت
بالطايف
اعادتها
معرفتها
##قنا
##صلات
للغا
فنلندا
##روبية
##زامه
يفهمه
يتحرى
المفردة
بربه
وفاته،
المشابهة
##يزيا
مخبر
للجمهور
مخلص
صورتها
سكينة
##غمة
وقود
السوم
ايط
وسه
##لفل
اتيك
واسناد
مواهب
الحدايق
القلبية
لغيره،
نترك
فابن
اعطيك
معتقدا
دري
الرخص
والعنب
ودلالة
تفصل
المنقولة
رقيب
شبها
طرب
##زف
لايت
##وقين
وزنها
ضعفت
لسعد
هدانا
ونعمة
المرسلة
ابصرت
العزلة
القاس
##باها
امتلاك
ثانية،
حريصا
يطبق
المسر
مضافة
حرمها
ريحها
انصرفت
يصيبهم
فيلق
واللب
فاقسم
اللحد
انتبه
الخطية
يغتر
بالكف
ببعضه
ينفعك
للطلاب
اسطورة
الدبلوماسية
ب،
لينة
فيكره
الجماد
بعود
مواقيت
اليهودية،
الفرنسية،
##ساتشوست
مفرط
الحداثة
رماح
المهن
الحيتان
وقنا
الشريان
وعباس
تصديقه
قريبه
##قدها
بالتيمم
هرون
حصون
منشا
ابع
القطار
تعاقب
##عتنا
العقدة
محتوى
كسبوا
شقة
اخطر
المفيدة
##علمون
ليحكم
والنظ
والقبض
مواضيع
المطابقة
خارجي
الحشفة
المتعاقدين
عوان
والوزن
التوت
حقن
مديرية
انواعها
الوسواس
الدهر،
اتضح
رحمتك
الاب،
البعض،
نهاييا
مابين
##ثاق
الشقاء
وتردد
ترغب
ضمها
##حيوانات
تتاب
مراق
وورث
##الطة
الشفة
الرما
اسك
##ردت
فتية
احج
##ازا
توعدون
العذاب،
حنف
##زية،
المكا
اندادا
فليد
تقبيل
منزلها
شرابا
ج،
لفتح
الرشا
##ربان
الثورية
الاخرس
مستور
صحبت
بالسلاح
يمسي
شمول
##عش
والمملكة
ليو
مستب
الثمانينات
بتر
يعذبهم
متاخرا
صياد
##وعة،
والبرهان
اوكس
وللك
الطيرة
##سميه
والحفاظ
امامها
مفضل
الاضمار
عدلين
فوضعت
واقيموا
بزا
فنام
##انوية
وقاية
وعض
سلس
الحكمين
جزاكم
نرجع
##ريحا
الدينوري
##تقام
السابقون
امتناعه
##جارة،
نعتا
وراه
وليمة
نسخا
يلعن
يزيدون
تاذن
التدخين
الروحية
واشتقاق
يشربون
##سلام
واجهة
##كلوا
##حاز
تنزع
تصريف
صداقا
##صارات
##غتون
نخبة
الجويني
بالاخبار
قميصا
السلاسل
سداد
اسماع
يستحسن
يخط
والنقصان
##خاطر
مرادهم
المقلد
##ينوس
الشغل
الجون
لمزيد
المعول
المنشات
نسوا
تغسل
مشتملة
سحيم
المباريات
البيا
للخص
يسلب
ترين
الجليلة
للقلق
بايجاب
##ضال
المتس
##والا
كالمع
ولكنني
يخش
سواحل
ملتقى
نهد
اسانيد
اجعله
والعسل
تخيل
داره،
الموسس
يعودون
تدين
سيه
العريض
وكاد
ويوما
##راءى
صدقة،
الجزور
ووصله
فوص
##ذرات
##زلها
التبادل
بالحرم
بالبط
##ومغناط
ويتكلم
اشياخ
والثياب
حرصا
الدراية
القصر،
مجتمعين
يسيطر
عرى
اليات
##ماكن
##ناعي
الفسي
بينكما
يفارقه
وتعذر
مطمين
المواضيع
فمما
محتر
كعبد
والشيطان
تدبيره
منفعته
وتوفير
وجيه
وجايز
مالهم
الرواية،
مغادرة
الجلود
حاصلا
تالف
صحن
يوني
##يران،
##افحة
يمحو
موسر
وفيهما
للكافر
السايمة
الغربي،
بوي
مبعث
النقط
الخمار
بموسى
يطمين
مواصلة
اللفظي
نطقت
سامع
قوتها
منزلت
التحر
الجيب
متوجه
حالك
برص
ذاته،
الوضعية
كصلاة
ابدع
الروابط
فقده
ولط
بروايته
اطيعوا
فصيام
السوفياتي
وابرز
اقله
لانهن
##كيز
الحرمان
وتمثل
النحو،
شقيقة
يجلد
تشكي
صرحت
ضابطا
ماش
معقد
البسر
الدان
يمكنك
تعددت
جنح
شديد،
ارسلني
المبيعات
كسرها
مشركي
ماجه،
الدعاوى
عويمر
بالوق
وترجع
فتيان
فسرت
فرعا
مرارة
اختارها
الطلقة
##وينا
انصف
بعباده
المصنع
بالاغ
الشر،
الليث،
متحركة
ضلوا
هراة
##تان،
اوهم
##رووا
يونا
تستلزم
والسلامة
الثقات،
التستري
مراكش
استم
استيفا
المتغير
يلوح
شكوى
##شىء
شعبان،
فاكتب
القطيعي
مته
الاثمان
بالقط
اخوف
بصاحبه
مكعب
فاتبعه
ممنوعة
فردها
هلاكه
خليف
لانقطاع
المشارق
##حلية
##دىء
زوجته،
مذحج
الحلقوم
رفيقا
الاتقان
فالاقرب
خسف
##نجة
يحوي
المنازعة
فصبر
نصر،
يعتقده
تذكير
علان
ينصرون
والنوم
والبغي
الفلكي
قيما
انشي
##ديرا
##ورك،
للرا
يكسبون
##مارها
واطراف
الحماسة
الشرا
الاعلم
لعرض
اغسل
بقولي
والورع
لسليمان
الداهية
ويبغ
الناجمة
لنفسها
##قني
وموال
والترهيب
##قبلة
فحرم
##خولها
وانني
المسكر
##مسح
الخطابة
واعتبار
والمنطق
يزالوا
التناسلية
ازالتها
المغيث
افلس
##زم،
مصرا
المحتلة
انشقت
المضل
السول
البشير
تعاليم
والتوكل
بزيد
##حولين
يصدقه
سالف
المملك
والصلة
##يبان
اصطلح
ونشرت
حكاهما
بالسفر
والروا
بايعت
فينزل
يغتفر
حتم
##لع
الحجب
الخاتمة
وللق
المجتبى
##راجا
وطيت
وحفظه
وفروع
##واعظ
النبى،
قضاها
السياسية،
فامنوا
##زود
##وتم
يدير
للمشت
##قصاص
قاضى
##فضوا
بالصاد
الطيب،
تفسر
الجاز
التعويض
دارم
ويشكل
التبشير
غارة
فويل
##نح
النكت
الموانع
الضماير
فعسى
عاشق
سمية
ممتنعا
السلاطين
الظهيرة
التوص
##يتس
يشاء،
يحدثه
شهاب،
المحظور
للقول
يسكر
فوضعه
جرعة
والحرم
التفاعلات
الخيمة
يتيقن
##ويله
عبيدة،
والدنانير
فضلك
تنازعوا
اليرموك
حوال
ينضم
##اريق
##مت،
بكلامه
فليفعل
نعمتي
فيتنام
خثعم
بنقد
واطاع
عمران،
فكانهم
يغدو
بصوم
اعطت
وتشهد
الوحشي
يظفر
الخبايث
##ليني
والعجز
##وصا
##راييني
المقبول
للتبعيض
يبرز
اجنبيا
الطحان
العمرى
عفراء
وحينما
ارطال
الفلاة
واحدهم
يستشهد
بقاع
واستبد
بالعرض
تطالب
المرضية
والتقريب
اديب،
المستملي
طويلا،
كهم
والسف
وعندها
##ناعية
الموسر
الرسالة،
يستخدمون
حوى
##لامات
الترق
للسبب
##صرنا
##رابط
الملوك،
وتصبح
رعي
زمرة
فنت
واوس
ادار
##كتهم
مصروف
زيدان
والابن
واسند
بالذين
الرقى
وعش
اتنا
يفتى
##وسفات
لجان
حملنا
فراشا
الشاطبي
لابى
والزبيب
منتظم
نتحدث
والتحريم
تسالني
علله
وفار
بحرب
ولديه
دراستها
محترز
المعافري
جياد
حجز
##غول
واحم
الرضيع
وجاهدوا
تطويل
غول
ووالد
##سره
التداوي
للفرق
حديثه،
اولية
وزيره
بالتج
اطلاقا
تخفيض
للصحة
مملوءة
الايم
وكافر
وتدل
بحض
النارية
تفويت
ليلة،
خالفهم
بافواه
والملح
طم
بنجد
بالظن
##وتات
اشتركا
##بالا
وامريكا
الوسايط
غما
##بيلي
مقادير
##صدير
لقراءة
##عرانة
مخرجه
قضيب
الاقاويل
عينة
واعداد
الجباب
وبقاء
ابتلى
منصوبة
كرجل
نحتاج
##هدا
الصافي
الاسماع
بلحم
انتسب
تنوين
##فهومه
صنعته
طرفيه
واحكامه
حصد
يفد
##عرش
وعدهم
حساسية
مصرية
يعده
التابيد
لولاية
البينونة
ماية،
حيال
موريس
للموصى
حسابه
والرغبة
لغوا
محرر
المكتري
حفيد
النهوض
فطن
قانت
##وج،
تصنف
التشابه
الاشتباه
اوردها
الاوساط
لقر
مدرب
زالوا
مستحيل
مفعوله
عسك
بالطا
وحشي
##كاكين
الاجساد
بالعصا
السفارة
فاقتتلوا
بفترة
##كريا
الفيات
للزم
عاطفة
يطرا
امامته
ظلمت
الواقعية
الغازات
بذهب
ريم
هانى
##ظيفة
فيدل
عقوبات
خافت
لالتقاء
الاوروبيين
مستدركه
ترامب
الصعبة
ويخل
ومية
المصورة
فيكتب
المنصور،
ونعيم
والمالكية
تيق
عليهما،
الدخ
والتلف
##جرها
داير
تشتهر
لذوي
سدا
بالدعوة
الناشي
والدول
معيبا
تراهم
بمه
حكايات
انست
##نيفة
##كونن
حكموا
التجريبية
فمد
مفرو
مصنوعة
حافة
بنف
وابدا
ومكة
والمشت
منتظمة
كالمست
الاهالي
مباركة
تومنون
حايضا
هجم
##واهد
##ديف
##رورات
الثر
المسم
الادعية
راكعا
السحابة
الربعي
تحريما
غرو
##فيون
تصدقت
بزي
والحديد
الروع
الكيان
استثمار
اليع
الاثناء
رجعية
المعلومة
سقوطه
تشرع
##ميان
والحلق
شعبي
نعمان
وعبدالله
##ظاما
طايل
وطف
وبكى
##وفهم
الغلي
وصوت
عباده،
الجزيرة،
كامب
مناسبا
المثنى،
لتشكيل
المحققون
يتساءلون
بضرورة
خريطة
طيار
##صهم
ينعم
الغداء
مقرون
الرحيم،
القبور،
برسالة
مرابحة
مقربة
##ناءة
بالحس
فبم
كاينة
بناوه
وسلوك
جادل
خند
الابادة
يتيما
##عملها
والقنا
فضلها
فاستوى
للفريق
ذهنه
السمسار
فيط
للبيه
والترم
الكتابين
##نزيل
مولفه
بخمسماية
فاجتمعوا
السويدي
فيوم
النافعة
بلجيكا
##قيموا
صغيرة،
متكيا
الخسارة
عديم
الجلي
عاطف
السجون
ضرره
النسب،
زميل
وبالفعل
مجاوزة
منصة
الزمني
تنقيح
يخشون
والنذر
والكه
للحاج
حلفا
قصدوا
السمين
يقطعه
الطاعة،
جبرا
سعت
عارم
لخروج
يجتنب
الغالبية
الجوزجاني
المتاخرون
مجلدين
بازالة
غازيا
حوي
##ينى
##اداة
يستتر
##لال،
تنجس
اغني
والدراسات
المرزبان
فبنى
هداه
انحراف
خضرة
قزوين
واليون
واجلس
وسلاح
البواب
##ضعفه
وشراب
وروا
ازاء
اللفظين
يجعلوا
يسلمون
يسلط
بهما،
ولباس
وعفا
سجلات
افرادها
محدث،
معناهما
والظفر
الغوا
##تيح
سلع
الالسنة
بجماعة
مقدمته
اقيموا
يسكنون
العتمة
مهارات
صافي
نعود
الطيف
يدخر
والاضطراب
اشهرها
بالاسناد
يتركوا
تسبوا
والرسالة
##لاهم
اناثا
توقد
والجنوب
والزيتون
الكلالة
الصادقة
المنطقي
قارة
نكتة
##التها
علت
امرته
ثانيهما
تساهم
اجابته
اصبعا
وقضيته
اودي
معصيته
التعصب
مذنب
بعينه،
نخلا
قارون
قتيبة،
ونستغفر
بحوث
نذرا
ماساتشوست
##افو
تكريم
واعطاء
الرجعية
نقرا
والطلب
الخلفي
تظاهر
الذياب
فاجلد
عنه؛
كالرجل
مستندا
والحرف
حمدي
برنام
يطرق
خلاف،
يقوموا
لاحدهم
الرمز
بالتقوى
فيعود
الميعاد
والوضوء
##ذايف
الرمية
المعتكف
لونا
والحلم
فرضي
بمعصية
هجوما
وميكاييل
رشا
لامة
للمج
اذانهم
##رارهم
وامهات
##لايها
قايلون
طغى
##وضيح
##وروا
فاختص
##داهم
ثبوتها
مفلح
جفن
خلاق
كيم
موجهة
الساير
ببقاء
لسعيد
اضاعة
للقب
القايلة
الاشهب
اغض
بصرف
الوباء
مدم
مفقود
انور
لاين
بالفقه
يعزل
عاملة
وخف
والاستغ
اجمعت
لمعالجة
ارتفاعه
الجزيي
جورجيا
##مالها
والنقص
بسعر
نظري
نهيت
المهني
كقولنا
يحلفون
نخاف
لوجهين
دارة
وهات
##ذول
##راكا
كلنا
وبيده
شرها
واتفاق
مغربها
عارضه
##يازات
المعتقدات
##شته
اوهام
يعش
اعقب
##قايا
يطاق
بذلت
الخواطر
قلاوون
نجيح،
مولي
ايثار
##شرى
ونفخ
يستيقظ
الضحية
والحفظ
الركبان
صبغة
السكوني
مصنوع
مستانفة،
صوما
لحرمة
##كين،
والرهن
##ياي
وزال
حللت
ميشي
المتعدي
بالذنب
##مرين
##ليز
الغلا
ارخص
امنية
بمنزل
واعتق
مقطوعة
تضيق
##ماهم
##اسيوم
##ولاها
التشكيل
اعدام
يختلط
يتعمد
##تابه
المعقدة
مواسم
الاسفراييني
المفسد
العلاف
وحث
تنطوي
خيركم
تخلى
##رافقة
مرضي
الخصمين
الرشوة
##اويله
الصهاينة
تولية
الاكمال
وبصره
ليبر
اعتزل
مختصره
اطرافها
واتباعهم
##وتى
##اسمة
ينمو
##تهاده
كالاع
الاعارة
اراكم
الاعلام،
سادات
نقدر
##فني
التماس
وقولها
كثيره
والفوا
وغرب
وضربت
والنسايي،
المرضعة
ويبعد
##ادثات
الحمال
ومط
الماثور
بثوبه
حامية
دريد،
التفتيش
برة
تغيرات
مقلة
انفر
والولاء
والمحرم
يوشع
المنادى
وطهر
المذكورات
نجسة
بنايها
وستر
كاملة،
المساكن
الزواج،
سايغ
شامة
##ميمة
##دروا
##متعون
مقالا
عشرينه
عقوبته
لابوين
الصالحين،
معترف
السالفة
ايكون
ولسنا
الطبل
يتامل
ومسند
راضية
وارفع
بنيته
والفصل
وانتشار
اظهروا
مجهول،
وكنتم
جعد
##وايب
وكونها
وحقيقته
والشرع
##يرن
يقرض
ونية
يصفه
محط
يزع
مشيه
والنعمة
حاشيته
كسره
العالية،
تفلحون
حادة
طورا
يهر
وانكره
الكش
الزيادات
نعما
الصدقة،
الانتحار
ينتفي
طاقم
##ايات
##كوك
تعجي
##وفيه
والتعاون
##قطعه
بسماع
بالحرب
حبب
برقان
والضراء
تاجيل
نعليه
الراسمالية
حدي
حشد
الخاد
ومعي
##زعون
السببية
لشراء
احتمالا
حزبه
بالهند
اسفلها
شنت
وانفسهم
حداد
##حيب
المسيء
المتواترة
##درية
تتف
بالموا
المغت
عبادنا
وحرمة
مكلفا
خفيه
رعى
قويت
##ثقل
كانهما
يعمله
اللورد
وصيف
كالل
بالسواد
محليا
تفرقت
المخاطبين
حفي
روع
##فنت
بالي
وسيع
الخنا
والمغيرة
فعجب
الصوم،
ظلمهم
تطبق
حزمة
الموعود
والوقت
##يريز
بعيني
ليغ
##سبورغ
الناسي
الباعث
كلامي
والمعا
بالاجازة
مكاتبا
بجهة
فوك
مشرق
اذاه
المشورة
والنج
عيانا
الهندسية
السكاني
ببلده
لارتفاع
كونغ
ويجزي
القدس،
المرتبط
الجسدية
التماثيل
##غافورة
لجر
يبارك
ابار
وقيده
القصف
البوت
يعيده
الطابق
مجيب
والبول
ملع
اهمال
والاربعين
ودعوى
المباحث
التماثل
مفسر
انعدام
مترد
وخفض
مغناط
امتنعت
الحلو
جوانبه
حافر
سوس
عانى
الرمان
بدوام
بقرطبة
يقترح
الحدثان
ذنوبهم
شماس
النماء
##وفيا
اصلاب
افلم
التحرك
جاز،
والاستثناء
تعرفون
شامي
شوقي
همت
يدلك
مدف
يغوث
مكاتبة
العديدة
عاقبته
صهر
##نيمة
##جنة
عامه
##والب
حديثا،
القرشى
يقتدي
فبقيت
بالجناية
عصبية
العما
وانبا
##ركشي
تعجز
##رعته
ركز
تاكله
افواههم
تليق
تقيد
بتاء
يخدع
والنظام
مبكرة
الخلافات
مطلوبة
وخلقه
الدستوري
منفذ
والطف
اوب
معيشة
الاخريين
الامري
تجاري
المدفعية
وامرات
النفخة
حضير
تراث
موجبه
شريفا
النهر،
كادوا
##وزان
المعافى
يضربه
احدثت
فبر
##اليا
الاراك
##هارات
##مرك
الزاهرة
اثيوب
المزكي
مونثة
فلاح
##رقى
الراي،
حجي
العقيد
الاضراب
والاباحة
وتعليق
نيا
##وايه
ومحدث
سيرين،
سالم،
استدلوا
الايجابية
والورق
قيراط
عول
علانية
فقها
الانجاب
المتصرف
جزى
والفخر
حدودها
وازواج
تبرز
والرجاء
رءوسهم
يطبخ
وارباب
المدفوع
الاحماض
ريي
جدوى
حبلى
حقيقة،
متعددة،
المبدع
حديدة
اجابه
فاستحق
المثل،
خاص،
المحتسب
الممثلة
وعشرين،
قزعة
##انيا،
الفارة
بعيد،
مستلزم
##ابتن
لحساب
ينادى
المزمن
وحذيفة
سامي
ونجا
تكسب
وادخال
التشري
مرضت
رزقهم
نبين
هرت
الاحو
التنسيق
معجزات
فرسخا
توكيد
ذراعيه
التبعية
خدع
##حصل
تعالج
ذكرتها
فتذكر
افلت
واعلام
المنذر،
مثلها،
الرشيدي
اخوانكم
مشركين
##ماسة
علنا
ونهي
متتاب
المتش
فالمن
القوافي
الغارة
والسلف
لعان
اشتروا
انتهيت
يعملوا
شيت،
المقترح
اتبعت
مقبولا
المحاسبة
يلفظ
وتضع
المحذور
واتس
منتشرة
يستحقون
بالزاي
والربع
بالبركة
البرمجيات
يجود
وحوا
اربد
##لابسة
وقولنا
الاوسط،
الجمهرة
العميق
وارا
بالروح
##ادون
شيراز
متحي
وصم
الاصيلي
وشا
حمدون
مغيب
ويدعى
قواته
مانشستر
يوقنون
لفس
نضر
يتوارث
بحص
كونت
روحا
##اطبه
تباين
هدايا
جلوسه
كوسيلة
فرانسيسكو
اوبا
الجبان
اخماس
لمد
اذني
المستودع
والشخص
وروية
العدل،
بالثلاث
الحنفية،
المساهمة
الكلمة،
ريك
قصار
باو
الليبية
كافي
الدراسي
الكتايب
فرادى
مبحث
##ليقة
بهت
اجب
اثارت
ملكان
والخضوع
نقلته
لزومه
للبحر
رزقكم
تناس
##قيا
##فدع
والقتال
انتصب
يغسله
بجبل
وتعزيز
النبوة،
بالجماع
عمار،
ويكبر
الحنظلي
تولت
غيم
التجديد
والمطر
تنبه
عقابه
شاور
رسوله،
كيب
لاصل
لاوليك
المعية
اقلام
بوصفها
واصف
يقله
اسجد
اثينا
يخفض
صدى
جعلتها
الريبة
مريضة
وجار
ومقاب
الغارات
يسار،
##طيك
حققه
سنذكره
الاقمار
واترك
ووضعه
الاسماعيلية
عنك،
القباب
الرحى
مستشار
بالاخذ
سجستان
ارسلوا
محتملا
التقديرين
ينسبون
سون
عونا
ومدرسة
والمقد
فكثر
الكاشف
يحكمون
يهديه
##فيلد
فرجعوا
ركانة
اعنى
المتقون
الاكرام
ونسال
فهرست
##طابقة
زايل
هور
الجرب
الجارح
##اجية
المعارج
يسوء
مثلنا
الاصرار
فعليكم
قرني
وقدمنا
وبالتالي،
قبيحة
لعنهم
ايمتنا
##حلت
والبعث
القيل
السلة
المحيا
صدرا
والثوب
بصاير
الهدم
يقطعها
والمشاهد
باخرى
الخلة
للطلاق
الطقس
تحج
وارس
والخميس
جانبها
نشط
الحجاز،
خبيثة
الملاك
انبعاث
باليمامة
واستخ
مطهرة
الخاص،
الشباب،
التاجيل
بخدمة
جرين
نبع
##كوني
المحركات
سيرها
علماونا
والخامسة
نموذجا
الجني
وعر
فلزمه
مشية
كثيرين
فهمت
وذريته
ونسخ
فعدل
السويق
وتصلي
مشق
جمعته
اعتداء
حنش
الاختراع
مولفة
الموجودين
اعرضوا
والخزرج
فاقد
الامكنة
وثيق
ازكى
شرحا
ارتبط
للسفر
القلع
للدراسة
القبلي
جيتك
خصيصا
##ين؟
الاقدم
اخوها
المعنوي
وصعد
رايعة
ويتكون
ينتصب
بالغداة
لندن،
هبوط
؟؟
تون
##ون؟
فرخ
والصورة
انسى
بالرحمة
التمريض
كرامات
وطلبت
واسروا
كملت
مكرمة
##حس
الصريحة
##ملة،
الناج
##قالات
بالعباد
خصما
التصنيع
جامعها
جاف
جنان
وطلع
المعنوية
ذكرنا،
ليصلي
بابيه
رجب،
المسيحيون
يلبغا
سلاسل
يكل
بنج
واصدق
الرفيق
الكتان
عبيدا
المضاع
مقرها
دواير
ديد
حددت
والعادة
فكلا
وامته
بمنه
جدال
تلفزيون
الايتام
النمساوية
تكميل
وعبارته
##لفها
استضاف
رجوعا
قبرا
عزمه
الباقر
فكف
بطني
الايماء
انشدك
والمكاتب
بطا
الجف
سلموا
المشاهير
موسيقية
مرشد
المنافس
المناعي
البشرية،
الرقاق
التبرعات
##نيعة
وموق
بقصر
للاصل
قاطبة
التحسين
حاش
الانتفاضة
بالدال
منسوبا
شوال،
الفتوحات
خرز
صق
اللاي
لاذ
الضربة
والحاء
توظيف
##ناهز
مصارع
مخطي
يصحح
يردون
ويكسر
مفردات
المكتبات
رفقا
عماله
والبح
وحياة
الهزل
يستانف
المحصن
