[PAD]
[UNK]
[CLS]
[SEP]
[MASK]
.
/
:
=
|
،
؛
؟
ء
آ
أ
ؤ
إ
ئ
ا
ب
ة
ت
ث
ج
ح
خ
د
ذ
ر
ز
س
ش
ص
ض
ط
ظ
ع
غ
ف
ق
ك
ل
م
ن
ه
و
ى
ي
##ر
##ا
##ئ
##د
##ه
##و
##م
##س
##،
##ز
##ل
##ج
##ت
##ن
##؟
##ع
##خ
##ك
##ق
##أ
##ث
##ي
##ف
##ش
##ب
##ة
##ض
##غ
##ط
##ح
##ص
##ء
##آ
##ذ
##ؤ
##؛
##ظ
##ى
##إ
ال
##ال
في
من
##ان
##له
الم
##لا
##لى
##ما
##ين
##لي
##ها
##نا
وال
##وا
##ية
بن
أن
##را
عن
الله
##ير
##لم
##ون
##ار
##هم
الأ
##بي
##ول
##ذا
على
قال
##اب
##لك
الع
علي
##ري
الح
##ات
##ام
الت
##دي
##ست
لا
بال
وأ
##حم
ما
وق
الق
##اء
إلى
أو
عليه
##مر
الس
##ور
الن
##من
##اد
كان
##كر
##بد
##عد
##ائ
مع
##ته
##إن
وه
الش
##في
##بر
##يد
##بن
الج
##وم
الر
##سلم
##حد
##بو
##با
##أن
##خر
##حمد
##مع
##كم
##يم
الص
أي
##ني
##يل
لل
##عة
##رب
فق
الد
##ود
إن
##وله
الك
الإ
الذ
الف
ابن
ذلك
هذا
له
الب
عبد
##يا
##رة
يق
الخ
لم
وك
##اف
##لام
ولا
وي
وت
##بة
##لة
صلى
##ذه
تع
به
أبي
##وج
وع
وا
##رك
أبو
##رف
ثم
##لف
##لق
##اه
##بل
##مة
##نة
##حي
##كون
وج
##لو
الا
##قد
##رو
يع
وسلم
##سم
هو
##لت
##ديث
محمد
إذا
##كن
وهو
##قي
##فر
بين
بع
حد
فإن
##فس
إلا
##يس
قوله
قد
##قة
لأن
##رض
##اني
##وس
أنه
فيه
الث
بعد
##رج
##تى
##صل
##دة
##به
##سول
##عل
غير
##عت
الذي
##شر
الط
وم
يت
حدث
الو
فقال
##تي
ان
##مي
##حا
##ضي
كما
وقال
##حت
##ذلك
##الى
##مل
##سن
أخ
##جل
هذه
##عي
##هر
وفي
عند
##فا
التي
عمر
##هما
وقد
النا
رسول
##صر
##ة،
وإن
ومن
##وي
##هل
كل
وب
##عا
تعالى
فأ
أم
##دا
##خت
##بت
##ه،
الز
##غير
حتى
##تاب
##عم
##سب
ول
شي
الآ
##وق
يج
##ضا
إلي
وإ
عنه
##يت
است
##فة
والم
##قت
##اج
حدثنا
ون
ين
##لب
بعض
بل
وكان
##خرج
##صح
##مان
##رد
##اح
##سي
##وب
##قا
ذكر
الغ
يكون
##ثر
##راء
##وى
##نى
##اري
##فع
##كل
##وز
##سلام
##هد
##سا
أحد
مت
لي
##تب
مث
أع
##وع
##يب
النبي
##وت
##خل
وما
المت
##فت
##حر
يقول
##ده
##قل
##ادة
##وف
##در
منه
المع
فه
مس
##دين
فيها
وس
##جر
##وض
##حة
عام
الناس
أحمد
بها
##قول
##كان
##ظر
##اص
##ورة
##مس
##يرة
##لما
##رأ
##لاة
##شت
فلا
##بع
يا
##لاث
المن
##لها
##مام
وأن
##دم
##ارة
فت
##رق
قبل
كانت
##ذكر
##بح
أهل
##اع
##سان
لو
حديث
حي
##شي
القر
مال
يد
وح
##زي
والأ
والت
بأ
##لال
##وه
##ية،
##رس
##رات
سلم
##سر
بد
سنة
##راد
يوم
الي
##الم
إس
الشي
الحديث
ولم
بم
لأ
مج
##وال
##راه
روا
##تها
أك
يم
##ريق
##رح
##زم
##لاف
هي
##يف
##ليل
وص
##تم
واحد
بأن
نفس
##قر
أيضا
أس
يح
المس
بي
##وة
##قط
رأ
ليس
##لية
##جد
##از
الأم
كتاب
لما
وهذا
##خذ
##حيح
ثنا
##ئة
كث
##بار
إليه
أص
الإسلام
##حق
للم
##زل
رضي
##سة
الدين
##فق
##يات
##ابن
##ينا
با
##ماع
أخبر
##رت
ولك
##ضل
منها
تح
##بير
الذين
##رم
يست
##طي
اله
فال
الل
##خص
البي
##الة
##عيد
مح
الوا
مثل
لأنه
##ند
##كا
##وان
##نت
أمر
وهي
##وات
المؤ
بكر
قول
##لاء
تق
رج
بما
##ضر
فا
##كت
##باس
سمع
ولو
##ين،
##رى
##مت
##وص
يس
ولي
##ناء
آخر
وغير
##ولى
لها
أما
##ذي
##قص
نس
##طل
##آن
لهم
ثلاث
##انية
##ضع
أح
أب
المسلم
##عب
حيث
ولكن
أش
نا
الصلاة
الرحم
لت
##رع
##نس
##امة
عم
عد
##واب
##كة
أنا
والع
##ديد
القا
يأ
فإ
##انه
##وية
بق
فقد
##جم
فع
شيء
كال
تن
إب
##كي
هنا
##اهر
دا
##قدم
##صد
##حو
الحسن
##ماء
علم
##ها،
بت
تأ
##راهيم
رب
فهو
مما
بح
تم
يش
##قه
المص
##جب
##صحاب
العلم
وأما
قت
##جة
سعيد
##ائل
قلت
##صف
أف
##ولا
##ميع
يز
الإن
أج
جاء
باب
الأول
أد
##رط
الاست
مق
مسلم
وخ
##لط
رحم
تت
الض
فإذا
دون
المش
القرآن
##طر
أق
مست
##خرى
الرحمن
##ظم
مش
الرا
##طلق
مالك
##دينة
فيما
إذ
سن
##عه
##حدث
##اق
##هم،
##بق
##جت
النس
عمرو
أخبرنا
الظ
##يرا
##مال
لكن
فى
##ذر
##مات
الأن
عليها
##ختلف
والله
##وح
##دع
##لات
##ابة
وابن
##فظ
##مه
والح
##الح
الشيخ
##عين
##لاق
فإنه
أخرج
##ذهب
##ريد
وف
إبراهيم
المح
##حيى
عشر
رجل
بك
##وجه
المست
أكثر
وجه
فل
حم
##وفي
منهم
##رائ
والن
قب
الخط
يص
إنما
##ئا
ور
##جه
##يه
الأرض
##سل
أول
حق
لك
##زة
يخ
يكن
بإ
##واء
يؤ
الملك
##طع
##ضاء
##ره
##ولة
مص
##طن
السلام
بش
فلما
قل
حين
##غة
سي
صاح
##غي
صحيح
وش
الآية
##بلغ
وقيل
ومع
##ولي
عب
حال
##سين
##ثمان
يحيى
##جا
##صار
##لهم
عليهم
##الي
بخ
##نف
عز
لع
ات
تس
بالم
جع
يجوز
##ناه
موس
##يمان
الآخر
##بين
تص
عباس
دين
##نيا
يعني
الكتاب
##ريم
##طة
يقال
العرب
روى
الأس
##يمة
تكون
حكم
##رام
وإذا
##هب
##ذن
الثاني
أبا
خال
##فه
##ثل
##حاق
##يلة
##ركة
##اريخ
طريق
يك
وان
تج
##طا
المال
رواه
فك
ود
الحق
وعلى
وز
##بيد
##قال
##افة
##رار
واست
الرجل
##الب
##خاري
تش
##بيع
داود
وأبو
وعن
الأمر
الإمام
أرب
##قب
وذلك
##الث
مؤ
كلام
والإ
نص
لله
##وري
##ظهر
كثير
أصحاب
تحت
##ليم
نفسه
البر
وإنما
موسى
يمكن
اعت
الان
##لاد
##طف
##ضى
##شة
تلك
##اته
##وضع
زيد
رحمه
معا
والس
أنها
##ذب
##عمال
##عر
ترك
اسم
##ابت
المؤمن
التع
المد
##شرة
فلم
##ائر
##روف
قالوا
##لاح
##ينة
البخاري
غيره
##قم
بذلك
العالم
شيئا
##ضم
فس
سبح
جميع
##يام
بالت
مد
خط
وقوله
##مد
وث
فما
ملك
سمعت
##ضة
الحج
الحكم
##اهد
##بيل
وليس
##لماء
لن
##هود
الفت
تك
قيل
##امل
##علم
##ان،
##زا
بني
##افظ
هل
##هن
هم
مر
##نع
##وط
سب
يف
الدنيا
المسلمين
##عود
ست
##بات
المنا
المج
مخ
فلي
الأع
مات
وكذلك
صاحب
أخرجه
##يش
جمع
والج
والش
##ماعة
##صة
وله
وبين
##ذك
##دت
سورة
##لس
إنه
وقت
##حدة
خلق
##وك
فن
أت
##ونه
فر
عق
إسحاق
كذا
إل
##انا
لق
كانوا
##قيق
السنة
يزيد
##هي
##وائ
أخرى
فمن
الأولى
##ألة
الإنسان
##فتح
##نب
وط
سعد
عائ
الأص
بر
##ريب
##راب
رواية
##ثير
صد
الأخ
##وء
والص
##ثبت
##ائي
تد
جز
هر
##رفة
كذلك
##ؤلاء
حدثني
##أل
عبيد
والث
##جز
##جي
##صب
المغ
بالأ
##اط
بلغ
##افر
ألف
##راق
##ليمان
##ئيس
##حرم
##وما
وتع
##لوب
##فار
##حن
##رأة
##داد
##ك،
##راج
تقدم
##دى
أخذ
أعلم
يجب
اخت
##ياس
انت
القول
أه
ذكره
##وجد
سبحانه
##مار
##زيز
##حل
##قات
##اش
##اس
##تين
عدد
##سبب
زي
البا
للت
##افع
امر
خلال
##بس
وآ
##لائ
عثمان
الله،
نحو
##صي
جعفر
اليوم
##بيه
##صور
##وبة
##هور
##ومة
الصح
فج
##ظيم
##معنى
وهم
للأ
##فسير
يل
خمس
##فل
خير
رقم
يعلم
##عون
والخ
خرج
عنها
والا
فض
##افعي
بط
##لفظ
كتب
##وجود
سليمان
أبيه
قوم
لمن
الكلام
##جلس
##ويل
فعل
##داء
فكان
##وسف
##تهم
##ديم
عدم
شع
##قيقة
ثلاثة
الجمع
هريرة
وكانت
قر
##حمل
وجل
##ريك
شيخ
معه
شرح
يغ
قام
نع
فوق
##هار
نعم
دع
سفي
المدينة
حسن
##ماعيل
الجنة
المخ
بالإ
زوج
تخ
##لمة
##كس
فان
##وسط
هناك
معنى
اشت
##أة
##ته،
والد
وذكر
النار
##راف
بالله
##وني
##شد
##رجع
##ا،
##ورا
الحا
القاسم
##كام
الجز
المط
##قع
بعضهم
العلماء
##يز
لنا
##ياة
##ربي
أنت
يحت
الماء
ورو
يوسف
الأح
يعت
##اك
##طان
صف
الثالث
##ارث
العد
##هاب
##سنا
##زوج
##وث
كيف
كأن
أراد
##مرة
##اله
لح
وعد
##يني
##راءة
صح
دار
الصحيح
النساء
##واز
ولد
شاء
##ابر
بج
##فى
##اصة
رك
هؤلاء
##تهى
صلاة
الحسين
##اعة
##يع
دخل
والق
ألا
العمل
##هاد
عا
##ريف
وجود
جل
سفيان
أحدهما
تف
المق
قتل
الساب
المرأة
العزيز
##مو
الجن
واحدة
عبدال
##واه
قالت
كنت
##بان
##طاء
يعرف
##سمى
##رسل
صالح
##كره
بس
##بط
والك
تط
الشافعي
احت
##فاء
##نه
وكذا
مرة
##باب
بغير
أنس
الرج
وبال
عل
الأش
##عام
يط
##باد
جعل
موا
التح
##ريا
بص
مك
##راض
تست
##علق
رأس
##جتمع
##ريح
ير
رس
##انة
##ملة
القاضي
##كثر
##حاديث
##ماد
نسبة
بهذا
##الية
نظ
##ون،
إسماعيل
بغ
##ولد
قط
بيت
المؤمنين
إلخ
العق
##ليد
خالد
والب
##ي،
##راك
##سبة
أنهم
لكم
##ارك
بقوله
##ليه
##وار
##تك
##امع
##تق
عائشة
##يته
يقت
سبيل
##الف
مط
##نية
##بأ
وغيره
نز
##ضح
##هة
عنده
##يدة
##جاب
##جار
الإيمان
فقط
رم
بالح
قدم
البد
##باع
سواء
##خبر
##كاة
ممن
يريد
رأيت
الدار
العام
##شام
نق
السلط
##رمذي
لإ
##صرف
أبى
مكان
##اذ
##عدة
القب
##ئذ
وغ
##بيب
عمل
##كذا
وأخرج
وفيه
##بري
التق
والف
##جرة
كم
عرف
شرط
وين
##فاق
بالن
يتم
الدع
ورد
المسجد
عشرة
بالع
##يسى
بنت
بلا
نظر
##ائع
##راط
يصح
المذك
حك
الموا
##يار
ذات
##يده
القي
الروا
الثانية
##نات
##ناس
أغ
##هري
تاريخ
##ارج
عين
بشر
##خد
انتهى
إليها
الحافظ
قائ
##اتم
أصل
انظر
ذلك،
أث
##هاء
الحي
بالك
##لوا
أيام
الرسول
البحر
قري
##ائدة
##ؤال
##عيف
##شف
الوقت
ويت
العبد
##باح
##شق
##لد
وإلا
##صا
##بى
##ونس
##عض
##رير
##ارت
فهذا
##هاية
##وجب
بالق
##شا
مصر
##ذاب
بخلاف
##أم
فح
وضع
مغ
قاله
##نين
##ادر
##ذين
حا
##صول
يأتي
##كاح
يذكر
قا
اللهم
المعت
##يث
الحال
##ديه
كله
خلاف
وقع
موضع
دخ
يخرج
قدر
##لوم
##ضمن
الأصل
بهم
فد
##مائة
لان
كن
وير
إني
وعبد
##فض
##فص
لفظ
وحد
وجد
##وقف
رجلا
##اية
لكل
دم
##رش
بسبب
الحد
##روع
بينهما
ظاهر
سلمة
خلف
ظهر
أيها
اقت
المعنى
كت
##ارس
نف
إما
للع
الأد
##فن
التن
لقد
ثابت
الأمة
عباد
حني
الباب
##قين
##سط
الثلاث
##حب
عيسى
إي
##نائ
والسلام
##رفع
والذي
##مير
وبعد
شر
اليهود
##قف
تر
العم
الزوج
إحد
الولا
المراد
بمعنى
##اره
للح
##بال
##ديدة
اه
وكل
##ئت
ترج
يدل
الفر
##هادة
رد
##انب
فقلت
##طقة
بأنه
البيت
مسعود
الصحابة
##وقع
##ارض
##ارب
المث
##ثة
##فاع
جن
وض
##ائب
عليك
اث
أرض
##غم
##وته
##لح
##لوك
عنهم
##بغي
النفس
المسي
قص
عليكم
##سند
العباس
بمن
وهذه
الحرب
##قى
عما
تفسير
منهما
تقول
خص
##شتري
##صدق
يلزم
##اهرة
شهر
إله
##ظاهر
هشام
شخص
##امت
##قطع
آمن
مكة
الصف
حر
الخطاب
حول
##اة
ففي
الفق
##ات،
كثيرا
حاج
ويقال
فصل
##طق
الحارث
##ساب
##خدم
الشمس
##حه
##ارية
سم
معاوية
القد
لج
حن
اللي
تعد
##ذيب
قرأ
الخام
##وهم
##تر
الأز
##هات
##طب
دي
الدم
السماء
##ضافة
البق
بعده
عاما
الليل
##شرين
الات
##ى،
للإ
ولما
##واع
##زلة
##قوب
شك
يصل
##غيرة
امرأة
##راس
المتحدة
آية
فلو
الوجه
القوم
##قبل
المر
##خي
##منع
كلا
لأنها
أنبأ
##فرد
العربية
إخ
##واج
يب
الفضل
##فرق
جماعة
##غل
حج
المك
تز
##ذف
فتح
كفر
حنيفة
بيان
عندما
وتعالى
##شاء
الأخرى
أفضل
##انيا
##أت
الحك
كون
##قدر
طل
تب
يدخل
القيامة
الحر
##بيرة
##قدير
##ساس
توفي
##ضية
بيع
نصر
##رجل
##بني
فهي
الرز
الشع
حص
##نام
فأن
ثبت
كلها
حاتم
والط
مدينة
المسألة
##زع
الاعت
عاد
البص
أكبر
لذلك
##جاز
##أس
##بارك
الترمذي
##وها
إد
##سك
يرد
فذكر
##ودي
##بعض
##ائه
##ينه
جمي
##ورية
ابت
ضعيف
وأنه
الآن
##ثار
أولا
أجل
##ياه
الشرع
##واد
ذهب
يرو
##خدام
آل
اس
طالب
##شار
إع
جابر
فم
##ربية
عقد
##لالة
أنفس
النص
##آخر
##بيعة
القرن
وصف
المقد
##فعل
ثقة
فص
الحاكم
عرض
ليست
##بعة
بالا
زاد
فاست
تغ
##الك
السن
أمير
لابن
##أتي
مطلق
##ليق
وروى
ورس
عدة
##اء،
سبع
در
ارت
والتي
##وضوع
التأ
##انون
الكريم
##كرة
##طيع
نه
##قصود
الزبير
##كار
أر
ضرب
ومحمد
أط
العقد
المذكور
البيع
نصف
حجر
بشكل
القت
الموت
##راع
مض
الإسلامية
بقي
الوليد
الإس
الحياة
##فو
##شهد
##امعة
جميعا
##اث
أولى
##ريعة
رفع
##فسه
العين
##وير
والمع
منذ
##سباب
وأنا
يقع
عي
##ضان
وبه
جزء
عامر
فلان
ولهذا
الرئيس
وأم
##ب،
##ابع
##ئمة
عبدالله
فيقول
عنهما
##سد
##طلاق
##ريقة
##وخ
وأبي
ويقول
المو
##ائد
الكبير
##ابل
ويج
الشام
مثله
يونس
##بية
فهم
أربعة
الدولة
إسنا
يه
للس
مسألة
خبر
يقوم
##ونا
نج
##قض
بأس
وأع
الور
مم
كبير
ينت
مختلف
##جن
##ونة
عاص
##رجة
يوما
##غر
##ظام
##يق
الأب
ذي
خلا
فرض
##ضرب
##ئل
حرم
المز
ويع
##رائيل
الجواب
##شيء
##ريج
تؤ
كثيرة
ولق
طلب
القص
##يدا
آدم
بالس
ينا
وات
يوجد
الخبر
إق
##وذ
فيكون
##ودة
الشيء
شهد
##شارة
الحم
##اعر
الجمعة
التص
##جارة
مه
##ائم
السلطان
ينبغي
رأى
يدع
##يو
عهد
##وعا
النظر
صار
الطريق
يعقوب
الحاج
مل
المصنف
للن
مذهب
أحب
رئيس
##الا
##أنه
##سع
الخير
اختلف
مخت
ليلة
##ثم
الصد
مقد
وعند
##هير
والغ
##روة
سا
##فيد
##قاد
كتابه
قيس
ضمن
##جتماع
الثام
##بدأ
يشت
سأ
##هام
الكتب
##ربة
والر
بفتح
نبي
التاريخ
##لائكة
مثلا
رؤ
اللغة
##اتب
الواحد
##ال،
وصح
أربع
بعث
##دية
##تبع
##جاج
جدا
علينا
##نان
منصور
##كلم
##لث
##وعة
وسلم،
للا
##حاد
الرزاق
##شك
دليل
مرا
فليس
##زن
##وام
عليه،
عض
##لل
سبق
##ئك
##ربعة
الى
أحسن
##ظن
##وين
الصالح
##حيم
رمضان
##حية
منا
##والي
الترك
ومنه
##حوه
فب
ونحو
الشر
مرت
خاصة
##كين
الزهري
##اتل
##دل
##ختي
##كية
##ناع
##بة،
##يمين
##ابه
يده
##جماع
الولايات
به،
الفعل
الحمد
##ديق
أسلم
الخلق
##بياء
يرى
##له،
وثلاث
أز
السؤال
أعمال
نزل
##لع
##بقى
##فعة
يعمل
حبان
بناء
قلنا
ونسبة
##حقق
إليهم
##حيث
مائة
##بغ
زيادة
فهل
##قام
زياد
يعد
جهة
أهم
كنا
##لامة
##ظمة
الأف
لص
##سام
##شياء
فيهم
ضد
التك
القلب
معين
التش
##خير
جاز
تو
باسم
نقل
فأما
وحدث
أبد
ورسوله
الأمور
الما
عطاء
الطلاق
إحدى
لس
كف
قطع
قتادة
ضر
حماد
العمر
الآخرة
البقرة
المم
ويم
يفعل
لغير
روي
##لة،
الاحت
صفة
##ميز
معناه
##عمل
الأمير
حسب
##طين
##ضب
الكر
##باط
ومنها
ضع
##ؤه
يقولون
الزكاة
سبب
الانت
##نا،
نوع
المه
قالا
##الت
بهذه
البلاد
سير
يصلي
انه
##نم
اللفظ
بالج
وبلغ
امت
##ق،
خيرا
نش
الفي
يظهر
عمران
ترى
##برة
السيا
الدي
جرير
هكذا
يجعل
##وحيد
الروم
##بعث
##ربع
##يبة
##حث
##صية
محم
ويد
مرض
إسرائيل
العب
الرجال
##خة
والز
كلمة
##صاد
ماء
##نسبة
##سكر
تعلم
شه
البن
##عيب
##ارع
أقل
سنن
جائ
##ليفة
##ليف
وهب
قبله
##د،
الاقت
##جع
العراق
##يح
الظاهر
تنا
والثاني
##يين
لهذا
يحدث
العديد
##يك
أيوب
وسب
نحن
لد
الشيطان
الأسر
##انت
##واف
الأق
أل
##ظة
حميد
بينهم
السب
##ذان
ولذلك
شعبة
رجال
البلد
أتى
قلوب
دفع
بعدها
حفظ
يثبت
##راسة
ويست
بلاد
فرع
يأخذ
##غفر
الفتح
أعط
مجلس
##دي،
أثر
تكن
##قوا
##قتل
الشرط
منع
وجعل
##رة،
##ريكي
##مائ
لدي
##طار
##ثبات
الرك
##غت
مرو
هار
##مة،
حرب
المعروف
##اي
##بيان
منت
##دعى
وغيرهم
منك
##زق
وتح
العصر
##را،
##سناد
والنس
##وسي
أنزل
أعظم
نت
##ونها
##ويه
علا
##داية
بث
##ثال
إنا
##روط
##شية
يجد
##ائية
المف
##يضا
وأحمد
الشرك
صلا
##ضط
حقيقة
الشعر
##بيت
##لاك
المشرك
##ليا
##لوه
##ركز
##ليلا
يبلغ
نعيم
والاست
عاصم
##ائفة
مز
طال
محا
جد
أعد
##ختلاف
وحده
يرجع
منكم
آمنوا
حالة
دينار
##ليس
##ائق
ألم
وعمر
فكيف
##ريض
له،
##ضاف
كعب
##فقه
##ريع
##غا
ورب
اللا
##ليات
جواز
رجع
##باء
##قاط
##يمي
##وفة
أشهر
النسائي
فضل
##شى
##جود
##مهور
بوا
وست
بالص
الكثير
ذا
##رعة
المجتمع
أحدا
العائ
البغ
القضاء
الهم
وأمر
##زب
المعا
ربه
##ير،
##راح
يسمع
أخبرني
مبا
أين
سيد
##ديل
نافع
##يا،
##دري
ته
محل
النكاح
مدة
لش
##ولية
اليمن
##ارق
الشرح
للك
فرق
##قيم
##كبر
##ؤمن
الذى
الكبر
العامة
السلف
وأص
البشر
الميت
بري
وأخ
ملي
أمره
الجاه
الفقه
النف
##يادة
حنبل
##شيخ
حجة
قسم
خمسة
فات
بالنسبة
صحي
وصل
عبر
##زام
الخامسة
قريش
##طفال
##جلي
ورواه
##ناك
عبارة
طلق
##قوله
مو
الخر
وقرأ
وعلي
لقوله
عالم
##حسان
بالش
لب
الإع
يقبل
حصل
##ارف
ربك
##كمال
##ختار
##صال
للش
##قيه
فقالت
وغيرها
بكل
الام
فقالوا
##ظي
مجال
الوج
أمام
مولى
##عث
را
##صاري
حل
يعتبر
##خول
بغداد
السكان
##لكم
شبه
حمل
##ياب
شيبة
دمشق
ومسلم
##لاب
التس
الإخ
أنبأنا
عدي
##اني،
أجر
يمنع
إليك
أست
حس
ذو
ينظر
الإسلامي
فإنها
بحيث
وأخذ
وجوب
عص
وأح
##نون
أنواع
داخل
أصبح
وأخرجه
كس
##قية
للج
##احة
الشخص
وخمس
##عة،
كونه
وبعض
##ناب
الأر
مجمو
النبو
يملك
الفا
##انى
ومنهم
##ثى
ولقد
الأنبياء
##خط
##بره
ماله
شئ
مطلقا
##طلع
##تمع
باست
##ما،
المنت
معد
##ري،
فله
الفرق
##انع
احمد
الثامنة
أقول
وشر
الثق
السي
سائر
##عى
وترك
##س،
رأسه
##حيط
يحصل
سهل
يحتاج
السابق
##لكة
الطعام
##وفا
سمي
المجم
عندهم
تيم
وراء
لغ
بنا
خر
سما
الخلاف
##همة
ويكون
الأحاديث
##تان
المحت
##ذل
الجماعة
التم
الملائكة
جملة
قراءة
العقل
مجاهد
##كمة
##ذى
معت
الكفر
##وش
المشتري
الرواية
مقام
##وفى
السم
الآيات
نب
والمر
العاص
##عن
##كى
الفقهاء
الذه
اسمه
يحب
صورة
##سمية
##يره
##ور،
موجود
وهل
##ولها
ويح
الكافر
العظيم
حض
##براني
حب
صدر
العربي
مجموعة
والتع
##ندي
أثناء
نقص
وتس
معهم
##طية
##زمه
قوة
حبيب
للد
##كد
الهد
سقط
##جيل
وعليه
أمة
الأعمال
##لقى
شعيب
جانب
##وبي
##ائف
الإق
##ختيار
##مته
بدون
حلف
حرف
عظيم
الأمريكي
العباد
افت
ساب
قصد
بشيء
خاص
بعضها
وجب
مي
بينما
نهاية
##شرون
معرفة
يجز
جه
الثلاثة
يؤمن
كبيرة
##صارى
معظم
##لبي
##ريط
ولكنه
جنس
يديه
الذكر
##درسة
##ن،
قولهم
بدر
##ورد
شرع
##رابي
##ضعف
##نج
##عله
السيد
##وبا
آيات
##افية
قبض
عبادة
##يران
واعت
البيه
أشد
دعا
وسي
##بيح
وهكذا
كأنه
ابنه
##اتها
الدا
نشر
الرابع
غيرها
معمر
##فيف
الترج
مسا
الرس
##اتهم
للق
##روب
غز
الدول
الثمن
البعض
يحل
خز
صحة
ماجه
##قاق
دائ
الخص
بضم
أحاديث
وآله
##ثرة
##تا
سكان
استخدام
##طلب
أخي
وتن
سلط
بالمع
أصحابه
الهند
لانه
##عبة
أموال
##ضاع
##اده
دولا
##املة
##ناية
والمن
علماء
يقتضي
##فعال
وأس
والأرض
الته
كلامه
سر
مأ
##عدم
تاب
زمان
الألف
الست
حاجة
وفى
المذهب
##قون
##ذات
أقر
ولأن
وجهه
متوسط
اليد
الأج
الفس
لسان
##طلا
وبر
##بته
##حمة
المغرب
بينه
سوى
إنها
##تاج
يتعلق
مرف
##سية
نفي
##رفه
##مسك
المسلمون
الشمال
إسناده
الولد
واحدا
السلم
##فهوم
فالم
فخرج
وإلى
القدر
خارج
المض
##جوم
الكفار
يقدر
راج
الجامع
##خلص
الذهب
قيم
##كرم
##ناها
##طال
وفيها
نور
عبي
خطأ
##صيل
معاذ
عروة
الضر
التج
أصاب
##دون
##بوت
مني
الجيش
برق
##ر،
التط
وأصحاب
##كب
شعب
##طرة
##ختص
##نتين
##فعول
زمن
##سه
أنفسهم
اكت
الرحيم
الشاعر
يسمى
كقوله
يدي
##ريكية
##براهيم
تقر
بف
عنه،
##صير
الخمس
أولئك
##ئات
فيهما
الشريعة
النو
شريك
الثالثة
##اجد
عادة
وسمع
##دب
وأخبر
تعت
##عتبار
وتم
والآخر
##حاكم
البائع
واف
محت
نقول
##ثلة
وأنت
##تيجة
##راهم
يسم
##حياء
صدق
السما
الشرق
الواجب
هارون
وبن
##أخر
والسنة
##ثله
فأمر
بيده
إنسان
التر
ويل
تقوم
الذهبي
فيه،
الإي
إمام
فعلى
الحقيقة
أسماء
##احب
أجمع
اختلاف
تزوج
##قعة
الدعاء
##كرمة
يقرأ
عندي
الكبرى
سألت
##هاجر
فجاء
ليت
التف
الخلا
أرسل
##رث
القسم
يحمل
والذين
بدأ
للناس
فأخذ
فقيل
أهله
كر
##بتد
باع
بلفظ
##وائد
الربيع
الوض
عيا
الساعة
بب
الفجر
##ئي
خي
قضاء
مقت
النوع
صور
##زوم
جبل
درجة
التفسير
لأبي
البيان
زك
##ظلم
##عادة
بار
دور
##اظ
وعنه
أبدا
صاحبه
وإما
لأحد
##عتين
إم
##أي
روح
وعشرين
وجوه
الجنس
عذاب
##راز
بلد
لأنهم
##درك
الليث
المي
الوز
جاءت
الوس
أرد
قيمة
وقالوا
منطقة
##ثناء
##ذة
للص
شيخنا
عف
أدرك
اص
واج
أحكام
##كتور
لكنه
مشت
لئ
إنك
##رأيت
الحيوان
المرض
##دد
الوط
الأئمة
##واعد
وجاء
##تنا
المقصود
##طه
ستة
الأنصاري
لر
بمع
##شير
سئل
لهما
ذاك
سلام
المؤلف
##زيد
وخرج
الأعم
قلب
الحكومة
وقف
كأ
فجعل
حمزة
ذكرنا
جبير
ها
بحسب
##لاج
لغة
وعدم
حسين
##صلاح
أني
##طاع
القيام
##قة،
العا
المسا
حديثه
فش
سأل
ثالث
السر
المثل
نظام
الجهاد
ذك
الكف
البيهقي
##شأ
علق
صل
إج
الاسم
##لا،
##زاء
##خلف
ربيعة
مكت
تقع
اليمين
العائلات
شأن
الأحكام
بالغ
حقه
المتن
النعم
واحت
سالم
وأرب
وفا
ثلاثا
##وغ
الحجاج
يعود
##فسر
المقر
بات
##لي،
الزمان
##طى
تقدير
##ل،
##ونية
جنا
##كو
الساد
الصغير
طاهر
بالد
##غني
##جمة
حياة
مب
زوجها
معروف
جم
ني
طلحة
ومر
إذن
ويجوز
حينئذ
واجب
شعر
##ت،
ويس
##صلحة
فعله
##فيه
##ركب
المنذر
تل
شهاب
مف
وتق
سيا
الحرام
يشترط
##م،
محمود
بكسر
البصري
دخلت
عوف
حرام
يتع
قصة
##ديا
ثمان
الأسود
عبيدة
عال
المشت
طرق
ونحن
عج
نهى
الخطيب
الطب
بالر
##بيا
##زار
نزلت
##مامة
##قطني
تحقيق
##صره
##سس
التوبة
نفسي
الها
##دق
آله
لكون
المدين
الدعوة
السفر
شهادة
بالب
وكتب
لكان
##زال
الوضوء
##دخل
تمت
وتت
جامعة
وقول
##طلح
##قاب
القراءة
عملية
##ركات
##مين
بقية
بالخ
واس
زعم
##بض
قلبه
متى
أمور
الواقع
##ائن
بير
كذب
وآخر
العلوم
##البا
المنطقة
غاية
يقل
الأعلى
المبارك
الخاص
أكل
##بحث
##تيب
##زية
##عار
أطلق
بنفسه
الحن
المشركين
مريم
الأمريكية
العن
فخ
قرب
ظن
اج
##بريل
الموص
عت
للب
جريج
كنتم
حفص
موت
##وا،
نفسها
##تمام
الزيادة
الثوري
مفت
استح
الريا
##رادة
##حص
حقوق
الخمر
##منا
العذاب
وتش
مروان
كلهم
طب
##طح
##قرآن
عضو
##زيادة
حوالي
صلاته
##لبس
##ئية
النهاية
منه،
أيدي
##وكل
الحجة
الخارج
##لون
##راجع
الشعب
إسلام
ترجمة
##ماعي
ورج
قيام
ولل
الظهر
وهما
المهم
##راضي
الحجر
مضى
محمدا
بطن
أحدكم
الرد
الوك
##راث
كا
ويؤ
الصوم
وفر
العلمية
سج
والمراد
أصب
وذ
مؤمن
أنك
المأم
الخاصة
##مبر
تعرف
وإس
يسأل
كي
##نوب
تجد
الناس،
امرأ
وانت
يمت
الاجتماع
يأمر
الحب
فقت
الكه
درهم
رحمة
الوق
إيا
##ياسية
##عداد
عامة
##صلح
ضعف
مسند
ذر
##رارة
أشار
سليم
##رحلة
البحث
التوحيد
##غب
##باه
##لول
ونا
الإم
##فسد
أمه
##ستان
ربنا
الإبل
##ئه
##بقات
لديها
التى
##ويد
يحرم
دولار
فيمن
كالم
ومما
طا
لنفسه
##تهما
مسجد
الترجمة
##ارح
وغيرهما
أقرب
##هارة
لهذه
##زمة
##بوع
النهار
##ديدا
ثلث
مصدر
وظ
بدل
##يسر
##وضة
يكتب
ولاية
##روي
يكره
##كمل
وعلم
##وافق
يعلى
##ويت
##رحم
##جاوز
##ومه
##أخذ
##وصف
فأع
أذن
جا
حجم
النهي
عندنا
بها،
##تهي
السف
فيت
رسوله
جامع
تكلم
##فاظ
لبن
##ولوج
أعلى
النظام
##صاب
الفلس
##ويا
بالإضافة
الفض
علما
##ورات
بيد
واله
موق
ويحت
الرابعة
رأي
##شاف
##تيبة
السبب
يجمع
فترة
##موع
موضوع
والأن
تذكر
الفصل
فصار
يأكل
وأهل
جبريل
لعدم
##قيت
والي
##به،
القيم
الجزء
فاع
المصر
ري
##لومات
فهذه
الرب
وو
فالأ
موض
ميت
##الفة
##خا
بان
اجتمع
حام
لاست
المجلس
النووي
##غيير
والنسائي
ويق
الصحي
عليهما
طول
أولي
صرح
##صى
الموضوع
آلاف
أسباب
الطبري
الرغم
##و،
سنوات
##ادية
##ثا
ومات
الشرعية
أمية
الطيب
##ابد
##خصوص
صاد
الحرم
الشهر
##وبر
فرد
حضر
هد
ابى
الغرب
قرية
##ساكر
يعيش
يؤدي
الرؤ
الشهادة
##حرير
بمنزلة
بهما
معي
المصري
أظهر
جده
لدى
قليلا
باعتبار
حما
شركة
يومئذ
بأمر
جائز
وصلى
والآ
##ىء
##الات
المجموع
الجمهور
بإذن
إيمان
وربما
يوجب
##ريمة
##نفية
##ائمة
##تهاد
##نيسة
##راة
ظهور
الجاهلية
ببعض
وأيضا
الأصول
##فين
أهلها
الصاد
الحاجة
أولاد
##لوق
##لقة
##تهن
أقوال
م،
التاب
طائفة
يضر
فذكره
الهيث
نجد
##وزا
الجملة
قامت
الري
ونحوه
هاش
##حى
##عتق
اللغ
##روح
##يتها
##صرة
فأخبر
وجدت
لبعض
ترد
المشهور
يلزمه
سيف
يحكم
إف
العالمين
القائل
أسر
أصبحت
إليه،
##حول
وكيف
ساعة
باطل
الوقف
شري
المحرم
وأش
صنع
قليل
بمكة
شئت
صوت
بحر
نقله
والمت
##شري
غريب
الأور
يطلق
لط
لين
بنو
ظلم
بطل
وأنشد
عني
##لقي
تسع
برقم
ربي
الجميع
أصول
##روض
القدي
الأغ
والل
سبي
البل
يحتمل
##ناعة
ملكه
تعليق
الجد
##كف
إثبات
فكل
الزنا
##با،
فاس
بنى
والض
الأشياء
يلي
تخرج
عنا
عيينة
##يص
نسب
المقت
السنن
##برا
المكان
##زه
##لاص
##روس
الدليل
الشه
##بهة
##هج
##ثه
##ناف
الموجود
وأكثر
مختلفة
القانون
تمام
##جرد
وروي
##ليلة
ويمكن
شاه
##واح
##خاص
حركة
القياس
الأكثر
الأمم
##نيف
قتله
حقا
##ذوف
غالب
المغني
الأيام
وكيع
أريد
يشاء
اللج
الوهاب
الفقيه
##رائي
عمار
سه
حدود
##ريس
يلت
يشهد
##ثنى
مرفوعا
##وضأ
ينزل
لخ
##عير
##دة،
##ضرة
##اهما
تيمية
التهذيب
واختلف
##طنين
##دوا
##ناة
##قطة
تما
##اجر
##فعله
يقدم
القتل
الطبراني
القس
تجب
##ليين
##ار،
الأنصار
لمع
التاس
##راسات
مجموع
جوا
والبيه
زين
##وائل
صدقة
##فقة
أوا
سبعة
دولة
المرت
ذكرت
يسلم
ثمن
التعليم
بآ
وتوفي
الإسناد
ربما
والمعنى
##سى
##عاية
ماذا
ضمان
##فرة
محر
##بيرا
##تمد
آن
##قاء
تعمل
##ربه
##درس
##حمر
الخامس
عقبة
أخيه
شا
الحالة
##جاه
نكاح
##فيا
يقر
##اربة
المطلب
شديد
##زو
وثمان
أثبت
دينه
##ادات
##شيد
وتأ
لولا
مكر
##زلت
يصلح
الطي
أبر
##ثي
هما
المحا
##رجو
والست
الأدب
شمال
لف
##لين
##ساء
معها
دخول
وحديث
وأق
رسم
الروح
دل
وقعت
الألم
##افعية
تقديم
تبين
التد
وجمع
يبقى
صي
حديثا
وحا
أصلا
فبلغ
وبد
القلوب
فقام
والإن
تنت
يدعو
كاف
لام
متعلق
والحديث
##يل،
القضا
العامل
##صبح
الحنفية
النخ
المب
أساس
يفت
##نسا
مجه
الاتحاد
المنكر
وسط
##طمة
##وره
المسيب
المنافق
##خذه
##سلمين
الدكتور
بز
فرا
الخال
##ينية
##مييز
خد
يعتقد
خليفة
العالمية
أحوال
وانظر
##سنده
أدى
هن
##امي
الأعمش
طعام
يتبع
##توا
الرازي
المطلق
##وبه
الإد
علمه
##ظيمة
رآ
وعلا
##قامة
##أله
وأج
##اطب
وأف
الثلث
يختلف
غالبا
علمت
العسكر
المغيرة
الفكر
##حيانا
التجار
الأسرة
##ائهم
ينفع
بالف
أخر
تعرض
الموضع
أورد
##رخ
قبي
فغ
يترك
##نامج
عمله
الصورة
الحس
محد
التخ
الاس
هاشم
##صابة
المصدر
طريقة
أذ
أنتم
النور
مرات
ومس
الامام
وفتح
##براط
وقوع
##ؤها
الدارقطني
أسرة
الحدود
اللام
الجنوب
قلوبهم
قضى
##فال
يدفع
كمال
##لفت
محرم
سفر
فإنهم
##ندا
أرى
##بي،
مجرد
لأجل
قبلها
رح
الفترة
الواو
سبحان
يضمن
الصواب
قاد
##ول،
الأه
ومعنى
صال
قريب
##عاة
العدو
##اشية
قصر
كثر
زكريا
زرعة
##طنية
بقدر
سف
البو
##روفة
الإح
أشبه
المختلف
الكمال
##ذج
عكرمة
##صم
الذك
الخروج
سنين
##سطة
المذكورة
اليس
##زين
يطلب
استعمال
نك
##ع،
الرجوع
مقا
البريط
##دعاء
بسم
##عية
المادة
الرسل
الطا
##هى
الإله
الدخول
##حسن
ادعى
أورو
تقبل
##ضت
الفرد
##لمات
المل
##يدي
جما
ثوب
دينا
تعداد
بالحق
ثانيا
النصف
النصر
والترمذي
وهناك
يزال
السك
##ويلة
##واجه
##واري
الحض
##جلد
فإني
أتي
خلقه
مقابل
اش
ملا
تحمل
أمري
العدد
##داب
الوسط
النجا
أسامة
يرض
البغدا
##هنا
##زاب
وكانوا
##أجر
##ناث
##قوط
تبارك
##صاف
اعتبار
جواب
##واية
العهد
##قطاع
أقام
أربعين
##ابات
##خصص
##خصيص
##كات
فار
الاسلام
واد
بداية
##عتبر
تقي
##ئتين
قومه
##ائها
يستحق
##عيان
غيرهم
مهر
جديدة
يمين
ابي
##اوى
عبده
فارس
بيته
بتح
العبادة
الأثر
نسمة
##ئر
##نث
المقا
إشارة
طرف
##بنى
خلافا
النع
الأربعة
انق
الكل
كفروا
كلما
الخطبة
##الد
الصحيحين
سوء
نبينا
العشر
الاشت
تحريم
##نسي
##قها
للغ
الصفات
تقت
##فيل
##فيذ
الأموال
بحق
##بدو
الرأس
العلاء
الميم
البناء
يقصد
##ليت
أى
فائدة
##حوا
##واة
##يء
##ريت
##خيص
##طأ
الاقتصاد
تدع
##لية،
بنفس
عشرين
أفراد
اللبن
رض
##لعة
اتخذ
نط
العرش
كسر
الشريف
مالا
اع
يخفى
##ليب
##ونهم
تصح
##امن
##كم،
##يري
المكت
##احية
إح
##ذاء
ابتداء
الحركة
كره
فرج
جديد
إسناد
واسم
أحق
رسالة
اليه
وثلاثين
السماوات
##طفى
الجديد
بالمدينة
الجوه
فيها،
المأ
##سيم
القديم
##فذ
##ني،
الوجود
أبواب
تعلق
سيما
عصر
##راقي
##ليك
نها
مشروع
##باحة
يقتل
حكيم
أسد
او
رو
##ح،
##ذاك
الاع
كذ
##قرار
##نز
وحين
نوف
الدر
هذا،
أمن
الكوفي
##حابي
##افت
##صن
القاهرة
الكامل
كبر
متفق
الثقات
اللسان
##ولت
وبا
عدا
القراء
ولده
وحم
القتال
القبر
الرأي
القدرة
مهم
يرت
جهن
زال
شرب
نعلم
##خب
الأست
الوح
##لتها
المحدث
##دلال
العيد
##تمر
بدلا
نوح
فرعون
##حكم
عاما،
وعمل
سؤال
غر
شمس
##لسلة
يستطيع
زكاة
الإسلام،
السعود
مناف
التو
الشعبي
إياه
فإنما
النز
الحمل
حياته
قي
##وفيق
##جابة
العدل
أخبار
##ذاهب
هلال
ووا
المظ
##لفة
تدل
يو
يسقط
عرفة
العلامة
الخز
شب
الخي
مسائل
خرجت
يزل
مركز
ربيع
##لزم
وعم
##بيض
النسب
بدم
##فاف
الكث
##يزان
شرك
القوات
لقي
السود
##قاع
##طعام
الخيار
معلوم
الأخير
الشركة
##رحمن
المحيط
##اعات
أصله
##راهة
بدأت
السابقة
ميم
بنسبة
##ريات
##جال
الياء
الجنا
يروى
##ياط
خالف
بأنها
الصديق
يرفع
صلاح
أنكر
الشيعة
ثعل
##غار
جرى
##سته
الهي
يكفي
##تهد
بالمعروف
ولن
##وراة
الأساس
شكل
النسخ
لحم
إنهم
الكلمة
الألب
##روق
يقطع
نسخ
سماع
##ظهار
##افظة
شاهد
##بوب
مول
الربا
يعطي
وزاد
##طبي
بالل
##وانين
وقل
تدخل
وكما
عليا
تغير
توجد
المعرفة
نصب
يبين
الباقي
بعيد
والمش
مليون
الملا
فأجاب
القوة
الغالب
امرأته
حسان
##ارى
الغربية
تعتبر
الصفة
##جوز
##ديان
وجع
##اند
نهر
جاه
وحسن
##قصد
خروج
زهير
##ائط
عش
الجوز
غسل
مقر
قال،
متعد
حذف
المعد
الكوفة
تبع
قانون
##ينات
إعادة
عساكر
ومت
مجتمع
الأحد
صحيحه
اشترى
##سمي
##ولاد
يتكلم
جيش
لتح
##بتدأ
##ذيفة
تلق
الماضي
للخ
بينة
قاضي
ام
ولعل
الطرق
##قبة
فضلا
المملكة
##ريضة
##ضيف
إطلاق
قضية
##غال
ويحتمل
##تالي
تحدث
ظل
سكن
المرو
وأه
الراف
رافع
زوجته
منز
القيمة
مرد
##ابا
الأمريكيين
طاعة
يذهب
البصرة
بشرط
حزم
##شرق
الأسماء
الآثار
ذكرها
مظ
الصحة
المبيع
القبض
يروي
وحدثنا
الأمن
##ادل
عاش
الضمير
واشت
أصحابنا
##فية
أصح
##ذور
##كيد
الصدقة
##ساعد
دراسة
إقامة
الفاس
عطف
للف
النج
ووجه
اللجنة
المبا
النق
آثار
جهنم
الثوب
السكانية
والجمع
##وزع
فكانت
يتنا
##فعت
وذكره
ورأ
##حاك
البغدادي
وفق
يضع
##عات
بعضا
##لمه
بمثل
##ذبح
آخره
خيار
الرم
##تها،
تمر
المساجد
الرسالة
بعضه
الأكبر
##يتين
##جرى
نحوه
ومثل
الدية
تقري
المائدة
أخذه
##اض
أقبل
حكمه
يض
اختيار
المتقدم
حسنا
الاختلاف
درج
نتيجة
المناطق
##غط
وار
منكر
كبيرا
##أمل
سوا
وأصحابه
##افي
يث
قبر
حسنة
موقع
خزيمة
أوله
##انها
##وزاعي
رضى
الصور
ربكم
##هاز
بواسطة
فعلت
صفات
الورقة
##ئن
يأت
قتيبة
##ودا
جال
##ابلة
أبناء
هلك
الفرج
كشف
قدره
##حف
ناحية
والصلاة
وصحبه
الجم
سلف
##عدا
الجوهري
حساب
يدرك
##جات
##علوم
فين
الصحيحة
الشرعي
الجسم
السادس
عقب
##علن
إضافة
##وريا
قياس
كه
وحدة
الشارح
##سيس
##ادم
يبق
الخد
فز
##ولات
وأب
تتم
إلينا
##انيين
الصوت
##صاص
أحدهم
##ائرة
خش
صن
نفسك
##ورث
##كرر
##واق
يموت
مجمع
النصوص
##فاعة
كثرة
كامل
جر
يصير
الحديد
از
ربهم
الأو
أسا
والبيهقي
كافر
##وفية
ركعتين
التاسع
##وية،
لحق
بدليل
ذوي
لأهل
##عان
الطرف
والصواب
نسخة
عطية
لئلا
الظن
المسائل
أجد
المخت
المهاجر
الاص
##انية،
##لوس
##وجيه
##قصى
الكون
دول
##فساد
القطع
فلسط
قرا
الاصل
##رجح
الصيد
منص
السير
المقام
فاطمة
النبى
صرف
##تني
المسيح
تسمى
البار
الوصية
بابن
فدخل
جعله
فقل
بينها
الشباب
دائما
نائب
يجري
##كه
الخلف
الكذب
##رضا
فسر
##كال
الكعبة
##رسال
##صحف
عفان
ترا
##وي،
الأعرابي
جنوب
ويش
بيوت
السكن
بالط
وقتل
ونس
الغير
أئمة
##إنسان
الأطفال
الأنعام
لآ
يشبه
للط
بالاصل
الباطل
المرا
أحدها
دلالة
##عها
الأوسط
وسكون
واعلم
تميم
شدة
العض
##تكم
##مارة
##شقي
بدا
والمس
اجتماع
العدة
الرهن
الدهر
يفر
اثنين
##فات
جهل
علة
عباده
بالث
التركيب
##قسم
الابت
والحاكم
المحر
بكم
الهجرة
الضمان
التصرف
لغيره
الإعلام
تأثير
صغيرة
مار
فعليه
الجبل
يضرب
والأربعة
الخطأ
عمير
السمع
الطريقة
يعبد
الزمن
الكتابة
الأدلة
##راء،
منس
طالق
الجماع
##نسية
الجديدة
##بدل
مباشرة
قدي
تصرف
ثق
النصارى
ويك
أرس
##نك
نساء
المرء
تأتي
##اهدة
الاول
الأخيرة
##لتين
فط
والثالث
الشافعية
##خال
أمي
السبع
##جازة
##عوا
القبلة
النعمان
الفرض
أمرا
##جمع
نوا
وصار
##نابلة
القمر
يفهم
##مرت
تريد
التفا
##ائج
فتنة
واضح
المفت
نصيب
مفهوم
المهملة
تبر
الظالم
##بيعي
##يمم
صوم
##واص
شروط
##ناق
لزم
والبا
##ساوي
##وده
بمصر
فرس
هام
الدين،
##غبة
والده
##ش،
عنك
نار
والعمل
موته
نست
##ثنين
الغربي
المدني
نسي
شرعا
بقول
##ارم
صغير
ونقل
مواضع
ناد
ولأ
##زالة
تفا
لاح
حمد
عبدالرحمن
يخالف
أحيانا
والأم
الخوف
##ناهم
ومح
فيقال
الأسباب
وكتاب
السموات
القديمة
الفريق
ومائة
تبلغ
الأخبار
الداخ
مولا
##طاعة
##لبية
##فور
أض
##بتها
أكت
الوكيل
فذلك
##ذار
وحكم
بسر
وظاهر
ثقات
ذه
الإشارة
فاج
يعلمون
##ولوا
اللق
المقدس
حظ
##كما
##هدى
أعضاء
لبس
##حاب
لقول
يستخدم
طويل
##هداف
ماجة
عط
وذهب
##لاقات
السج
أحدث
قريبا
##جح
##صحة
القصة
##لاط
حذيفة
أعم
##وفق
بلغت
##سيا
النوم
##ز،
وقبل
كلاهما
##خرة
فأنت
عبدا
ورحمة
قضا
سرا
##اما
العر
مستوى
الإف
##احل
يؤخذ
وحتى
أداء
##راعة
يسب
##جية
الجه
صدوق
فكذلك
##عقد
حيا
##ورت
الجرح
##فسخ
ومثله
##بارات
##يها
الصل
النون
شم
عقيل
سيأتي
##فلة
العلة
##شرع
##ثيل
قبول
بلى
الفرس
زائدة
##ذم
##لفه
فيك
الاج
##داة
الصبح
##زاز
##ضه
أمريكا
##ائص
وعشرون
التوفيق
القصاص
##عاون
##سف
كتبه
انته
هيئة
##عتها
حاله
لات
ألفا
اد
الفطر
أنثى
ينكر
العادة
والحسن
المسلمين،
محدث
بالي
##زى
يسار
##قرب
القاطنين
الفات
فالت
عتق
قائمة
ليكون
كتابا
وبهذا
##وهر
##زر
أمكن
يكفر
موج
تظهر
وخمسين
البط
كام
##ستر
ببغ
##كير
راب
يسير
مسلمة
ودخل
المختار
المالك
الخليفة
وقالت
سار
شرف
السياسية
لعب
الدمشقي
قس
جمال
عجز
طبع
العلو
##سي،
##لاه
قرأت
والوا
ترجمته
الحميد
##علان
الروايات
##قبال
الجانب
المركز
واض
الدينية
خصوص
النبات
##حاء
ورق
الهمزة
الزم
النية
الصبي
كلم
السا
يكونوا
القدم
أشياء
السورة
المريض
سبت
##جان
ففيه
الحكمة
الراء
ضرورة
##حاجة
دعوة
ركب
وفاة
القرية
تصل
النش
##لمي
السين
##فاد
الطويل
عاق
قيد
##ربت
المدة
التوراة
الكس
##كندر
الخيل
السائل
عرق
الاخت
أوروبا
المؤمنون
##يساب
##كلة
##وطأ
أدري
##ئب
واخت
اب
نخ
حلب
يتأ
ابراهيم
هذين
الخش
بذكر
ادع
##نار
##يبه
##ئين
وتص
المسند
وأقام
##ذير
الصيام
الحضر
##وادث
بض
برأ
وتقدم
نعمة
مرس
##سسة
##عدد
##سناده
القصر
وأربعين
الأند
النبوة
البيض
تمكن
جزءا
وكسر
المخط
ناصر
يولي
##بول
الزواج
وأت
مثلها
برد
ويحيى
السابع
اتفق
##كاف
##ميم
اثنتين
للاست
طبقات
عشر،
وليست
جعلت
موص
خرا
فريق
الريح
جارية
جان
الأحزاب
فأت
بدمشق
##نة،
##وجوب
تهذيب
سك
بحديث
الفساد
رجب
الهيثم
التجارة
ثاني
معاني
الوطني
نوى
خل
الحص
الذكور
ثمانية
يفيد
##وسع
جيد
حاد
الوجوب
حرا
أخو
تجعل
مارس
##بوه
##ايخ
خذ
واقت
##راها
تفعل
##رتب
السجود
خار
وسائل
عظم
أردت
وقر
قيمته
طويلة
تركه
وأول
بول
عليها،
وأخبرنا
دام
المثنى
عمه
شيوخ
مجلة
دعاء
يراد
أقوى
##ورك
الحديث،
مراد
##جيب
##معي
سهم
##جزاء
##لائل
سوف
عدل
المشار
نجا
بحث
الفار
الجزيرة
##برت
##سون
##حكام
يشير
توا
فوجد
الولي
الإسرائي
يمن
وأد
##فف
معينة
المصرية
خوف
فرنسا
عمي
مجاز
الأحوال
تعلي
عرفت
##حاح
الدولي
العراقي
وسن
##عدل
الاجتماعية
ولت
##ماه
ببغداد
##وة،
ولذا
مستق
سيده
سجد
إخوان
أمتي
ثلاثين
##قيقي
##خبار
كفارة
منها،
النقل
##جهة
حزب
##عبد
والان
المختلفة
وفاته
##حتها
فمات
عون
##سكري
##ومات
كبار
تحديد
أجزاء
دونه
برو
راجع
##ركان
##غرب
##رات،
عتبة
مقصود
واسع
تض
والتق
يقضي
والمح
غل
العليا
##قتها
جار
الشك
فرغ
ومعه
أشهد
السعودية
الأمان
بالضم
قدمت
ناف
الإجماع
إنشاء
الوصول
##ارضة
##ضرورة
مخالف
مخل
##ويات
الرح
رؤية
هات
بلال
عاب
البينة
وصححه
واب
تنبيه
تعيش
لتع
##ارئ
الإنجلي
رفض
أنهما
تستخدم
الباء
يظن
مجهول
قائما
البلا
المجال
##دح
وجهان
##ضيق
##جين
العي
والمست
##ائح
الستة
وسبعين
اضط
ابو
البلدان
##راره
##ومية
رزق
محذوف
يمينه
##لاحظ
مضم
سيرين
##لاوة
تأويل
القرشي
مخرج
فساد
قائل
الوارث
##قيب
العتق
الغر
المعلومات
##صوص
ليلى
انا
##وتر
##ج،
وتخ
اعلم
الكم
الديم
مهما
ابنة
الياب
العص
فكتب
##فاض
صحيحة
عذر
الحفاظ
##ظيما
وام
وعدد
قولا
لمدة
##اهرا
باز
##نها
##وسى
##هو
محمد،
بالكسر
الزوجة
السع
إش
المتأخر
##خروج
الدور
##غاء
الجبال
طلاق
##ئها
للر
تسم
المولى
##خله
##بث
##وحة
يخاف
ركعة
ليل
##ولهم
عائلة
سطح
إدارة
احد
بو
غض
وأبا
ريا
الغسل
قوما
ورجل
##فصيل
الحيض
المنع
الحقوق
##مني
لكونه
##فتاء
بالز
يحسن
الوطنية
##راحة
عياض
##لاة،
الاستع
بأم
الفتوى
##خم
يحفظ
نية
##ريل
حافظ
والتح
كفا
##ابي
حلال
ظهرت
دعوى
يشعر
فضيلة
يصف
الصلح
##عري
حازم
هند
مقدم
##كاية
العشرين
كمن
قائم
غلام
أخذت
##حات
الكاتب
ودع
المعاني
##بون
وستين
##ف،
##براء
##قله
جلس
الفاعل
##رائض
الذات
عملا
نظرا
##عا،
اح
المثال
القطان
الأولي
ممت
##هرة
المطر
##لاس
الذمة
##لوغ
##ؤون
السوق
رغم
بالفتح
##مسا
نفسه،
المياه
##وامل
##خاذ
الجامعة
##واهر
كانا
حلق
التأويل
##ورهم
الدرد
##حان
المالكية
وفقا
النفي
بعدم
الهدى
اي
فئة
حامد
نح
بيروت
##واني
##تة
بالاست
والظاهر
##فير
##تهر
النوا
##خلت
مسلما
##طم
##ضيع
##لها،
سنة،
النهر
##مرار
ولأنه
##تيان
ملت
المعي
قاعدة
وتسعين
مدرسة
##يراث
##ود،
الصبر
##شكال
##لوان
الوصف
السلمي
وإيا
المتوفى
مشي
اللحم
استع
مايو
خمسين
واقع
تسمع
مقدمة
##بويه
فيجب
وتك
##ؤمنين
المنهج
الشارع
فلق
صا
الأعراف
طيب
والمؤ
الأخلاق
يمر
التحريم
##يلان
##قدام
##فضل
##وردي
إخراج
لذا
لست
##جتماعي
التقدير
صالحا
##رامج
##مية
المفسر
لماذا
فاعل
يحا
يكت
##ولين
بسي
مادة
التنا
وسائر
بشير
ألق
##هما،
يرج
الرضا
الشب
يبطل
##جلة
مفر
وهى
##الته
الثابت
العشاء
الأصح
أرأيت
أمثال
حبس
النضر
الذنوب
##نيه
يمس
##خراج
جري
وقام
الضحاك
الوضع
ولكنها
نذر
المنصور
يصدق
##وضح
علوم
بدين
وسيأتي
كش
الود
العلا
علاقة
بطريق
مرتين
##بالغة
فصلى
جزاء
##حيي
##ادة،
الخلي
##بها
الباري
الليلة
##شه
لعبد
كتبت
أكتوبر
يبعث
##قراط
بعدما
ظاهرة
إنتاج
أواخر
الحدث
صفوان
الوحي
قتال
المشروع
اليون
##فوظ
##متع
وأنتم
احتمال
##ياطين
##تح
سد
##ثلث
يعرض
الطهارة
البال
بمر
##ئم
الكنيسة
الفرنسي
كلية
النحو
##بيعية
النفوس
بعين
مصعب
##آء
عدو
متن
##سسات
سبتمبر
الفراء
أوائل
##ازي
جي
يلحق
نقد
سلطان
##ارنة
الحنفي
##اوية
الغز
للسكان
البشرية
العقيدة
مقدار
الارض
سببا
المواد
مناز
مخط
##وعي
الخم
##وم،
ونص
أيضا،
الإمبراط
الكت
##تيه
مشهور
الطلب
العلاج
أمرهم
أطفال
منزل
تتبع
العرف
ديوان
لعل
بينا
شاة
وعاد
يفرق
##بيين
تضمن
الطاقة
##لمان
يهود
جمهور
##الله
وبالتالي
الإش
##منة
المكي
عمارة
مرحلة
وأربع
##ثور
ولدت
الأخذ
جب
المتعلق
عالما
يسر
بحكم
الأجل
تقريبا
أنشد
وقدم
يقيم
ويص
السبيل
##وطة
عياش
ثبوت
مناط
##ابق
جزيرة
تجوز
ويجب
##حرك
##يعة
ووقع
##دها
يلق
معجم
لابد
الثامن
يقف
ووق
##ورها
النقد
واش
التراب
الحكيم
بمجرد
الفرا
نن
##زيل
##لاع
شعبان
ملكا
التعريف
حفظه
وحق
وسعيد
القبور
حيان
ذبح
عندك
المدرسة
##مهورية
##جملة
ذكرناه
الدولية
ذن
كع
الاش
##غض
##الها
اعتقاد
الملوك
##حون
فلسطين
استغ
##فصل
وتاريخ
##اصب
بذ
حدوث
تلف
إحداهما
التب
##هان
موقف
بدعة
لكي
الرحمان
منظ
##تهاء
بخط
للنبي
##ريبة
نظم
حرج
لزمه
والمنا
الفتنة
##مي،
وكأن
عظيمة
العال
منهج
##لوع
الخدري
يدعون
##داق
مكتب
بكتاب
سل
##لوها
الأستاذ
وهنا
تعريف
والشر
##يرة،
يبر
بقاء
نم
وائل
صارت
مفعول
التمر
ودفن
##دا،
##فيع
السياسي
لرسول
##غاني
وثمانين
الشاهد
السيف
يزعم
##ضاه
القادر
يؤمنون
وحكى
المهدي
الغيب
رضا
الحل
الناصر
العملية
لأم
شديدا
ضمير
النظ
##بعه
رجاله
صنف
عموم
لقب
اتبع
شجرة
الفقر
##وعه
حصين
يخت
ويوم
الهواء
الإناث
ريح
المعجمة
وخلق
##زت
بيننا
##ونيو
عكس
##خوذ
والناس
##ؤهم
المجر
##ئة،
طه
الأوق
المائ
عربي
##رجال
بثلاث
ثور
الظلم
كيل
الإطلاق
مثال
القن
لعم
أهمية
الهوى
##أذن
عسكر
الأرد
يهد
##ريقيا
أسمع
السوفي
وتد
حبي
أبوه
##فاة
مصطلح
##قاضي
##قرأ
قراء
تختلف
صريح
##موذج
الخوا
##همية
الصلوات
يغفر
##البة
##ظل
##ويم
غزوة
فأخرج
أولياء
العرض
سوق
##جاد
جائزة
أعرف
وإني
وكم
تغيير
نفع
مأم
وسم
واحد،
ومائتين
يناير
##جري
توجه
الدراسات
سبعين
النب
##ردد
الأقل
عمن
مكانه
انتقل
وتكون
مدى
##قن
قواعد
##قاطعة
تعالى،
ند
كيفية
تفر
##تابعة
كقول
والبر
يعنى
تقل
الزجاج
وتوزع
الشيخين
ههنا
يحتج
مرك
شهاد
##بائر
رآه
##وابه
صيام
بدع
التابعين
عمره
الركوع
حكى
صحيحا
الواس
##بادئ
##خف
وأي
عمر،
أخرى،
أنش
القرآن،
حف
فلانا
فأنزل
سلسلة
الطاعة
أدخل
الشديد
والعلم
التغ
قم
يبيع
فتكون
وأراد
الحاضر
##مارس
الأقوال
وبالله
##عتهم
##سمبر
ونحوها
حاشية
أوس
العلمي
مهدي
وخل
يؤثر
##حك
اليهودية
النح
##خرا
العسكرية
الحساب
##عيه
الجبار
وإنه
والدار
الجار
يبدأ
قدرة
##عده
كونها
القاعدة
هبة
حز
التقليد
##قوم
الأرض،
جند
##فهام
##يسي
تفسيره
##دريس
شرق
الكبيرة
##جور
##حدد
##رامة
حكومة
فكأن
##رشاد
الخليل
العظم
القرب
اتباع
تبعا
المشي
حري
النجوم
الراه
كار
أخت
تطبي
علقمة
بعينه
تأخذ
أدنى
طر
##نساء
أعلام
تثبت
بالفعل
الصغيرة
الصلاح
بارك
غلب
مانع
##وقي
##روك
واقعة
حذ
غفر
استخدم
ووضع
الدرداء
##يبا
##صرح
##اها
الأكل
فرأ
الأزهري
ضم
##ؤل
##رافي
##باعه
ولفظ
مناس
ونظ
##يتهم
وعز
شق
الإجارة
أهلك
بوجه
العموم
فليت
ديسمبر
والعشرون
والتعديل
عوض
ومد
##خشري
الحزب
البداية
وبقي
##جها
عجل
الطفل
المدن
قضي
قات
الأذان
##يد،
##يتان
حجاج
##صلة
الصي
##هلك
القط
سميت
يريدون
الهل
الذا
خان
##روه
تحل
المنافقين
حقيق
الرحمة
##حيان
تفرد
سقوط
##ؤوط
ومالك
المجاز
الشعراء
الباحث
رده
##وبات
المرسل
تقرير
##بارا
الأراضي
والفر
رجاء
لث
مسؤ
##طلة
سلمان
##ويلا
برنامج
##ذري
باستخدام
جمادى
الصدر
لحديث
معك
##طوف
القرى
##ذية
يجتمع
الهداية
الاد
##ئلة
فانه
ضرر
تجمع
أبلغ
القائم
عينه
فقوله
##صفات
اجت
##خابات
وجماعة
فذهب
##نوا
للمسلمين
إدريس
نوفمبر
يحلف
الأجر
الابن
غيره،
ثياب
يخلق
##بيث
فاح
ناس
الحروف
الرئيسية
المهر
النفقة
وطلب
الكلي
##عداء
فرقة
ورفع
الأربع
الالت
الدفاع
والشافعي
##ثني
والحمد
الحديثة
##ضيح
الخلافة
الاب
##قدمة
تعود
اتفاق
الإحرام
قولان
##ركه
مبتدأ
استطاع
معشر
تماما
والنهي
البح
قبيل
منظمة
الصلاة،
فسمع
البك
القضاة
الشرقية
نرى
تعبد
جون
##ومي
الواحدة
وحر
ظاهره
علي،
الفئة
خليل
أوصى
تزال
عديدة
حارث
المفا
قوات
يتخذ
المطلوب
الحاد
حالا
##ائلة
الجلد
وعندما
لعمر
لأمر
مذك
ذاته
انصرف
كتابة
ربا
اذا
مختصر
أيديهم
أجز
الضرر
التالي
المنبر
تملك
فلن
الفلك
أتم
##وبية
يبت
الألفاظ
صلة
عيد
المسمى
أمرنا
لنفس
بألف
شوال
##تبط
الكلب
أعتق
وسئل
حوله
وأنها
يحضر
مؤلف
الآتي
##وصل
النحل
آت
الطواف
وزارة
وجهين
مان
الدال
المقرئ
يصبح
غلط
الأزواج
البدع
وته
فقه
خلفه
اللو
خطاب
فوال
##جير
العالية
ألمانيا
حصول
التالية
والقول
وعثمان
الكاف
أعطى
درا
التعبير
##رجم
الراوي
##فهم
شعره
الأرن
الصوفية
##حها
ولها
إمكان
##عي،
الأوزاعي
فنزل
الآخرين
ميمون
##ائض
تسعة
##ديب
بأنهم
مخالفة
##وه،
وعب
سواه
الولاية
جسم
اختار
الإقرار
سيبويه
البصر
المعتمد
##رون
##سر،
وبي
الأك
أوجه
##ودع
هدى
آخرون
قرر
أجاز
الوحد
##هورة
الواق
المجمع
فلذلك
##عرف
وبذلك
ضبط
معنا
ويخ
بالناس
مغني
داخ
راش
##سات
وتست
##كث
##بوعة
##قلال
تجري
السد
نظير
أنحاء
ليلا
لإن
أبان
##وزيع
كالأ
##جاع
دراهم
فاد
##رفت
صع
##ساني
أقسام
##بروا
بره
يونيو
فأرسل
أغسط
ومنا
قطعا
##رز
##شون
##اقب
أوجب
فإنك
قيا
##وانة
الامت
القضية
##طور
نبيه
قوي
##حاوي
تحقق
نفر
جئت
روايته
ودا
الموقع
جنب
ينقص
الميزان
المهاجرين
كري
الصمد
البزار
غدا
تولى
وهؤلاء
يفعله
الأرنؤوط
مناطق
يوليو
ينسب
للز
الحصول
##راتي
ذنب
جور
##ماية
وعمرو
والشيخ
أنفسكم
المدعي
فنا
ثعلبة
الجمل
أجمعين
متع
تشت
أبيه،
نزول
جس
وسا
وإذ
التحقيق
وألف
##افا
أعت
الشيب
قن
##حاث
الأعضاء
لها،
الروض
وارت
تأخر
ورث
القليل
وامت
شيء،
الوزير
بتق
ويقولون
السلطة
خيبر
رش
يختص
السحر
بكير
الأط
راك
##رال
قادر
ورض
##طت
خفي
الجهل
عس
##وعية
فيكم
وجوده
زوجة
ذم
وردت
نطاق
##بز
الاه
باله
##صدر
##ماغ
الفن
لعن
حكما
وأشهد
فبعث
متعددة
الفاء
##كتب
صغ
أعني
##وهن
المفعول
سنان
كاتب
##لان
صفر
##ساط
مسي
##فون
الحجاز
الضرب
ولولا
جلال
بيا
##صادي
##سانيد
أجاب
ارتفاع
النجم
كريم
##اليب
##شيم
أعداء
للذين
##برانى
##رائع
ملوك
##فك
أليس
##قلب
##ورى
بيعه
ضعي
لرجل
الاجتماعي
##ميت
فاز
ربع
اختلفوا
الوجوه
الرؤية
المالية
قائلا
بإسناد
هجر
ساق
الموس
الأشخاص
ينقل
إجراء
##الج
الدوري
بمت
##لفي
وتج
##دمي
##ضعفاء
يصنع
تجاه
معرف
مصلحة
العش
قولك
وبعث
بعم
وبما
##أه
بالقرآن
##فراد
##ماس
التاء
شار
الدست
وخاصة
وأصبح
بعن
الفرنسية
مبين
الكفارة
السائب
والصحيح
عمرة
المدارس
##خصة
الواقعة
الزمخشري
كات
رؤوس
الحلبي
يجلس
تلا
صاحبها
الحيوانات
الفرع
يحم
##فوا
الصالحين
للشيخ
##ربوا
##نيع
الجمال
سين
عندها
المتكلم
فضيل
الاجتهاد
##اجت
المنزل
وإبراهيم
الكريمة
أفعال
الصفحة
الإخوة
##زيمة
غن
برك
وحدثني
##ولون
الثورة
علامة
الرشيد
##صدار
الاتصال
فبرا
مسح
##ديعة
الثقفي
الأشعري
نفقة
يقسم
مسج
يبدو
الأصمعي
محله
منزلة
##ألك
المرحلة
الكلبي
لئن
وتر
ولهم
والنصارى
##وكيل
النه
بعدهم
دينهم
رز
فكرة
يشمل
الشروط
نفوس
خلافة
الحنابلة
وحمل
وزير
شرا
التلف
يرون
العلم،
المحتاج
بجميع
##ونات
برا
بالمر
وصلت
للتع
فيس
خلي
##ألت
قاسم
تث
ثواب
##راده
سويد
يمكنه
شريح
الفاتحة
الجراح
بأي
لأول
القصص
##افات
المستقبل
ألفاظ
##عيم
ريب
عليم
##رضه
وفيما
مذه
مهمة
##قتال
خطر
معركة
القدس
##لاما
وحينئذ
##ولوجيا
يصيب
والأخ
روس
وكنت
تأخير
حرمة
الوسطى
صلات
فسخ
##شم
ويأ
فدل
الأفعال
الجزائر
##ائز
قار
الأفراد
يدعى
الطبقة
السبت
شأنه
تا
وضعت
والدين
وسبع
##بعاد
دية
النها
وزن
##علها
الحلف
اشتراط
الشمالية
يعتمد
##اثولي
##طباء
ثانية
لا،
فكأنه
سود
أمامة
فيست
مطر
الخالق
البقاء
مرسل
ووص
فعلم
بالقرب
اليهودي
تسمية
خاف
##صبحت
المرك
##عيين
##رفض
##قود
##شرت
الطائ
الأبيض
##ليما
##ظار
الموق
الاولى
اليقين
الموجودة
جزا
الصناع
فالله
عرو
البغوي
##ئس
آب
الرياض
فأنا
المنك
الدارمي
##حاس
بصورة
الفرقة
##تابع
##دعوة
بفعل
حكاه
للإنسان
الجر
##غان
لازم
الشجرة
وكلام
معهم،
إث
المعتزلة
الزي
اثنان
أغسطس
ومش
بمث
تي
التقريب
شارك
يسجد
فقط،
ميس
بمح
والمد
المخلو
الوفاء
يخص
والدي
بحال
عليهم،
##زد
##صرا
الأساسية
تشمل
الرواة
حيات
فعلا
القرطبي
ميل
##واصل
##غيب
عمليات
اغت
العسكري
البخ
##طيني
فسأل
غضب
الغنم
حصلت
لديه
متر
عذ
بمس
سيدنا
##مائة،
سابقا
المجا
الخارجية
وأربعون
هدي
حينما
والآخرة
والجواب
المدونة
غس
يخلو
أموالهم
كافة
جوز
##مم
خطب
##مرق
##بيات
السلاح
المعاد
نصه
##قراطية
##ليها
##اه،
اليت
موجودة
##الجة
الأحمر
إرادة
##جوا
صحبة
تضم
الثياب
##زوجها
زم
ومج
المديني
لدين
##بعد
يعملون
الصباح
يخبر
النقص
##اعته
##رجان
طريقه
وزعم
الروضة
عقل
الموطأ
الكافرين
الجوزي
الهاء
واليوم
الكهرب
##بنية
وقتها
قدامة
لوا
البعث
فيم
الاستثناء
فدعا
وبرك
رأيته
هان
##صه
##وزن
##فارقة
الكلا
##زيه
أخطأ
بكون
وأشار
##باق
حالات
فرو
يهدي
نو
##فتين
إبليس
شراء
وشهد
##اموس
لير
فاقت
العوام
أمته
##كز
تأكل
يشرب
الملت
تطوير
الجنسي
البدن
ترتيب
كاملة
واص
الممت
الربح
وإسحاق
بإن
نادي
فبراير
وادي
##شبه
##نانير
ومؤ
الجارية
تحتاج
كح
تعيين
العمال
عظيما
##هرا
طهر
##ئاسة
شهدت
##ظيفة
الغلام
والأرب
##بهاني
##طينية
الطالب
##قيام
عددا
رشد
وتف
##ادت
##تي،
مخلوق
جذ
ضي
درس
حمله
يتضمن
ضلال
النبوية
المسيحية
نسبه
##ويض
تارة
الشخصية
تعليم
الثواب
الأمين
الفتاوى
الفع
فعند
##سنان
##بوة
##عتم
المتعلقة
المعروفة
##سبه
يدعي
ديار
استد
فقدم
انح
قلا
##بك
فتن
وافق
يشتري
##وصي
الار
هاه
##جراء
##لقاء
فينب
##يفاء
##عظ
والحق
العفو
وللم
ومست
طري
##ط،
يستحب
صناعة
قبيلة
عالية
شبهة
حاليا
الجزاء
وينبغي
أعطي
اتقوا
سكت
##طانيا
منى
ويعرف
بعنوان
مبلغ
ويزيد
المجموعة
##يارات
##وكب
##ترنت
##ضحية
مستح
فقتل
غنم
ثقة،
المسؤ
الدعوى
وها
الدابة
الظاهرة
العشرة
وارث
الحرية
الوطء
والأصل
تنظيم
الشجر
هود
داع
النسبة
المسح
##وارث
الإسراء
خراسان
رفعه
الصهي
قاتل
##غى
الكثافة
فخر
الفقراء
ونصف
العثمان
والجماعة
بالسي
يمتنع
الدائمة
##بادي
درجات
الصحاح
المصحف
المحم
##ضيا
فأقام
أبعد
##ئون
##لكتر
العبارة
لز
بسب
البراء
مسنده
الاستدلال
بدء
شجر
القيس
والأمر
##ضار
منح
وحي
##جلت
أمين
##نق
إت
##لهما
تقد
تعا
الرئيسي
وسنة
القبائل
همام
مجرى
##خان
ويتم
جرت
والأس
اعتبر
##ركون
الأوروبي
البروت
أعلن
معل
تصدق
تخصيص
خام
تعلمون
فأتى
يحنث
عذا
سقطت
نظرية
تاج
##ريقية
صلوات
اغ
عينا
##شمي
الغرض
فهر
أتيت
بقر
الأحداث
قبره
سرق
يعقل
ودين
النحر
الخلفاء
فحدث
##فقا
وبلغت
والتص
يستعمل
ولله
إليكم
وحفظ
والحكم
المعاصي
غرب
وقدر
##فرقة
مقاتل
الاقتصادية
تطلق
بالماء
##قبض
زوال
لجميع
بالصلاة
##وس،
لهن
يخل
والأول
يتبين
خدمة
سع
##بحوث
##وسية
حيوان
فيجوز
الأي
##واك
فانت
ففعل
نمير
##ئته
##عرض
القرا
فرجع
والثانية
الأما
نجي
الاتفاق
بنية
البريطانية
سجود
##عدى
##اهدين
تأمل
تتعلق
إيجاب
سلك
فرح
الحول
يسي
الألباني
##يتم
جميل
الحرة
المسيحي
##لوة
##بور
##طوا
امتنع
اخ
ونزل
بالتح
العثم
##بيك
##ندق
أقيم
للإمام
خدي
الحقيقي
وتقول
الورثة
السهم
كلامهم
النخل
المدينة،
##دته
الهدي
مخال
معصية
الحرف
التعليق
أبريل
قرى
فيلم
وإنا
##بوا
ينفق
وفض
يلبس
قلة
##واهد
##خدمة
المحي
للث
التمييز
الأحيان
والذ
سماه
مجل
##صت
وملك
الشرقي
تقرر
للمرأة
سمعه
التل
للرجل
إنكار
مصطفى
##وفر
ينافي
تمثل
##شل
لكنها
الجواز
نهي
الحالات
زالت
القبول
بعيدا
##بتهم
فوالله
لند
وجبت
الأمراء
نقطة
قبو
العلل
السلام،
##شديد
الأداء
ثالثا
السند
الدنيا،
##ربط
البعير
للي
ناج
أسفل
النبلاء
الضعفاء
برج
##فاس
ويروى
##ليغ
وجل،
الجسد
القاف
فبين
أجرة
العز
الوحدات
عود
اهت
والحا
المعلوم
باشا
محاولة
الفيلم
وقاص
سابق
وأحسن
أعين
يكاد
المعلم
وكثير
التجارية
##ناصر
العمرة
##نبية
الدلالة
##امر
##غو
فوج
رضوان
##طاقة
يحر
انطلق
##واكب
القصد
راشد
##يلاء
آخر،
أفر
##راكز
الحلال
نعم،
منهن
واسعة
المدعى
وبركاته
فمر
ومعناه
فآ
لون
قاب
##علماء
البنك
والمثبت
##تيت
وبيان
البول
##يدان
استقر
يرث
##واتر
تصحيح
والفرق
يقاتل
الطبيعي
الكفا
##يوطي
##وفير
##ناد
##شرط
نائ
بالآ
وسار
##فسهم
الجليل
##فيات
دائرة
##جأ
ناب
دعم
##تبة
##نيات
موضعه
سننه
الفسخ
##ورة،
يمثل
الشت
بتع
يسكن
فكر
##قار
وسيلة
##يان
شاعر
فنظر
##كله
وعرف
وبعضهم
مصنف
إجماع
فاشت
أشرف
ترجع
##ولده
تقتضي
لقاء
فقرأ
تقديره
##ام،
السياسة
منهم،
الفتن
لهم،
المؤذن
شهرا
وكلا
وضم
شديدة
مئة
الأولين
الدراسة
المائة
##واط
الجنائ
الطبيعية
فنقول
##فعه
يقرب
##رن
أحر
السيوطي
الفاضل
المسافر
##اكل
الاثنين
يتصور
الكرم
تنفيذ
أننا
معبد
ودعا
بأبي
نصوص
الوث
مخلد
بأحد
شرحه
كثافة
الصادق
إزالة
##دال
##وانب
وصاحب
الواسطي
بالليل
##بقاء
خصوصا
##هاج
##بتم
##طلاح
قليلة
##قدار
##واضع
بور
##احبه
شيئا،
فانظر
المحل
أنظر
نبات
لفظه
عامل
أسس
المذاهب
الوقوف
مساحة
غي
داره
##أمين
الجع
جماع
عيب
##قلت
العالمي
المؤرخ
عنوان
##وائف
ويدل
يمشي
##خفض
أباه
مختلط
خيث
إصلاح
ساك
النجاسة
##لوف
واسمه
المشرق
حارثة
العلاقات
مصالح
فتب
وحيد
وأنهم
الإنسانية
##مكان
##قصة
مري
وسلام
الصرف
المفرد
خوفا
تشهد
فينبغي
العرقي
##حتمال
الرق
ويذكر
الإست
أقدم
ينتفع
آخرين
كلمات
لوجود
أعوذ
جناح
كأنها
الوتر
مشرو
الامر
##رائب
الشكل
رق
طلوع
التسليم
مائ
البحرية
الاخ
فأول
القواعد
##دار
للصلاة
مقال
ويز
ورجع
الأول،
بلدة
فالج
ظاهرا
الإك
الكلمات
##ديو
الحرارة
البيوت
ليد
##لائك
الداخلية
##زما
الكافي
وضوء
الأندلس
جبال
تشير
##وتي
أسود
##ضرا
ويعت
لهيعة
وجميع
وابت
انتهت
وتط
روايات
باقي
كأس
يحق
وشرح
تأسيس
لى
الاعتقاد
الجهة
##قيع
أولها
بخمس
##زون
##زير
الجزية
قرار
أغلب
##شاب
والمغني
الخلايا
منتصف
قطعة
عمدا
المروزي
ويعلم
##وقت
تحرير
والحر
وزوج
##صرون
الترتيب
تمن
##ذون
##اطر
الإصلاح
الرائ
الإصابة
ستين
##لتم
تبقى
##كرون
قديم
لبنان
##صوب
نقض
زينب
لاي
لعام
##فادة
تعني
الرفع
شباب
تاريخه
صيد
الكبائر
فطر
تحم
تركت
السري
بنات
فوجب
الغد
تمنع
القوى
الأنواع
الخوارج
رائ
##باي
الميلاد
أذكر
والطبراني
##زله
##؟؟
##مره
أدلة
بالمس
الملكية
ايضا
سام
##حش
##تع
وأصل
الكاثولي
رسولا
المحلية
مسك
الثمان
كرم
يشكل
ورا
والأربعون
راه
الثقة
التعامل
غد
سند
##ولاية
##قرير
ه،
اسحاق
الزرع
لصاحب
يعرفون
صام
ذرا
ياء
المصلحة
تحصل
منصب
بتلك
سمرة
##طلاع
وبها
سجلت
عو
صلي
يوافق
الرافعي
معروفة
جهد
الطبيعة
##وتهم
فينا
الشراء
بوجود
ينتظر
المسلمة
العبادات
الأرب
##رها
الحلق
الكهف
هاهنا
##لوما
الشياطين
توحيد
متاع
عقوبة
أخبره
نشاط
خدم
العنب
##واس
##بر،
بكرة
بالحديث
##في،
##ظيف
يدا
لفت
يعتق
بالوا
بذلك،
التميمي
مقتضى
الفرائض
بالمن
والو
المأمون
##ليظ
سري
##امد
##لتهم
الغاية
بالدين
ليث
الموقف
عوانة
##صوم
والتن
والإيمان
فضله
جلد
ومص
المقدمة
##ادي
بالكتاب
مكتبة
سو
جدي
الكيمي
ترت
فسلم
وزيد
ويأتي
مصادر
الطير
تبطل
يتحدث
##عدت
ساد
##خلها
##املات
فلك
الجنوبية
##سبق
صري
السوء
ركن
المرف
أكرم
##بينة
عباس،
زرع
يهودي
##نائم
فحين
الشيوخ
##حلل
الممكن
هامش
مصر،
##ونك
دليلا
ولنا
كب
التشريع
##كي،
المصطلح
العمرية
ترض
فضائل
مور
الوزراء
سيكون
السنة،
الموج
بلغني
المكر
صحته
طائ
الهبة
واحدة،
يليق
هج
رباح
يكنى
تعين
ومعلوم
المطبوعة
##كندرية
##قا،
الثقافة
الأمراض
الطبعة
أجن
كيس
##وست
يدري
لجنة
##هدف
##فاه
مبني
وعق
##قاة
الوسطي
أنعم
التقي
وصفه
أبرز
الصين
قطر
الموكل
قديما
##لطان
سمى
مباح
وكي
حدثت
أرق
الافت
فانطلق
تستطيع
فخذ
السكر
المشترك
شخصية
##ئنا
وأغ
##بودية
السجن
يتحقق
وثبت
خم
الولاء
يقبض
الأسا
المصادر
والظ
يغير
الصال
لتن
بطريقة
بالبيت
##بدال
رحل
##شكل
استط
تسليم
##وسا
##دلة
للمع
بصفة
تابع
المنظ
المحسن
تزيد
توقف
وإليه
##جعل
##ثلا
الواقدي
شريك،
قولي
الغائب
##رمى
##بلد
المشركون
##غون
##مر،
أتباع
سلامة
مخصوص
##زوجة
الذنب
يصلون
ضعفه
القسمة
##حين
مرج
مؤسسة
شاذ
##ندية
ابتد
##ابقة
مدين
تحول
تشبه
تشك
التيمم
يكذب
السفينة
##تن
يتمكن
النجار
##عدام
خلافه
برب
المسر
يراه
بشار
##معة
الغني
النسي
الضوء
الخار
بقيت
اتحاد
بيني
ورك
وممن
الصدق
واجبة
غا
شكر
هاجر
عقيدة
##ؤوا
الترا
المزني
ويوجد
لرب
وظهر
الأفضل
نشأ
والستون
##أنيث
التقوى
##ردة
##لج
##السي
النعمة
الاح
العج
كسب
القاتل
هشيم
العارف
##صيب
بخير
التيمي
وسواء
أفعل
ولع
إجازة
##انهم
محبة
##لبة
إقرار
##قش
حاكم
دابة
##انوية
لله،
##فها
إدراك
باق
جزم
الارت
مالي
قبضه
أربعا
أنفق
السكنية
يغلب
أطراف
ره
فيح
لديهم
##جو
يقوله
إنكم
##حتاج
##عمه
الاز
بسط
بدي
##فيان
سكانها
أرج
تجاوز
صفحة
ويا
بلسان
سافر
##ادته
واضحة
فيقولون
الحدي
المرتهن
يخطب
سعود
الحفظ
غاب
المقال
وعرض
بالإن
##ثمار
أفلا
الفهم
##ضطر
الظالمين
##بسط
التنبيه
مفا
الحاجب
اعتقد
الخميس
سال
معرو
المصالح
الشركات
العثمانية
يكثر
مقابلة
##عاما
الحمام
أخاه
اليدين
دف
تؤدي
##سبانيا
##ؤلؤ
نجم
يتوقف
بترك
كراهة
##قته
##كنت
##امى
مشرك
جوف
##ويج
قض
بسند
منفعة
عر
أصدر
القعدة
اللون
مقيمة
فران
معرض
فاسد
والمص
متروك
ضوء
التركيبة
الخزرج
ذهبت
مأخوذ
وثلاثمائة
والعشرين
قرن
النيساب
بكلام
النحوي
مشترك
##طعن
بشأن
رأينا
توس
العقي
للآ
جرح
البريطاني
لزوم
سمعته
فوائد
الشهود
المنفعة
##وسيقى
للإسلام
الاضط
الاحتجاج
الفارسي
والتأ
##اريات
##كح
وفد
##يعاب
##ابط
ائت
##جنبي
الحضرمي
ألب
الناحية
وإع
##تار
وأط
والإسلام
المظفر
رغ
المسل
الضعيف
أيد
فالح
حملة
##ركوا
تفصيل
##فيض
أوقات
تحتوي
لسانه
الأثير
بالأصل
رمي
ابني
##بهان
##ثنا
##ماح
القاموس
##ؤاد
عيني
المشاركة
إسقاط
الناقة
الغي
منق
وأحد
الدرا
تفت
العظيمة
السبعة
وتارة
##قوت
##رفا
وفت
##دعو
زيارة
وإي
بنحو
كفار
##فيق
وكأنه
فمنهم
الموصل
والكتاب
##فرا
##يم،
والنهار
نعت
صحيفة
بريطانيا
الإنتاج
المتع
السور
ماتت
المحكمة
سائ
العقول
العقود
كإ
لاحق
##قاتل
كلي
هنالك
##اهل
الإقامة
وأصله
##قرا
##شفى
##هداء
العلاقة
الشا
الراهن
##وازن
##قضي
النات
هى
نسأل
الصغ
غيرهما
تسقط
##الين
والإفتاء
ذكرا
##ساك
أنشأ
الحوادث
طوال
الخمسة
مقص
ومتى
تسأل
##عيش
إظهار
الحرير
رحيم
##وصية
##تية
القاد
سعيد،
الغن
اتخاذ
والوجه
الماوردي
لحي
وقطع
يفسد
##صرت
مفس
يعين
الاعتبار
أظ
##بايع
أكمل
##لائق
صيغة
ستر
يعم
وابنه
التراث
التفصيل
المعيشية
##ائنا
##ادا
##تيق
##وحى
لتكون
العطار
##ديات
وبم
بينكم
المعين
عملت
حدثه
القوانين
عنها،
القارئ
خصائص
دفن
الهيئة
البلاء
النيسابوري
معناها
الشري
ممكن
الموض
بصي
فيع
بغيره
وولي
صبر
مجلد
بالذكر
يتعرض
واق
لأنهما
باتفاق
##رائم
##فان
الجمعية
##خاب
الوال
بآيات
##ريش
##خلاص
والاعت
يفتح
المقب
الأصليين
##قدرة
مين
قيمتها
##نيين
اللات
صليت
الدفع
ثابتة
##طات
ابنا
السام
المكاتب
يعذب
حكاية
المناسب
##جس
طواف
أصغر
مكروه
المتب
قلبي
شقيق
الوادي
الغزالي
##رازي
يصوم
الوحيد
احتج
اسمها
##ليون
وأمه
القولين
دريد
مذ
رحمهم
أبيض
##نيته
الطبيب
والدليل
##داع
الزناد
فاعت
شاب
مزيد
فأقبل
تتضمن
##طيل
##اتي
بالشام
الهيثمي
السادسة
الإحسان
قائد
##وأ
لعله
اللب
باللغة
للبحوث
ذكروا
سياق
بلوغ
السدي
فول
يحد
##ثرت
مرسلا
الفروع
بئر
المأموم
درهما
##وتها
فأي
##فقت
الواردة
##غفار
حصن
##ينيات
للمست
المستقيم
الطلاب
الموافق
والشع
عزم
المؤتمر
المهل
تأليف
وضرب
مسمى
##جمهور
##ضحك
وقته
بالحج
وصية
سهيل
ومنع
بزيادة
فمع
العائلة
طلقها
اما
قوا
انها
البه
سح
##فا،
##بوك
فنزلت
##لندا
الأعظم
أمرت
ولعله
أعمالهم
##عو
ويجعل
الركعة
##يرها
الخضر
نتائج
ورأيت
الاستح
الهدف
إيران
طلا
مملو
وتب
الزهد
مالك،
المعركة
##رهاب
خطي
الاكت
مصد
البيوع
الفلسطيني
الإسب
تركها
الفوز
##تابعين
اذهب
##روا
زيدا
مرح
الزرك
وأقر
مسلم،
المخالف
##ورين
##بود
##ناول
سيدي
##ميص
##رب،
فوا
##جبه
العاق
واللام
##بيها
##رابل
الصيف
##فاوت
وصدق
بيتا
بقا
##يقظ
إك
الأوقات
علمنا
خبره
حروف
اعتمد
المتوسط
##بالغ
##ثيرا
السابعة
كد
##اهن
الجنسية
والخط
مقاطعة
##يثاق
الشريك
متأ
##سلحة
##رفعه
السماع
##باطل
##باغ
الحجاب
والات
ويظهر
رأوا
##هلاك
يقولوا
الفائدة
##يسير
##عبادة
المبر
الرزق
بالعلم
للأسر،
النخعي
السيرة
الأصنام
##حوث
خيثمة
الجوا
حرك
التسمية
أحمد،
والمرأة
منزله
عرش
والستون،
استمر
غري
بانت
يعلمه
لأصحاب
مخلو
لاحقا
##ائشة
الدماغ
المتأخرين
ذمة
أعطاه
وسمعت
الهذ
موال
ناز
##لادي
##اد،
اتفا
يعيد
الانتفاع
قدمنا
المحبة
توجيه
إماما
##ناط
المجه
شيخه
بمال
##ؤية
تناول
علو
##جون
الجيم
##عتي
وعبارة
##ريته
##مون
لبني
الصراط
رجلين
المؤمنين،
الجي
##غيث
##والهم
بالقاهرة
آخرها
أهداف
قدمه
اليمنى
ودفع
معن
##زول
العيب
سلاح
وأنزل
يؤذن
##دف
يسمح
##فروا
##ماة
##لامي
أيمان
الكرام
عزيز
الوالد
ماي
أزواج
دلت
مجر
للمس
خشية
نعرف
وتلك
النار،
فضرب
طويلا
الجنة،
##مائه
توضأ
والنساء
طيبة
جام
فأعط
أورده
أشكال
##انات
العصور
الجغ
اللح
معدل
فأراد
واللفظ
ورقة
##رجمة
مبدأ
تولي
شرطا
والكلام
فري
##راقبة
فأكثر
الشأن
توبة
صحت
الرياح
الغاصب
أحل
عزل
##اءة
##جمال
الأجرة
الغضب
السياق
##ضد
##رية
الكويت
لعلي
الهر
##ياع
التربية
المالكي
بلغه
انك
حماية
رهن
الربو
عار
وكت
ختم
استن
والأع
الساح
العقوبة
##ارا
تألفت
الحقائق
آث
مشايخ
شبكة
أرادوا
أكره
##حدى
إياها
والتس
النيل
أكون
بيانه
##واريخ
النم
##اهم
قصيدة
##يوش
عاج
##فاعل
لمس
والاقت
التشهد
اليم
##قتضى
الركن
ولى
##باعة
اهل
##هز
فتاوى
معيلات
##نائه
##دفع
الدراهم
ويشت
وخص
##اخذ
الخدمة
وطل
##راجعة
بكثير
الراجح
مواقع
ويعتبر
بمتوسط
المعصية
وخير
نذكر
##افل
كافرا
تؤمن
المار
الإثم
##خفيف
أخذها
العت
اشترط
تفرق
الدرجة
شذ
الضلال
الإمبراطورية
تعارض
##فرض
##قيقا
##فد
التاريخية
جعلنا
كثيرة،
الخض
العاصمة
وزي
##تسل
حكمة
##ضحى
##زايد
والرا
ووف
إص
طرح
الصفا
جورج
شهود
##ختصاص
هدا
يرويه
واجبا
آمنا
طعاما
يتعين
##ثق
الصلي
واستمر
القرار
الحق،
والبد
سلوك
الواقف
استحق
ووجد
##فخ
الدجال
عنكم
##بله
جعلها
##صروا
الإنترنت
امرئ
وبينه
##داني
الله؟
عفي
فالقول
الطائف
الطبقات
تحر
شرعي
علاج
عليهن
والعد
##رسة
##وتا
يصرف
تسا
##كيم
##ليمة
##فرت
مناق
قاص
الفوائد
منعه
##كنة
خطبة
وخمسمائة
##برية
أرجو
##رعى
ألقى
الوكالة
##ماذج
##باري
يتناول
نبت
##حدة،
تأوي
وقلت
للعمل
عضوا
##فتها
يترتب
صبي
صوته
بأرض
الحاء
##طيط
تصنيف
قرط
هرم
الأت
المعارف
الصراع
حيض
المستأجر
المعجم
النشاط
بيانات
المفسرين
الاختيار
الشاة
الأولى،
النداء
ويب
القدير
اليسرى
قيادة
##دو
الأزهر
بطلان
حضور
يأذن
أصدق
كرة
##الوا
بعلم
تطور
فهد
المفهوم
وغيره،
الهلال
سوريا
##سخ
طبيعة
وإسماعيل
##سنة
##مارات
العالم،
##ائى
الإذن
المستوى
قناة
معه،
سيرة
بمثله
لعلكم
أقصى
صدره
##ساعدة
ولكل
##ونت
تطبيق
أكان
##ارعة
إليها،
الاقتصادي
والمقصود
يبعد
أخاف
فالإ
الأصلي
مساجد
##شارات
السلوك
الرأ
##ريه
وأمره
إست
الشفعة
##صلي
وولد
##راوح
##بوته
صدي
الشرطة
ويغ
الموتى
المحقق
##قيد
##عته
مجد
ووج
ينتهي
الكلية
مشار
حرة
النزاع
قوية
بالمال
قبائل
الأصبهاني
الشيباني
##تاح
الجو
قلعة
وسليمان
##ختم
الأنفال
##دعي
مقارنة
تشكل
##داخل
المبت
تراب
أخوه
تقدي
##راهية
أكثرهم
عابدين
يهم
تعذر
يرحم
بقيادة
تحتها
أحد،
الصحابي
وأجاز
مشك
الأسد
##ذنب
الأولاد
استئ
أحداث
والنا
فوضع
##وسة
فجع
كرا
الوداع
##جزء
أجله
الال
البحرين
أقسم
خلع
المكلف
النظم
يطلع
الفقير
رمى
##ادلة
السعادة
بعدي
##رحام
##جموع
البقر
حاول
كالح
صب
##جهزة
الموفق
بياض
مضي
ومث
انقطع
التحرير
نصيبه
الميتة
الأولياء
البالغ
##حيف
الضرورة
الحادي
ينقض
الني
آنفا
##شيا
لقوم
الأوروبية
الداخل
قبلكم
دقيقة
لمر
محافظة
وأسر
##قلة
فاص
الأفكار
يدر
##ستاني
الضعف
عنقه
الوجهين
الموحدة
جهاز
تعظيم
ظهره
بتأ
الكندي
أفريقيا
مرتب
مند
بالتع
التكبير
التبر
الطحاوي
الكبار
يضم
موقوفا
السفن
المجد
القضايا
رشيد
شداد
وصد
خاتم
الإخلاص
فأبى
الطبرانى
عارض
المرة
تسبب
##صرين
##خمة
انس
أتاه
بالات
يتقدم
قرة
فرط
فرأى
عفا
##وجل
##نائس
##ماليك
سور
نبيا
باطن
الميراث
العود
الآخر،
الدالة
الأمانة
واختلفوا
##صري
##ياز
بإسناده
الحسنة
##نزير
تصبح
##ماك
##لحق
أفت
للعالم
والقر
المضاف
##ابة،
الحربي
أماكن
السراج
بالقول
##شرح
بكذا
السنوات
وأطلق
##ندوق
فجمع
##ضرر
##حيض
شد
استعمل
##غيرات
الهاد
السيطرة
ولكم
##شرات
العقاب
وشي
فإنا
لمحمد
أركان
##ذكار
السبكي
بالض
ويدخل
وكر
الجناية
المجتمعات
التعليل
الزيت
محفوظ
فنحن
ينفذ
أصيب
##جام
##ليله
أوضح
##لوهم
جنة
للمت
الصالحات
يصدر
فقهاء
##وسل
الأزدي
تحرم
##خوان
فسار
الوحدة
فدع
رجوع
##ماري
المشايخ
فوقع
مشكلة
بسرعة
الحقيق
وبناء
يلب
##طون
##طلان
منش
لأج
##لعاب
أدب
الإنجليزية
##هادت
جاءه
##ائزة
الوسائل
النت
دورا
الأصحاب
بموجب
##صر،
قدرته
أحرم
يجيء
##فلان
انتشار
يلتفت
القلم
##صدقة
##ذكير
جدا،
تتخذ
الشعوب
سبيلا
استدل
والتقدير
فقلنا
محمول
البيانات
##قتله
##صيحة
سان
هدم
المحيطة
##اريع
عوضا
أراضي
خس
##سها
كذلك،
تمييز
النسخة
البيضاء
الجهاز
مآ
##كنى
مالكا
شغ
يتزوج
##عمة
ولكنهم
ويرى
الجوية
بذا
الخل
موجب
##قاش
إطار
##غام
##لقا
خطا
العالي
جمعة
والفضة
##غوا
المطلقة
##رارا
المتقدمة
سرعة
تقدر
بفضل
الذبح
##وكم
إحياء
صلوا
يضل
واحتج
##غيل
##منى
##علنت
الطبية
المزيد
السلامة
وزيادة
المحلي
الآسي
حملت
نيوي
السمرق
مها
ميز
##طيف
تذهب
البدل
رقبة
وأرض
أسلوب
وخلف
مؤمنا
كريب
الصامت
جمعية
معلومات
الأمرين
بقل
أولاده
كلب
##دمير
كاملا
البطن
غيا
بصيغة
شىء
##طاليا
التلخيص
ليسوا
صديق
الجلال
فأين
##غيره
والقرآن
ويط
دقيق
##ائك
نام
الإص
صدقت
الحضارة
باريس
##ظرة
تحري
التقدم
##فاضة
##حصاء
فتع
روسيا
غزا
##تبعه
فرب
أخلاق
فضة
تدري
الاحتمال
خلقت
روم
الألمانية
نبه
بعمل
يرضى
القرون
ونشر
طي
##احف
داء
المرضى
بكار
الوقوع
الشبهة
سأله
أمسك
الجب
البعد
مكي
بريدة
أعاد
عقله
وموسى
البعيد
وجعله
شخصا
المهمة
بماء
الفقهية
فلأن
العرب،
المرج
##حيوان
خالق
محتاج
##ضعاف
بالإسلام
البئر
عموما
عامي
وكثرة
##صبية
أسيد
الإدارة
الباطن
أظن
مزا
##رائه
العدالة
بحجة
فريضة
مبارك
الأصلية
##قان
بحمد
يعرفه
الاف
يخشى
إغ
العوض
وحصل
دعوا
الولادة
والمج
##وابط
الحنب
الخطابي
##عمد
يسعى
البلدة
##خفاض
##حدود
أية
بطولة
وصول
محرما
##دين،
أعرض
وعبيد
حرية
وعنده
فقتله
القراءات
ونظر
خسر
##حاول
شهيد
وآخرون
##شة،
باختلاف
صدور
##روري
##قي،
وسع
##وطات
##فة،
العثماني
الشفاعة
أصابه
فروع
وحرم
##الة،
الأنس
للآخر
مختلطين
مدح
شهادته
لندن
قبلهم
أعطيت
اللغات
مفع
صغيرا
والأش
وتشديد
##خن
حمدان
يجبر
لصالح
الإلكتر
نفسا
ويخرج
ظالم
أعرابي
الظروف
الإب
وقفت
##ديك
تقطع
كاد
الغاز
بالأن
الفرات
يعبر
##وراء
الديمقراطية
##ربين
أسقط
العيش
خا
فارق
الفل
وأعظم
راف
المستحق
برم
للحديث
بثمن
أبي،
ذكرته
طف
##الهم
الرعاية
الإسلامية،
مضر
مياه
الحالي
يصلى
صر
فالذي
المفضل
السعي
العمليات
العاشر
تقسيم
الماج
يعطى
الصوفي
لتق
الإجابة
وأرسل
الإغ
##وف،
حفصة
المري
##بهما
سيئة
##الع
والفت
سكر
المحدثين
##وثق
فأح
##ذرعي
بطلت
حث
للمؤمنين
المباح
خات
الديار
واه
والاجت
الأخرى،
بيضاء
##طيعون
النذر
المرجع
##شابه
##جزة
##غية
مردويه
بالإجماع
ضيق
المخزوم
فأذن
قبلك
الأعداء
الداع
مقامه
الإخبار
##ميزة
الفطرة
##خصصة
بذل
كنيسة
طبعة
طبقة
المنش
وحيث
لوق
قضايا
الزوال
ذنوب
كلاما
##ولايات
##فقته
خض
فهما
الشتاء
إثم
عرقين
الموال
يعارض
سبأ
الأطباء
دارا
صحيح،
النصب
عمان
يولد
خلط
تعتمد
لأي
بلده
المكتب
مولاه
##وند
وفرق
يوصف
الأسدي
المتوكل
##مامه
وحج
وإد
الطائفة
ولدا
خرجوا
الصلة
الكراهة
تبا
اجعل
##ماعا
إبطال
الصا
استثناء
يتفق
مسافة
هدية
ويرجع
##نصر
ثوبا
لآخر
الشرف
بجامعة
تعدد
الأذى
ابنته
##قتهم
بتس
استحباب
الوعد
غم
##قيف
المؤسسات
وأنكر
لكثرة
السمرقندي
مؤتمر
أدت
شريعة
كور
مقب
يرسل
ينتقل
##شع
رأت
الفضاء
التأثير
##ظهور
الأنهار
##ولوجية
براءة
ينصرف
##تون
هاتين
الغزو
بالمعنى
وحدها
الكثيرة
جرم
مدير
موجودا
صادق
وخط
##راعية
الإيط
الابتداء
##برأ
الصفار
##ودها
الآدمي
##ائنات
تسلم
ميسرة
المواضع
موسم
استوى
يغني
اختصاص
السح
##وارد
تضع
احتيا
المشهورة
شن
الوزن
##دبر
مدار
اكتشاف
اخبر
المنظمة
##سيط
##يير
##خه
تصوير
وبعدها
ورحم
تنظر
جبر
##حيات
فيا
التابعة
##يرات
القائمة
اسماعيل
كناية
يكبر
لمح
ثمانين
##هلي
يطوف
للمشتري
التشبيه
العمد
تصور
سفيان،
رأيه
أسرع
تدعو
العظام
الحيا
وهن
ولكني
##وت،
ميتا
إعطاء
الجنازة
كالص
مقط
أرباب
فحسب
للمدينة
البين
عبدي
تؤثر
ويسمى
نمو
أجه
تميز
##ميه
المخرج
حفر
المأمور
##قيقه
ونه
فف
شو
ومعرفة
القم
مرتبة
يتوضأ
إرسال
الحمي
الإير
الفرقان
والكس
فاض
فعلي
##نو
فاف
##سبون
##حط
الغناء
حاجته
يومين
المصلي
أمس
لاب
الناظر
علية
برجل
##جمالي
سفينة
تقدمت
##ديت
يختار
وعطاء
سبيله
الكشف
رسل
نشرت
بالإيمان
وينت
الصالحة
انقطاع
النقطة
عبدة
لكتاب
شتى
عاز
تلقى
تنزل
مستقيم
بيم
البرنامج
كمثل
تجز
##ك؟
البلق
وعيسى
راح
المصطفى
الشكر
أفطر
وإياكم
فتحت
الخليج
حلقة
##خ،
الخلال
تراه
متق
الجماعات
شغل
بأع
العناية
وتغ
تام
فرأيت
##ئهم
منقطع
الحسن،
الصحف
الهج
العجز
بابا
آسيا
رغبة
المتعة
نقلا
مسدد
فرفع
السلعة
تزوجها
للمنا
دما
قتلوا
معروفا
##ضاح
شيبان
البرية
فحينئذ
مسيرة
وضعه
تقا
أناس
بالعمل
تشي
ويأخذ
المنذري
التكليف
##لقب
##سمة
بحلول
##كرين
العس
لتأ
بالو
عمرو،
تجارة
وعين
صلح
اسما
برهان
جنات
زواج
أهلي
الشيخان
حديد
##لاته
مدن
نض
وانما
ورأى
ذمته
يستطع
وفعل
##تكلم
##قبول
الجوهر
الفم
مضاف
الوطن
سجل
بدرا
السودان
المنس
أمثلة
والسي
والقا
تمس
##هولة
##كري
موافقة
آخذ
يغسل
يجعله
قتلت
والإمام
الإمامة
##وصول
##منات
##يدر
وتحت
فكما
##كومة
الرضاع
بأيدي
انتقال
##معوا
اغفر
الحرمين
وبل
زر
النظرية
##هله
قدير
المثال،
دوا
حاضر
أمرها
يذكره
بردة
عظ
##قافي
شرعية
الشورى
وقتادة
المبار
فاحت
والقمر
##واشي
التعاون
##ابين
الزركشي
##طئ
##ستها
المانع
الهندية
دفعه
الانتقال
إحسان
العلي
صاع
فأولئك
##جلترا
##ويق
مبت
التطبي
لانها
ملخص
النبوي
##ران
الأوا
وأصبحت
الاستعمار
##ديمية
مملكة
ولدها
هز
فترك
صفوف
بركة
##صله
حمص
اشتهر
بأكثر
الاشتراك
##ارته
الصداق
النفاق
الهاشمي
التزام
##جى
يتغير
قياسا
انع
سياسة
اليمان
##كول
بهن
عسى
آلة
الخراج
##لوي
مراعاة
##جبت
مفتوحة
الإنكار
سواد
التعا
حامل
بلي
الانتخابات
فكانوا
فالع
نارا
##ضاعة
يحتوي
أتت
رجعت
شجاع
##اليف
الكن
الأصغر
وخال
فيؤ
الشعبية
بالنظر
نقي
الأحياء
تخري
برامج
استأجر
الاهتمام
سرية
##امه
وجن
##عمش
كالت
الموسم
##ذروا
بسنده
والنبي
القبي
الأعيان
يظلم
والمسا
العبيد
اليوم،
المقدم
##حة،
الطاهر
أنني
الأكا
الضغط
الحبشة
وبخ
الفلاح
النمو
بضع
حرارة
القلعة
التابع
##قتين
بشئ
الأبواب
##يلون
مناسبة
منفر
النض
خارجة
العقيلي
##وصى
والرجل
بقوة
غرض
##طيه
للنساء
تحكم
الأجزاء
يجر
فالن
وأظهر
بتاريخ
##لكه
حية
تصنع
##حداث
مدر
للمن
##همه
##قولة
الكفاية
حاص
الرمي
نوعا
الدماء
##كنا
وبنو
##ضوا
##فيت
يستلزم
الرقيق
الهمداني
زيد،
اتصال
فماذا
مبر
لمسلم
وسير
باعه
##نعة
الضحى
المسك
علامات
ولئن
تحته
إبراهيم،
عمرها
العقلية
فأصبح
أكله
ورسول
وجها
يركب
المنطق
##اليم
مرارا
وقص
فعلوا
##ضيات
##جيء
الشرب
لأب
مضت
اللخ
كرب
##شرك
##لوبة
الغذا
وعظم
الظرف
خمسمائة
##قوى
وسأل
الهجوم
##بسوط
التث
##لقت
يأخذه
الحسنى
دخوله
رعاية
والتاريخ
نريد
باك
عهده
##شرا
اللغوي
الزوجين
تغلب
##ءة
##بوس
الغيبة
والعا
بيض
الرافضة
تلت
فسي
جالسا
##ليث
أشر
ورم
##رحل
خلقا
قذف
الأقصى
##كملة
فإما
##عدوا
##رامه
جوهر
ترفع
عاقل
الانصاري
الملك،
عينيه
زمانه
ساعات
ويكره
جزر
الحروب
أسألك
##صادية
يؤكد
قابل
##هيل
العكس
وكره
##قيما
إدخال
إيمانا
الجمهورية
##عتاق
الزوائد
الحائط
تخلف
##والة
مسروق
ويقوم
جمل
والبخاري
مذهبه
طاوس
القوي
عدتها
##ظلة
يهت
الصحية
##قدة
ينه
لأنك
الديني
الأمر،
يؤمر
عبدان
دنيا
قصيرة
##حيل
ذوات
معلومة
الموصلي
المول
الحية
الإيمان،
جمهورية
تفيد
الفضة
النط
بقتل
ثمر
بمدينة
رابع
والثلاث
وأبى
للحق
##لاحظة
وأربعمائة
تونس
الأساسي
##شن
بكر،
أضاف
فوض
مراده
طلبه
اهتمام
صراط
العربية،
طلقت
جالس
بأهل
المضم
وأقبل
مولده
زن
##لقه
فسأله
تدا
المناسبة
##ثاله
الأحوص
##قصير
طاقة
ثمنه
والبغ
أنى
##بيدي
الإرادة
العطف
مطرف
وانه
التصريح
الأربعين
تمسك
##ذهبت
والشي
يلعب
للأم
التصوير
للبائع
وثقه
الفاسد
عات
الحكومية
سحر
##ائت
##جره
بابه
القرض
##ينة،
##يمانه
##خاء
##اهية
##يهود
ووصف
جهود
بالان
##قاف
والتك
عناصر
أسأل
هانئ
ربح
##واته
الجوع
العنف
الأماكن
##لاسفة
##وعظة
بصر
انتهاء
المال،
الخدمات
الجاني
المتحدة،
فليست
##امين
الأسواق
لتلك
تنس
تبت
ويعقوب
قوانين
##نتان
حنين
السواد
ليع
للعلم
##مكن
الجند
الآداب
الوقت،
الزراعة
فعن
والتابعين
##ضمير
النزول
##نيت
مكس
ومجاهد
ودي
إياس
جيم
ومكان
أعراض
تحرك
##اصم
##ذبه
يتوب
##بطال
انما
فلهذا
بكثرة
أمها
أراه
يجزئ
لأنا
إخبار
وصي
إثر
العقبة
مستقلة
دق
وجهة
التقليدية
##ينا،
الشهير
أجهزة
الكواكب
البع
رئيسا
مقبول
توفى
سمعنا
أحمر
##بادرة
تضر
##لهم،
دبر
أمل
فتأمل
الأشعث
الحلية
وأست
بدار
محض
الأعرج
مكة،
الخلع
مهران
##غه
باد
المخلوقات
يبد
إسحاق،
المتقدمين
راع
##طاط
الأردن
اند
##اطئ
الوعيد
أرضا
فقيه
وليلة
##ءوس
والرج
السحاب
المخلوق
أنكم
مراحل
تعملون
الصنع
البرلمان
الحبيب
طرد
العرق
ويبقى
يشارك
بمثابة
عبيدالله
وجده
##باك
أسلمت
لذ
السلسلة
والفق
أصوات
لانت
أحا
ظنه
وسبب
الطرفين
مثقال
واتبع
الأشجار
أصلها
المهذب
ناقة
وأجاب
كالن
الأعراض
المقدسي
كسائر
##اته،
السوري
الجنائز
الطائي
##رين
هاج
العناصر
##عاع
إليهما
يشرك
ونت
##ارن
##غ،
تخريج
فالص
زا
لشيء
##كشف
##زيون
##مارك
منده
تصميم
كثير،
فتقول
##ملت
باطلا
بالأمر
يشرع
##نائي
العلوي
البزاز
قرآن
الثقافية
حاصل
الثناء
المجيد
طارق
البشري
توفر
أفتى
شبيب
أجرا
ذكور
كفاية
الكلم
تحصيل
أسن
حادث
وجهها
الإلهية
اختلفت
المدنية
ثعلب
باي
##ريان
يتن
##فعاله
ضل
يشك
نيويورك
مجالس
الأعلام
جمعت
سعة
مرضه
رجلان
##كنه
توب
نيل
الأعراب
القريب
قاموا
وبشر
ثان
القطاع
مواجهة
المرتبة
انفرد
ينطق
##يفية
الصائم
الفلسطينية
حرمت
الجنين
بعير
حجاب
سق
الكتاب،
##صون
منسوخ
إعلام
الإسرائيلي
قلابة
دخلوا
يكلف
الكا
العوا
رخص
##ضور
فو
رجالا
بالسيف
##عبين
ربط
الإيجاب
الرقم
تبدأ
أمراء
المحافظة
لتحقيق
لبيك
وكون
##اصي
الانسان
الطيالسي
دينار،
الإقليم
##طول
##اوز
عذابا
وأر
صم
تور
يفطر
والبحر
اقرأ
جهاد
والرسول
خلالها
كالإ
ثوبه
وبدأ
برسول
وجدنا
الأيمان
##وصاف
مجموعات
##ارير
الاستخ
رفعت
طاف
الزع
السلطات
وأعط
اللم
معتقد
##فران
متنا
##لطة
##قبه
إقليم
بيمينه
دست
##داوة
##آت
العجلي
الحلو
تطلب
واختار
تردد
الآسيوية
##حنون
أخا
والأح
ورواية
كاذ
محكمة
##ارة،
ميراث
##بسه
علمية
##اب،
الاعتماد
انقضاء
##ائري
الانح
اشتد
الأمثلة
وجوههم
##وات،
##جرح
##هدي
فالجواب
خروجه
خلت
الضي
##شين
تصف
المحكم
ارتفع
خبرا
والحم
بإحسان
احتاج
تكوين
قصده
##فصلة
فرصة
معكم
البرت
##وضوء
حنث
تقرأ
سماك
الآباء
لوجه
وأمثال
ساح
ثورة
يمينا
والإع
الإنسان،
##وجين
الأسنان
عربية
يحج
تصد
مباراة
##خلع
يباع
##ضاعف
دينارا
فامت
هذا؟
##هوة
متص
السنين
للمسلم
##زة،
الشح
محال
الشهيد
وأهله
الحبس
والمغرب
الفاح
##يروس
##عاء
##رجات
حذر
ويحرم
الماز
البيئة
الرملي
الأفارقة
أرش
##كسر
##متين
##غرق
الأذن
##حا،
نجاح
##شطة
أوتوا
##شط
الخزا
دير
الجعد
يتجاوز
مهملة
##غن
لا؟
وقبض
##راته
للقرآن
الزمر
##واجب
كلف
الاحتلال
إقراره
جني
طبق
لفظة
هول
التوضيح
حقها
والدعاء
عمد
النحاس
وعملوا
طريقا
أنفسنا
##زاري
مرور
طاعته
عرب
الحادث
الحميدي
##طبق
الإسماعي
آياته
الحوض
##غنى
المها
الاستش
عجلان
كالع
غائ
##ختياره
علل
بعضكم
اقتصر
لأخ
صخر
##وائية
##خار
لبيان
##بيعه
##زان
##بدا
المسجد،
الربع
##ليط
ظلما
##افرين
مسن
لاحتمال
باط
##حلة
##ضمار
ترجم
ينام
##صلين
والنار
تخريجه
عائد
##فش
بالآخر
مدا
كول
تطلع
ومحا
يخال
رأسها
وور
المهلب
منصوب
##قطار
الثمرة
##جموعة
أصلي
إباحة
##لازمة
بالباطل
##ذكروا
والعرب
يؤخر
مواد
##رابات
مسئ
وغيرهم،
لحكم
بالذي
مقتل
الواضح
بإذنه
الأهلية
##ض،
##عدون
الشهاب
الهروي
ظرف
عبادي
والقص
الحكام
فهؤلاء
والأب
نجيح
وستمائة
##جليزية
يرا
ممنوع
لض
أذى
يسبق
##شاط
##ظا
نظرت
تصاني
الطيبي
##ناكم
أبيات
##رائط
تابعة
##حايا
جميعها
الصناعية
التام
صالح،
مكاف
داود،
##ياسات
الجهات
ار
شاع
معلوما
##سنات
وتؤ
واجت
المخالفة
##شاركة
الحداد
##ائعة
الند
نهار
##فقوا
جريدة
التدريس
يبكي
التأمين
بصري
البلوغ
أصابع
الوارد
كمية
##زياء
ظلموا
اتفاقا
الكسائي
النمل
زادت
الجلوس
##جاعة
أرط
الوراق
الحمار
البدعة
المنازل
حراما
بالله،
العوامل
##يب،
المعارضة
##ينيا
فوقه
دمشق،
##مله
تتكون
شهيدا
أطول
يتصرف
المواز
النتائج
التض
بباب
##تيك
وثلث
وثي
مملوك
وبارك
المختصر
محددة
مضط
البرق
##وائي
##ظف
مسرح
##آة
مسم
##يسابور
الوفاة
والتف
ومال
بثلاثة
الأبد
موسى،
نفى
وكلاهما
والمسلم
##قاذ
الهلاك
أخذا
إصدار
منازل
حقي
الجهد
النبيين
##رسوله
تحسين
الأجسام
اتجاه
يساعد
واتقوا
الحصين
اللخمي
مقدر
غياث
الأطراف
الأرواح
والجد
##رأي
شاكر
بايع
ينادي
الوصي
يزول
##لن
لقيت
ماك
تعبير
البحوث
قرابة
الرسمية
##سلسل
مسر
##نيس
جمعه
وتز
وقسم
وثاني
العظمى
##روز
وخر
الأديان
حولها
انف
القائد
شيخا
##رابة
##ولاه
وسفيان
الاستفهام
أليم
نموذج
##يون
يعط
وخالف
العمي
##صاة
ومخ
##مانة
تأكيد
الجنود
المبحث
أيا
سبقت
يورث
وأز
قادرا
نورا
ينظرون
##جته
أبت
طلاب
##برز
المساواة
الرؤيا
الرسم
طهارة
مسكين
تموت
##زوق
وبح
وافت
##أمن
##ظائف
أمريكي
معهد
يدور
وأين
الاعتدال
أبن
المبين
المرسلين
##كروا
الألماني
ومرة
كلاب
تكره
يلقى
البري
تتأ
واستدل
التفريق
فأس
فخرجت
فجلس
##طيق
نبأ
الأشرف
##وليد
توجب
هدف
المخلص
##وقه
خطة
مسب
ثي
الغنائم
أعلنت
حصر
دماء
دائم
قبلت
والنهاية
قصاص
قطعت
##اتبة
وكلما
نون
##شو
للعبد
إنى
قصص
ومغني
##فارق
سعد،
الشام،
مراتب
الدواء
##ستم
المستدرك
حكي
حدا
الخارجي
##فاءة
لويس
تركيا
التغيير
الداعي
عبدالم
الأموي
##ورته
نصفه
الإنس
##تيات
ونهاية
غديان
##ذكره
ليعلم
التطوع
الدلائل
ونعم
صغار
تقليد
مكث
اضطر
##لاها
البلاد،
##بوط
أحم
تسب
رجليه
فوجه
##راتيجية
ثوبان
غنى
ذكر،
طعن
المفر
##أكل
##طير
##ساق
سلمة،
بهم،
وظيفة
##انس
نفذ
أنما
يتولى
##ؤكم
المنام
وشبه
اللازمة
بالبصرة
ودم
##دام
أمانة
المقري
الأنا
حكمها
البرهان
##قراطي
جعلوا
سانت
ساكنة
ضغط
فيهن
##ولياء
الأث
العودة
والوق
ضعيفة
كو
ووال
وكن
لفي
المفس
##ضرار
وقولهم
##لافا
المنكدر
##خيرة
مطلع
##ؤم
حصة
إلها
ويصح
إسلامه
فور
للأن
الماء،
أستاذ
فأسلم
عرضت
هلاك
بيتي
الراش
تصدر
يطالب
عاصمة
##قضت
الخصوص
##ئيا
##نهم
مسجدا
##يناه
عوا
##جلب
ميلا
فأتاه
الفلسفة
دلال
فعلها
اليتيم
المبالغة
لوط
##رفين
التنزيل
بصره
##لز
والسر
والحسين
بام
ماري
وسجل
معطوف
بأص
والحكمة
قريبة
اخرج
الغنى
##رأته
والتش
ومضى
حدثنى
ففيها
تزوجت
فاجتمع
ارتك
الأمة،
فحمل
القوا
الوالدين
الميلادي
غاز
مير
عبدالع
وتهذيب
فأقول
السهو
واستقر
ينقطع
المتح
ثلاثمائة
##يقن
شفاء
##ؤنا
##يضاح
##بتين
##فري
وأسلم
مذكور
##تموه
الصحراء
إطلا
يتكون
الثاني،
الترغيب
جديدا
الأنوار
##رفوا
يؤكل
نزع
والحاصل
عيش
معم
رحمته
##فقات
أياما
صيا
ويرد
والمال
لباس
بتحقيق
رط
##طهر
##خرف
الجما
البها
##مات،
ينوي
المضاربة
يسع
##تل
الموسيقى
##وقا
استحقاق
بخبر
المنافع
##رأس
عزوجل
المشتركة
##أنف
مذاهب
##حرر
الهادي
أعجب
وحضر
##قيات
الصغار
الده
وبالم
والعقل
السلفي
أعطا
ملة
نزاع
المبلغ
ذئب
إسلامية
الشوا
بعيدة
##يات،
##رابلس
الحركات
سؤ
الحرث
##شيع
الزائد
إياك
كسرى
ثمرة
الزاهد
تحريف
بمائة
توهم
للزوج
الحالية
دلائل
يسيرا
يري
مستقب
يذبح
تلو
تحفة
يرغب
تدور
##انوني
ولفظه
كذبوا
ليح
فكذا
أرسلنا
المادية
مؤك
ظفر
النفسية
صنعت
ربها
إسبانيا
##لزام
##دن
الجان
الخصم
##ملأ
المعلق
تدفع
مكحول
الأذرعي
إضاف
##تقى
##كلي
الثانية،
##ومين
إنسانا
جلب
##ادهم
الشم
جاءهم
حملها
ملح
وشرط
الحنبلي
بصف
والتر
محص
##رطان
إجماعا
آنذاك
الجا
البخارى
يتميز
والملك
لفلان
خمر
جمعا
نجس
تشكيل
معاملة
عنق
يفصل
##حقه
##طنه
عبرة
أثره
وبقية
اعتراض
الرومانية
فعال
اشتراه
غيب
وظن
رسالته
صدا
##اهدوا
جاوز
وبيع
لأع
أشرك
ضربه
##روضة
المشكلة
كق
بالضرورة
الحشر
فكره
##وابا
مباشر
أعيان
الحقيقية
أحياء
الصهيونية
ضربت
ردا
زار
فلس
دينكم
##هنية
فلها
العلماء،
وبعده
##رفق
أمهات
##وى،
الديوان
عادت
المحق
جندب
الحديبية
##جنون
##ياذ
##وهب
##متهم
وحسب
عدمه
الشق
##وب،
##وثان
الماضية
دني
الفور
الفارس
بالكوفة
القذف
عصره
ووصل
وأحب
أوفى
بالأم
تأمر
وأعلم
وطئ
جنبا
إعداد
قعود
تصير
يقصر
القشير
ياسر
الأشهر
والعم
الطول
الدوا
وبعضها
بفت
بظاهر
يستدل
فضالة
آثاره
كيد
السكون
رحلة
##غلب
محب
يرك
المفتي
##ابهة
العزة
فالا
أعماله
##الي،
المستع
اجتهاد
يفضل
المجتهد
عدى
القيادة
يقضى
قولها
بمكان
وأجيب
العجب
شبيه
اللطيف
والمسلمين
الرجلين
أمان
وعباد
اللازم
واصل
السابقين
##متاع
المطالبة
التفكير
يستوي
يحبه
الكافرون
التصنيف
،و
يكلم
وتفسير
ونقله
إعلان
والحنابلة
كذبت
يزعمون
بالموت
تصلي
إيطاليا
للمؤ
فأكل
والمعت
تؤخذ
الدواب
معقل
اختاره
أور
التحليل
مخر
##ها؛
الحاصل
التقى
صائم
##فيدة
العليم
الشوك
القومية
أجيب
##صلت
والعصر
##خور
يبحث
العقائد
الاستقلال
طائر
ويعمل
العنك
صحابي
وبني
##جيع
وتعالى،
الردة
##حدر
الشاب
##ادها
قومي
وثلاثة
##خين
أربعون
كثيرا،
الجرج
##ابته
العيون
العمل،
دونها
##طعمة
بالطلاق
##ائه،
التصديق
الصغرى
الفكرة
الجل
واما
زع
##وثيق
شهداء
للذي
وتسمى
يره
يقم
القناع
##ويس
وامرأة
الفريقين
يفي
ياب
الحجارة
الفراغ
المثليين
وضعف
مظاهر
##جزات
الحرمة
تها
يميز
المنه
الحوار
الرحمن،
حمار
صفاته
##مأن
##حام
ميزان
الفنية
بوضع
وقوم
تحب
المقاومة
##شاه
لبيد
والاحت
وعقد
أطاع
الصدقات
الأوس
والنظر
لصاحبه
تصريح
رمض
##راكب
الموضوعات
غروب
الإسرائيلية
الدقيقة
حقق
صدقه
ولايته
وعل
النصاب
##اهة
خمسا
ساج
الثانوية
يجيب
وقا
الفضائل
غفور
فيصير
الوديعة
##ثو
نيابة
كص
للملك
تصلح
شيطان
البريد
السرقة
وأكل
جسد
قديمة
ينتج
اللقاء
خديجة
تحليل
الخبيث
##سيما
عنده،
مدخل
لكرة
الثابتة
محي
##اهري
أخذوا
##طوع
رام
##ذكرة
أسعد
مشى
وشك
يفسر
أوسع
##اعون
##عتك
فاعلم
السجدة
##اهيم
##بادر
واح
العذ
خاصا
ميتة
الروايتين
##ذرت
##ظه
ونست
##رضى
يأتيه
المعاملة
##ديس
رتبة
غسان
يسن
نوفل
كيلوم
العنكبوت
روما
##انيون
الدستور
سرير
عرضا
ذلك؟
إنجلترا
بخلافه
إناث
أرسلت
خب
عدوا
جدة
شمر
بتن
الاعتراف
العبودية
العاقل
الإضافة
غني
سنده
ردها
##وحا
مستقل
البخاري،
معارض
قومك
##رافية
السعدي
العذر
فسكت
أعيد
##ندس
بطنه
وسبعمائة
##لائكته
أوتي
##ربها
باطلة
يزد
سنتين
الطيور
##نتي
العراقية
##يط
والاجتماع
التز
##كا،
##شره
وضعها
المسئ
الأسلحة
ببد
نعبد
المطبوع
وقلة
##ادوا
ناقص
الجنوبي
فبال
الحلي
رابعا
ذرة
##شيدي
المعاملات
التما
المخطوطة
##جاح
##مان،
##لاصة
عيون
الشمالي
فأشبه
سلا
يوا
للات
حنظلة
الموافقة
لبث
الإناء
قولين
المتقين
البرد
متصل
##ائله
متنوعة
العجل
يعظم
كنانة
وسقط
##هدا
الفنون
يتصل
أطعم
التعرض
##طيعوا
##ستير
عنى
بكلمة
بعده،
يتعدى
ركعات
##يني،
الرجعة
البدر
العارفين
##كاثر
المشك
تكرار
إشكال
يملكه
ذراع
فحكم
للض
ولست
بكونه
##ميري
فلت
بسن
الدعاة
تكلف
فقبل
الحامل
الشاذ
فقر
قوى
دعوته
لحا
الصلت
الأسئلة
النساء،
حلت
المكتبة
فصلت
قلتم
بالرغم
لتس
الغذاء
لهؤلاء
أسهم
بجواز
##افه
##فتي
والبيهقى
##وليا
واجتمع
##ياته
##ليمه
نحر
بالرفع
##سمه
والحج
توك
##يه،
سياسية
ووز
##فز
واكت
ومل
دمه
عنهم،
##فاح
اللباس
الفريضة
فحم
سريع
الغنيمة
وأخرى
يرزق
والعياذ
ازداد
نزيل
صفية
وجوز
وأعمال
عبدالعزيز
##ثوم
الشئ
للحصول
اليق
وحب
يوضع
غيري
المباشر
يكشف
البنات
المنح
البركات
لأس
المعم
##رادته
بيعة
الإنفاق
ينعقد
محيط
المزي
##رتفع
يحي
بخصوص
ويعد
ببر
الحراني
ماج
محامد
الطهر
جوانب
المبادئ
فاخت
لحوم
يساوي
مطالب
والسيا
الاعلام
الأصوات
العسل
توزيع
##لهة
##تما
عقود
الآتية
فثبت
التمثيل
دورة
يرم
مستقبل
##قرية
المرس
صورته
بعثه
الكفالة
المرأ
الفتى
السيارة
دراسات
الهندي
للغاية
بصير
زفر
صالحة
خف
##غاثة
تجار
كالش
العبا
والعق
والرد
##رسالة
فأتي
تقتل
تفض
جنازة
##جوج
الروسية
يشفع
مفرد
ووقف
الشامي
آداب
الحزن
رأيتم
وتعتبر
معالم
وسعد
اعتبارا
العدم
أخص
إخوة
مؤمنين
لذلك،
##عمله
قسمين
فلقد
نظرة
يحيي
إسحق
كله،
فسب
مشاركة
مكلف
رجله
الشهداء
لك،
دعوت
بتحديد
وخصوص
##ريقي
الآية،
توفير
الخا
مجالات
مرجع
رف
##فتاح
فرضا
فصارت
الظهار
##فصال
##وانا
صلب
والملائكة
قالها
##كة،
السورية
الأسلوب
جيدا
##طلبه
أهلا
الحلقة
فسد
وشيخ
والتب
الموحد
الجهمية
المحال
المحار
كرد
بالبر
سببه
أسترال
وأك
القطب
وعليها
##قوال
##غور
وهشام
وصفت
لواء
##لى،
الأزرق
وفاء
المسافة
##لات،
استمرت
رسميا
وقوعه
فقول
كأنهم
##قافة
أصلح
لابي
الدائم
فسقط
بجانب
قدرا
الفرنج
##حال
##وائم
الأشج
المخزومي
الأخر
نصا
والرك
والمخ
الآخرة،
زائ
##مئن
الأحم
سائل
الورق
اصط
وتنا
##ناعي
##رمذى
يدخلون
الخزاعي
لفر
مرزوق
حضرت
بقد
خطوط
الدكت
الأيمن
وكثر
صباح
الشدة
عفيفي
يمنعه
وأور
رمضان،
الصناعة
فلين
بالخيار
غرم
فيخرج
##وقة
##رعان
مؤقت
السكيت
فجر
##شب
التخصيص
وإسناده
##سست
فتى
المدر
شعار
والدارقطني
باليد
المعالي
الموصى
##ودية
كذاب
وقصد
متم
##وان،
بإي
تراجم
واو
النفط
نجاسة
القيامة،
للرجال
##اجتهاد
والبي
مرة،
ونع
النباتات
وابو
همزة
كقولك
الكيل
سماء
يهلك
بالنار
الفلاسفة
الصحابة،
دعواه
حبا
##ونغ
التطور
الإرهاب
أصبغ
وطء
النادي
##اقات
يصد
##دعية
المغربي
الفنان
الملكي
وحده،
##بتة
عوامل
اثني
يقتضيه
الأخضر
معجمة
معرفته
والأنثى
بالكلية
الجبهة
يفعلون
غرفة
واقد
المتفق
لفظا
كتابي
وكالة
إجارة
الانق
قاط
العجم
التقرير
البيهقى
قطاع
الهول
حلول
بحم
تارك
وفقه
##الق
يدرس
وصنف
ستي
##جهيز
إقام
تكونوا
التنفيذ
دولار،
مساعد
##سوا
عدن
يطعم
يزيد،
الصلب
يتعلم
الجغرافي
وصلوا
الساحل
والخبر
الرعد
أفكار
وفلان
المقدسة
المجاورة
ينال
الالتزام
رفاعة
والعلماء
يتف
يتابع
وذا
الليل،
##رائهم
ساهم
يوق
الشين
سبعون
##زوا
طلع
العلمانية
##ص،
##سلمي
فأصاب
استث
معان
متابعة
الشيوعي
ورجال
اتخذوا
أرضه
روحه
النفسي
مكتوب
ابا
يمسك
ذلكم
الإمكان
بنصف
أويس
تعليل
تكتب
التاج
ممارسة
العبدي
مواطن
وجملة
موقوف
الاستئ
إذنه
خاط
فنس
الفصول
الحما
الخطر
الكائنات
الاستعمال
بغض
رفي
المنق
تعطي
بتقديم
بهدف
بالعين
##تيال
##سنوي
أشخاص
وخلال
عتاب
بصحة
الليثي
طن
مريض
##ثاء
المواقع
تكر
سنت
عشرون
أنيس
مدارس
شرطه
##وطء
ينصر
للتأ
##سرين
تسليما
زهرة
##فاضل
تسمح
جرا
والحال
##ويف
وكيل
سمعوا
شواهد
حقيقته
بعشرة
الخبز
ظروف
##وائز
الطائرة
##كاة،
##خيير
مليار
قولنا
المستخدم
والما
غلاما
تفصي
الغا
ركعت
الدولة،
وأحكام
المقتول
##غوت
##نائها
لور
ركع
عاقبة
الباقون
##لائي
مبار
ونحوهما
##راري
قلبك
واختلاف
اللذين
صححه
قصير
المكتوبة
##ادين
بدنه
بيوم
ملكت
مشاهد
والدعوة
##لتي
كيسان
##حي،
##دارة
بالياء
سعى
لقمان
اليابان
فريد
وتمت
قبور
##ذنوب
لفترة
وصلاة
##مالك
التحكم
يمسح
الأجنبي
بيعها
وني
الإعلان
##هره
الأدوية
كثرت
الكرماني
الآمر
والشمس
فمثلا
##بادل
فوز
##وطن
وبإ
##ضمام
أبدا،
محاسن
التأخير
أصناف
يؤيد
بحد
الحمصي
اضطراب
البكر
أمرك
أقيمت
القض
فالق
شركات
العداوة
والتم
##أسيس
النتيجة
الثلاثاء
الفزاري
وجز
فرواه
الباحثين
الأخوة
فيصل
للفق
منسوب
فهناك
##ائنة
سوداء
وكفر
وإياك
هداية
##طش
مثنى
فتوى
باعت
قسمة
يجيز
الاتجاه
بعبد
تحويل
حقائق
الشامل
معينا
الخاء
##عنة
والمل
##بذ
##زموا
للأب
والنفس
##بتك
غيلان
العاب
ثبتت
##ريين
الحملة
بالثمن
إناء
وأتى
أشهب
قدرت
يصرح
عث
يتح
##سير
##يمته
امتناع
##خيل
نال
مسل
ياقوت
والجن
اجتمعت
مقالة
الجهني
عسكرية
حبة
الفوا
الإسلامي،
##بطة
والانت
الشهوات
مناه
البيت،
جيل
مكانا
شهرين
يحاول
##فته
ووس
إننا
ويقع
كج
##دلس
إنني
##قلاني
جنسه
الدني
##وسطة
متعلقة
وخبر
يقومون
واجعل
يصر
##واها
##معون
بالنصب
أساسا
ودرس
أرم
استدلال
##كاك
الأجنبية
الحاس
يشق
الفص
##تمون
الحياة،
دامت
ودر
الإتيان
فوات
منظور
تلمي
تترك
الشفيع
العقلاء
وقوة
##ملكة
مسهر
بنيت
##وون
سوار
الأنثى
يذ
الكرة
والسن
يعبدون
##ددة
رقيق
سعي
أمرين
هريرة،
نادى
الأمصار
##عال
المنقول
أعز
يحول
واتخذ
وثالث
زل
لتم
السدس
قدموا
شئتم
بأمره
وادعى
صبا
الإباحة
أنصار
##موا
والتعليم
حائ
نوعان
الكفيل
الغريب
هذ
ضمرة
##ريدة
جلاله
وأخيرا
وغيرها،
والجهاد
##شوا
ده
متح
المنافقون
والرابع
تذ
أيهما
الحياء
قرينة
غيرك
وتولى
مصيبة
نوم
وشع
الأقرب
شاهدا
عروبة
السلع
كتبهم
الموارد
نسمع
بالذهب
وفع
الوصل
##زعة
والقاضي
##افى
مخافة
سنا
علاء
ومذهب
والماء
خفت
سلطة
النموذج
وكنا
ناظر
أرواح
حدة
النعيم
الشراب
العادل
مختصرا
فيش
##قده
يعتد
المسيحيين
##دراك
الانتق
لحظة
##لاغ
الزهر
تصحيف
تخل
بإس
البجلي
الأنف
وآخره
والعب
خادم
ورف
وجعلت
تضرب
البنوك
تزل
المقالة
##وني،
تنازع
ورسوله،
ومحل
المعز
##حرى
يرده
الطفيل
محرمة
##ماته
روينا
البلقيني
جوابا
أعمى
المني
السريع
أحفظ
##لكت
إيجاد
الأوراق
##وطي
المخد
وجلس
كذا،
##ظنه
##ليدي
أبنا
دب
ترجيح
##لفات
التحت
ممد
الرو
##فر،
سيار
النطق
الكاملة
المتنا
الجامعات
تخت
مررت
بوس
ساحل
أنزلت
فظهر
قراءته
بالقدر
المنعم
فسأ
تقييد
مركب
##طرت
وبت
ودليل
فدخلت
كفى
الاغت
##فضيل
فربما
العراق،
بحاجة
##ذبين
دينية
##زها
سحنون
لعلم
##وراه
الكلام،
دواء
نطق
يؤتى
تربية
انش
الدعم
لسنة
اف
##لامه
والمق
بوص
فوقها
آلهة
أساليب
البرامج
استمرار
الجنب
التأكيد
بتك
التركة
جميعا،
الهذلي
كالس
نفا
##نائية
الامير
بست
جعفر،
مسلمين
##نوع
الزراعية
الجيل
والأص
الحكم،
مبنى
الشبه
ونصر
ونقص
الوصا
وأتم
شت
المعل
تكرر
دعي
المركزية
##بداع
أكد
بتص
السيئات
المصير
السيئة
ضربة
بزي
بيدي
مشهورة
ووض
##مهيد
فذكرت
الجهر
##وهوب
الجذ
مأمور
تنفع
##ذبون
وبنى
الصيغة
ليم
##يتا
محالة
##صق
فيلزم
معاد
فيل
الكام
وصفاته
آمين
يتصدق
##عيته
جير
السيارات
##ينت
الأرق
الجمه
فسوف
بخطه
الخراس
متك
الزرق
##وضات
للسي
جنود
الصبيان
أنظمة
يذكرون
ملائكة
المسلحة
يسا
مجازا
رءوس
##وجي
وخالد
فيدخل
فإننا
المنصوص
##ينغ
الإسكندرية
الملي
ضعيفا
إير
يفس
##خفضة
##ستي
فأخبره
استخلف
##واحي
الحبل
الممارس
الأسبوع
مستحق
لكونها
##امية
الرمل
والذكر
##جلا
ترب
##زي،
أرا
بكت
جيدة
المقط
وتعلم
انضم
وبأ
بالنبي
##ائكم
الايمان
أقرأ
لعموم
اصحاب
لتش
كالج
الكاثوليكية
الأخت
والأولى
والأحاديث
والعبد
وتعد
والتد
وحماد
##واقع
عرضه
الشبكة
##كوم
بالسنة
##مى
للكتاب
مردود
العاج
المصباح
فأمره
وذو
يرتفع
##حته
يسبب
إتمام
الصريح
وبك
استشهد
إيمانهم
اطلع
يحيط
جسده
هبيرة
العالمين،
امرؤ
##قاليد
عندكم
وأولاد
جحد
الحصر
بوجوب
##منه
للان
وعائشة
تامة
مراكز
صادقا
الخف
فاعله
ببيع
تصديق
رائحة
العروض
الجنابة
سيل
الرش
وشمال
وأهم
ثابتا
شرحبيل
أولم
التقييد
##ميين
أوص
مستويات
تذكرة
يطول
مخالفا
يعتقدون
بالبيع
يعجز
كلثوم
الذهاب
يخاطب
يقتصر
العاملين
مشقة
##صالح
##منوا
ينهى
ديني
تتع
هير
الحباب
##ويب
مجلسه
صفته
وتشمل
فمتى
الرسائل
وأخبرني
المحرمات
حبيبة
##لتان
##صارهم
الأدنى
المشاهد
التوجه
حط
طيبا
حوش
والأنصار
فظن
المرتب
التركية
طبي
فالمراد
وطائفة
نيته
الحائض
آباء
فارت
ذرية
بموت
##قطعت
##ذهبي
##اري،
فقطع
وتسع
والعشاء
يحقق
ومنذ
حوادث
مقاومة
فصح
البتة
حالهم
وآل
الكشاف
شريكه
لزوج
والثوري
##بنت
سميع
مطلقة
تنتج
هجوم
المستخدمة
المجلد
رحمهما
اتهم
ميمونة
ليال
البلاغة
الكلاب
ملايين
والسلام،
اللعب
النصرانية
الأعمى
المجهول
ببل
حبل
##قاية
التاسعة
قرئ
وضبط
وفيهم
أعداد
وسلامه
الإت
##ياح
##دران
هلا
بقصد
غصب
وجعلنا
##ؤمنون
منافع
##شئ
المدائ
مرفوع
الفكرية
أساسي
فكم
##قراره
تقولون
باقية
بالألف
قمت
خبير
القرآنية
فجعلت
ويلزم
آراء
محطة
وقضى
أسرار
##زدق
طور
يميل
قاس
الدقيق
اعتما
والفضل
القائلين
التلاوة
##رفون
الجنيد
المؤسسة
العمري
##سره
خت
##رائن
السرير
واختاره
ومسا
مطلوب
الجيوش
خيل
الليبر
المهد
الموصوف
أكن
##كونة
وبالإ
تكت
##يتي
اختبار
صريحا
منكرا
إمامه
طعم
المحفوظ
العطاء
روضة
##لوى
بولاية
ويستحب
وكف
طلبت
بغداد،
لكنهم
يصب
خرجه
التنظيم
يعدل
لغات
##كنولوجيا
الملح
الموجب
الذاتي
فليتأمل
معالجة
ونصب
اجتمعوا
انهم
سبل
الشريفة
سجن
ويف
تدبير
مناسب
تغي
ذب
الطين
عثر
جف
لذكر
##فرغ
الطور
مشاكل
للإناث
##ختصار
فجاءت
الموقوف
##اربه
كانون
ينص
والعمرة
جها
قريشا
يسمعون
السطح
##منت
خلايا
الذاتية
واجه
اختلفا
فاته
مسلمون
وظاهره
لجواز
طلقة
لاحظ
المنورة
والأخلاق
بوصف
مربع
ينقسم
النفل
الرسمي
يعيشون
عماد
النفع
محتمل
يدك
فأد
##طيئة
تتميز
دنانير
مبادئ
تكاد
كالتالي
الثقافي
وكس
أيما
استعماله
الإخوان
الأربعاء
وصرح
##جدد
جئ
وأثبت
الترجيح
ساعد
السعودي
صدرت
ذهبا
الشيرازي
محسن
تستعمل
الفهر
##حظ
##واتها
تقولوا
المنظمات
وول
##قدين
ويحك
يتوهم
يزوج
هب
تنتهي
تدعى
فقالا
نسلم
الطلبة
الحلم
الخلاصة
الغرماء
القطر
##جنب
قوت
النقي
ونها
وفضل
وانصرف
##انم
ورغم
الرغبة
اعتماد
##ردت
باسمه
معارضة
للتح
بالملك
فظاهر
حلالا
بعدد
مضمون
وجوبا
أقوام
##جاة
الفتوح
##نمية
الداعية
##هيب
##وظ
فراس
المنهاج
شامل
الإج
تبوك
مهد
ناص
وجودها
بحرف
بمقدار
سخط
الجزري
محظ
فأنكر
مشارك
التصوف
أجره
زعيم
السلفية
العصبية
##صيان
عصمة
لدفع
قبيصة
ترون
##بوية
شريف
بشهادة
يضاف
ريال
ثمة
وبو
السرية
إيمانه
البنت
كلها،
قادة
السرا
وأو
##واجد
العماد
والإحسان
فولدت
هرب
مليكة
يحيى،
رؤيا
المؤيد
وظائف
وورد
المجاهدين
باليمن
محذ
فالواجب
المباراة
##شتراك
الرومان
السارق
الأبيات
تري
جو
رسائل
تساعد
ذكرهم
##رهن
خدمات
##حمده
واع
فعرف
يرق
##انيه
تقضي
المحد
البرم
بعب
يشار
السيدة
المغازي
لمالك
علموا
بعقد
جاءكم
مذم
سيارة
الرومي
معط
##يادي
مئات
##يريا
غفلة
##فيها
##وجة
الركعتين
##طورة
هوى
والمغ
الدورة
##فوع
الكريم،
محق
الوهم
الضبي
المعاصرة
##قرر
للحكم
الثمار
##انا،
الجوي
والقياس
غائب
##ورو
أري
المقابل
يليه
قاض
##ربون
الوسيلة
الأصم
المعتبر
والصفات
الملة
##لافة
أدركت
الحجم
بجمع
زنى
الخندق
التحالف
##مده
مبينا
##ايا
##لتا
لمعنى
كأنما
لحاجة
كائن
والأد
##صوا
سبعا
عملها
شح
الصاب
قعد
##غلال
##حويل
##نائع
الجدار
جاءوا
مصح
يساره
بالاتفاق
المبتدأ
البيعة
الوحيدة
وشرب
مخاط
بقوم
تهي
مسير
##ذربي
بعد،
##سيد
##راتها
أحضر
أقدام
فهرس
يسأله
معاوية،
افتتح
حزن
##ميات
جمرة
وماله
ولان
التفت
وتبعه
متعم
##يلة،
أصابت
التشريق
لاختلاف
الموت،
الإجازة
##طوير
##ديها
وأقول
وتقديم
يعانون
المدح
الصحيح،
فيحت
اجتها
ملم
والجملة
الطعن
وأل
استخ
انتقلت
توق
وجهك
عقيد
مشتركة
راهويه
الحظ
المتاع
وليت
تناقض
اللاتي
فيأتي
فقير
أسبوع
بشدة
##يرية
الرجل،
تعمد
##لالات
##ذره
والكا
الميل
المباشرة
الديمقراطي
##تهم،
##صارا
مريضا
##ابها
الصع
##حاطة
رخصة
الشافعي،
##ديقة
أرسله
الساق
الشافع
بأعمال
الدرس
وعي
ومق
بالذات
الله؛
وولى
الخفي
أغنية
الرطب
##بارته
وعبر
والقدر
رحي
لأكثر
وراءه
وحلف
أضل
يقارب
عندهما
برواية
اعترف
آتي
أجنبي
##لاقة
وينظر
زرارة
الزوجية
جناية
سماعه
والضمير
بلغة
النقود
وثم
الأفلام
تصيب
بالمت
##شي،
##لسنة
قثنا
##يقية
زعموا
منيع
ازد
حمر
أخيرا
##وائج
يكف
##ولة،
تقريب
فانصرف
نهج
فقات
القرنين
طفل
##صين
إحصاء
الأمل
وتاب
ونفس
والتج
##رىء
الأنظمة
أعلاه
##لاء،
ذراعا
الاعتراض
##رنا
##ضرات
الشعور
##سله
مطعم
إلغاء
الخير،
المراب
الشهوة
والفعل
يستطيعون
العقار
كفرا
طاب
الكوي
ولمن
أعي
تساوي
البنا
قتادة،
الحرب،
المغصوب
المناه
أمراض
كذبا
يأتون
رتب
العضو
إمكانية
ترق
القاضى
أفاد
أحببت
##معت
المنزلة
يتطلب
التدريب
وطب
نشأت
متأخر
##ظى
لعلهم
يروا
شف
اللحي
والقيام
وأقل
##فرون
السوداء
ففتح
طلبة
الديون
واشن
مبنية
سلعة
محبو
بهاء
وأفضل
اختلط
##يكاني
الشبهات
الجواهر
##تبين
بالخير
##شعر
استقل
اللفظة
عرفا
آي
ويثبت
وصارت
الليالي
تهد
أنب
البدي
##بقية
بطلب
وصالح
يزداد
فث
القصيدة
##زح
##بلوما
العساكر
ساكن
الطائرات
فيأخذ
تجر
والته
##حتين
ومصر
التيار
جوازه
بصد
##انين
##أمر
##خرية
شاهين
قبوله
لأبيه
##انيات
فائ
##صام
بالذ
أراك
تطهر
وسكن
عدلا
وضعفه
بالنفس
##لوت
الحيوية
تفس
##سنى
للنا
يعمر
الاعتكاف
فاتبع
انتفاء
بقايا
##سقاء
ويريد
السماء،
ويشترط
##وائر
الغم
شركاء
الثدي
بيل
##بش
بمش
##أب
الناتج
##ثوذك
علمي
المبتد
الصير
بالتأ
بيتها
وتحقيق
مساعدة
سط
وجوبه
فتت
ذهاب
المنتخب
ألي
ينفي
الخول
البدائع
الريف
الفقر،
القربى
##كيك
بطون
عملوا
##بوها
ملأ
منبه
الشخصيات
تعدي
مطابق
استقبل
الحمى
فغضب
وأثنى
##سيك
نقلت
##خري
الأبحاث
سليمان،
يبني
وإقامة
##قلد
وجاءت
نواحي
القران
موافق
نهارا
بيانا
##لك،
معتم
دوري
لصحة
الفاسدة
قح
الغف
سريج
الطويلة
حادثة
##ليو
البكاء
مسعر
يناسب
##ئاب
ومأ
ونهى
بضعة
##عمون
والأخرى
فشل
معاهدة
وألا
الغابة
##زته
يخلف
بذاته
زائد
الطوائف
المشارك
المجيب
الإعراب
وبقيت
##رائر
النصيحة
هنري
تفسد
والور
المعارض
المتعد
نظره
الدخان
المجموعات
القشيري
حاس
##طيفة
ألحق
المولود
ارجع
للدين
المتعا
اثنا
فالك
##غتسل
واشنطن
بمنا
المشاكل
فليح
وليه
أتوا
البابا
الكنائس
المذكورين
العنصر
التنمية
القود
يتجه
##بيحة
وعظ
الثعل
##قلها
ورئيس
يعطيه
وحال
المصرف
تابعي
روايتان
الأغاني
يكونون
ورود
##قذ
والسجود
مواقف
فاطر
وركب
وجزم
التسبيح
اليسير
ذنبه
##مائهم
##هيد
##ؤا
الفرصة
فيصح
الكسب
##وقية
##طنة
الأمثال
أوت
وجابر
##رويج
للقاضي
##لازم
للمح
شارع
البركة
##وفة،
##رافات
استيفاء
تركته
رئاسة
طبيب
الطوسي
الأرحام
تركيب
##عيفة
##يتك
كافية
للإن
معلم
##غف
##فاك
وقعة
عظام
ويعتقد
##ث،
والواجب
تدريب
##سال
المبسوط
الشرائع
المفصل
اليونانية
سره
بذي
##وجبه
غسله
بحسن
والفقه
وسمي
قرآ
سياسي
تشبيه
عام،
المسم
تشار
##اليين
تشرين
الكسر
وسوف
اصطلاح
أستراليا
أعقاب
وجدوا
سيئ
الأهواء
##بغة
التهاب
يباح
##وفه
بإع
الشمس،
بولي
فاضل
يكمل
يواجه
وأشد
صناع
شراب
##نته
ومط
##جران
رضيت
راحل
ولح
خفض
صائ
الإذا
منتخب
للرسول
مره
الملكة
الامتناع
النجاة
بعينها
فطلب
اخبرنا
وسأ
أمك
يغتسل
يرمي
والجز
إجابة
جدار
##جاني
الصدور
##ثات
ديم
ووافقه
يخدم
ذؤ
قصور
##مأنينة
سبحانك
عرفوا
غف
والكل
الأظهر
الحش
مفتاح
والمشهور
ضلالة
بتشديد
التمهيد
##فره
فرسه
تجربة
مئ
الأهداف
الناسخ
بحي
##الس
الإجراء
والصالح
الجاهل
فكنت
بملك
أجمل
حرفا
واضحا
الأرج
وحل
قنا
##ثرا
الأوثان
الميقات
مناك
الطيبة
للمر
خرجنا
##يرون
الأبصار
تسعين
الأنباري
ممتنع
##هانة
معتبر
مكن
الراية
##سوقي
النبي،
أمامه
الأولية
احتجاج
##خى
الإنجيل
النهائي
موز
##كر،
الخس
##غنياء
##صيح
الطبع
بالعقد
وحكي
##يمة،
للتن
بالرج
الزور
ادخل
شام
يحسب
مشغ
بالواو
الشاط
سعر
وعده
حائط
بوق
ونسب
مكانها
وغالبا
المولد
نفوسهم
حيز
يفرض
##ادتها
البطولة
##شيته
سنه
لعنة
خالفه
أوصاف
وكفى
القومي
الدرهم
نأخذ
##جلى
##وبرت
خاض
لضعف
##حاة
واعلموا
دال
استق
مستع
يعقد
غزة
شأنها
قضيت
بلاء
##ماها
##براطورية
صاعد
ميثاق
هذان
حياتهم
اقترح
العباسي
وذاك
##يما
الأصابع
##ونيا
تلبس
وأحيانا
##جبال
أخته
تاريخية
جميلة
يلي،
##خسي
وبينهم
الراشدين
دنا
والإنسان
وخصوصا
يأكلون
تعديل
تخاف
الورد
وعلوم
ثماني
فاتقوا
دو
مقيم
يومه
##لطف
ينته
المدى
فأحسن
بحلب
العباب
رزقه
##لاقي
أجود
التزم
##باشر
والعراق
المحب
أمروا
بالشيء
والثانى
رياض
انتها
بالمد
وترتفع
صعد
##فيين
فتم
أظهرت
كراهية
ذلك؛
المجنون
الضم
##ماثلة
فقيها
الداخلي
##ئوا
قتي
البت
ثلاثون
الصاغاني
ندب
##فتهم
وعلمه
##ديون
حكا
بعلمه
##صحابة
##ابرين
##ائيل
مرث
تابعه
تيسر
##صفه
تفتح
تقف
ثني
أقف
##بدوا
اللعان
جبلة
##سا،
##لقوا
إبل
طرابلس
##يناهم
شعرا
خاد
مبالغة
بنص
النووية
قويا
نماذج
وكذب
وفس
##بلها
ويؤيده
بقطع
عثمان،
الحال،
والهي
بقيمة
تأثر
المطالب
النقاد
شبر
التجاري
النجاح
العمارة
بالكفر
حصته
##ومة،
شطر
انخفاض
تلم
عاشوراء
الصنف
والكسائي
##دنا
واستح
##امس
الإنصاف
عجي
العزم
##طنطينية
##جبة
بالخط
القانونية
ثيابه
الطاعات
والباقي
العثور
واضط
ستكون
تأويله
طار
موارد
العروس
التوكل
الحذاء
الرجم
مشكل
أرك
فها
رؤيته
##لسي
المره
المحافظ
القنا
رأسي
المشرو
قطب
الرياضية
يعاقب
تأسست
##ذرهم
وأنس
يفوت
أيام،
الأجهزة
دعاة
شرقي
حزام
الكهربائية
أدي
كالك
##فرع
المعهد
ذري
أبيها
والرق
القاري
يقينا
فاذا
أخرجت
واستد
صومه
الإثبات
##رائها
##اعا
يستن
يضره
##باين
لمنع
غال
##رياء
يجدون
بولا
القناة
##واجا
يخرجه
##وافقة
موسي
##اور
##جة،
وسكت
اكتشف
##يرك
ويبلغ
الأصولي
وجعفر
##وكس
التركيز
وأخوه
صلاتهم
الطائر
الديلم
لأحدهما
طلعت
##زيين
الإمبراطور
##ستانت
جزي
ونشأ
الصوف
فهمه
الثمر
أضعف
بالقتل
فأتيت
ويطلق
بمق
جيمس
ملاحظة
##رجاع
اك
استي
خرق
أوق
المسلمون،
والطاعة
العبرة
يدخله
لليهود
قوس
المصاحف
البراءة
الهيثمى
جنى
يتحرك
تعدادي
منتهى
تحد
##ظها
يستمر
أفسد
شريكة
علاقات
الربوبية
##يفور
##هده
حمير
والإك
أذا
##لاثة
فلل
نصير
ألزم
مدع
فاضلا
بالعدل
وتخرج
بعثت
ألوان
ثالثة
لذي
وثيقة
أخف
##لائه
العو
الذمي
قاعد
استغفر
عددهم
عازب
العاشرة
##خارى
أعرفه
بعض،
القاب
جين
الاخر
بعرفة
مون
أير
كفي
الساج
حرملة
ومك
النجاشي
كليب
لهب
وجعلوا
وولده
جزاك
يستغفر
##صان
##رادات
حمى
ويشهد
فجاز
المخاط
الصعب
أفلح
المدا
أفي
التربة
عنصر
الرقبة
فركب
كتبها
خلاصة
##صات
وتوجه
اعترض
جح
عذب
##فرج
يجعلها
تمثيل
والمروة
ينبت
واز
التدبير
قبة
بصح
أذهب
##وبري
قريظة
المحمد
خفيف
الطيران
فالظاهر
بضرب
الحمراء
فأقر
المحسنين
القبيلة
وتو
إصابة
##ضون
صنعاء
الصعيد
المتمر
##ريابي
العام،
الرحلة
##زاع
الأخفش
اتفاقية
المور
بقضاء
بظ
الأضحية
الآن،
ابتدأ
غص
##روى
##اخ
اتصل
وتقدير
نقصان
عشرا
فروة
##ليفه
المواقف
الظنون
للأمة
الحسنات
كذبه
اللحية
##شروا
اق
##هورا
واليهود
الزاي
بلادهم
إليهم،
##راكي
##قلين
الإمارات
السباع
البحر،
والسب
فقيرا
سنويا
السمعاني
##اهدا
وماذا
##سرع
الجرجاني
سيت
بحضرة
الخشب
المشقة
الزهري،
الذم
أهمها
مقالات
فغير
##اين
بينهما،
الحنث
الخيرات
ألو
النقاش
استقبال
بمعناه
وقامت
المرأة،
الأمطار
الحين
الحط
ويسلم
##وجهة
المطاف
وعاصم
الاستثمار
وأولى
بالأس
أعناق
مزد
عقاب
وكثيرا
الحضور
الأيدي
اليمامة
ودون
الأعشى
وعدمه
بالجنة
المكروه
المجلة
البلخي
راية
الخنزير
يخرجاه
خث
##ووس
##ريخ
بمنى
المحرر
والصبر
والنسائى
فحذف
##لوهية
وطريق
التقسيم
قبلة
المرفوع
الرخصة
خلل
ليش
لأحمد
وسر
بفض
شفع
##سيان
الغصب
مهاجر
بجامع
لشخص
منطق
والمط
##رورا
فنون
امتداد
وكونه
الأبناء
يملكون
العامة،
يرجعون
ساف
الهندسة
توص
عقدة
زاده
للسيد
الحادثة
يتضح
استخدمت
باعتباره
آكل
عودة
مشروعية
عليك،
قاطع
مائتي
يوح
جزاكم
الظهور
اسمع
الإسماعيلي
خواص
روبرت
##لتك
##روها
كخ
##مها
##ذرة
التتار
ورجاله
أهدى
باح
الستر
الحوا
الأسفل
مقيد
قاعدا
##لحاد
##وعيد
إسرائيل،
ظال
غزو
عجب
نكون
##فيز
السميع
##جر،
##ليمي
التعلم
المرور
العاقلة
والتقوى
القنوت
ميدان
العبر
العدوي
تقام
يرفعه
خطوة
وثلاثون
والقدرة
الذهن
تركوا
##دركه
فأتوا
##ذرون
قوام
حش
وعاش
##صرها
الاستواء
##راما
##وعب
عقلا
الوزارة
دان
بتقدير
أشعث
أهون
الغلو
عصبة
والشافعية
أزواجه
فقبض
فكأنما
##مرين
بأربعة
قبلي
لؤ
##ضائه
##ديين
##ويز
ريت
يخرجون
##رضاع
أيسر
منهاج
القلب،
وعدة
##درى
تلزمه
المصريين
والتخ
وشدة
##ضين
الأديب
##وته،
##مسح
بغية
##سيب
التغير
##حيته
أداة
##طو
##حاضة
التركي
عكا
نؤ
وليا
المآ
والمي
للدولة
حاز
زمزم
##يارا
المكرمة
##راعي
الحج،
بالمق
والزبير
وطا
##بيس
مصحف
قبح
أحيا
اشترك
أطيب
##اتين
فقراء
الوظائف
يأمره
الجزائري
تدرك
ومغ
##فقين
خزا
طائرة
المستعان
نظيره
تاس
الآلهة
البيزن
لتص
ذاتها
حوض
كك
والمعرفة
يطهر
تخص
هزم
بالتص
إفريقيا
الابتد
اللاتينية
زنا
الطاء
باللسان
بالنص
##بيثة
الجام
الخب
بلغنا
يطأ
فبينما
الحف
استولى
جميعه
بقص
المعن
الصنعاني
الكبد
برفع
الزينة
كالذي
الدرر
البسيط
الآراء
أكلت
قدمناه
##يثار
ميناء
للشي
يستقبل
يجزئه
فصا
توفيت
طمع
وزين
##قلون
لمست
فأشار
رقاب
فراغ
راس
الأشراف
الير
وقات
نستطيع
مصدرا
الضعيفة
يقاتلون
أوراق
المخاطب
مولانا
الجعفي
الوعي
لأصحابه
أوحى
باعتبارها
وسوء
البنية
الاختصاص
حبه
بمشي
جوان
أجريت
الكع
ويلي
ونساء
جاهلا
الملتقى
قربة
أموالكم
الغذائية
##أر
يتعا
التخفيف
الأمام
##كاس
##عدين
##جي،
تسجيل
أذان
الخلائق
ناسا
افتتاح
##خلة
التحق
تقوى
مقاب
صاروا
يمد
وتكلم
فعاد
لابنه
طوله
عمرا
وقتا
محدد
وأولئك
أسي
عورة
جميعهم
الأض
حيوة
أصحابي
تحفظ
موث
أخل
المقاصد
أئ
الجريمة
شيوخه
##شفت
جلو
##ياج
توما
أيمن
الفرزدق
ثمنا
صوتا
##طبيق
##واله
##زلي
واث
بئس
الزبير،
ساقط
##ووا
اختص
المنير
ولاء
الساكن
بنحوه
الذل
كنز
هجرة
رمز
أغني
##بعوث
##ملا
مطار
يفقه
التجربة
الأنما
برز
معيلون
الإرشاد
حوشب
وأورد
وثق
بالقياس
والهند
بوش
البراز
وعادة
##خام
المنتجات
جاهل
السوفيتي
كاش
أنف
يوضح
تعب
يبرأ
ردي
##باته
##وزة
الواجبات
أضعاف
الاستخدام
الحكومات
وقلنا
النواب
والشام
وداود
##كتة
شعبة،
لهو
بنفسها
المعدة
اليسار
خارجا
بأقل
##داوي
قبيح
هاء
##ريكا
أسف
##جعله
خلد
##بوين
هواه
مترا
مكانة
يسمعه
السمك
شفا
الألعاب
الكو
فؤاد
بحفظ
##فقود
قمة
##سوس
حقهم
##لوبا
السليم
يقين
ذكروه
غار
لذة
##يرو
ويترك
بغي
وأمي
شهرة
أفض
بإجماع
الزيارة
الحرج
المناخ
جوابه
المسب
وأضاف
عقائد
##يلا
##نابة
فإنهما
الشيط
لزيادة
ويأمر
طاق
الحوالة
##امنا
وأثر
وعيد
##ولوجي
الفيل
خلقنا
كوفي
##ويلات
تلزم
يضعف
المفض
وأموالهم
الجمعة،
الخفين
ظلمة
والدم
السيل
##بوق
الذئب
المشهود
كندا
وأث
الإنساني
بالمح
العين،
##شئة
طوائف
##رابا
والمجتمع
والعين
الحنطة
##ادرة
المرح
المسع
النطاق
الذخيرة
فأخذه
والسنة،
##لاميذ
##امرة
##كرمه
كفرهم
يوجه
عرشه
الاعمش
##سيمات
أصحابه،
لترك
ثقافة
إز
الشفاء
وحدات
##صابات
الاستحقاق
ووث
أنوا
تجديد
##ضرت
والعالم
وتزوج
المدائني
غليظ
الخادم
بأسا
السويد
الخصائص
##داول
حار
مثلي
وحاشية
الرشد
الفاحشة
القرآ
وكشف
المعتاد
النفس،
يتأتى
##جلال
بوض
توضع
الغار
معين،
المملوك
المجالس
حظر
الأرثوذك
حلي
الغفور
بالسلام
الحسين،
الدن
الصحافة
يستقيم
بلدان
صفين
وإخ
غافر
فقضى
حجارة
تلقي
رسله
الخياط
ويونس
الرجال،
ءامن
يسوغ
المهت
##درج
يلقي
مناقب
##همال
##وجوه
صاعا
أتاني
##وسيط
بالكلام
ضعيف،
فنف
##حرق
قطعه
وأخذت
##باعا
قدرها
الإدراك
##شكيل
سفره
الباهلي
رداء
الإنجليزي
منج
الأمريك
إياهم
وبأن
الظل
##سلس
يتذكر
إلزام
##وارزم
سجدة
وللح
##داس
ضابط
منفردا
المقبري
وبط
بالتس
لاعت
لازمة
التسعين
بواجب
بالأرض
الأجانب
الكيميائية
وصله
واستن
##كلف
مؤسس
تخفيف
##وري،
والإنجيل
رؤساء
وفهم
لطيف
أطلقت
فذاك
التجارب
الآخرون
النهضة
##اهرات
البادية
وانته
المساكين
يفضي
السكري
ذاه
##انك
لأنفسهم
المناسك
جريمة
الشركاء
##أني
##ساع
المباني
يحدد
التعيين
عشرات
##يرين
##رده
ملحو
حضرة
التوسل
الكرسي
##ذام
ويجمع
##بل،
والطبرانى
والمث
نذير
الإشكال
برحم
اخر
ملتقى
أرقم
والصف
##اهير
الجحيم
##لسفة
ويكفي
خوا
البحار
تنقص
والقط
بالصواب
طبقا
##بسة
##صراف
التأنيث
للعم
يكونا
فراش
التمتع
أملك
هزيمة
##تين،
يتوجه
يحزن
العصمة
##بوي
##راسيل
مراجعة
أيامه
البوا
الزبيدي
##ماله
المحتمل
##ضها
لي،
ويضع
مقبرة
الطال
يستدرك
##زعه
استش
لعباده
شاك
وقراءة
يقود
مختص
بسكون
ساحة
لأسباب
كبير،
ويؤخذ
حاملا
الحصار
والولد
ولسان
السامع
اللؤلؤ
##ويع
الجنرال
بالنهار
أنفه
تعري
استخدامها
تمتد
وحمزة
##راش
وتقع
خلاد
ظلت
يوفق
##درون
##تقان
نائم
الجبر
##قدس
وأصلح
الجزم
##حتهم
فلعل
الدينار
عجيب
##ئكم
أتينا
##وائب
الراعي
أسند
مبد
##ئيات
بمست
##لته
الإمارة
يراجع
نسبيا
ابيه
لاعب
فطلق
ديننا
ادعوا
إطلاقه
##راجه
لأني
الإعادة
أميرا
التوكيل
تأك
حاف
شيوعا
يجاب
نقاط
انتخابات
حاضرا
الجوارح
يخر
##تمرات
صندوق
##حرمة
اختلافا
كوكب
ذى
الصفوف
المعرف
الحمر
خالد،
قلوبنا
صفا
##غانستان
آمنت
العورة
لجمع
الاصطلاح
عروض
##واض
انقضت
لزيد
والشعر
حركات
##جيات
المقات
والسبب
شعبية
شؤون
عبدك
##لاحقة
والإس
التخلص
الكاذ
جاءني
##قاقه
خصال
اكتب
المماليك
أربعمائة
يشتمل
تصرفه
المنتدى
لجه
منط
الاقتداء
وجدته
سخر
تكذيب
متصلة
والقضاء
##مدة
##هادات
والستين
والباطل
يتس
بمقتضى
المقيم
الشديدة
الروي
ورسله
لخبر
اللواء
إبن
##كاء
وطئها
##هلها
##واهم
بعباد
شعائر
أحكامه
غربي
أسباط
وعليكم
يوهم
##بيته
وعلق
عصا
الهام
وعكرمة
فأخذت
العنق
مدرك
والباقون
تسعى
لغرض
استأذن
الهجري
تنفي
فلماذا
بخلق
بالحكم
تقلي
ملف
والحد
يتهم
##باج
فدية
راحلته
##جئ
ميد
وقيام
الجور
قمي
يجدوا
بالهم
بالصبر
المحققين
والفساد
الخلية
المرتد
للبر
بأخ
آر
الظلمات
سيم
##ريث
##مرا
طلبا
ويقرأ
اتفقوا
ولاة
والمدينة
المحرمة
شذرات
دالة
الجماهير
الآفاق
البغي
##ومها
رجعوا
##بعا
بينك
جحش
نصي
ويحب
ولين
تنقل
حمراء
فقدان
البياض
##ارات
وحسنه
لحقوق
الحواري
الأنث
خزانة
نصح
يوصي
ينصب
الشيوعية
اللعبة
لائ
جائزا
فالأول
الرقي
الفداء
السلطان،
##حيفة
نصاب
أمركم
المعتق
يلتزم
رجوعه
الزكاة،
بقرة
##فلحون
تبعه
لعدة
أود
واتباع
الحلول
الصحيفة
التوجيه
دعاه
المعتمر
الكري
للمتق
يوما،
يحمد
مسألت
الاسود
وبخاصة
##اكم
الدائرة
الهن
كاليفور
لغت
المتولي
لذاته
ويحمل
طبيعي
يمارس
الإرث
بلاده
دينك
##لائم
محدود
الجميل
والبن
##قيها
سمح
ويبدو
##عباد
خاصة،
أصبت
لموسى
واسط
والكفر
سابقة
السلا
يأمن
مستمر
لحيته
##حلول
##ثيرات
مكرم
وكيلا
اللوا
يمضي
أجمعوا
الضيف
الحث
رواد
التسوية
كبد
وأربعة
ولاه
الجانبين
الجهم
موضوعة
الرفعة
فلولا
بمحمد
وجهي
وجاز
المفتوحة
لمصلحة
##يس،
الإسكندر
##دره
كرامة
ودار
للذكر
اجتماعية
الهادئ
الفخر
كأنك
التكرار
النمسا
والمعروف
##راسان
تعي
تشريع
الخطوط
استحسان
تكبيرة
يدين
نقلها
مظهر
لطلب
##طفل
عاملا
يطع
تعرضت
دراسته
لصلاة
بالنون
الطريق،
بالشرط
وجزا
شهوة
اليونان
اني
لأخيه
##دان
السرعة
##قياد
مجيء
عادته
المخطوطات
روت
المميز
هامة
##عاد
والسم
السمن
انظروا
الاستغفار
دفعت
الخصومة
زريع
النفا
وجمعه
كاليفورنيا
حرص
فلانة
السرخسي
نغ
مستقر
المساعدة
##زاق
ناسيا
لوحة
الالف
المبدأ
الانف
##وكي
الأطل
والثالثة
مغيرة
نفوذ
##هزاء
والفض
قادرة
متعمدا
والكر
نفعا
طالب،
عتقه
المختص
قرون
بشران
الرمة
تتراوح
فرك
ناق
المدبر
تخالف
أشعر
أستا
والبيان
حياتها
كنيته
يخطئ
##ضارات
المعدل
رغب
المغفرة
ورده
قلوبكم
التنفس
ألسن
وموا
القيد
اللوح
المسلسل
خن
بحيرة
بالإنجليزية
مولد
يستح
بسنة
الإكراه
الأسلمي
##ذهيب
لشيخ
فيمكن
طلي
بيعا
بالعراق
المسن
##وران
يرجى
انعقد
لعبة
تهدف
وترا
للمش
صراع
##واي
الأذ
التاجر
نسوة
ويصلي
أحي
براء
حلية
##طرق
قولوا
أظلم
الحصن
الدوام
الرجاء
وأخر
فأب
الحجرات
فتبين
برئ
بقلبه
للبخاري
زاوية
كابن
الأوصاف
بفر
يفتي
الزين
##فاعي
تمتلك
والأصح
يضيع
الفني
الآحاد
هناك،
##ساسية
الميد
##وزي
الصادر
##حرز
مشهد
مختار
المبرد
علام
نكل
المكره
الفاك
الرضاعة
مغفرة
ضا
ومرا
##وعظ
##فوذ
طبيعية
إحداث
عقول
أنبي
لمجرد
عتيق
الخيرية
النخلة
رابطة
ادعاه
العافية
فلان،
لمش
##يت،
##هدة
الأهل
والحرام
قابلة
##قاه
الحدا
مصرف
والآثار
وثنا
العزى
قوته
كغ
##واحش
##ظالم
واتفق
بقراءة
أدوات
العقوبات
##رعها
زماننا
قرض
##ويين
درو
التخيير
كالق
صرفه
عرفه
الجارود
##يلعي
الأرضية
أنزلنا
الصهيوني
منقط
والحارث
##طها
معص
ببيان
وملائكته
وسماه
ببناء
رع
زينة
وجعلها
وقدرته
##يدها
ويعود
للمناطق
دعت
نادر
هاد
كالخ
للدكتور
فوت
ملكها
عرضة
الفردية
##سكين
أساء
##تقاء
ابتغاء
وحذف
الأدبية
الفراش
يفسخ
##مهم
##صص
##غوط
الاث
تتغير
ذكوان
والآن
السعيد
بآية
مجن
بالتشديد
خطيب
##ءا
##فسة
الفضيل
فير
ينفعه
الظلمة
عبدالملك
سألته
بصيرة
الجمهوري
##ها؟
أوقع
تباع
فابت
غائبا
معمر،
موري
صعب
عقيب
سيئات
فاسدا
##امة،
نسبته
ينج
ارتد
العظمة
الطبي
الزاني
##ولته
تحوي
فجعله
درهم،
كبرى
مخلص
الحرص
محدودة
والكافر
##غات
التمسك
الفريابي
أسوة
بآخر
ينفرد
فامتنع
ارتباط
##ائية،
ورقاء
أغنى
الأطعمة
مقات
للترجمة
ألك
يؤذي
المعاصر
وزنا
ومعاوية
لدينا
يمتلك
##لظ
وأذن
أخبركم
فأعطاه
طين
تقرب
##عدهم
تفريق
المأخوذ
للمرة
وبدأت
مؤمنة
معصوم
تكفير
##جاء
وشعبة
##ويح
والخوف
العشرين،
يحمله
تحا
ينزع
والأف
إتلاف
##قبته
مشاهدة
الضرير
بالكامل
استطعت
لمخ
الحارث،
يوقف
الحالف
مثلما
عجبا
المسرح
المجرد
وذكرت
الاختلاط
بالدعاء
أرحم
##ظفر
تجتمع
الرط
وكلها
حرمه
والعلوم
الشما
ابنها
وخذ
تتنا
قتلهم
المجالات
المفسرون
تخصص
أصبهان
اكثر
الظلام
المضارب
ثابت،
ينس
مقبو
ويه
والأعمال
ساء
الأنفس
##رابه
معهما
الثم
تنقسم
##شهدوا
أبغض
بحرية
سريعا
بريء
##صده
وبسبب
##دود
واللغة
رهنا
##ياف
ويسأل
للاحت
نمط
يلبث
والخير
الأركان
أكم
التردد
##واجهة
وساق
اط
الأوائل
قدما
المزد
متصلا
شعراء
يومنا
نسائه
عدوه
الأسرار
المجاهد
للأول
يؤاخذ
والكذب
أكتب
تنزيل
بالتاء
الكوفيين
الألوان
البهائم
فاختلف
##فارسية
ثمنها
السكوت
وتخفيف
فحا
الامة
الخاتم
##وثة
أسل
والشرب
البكري
نزلوا
ماه
يلم
أعوام
تسي
علمهم
ضخمة
الأخطاء
وبالجملة
آبا
جوار
خمسون
خالدين
باللفظ
##دارات
##رحه
يغضب
كسبت
ولبس
كوك
الحبوب
وقياس
ونتيجة
أخرجها
تحريمه
وتقوم
امام
طرفي
جسر
##ساة
رجح
والزكاة
أتبع
إحرامه
والحيوان
نعرفه
يفتقر
ويمت
ونف
وعليك
فينظر
العظيم،
للخط
حيوية
طوا
##باض
الرض
##يسان
احتمل
ضربا
تبدو
##صعة
حسن،
وحك
أخذنا
ووجود
##قبله
##روان
فالمعنى
ويدعو
القوس
مالية
حيلة
الحسيني
مهرجان
##أيها
فدفع
زلت
##باحث
ورحل
فتس
تنتقل
تدعون
تولوا
التحلل
كهرب
ببينة
بالقضاء
##رافه
فأف
تتطلب
دفعة
أثنى
رئيسية
بماله
مثلا،
ومعظم
فسألت
##يدية
الصنائع
والإنس
مماثلة
##قيموا
المالي
تار
سخ
بقولهم
ينشأ
استئناف
##غرا
##احات
يحبس
زبيد
يونس،
المنهي
فالش
قصي
والليث
الدراس
إيقاع
مثله،
الألباب
صحب
بالعربية
لواحد
وهب،
تقويم
##رتبة
ويمنع
نخل
جماعات
الخزرجي
هو،
البند
وجوبها
يهب
لوس
بقى
بيتك
تفضيل
نداء
نيو
##فارة
##جدوا
المواطنين
وظهور
##جرا
تقصير
أثار
##ماج
اللاعب
مرثد
والرحمة
يجاوز
##لبك
##ئذان
أسلموا
أيمانكم
لسن
مود
الشوكاني
ءامنوا
نكاحها
بكى
##اتيح
الأندلسي
فبقي
إحرام
باه
الخولاني
التواصل
متسا
##بانة
الملأ
الخراساني
حقيقي
سابع
وطال
اقتصاد
حليف
##وفاء
##زاة
سنوات،
فحمد
نمر
##وخي
بصوت
مرق
فوجدت
لؤلؤ
قرآنا
الفحل
لمعرفة
فيحتمل
التقديم
مرتفع
مكتوبة
يصبر
العزيز،
خشي
ورثة
رواحة
يسافر
المسلم،
تعجب
المقدار
الموهوب
ركوب
أذرع
غلا
قيامه
الحذر
مؤخرا
الفاسق
معلق
المظلوم
ويقدم
والإجماع
خلقكم
بصلاة
يسمون
غلبة
حمام
بالقلب
ويرفع
عزي
نات
بعدك
لحما
##برع
وظل
الرقا
استعداد
##وع،
القرابة
البكت
والحياة
عائذ
##ومان
يتخ
أضرب
المشر
أحكم
##مادي
عرفنا
إمارة
الخلق،
التناقض
فسره
##طوي
بأد
لإي
الملقب
القصير
##وبى
البناني
الأتراك
العتي
أكابر
قارب
مساء
بقرب
التحتية
التيم
يستر
الأكس
الغرر
يون
الأوجه
لشدة
النشر
الانتهاء
الأقسام
التعليمية
المجرمين
الجزر
العاط
أنس،
مفسدة
محارب
##تقض
الفضيلة
سوي
##عدات
الكثرة
لتك
تسير
فوقف
أنشدني
نسخت
مرحبا
والدارمي
محلها
عداوة
والنون
القريبة
وطلحة
تراجع
ومقا
العدول
نؤمن
النافع
حينها
الأوقاف
أجزأه
بحذف
يعلق
##رونا
عبادته
الملابس
صهيب
يقابل
يزيل
تصانيفه
تكليف
ووجهه
عملي
المنص
طرأ
##يخ
الأكاديمية
وكال
وصرف
لقال
##درالية
لتحديد
الكسوف
وهيب
باس
تحق
باستثناء
اذ
أقبلت
الطف
يروه
الاية
كيلو
##وفان
والاسم
##ؤوس
##جاجة
ورحمته
##قراء
ويذهب
أرادت
ويقت
تقسم
عاليا
الملو
##شارد
ثمار
سلب
الابل
غيرها،
##وعها
وتبين
النائب
والمكان
للضرورة
يمتد
##صها
مشابهة
##ذربيجان
وقرئ
زيت
معز
للمفعول
تميل
رواة
تشاء
بوت
##عكس
راكبا
حكام
##وبته
لتت
المرتبطة
والشهادة
الموصي
أتلف
ماتوا
##ضلة
وإنك
الكربون
الاتصالات
المذ
والجرح
أفعاله
يسبح
والاجتماعية
اشتريت
العربي،
الكلاسي
ويؤيد
##وايته
المقالات
مفعولا
المسعودي
لسب
يوحى
الحيرة
يرتبط
ورثته
الجهود
المحص
وثمانمائة
العنبري
الخطاب،
مثلهم
ترم
الجوانب
يرجو
عطفا
حاك
قان
لعذر
سنين،
تحية
المطلوبة
اللحياني
الصينية
حوا
عقبه
مقبولة
والدر
الأوط
بيمين
الزن
مصن
عصى
مقسم
الباقية
مخرمة
وقفا
وجرى
يعز
مسار
بشرح
الكفرة
ثبوته
عبيد،
المستقب
والآداب
صوفي
##وق،
وصفة
مستحب
ترتب
استغلال
دقائق
وعشر
المدخل
وبينها
وأخذوا
رزين
المستشر
طلاقا
##طاف
الماشية
##ويه،
بشرا
يقام
##ضياء
والأدب
##اعرة
تواجه
والعدل
ولزم
ودخلت
الرياضي
حبسه
فصول
معدان
حسنات
متفر
الانس
لهي
##صمة
طع
شهدوا
البني
##قهم
بأخذ
يتمثل
حقيقية
##جازي
خري
صعوبة
##نيل
الدسوقي
##قيح
##رضت
وبالأ
حسبما
##راب،
مبن
لمثل
##طاس
أوج
كلوا
إياكم
ويغفر
الغيث
الراكب
وخمسة
حرق
فبعض
وقضية
العزل
بينت
يشعرون
غيبة
الكتاني
##طي،
اشتراها
الفيء
كهي
طعامه
الغفلة
المستمر
نقدا
وسميت
التمويل
أمره،
سياس
كقولهم
الأغلب
عظمة
##خلا
تستحق
##ضاة
المأذون
فأجابه
جث
فأخرجه
يعاني
ليصبح
بأنواع
توصل
وأض
تحس
المسكين
تزول
##يرت
الغاف
أفاده
ليخرج
أقوم
أكبر،
والهم
أختها
متفرقة
ونسبه
غياب
أمريكية
عبس
رضاه
أخبرناه
المتعددة
##وثي
توقع
الكاش
##والد
الاستيعاب
##شدد
أزمة
##يتاء
##سرى
عزله
فيد
الحماية
فبعد
يؤمنوا
والواقع
جبار
يربط
##ماوي
##رامات
##وفون
بعت
بعدها،
التعرف
التقنية
يفارق
العاملة
شعي
صداق
والقاسم
للقضاء
للتجارة
لزوجها
تخفي
كين
المضي
مسافر
أردنا
مدي
يديه،
مميز
العادات
##ونسي
حافظا
##لندي
بعذاب
وصاح
مفتوح
البرا
للمتقين
يشتغل
والجمهور
الأصل،
تعزيز
القاهرة،
##دهن
كالا
إطعام
##زالي
وتنت
الاحتياط
نجوم
ندري
رسمية
نفقته
سعادة
بإمكان
وصفا
أبين
الجدل
##بعين
أعمالكم
يأخذون
جليل
موك
الملل
أعبد
قتيل
أنج
الزر
أسئلة
الصائ
##وقوف
الحز
قدميه
مستشفى
الفدية
قولكم
##لقين
##ورا،
المتكلمين
والمك
وزر
خامس
ضده
كونهم
##برهان
الآلة
فلابد
المعادن
جواد
للميت
والعامل
غرف
قبله،
قريش،
مجز
الهوية
خدا
ضرار
مفص
##يمه
تحسن
##ماء،
تمليك
مقبل
بطول
الجزي
##فتان
فضحك
ومثال
ينو
إنجاز
مسعود،
يدها
مشتق
خذوا
مستعم
الأسانيد
الواعظ
أصابعه
بريد
الفائ
وفيات
الفتاة
بالغة
بسهولة
كالز
أدع
بالتك
سبا
بنك
يتق
القديس
غنيا
الصيني
##ربح
##الكية
ثقل
##ابرة
الاعتداء
والباء
الضلالة
خلو
صغر
الناقد
##سيح
أفواه
##ابتداء
أوامر
أضيف
##ماثل
##خلال
تعبدون
النبيذ
المعتقد
والمساكين
قف
غاف
يتب
##جاهات
الفكري
##روية
نحوها
المبد
بندار
##رعه
بصحيح
للجميع
لأجله
بعدة
الزخرف
مجاهد،
كأني
حان
والخص
##طيعة
##راعى
جماهير
لونه
القانوني
##ضحة
أسوأ
إخواننا
بجه
بدفع
معدلات
والترك
المركب
##حدا
##جابي
يحبون
##شركين
ذهن
##اتبه
القلق
النابغة
اعتمادا
محافظ
المستشفى
بديل
الاخرى
النمط
دفعها
الخلوة
##ذرا
مواز
وروح
كتلة
مسلك
قاضيا
عكسه
##ضايا
حكمت
##ولو
الإسنوي
وليها
المصلين
تختص
إلقاء
يوسف،
ترتبط
العصا
يدخلها
الحكاية
فسم
##ييس
الأيسر
الحرك
وكلمة
أمرني
وصفها
ونافع
ولدي
كتبا
فذهبت
فينت
الآيتين
التصميم
بسببه
تدمير
بطنها
النقض
وكله
خشب
بفعله
آلات
أنزله
الأغنية
##أثر
أدركه
المان
تطوع
الفرار
الواسع
فمه
الدرع
##قدت
بلدية
##نفل
##طاعت
اشتغل
وأمثاله
يتبعون
غرس
هيل
تاما
الدرجات
الفرح
##قيس
الزبيري
باء
الاحتفال
العارية
##داها
يجت
أشجار
المحتار
الصادقين
شمل
تدبر
##حيز
بامرأة
##ورون
التحذير
فروى
ووفقا
عري
عناية
بسوء
##غلظ
لازما
إنش
رواها
ظلال
انتشرت
##غراض
الوراث
شرعه
السنية
فاسق
يجهر
الوصايا
مطا
##جاسة
##زلها
الحوت
المتوقع
بدور
اليأس
الاقتصار
الدخل
البالغة
جعلته
الشعر،
##جني
المودع
##ستون
الصاحب
وأدخل
وأعطى
##ضن
النسيان
تعم
قدوم
الواجبة
منزلا
الشن
فأم
التحول
حالها
للفقراء
المرش
الباجي
إسماعيل،
كاذبا
##سرة
العقب
خراج
ظاهرها
##غله
اليومية
خياط
صحتها
كرام
##ؤك
وعام
سنته
##عينه
##جمي
فيقع
وخلاصة
الحمض
التهمة
بأمور
كفره
توافق
الوالي
اليهود،
قياما
بالقوة
وقط
الصفقة
الثلاثين
##حار
الديانة
يمان
الشطر
يشغل
الاستقرار
برأسه
قومهم
##ففة
##بيرات
نيسابور
##درت
مطلقا،
طريف
فمنها
بروت
الرباط
قطني
المعنى،
يتحول
غرة
ردت
##خوة
والليلة
##ستان،
وحديثه
الاشتغال
وقالا
وطن
##شده
الكرامة
الدموية
العصبي
سئ
ذل
وقب
للذ
صبرا
عشية
مجنون
هنا،
يتأخر
ضامن
شكرا
للشافعي
##سيه
بموته
الأصناف
اهتما
اختياره
ظنا
كز
وهار
##أته
الجرائم
الروسي
##لاعب
ليوم
الماجشون
تبيع
الاي
العقلي
مطبعة
وخرجت
دفعا
استقلال
تنكح
المعاصرين
مرتبطة
فالس
المحظ
عرفات
لدراسة
ونقول
##لواح
جهات
شائ
الحرام،
أساسية
مجلدات
والخلاف
الرسوم
مسلسل
نكرة
العميل
المستق
جندي
المضارع
التفاعل
##نعت
الكوكب
فقدت
الصناعات
حروب
##مئ
التعزير
القتلى
الخبرة
ترتفع
الأمريكية،
قطن
المنثور
المتم
الشيعي
##ضاها
والأز
الكبير،
##طالة
وأمرهم
ميرا
تدريج
آمر
ضيف
العادية
بدائع
صواب
الأفق
بإسلام
ونظرا
فاسدة
مقاصد
بلو
ويسم
المحاكم
وعندي
##يته،
ذهبوا
ادعاء
##شح
وباب
صبح
##كنون
وروينا
المراجع
تأت
والقب
بحثه
غادر
سيطرة
يلاحظ
آتا
طير
يخلص
ونفي
الضرائب
الأمور،
عمدة
المحلى
الذاكرة
حت
موظ
كوم
وقيد
والبزار
وديعة
المركزي
الاكتفاء
القسامة
##راتهم
غش
أبحاث
المزع
فتلك
##جزه
سقي
الحاوي
للسنة
استطعتم
انعقاد
القرآني
##ساد
تفضل
والرواية
الصانع
##عاقب
المشكلات
شعوب
أسم
صريحة
بالفاء
يقدح
##وفاة
المطا
##ارد
##عمى
موعد
ويصل
##ذهان
الشمسية
تصحيحه
والأقرب
توضيح
نحوا
اللغوية
وأبوه
##جيز
مبتد
النهى
البخت
فأص
خطبته
##بغض
محركة
##هر،
عيبا
قبلنا
بسهم
يلحقه
سرد
حسا
ضرو
الشد
الإنشاء
عائشة،
أستطيع
صنيع
برأس
الذرية
فمعناه
##دمة
التحفة
صبيا
أجرى
مراقبة
تغطي
ضمنه
البرتغ
أنبياء
##خرون
أثرا
عظيم،
واستع
القاص
##فعلت
داعية
والاه
يتمتع
##ساعة
يصعد
بقتله
بقين
##اتمة
النفر
##بعها
فيجعل
تصغير
اقتضى
حدثناه
بقبض
بالعكس
##فلت
##ءوا
عزة
##عملوا
الفضلاء
ياأيها
رجل،
احدى
التعظيم
حجرا
غلبت
التين
##ستهم
الجيد
المغناط
عارف
لأننا
وقدره
مختلفة،
الغفاري
بأنفسهم
لظهور
##دايا
يهودية
خضر
يرفض
المبنى
متحف
فبينا
البصريين
كريست
الظاهرية
والمرسل
ذيل
##عهم
##ئيل
وقرىء
خالدا
سهما
التعديل
القدح
##ذاكر
وارد
والفتح
وأكبر
الصاع
ما،
أبيك
هلم
بينهم،
حريث
ندم
##فول
حملا
##رارية
بالكذب
حاطب
##سار
استجابة
##وقات
تكثر
##مدي
واسطة
افعل
الخلل
يعجب
واذكر
تنبت
##رائق
يمدح
بالاعت
التامة
##طلبات
خديج
##هادتهم
الحديدية
شائع
##كها
أبوك
##فعوا
يأتين
للما
الأسماك
السيوف
بيوتهم
لمؤ
مولود
صحا
ماض
الأغنياء
تخلو
يقرر
رعا
الورع
كاب
وسأله
إيه
##رسله
يديك
ثقيف
##تلوا
بأول
المشهد
صادقين
اليماني
الأوامر
وتعرف
##يافة
وعلما
ساقه
أشهر،
سيفه
يسألون
##رتيب
عمود
المفيد
يوحنا
بذات
فتاة
##مائر
تفاوت
##فاعه
ثناؤه
##كيه
الصليب
اتق
خالصا
معلقا
وكبر
##فوظة
ينفقون
طرفة
والمز
عرضها
##شان
##زيارة
العيوب
الأصيل
فراشه
حده
فحدثني
مناقشة
عفو
وأشباه
كاست
يسلك
مصير
فرسا
خامسا
عالي
السلو
فليراجع
##شفعة
تضمنت
باختصار
والأحكام
سلمى
ناه
##قييد
##كشاف
استفهام
أسير
##نبوا
حذفت
تتخذوا
لوجوب
بدن
الهات
والآية
أميال
شاركت
المؤرخين
ذؤيب
أسمائه
وشارك
مزاحم
دوام
##درة
##انته
لاحت
بالعيب
بعوض
وأموال
بالرجل
##يسا
مهي
التعم
وخلع
مصل
##انة،
السلطنة
قرطبة
فقمت
التعدي
وصحح
ففر
الجود
##نيها
درست
والمه
المعقول
تضي
نر
بصيرا
فجل
يجده
الثبات
العينين
سرعان
طهور
مندة
بدخول
حبيش
فنه
##ذبهم
يبيعه
بإح
الطحا
##يسية
شهور
كوس
القع
##ائيا
الاصح
المنط
يبيت
وجواب
##وقها
يدفن
##طلعت
##خاوي
اخرى
تقم
حق،
وسنن
وإمام
وخطب
##رياض
القمح
المعتصم
احتلال
الإسبانية
مخزوم
ووكي
جانبه
أقدر
وإنها
القير
تحالف
##وءة
الجنان
رص
سيرته
الجرير
##حيه
ليقول
تقنية
والبحث
المصلى
الضاد
##آه
ليالي
اللبنانية
##وجا
يكفيه
مقدما
الجناح
##هبان
دروس
مطيع
وظلم
الاستيلاء
يخف
تركي
خالصة
كتم
##وائح
وتصرف
بأح
لبي
##ضائع
والنصر
لبناء
إرث
والطب
##لكات
والأوزاعي
محرك
أفرد
##در،
##لسوف
التكفير
مضاع
##هون
تصوم
حاجب
التكاليف
ببلاد
فمعنى
قميص
اللهو
الممثل
الصافات
بالجز
الكذاب
طالبا
فولد
منعت
صحح
جهم
شاس
المدرس
##هدم
صدورهم
##اريا
القارة
والأمير
الضروري
بالقبض
لإس
##يهم
لاشت
الجميلة
وإثبات
بأداء
رأسا
أجنبية
نصرة
أصحابها
مزي
الأموات
##وذا
المذكور،
أعمل
يسيرة
تفقه
بالعد
للمص
##جيال
حلم
عددها
إتيان
نفيه
الدعوات
منازلهم
بنفسه،
تقييم
بالتي
اتخذت
##راهين
جوه
##شفيات
عينها
العيدين
صعيد
يجهل
ملكية
##رضة
الراغب
القراض
الرابطة
الأنشطة
عمال
والإي
واحتجوا
خاطب
الداء
##لفا
مولاهم
##رك،
مدني
عنهما،
##رضوا
النهائية
##ضاوي
مدبر
فترات
تحتمل
التهديد
داخلة
وأقره
كيلومتر
فتقدم
التوسع
##سبين
بأسماء
رود
التقا
المواطن
التصويت
المثبت
كان،
##ياسة
الغابات
الساحة
محج
للنس
وصحيح
##باقي
جلود
اسحق
بدرهم
كاذب
أثبته
وقرأت
فسألته
الميز
المنتهى
يلو
للقيام
الختان
وترى
التقصير
والضحاك
بآياتنا
بمخ
آدم،
وفرض
##مرقند
حذا
فرقا
يهتم
الشروع
أبطل
فبكى
أكثرها
توج
الحيل
##باعد
كانتا
أزيد
العامري
وأكرم
##برد
الرياء
للحياة
للبن
##رف،
بيئة
موطن
إجمالي
##صبة
ديارهم
أره
أعمار
المند
وقتلوا
الحكماء
ضبطه
فرسان
حنيف
البروتستانت
ببيت
أمكنه
الغلط
ومسح
تحدد
داف
واحدا،
النصراني
##شور
##كارا
الأشعة
الهرم
وبيت
المتق
سادس
تجارية
التقليدي
##اتا
والخلف
اليسر
ويبين
فأصبحت
الباب،
مؤسسات
أدعية
السني
##رونات
الطيبات
الحديثين
مناهج
قولهما
إزال
حلو
الرأسم
المخدرات
ويوسف
العاصي
فدا
يراها
##وحش
باليمين
##شارا
للجمع
الاطلاع
جود
السهل
الرفق
ظننت
أحواله
دن
##زمي
يسرق
شفاعة
##عاذ
ثناء
النقصان
كفه
زوجا
مبنيا
والقوة
التاريخي
سماها
الأحق
البلاغ
والفي
للمؤمن
ينتمي
ترضى
وبنات
القوية
وكذا،
أصر
الميثاق
والموا
ظه
والطلاق
فيصلي
والموت
العدوان
تزويج
عبارته
شميل
مقيما
الغض
ويحكم
جهته
بوزن
وبالا
تتحدث
الاستفادة
رئيسي
أرجح
فيبقى
الجح
##راوي
الفناء
يشد
الديلمي
حلة
كوريا
الضب
محاولات
إملاء
الهيكل
الشؤون
##مارية
##سامح
جرائم
عميرة
فرجعت
والواو
اخذ
أراده
أفلام
المرتفع
الإمساك
الشهور
بطال
تشتمل
وأرج
##ادير
تدريس
والظلم
يستجيب
المصاب
وعليهم
##طفاء
العبارات
وأولا
اللزوم
اتفقا
لاقت
قباء
المبادرة
فهنا
نافلة
أتباعه
بخمسة
##سرون
##ازن
الجسر
##لقاه
الوقود
الروس
مكاتب
المقدام
##لقاب
فافت
##بخ
بعرض
الزيلعي
لامرأته
القاسم،
رأسه،
ضمانه
يتحمل
مساف
رفيع
والزهري
ونظم
أكلها
اليمن،
بالقسط
##همان
ولادة
أشك
كبيرة،
##صيص
إمامة
تعط
تجنب
يتبعه
##ليان
المقيد
لمكان
ستون
يخفف
تعليقا
أفصح
آذان
يبط
المجته
يستحقه
أقبح
الزا
بأصحاب
والدها
تعتد
يرجح
وماء
يشاهد
حماة
رت
##غسل
جاد
الاستغ
##ويرية
بحا
لقيه
##لئ
تنزي
قيصر
وسمى
موحدة
##ولف
فرص
ملكة
الخلو
الجنون
الصيرفي
بولد
فعد
مطبوع
ضررا
المزارع
روز
المحذوف
مصف
نصفها
القزو
رآها
المتصل
سبط
##دير
##وانه
مكسورة
الدولا
عارفا
شوا
##ذبية
مطالبة
الخواص
بالتوبة
الإنجليز
الثانى
صيغ
قلم
أسهل
ضخم
وأخت
الصخرة
الآلات
القدرية
تبد
لفعل
وإليك
المفلس
الإيطالي
##وايات
يبصر
الإيرانية
##وها،
الخفيف
دجلة
كميات
زراعة
عاط
وفساد
خفيفة
##نفذ
تشعر
المساقاة
أسرى
لحمه
##هم؛
استقرار
العاقبة
تحيض
دستور
الشعير
للحاكم
يقات
أشعار
وإعادة
نصفين
يبلغه
باج
##سملة
بدله
الكهرباء
##فلح
##امتناع
أقا
##طفان
أخضر
أمت
المقدر
الذب
المادي
وأخبار
##قلية
التفاوت
##وتين
جاءك
الإلهي
يأتوا
##لاحظات
وبالر
غريبة
فتا
##شيش
نسيت
مؤلفات
##نافس
سلمت
المغرب،
فيرجع
سموا
اثنتي
##سور
الروماني
أضع
يبنى
الوسيط
النائم
انتشر
الوثائق
بالنساء
جمه
ذكرى
##صيله
محقق
تحولت
استجاب
بعتك
المسؤول
خليلا
قررت
العسقلاني
ينكح
الأستر
والكتابة
لحن
وضمن
والفا
##سكي
مثالا
يسوع
فضربه
##انغ
أبصر
تنك
الأسهم
ويستخدم
حاش
##واترة
الاصط
واستدلوا
##لاتين
موضعا
يار
ببط
سلالة
أخشى
الغريم
بدرجة
بلسانه
لاع
##قوبة
مناسك
خمرا
اللذان
الظواهر
تقلب
##طاة
أباح
##فاعلات
يخالفه
ثلاثتهم
المنهال
والبيع
القعن
الكاثوليك
الإيطالية
عابد
وقيس
##ياك
بإطلاق
وحمله
##ستاذ
##خلل
يوصل
##رته
المراه
الإحياء
الجماعة،
القسطنطينية
الراحة
المشترى
ذنبا
الآلاف
هادي
فعليك
والضلال
الاضطراب
خبز
##زف
##بهم
##ضارة
##بيوتر
المائية
الدعا
والملا
وطول
بود
انض
ولإ
بالقوي
جبير،
طبيع
المصابين
الاستي
وانتهى
والصوم
##نجاء
##ميزان
جيشا
الاختبار
والصالحين
فاه
يشر
بقراء
تلد
##قصان
المجوس
ارتكاب
وتل
لكثير
أحوج
##مش
فليقل
للوا
لحفظ
حنطة
نقط
والفس
التعلق
والزيادة
يقاس
الطاعون
الغفار
للأمر
كجزء
مارك
وتركه
##خلي
ونش
الظفر
الإجمالي
##سمت
تركيز
##حميد
بواحدة
##سبت
أهواء
لحماية
واعتبر
ضاق
منطلق
قذ
##شراف
خبيث
جمعها
وكمال
المقابلة
تشارلز
أدعو
ممثل
يخافون
المعبود
المصائب
وللأ
بالقراءة
حاولت
إسلامي
للحاجة
ويسن
يتغ
تأثيرا
التعبد
وأقرب
هرمز
ولحم
خزائن
الإرسال
الفط
أمم
تكفي
الانتخاب
الإدارية
ممر
المنصب
يستفيد
الاستمرار
عيسى،
ويكتب
يحس
توماس
##شيح
تجده
##عدية
مؤكدة
اشتراك
##ولان
الفج
سينا
وفارق
يستقر
جنبه
##اريو
البصير
وبنت
تفاصيل
الخطة
خباب
فحص
ألست
البصري،
التأليف
##أى
الرغ
بالمغرب
لحسن
فزعم
##ويش
يعلمها
والبخارى
وسبعون
يبن
وإظهار
استعم
##هرت
وربك
بالنية
##راجعه
اللباب
منفصل
الأثرم
بكفر
إخوانه
جاره
والصدقة
##حلال
وعبادة
ووجوب
قالوه
حلب،
جراح
حديثة
ارتكب
رحيما
##شيط
##رتين
الدكتوراه
بقت
بتم
تعجل
منفصلة
الساع
الاستسقاء
النضير
بأف
لحظ
بالغيب
صيانة
##شوف
اليتامى
حصار
سريعة
القميص
أفغانستان
تنعقد
والأئمة
والغنم
هلكت
القادة
السعر
طرقه
الماس
##ماش
الفاط
قدس
متلازمة
##قل،
معاص
الطهور
يشركون
أحاديثه
علمتم
أولا،
التوقف
السابق،
سرح
الأذكار
##ارتفاع
##جتهم
والخروج
##معه
الزاد
##جرت
##اصلة
أحسب
بالتن
##احبة
يده،
خطط
للأطفال
صعصعة
المستن
سبقه
نجح
ينشد
سيطر
فهى
أخذته
العتيق
تعجيل
بشروط
كأبي
أضر
علاق
يسهل
مكافحة
نضرة
##ابيح
خطوات
التدخل
الجندي
##معاء
للوصول
بسيطة
فذ
بالنا
فيض
واليا
للعالمين
يوص
الانصار
النظرة
وترج
ابتاع
تهم
جدع
أنفع
الألمان
مساكن
مشيخة
المخر
والقتل
الهزيمة
##برك
البطلان
تحريك
والشراب
##زاي
لغتان
##وود
واللسان
الظالمون
##طاول
بمرض
حائل
مطلب
ضح
##قوس
##ذيرا
عالمية
السرور
ساجدا
النقاط
المستعم
##رام،
الغربية،
تعاون
يقعد
فأعلم
المثناة
##سعى
استثنى
الخمسين
لؤي
؟؟
رشيدي
##سة،
##اتحة
الذراع
تربط
أحدنا
فلعله
فجاءه
وهارون
حائض
مطابقته
القطن
الصبا
##مرة،
الزنج
خصي
الأسب
##غيان
لإنتاج
لحد
الدنانير
واقف
فاعلا
احفظ
والذى
وكلم
لنقل
مقطوع
##قصاء
##جهز
بوقت
نيك
تنص
واليد
واستغفر
لعمل
ويدفع
وكتبه
بحثا
عادل
الكنز
صاحبي
الحربية
##لاقه
واشتغل
ماد
الحاشية
اعتكاف
كمل
##دمات
ظلمات
الفيديو
ملابس
##شر،
فأحب
الأساليب
الموظ
فالتفت
النعل
##رائد
نصارى
##ليقة
الصار
ومهما
بطرس
لال
القاهر
##بغى
أصابته
##طعم
أهله،
فرضه
يضحك
الحليم
أحوالهم
##نادا
الصناعي
والحساب
التوحيد،
لوز
أقت
##ساطة
المصيبة
##جزأ
مركبة
لنفسك
راكب
ديفيد
الثمانية
خصمه
طالما
اشته
يبغض
شير
##عجل
المكس
الكنى
الاق
أصحهما
الإعجاز
لنبيه
العصر،
بكاء
أوصي
محبته
المراكز
تقط
يطل
الراجز
ضياء
نائبا
أدخلت
##جارات
فسدت
فحل
والصح
الفيزي
اذكر
تأي
وزراء
لزوجته
وسجد
للعامل
المفاهيم
طراز
فصاعدا
الزائدة
##ندب
تخلي
للعلماء
ونفع
يتعامل
اغتسل
بطلاق
المقبرة
رؤبة
يعذر
##متك
فجعلوا
##زج
مناة
المخصوص
بلغوا
القار
النافلة
الهدية
سفن
وأنواع
يفع
##يلي
دافع
مصلح
المعقود
##بينات
فورا
##شاة
الأبرار
راجعون
رياح
لعمرو
لبد
بشر،
حضارة
##قابلة
غريبا
شخصيات
أهد
الوحش
##سرا
السلطانية
##غرة
وصيته
أصدرت
##يف،
يأتيهم
أصابهم
بالقر
موالي
ورزق
للدلالة
ضاع
وبسط
الباقين
إرشاد
يريده
حجه
شيئين
وحفص
تلخيص
يزاد
وجي
##ريبية
لحصول
##طة،
الانساب
مناد
استيقظ
الأمهات
محكم
الإجراءات
يقيد
جماعة،
الباطلة
الجهالة
يكر
شعور
##دينا
الزوجات
عقدت
يخطر
سماحة
مسكينا
##بوهم
يستأذن
موضعها
القدماء
##ضيه
الخرقي
وأعت
يتقرب
بدت
مشر
والكثير
##حدون
فأق
عسكري
الدافع
شعري
بالقيمة
ويفعل
يطلبون
طالت
بنقل
القربة
يجعلون
زد
أشراف
##رامية
الانتصار
وكيفية
##وايا
أخبرت
الإلكترونية
صخرة
عك
تغني
مضافا
شريكا
العاد
##عيات
مجته
علوا
تتزوج
فأخبرته
##قدا
القادمة
للفن
وبحث
والمذهب
التت
ويقتل
فلب
الغروب
والشراء
الحافظ،
تراث
للفت
كشاف
##ذاني
عدنان
التصور
ولأنها
الانقطاع
تعليقه
عصام
فون
##لسن
بالانت
عامين
فأدخل
كالب
الصليبية
##شات
وتحمل
##بابات
بغيرها
الأشكال
الاثير
الشهيرة
موه
كاس
المتحف
يعترف
إخراجه
حفي
قلي
مفيد
واجتماع
وافقه
الجمحي
فزاد
##لوبه
##يبات
رواته
يصعب
خزاعة
لقتال
مباد
##ستين
الظاهري
بمحذوف
تعدى
الكلابي
وغسل
خليج
نفسها،
الائت
بوز
بالتق
وهدى
##طمأن
فالأولى
وأذ
النحاة
عقر
معجزة
حرث
##نازير
##كرت
وبلاد
##خذا
لعلاج
الحلفاء
إر
يقلب
أحس
زمعة
##ئ،
##ائس
الكات
أظنه
دقة
بالخروج
القصيرة
مظنة
مغا
فصلوا
مؤنة
باكستان
إيراد
تاء
الشرعية،
يعرفها
باستمرار
ورضي
ويليام
عبارات
الكبري
مركزا
القل
الراحم
بكرا
يوقع
بطرق
بخل
القصور
ليف
الجعل
خطورة
والخمس
لاحد
أيديكم
السكنى
التطبيق
الدبر
والروم
لبون
##وانع
المؤقت
الطاغوت
ليبيا
لدلالة
##أنا
##خس
مجمل
##ضرع
نصلي
البصرة،
المترجم
أولو
غام
للكافرين
مواليد
##كروه
##عق
البيئية
حال،
وعدا
تبني
منصور،
السبعين
ارتفعت
الرياضيات
##زات
فأمسك
##يج
الهما
يخضع
##نفقة
مذهبهم
يود
وفسر
فمكث
##ثن
والوليد
المعارك
المصي
##كسه
يطلقها
##ذوذ
بالرد
الارتفاع
الإحص
راحة
يجزي
المنكر،
التفرق
ثامن
محلا
المنتج
بالدي
وتلا
##رموت
بأيديهم
مضل
وأدى
أجلها
تكشف
وبالت
##وكالة
مازن
سحب
وقصر
عربيا
الخالص
وأتباع
تظن
شفعة
فيرد
الخبير
زمانا
التبع
فهلا
بالمسلمين
العدوى
##ليفة،
##ه؛
السالك
جمعوا
##ذكور
الرحال
الجرا
##بوأ
بالتحريك
وقومه
للبيع
التخصص
الأحنف
رهط
جاب
الشائع
إلحاق
وطرق
بحار
وباقي
وسألت
وأسباب
مجي
تتحقق
فتوضأ
تقليل
الاعلى
الكونية
أقم
##وراني
ومقت
##ناء،
مستأن
الموضعين
ضخ
بالآية
الأرش
وذكروا
وسيد
الناتجة
القبط
السه
وصوله
إضافية
جلي
فداء
##جدة
التست
وتوجد
##مداد
أخيك
سبرة
الذرة
ينح
عقولهم
المراحل
كيمي
##كوا
فالأمر
والتمر
##قاليم
##ديقه
المشاريع
بالغا
أخط
الضفة
القطعة
كولوم
الجري
التجمع
شاعرا
يوميا
لربه
##ثوا
المخبر
والياء
جراء
الأكف
مشاريع
المجادلة
##لمانية
تعالي
أيوب،
فتأ
بدنة
انتظر
حتي
مائتين
كتابته
الإمامية
تعلموا
عاصم،
##قتان
اختصار
تيار
طائرات
البينات
جهالة
المحض
تقدمه
خلفهم
الصم
##طيء
واشتد
دائمة
وطاعة
##شاق
##وازي
تنسب
أحاط
متط
ولابد
الشوارع
##ألتين
أودع
##حرية
المركبات
بالقبول
أدخله
بالعمرة
تهديد
سكوت
ولرسوله
والطحاوي
أبنائ
بناه
جلوس
خلافته
دينه،
لكانت
وقفه
##ائي،
##قدان
##نبط
نعمه
##حض
ونحوهم
حرام،
وحقيقة
أكثر،
يعقلون
المتأ
ومعاذ
##طاكية
حصوله
آياتنا
وألحق
القفال
أكسيد
يمكنها
مروا
والضرب
الطراز
الغين
##هن،
اتها
نزلنا
##رهيب
نبيهم
الدنمارك
والعقاب
موطأ
تجارب
##لمانيا
أبطال
الأجير
##تيش
فالخ
وأمها
للنفس
والمؤمنات
أشكل
##وكول
وشرحه
رقبته
المسماة
فانته
##يتون
##وكيد
مسؤولية
##لحاق
صلاتي
سواها
القزاز
ياسين
مختلفين
أينما
أدم
المحام
صفقة
طاووس
أفيد
صير
النجس
بصفات
فيقوم
التفضيل
الرعب
لمنا
ليؤ
تخبر
محدثا
محاربة
تنتشر
وضح
وأعلن
القبيح
المزا
##وبين
ورعا
وسهل
هرقل
مقدرة
كالغ
البحري
ارفع
الرصاص
يغيب
مصري
سهام
##جبا
توقيع
شط
البشر،
التخطيط
المشيئة
خاش
الره
تتجاوز
خلدون
الشيطان،
وعاء
بالتخفيف
يدركه
للانت
البير
ونح
استخدامه
يسمونه
رآني
##غيبة
ثلثه
سلمنا
المشروط
اجتهد
بلالا
خلقها
بشي
##تمن
انتظار
صبيح
أبويه
ولبن
الهامة
والعبادة
التور
وشق
انتخاب
وحكمه
السقوط
الفح
ينطبق
دعائه
لدرجة
بعشر
السكينة
بعيرا
الخيال
تنزيه
##سو
المكا
والصيام
المحرك
بجوار
##داه
نخرج
يتخلف
استقام
والقلب
المازني
الوظيفة
نفخ
والمجر
العابد
شكا
##بياء،
مسعدة
ويصير
كريمة
بالزنا
##غيت
التذكير
أوح
تتكلم
تؤكد
##واء،
وشد
اهتم
##ونه،
بأربع
أشير
حديقة
وطعام
الفردوس
راء
##لحة،
المعهود
الخلط
النسل
الحرس
جودة
فزع
التلو
مرآة
الركب
هني
أعتقه
القاضي،
##يداع
لعائشة
ضروري
والفاء
وأجر
تزعم
##لاتها
وقضي
باتباع
شاذان
اتباعه
لإعادة
المقرر
فعم
للمجتمع
##مائم
##وحد
بهز
عداه
##جله
وبص
مقعد
##وريوس
المقابر
المضادة
المصد
##رسلت
وتستخدم
فقولوا
بتف
الاستمتاع
##رائية
عشير
وأعد
##كسون
يطرح
طاهرا
عهدا
اليابانية
بهيمة
ولس
لعد
الثبوت
بعضنا
واستخدام
ركعتي
مفتي
محرز
المبارك،
##ستا
الرحل
الطبر
الجاهلية،
ويحصل
القعنبي
حفل
بالدم
يشكر
فكلما
ويقدر
طرفا
فباع
##زقه
##وبيخ
ألح
##قاض
تتمة
اللقب
فعمل
##يثا
والمنت
الاستجابة
بالدخول
يختلفون
الفقرة
التراويح
طولها
فلهم
نسا
الموصول
عسر
المذكر
واستمرت
تفضي
الأدوات
##ضطرب
##سيق
لقومه
الخيانة
وتفقه
عقده
يثير
السختي
##ائره
##حتم
الأوكر
##رزاق
والروح
المؤمنات
فكسر
##اناة
الشافعى
فأش
ألقي
ذكرهما
فكبر
والبغوي
خفية
السفلى
حو
تموز
الدم،
منتدى
##نكم
وكلهم
وظهرت
النيابة
##نظر
وأنبأ
الخضراء
بلق
الأقر
تعظيما
يعلموا
نوره
فشهد
##متنع
مملك
برس
لأمه
داعي
ملء
فنادى
الخت
أسابيع
الحذف
فلينظر
زنج
##مانه
والأكثر
جازت
بينته
##ماعه
تأمين
تلاوة
بإعادة
نزار
أقوالهم
لماذا؟
بالمسجد
حلفت
بعثة
تتحرك
صحبته
التقويم
يظل
ولماذا
ثمامة
مشاعر
المفروضة
وانتقل
حرو
وعا
##ساطير
جناب
سيب
أله
وأطيعوا
##لافه
السماح
والخطيب
صرا
قانع
القليلة
والترمذى
أعلمه
والاختلاف
يرف
السبيعي
تقال
بسلام
تلفت
##جبني
تقيم
احترام
وغيرهما،
أسانيد
مسد
شرو
اول
##قدوا
ولحق
خطيرة
الواسعة
ونظيره
فادع
ومآ
##ميزا
والشرك
تخضع
الروم،
عشرة،
زكاته
البعثة
موصوف
##رداد
لبر
##لغاء
##بهت
مسقط
مشددة
حمض
الاخبار
قرره
صباحا
##وهما
والالت
واثلة
##ضلوا
الاستقامة
راجعا
الجائزة
##كلها
جاك
ويقيم
##وفهم
نزوله
ويحفظ
يحذر
تفهم
تتمثل
مكا
شيط
الاصحاب
صحف
اسكت
عذرا
والدنيا
عقدا
الوجيز
موتها
##ضبط
البش
السبق
ويتبع
##سبوا
ريتشارد
الطالبين
صنا
وقرب
يدفعه
بذاك
كراء
المنتقى
بالأمس
##اف،
محبوب
قتلا
##لاتهم
بالمست
حجج
##وحدة
##ويله
نعوذ
الفلاني
صوابه
##برس
كتابات
مهت
ماكولا
توقي
تفعلوا
والقبول
جريج،
طولا
زوجتك
الجودة
صفحات
وصفهم
أصوله
وذات
يسميه
وسد
بولندا
شاملة
وجمال
أوحي
تيمم
كأم
الغلاف
جاءنا
التحديد
فمثل
##ودان
خالص
فبد
بخي
النقدية
مأمون
واذا
لتصبح
باتجاه
تطورت
##زعا
أرفع
الحارثي
يحملون
يقتلون
درب
الأهمية
##دياد
للفر
والتفسير
وآثار
المجتمع،
ركبتيه
نراه
الحسد
الحادية
مفيدة
بمساعدة
وصور
فبأ
##ومون
بنفي
وأني
##عياد
سقف
الزنى
للحكومة
فتحها
التعب
كائنا
بأكم
فارج
##طراف
الاغ
يأخذها
##لمس
عملهم
الفرسان
الموسيقية
يحرك
أجسام
شمالا
نجيح،
المساحة
واليمين
اشتمل
والدا
مؤرخ
مرتفعة
المفاسد
##خيم
بالعقل
تظلم
جيوش
##اليا
مالها
بيده،
وغر
محيي
نجران
هديه
وقي
##لفها
المطهر
أتاك
##مار،
كيلا
فيحرم
النهار،
حلاوة
السواك
بعثني
تبنى
يصلوا
نادرا
وحبس
##سما
والسير
الخن
الفلسطينيين
##كوك
وعالم
خيره
صيدا
للجد
المعظم
بالمنا
الأقارب
طلاقها
فيهم،
##صيته
البدء
العملة
##فيته
وقاله
والاص
##عاذة
الزاوية
بائ
##شرهم
المعطوف
تتعرض
فلأنه
##عتان
وبغ
يستفاد
##وخة
وأدرك
القعود
نبيكم
تفرقوا
بالشفعة
الإخراج
##صميم
تول
شجا
ولادته
يحتاجون
صاحبكم
تبرع
يركع
##ثارة
##اليه
فسمعت
أجبر
بكلية
يغت
مكتوم
التخريج
العائد
المعالجة
فتنا
فيقت
وجهه،
التكذيب
الرئا
النوافل
أيدينا
الدنيوية
غازي
فاء
المقاطعة
##مروا
الرضى
تسكن
عصرنا
ثبات
التواضع
معتب
الأوضاع
وكسرها
ووجدت
التوفي
الجوار
##صارى،
أهلية
إكمال
والشرح
صائما
متهم
نبوة
وخاف
نصابا
##أمله
داخلا
توبته
العراقيين
##ضير
أصبحوا
بمعروف
زاهر
وأحاديث
النك
أخطاء
وإحسان
عطا
لقلة
وتضم
وعشرة
##احظ
أولادهم
والفقهاء
رؤوسهم
وأصح
ربه،
يوفر
الاشتراكي
تسليمه
حلقات
##رسول
الصباغ
ينطلق
عاقلا
الجوامع
كالبيع
التكوين
صياغة
ينقلب
##وزون
متفاوت
إعراب
غرق
همد
معق
##همات
وآمن
##حيين
##فاذ
الغبار
مجالد
والوس
ومفهوم
##بدة
##ائيات
تحزن
##طر،
##بينه
إدوارد
مراب
الوثي
نقيض
وضا
يشهدون
إرادته
##ووي
تطوعا
مباحا
رين
الجمرة
دابته
غفل
وتظهر
##هوت
لاسيما
يفرغ
الرقاب
استفاد
##كييف
المحمدية
ومز
والنظ
كغيره
عنبسة
أحسنت
مفردا
واشتهر
التخلف
بقليل
تنقضي
مشهورا
العنوان
معايير
دفاع
##غاث
التفرقة
المدنيين
منبر
مستن
الإمام،
لمت
بإثبات
تعبر
##اهي
الاستن
المكتوب
نبأنا
متقدم
تكاليف
الوليد،
الغساني
حدد
إخلاص
طبعا
طرفه
##ريحة
وهبت
##اهده
مجا
##نتاج
اقتصادية
بالأول
##مائي
الإيلاء
تسميته
كمثله
##ناه،
##بلدة
والألف
مؤخر
فأعرض
توثيق
فأطلق
الفعلية
##هادتين
##راقة
بخر
البطاقة
بالإس
الأثرية
##ابس
يعجل
ناش
الاشتراكية
فست
##ويته
إلياس
ثبو
المناقب
سراج
والحقيقة
##غلبة
المرهون
وأدعية
الأولون
وفوق
الانحراف
قاعة
وأيام
متعلقا
##على
إنزال
والقسم
حجته
العقد،
منافق
وتعظيم
لامرأة
السادة
##مل،
تنكر
تشغيل
حسنه
تغيرت
والنخ
الواضحة
##طعات
نوعين
لآيات
منظومة
السخاوي
تعاليم
بشراء
حوار
عبادك
وزيرا
شعير
لدعم
الكوفة،
أسواق
المهندس
كشفت
تلي
ثنتين
ويطلب
راد
مكارم
العسر
##فيك
##ياطي
##اربها
القتيل
وتمكن
السياس
الدروس
قصدا
وقلبه
يحاسب
ومنت
الكرب
الانتشار
##أنس
##انيف
الضو
جلست
ميلاد
##عيض
نظري
لرؤ
ووقت
للأرض
بمنع
غانم
الفيروس
والبيت
##حرص
فاش
##جهول
قطعها
بسبع
أبصارهم
كثيرون
موصولة
كالد
المشاعر
والبصر
وضو
الصادرة
ولج
السوي
وسبق
##ضطراب
مخرجا
نيف
تعز
والشعبي
الضحايا
والفكر
بأنفس
السحرة
##هلا
والليل
وحجة
يعترض
يضمنه
ونائ
شملت
يختم
العظ
الخبر،
الصائغ
يمكنهم
خوارزم
##لايا
محس
خلقهم
دخولها
المبكرة
اتجه
آحاد
خيرا،
الثقيلة
تعليمه
بدءا
تحيط
امرأتي
الأعلى،
##ذق
شيبة،
##يتنا
القرعة
رأسك
وجمعها
##لأ
وعض
أجور
المملو
##هاه
بنس
ونز
الأشجعي
فتكلم
سماعا
جبه
الشاه
أطال
الأنساب
بتد
##عدة،
##نسخ
سرقة
وباط
وإب
هشام،
تطهير
##روسيا
فرائض
##امها
##متنا
العقيد
عظيمة،
فعندما
##ماق
والولايات
الأعا
بالرجال
##سمها
بصدق
بالخبر
الندب
بعمر
مراجع
التونسي
السرطان
يعا
موافقا
افترض
##ختصر
وأصلها
مارت
ونق
بالمؤمنين
المفروض
المحاسن
أوربا
لإع
يناقض
تجزئ
مندوب
الأواخر
وحكاه
عاهد
الألوهية
هوازن
يملأ
الإزار
عجائب
ننظر
نيسان
متشاب
يستند
مات،
##ذوا
ونور
والآيات
والمالكية
##روء
شاءت
تفريط
أند
المستح
والبقر
الخيط
خير،
يحكي
للمخ
تنشأ
تدريجيا
النسك
حميد،
يتوقع
وفصل
##وفيت
الأزمة
المفتوح
الزيتون
جوي
قاف
##ربعين
كتابنا
عملك
تغطية
تلحق
أيرلندا
##ضره
بحوالي
كسبه
الغداة
##راجح
مبيع
أوسط
المصطلحات
معتمر
آبائهم
والسؤال
حاضت
وأهلها
نخلة
يخط
ميقات
والطي
انط
الأسعار
والشرط
سالما
فرانسيس
اجتهاده
##راءات
منصوص
أمورا
والحب
عيوب
شراح
فجئت
لاستخدام
##زني
فأجاز
والجماع
وشرع
المؤلفين
مملوكا
كوا
##طا،
والثناء
حماس
وشت
##ضاءة
عيناه
مجتمعات
تتمتع
فبايع
فيخ
الشائعة
لإقامة
أكر
الرعية
يدافع
وغلب
تنفذ
مكية
الأوطار
السريعة
أنزلناه
عصب
فأوحى
المرافق
شوبري
غناء
وتعا
دخلها
نواه
مستند
##طفال،
الأعور
خلفا
أقطع
موصولا
لانتفاء
قصيد
صعود
معجمه
##كاره
الموسي
ورؤ
والراء
اللبس
البسط
بالدليل
##حمله
ثمود
##سيات
##ئتين،
آدمي
وجمهور
المعصوم
بدعوى
المعرض
للبشر
غالبية
وثانيها
##فعا
جلدة
النقش
مايكل
انفص
التعارض
مدريد
مسرحية
يجع
التصرفات
ينكرون
بإنشاء
رقي
وسألته
والمحا
##ائلته
والثق
بواحد
الكتلة
مخصوصة
توسع
بالمش
المركبة
السبل
المواهب
وبالرغم
سني
وينزل
الاستعانة
ديوانه
التنفي
بدمشق،
نكت
آخرهم
الإعراض
مشايخنا
##طره
لكلام
ألبتة
الكناني
##ابرات
فأخبرني
ستا
تبعد
ضمنها
بالباء
الفواحش
يجوز،
للحرب
مرضى
جنين
وود
العيني
##بهات
معلقة
خالية
مخير
رومان
والشعير
بالأولى
بوجهه
حلا
الضأن
وفضله
العوفي
وخدم
يكسر
تشخيص
بطوله
فام
##ءون
مرات،
الأزل
تعاني
التحريف
مصنفه
هولندا
اين
وخروج
المسير
الخبث
بأحكام
القدوة
تأكلوا
أفس
ويضرب
ضحى
##صفور
اعتباره
يبدل
والعقد
الطعام،
جهر
ليأخذ
للأش
نطفة
##ضبة
بالشر
وعلا،
هيكل
كالث
يذكروا
المهي
صاحبة
لقضاء
يطيق
العابدين
الأنماطي
وبع
##وبان
جبهة
الاحاديث
الضالين
بواسط
يتردد
ينسى
أحرف
عدوان
##موها
شعا
تنقطع
##دينة،
ربعي
أجي
والمشرك
جوائز
رقعة
ففى
حواشي
يعالج
اقتضاه
وري
اعتقال
نصراني
عضد
تثبيت
##زيق
وأعطاه
تعطيل
يحافظ
##زعات
فشرب
سكون
##بيا،
بالشك
وتبع
تخفى
فيحمل
##وافر
السويس
نصيبا
منخفضة
يتكلمون
الأعداد
بابها
تزوي
المضمون
منذر
##صلها
الألو
##لكان
يقاب
والعي
وبحلول
يهوديا
##وفيات
##باعية
استر
##خلهم
المستثنى
لعلك
الجنسين
تحمله
موط
متس
المتص
ماله،
شرقا
فرضت
##الية،
ورجح
وتحدث
خلاله
وزوجته
مجتهد
تبكي
يقبله
يستحيل
تعدل
نجيب
خاتمة
##ناعه
متكلم
لأخذ
يحارب
للأمم
النصح
شابا
##بتدئ
فوصل
هذه،
ثنائي
حنبل،
الماضي،
حوائج
##طيب
الرقاق
ويشير
لبابة
##ية؛
وستون
غنية
ملكهم
القيود
تقديمه
وينا
أسلف
مؤلفاته
أختي
لأنفس
##بتان
وأرى
شتم
القرم
ودل
##زواج
أوثق
اختلافهم
أذنت
الكاذب
مماليك
المسور
##هبط
ويدع
خطه
البرقاني
إض
الفخذ
وشهر
مناكير
العجاج
الرياضة
للحا
مسكن
يؤم
نظرنا
اقتراح
وصحة
النظريات
بمد
##بارهم
وحقوق
##حقاق
التا
للسلطان
الزمان،
رزقا
بوضوح
فجأة
تبعهم
فبان
##طباعة
##روهم
أزال
العطش
ممكنا
أقطار
##رافة
##لوبهم
عيينة،
أفق
المناوي
مسؤول
سورية
##رافا
##صرهم
وتذكر
اللقطة
فلسفة
أحبه
بالبد
فإنكم
##وهات
بطاعة
##معا
المنز
تشابه
البلدية
اعبدوا
الموالاة
المهنية
بعهد
الكرخي
القادم
النماذج
واستخدم
منعها
جئنا
##يناء
ويقبل
للحج
ضعفاء
والأموال
مقرا
للهجرة
فعيل
والخلق
والضياء
##غرس
فللم
القديمة،
يورد
بالبينة
السوا
نادرة
الفؤاد
يأثم
بجنا
المعدن
##بيون
وحش
رقيقا
والاس
بحقوق
يضلل
##وفين
تلعب
تحاول
ذريته
دونهم
##قره
الأخيار
قدمها
الاستئناف
ببلد
طم
##وفرة
معرب
وثقات
أهلها،
فيأ
##ليقات
حياء
بحبل
نهيت
السط
وهرب
الضخمة
فلأ
التحديث
المرق
##ونين
تكذب
رسوم
مطال
سألوا
##رساله
الراشد
أدعيةطباعة
##ينها
علمها
الفارسية
الاصابة
تقارير
مقل
فوقهم
لحقه
##علمون
وغاية
سيتم
الجراحة
وأفتى
الموحدين
قلق
##رفته
المعاهد
##دتهم
##لبيس
##ترا
المماثلة
المتهم
مانعا
درع
وبشكل
المعلى
بدوره
ولأبي
الأضحى
العمامة
معقول
وبذل
المدير
ستمائة
الشهادات
برلين
الباطنية
للنظر
##حلوا
##مساك
والعدوان
الجماعي
هذيل
تند
غداة
ينتقض
المتحدث
تزداد
الموسوعة
المقص
للبحث
وإخراج
الجوهرى
يله
فسجد
التاريخ،
سبعمائة
##مائية
الفجر،
متعدد
فالحديث
الهجر
##كسار
رسمي
المباركة
##غين
المودة
أنكره
والعربية
تعيينه
رعي
فيروس
أسفار
##دونيس
الميدان
البخل
الغام
وتض
##ساقط
والسعي
التقارير
بديع
عرج
باعها
العادي
الكي
المصلح
العصب
##برق
نفعل
تابوا
فصد
الركوب
حملته
سهوا
المظالم
شركا
والقي
إلي،
آثر
أشت
محار
خيرون
غضبه
والتحقيق
خدمته
وقرر
والتقريب
##وشي
ويصبح
وأنك
اعتبرت
الواقع،
اتبعوا
حربي
ساع
شارح
بسيط
والمسلمون
يقتله
مساكين
لوازم
أنشده
رطب
##زاما
وبينهما
والقراءة
فأدرك
##ذيبه
المخلوقين
ورع
الفتيات
##رفي
##واما
##وعود
وأورده
صراحة
##رباء
##عتنا
##واتهم
الأحبار
الأحرار
تناوله
غنيمة
المتابعة
التناس
##ديته
الشرا
##يناك
مالكه
جهله
تخف
بتحريم
مملوكة
##تلر
قيرا
قبورهم
##طمئن
الثعلبي
الابتدائية
##تيج
##فقون
العلامات
ننت
قدح
يتسع
لعدد
الأنام
التصحيح
الإذاعة
الرجز
وجنوب
المتف
سمعتم
ربى
بنور
عامر،
جاري
وبث
والأمة
الباحثون
الذباب
سلمه
كراه
بالعم
الذال
الفلب
تقتلوا
بأعلى
تفسيرا
خويل
مثلك
حنيفة،
فمضى
نفعه
يعص
##قطاب
نجعل
طلبها
للقوات
أنشدنا
المناهج
سفرا
للحافظ
السينما
##كرمة،
##كبرون
للدفاع
السفهاء
الأنصاري،
بتقوى
هوا
المؤدب
بالحاء
ووعد
وامتنع
فائد
وقضاء
الصخور
لوال
##ملي
##صته
المصري،
فخرجوا
##الون
سارية
شوك
شهادتهم
الأمي
المنية
وأسماء
تبعث
البيضاوي
وتأمل
وثالثها
بالفر
فألق
البعيدة
منقول
القه
لأهله
بقيد
فاكت
وآتوا
الجريري
فراق
تحقيقا
والأخذ
المنكرات
دولية
الغيرة
ملحق
السماوية
الحلواني
ظالما
##لفون
ويسقط
أقاموا
القنوات
فلله
وزنه
ذنوبه
حجب
سلطانا
##جهاض
توسيع
##بتنا
والحافظ
خلقك
جواهر
فيلزمه
##فح
الجليد
ويحدث
جلده
وأعاد
الوثيقة
يمل
وأكد
القبيل
ومعهم
عارية
##كميل
واستعمل
تمتع
##بعيد
تدعم
كبي
لتب
الخبيثة
وخمسون
ورح
##روت
توفيق
تغرب
أجده
ريش
ورفض
يظنون
ضب
الساعات
ولانه
لوك
الفسق
موجبا
##ديده
لأحكام
المناعة
ووافق
أمتك
الراج
اختلاط
يشترك
الجاري
بهرام
يضيق
الموالي
##وتة
القبة
أمد
مبكر
بعبادة
تتب
خصم
عليه؛
والمقا
محلة
سرطان
ينشر
تدفق
الحيلة
تسلط
الفقه،
واعترض
زائدا
##زيم
والبعد
الوجه،
جهلا
الفحم
يقوى
الضابط
##ظير
ينك
##رتهم
ووكيع
مونت
ترتي
يأكله
انتصار
المخاطر
##طنطين
ابتلي
المزارعة
يهدف
جوفه
خفف
وتغير
يومي
سجوده
##ذنت
البضائع
الخلاء
الاك
المجني
نتاج
صلاها
إفريقية
وعجز
اعتراف
جوزيف
الإشهاد
بمعرفة
صبغ
##برات
##ابية
##اتذة
المتضمن
للجيش
يقوي
منهي
وبينك
النمر
المعالم
##طعنا
كمع
وتعت
وبطل
تنمو
إنكاره
مشيئة
الضيق
بالعبادة
إفراد
متعة
أعلم،
العملي
واعتمد
البأس
يدعوهم
أسط
الثور
وصلاح
جزئيا
تهت
سراقة
والصلاح
فكت
والخر
بأحسن
الاستحسان
الانفراد
بالعذاب
##بينا
أذنيه
أخاك
استحب
يخرجوا
الغرفة
الهمام
الول
يتلو
##ياكل
استبد
الذكاء
##عز
الصغر
بإقامة
أغراض
الواهب
الأزد
تليها
##انيها
الصندوق
الخصال
والمؤمنون
##وبة،
البلد،
قاتله
الساحر
وهاجر
##تيقن
صدقوا
طلبوا
الرزاق،
الخشوع
والاقتصادية
ثلاثا،
المستعير
صدام
والاستغفار
رفضت
تلام
##قيدة
معظمها
العك
بالتعاون
الرازي،
يفيده
تدرس
والهاء
##قتك
مشهود
أنساب
سيدها
صوف
التوازن
البسي
الهيدر
العولمة
دكين
لولده
الذهبية
أسبو
بالتد
والمعاصي
واسعا
شرائع
كليا
سات
وتتم
وحن
مجانا
تبديل
الهمز
ألسنة
داري
نائبه
##نادق
الربط
التعجب
شرطة
معدود
##شهاد
بالسن
بأجرة
##أتون
بالشراء
##رور
بصاحب
معارك
الإلزام
بالصحة
الأحول
الأرمن
العضوية
##لاند
اليا
موسيقى
المتط
والسياسية
بنوا
معتمد
وليعلم
الضبط
قسمت
كرها
وهذان
ويلك
ليعبد
كتبنا
نعمته
ابتدع
وعزاه
السهمي
الشاملة
بالحجارة
ردوا
##فالات
المذم
الإثنين
بدونه
عدوهم
قرأها
تغتسل
##هارته
الفوزان
أرت
لوج
المكنون
##بوح
يتقي
وسطه
للتص
أفاق
وعامة
الاستبراء
تستمر
بادر
كونوا
وأعوذ
##خها
تقتضيه
الديلمى
##خوله
للولايات
زبر
مصدق
واعتقاد
ليتني
الفرنسيين
داني
وفعله
##كلما
لإبراهيم
أرشد
وأبعد
بالرجوع
كير
يشأ
ذاتية
فخطب
##وامر
المحلل
نجاحا
سلع
##رقت
##عاش
الشاطبي
الحفر
به؛
والاخت
تفري
التشريعية
حسام
##يوم
يعفو
تابعا
للعلوم
الفضائية
بنشر
تكبير
تطي
الرها
بلادنا
باقيا
وتمام
المبكر
هبط
الممن
المدعو
يفكر
تكملة
يور
بنعم
بأسر
وفتحها
إضمار
يهي
اكتساب
ريحا
وخارج
ومعها
نعلمه
الازهر
السلبية
ذكره،
بيته،
وتأخير
صانع
المدع
الرقة
اشتملت
وجزاكم
لطف
تقديرا
وأرجو
القلة
يعاد
بالسر
##وقوا
إثارة
تزايد
بتصرف
أنشئت
الكهربائي
##سيين
حكمته
وتحريم
سبحانه،
شره
للتب
محلية
زيادته
##ذاذ
فحسن
قبولها
الشريكين
صديقا
فيشت
وأوضح
##يمون
ويكثر
الفعال
والجر
تحقيقه
قتالا
صدري
##ضوب
وبينكم
المستشرقين
نأتي
ملام
##لوه،
بينهن
بثلث
بنيه
فاختار
المحارم
وأقاموا
حمده
يفلح
تيسير
سارة
وأشهر
حياته،
النفوذ
الشأم
سؤاله
رباط
فناء
كمر
وبكل
البرازيل
اهد
مسه
الوافي
زريق
والبل
أيهم
كغير
نرجو
ينسخ
آمنة
أؤ
##يفة
التمكن
##ومن
##حرام
مشروعة
الحمير
قيس،
يجئ
الانبياء
حجرة
قلته
الاصول
تتوقف
جشم
أكا
اتفقت
##هيلي
الموجودات
العمود
لإثبات
الجلالة
والمشتري
علاوة
كريما
وذهبت
وسورة
وأيوب
##رابطة
التثنية
الحاسوب
يكتبون
المحمود
الإبراء
##ء،
يبالي
الدبلوما
واستولى
حزيران
الإبهام
واخ
قسط
الجوف
الكائن
وعلماء
وإصلاح
ويجري
الثلج
يتد
الاستقبال
فساده
لثلاث
مصدقا
وصى
عقلي
مليح
مفاهيم
يضي
الحظر
بيديه
##وهام
يدعوه
أخرجوا
##ذنه
كردي
##ورن
ومشي
الرجيم
عنوة
للعبادة
طاع
فيب
الحصى
ضعفا
لدن
بالمرأة
##وفت
السجد
استخراج
فملك
الستين
موضوعات
النوادر
##ضوع
بالقص
تعال
بريط
مقصوده
خلوا
غندر
اقر
الملق
##صرة،
فيص
بإخراج
وانح
يكتفي
الاتفاقية
صيف
##شياء،
يتعذر
تبرأ
##صية،
أولادكم
ذريعة
إثما
برأي
ائ
الخانية
##كهة
وتشت
الحجج
##عوني
الحنيف
بعمرة
يسمي
ووصفه
دواب
نشهد
والقد
التمليك
الحداثة
جذور
فيز
بند
وأمن
وأبد
الدفن
ورأس
منتجات
لبسه
ونظام
فنعم
فصاح
الكردي
##خطأ
الخلاص
ادعت
إفساد
لسبب
لبيت
للحد
استقال
بدلالة
القائلون
المختلفة،
شديدا،
فشي
الحضارات
بمحا
وصلة
والكتب
هائلة
يضيف
نسل
إبان
بحاله
شرعت
خشيت
قضاة
والثقافة
القزويني
الجواد
##افعة
بابل
المكث
لوجد
بالرك
الذاريات
مستمرة
باستعمال
التوالي
بالشهادة
يكفرون
وسالم
واقعا
كفل
لرسوله
##كرا
المغربية
باختيار
والنوا
التفاضل
بنيسابور
إليك،
وكانا
المرد
الاستعداد
النخيل
الالتفات
المرجح
الصفر
المستقلة
فحلف
الثلاثي
##وقد
وتصل
##رويه
##ظره
ليسا
نيوز
الإفطار
بقرينة
وللت
أقصر
التلفزيون
يبيح
بنوع
والميم
##صدقاء
إلهي
يوشك
الفهرسة
زه
##لندية
الترمذى
##لام،
تقدم،
للحال
شكلت
للعا
وإنهم
بمؤ
القدوم
جسمه
لخص
الأقدام
أيمانهم
تهمة
العل
والنجوم
بعمله
غذا
##نعه
##هلال
للمشركين
المعني
لآدم
جنيه
يصيبه
وتعليم
إخواني
مشروعا
يفقد
أمينا
الاستحباب
أبوها
إجراءات
المبتدعة
ووجب
##تك،
فهزم
مناص
##هيار
شج
حرب،
مولاي
سمت
وأسد
بأسلوب
الارب
الإيم
الوفيات
##لاله
أجزأ
فنظرت
لخدمة
المتعلم
الصابرين
لعبت
وطبق
ثلثي
سهلة
المحاربي
ولعب
يزكي
التنوخي
واقتصر
##سبها
والأق
التركم
برضا
وصر
والديه
الدقاق
ويقر
شرائط
##اريف
الزعفر
الأسرى
وافقت
غبار
وينهى
ومثلها
هين
##راغ
يزرع
الرئاسة
سواء،
المعايير
الموظفين
بذن
قع
تقاتل
ويكنى
##طروا
والجهل
ظهير
بالظاهر
##زوين
معاشر
المنطقة،
يعنون
والسماء
نافع،
قلبه،
قسما
واختيار
ضو
الحميري
ويحل
قتلته
القلوب،
ألفا،
حققت
وكتبت
اجل
زجر
المعجزات
##وريات
شين
فبدأ
للقرية
الطائفتين
مشتركا
التبرع
##ياطة
ليك
الادب
إقامته
هيهات
الجماعية
وخالفه
يلا
الغزاة
##زيغ
أسعار
##وائده
إعت
وتث
الخطب
معينة،
للور
باغ
الرائحة
حيي
المتنبي
بدينه
قتيلا
شياطين
ضحك
مضمومة
النقاب
برؤية
والخامس
أعتقد
المجتهدين
غرا
غيرهم،
القرط
##ظنون
مستقلا
رطل
ويضم
قائله
ويعطي
نكح
خطيئة
##اجد،
##نعا
القاطع
##صبغ
التشبه
مسيلمة
سرج
الغوث
يملكها
الإلكتروني
شريط
بنعمة
يتلقى
ليحيى
لفض
يتكرر
اللين
الأدبي
خارجية
مفاتيح
الحضانة
الإطار
يبذل
اللبناني
خلفاء
الماجستير
حفاظ
السليمة
إحص
فظ
قارئ
##سوخ
تقوية
التلفزي
باطنا
لضرورة
المصرية،
مخالفته
ظهرا
منك،
الثان
والإخلاص
ملكي
الشرك،
فارسي
وأداء
الإلحاد
ينبه
مأخوذة
الوجد
التنفيذي
##مرون
##ابير
##والدين
الاستنجاء
والصد
##ورغ
والخز
المثلية
الأمنية
إلكتر
الإعت
تقنيات
والعرض
المثلي
بحمل
وتأتي
##وضى
واللا
ويفرق
بعدهما
عسك
فيرى
ينصح
المنفرد
وعندهما
وحاصل
بجد
والدة
للمبالغة
ولدته
أثبتت
##ارقة
##ارتها
لوح
القول،
بيس
صهي
لأت
المكسيك
##ضعة
والند
الطباع
##ريمه
الكحول
وموضع
نفلا
نوحا
غطاء
الغلة
المتوسطة
يؤد
##طنبول
##فلون
راوي
##ديمي
والأصول
الواح
يخير
وامرأ
##ياتها
وللحديث
قوائم
ابنك
تعالوا
تبادل
نصرانيا
ووهب
والام
والجبال
وألقى
السيرا
للعد
ينف
ترجعون
##قاني
خبرة
الراهب
##جئين
##وقراط
الصحبة
والخي
وتطوير
تشارك
أنفسهم،
بالبناء
##وجها
غدر
##بئ
##رابته
##ريعته
قهر
وسام
مطابقة
عروة،
ملعب
الضياء
قتالهم
الموجبة
القوم،
ويأكل
##باشرة
والره
ويسر
سواهم
فضيلته
خلون
ونجد
اللاحقة
##ريبي
الحريق
التغيرات
أوغ
السياسات
بالمخ
الفرنس
فرده
رطبا
والريا
ومئة
مسكر
وآية
##غوب
##حدين
خراش
هال
العبادة،
اهتدى
القرظي
لعلمه
راو
كرر
الفروق
شرعيا
ثقيل
التواتر
القابلة
المؤجر
وأتباعه
أمسى
والطريق
ذمي
للقر
محفوظة
الأطلسي
##فنه
وقلب
التزويج
المتوفي
يلتقي
الإسباني
##رجاء
ولكنا
لشركة
برح
##تبى
البذر
الغراب
والعامة
حرير
يتقون
##جازات
ينفعهم
المسرحية
بيناه
تاسع
يقا
بخراسان
والمسجد
مبلغا
واحدها
##لاميذه
قود
مقعده
أعينهم
اللحظة
المؤثر
ورش
قرأه
الفعل،
يأمرهم
البهيمة
وانتهت
هتلر
مدنية
شفي
مائت
المعينة
اليها
##مرأة
##روحة
##شتاين
مؤن
أزواجا
وأجل
يتوصل
الحاضرين
هالك
الإعلامية
بمكة،
المعتمدة
اليقظة
##انو
المدثر
للإشارة
الوقائع
أأ
##قس
والارض
##كفير
مخطط
تظ
ذالك
الروياني
الحيات
خيانة
الإفراد
سرت
علته
جميلا
الولاة
بالنكاح
مشكلات
المغير
مكتوبا
وأصول
وبات
والاستع
الحشرات
##زلوا
مخطوط
مطي
الأغراض
إكراه
الجراد
يصاب
مثاله
الرابط
الجهاد،
الإقليمية
والإقامة
الفاسي
المقربين
المسافرين
احتياطا
وذك
العقل،
أرجع
##ونى
إيصال
تقريبا،
##يعاد
أوجبه
موضوعا
إنهما
فكلم
بالأش
الشريعة،
جاهلية
همه
وقفة
موسكو
تضمنه
أخطر
##ئية،
##ضافي
ونهب
أهو
المزار
السياحة
واستعمال
المدني،
سيس
لنس
لرفع
##دامة
بعيب
تحبون
العباس،
تركة
بدر،
الأكسجين
فأغ
واستدرك
السابقة،
الكيمياء
منخفض
الشفق
للتم
لكني
الهاتف
##لقون
الأوعية
##ادف
وعص
ومه
وسمعته
فحسب،
ضياع
الجدد
مدته
عوده
وختم
النهج
الكفاءة
##فاعا
##خلوا
للأع
ليصل
##ذاكرة
الحليفة
فهلك
الصوتية
تولد
تاريخها
فخذه
الإما
استهلاك
ركوع
الاتباع
إجبار
برأيه
ادخلوا
الأشربة
والربيع
فاشترى
لتف
تركز
الذهلي
تطع
السقط
الاحكام
تمشي
كلمته
أفقه
مفي
وإخوان
نفسية
وشرف
بالتوحيد
##نبلة
باف
نودي
خازم
يستوفي
مسجده
بالفارسية
رحمك
وأستغفر
نعي
##كررة
الكعبين
##اذان
الزجر
أشارت
وشاهد
فليصل
المقارنة
ويلت
بإحدى
بعدا
لقوة
الراحمين
##كاني
فيقتل
##علل
يتراوح
والأمن
ومقتضى
##ألهم
##ماتها
بيقين
الكفر،
وتوجيه
حدثا
سمن
نشاء
اعتمده
##حمه
لنفسي
يوافقه
بالتم
الحجري
المنار
يقدرون
شماله
الاستخبارات
التواب
استج
التقرب
جويرية
##كك
##عبان
تشد
ربو
موعظة
للإيمان
حكيما
غيبته
لأداء
البرج
والجامع
ضرورية
خشبة
صنعة
الهنود
تجا
ومعا
طريقين
عير
الطيار
فالحكم
ثوابه
الرباني
والتسليم
وقواعد
تنبيها
الحجة،
رستم
فيق
السهام
الوفد
راض
##طس
##تموا
والنكاح
الرقاشي
المكرم
والأج
والنور
والسيد
المناصب
التوصل
فاحشة
التلم
وتفرق
تتناول
##خره
رصد
الشاهدين
تلقاء
ولغ
##جعلها
##زمين
والجزاء
زوجي
المنظر
اختراع
صرحوا
أرأيتم
خائف
الصالح،
##يكائيل
سوءا
عسكره
والهدى
رقية
كفن
ولف
ورتب
يخوض
التجديد
إنت
الكناية
وبقوله
استبدال
اليمني
الدراسية
خبث
أيكم
وإش
##عرية
الأزمنة
المهاجرون
فتوح
مؤذن
##ديع
فاغفر
الآخذ
بالأعمال
اعتقاده
الملف
##فعى
قمر
مطل
وسلموا
فردا
الأجناس
قاتلوا
وطنية
##كايات
الأنبياء،
معتبرة
بالآخرة
وهدم
وأجمع
أسلحة
##ناقشة
لود
أوهام
يعلن
انطلقت
##يتس
##اليون
##خراجه
الذيل
ولعن
فبما
دمر
عثيمين
##سق
للقتال
يتوكل
المضطر
مجددا
##موه
##دادا
معدن
ارتب
النواة
الشواهد
جلسة
والإنصاف
يتحدثون
بظلم
فقامت
التأمل
ترابا
المشاركين
##ؤس
معسكر
فأهل
الغزل
التعذيب
مدل
التشديد
بثقة
نستعين
العصبة
قاصدا
فافهم
شائعة
الأبعاد
العرو
الاعيان
بسورة
إيف
##فيلد
##يسة
ذكرناها
وأصاب
تربة
الندى
ينبغى
محارم
##سموا
##حج
يتصف
بتش
والرضا
أنسا
الغرق
مصيب
فحصل
##سوم
##تلاف
وسلط
رويت
دبليو
بطعام
النيران
لتعلم
مرادا
بألفاظ
ايام
##ضاجع
##هملة
للرك
الإنت
يغطي
تربي
حارب
ملو
يوكل
بالظ
##يتام
المدائن
النهدي
والدته
بخت
يسكت
الطلاق،
الكبرى،
وعملا
بدقة
لنبي
بجير
منكرة
يذكرها
الساعدي
خائ
وتمر
باحت
وقتله
للعرب
كالصلاة
المتخصص
أبقى
طريقها
##رابعة
ولقوله
أرطاة
جذب
الميكاني
البستان
ويجاب
عندهم،
الجهال
بنون
يجتهد
الباردة
زور
وقبول
تسوية
وحميد
بطاقة
##مول
ويدعون
خبيب
##يض
ويتأ
##هاهم
الحور
الامور
ولابن
والمحبة
التخلي
بقط
لقل
ينفخ
ويروي
تكلموا
المبطل
واتبعوا
الأجيال
تفوق
إيضاح
والمعتزلة
الحموي
فطرة
##ارها
الإشارات
تعامل
للمال
أفمن
للماء
##دهور
تستطع
نمت
السيادة
أصنع
ماريا
بجل
تبدل
كراع
وعرضه
##مالي
خويلد
وذي
خلقه،
الركاب
تفاعل
فيروز
أصلا،
إمرة
خلكان
إكس
والبعض
بالزيادة
عاقلة
يتأثر
ظواهر
معا،
تايم
معامل
##ثره
لبعضهم
السكك
حرس
تنتظر
السفيه
بالسجود
الأردنية
##وتن
إسرائي
بالمثل
حاضرة
##ذ،
التدليس
المسؤولية
الفراق
المتصلة
جعلهم
المؤلفة
طلحة،
الباس
أنفقت
وأكثرهم
استغنى
رمل
الجزائرية
خاطر
##صيلا
الارتباط
خضراء
التغي
المبتاع
لمرض
والرس
والمحدث
القرافي
الجاحظ
الزيات
لوجب
نواة
فيغ
والنبات
اجلس
والزوج
الخوار
يحجب
انتفى
المخابرات
##حنث
وبالنسبة
الثمانين
كاه
المفقود
الحاف
وعذاب
##تهاب
تشبيها
إخوته
بعضا،
والإرشاد
عرفها
##شاد
قط،
بنفسك
غضون
اضرب
وتصح
والعديد
لحل
ولوا
دبي
التمس
فوقعت
منصبه
لإنشاء
العقيقة
صادر
ضاب
الصمت
##جل،
ونج
##رقية
##وك،
بالصوم
باطل،
سهو
محدثة
آذار
أوان
الجائز
البكتيريا
##ارثة
البارد
قو
##ديهم
وعامر
تكلفة
نقر
السل
النصيب
أثرها
جانبي
فانهزم
##ماض
للشيء
مستقيما
أسلاف
وبينما
رموز
بالسماع
الفيزياء
الأولم
الليبرالية
بستان
بالحكمة
بيوتكم
الكويتي
وعمار
سلطانه
مخلوقة
سودة
لعنه
هؤلاء،
والآخرة،
المفسدة
أنهار
للاعت
سجدتين
جلا
وإطلاق
القضاء،
وللع
الشخصي
تذكرون
يوف
معذور
كالف
يغرم
جرد
القصار
والأخبار
كاتبا
##عد،
الكليات
وتعمل
تبليغ
صديقه
أوجد
##ضاحي
بمصر،
للخير
والتوحيد
تتقون
التها
أوكر
فسق
جدد
تبيين
ضيع
وفرنسا
مضطرب
وترد
الوقاية
انهيار
مقياس
سيدة
##لبسه
ويلزمه
ويشمل
حمي
فلقي
##برغ
الإقدام
السفلي
بالأندلس
فافعل
معانيها
جيران
بأحاديث
##ماتة
موضعين
مجهولا
فارس،
##سبي
الآجري
المقداد
شهدا
تجهيز
##ظرا
الأدباء
##واتيم
واستخلف
الكتب،
تبو
##ظمات
المظهر
##ليلها
والخل
الأحي
الأسير
المعتز
وجدها
الأرثوذكسية
سلما
الردي
انفصل
بقلب
للتق
بيدك
رون
يجاهد
أتاهم
مقصودا
بى
بورت
سليمة
الحنف
وأخذه
والى
البحت
والأر
تتوفر
المعترض
للشخص
وقاتل
مقداره
الفقهي
استعمالها
##ينك
##قر،
العمدة
والغرب
##ذت
الخطوة
ضرا
حدثتني
أجناس
أعدائه
فكون
يندفع
المسألة،
دراس
برئاسة
الإحساس
الصلبة
بأحدهما
التوفيق،
ويراد
أثرت
معانيه
أيلول
عمق
ظهوره
الأبوين
حضره
كارل
التسع
الندم
البيع،
اراد
الأقطار
البث
وشروط
حاتم،
وبعضه
حضرموت
الساعي
ونعوذ
بقتال
وشعر
والبغضاء
الدارين
##ياخ
وسافر
وصورة
##لائكة،
##بنا
وبق
الباك
البحيرة
##؟؟؟؟
##صاله
فلسطين،
الثوري،
لعبده
المخلصين
المراسيل
##ودهم
ليظهر
أتع
بالجمع
القعقاع
بخروج
طوعا
الدجاج
فتأمله
لأولي
طويلة،
الإبداع
يندب
يسد
للتش
##وطا
تظل
ضمت
مبتدع
##اتها،
وتجب
لنا،
أذربيجان
العار
فعالية
إبقاء
تمارس
طهمان
##فعية
##وتو
فاتحة
##براطور
فمد
ديته
وأنشأ
##كيين
تخدم
كرو
الحرارية
البختري
أنوار
##راضا
والمض
محطات
والعباس
المستهلك
لغو
وارتفاع
أفرأ
عامة،
وحلق
بدراسة
حربا
إثباته
##جميل
والحجة
جرج
الحزام
التكملة
النوى
بأب
محصن
عمك
دينها
الأشاعرة
افتت
الأخلاقية
بمص
عنت
رأوه
بالجامع
فرجها
المراتب
ونظير
يقلل
الاوزاعي
##سرت
تنته
هاما
تدخلوا
الدوائر
انتقاد
##جارة،
أنث
القرائن
##سم،
مفصل
أوروبا،
ثانيه
القرارات
تحي
لاخت
إحداهن
غرر
لنفسه،
والدع
يعادل
المتشابه
قبضة
أمثالها
لضمان
##وابت
البروج
والمعاد
التبشير
##قاص
يحتسب
الأكوع
##وريين
المقدمات
منتج
##لسطين
المقبل
إشك
بأصل
أهمله
كاتبه
والكاشف
يسيل
تيقن
مثبت
وطالب
فعلته
معروف،
وتركت
بتمامه
خطأ،
المشروعة
بائع
فهرب
ببغداد،
سطر
سوط
السلب
وبلا
##لائمة
كط
ورائ
##ئام
التوزيع
وقرا
الطابع
الصلاتين
وخي
صرت
وإزالة
ينكره
فالآ
فشيئا
رأيا
علينا،
المسؤولين
يظلمون
والتاء
السجستاني
الواحدي
قرضا
الغرب،
جرحا
الخضوع
جرب
شبة
وانق
فوث
الأرجح
رجم
آتاه
##المة
الطوا
ملعون
لتخ
الباه
ألفي
تمرة
##باطا
وتبقى
للجنة
خثيم
فتست
قبل،
وكشاف
المصن
الاند
جرحه
فاعتبر
فعالة
ترث
التشغيل
وستة
الممارسة
##برج
التعصب
مباحث
فيليب
الاثر
##عمهم
##اقبة
##خائر
الأصفر
الذكرى
شقي
وجهت
ساعدة
جنسيا
جاهد
المحدود
فالحق
الاستيفاء
فاعبد
يزالون
إشراف
غضبا
طابع
##ارين
وقوف
البسملة
بمذهب
##رطب
رسمها
الأنسجة
لدخول
كبائر
وجدتم
التنوين
زوجه
حاصله
بصور
أشرت
##ومته
##كتبة
تنمية
مغلط
بارد
بالطبع
الائمة
متعا
الدار،
##ذفت
##رقوا
كتابه،
تفع
##ليته
البشرة
حاجي
وكلامه
أقص
##ؤه،
##مارا
تعقلون
أخبرهم
الخاصة،
جديد،
فرحا
معلما
الزعيم
##تقوا
أنط
يوم،
كافيا
شمالي
التغذية
##بداء
مخلصا
المحصنات
قحط
أهالي
تبي
وإيمان
المذهب،
صاحبه،
عجيبة
##فورد
##نى،
حقيقتها
الكيفية
نشأة
المخالفين
##سيف
لعظم
الممر
ويفت
أنهى
اللذة
الضامن
مكان،
القدسي
##ضعفين
خطير
أطلب
فيحتاج
الشرع،
الاختلافات
شاطئ
يستدعي
الموسيقي
فوافق
للجمهور
الدير
أعان
مجيد
بحجر
بالاحت
يقيمون
تآ
الفارق
أشعة
يردها
الهند،
لدينه
ينجس
##شيات
سيفا
##زابيث
شربه
الصواف
وتابعه
شرور
طهرت
التلبية
كليهما
وصلا
هجرية
بمثلها
وسنده
##بكة
قصائد
لار
ليون
فعرض
البروتين
##شها
وقيمة
اعتمر
حفظها
الظهير
وعروة
##ريقيا،
نجدة
صمت
منصرف
انخفض
##شتر
تراض
طيلة
##قنا
بالقيام
ونسي
ألعاب
الكراء
وخش
ينع
القتال،
زمنه
مكونة
هناد
خاليا
مختلفا
##ذته
الاستماع
والثواب
بعموم
والرجوع
يلتمس
المفترض
التكنولوجيا
المعلمين
ومنعه
رمح
خسارة
وجوابه
مقيدا
الشعرية
برض
المحدد
##رفة،
وجامع
يتيمم
##وارئ
اقتداء
سلبي
واستشهد
نظائر
لتقديم
والهر
##حمود
##تهيأ
الأكابر
زهر
أولهما
فلذا
وقولوا
مئوية
بئ
طوبى
الرع
انقطعت
##سيون
باشر
##قيقته
يارسول
توضح
العلى
العجيب
ردود
بثوب
بجر
مهام
##ضمون
احدهما
فيحصل
والاتحاد
##حده
نشره
متاعا
دخله
لجعل
ذبحه
تجلس
غرار
النافعة
والجنة
للعهد
الاعتصام
يرجون
رميت
نفل
يطف
والصدق
قدوة
تأخذه
##طالبة
وأثناء
##صيري
##هلة
السبي
معاوضة
العمى
قانونية
خفاء
بحقيقة
الشهرة
تمكنت
ملحوظ
وجواز
فادعى
فأك
تريدون
وشذ
الأسط
الموضوعة
لبقاء
وباع
تعميم
قدمي
الغش
الحجرة
الفتح،
التونس
استخرج
علم،
تخلق
النواحي
وأوصى
وارثه
ووثقه
ليتم
لظاهر
##سمين
والمجنون
وطبقات
فكن
الجمار
وحول
الحاجات
الأعمش،
أنكروا
الكلاسيكية
ظله
والمؤمنين
يلزمها
وبالإضافة
نصيحة
سباق
العجوز
شهادات
مقصور
فيف
يسوق
عقلية
للكفار
بحقه
وراث
بدعم
ناقته
النسبية
شباط
التعدد
عياله
وطنه
الغائط
مرتبط
نقصت
##كوفتين
سويس
خطايا
##يلاند
وضوءه
بطر
للحسن
أصابها
ذها
لأمته
##ياتهم
بالرم
##ربى
استعادة
أدل
اتحد
وكيع،
وهد
بأسباب
##سرح
البوسنة
شيوخنا
البرتغال
ارحم
فيثبت
التشي
تركنا
زعمت
ونادى
السختياني
همدان
بظهور
ونعيم
وسعة
برزة
الأفريقية
المرابحة
تكف
ووقعت
السوفييتي
الصنعة
يقلد
أباك
المدار
شدد
ضحايا
وبدون
الإفاضة
المواجهة
منف
الصغاني
والرجال
والله،
المحور
##غيظ
يوحي
أبيح
وإف
##وحيده
تدعي
أنماط
فأتيته
ركعتان
##افية،
الأغلبية
بفرض
دخلنا
حرمته
وكيله
الخفيفة
أزل
عائدا
وأحوال
الأرقام
خلية
أكذب
فأنشد
تفرض
إشارات
تروي
الفصح
يؤول
تأنيث
مكره
يوتر
الدائن
زياد،
تنتمي
حظه
لاس
وبنا
المقطوع
يطي
خلص
##نر
معني
والمأم
وفاطمة
لطيفة
لأش
ومحبة
يدرى
شيئ
أشرنا
ألت
فقاتل
وتابع
الثيب
بقلم
اهتماما
رأيك
فعلوه
الضرورية
أيتها
وسجود
العبسي
الحسني
##مارسة
ينفسخ
##بات،
ألفين
حاكما
بركات
##بنة
بحج
##دخال
بالدعوة
وأبلغ
القيا
فأخذها
نافعا
الأصوليين
والأظهر
لخمس
بالوجه
يمكننا
المقنع
##ربص
هدفا
الرص
وسيا
بتج
عشري
للفظ
بائنا
يستعين
##رعات
بيروت،
ردة
والابت
أخبرك
والبناء
المكفول
ويشبه
##هوات
المقصد
يفترض
السائدة
نبذة
البغدادي،
لقيام
بالصدق
بالرأي
تضعيف
##غاف
أوضاع
اليوناني
ضال
النكرة
الصنا
يعامل
عامدا
أبوا
مؤجلا
سجدا
الألبوم
##زدلفة
استحسانا
القدوس
للصائم
مرداس
مروي
الزبر
##جارية
بنظام
##ولي،
اتقى
الجمعيات
لآل
سمرقند
التقط
القيسي
موسرا
عنان
فليكن
الابتلاء
اللتين
الصبغ
الضخم
فلحق
ويضمن
يؤجر
رسال
البدا
الحاكمة
المؤلفات
والمسألة
التسلسل
وطريقة
أجازه
جيب
عسل
نلت
##حالة
وحما
اسرائيل
الناصري
بدو
غفورا
##نط
ويتع
مصاد
إخراجها
البلو
فسكون
##أو
##ونكم
الفزع
اقتضاء
الجديد،
مسندا
والبط
وكبير
كهيل
مقابر
تتحول
مطولا
مخصص
##وسيع
الآفات
ودخول
خطرا
المنخفضة
جريان
الكيميائي
بالحم
لمجلس
##ذهبه
نفيل
فيج
يجامع
الهجمات
شرار
فصر
##كين،
التسم
وألق
القان
واذكروا
ونوى
##تموها
والحالة
بالعود
محور
##نتهم
الاحتراز
للخروج
انتخب
توكل
الأعمال،
جانبا
قاذ
لملك
وضاح
المنافسة
الفقي
الناشر
أملاك
المبتدع
الأشر
بالنذر
نهض
ندبا
وقبله
وهلك
لمواجهة
للبلاد
عودته
بشهر
والصلة
الكيان
القرينة
للأس
ويقضي
يثرب
##ثت
والرف
الدقة
قائدا
يثاب
يبس
يطيع
فألقى
الهز
واليمن
السامية
##طوم
وسطا
عطاء،
المحددة
الشارب
المجروح
،ف
متزوج
تمثي
##قالات
المجن
اشتكى
جدعان
بالأب
بولاق
##سيل
##باش
أبط
مشرف
تفقد
استيعاب
لأغراض
تطل
وسخر
بناها
انقلاب
مجلسا
##ثام
بلوغه
وأفعال
طلاقه
العداء
للتعليم
فراجعه
التلق
ولهما
ينتشر
وسل
الأغذية
صوب
المعروفين
فسادا
هوية
جعلناه
نابليون
حاذ
نسك
أتانا
العضلات
شبرمة
تفي
##ميس
هو؟
استنادا
بيبرس
تمرا
تتفق
نوعية
الساعة،
بفتحتين
تسمي
الوضعية
وضي
وصيام
بروتين
العشيرة
فصي
##ذع
##ذذ
##فعته
ينافيه
استطاعت
فلزم
وعمله
##بوبة
للقا
قلع
وضوح
ظني
مكون
نذرت
##فوف
لوصف
##حبته
المكارم
وسبعة
تتألف
كفيه
يتسبب
وصوم
نشرها
لوضع
يحذف
جابر،
هجمات
النسيج
حولا
متقد
##هني
بالمكان
الشامية
قبضها
بيعت
سمعان
التصانيف
الغرور
قيده
لتد
لعثمان
عيال
وبهذه
حضرته
يباشر
##حهم
بأهله
الضباط
الرؤساء
للثاني
إجاب
إقبال
ويهدي
زعمه
وصنع
##نبه
واغ
فشق
بحضور
أغلق
وتركوا
اليك
أفهم
زوجها،
حرز
غشي
التمام
##سلخ
للحفاظ
البسيطة
أسنان
فضاء
وانا
والسلطان
عجوز
المقتضي
مصنع
النصرة
نظر،
الفضل،
القدر،
إمساك
والسنن
سمة
فيديو
للفعل
##يتو
متحرك
مؤيد
النكاح،
التفاصيل
التكلم
##حنة
والأفضل
تكفل
البديع
##اوف
يتزوجها
الواحد،
جيشه
وربيعة
قضاعة
أأن
ناع
وساعد
للملائكة
ودوا
##واطئ
البالغين
صوابا
دعوتهم
صنعه
##قق
##اكنة
والمنكر
خاله
خالدون
المعتبرة
بالخلافة
صبروا
الإعداد
الغطاء
المعجزة
تحسب
آلية
بجز
ففرق
لخلق
شربت
مفض
أعض
تكفر
##بياض
وصبر
السهيلي
المثقف
ثدي
فوه
والعجب
يصور
موجبة
النحويين
نبو
##ذبة
اربع
المهام
المتاحة
الجامعية
بالرق
بموضع
والرسل
عذابه
##يروز
وصدر
أقارب
المجلات
تشترط
يعقب
ومم
الغري
وتحديد
المقتدر
والأسود
يداه
عزاه
العدو،
سياسيا
جآء
روج
مني،
الصق
المشركين،
حيثما
إعادته
للمسجد
بائن
الحطب
يتمنى
انقلب
مقيدة
المستمع
تبدي
مذهبنا
أنبا
##افة،
المشبه
الجذع
المهمات
والوز
ويمن
المنجم
##طرون
اللاعبين
يسألونك
المفردات
اكتفى
حلقه
لافت
مترو
النسائى
بلفظه
صادقة
الهيئات
##ئدة
والميزان
##شاكل
فاق
الديانات
هارون،
فسمي
التشيع
يدخلوا
اللغة،
خيف
للسلام
ليز
قلد
وقوعها
ذاهب
المبيت
##امير
##سران
المحلوف
ويشرب
فلست
تجميع
التحدي
ومولده
الناظم
الثالث،
التنوير
رعيته
عجرة
غطفان
عاشر
غايته
جراحة
##قليم
تتصل
انهزم
رأيهم
الأكفاني
وأوجب
وعهد
متبا
والوقوف
غلة
والصل
باليوم
ومعت
حفظا
الأرز
وانطلق
حكومية
حفظت
للشيطان
وبغير
والنشر
يؤدى
##وريا،
الفيض
منزلته
نظمه
باللام
السعد
الخاتمة
يأخذوا
إخوانهم
المتظاهر
اقتر
يقبضه
وشهادة
فوص
السبا
يتلى
##زلهم
وجرت
المعتضد
منسوخة
ثنية
##بيلي
ورغ
فرغت
قطرة
قليلا،
العثمانيين
دفنه
##راية
البور
نبوته
مخاطر
ذوو
مساو
##ورثته
رفيق
لظ
لدع
وعرفت
الفعلي
المغناطيسي
يظ
معسرا
عاشت
مزارع
الاضطرابات
تلميذه
شبع
هق
##ستن
والحزن
والنصب
يغشى
الكفار،
الحبر
والمؤسسات
##غلوا
والمؤمن
يمينك
تمي
نعمل
يقتضى
طفلا
لقط
##ائها،
عقار
فيذهب
وجرير
متناه
وطبع
نواب
الشجاعة
الزه
يطير
وأعلى
والرم
وسعى
وآداب
لفهم
يحرص
بتب
تخر
##قفة
استوفى
ناقصة
زعماء
ونهي
قلناه
كرهت
يبسط
##هاينة
صاحبك
فاستع
تأكيدا
صفي
التيسير
قتلها
وغضب
طبعت
معجز
الاسناد
جديدة،
##ينو
مدلول
الأحبة
فوجده
توري
الممد
المسبب
ودعم
المسئول
نومه
وعلل
##سب،
المحبوب
الألي
تصا
المنتظر
صداقها
استأ
تغيب
ارتحل
فؤ
وضر
والأفعال
والوعيد
سمك
الحقيقة،
الشمائل
غذاء
##طني
##بيه،
يقض
أمية،
الخمر،
مغلطاي
الحالين
جرير،
أمواله
دورها
بذكره
لتعذر
أجعل
تواضع
##لالا
فإلى
##رار،
مؤمل
أزهر
القطي
لعلى
الثقيل
الخصوم
رابعة
أمثالهم
تخلص
##ذائ
##بيلية
وإله
ينظم
وحبيب
غلظ
تذبح
فجا
##نين،
مالم
أبالي
الشيخ،
تسبيح
مودة
##رادا
إنهاء
يأتيك
##نجس
التحكيم
يهاجر
تشري
يكرهون
مفارقة
##بوض
ويث
خصلة
بعثنا
يكرهه
الأكثرين
كبرت
اذهبوا
لقصد
##كيت
##وفوا
قضيته
منهما،
بولس
ألسنتهم
الإطعام
دمج
يجي
##قاوة
والشكر
وطيب
،وال
##ائرات
فحضر
للشمس
القسط
أوتر
وجا
##داود
ممثلة
بجزء
والمقت
الانتباه
الثقافات
##ندقة
مساحتها
المكلفين
سكة
عكرمة،
المغا
يلقب
##زل،
بالجيم
أكملت
مبالغ
##كرير
يتك
الهمذاني
الآدميين
عرس
ففعلت
والري
مجهولة
لقيته
خالفوا
زمام
##لم،
وفائدة
للتك
بثمان
فورد
حقوقهم
منظمات
المرجئة
البزازية
سحاب
فحق
المجل
بالوحي
والتوبة
تنافي
التطبيقات
الفهري
الكمبيوتر
عقال
وجيه
وإخلاص
وأوص
أموت
إعجاز
لزوال
أوها
نموذ
رماه
المستشار
والشجر
##كبروا
فشلت
قصرت
ضامنا
##ؤدي
الخدم
المعبد
غرائب
لبل
والاجتهاد
تعقب
لكما
##هاجرين
أبرأ
الخاسرين
العارض
بالوضع
وأحل
ويحسن
##صفهاني
الإصدار
ليعرف
المعنيين
كفت
ويختلف
تحط
الفنانين
معكوفتين
غيركم
بأش
ألف،
جدول
الحريري
لخط
##ثرات
لمذهب
ألفه
ندع
##ثان
لمدينة
ولات
فحفظ
أصابك
عجبت
موجة
نصره
حيضها
مذكر
والنقل
يطبق
خصص
بكلمات
الهلالي
متضمن
المستعمل
##ضيحة
بالحياة
ظنوا
المعدنية
مراك
وجهات
بمقت
##دتها
##قالة
بالبينات
فالذين
سياسات
فنع
بالجر
أمران
أذنه
الإيراني
يدبر
وأخيه
فقتلوا
حفرة
العير
بوب
##وعد
الكاهن
##لق،
ينفك
قتلى
الاستئذان
نتحدث
تهامة
كادت
##صع
الكيس
##ياها
فاتخذ
يكفيك
عتيبة
لجماعة
للإي
استواء
مخاض
مشيرا
ترس
التوا
الظاهر،
نصل
##رجيح
##ضيت
والخطأ
فأنتم
للناس،
بون
دليله
غربت
كفارا
السدوسي
العينة
أشق
الفرعية
مباركا
أوساط
الأبدان
عراق
الكافية
##وتك
فأخذوا
الطيال
مظلم
وجرح
المشددة
قومه،
البقعة
فالمع
##وكة
بإقرار
الأسطول
والاقتصاد
الصوري
الآخرين،
الأسود،
القضائية
##كية،
والأه
لنحو
الديات
لثبوت
##فيس
وجم
فصلا
مظلمة
يوثق
معبود
##افح
واجتناب
التصدق
يقولها
وزهير
هواء
وتذهيب
##اجرة
وسؤال
فتق
##نتا
والحرب
التستري
أدا
لرد
رجعة
الرجس
##الفته
بالطعام
وهزم
لتطوير
همز
وزوجها
خفتم
الرفض
الرتبة
##كلين
بأسانيد
وآت
الموقعين
اللواتي
بذنوب
جليلة
للجماعة
بفاتحة
وفاقا
بإسقاط
اشتهرت
ويعني
وأحضر
بأموال
لعمري
فيقدم
##باز
شعرها
للفاعل
للمالك
غزوان
وإجماع
تقصد
تمكين
يزن
نهيه
##كافحة
فبأي
نوبة
##ليل،
ظلمه
الجديدة،
بدعوة
الشريط
طبر
أمنا
بدورها
##شاور
أوحينا
صنم
يطلبه
##نتج
لتعلق
والثلاثون
يتقبل
ولب
مميزة
أسست
إيقاف
الخميني
والعت
التقاليد
##ائر،
##وساطة
والجمال
الرفاعي
الدعوة،
والطرق
عالميا
فتعين
المصارف
##ذرية
منعك
المفتاح
قانوني
بالسب
المعماري
باش
هاذا
يفرح
الكامنة
شات
السمس
##قيته
أجرهم
صلاتك
##ضاي
للحزب
جنوبا
للعب
والسدي
وثابت
أطلقه
بمرو
مناج
أيار
الهذيل
الوراثية
التنازع
حيوانات
ويبطل
الشدائد
خراب
ولازم
الخلود
المنسوب
أبل
وفل
ويسجد
أورث
البشارة
##جيج
الهاش
جذع
كفاءة
فتزوج
الانفصال
فصالح
يجعلنا
المخصص
كنوز
وناقة
الأرجنتين
جبهته
سمات
##بتر
أبوابها
سادسا
صاب
ولام
##ائهم،
داوود
مؤس
الباطنة
ندا
بالطاعة
السامي
الحاضرة
وخمسمائة،
يركز
بهامش
أثقل
المعاف
سعدا
##انه،
##وليات
البربر
يرشد
جنادة
طبية
كبري
والسين
الخفاف
##ازة
مشابه
المستنصر
متجه
وأخلاق
الاستشراق
عريض
##ضج
##طارات
للأخ
تبن
وأظن
بإجراء
لنظام
يضبط
##حتكم
##يفة،
وينقص
فاتته
وإسرائيل
جيء
خفاف
البطل
##ضيفت
مضرة
##أييد
وحاصله
المتحركة
ترو
بنصب
والتنا
والحجر
أخرجاه
بله
الدعاء،
وأفاد
حقل
متبر
للمعت
والأرض،
ودعوة
اسلم
الوعظ
والمنافقين
يومها
بالإي
والمف
المتنوعة
##ودين
يتيسر
عشره
التحية
للجهاد
أخباره
فوجدته
توم
نبى
##خش
تجيء
الأرباح
أنفقوا
التمار
##ادث
نفير
الأخيرة،
المكتبات
تلميذ
حسد
يعول
##قييم
بشخص
فيعلم
يحصى
مماثل
زمنا
لقص
وراجع
للرد
وانقطع
بالعبد
جنازته
سها
##عاها
المصابيح
بنتيجة
إنجيل
وساء
اثنتان
القادسية
والثقافية
الفك
##ركة،
فاضرب
بغرض
المقدس،
وواجب
الكعبة،
فجلست
أفندي
مضمونة
غفرت
يتساء
الأمد
لنشر
مواهب
قدروا
##دس
##شفة
وأيد
فقيه،
وشريك
عورته
مليا
الأير
للمسا
الكوثر
مخلصين
الأهم
بتخ
المحيل
البس
يجرى
فمنع
تنح
سألني
وأبناء
عيدا
بمحل
حقه،
والكبير
يعتبرون
وجيزة
حتما
سقى
##رقه
يفعلوا
المتبادر
مدرس
واغت
للعديد
الماد
والأعمش
الضحك
أوم
للغة
الهرب
تره
يدعيه
اللعن
يأبى
أغاني
سببها
التمرد
المريد
فأعتق
الراسخ
يخبره
##جيله
يلجأ
واعتبار
سيدا
الناشئة
فعلنا
يرمون
سدا
وطلق
نسبا
أصحابك
صدقات
المواقيت
افتراض
الزاهرة
تنشر
وثائق
وإسكان
قراءتها
البيزنطي
الحسية
وسلوك
للموت
كندة
النوعين
الزعفراني
الأقاليم
فتوجه
الأحرف
البقية
أسلم،
وأشرف
عميق
الإعدام
أمثاله
فبه
مفسد
المحراب
الآمدي
مناخ
توط
أقاربه
المهند
سكنى
صدوقا
وضمها
وأولاده
عتي
يكرر
الدمع
الدلو
مصلى
يقتص
بسا
##ذوب
##رائح
أنشطة
عدت
كالط
تجعلوا
السحب
تمويل
قتلوه
لانهم
رحلته
مؤكدا
الخوض
ذكرتم
أعلاها
بقبول
عشرية
بالتالي
وأسأل
تصانيف
وافر
للزوجة
وشرك
وضعوا
اقتضت
العباد،
الساجي
شابه
الاختصار
ضار
مقار
تفسيرها
السنوي
##شميهني
الاغتسال
##قضوا
المزكي
المشهورين
مرضا
تكلمت
الاتحادية
التراجم
رضع
والتصرف
تتبعوا
بكتابة
##قيطي
والإرادة
مرش
فني
الممالك
##راثة
ساحر
##باني
الوقعة
نسائهم
##ندى
الممارسات
##راص
##يدز
الإط
##رى،
العهود
##حمي
أخوك
وأمريكا
وجوهكم
الاستعمارية
الدرج
تعهد
بعذر
أبشر
مشاهير
صاحبنا
بجنس
كرسي
التلفاز
تعريفه
يعرفوا
حسبنا
الربيع،
بحديثه
إجم
مورد
##وارج
المصانع
ودور
سترة
نجده
ناجية
تعطى
يصط
ذباب
والمنع
الفاع
يسري
دارت
طوي
يتجر
والتعاون
عفوا
الميلاد،
مبحث
السقف
حنيفا
وواحد
المعدوم
لزمته
مستقبلا
##قراض
البكال
وإقام
المعمر
##ظرية
جبرائيل
المرحوم
##قائق
##يرى
مشا
الخلقة
المازري
##ثلها
الفوت
الطعم
ويرت
السكة
أبيت
وصلي
والإشارة
وأنزلنا
يستمع
لجأ
##فسق
رجلي
تشجيع
البطر
التنوع
##ائبة
ومدينة
واتفقوا
اكتسب
ربيعة،
شجاعا
##لادي،
الخاط
جاؤوا
نهائي
يغفل
وحديثا
اللوم
المناق
المؤرخون
اللائق
بالإشارة
ألقاه
اعملوا
والقصر
متساوية
##صيبة
المكذبين
عادوا
قسمان
الظهر،
نوادر
يتألف
باحث
منير
العون
بإرسال
مصباح
السماك
ظهورهم
##قلا
المراقبة
الإسلاميين
لغيرهم
المخطط
مصنفات
##ئتي
أشركوا
وشكر
تجلى
المسألتين
والسلوك
ساقطة
المفلحون
والمعتمد
بالجواز
الاعرابي
عليما
الفرص
أصفر
ديون
سرور
بروح
##ياض
##طيخ
مصاب
واجبات
بكونها
قلما
ويصف
نسألك
للجنس
الأل
القحط
المسلك
##رتك
قنوات
##سلسلة
مغل
ثقي
والصحابة
##نيك
##هباء
حادي
##زعوا
الحجاج،
فرنسا،
الازدي
يخصص
سمعا
يصليها
الجدول
وريح
##ريها
ومائة،
تجعله
مدة،
أقواله
بتأويل
الصيدل
المبني
مؤثر
أدر
##وجات
عور
##طفه
المظاهر
##انيته
الغمام
المصدق
القدا
تحديدا
اتب
##ائث
الصواريخ
فرف
يذم
الإضاف
تحلل
بالمص
يكتم
ركبت
السجدتين
الأوت
واحمد
ملازم
وأرضاه
تقارب
النسائية
شأنهم
الكوفي،
قرارات
وكرم
واليت
##باية
أولى،
المحتملة
حضوره
فاسأل
القسري
متفقون
فتجب
الحقبة
المنادي
الأعصاب
وبالغ
رجلا،
إيماء
إفادة
الأنصار،
مظعون
أنشأت
خطيبا
أفاض
دعاهم
الرقص
الغزي
الخطايا
فريقا
والتغ
##تابي
الحنظ
الحضاري
معار
الجينات
ومشى
ينحر
بمدرسة
يزور
التمكين
طريقته
البدنية
مضمر
المرسلة
الزرقاني
وتفصيل
##رامطة
بالأص
مباريات
مقدمته
دلالته
##هبة
وكاتب
متوسطة
وحصلت
ناصح
أدهم
عبدوس
الدينية،
القيوم
ويحتاج
يهتدي
تدر
أجمعين،
وكأنها
سراح
ففت
##درا
معج
ومنصور
تعلمه
وبئس
يمشون
##كتات
والعذاب
التفويض
رقيقة
نفق
والحاجة
ورسم
لحركة
مستحقا
فسلمت
أنبيائهم
شبل
واللي
للخبر
##ضيب
الهدنة
الفرضي
الممتنع
والمجرور
السمان
الإقالة
تضمين
فذبح
الهدايا
وثمانية
الإداري
فاجعل
أعمارهم
نتكلم
تجرى
يزني
خطابا
المغاربة
##ونا،
التشخيص
##ذاة
##وسي،
الاستث
ومسجد
##رقا
ديانة
المروءة
والإكرام
الهامش
##نبؤ
ارض
عتب
فلع
دهن
##نية،
الفلا
##قدمت
أقرت
##سح
##خلات
الفحص
وعزل
##ساها
الضالة
بخمسين
بك،
وتسعون
الفاكهة
##طته
فأخ
والصبيان
كبيرا،
السباق
الكراهية
ذبائح
##ثمر
##بيلة
أموات
المساء
##طفية
بسببها
العباسية
استعمله
المعراج
فالد
الميلادي،
فغسل
يكذبون
أرجاء
##جئة
والريح
أرسلناك
آتينا
فيسقط
##هتمام
لمص
ونوع
عامله
مبشر
شيد
أولادها
ملخصا
كلو
وحمد
##وامع
العلق
##ياجات
ومعجم
يغل
أرباع
أسيرا
النقشبن
النسوة
قصب
بعشرين
نظريات
ملجأ
مباشرة،
حله
الإجهاض
ظهرها
يبايع
فيتم
الثروة
##فارس
وزعموا
شامة
أحسبه
المرآة
ويؤدي
##بيهات
الرماح
##عيها
بريرة
مهنة
أعدت
وثمانون
مذموم
ونزلت
المؤتمرات
بالأدلة
فحكمه
##وجيهات
أكاديمية
هديا
والصحة
والمواد
ينز
وحف
الصحوة
والخدمات
إجاز
كمس
فيعتبر
##بوغ
يستقل
خلقوا
يطعن
الثوار
المؤكد
##زامات
لقولهم
استثمار
بلبن
بجعل
يربوع
رضاع
##ونية،
##زيف
تقصر
نزهة
فالأصل
انحراف
ضيا
عده
المئة
المحاصيل
##صموا
الدراوردي
ظرفا
وتفر
للنظام
فدخلوا
##ون؟
##معن
وتصد
أمه،
سمعها
قلبت
حسناته
المميزة
##لف،
قيود
أون
للدعوة
وتسلم
بقيمته
قتله،
عوف،
دولي
أبصار
إحسانا
اطلعت
##ولادة
وتعقب
أحت
والنحو
طولون
والتصويب
##وقراطية
ذروة
وأفض
وهبه
##ياه،
بالسوء
##لفى
حديثي
المكاف
بارز
الجميع،
واشترط
بحوث
##ين؛
ابنتي
للمق
صحراء
محاكم
سرى
##سهم
ويقف
##وسعة
كالآ
علقت
رأيي
ويبدأ
##قولون
سيتي
حكمهم
استئجار
الكثير،
اللجوء
بنته
وأقيم
ماشيا
استف
الحالتين
وأقوال
وأئمة
##بهن
المشاهدة
الرقابة
بمي
القبل
فالإنسان
##عاس
التسجيل
كماله
مركبات
روايتين
بتخفيف
##موهم
التنفيذية
الصنم
الواثق
الفتيا
فأمرهم
بالآيات
الجامعي
تبحث
تتابع
##ثالا
الوظيف
بقرية
ودراسة
بفع
دماغ
القوت
الخبراء
ثمانون
سميث
والتعبير
الربعي
كلتا
يئ
##ملها
الدلال
تنال
ممكنة
المرادي
ثالثها
يشرح
للسيوطي
لنت
##ظان
الدب
ينوب
اقتصادي
آكد
زاذان
فسا
فديك
يتش
ونك
باث
تأول
##دونيسيا
والاستن
ووضعت
توسط
##عياء
بغتة
نقرأ
الإقناع
يثق
##ستور
واضع
لتج
تواجد
فمال
##غلا
منته
بالشيخ
يعظ
تكسر
التقية
نواس
دوره
توصف
فبر
##ومهم
##صاء
القصائد
الجاهلين
وشرعا
بوج
تضاف
الاسلامية
تواتر
لينا
##واصلة
بالديار
الحواس
وأفعاله
فلقيه
فلكل
مقصورة
السقي
الغازي
بإقراره
التقنيات
الهمة
بالشعر
مأجور
لوقوع
تسن
##رايا
يعلو
وليد
نفرا
وتسعمائة
الصعود
ويسعى
##عهن
بيتر
غلي
الميس
بالشرع
لمجموعة
فنية
يشتد
اثبت
نعل
##غاله
لتغ
قرنا
تأخيره
تأييد
دورات
بالقتال
للعين
فروخ
##سلت
التسا
بمجموع
فرآه
بارزة
اثر
كلمه
وزم
ومي
والنف
فبطل
الأقليات
اللاهوت
المعيشة
والمصنف
شهري
الموط
الموجهة
##ماهم
وتبلغ
##قياء
بتمام
أفراده
سواه،
مقصودة
صلاتكم
ساهمت
كهيئة
والمشركين
عمومه
برحمته
الأحقاف
والثلث
إنقاذ
##وزان
يجمعون
آنية
صمم
الألقاب
الفائز
الإنكلي
تشرك
وأعرض
والغضب
فصدق
##هت
البضاعة
الازد
صفرة
الندوة
العلية
المحاملي
كني
وأمير
##ربة،
وعكسه
خلفها
##طىء
ثار
شان
مفار
##وارح
ولاي
شيكا
فرش
نكاحه
يما
وكقوله
جاءتهم
ولدك
لإطلاق
المشتبه
فكلوا
نافذ
دمت
وحض
والآخرين
يرتكب
بكمال
للام
##ثهم
وأعيد
المسابقة
##وطنات
والاشت
واتخاذ
موقفه
العلوية
والسياسة
الفواكه
الذرائع
الخفية
الأشباه
البارحة
استعارة
قادرين
الموضحة
##رسي
أوليا
ومقاتل
وصاحبه
##قطنى
أجري
والسمع
##دتك
سليما
##صالات
طبعه
خوان
كاره
يدعم
تطمئن
الحماني
فأج
يقولان
الكتابات
الانش
ومحله
منفص
وبدا
بدينار
محتاجا
الهولندي
دج
هون
تشركوا
نصبه
مقدمات
التطهير
ويخاف
أرحام
فمس
##روش
والأثر
تعتقد
يثني
اغتيال
بنجاح
الجين
للوجوب
وسعها
بوصفه
المصيصي
##غها
العبرية
بالضرب
المستخرج
ومركز
تجدد
الإحكام
إط
المؤنث
اتسع
نجسا
عالمي
الحجامة
فإنني
استب
للمريض
ولكننا
عمى
اضطرابات
البديل
والمفعول
بالمدرسة
وصفته
إياه،
المختارة
والجل
وند
وأكثرها
إغلاق
##بيبة
وإلي
##فعها
ميسر
ميلان
مغم
تقريره
الكهر
الغلبة
اليما
تشا
كفوا
قصدت
فانطلقت
قصيدته
وجماع
##مانية
عدالة
مصدرية
يجتمعون
الفوارس
الخزانة
قضت
كنف
اللع
الفيدرالية
مهرها
داعيا
أعناقهم
##فيظ
##تكاب
الإعتاق
المستشفيات
ويرضى
والطيب
واسمها
للورثة
آثم
فتحة
وحيا
##ضرته
##طاها
حقا،
شبيهة
الإحاطة
##ظمه
أنت؟
والحرية
مولي
والقصد
الزل
تحص
أحجار
##كاملة
آفة
الإيضاح
به؟
الاثني
الطوال
الزحف
يطرد
سلطنة
الكونغرس
مذكورة
للاتحاد
##يتها،
انتقد
حواء
لسنا
##دهم
الأيو
السواء
نظيف
وخرجوا
البضع
ويلاحظ
##ويك
حرمان
ترعى
سلي
##قسام
##بج
الأجن
معيار
الشف
والساد
لصح
ومض
تصنيع
تعاطي
وتخصيص
ثنائية
جهز
ودينه
أجلس
إظها
عشاء
ندعو
التهم
رجعنا
الكاذبين
شبرا
##فاهم
واط
العلمية،
الصحفي
عادي
لبا
والعتق
##وبوا
بالدنيا
بنائه
الحسب
وعدل
صدقته
عائلته
ويؤكد
التعاقد
مالكها
تاريخيا
ضربين
العرقية
مهاج
بالهدى
الساكنة
##ائق،
وليم
أحلام
ترجح
يعدون
صلاحه
كآ
أعطيته
مسافرا
أوقف
الصدا
الغليظ
اللحوم
بالإنسان
بلدا
وحز
الاجتماعية،
أسب
لبنها
مفصلا
بالتمر
ومأجوج
أقتل
بذبح
والذهب
متعين
##دمج
كتابك
نجحت
الصورتين
حياتنا
ببني
الصخر
##قلان
بقعة
ثلثمائة
فيكت
##ديقين
زوجتي
الكرك
وترتيب
##دادي
أصلية
نقش
فدفن
معظمهم
غرضه
##ريهم
الجبلية
##ريدا
الداني
ومعناها
المناسبات
للغير
##كنها
##وانية
مهلك
مقرر
فرحون
الوثنية
وقائع
لمحا
##ضاض
بعثك
التابعي
بدايات
صان
فأر
الزوجان
الحرز
وتحسين
الأكراد
ناقصا
المسلح
البريطانيين
الزرقاء
##امله
انقل
##تمين
ويسمع
ونسأل
وقيم
الداري
كلامي
لإزالة
وعمره
تماما،
الخلفية
خيرة
##سقى
مناصب
فالغ
المكاتبة
فصاروا
ليدخل
مارتن
ثوابا
فيضمن
التتابع
التكاثر
وطرد
العملاء
وأولي
الزيادي
المطار
##ادق
الغيظ
وبحسب
##قرة
##عيت
والمم
الحدوث
بخص
بعتق
##رضاء
أخوة
وقدمت
مباحة
الثلثين
روين
المروي
وقصة
##تابك
وحماية
##رحيل
ركاب
التميم
وقفوا
يرعى
##موك
##بيدة
##حتك
وتعقبه
نفقتها
مريد
المحجور
الباطل،
وصاروا
الدورقي
داخلية
والراجح
ذاكر
وآخرين
مخطوطة
ووسائل
يفيض
تعذيب
ليبين
الأمري
المستويات
والسفر
يجزه
الرافضي
جوع
فشك
قصره
الشوق
##ذنا
بالإع
عمامة
قهرا
اندل
ينفر
مخففة
بمفهوم
والجنوب
يغر
التأويلات
شبابة
درك
والتجارة
لتست
الكميت
دحيم
أوف
له؛
واستطاع
الشاميين
مفردة
فئات
لإمكان
المعاهدة
مغفل
يأمركم
الجغرافية
يشاركه
خولة
والوصية
والعافية
انتصر
سارت
لباب
##طري
نقف
امتدت
عصاه
استطاعوا
البقا
فتك
جملتها
ككل
مراس
وأبقى
القري
متت
المشرف
تصب
والخيل
المخطوط
تعبدوا
مجتهدا
دهر
السعودية،
الياباني
إيجابية
المقاتلة
ويده
الغريبة
تدارك
يرخص
خسائر
والكسر
للمرء
الرخص
تصني
##وز،
المتون
سيرا
يعتم
هممت
ضلالا
تله
##يدات
انزل
عاجز
والوسط
والمسي
محصور
اليمنية
الخصيب
وتجعل
المليح
ويفتح
التنصير
والنخعي
أغلبية
نكا
##أها
الاستطاعة
فرنسي
ماكس
يستخرج
بالأح
يصح،
حجر،
وخت
يرمى
أقاتل
##زاحم
لسيده
الإكثار
##كانة
مؤلفه
الورى
ساعة،
الأنثيين
بوساطة
الملام
الخان
متوق
يحلق
تحذير
سيوف
صدقا
##برين
انضمت
إراد
##طعه
##لونا
للمحرم
يجل
شيعة
ومروان
اجتمعا
والياب
##هم؟
##عب،
يدعوا
الكمية
تفصيلا
مجاوز
أعمالها
الهيدروجين
بمعدل
مدلس
بعملية
##اتنا
والأطفال
مكروها
الدمشقي،
ايضاح
وخبره
العبد،
نتج
الكوفيون
جامعا
دوما
ونهر
الثلاثة،
عليكم،
يرضي
بوم
بوجوه
دحية
والقانون
لسانك
نفاق
##صلات
الجس
تعريض
الأميركية
تمنى
وأيدي
سيارات
##لخص
والراف
السرة
ويؤمن
حدثهم
والجار
بالثاني
الساحلية
وبكر
##قاظ
يستع
أفضى
أعطاها
تاجر
عورات
النسفي
##صيلها
وأجمعوا
##عك
##بعير
مكونات
الروحية
وكتابه
ووهم
وألزم
ويقطع
ضوابط
أعدل
القديم،
تؤمنوا
##اتك
تحريمها
المختصة
ونصه
يعل
##نعيم
فانها
المعاوضة
ففعلوا
طاهرة
كنائس
يوس
الخلد
أنهن
عفيف
بالمنع
وتوفى
وتجمع
لجاز
المروذي
سحابة
قميصه
بالفت
وأمان
أناسا
المحكوم
بشهاد
يضرهم
الحضرية
إعل
دائر
التحقق
المسالك
بيضة
لقا
##بيط
ومئتين
عادية
حياتي
سلو
أصولها
والشهداء
حاجتك
والطير
بطلانه
رحله
المتمردين
البقاع
قوله،
الاسلام،
كيت
##اتبا
شيب
تحكيم
صلحا
ورائه
المود
الإنذار
السوفيتية
شهادتهما
بدعاء
توض
الناصح
##درالي
والكف
التحلي
أموالا
الصادقة
حرجا
كبيع
السائد
##تيناه
الجزئية
تناسب
لطول
الإشراف
الادعاء
متاعه
بالباب
هنيئا
المشاة
التحصيل
الشيء،
التبليغ
وأطعم
العاجز
اجتماعي
الجبن
يشبع
##لائد
رووا
الريفية
##سندر
والغالب
تلقوا
للدنيا
الجرمي
صبيحة
ومساحتها
استعار
فتش
حمدا
تسجد
بفضله
بامت
شافع
الوافر
نقصا
التفسير،
ميزة
الحار
ومواضع
لأح
نبيك
ماركس
سئلت
كتيبة
القمي
أشكر
اشتر
فخاف
جامعه
تلاميذ
وتتبع
يجادل
##يمانهم
يال
باختياره
يأتى
تنه
أقواما
##بيهقي
والبراء
حجره
ظهورها
العث
##لولا
أصنام
يلج
تطبيقات
نذكره
فته
##أة،
معذ
الجمر
ليعمل
اختر
بالسجن
وإدارة
بالمقارنة
##لأت
##قدمه
ودية
نفيا
مسالك
الفتاح
##ناعات
الغذائي
كاذبة
الرأسمالية
والرب
الحراري
يخفي
##طايا
للعقل
يتناوله
معمول
بنكاح
نوعه
المضمر
الموجات
بتسليم
صعبة
##سبات
كالذين
تستر
الجحد
للبد
أترك
أحسنوا
وأنعم
تغفر
حريم
يتقا
ضباط
لزيارة
الصريحة
للشر
وقدمه
رسلنا
بصرى
الاشتقاق
الغربيين
فرمى
العجي
##نسى
##جزئ
حمرة
لوي
الحقد
باقت
مستد
لإدارة
فاسقا
الإشراك
آبائه
دنياه
القمة
القصب
حملوا
الأموال،
بالتحريم
بالكتابة
أجب
كلكم
##ائبين
المسار
ترحم
أضاء
الحمرة
##يدرو
ويقل
ويصدق
سيء
واقفا
ووسط
التأسيس
يستثنى
جنون
شكلا
تملكه
مخصصة
والكرم
##رشح
مرب
الحسبة
بالنهي
التونسية
أنبت
وددت
##وائه
العقدي
تيس
الإحت
##روسية
عصور
الرمادي
كيان
الاعمال
وإيتاء
طريقهم
والمجموع
##قدمين
##سل،
بالنصر
زمنية
يعارضه
ريع
##ضحت
##ينهم
أحدا،
متوال
بالأخ
##ئي،
##يلندا
بجائزة
أقامت
وتعرض
فانك
تعلقت
يرتد
لسي
لينت
تكمل
سفه
أجرته
القاذف
والنسيان
الروافض
السيئ
سيناء
محظور
جحر
##،،
وجامعة
يعينه
الكاشف
تسبق
يها
وحص
التعجيل
مفه
##فنا
يجزم
بأيام
أكثره
وفاز
التنافس
أسمعه
##وضه
والدولة
يتبعها
الثغر
يتما
يفوق
الانتقام
ذهل
بالري
##اريب
ومعمر
تصر
عوي
القرء
تتمكن
ونزع
متقدمة
الراحلة
السفر،
نائما
إزار
ستره
يعلمهم
نفاه
تنافس
سامي
##ظما
والميسر
##صاره
شعرة
للعلاج
جهينة
المجردة
ألفاظه
ذرو
القنية
الضرو
الرمح
والمرسلين
طغ
أسفر
بالحجر
الرؤوس
اللغو
يمنح
جريح
يي
المتخصصة
سترا
صابر
##نزل
الخيرة
يعرج
ليقوم
بالتراب
والأنبياء
بعبارة
النوبة
اللحن
##مدادات
الترمذي،
صلبه
بيدها
وحينما
المقل
والبو
بلجي
للتس
الفيلسوف
##راتيجي
نوبل
المقطع
الملائكة،
ومرض
مضمونا
##ادون
الفروض
خالفت
##قبلها
اشتبه
الإفك
الجاذبية
الجلسة
حيل
بمبلغ
نفسك،
بناحية
الروذب
تنام
النامية
المحصول
حميم
أثلاث
##اخذة
##مط
##حاها
خصه
نبذ
واليقين
وحاول
سكنت
الأوكرانية
بليل
فمسح
بمدة
##طاوي
إحداها
مروان،
فازت
استقرت
خرب
فيعمل
النفقات
##فاقه
أهدي
تفكير
علقه
##ريا،
وتشير
أساطير
منصوبا
##ألكم
جزما
الأحجار
##قطعوا
ومحاولة
نحتاج
##ئتها
##وموا
##رجي
وإرادة
فرأيته
وظنوا
تثير
##صنع
##ناطة
الايام
إعمال
بشيء،
عوضه
راي
##ظيما،
رياء
وبايع
نسيان
فتفرق
فعلهم
والضعف
النازية
يحكى
التسعة
تخط
يحزنون
منزه
النقب
محرم،
أنعمت
أخطأت
غابت
بالثلث
يقبلها
وتختلف
##حوش
الرسول،
قبلها،
مسؤولا
سلول
##ادتهم
عمله،
يشرف
لكم،
أغار
##تيار
##ملوا
##بار،
والحن
والإقرار
سليم،
صقلية
السكين
للحم
محذور
وشخص
نحب
والدراسات
الحيوي
المقامات
آثارها
التضحية
لبنا
الأوليين
تشرب
اللاحق
الشنقيطي
جبة
القبر،
آثارهم
رسلا
لإصلاح
وبلغني
##اوي
وتأخر
استدرك
الغرة
للمد
القيروان
##ماكن
الإسنا
الغدة
الاسدي
الأظ
كفالة
مفهومه
فاجت
ذنوبكم
علقة
لينظر
كرهه
لتنفيذ
##لكترونات
التعميم
##جأة
الاستسلام
ركوعه
لسوء
الافتتاح
ممس
آس
لقطع
الحزم
للوكيل
وميزان
أغنياء
وباء
المحاضرة
مستقرة
طائف
للمولى
بالمغ
تقدموا
نعيم،
لومة
الأساطير
##لوكم
##يسون
مسابقة
موسوعة
ترع
نرد
ودعاء
##اؤه
##غراق
##مرها
وبج
المحليين
وصفنا
البنين
طيبات
ومجال
انفس
يحشر
##قطعه
انقضى
نسخه
##وبون
المنخفض
وتنظيم
لرئيس
التوقيع
خروجا
ممدود
بوقوع
بويع
ووع
##طانية،
##شايخ
فذكروا
موقوفة
بارت
يجلب
بحالة
السجل
الطوارئ
وغنم
ويلحق
احب
ثغر
المجتبى
مزرعة
ويلز
حسنة،
الضبع
محاضرة
المثلثة
فغلب
ألبوم
تفلحون
خالي
الفاضلة
الحديقة
فسبحان
منقطعا
أدرى
نحت
الميث
وبحمد
يستحل
يستأجر
عدوى
مولاة
موصوفا
بمسجد
فيعت
الاستراتيجية
ديك
سهلا
الحنفي،
توف
عشت
كليات
##زبان
صفراء
بالاسم
الحملات
منعوا
يتركه
اعتمدت
##لفوا
الاختي
##علب
تجن
تمكنه
حبر
اللذات
لتحسين
بمشيئة
##انج
حماد،
دولته
الكسوة
بالاجتهاد
ويخبر
ومقد
أشباه
مجتمعة
المفيدة
مسخ
الأسفار
تخطيط
##وسم
##يدون
##سامة
بهؤلاء
يتقيد
ملكوت
إعجاب
لتعليم
عصابة
##طلاقا
آخرا
المبالغ
البشرى
سلس
الطر
يتفر
##رامي
##مونا
ألقاها
الأبه
الجني
ثلاثي
تهتم
حظا
بالرياض
القابل
بالحجاز
واللبن
بالتكبير
##ثية
الجسيمات
الامتحان
ووه
##عدن
الرئ
وتفا
أبعاد
ميش
يحط
لقريش
السلف،
زوائد
##جزي
اللآ
مضاعفة
فرم
ونحوه،
سلبية
المطهرة
عهدهم
خرقة
وأصحابه،
محتملة
وسلامة
اللقي
والترهيب
عدول
مالك؟
لقيط
أنباء
وخلاف
بشرى
كلفة
يبال
البشير
وتجاوز
عمره،
علمك
قصته
أتيته
خصوصية
الرهبان
الطل
أكدت
والخارج
رئيسة
يديها
ولأجل
بسطام
فوجهان
بصفته
##تد
##بوذ
الإجمال
الفائق
##سميه
حمزة،
الروذباري
قرع
يقص
افترى
مبينة
والرأي
بألسن
الانع
أنواعا
لامت
متواض
الحيضة
إعراض
##غة،
##صنة
الأعين
اللاجئين
اقل
والحمل
السو
حالته
لطائف
لعملية
اتبعه
يهدى
الطباعة
الزوا
الاموال
ضمنا
الشهري
غيرنا
للشباب
هدبة
الدستورية
تلاميذه
حيدر
ضبة
##تف
##بيري
وينتهي
حران
والهبة
موقعها
بمناسبة
بالخي
تعرفه
يرونه
التفريط
أمورهم
الطائفي
بالمي
الاقرار
بعيره
وذكرنا
يتعارض
مذهبا
كولومبيا
ترام
لسر
مادام
وإح
والغرض
الطحاوى
##طبة
والاح
المعق
عبادة،
وذبح
وحكمته
نذره
يحمي
المفسدين
عمة
الدهن
ثلثا
النقور
يستغرق
لرواية
والشعراء
زنت
##ورج
أسأله
بحساب
المناظرة
وطاعته
الحاقة
فأعت
للمك
باطنه
##ابض
التكن
الثغور
##كتوراه
المغول
الحاكم،
الجيش،
وسك
عادات
أعمالا
خاصية
الفلسفية
حزنا
الطفولة
وزك
بسعر
الحيوانية
شبكات
مقبلا
أفع
والرابعة
الأبر
التداوي
الشقص
للطاقة
وإك
ثلاثة،
بردا
أعطوا
وأبيه
الشقيق
المتواتر
تقص
المكسي
رئيسهم
وأخبره
اجتناب
يصنعون
فالمس
ويعرض
بالطريق
المرام
الدرك
ويفهم
المسيب،
يذهبون
يصرفه
والصفة
وغالب
إشعار
أثمان
عاف
##لازل
الفوضى
تنطق
مشروط
وانضم
القصوى
وارحم
تصرفات
فاحش
عاجزا
فسماه
##غارا
صيحة
الجبل،
ساكنا
حذافة
الدباغ
الطح
##تابة
ولزوم
يسهم
أربابا
وتعلق
رويناه
عقا
فأثبت
يأجوج
فرارا
يوجبه
##جده
المصل
ويصرف
فيه؛
تقبض
##طلقة
بالتقوى
##صيبه
أنت،
يكرم
##طائه
وحكمة
والحركة
وتعني
بالجهاد
قدومه
جنوبي
التجريد
شاذة
صورا
##زمان
المرفق
الطلق
لحرب
##قاقير
النخبة
فوثب
نان
ومائتين،
منهجه
تأويلا
مضطر
فرضها
ينتظرون
التابعين،
والوقف
يقدمون
قرارا
الساكنين
وسلمة
وحجاج
فاما
الانتظار
امتثال
وأحكم
بأصبهان
##وراق
ماجد
بأكل
ثلاثية
المهرجان
مبطل
أعا
وسلم؟
رجعيا
صدوق،
يخصه
وثل
فيظهر
الجرم
تسميتها
داعش
باص
متخصصة
محبا
الحد،
البلدين
القدمين
سكين
الفوات
##اقان
تشغل
الديباج
وزياد
برت
##ثيق
الباشا
شاء،
الذكر،
رشي
وتصدق
تقابل
واستثنى
##ضمض
العتب
علميا
المتأخرة
يتجزأ
الورم
السياسيين
يبتغون
لقت
يوفي
##صناع
القويم
أعود
##جمه
رهنه
شوكة
الطاق
##فاية
أعضائه
والطبري
أطلع
مبادرة
والحي
معاهد
##يلين
للظالم
الوف
اللعنة
##وانئ
عبثا
يطمع
حسبك
الاربع
الفجور
أخى
وظيف
المثنى،
الفتوحات
زمي
كوني
وليسوا
##سابق
غربا
جحيفة
صحيحة،
يطيل
حاجا
رفعها
قربه
البارزة
مادية
مضاد
عندئذ
##للنا
التملك
القائمين
بمشيئته
خاب
الجلي
وسقوط
##راهن
فجعلها
عديدة،
والبه
صحابة
صلاتها
معتد
غضبان
مبسوط
فيمتنع
للوارث
تحصى
تأسس
اتباعا
بالمدينة،
قبيس
ملازمة
النصي
الخالية
وإنكار
##يناها
والسلاح
تدليس
أجزائه
أعرابيا
تذك
وملا
مؤجل
جدته
يخلط
معتبرا
وسعه
كتبوا
ساعدت
الخلافات
شاهدين
فلقيت
##قطا
رجس
تجت
خفا
صبيان
عميد
شاءوا
قلبها
لأمره
##فكر
##ريء
فالحا
فنز
##صاديا
##أسف
التطوير
كأحد
الهجرة،
المستعمرات
الحبة
وجهاد
ينازع
كسوة
أساسيا
ثانوية
ماز
الكار
بصدد
ماس
يعقوب،
مقاما
تأتيهم
الربوية
والني
اليهم
إقرارا
والزهد
##غازي
انتهوا
توقفت
السفاح
يقنت
وأنشدني
جوامع
لعين
البتر
ومجلس
البيتين
مؤكد
أخيها
القابض
زجاج
قمع
الثرى
وليام
##ديد،
ترسل
معاذا
الرموز
ليقت
##كانية
والشاهد
يقرون
الإكليل
مبي
وجهل
الاذن
المسبوق
الأردني
فجرى
التحويل
وسق
##دمت
الإبل،
##شلونة
تمنح
كظهر
##كوب
تؤدى
المرتضى
زرعة،
ويعيد
صحية
للتأكيد
خبيرا
التواريخ
بشعر
خلفية
كساء
الزمن،
شما
فروض
##لاهم
غيرة
والنصف
بالأسباب
دمياط
المرتفعة
مديرا
المبنية
والغر
التدري
الناقص
للمدعي
اخترت
فزارة
بلقب
والطا
##واره
الأبطال
والمخط
وسعت
التوكيد
والأولاد
تحضر
خلقناكم
الثالثة،
يخرجها
بناته
موجه
للجن
يتعد
وحرك
الوسطى،
منظر
عداد
مضارع
بالجامعة
الاستعارة
يسكنها
جغ
وتقبل
##ضيض
برماوي
إذاعة
الطفي
يستمعون
عبلة
المطلب،
والأحوال
أهواءهم
بذنب
والافت
وكثرت
##جدية
التعويض
لفظي
رددت
أستغفر
التراخي
ملاحظ
الموجه
##تيها
##ويها
يدى
مؤشر
والقن
حسبي
أقرع
##غلت
بالبعث
فعل،
مرافق
لتحرير
مشارق
##ينيين
كعب،
##ظيفي
الواقعية
##ديرات
الكوم
يعفى
تنفق
الفلكية
العجائب
المجيء
صنعوا
النطفة
باجت
فيذكر
وتوق
بأشياء
الميكر
الزراعي
وإضافة
بالصفة
محتر
نفسي،
أرضى
عفان،
الثمرات
##من،
وعلو
قبري
الاحتفاظ
معدودة
تفتقر
المدفوع
لإخوان
عوام
فحيث
##راكم
أمثل
لتر
سيادة
كلامك
##ديمقراطية
أرسلان
إيمانكم
مسألتنا
وقعد
الطمع
كلبا
الزيدية
الغدر
الحديثة،
منافاة
التآ
بالبن
المؤسس
وليكن
والنفقة
الأعوام
الحبشي
وبالاصل
بوين
عواقب
لتبين
فيصبح
الألواح
الرخاء
مشد
المغضوب
والدفاع
المحرم،
دأ
لمساعدة
ينبع
عمليا
أدبر
بشبهة
فاتفق
والصغير
توجهت
مبس
وازد
وخوف
أحكامها
وأهلي
مواضعه
ووجوه
البنيان
طوى
##حوط
بتهمة
لنف
##ذاه
متنه
الاستاذ
مادي
السرح
غيرت
تنقض
المواريث
يفترون
شائعا
فابن
الإماء
##ناهج
##ونسون
المساهمة
نسيئة
متاب
##صوبة
التغل
أيق
بالجهل
والطعام
الفاجر
المقيمين
ويتجه
بمنطقة
السكران
##ؤول
##انق
ثمرات
وحساب
بحب
بإضافة
شئون
والخطاب
توليد
صامت
الحاصلة
مصانع
براون
وعمرة
والكفار
##سكرات
إكرام
تعقد
تسعا
قبضته
##بنه
وعقب
توبي
بالوطء
##كتشاف
##دعون
يصنف
ودنيا
ستار
يلونهم
إزاء
الجاهلي
فسمعته
وأحا
وقليل
أوزار
وتمسك
وترجم
أبكي
بحركة
مشتقة
ووحد
مخطوطات
مبط
والاد
وعتق
الثريا
موقعه
السبعينيات
كرامات
الخنثى
وأكمل
والعفو
مستعمل
تسافر
المجمل
وضمان
##ائده
تقوله
وثانيهما
##رازا
القواد
الكأس
قرين
يعدو
وعمران
الأكبر،
يتأمل
##وديوم
الكاذبة
ثروة
يشكو
##يبس
نافذة
يبيعها
يرع
التبري
السعة
الصهاينة
وتجد
يعجبه
الغنية
الأصولية
الصالحون
أستاذا
والفقر
فخير
##ظري
الناف
والمرا
البرز
يثبتون
يمنعون
للمشاركة
أتدري
بزوج
##لت،
اعمال
شارب
والذب
ركعتين،
لضرب
حملك
الرماد
مقدور
حجا
##افير
والخمر
الكهنة
تدعوا
المسلمات
وشه
أموره
استنباط
ميكاني
ندرك
##صفح
المشكل
مهنا
والكت
الأضاحي
المساجد،
##وكو
يهدم
والصلح
بعلة
استبعاد
##وعات
المنفصل
نعيش
##راخ
معدي
طوق
##سبا
الأفاضل
##صفية
طالوت
الستينيات
أطل
حليم
##ياغة
مجالا
القبلية
##طلاحا
المجرور
أوسق
سمير
لقتل
والباب
التذك
المشرفة
بالعهد
##باحته
##نجي
والرفع
وتقر
الاخير
البشرية،
تلقاه
بالواجب
ضريبة
التقاط
والكاف
##فعلن
لسبع
المعنية
لأعمال
وغا
##بلة
الوريد
##ضييق
استند
روحي
اصل
ظنك
إفراز
حبال
متخصص
للشركة
حينا
والهد
فأقل
المستمرة
الآش
الرأى
اندلاع
فيقبل
النفاس
الاولياء
فأبوا
بلخ
بتغيير
والإش
التعريض
وغفر
وضلال
مرتين،
الألفية
سلفا
والتحذير
وتقديره
تغل
ظهري
##خرين
للقب
عنهن
والمختار
المتواترة
فتجد
يستغني
تقربوا
يرثه
وانتشار
فأتت
أطف
ريد
يضاعف
التائب
الرشيدي
الفشل
##لبها
##عبارة
أشراط
صيفي
##بلت
المنصوب
نعد
##صفى
مفلح
##خون
الاربعة
يوش
##طفة
##حباب
الأحمد
السمو
وطؤها
استراتيجية
##فاعله
السندي
عفير
ساه
القلي
الجوائز
والخش
والخلاصة
تفكر
امتد
خما
سوم
مترجم
علمته
والدخول
أزواجهن
المصح
النقيب
متطلبات
##زاله
##تباع
نزولها
محفوظا
بانه
البلاط
بأخبار
فرقد
حسرة
باتت
فرجه
الخيول
قاتلهم
رشدين
ويعتمد
بنصر
الحام
الخدي
يلد
امرأة،
التغييرات
عهود
لعا
##بورا
الإقبال
لولي
##نبى
احتجوا
##تاهم
الثمانينيات
##ضراب
القشرة
الطوفان
البيضة
##طلبة
نفهم
وستمائة،
أبعث
##جمل
البلوى
##رقون
منامه
السول،
الكاس
أمضى
حاض
الديك
الخرطوم
البروتينات
الصقر
##تيح
الناطق
بوادي
الأيام،
صوفيا
ومسند
وشهدت
وولا
##ودوا
استهلك
والعرف
يبخل
العاقد
التبعية
فعا
##انيت
أسكن
وشعيب
بشرية
زبد
ليأ
شربة
##ذر،
للإع
وفرس
جندل
##رق،
يستهز
المكونات
بلى،
الصغائر
السطر
فيتنام
الاسماء
المتأخرون
قضائه
ذاق
##شيت
السقاء
اختصارا
معرضون
##كوس
##كمات
أولهم
##برون
الإتمام
وجلال
وسرعة
فتحا
إليهن
زيادتي
خليلي
سفل
##وطنين
##غد
الأليم
للفي
الأعذار
زح
##ضمي
##كم؟
تعددت
الأفريقي
فتصير
غلو
##ارقه
ومهر
##كيله
بتر
##نعوا
وسطها
ذميا
وههنا
الرفي
##نيعة
مجيب
البدو
وقعوا
تسلسل
##ثورة
العديدة
لأص
للمأم
##وتهن
تجدوا
موف
##وضيح
مختصة
سرقت
والبرد
حقيقيا
مخلوقا
والقصاص
تخفيفا
حسي
التحدث
الإقت
بقدرة
الخيام
بتركه
بالمؤ
أبرزها
أمارة
##تيني
ببساطة
ببعضها
المروة
##ميرا
إعانة
مدرسا
طفي
الروابط
للوز
وشا
اقترب
مفيدا
##تداء
قلبا
للسهو
وتغيير
الرازق
لفظها
المعادلة
استعملت
تبق
يتيم
مزاج
ثقافية
##ثة،
واللح
خالفهم
وتدبير
جولة
قفل
فيط
معتق
الإفتاء
أكف
الإساءة
وأسقط
أظفار
ليخ
يلزمهم
كسرة
متابع
##بت،
البر،
المعتدل
فقتلوه
للمسافر
الطاع
ومحدث
محضة
بإزاء
رأيتك
دخلا
تناز
التفاسير
والفرس
جلوسا
الشاطئ
الوع
مأمورا
غزاة
التزوج
الضياع
المستحب
فكشف
مدعي
تطبق
بضرورة
التحمل
زوجك
نقصه
الاصبهاني
أرسطو
أعطاهم
عنف
##ولا،
مقرونا
المدلول
الأزمان
موقعا
إزالته
غنائم
ويجلس
وللب
والتنمية
فاغت
##ائرين
خصومة
غرناطة
مجردة
السمسار
حجت
##نيب
اشتقاق
الغيوب
تدين
عوق
يأيها
لعلة
##سلا
##خبين
انج
محلي
حمدون
مأذ
ليشمل
بنسب
##ياما
فأصلح
إذنا
تاركا
رخ
نأ
##وعت
الذكاة
وتميز
تقتصر
يصيبهم
تحققت
الانسحاب
نموذجا
ضغ
يرحمك
سرب
##ونة،
الحصاد
الصالحين،
المحتلة
رفقة
فقعد
استم
عباده،
فسل
##خارف
والوث
الحليب
##سمح
##عاقة
لقبه
الأدب،
##ثلي
بالحر
للسر
الكشميهني
الاغاني
إليزابيث
ونهيه
أسرته
ايوب
المتعارف
بضاعة
كارت
مرسوم
الحبال
##حملها
الأزهار
شبهه
عظيما،
فاستأذن
السياسية،
الشحم
اسمك
انتخ
ركنا
راغ
دوران
بقاع
الدف
الراحل
فاستغفر
وراءها
خراسان،
شروح
##ودت
##دامات
العلماني
والساب
للأمير
قوموا
المهتدي
تايمز
الأمعاء
القوار
العاملي
مضغة
البطالة
لإجراء
##مائها
حبان،
خميس
سداد
صواريخ
ومنطقة
الشمسي
فالاست
فطلقها
للذهبي
بمهر
##انيا،
وللإ
الأهوازي
المعدات
احتياج
رائد
صصص
الملاح
أنور
وعمارة
المحارب
الخطط
القتل،
لقبول
##عوبة
منفرد
الرسالة،
الممتدة
ارج
محضا
همة
وطي
ورمى
الأودي
والتض
##خلوها
والكمال
القهار
السرى
##ردن
لأهلها
كالر
الأسف
##وذة
المعمول
أتبعه
يغتر
الأندلس،
إصاب
فتركه
نسبت
الإسراف
فشد
وأمسك
تحديث
سيطرت
مطم
إخفاء
فاتت
السموم
الربانية
جسما
إزاره
أوهايو
بربه
بساط
ذكاة
يشاء،
قلوبهم،
الملعب
والتط
##شكلة
للدار
##بكر
وسلم؛
وشمل
##بايعه
متقاربة
بالجن
##رفها
فعله،
مرضاة
ورأوا
الجدران
الإث
##حادي
وحركة
يبول
قاع
##البه
الرئة
فترى
بالأع
اختارت
السنوية
المنتسبين
ذكري
تسيطر
عزيزا
##ورانيوم
لولد
##جج
##ضات
##ديقا
وثب
بالرسول
وادع
الملتقط
مؤقتة
أنطاكية
ومجموعة
النائ
المقدرة
والمنسوخ
حركته
##ذائف
شعاع
هاني
الزهرة
جده،
موحد
العلوم،
قارن
بمل
ديز
بالعتق
مائة،
##سابا
للآية
خاتما
أنفذ
جاهلي
رفق
##يبها
لقمة
الفاصل
مريم،
أوامره
فاصبر
المذي
فقها
ويتكلم
وتوقف
يستشهد
##طاكي
فارجع
توال
حلها
##ثها
الصافي
لوحظ
وردا
##رشيد
مضار
زكي
سعدان
مضادة
ساكت
الغربي،
ومخرج
بجيش
قطيعة
##غته
بالما
للقتل
ولايات
##رادى
قتلة
يصيح
تشكرون
والإجارة
والسكون
بالعرف
جدير
الملايين
بظهر
خليف
السلبي
##وانات
الحدائق
التكلفة
مأذون
أنكرت
دأب
وشيء
يضح
رأيتها
للسائل
##ضطرار
الجدال
تواصل
يحضره
إصبع
تاي
وحذر
قرص
مكش
سدس
##فاحشة
أسفله
وضيق
##ثناة
والاش
بالور
وأصدق
استمع
دونك
ويقسم
قضاه
ملاك
يجزيه
يكلمه
شرعا،
زان
##ليج
بأمان
اليشك
اعتاد
فأنى
للقلب
قضاؤه
الزواج،
والورع
ومراده
المطبعة
وبداية
يفقهون
الفحشاء
نقم
أوقية
##وار،
بقيام
اللاس
ومسألة
الرقمية
نعود
الفريد
متبع
وخاص
يلعن
البصيرة
طهران
تكرير
أنواعه
للشار
##وزه
فتزوجها
##كاما
والنسب
والشرف
الثاء
وإحدى
للتفسير
لحساب
الأوروبيين
##روفه
##تبعون
البصرية
برف
تسل
نحمده
هبته
##حاقه
تغلي
عضوية
التكلف
اللفظ،
نكر
فالمقصود
الزمنية
اذكروا
الرقاع
ابنتها
الخاف
يتخير
نسمة،
بشع
مدحه
فنقل
##وائق
انتقض
اشتدت
النجف
تقلد
وكذ
استيلاء
##سيوم
##قاس
أصي
بالترك
شهر،
فتاب
العبادي
المؤمل
اعتدى
رأيتني
المضمضة
درة
المحنة
للدراسات
سواك
فانظروا
حابس
الحوير
التبيين
واي
فاكهة
يفعلها
تفعله
الينا
تؤكل
معتدل
##ساتين
الاخوة
مخص
والاج
تجريد
أضحى
نيران
الكوا
وندب
احتلت
لديك
زعمهم
هداه
متف
هيبة
الشمالية،
مكرها
موصول
المعنوية
##يرهم
##يتر
المحس
المواضيع
حاشيته
بزوال
يموتون
لآية
فرسخ
وعزم
##جددة
المناظر
دخان
التنزيه
والمعا
وعندنا
محمية
يجتمعان
خبي
للعباد
تعويض
رجحه
المدافع
تتأثر
الوراثة
ونبه
##مدت
بالفضة
ثقيلة
الانقلاب
وقذف
وتوا
##اثية
عجزت
ألقت
الاستغناء
فولي
وتحقق
##لوفة
الكروم
تكنولوجيا
##رخاء
يئس
الغل
لأربع
المشكاة
بالفضل
البوي
فداك
جدران
##وبرا
وحسين
##تموهن
##نبور
الدمياطي
اكتشفت
لاجتماع
##عمري
##جرها
بالتزام
الكافرة
توكيل
الزانية
المتس
أدرج
حقك
أخره
الموالية
آذن
حدي
يهل
السالم
للظ
للنووي
الجوزجاني
تلقت
عظمت
بنين
الكنا
##كارى
مهند
ويلبس
وتأثير
##عداوة
أصواتهم
نحكم
بالسين
##حيت
والمقام
تقضى
والفروع
وضبطه
منحت
##سبير
لكنا
يظهرون
بالغسل
تذكير
جليا
ران
##ضاب
يعكس
ومب
ونصح
وسماع
مستثنى
##طلاقه
الشرقية،
والامت
للبي
المعطي
عدمها
إحضار
يحملها
شبابه
نفت
الضال
الأكثرون
قحافة
وأحر
وتذهب
ومنكم
فنهى
ماهية
##ذوبة
والسند
تمهيد
الباقر
لمنظمة
فحبس
الافتراض
صقر
كرك
التذكرة
##وابق
لحكمة
وعرضها
معتمدا
رسولنا
فتدبر
ورغب
رأسهم
موتا
يأمرون
مقاعد
عشيرة
وحفظه
بصحته
إرساله
وأرد
##دعوا
##ناهى
سهولة
فشر
فندق
##ليمات
##راقه
القف
أحدثه
يسلط
أدق
حرصا
بالاج
بيك
يؤتيه
يحكمون
اعتبارها
والتكبير
المعلومة
فصيح
##يلاد
##ابقات
تنوع
بخارى
حكمنا
##زايدة
الحكومي
الشعائر
سلطات
مؤقتا
الأصفهاني
الخفا
##فاسد
النادرة
يناله
فتوفي
أعمالنا
أوردها
التوقيت
الكسرة
زهد
غفار
##باتها
نقلته
صلاته،
الإشعا
عاتقه
مقطع
##أين
والنحل
برحمة
لفتح
القهر
للجز
الثل
والصرف
وتحول
لفقد
استدلوا
البهجة
أغير
قوتها
المكية
يضحي
##هاة
الخطيئة
وداع
أطيعوا
##جبين
صيامه
والبدع
مسبقا
ونستغفر
لوم
بالولايات
الرضي
##صباء
القبور،
الاقتراح
موجات
المعيار
العصاة
اليرموك
السيرافي
ارم
الكور
يقذف
ويقصد
وبحر
والمشي
المترتبة
فمنه
فأردت
الغلا
مغازي
يدوم
ترمي
الغرباء
أديب
حارة
##ائلهم
عمها
أدراك
تستند
لكمال
عادتهم
فرضية
والهداية
تفسر
##اءه
يسرا
##اشع
شأنك
يلقون
المحاربين
ومدح
يغادر
أنتج
ويستعمل
الآبار
تفوت
##خنة
##وله،
تعكس
وإنشاء
حديثهم
يدلس
الأمثل
العبث
اكتفاء
الاستشهاد
الرطوبة
دمي
وأظنه
واوا
الآيتان
الخطيرة
كاز
إبط
وثياب
خروجها
للنف
جعلا
والصبي
القفا
والتوكل
واختلفت
الأهلي
والثلاثة
وغي
##انوس
الاتجاهات
عصم
راجعة
الفصاحة
ت،
وسبحان
آلهتهم
الخزاز
للخلق
حوائ
##ولدة
معونة
الفلوس
متميزة
نسوا
حملات
ضربات
والاستدلال
ناسخ
الاكتشاف
يلعبون
نهب
##ريما
ويمر
والمأ
والنعم
يضربون
الأعاجم
ينمو
أدائها
##تقار
بشرطه
سألوه
العمران
العنبر
ثانيها
المفاصل
وقاتلوا
الرئاسية
قين
والار
يعي
تمثال
وغض
ينتسب
ماء،
الامراء
مركبا
والحرص
دبره
الموعود
##تيانه
استعان
المعج
المؤدي
تكمن
دعاني
نترك
والمرض
التفات
صلت
##أرة
##اباة
امتصاص
وتركها
سفين
معها،
##وياء
يستجاب
الأسس
كافرين
صغره
نقت
##وندي
والاختيار
أثم
مقامات
يسرع
الاكثر
أخوات
مسبو
عميس
والكامل
موات
سعيدا
والإد
يسمونها
يفهمه
جهده
المريخ
الظهيرية
أ،
إقطاع
##ته؛
وجبل
الهالك
تمضي
اختل
##واعق
التفكر
المتعاقدين
##جيد
الطبا
وبار
المعمارية
نعمتي
أشبهه
الدستوائي
ظبيان
لبيع
مستهل
تركب
فارسا
قسطنطين
المأمومين
ونفخ
الخصوصية
يتعبد
كفيل
##ائين
فأظهر
##يفه
##صحابه
رئيسيا
سيره
الحسي
السداد
##حيق
##نسوة
الانصراف
المنتشرة
الرأس،
القطان،
الجويني
عيار
المقبوض
استدراك
فيؤخذ
يزوجها
جلالة
##ليح
انى
##دتين
فرقت
ذاتي
مأكول
تؤمنون
عدي،
قعر
##بطت
##جار،
الإفادة
لتأكيد
لحمل
المصطلق
وقاموا
الخسارة
تذر
جليس
وولاه
والاق
الوضوء،
هاجم
يبارك
والها
ماؤه
الطلا
تخزين
رمزا
وشمالا
إهلاك
##هارس
العزلة
مخي
بثبوت
تهلك
تيمور
قبضت
كسرت
الفلاحين
بزيارة
##امرات
للبيهقي
متميز
##وصوف
جمعهم
والدواب
تحسبن
العشق
وقوته
النبأ
فأسر
جموع
بالرواية
زائدة،
فأحضر
أبه
سلاما
##ضرم
وجاهدوا
##شتم
الأنباء
أرزاق
اطمأن
التساوي
بالنصف
##اقه
والشرق
التجي
وبري
فالث
##ائل،
بالمصدر
##الفا
بنقد
الرداء
حالية
المؤمنة
بالخاء
فعليكم
المراجعة
كبشة
كاشف
البروتستانتية
المؤجل
بالاقت
المنتظم
للمعنى
الانتخابية
##مبراطورية
بالنيات
معالج
فهن
والأدلة
الإنزال
وشم
والبلا
للحركة
منعهم
مزية
حذو
##خرفة
الدرب
الزبد
ينش
انتشارا
جمهرة
ويخت
الباعث
التحقيقات
نازل
أخبرته
والعلاج
حلفه
أكانت
زب
##كش
المطي
ومكر
والشريعة
لفوات
حريصا
المحيض
البيزنطية
المبعوث
بالهاء
فتصدق
فعلة
كلامه،
والقوم
صاروخ
النقيض
فولى
لونها
بينات
ومكث
بعضهما
المدخول
المواشي
##فاعته
أرضعت
جنت
والزوجة
##بابي
##يابي
ينجو
وسلك
علمني
الاندلس
فحديث
وارتفع
الإحصاء
##وح،
##صارات
وربع
اعترفت
نهائيا
سويسرا
إين
تير
المضل
أنواعها
الفاسقين
ميراثه
آتاكم
##شال
فقصد
يعهد
ومدى
طيران
الرف
فتد
أتدرون
استحسن
يضطر
ائذن
حتم
##ائلها
##بونا
أقمت
حاله،
تصلى
يطيب
##سية،
الآلية
كالمع
ترجمه
رافعا
مسيرته
آلاء
والبلد
الحضرة
وتوفير
القبلة،
أثواب
##همين
لاهل
##كان،
عمري
محاكمة
تعادل
سنتي
تكساس
كتا
وعندهم
المفوض
حشر
الطرد
وصلها
أصالة
أحزاب
والإصلاح
التحري
##ذوق
##افهة
لأست
##زاوج
##رابها
المرئي
وكرمه
دعواهم
تنج
تفعلون
مستعمرة
##طاب
المربع
الشذوذ
##شتراط
بفتحها
الشحنة
##كانيات
لقراءة
نقضه
فأعطى
تميزت
وراح
الماهية
##حداد
للولد
##فارا
الاستهزاء
بسام
العنزي
وأقوى
الجانبية
لمزيد
اتضح
أفضل،
الحلة
الطرس
ولقي
تزويجها
بطي
والضم
العذب
مثلكم
أسما
أطلقوا
ضريح
##الط
##اليات
بالكل
بالجد
الدروز
##بغا
المقصودة
واشترى
بيوتا
العنصرية
الأخص
المساعدات
عجزه
إهمال
ظاه
ووفق
الراد
والاع
حيضة
##جزئة
بصنع
زانية
مرم
يراعى
##ونز
الكاري
##ياهم
لغيرها
ويستثنى
قحطان
غيث
والوص
للشك
أبيهم
الكثيرين
غدوة
وعطف
أرخ
أبدل
محمولة
وسقطت
##غلاق
المكونة
الأبنية
الخث
والسك
استحقاقه
البكالوريوس
الرجلان
الصفراء
فراغه
دبل
نحا
سائلا
المنزلية
الخوارزمي
وأريد
فأهلك
برشلونة
وأربعمائة،
البخار
هاجروا
مشركي
أسقطت
نصرا
يطلقون
حذرا
##مسة
والنق
فسئل
شجع
غان
أبوي
الصغير،
الحلقات
كنه
بالقد
الجذا
الدان
المزمل
الرسل،
مجردا
مجنونا
الكندية
متكلما
بماذا
حريز
##وحي
الاله
العنان
والأوجه
مصم
صدرك
يعتذر
سمحت
مهرا
التابوت
فوالذي
مسيحية
المباد
##فتر
بالنقل
امتلاك
التدخين
وبالح
ونفى
المصنوع
النبوة،
يستخدمون
فريدة
كوين
القرامطة
تعنى
المعافى
بأيد
##تم،
أفأ
لنفي
القيصر
مرجح
بعضهم،
الغرف
وصوابه
مؤنث
الشعبي،
##ارون
وتوزيع
##عملها
لأخي
دينهم،
تقييده
متعددة،
مصطلحات
حذفه
الامتثال
نتبع
##امح
بالإحسان
لسائر
الاحرام
التضخم
يوقنون
قدرات
المنقولة
فاخرج
فليأت
لمعاوية
غصن
مضيق
الجيدة
فكثير
والاعتبار
أرضهم
قصبة
الملتزم
نرجع
##عارا
وسرعان
النسوية
الكتابين
##وكله
اشتمال
مختارا
واسأل
يبعثون
برجال
جاع
المتدا
بالكتب
وتنفيذ
مرفوعة
الممتحنة
تخصيصه
جمة
لقر
الطمأنينة
##بطه
فأصبحوا
مقصد
لائم
##قاويل
بهمزة
وتتكون
##بايعون
العجمي
الدعاوى
موهب
وإسلام
يزا
ورمي
وصدقه
المندوب
المخصصة
ومقر
##وطنة
نظاما
منسوبة
دانيال
مبعوث
الإجزاء
##صرنا
بحرب
وانتق
مدبرا
بطاعته
الإيقاع
فالحاصل
العرس
يستحي
أحلف
مصرا
الميت،
وأجازه
بوصفها
##فاها
عبدالله،
النباتية
الأحوال،
فحملت
المخاطبين
عنترة
##ضاره
بالصدقة
يقنع
والقيم
حرمها
يراعي
ذكرتها
اعتداء
بالكثير
##ثارا
رقة
كمد
الحصون
وجزء
تشر
الجولة
وتوحيد
أخفى
والتقدم
العذراء
سادات
##جعه
يتطهر
أعطني
خيال
وماتت
لحاجته
اللف
العطية
الأحكام،
لبنان،
وثمود
الويل
امرأتك
منقذ
ينهض
ضروب
المديون
والجه
وكعب
المنقطع
بقائه
بالتش
بغلة
بالعديد
فأعاد
##خاذه
دقيقا
أعدائهم
طوافه
المغيرة،
موجهة
وتدخل
لحال
العملات
مسئول
ليحصل
اذن
وألمانيا
الصن
الخطوات
والشك
والسلامة
التشابه
بالدراهم
سافرت
##ظب
الموز
وأدب
الآونة
##طياد
سنقر
والغسل
عتقت
وباي
مبعث
التوتر
كثيرين
جزية
إنسانية
المحدودة
ديل
السهر
وبينا
##قاها
ولكي
تفصل
بالحجة
شئنا
زكرياء
##لوبين
يتفاوت
ليزيد
الاستعاذة
والنص
خلقة
فرقوا
هاشم،
مجموعه
موالاة
أسباط،
الأرم
بالوضوء
مال،
والحجاز
الأشعار
لإب
لسيد
ببطن
رسوله،
المفاوضات
روض
فجز
نقاش
##وطئ
كذابا
التقاء
الرحيم،
فدعاه
أنذر
##مامته
للموا
الهوائية
بالتف
يصحح
فاستقبل
واللو
الرمال
تنظم
##ناهي
والقرى
تكييف
تركوه
والمعاني
توظيف
بتنفيذ
المطعم
حبيب،
الثمن،
تعترف
سلبه
بلت
بوال
فيضع
نفيس
قابلا
فراسخ
بعباده
بورك
ويعيش
##وهو
ولكنك
وزع
الجنايات
المعنوي
##جعة
المكون
الأغر
تأثيرات
جعلوه
وقتنا
ويتكون
للعلامة
ترجي
ينفعك
اللوحة
غنمه
##ضايق
والتوفيق
بغسل
وغل
بيانها
النوم،
الدولية،
بالقل
مخنف
فنسب
العيال
موفق
منحة
والسا
الجليس
للحر
##عيفه
والمجاز
مقتضاه
المصرى
العميق
ضالة
عراقي
##درائية
والرسالة
العصيان
الدواد
الوص
##عارات
وعندها
لتنظيم
ومعنا
محمودا
بحت
الموث
##شيه
والعبر
المزاج
فوجدوا
والإسلامية
ضاقت
شفيع
كنية
##جمية
تأليفه
الفاروق
وحقق
ضروريا
ضاح
لفساد
مقه
وتما
المعتادة
جذيمة
فقدمت
المتطوع
بأق
لأد
وسيف
الدواوين
وفعلا
الرملة
حديثين
الشيعية
والعناية
جزئية
والخاص
المحققون
المطبوعات
كفة
بالجملة
وقس
القلا
بمجلس
إقناع
الإعلامي
رشدا
تهب
تختار
إنفاق
يعتقده
وأهلك
رداءه
شريعته
إبلا
المفكرين
واصط
منتشرة
مشتمل
وعملت
الشبكات
الزنادقة
وانهزم
العلائي
الشاي
الكوك
الخريف
واخرج
ممارس
بأس،
لصاحبها
هكت
##قاومة
متشابه
##ريقه
المشابهة
الانقياد
وجودا
رأيتهم
السابقون
##ريقية،
نجاة
واشربوا
فوصف
##شستر
##ولندا
الشخير
##روقة
تحذف
لتوفير
تمرد
مناسبا
##صاق
ورخص
لحزب
والرغبة
والإعلام
روك
للعام
##كاي
والدعاة
توعد
مساويا
جزيئات
أستاذه
##نا؟
الخلفي
##جدون
وخع
والطواف
وصحب
هاتان
يصفون
متفاوتة
يته
##شوش
منة
الاكمال
فتخرج
يستخلف
واتصل
هدانا
يلقاه
بالضمان
ءا
##صبه
انفسخ
استحل
اتصف
تشويه
برئت
برسالة
هاب
##قيل
الكفن
مسؤولي
ادريس
دالا
##ثر،
المستحاضة
مجلز
أطباء
##باذ
للقول
أغلظ
يقصدون
الكفارات
جيو
كورة
وبأنه
الدينوري
يعنيه
معقدة
وتصبح
استماع
خطابه
يمنعك
تميم،
للرئيس
##بوله
وتعليق
العاص،
آلاف،
دوس
داخله
##يقاف
والتعظيم
القهوة
تحرفت
مصاف
عرفته
تبرز
والباطن
##زية،
والأمانة
المحطة
##رابط
فصعد
والمنطق
السفير
لحمها
تليق
الميناء
بالوفيات
##ياحة
يترجح
فأولى
##زا،
وصفات
##طارد
جنسية
يسيطر
طهارته
الأكرم
إبراء
قدمته
علمائنا
ازدياد
دوق
فيضرب
الشراح
الدعاية
##كتهم
أشع
دارهم
الحرم،
بقراءتي
غريم
##غضه
السمر
ذاته،
بصدقة
عمت
عمران،
سمعة
يأتيها
يقوموا
يشهدوا
بنفسي
ساروا
بسيف
رئا
##ذله
التروية
بجواب
تطيب
مهين
مختصرة
الصاروخ
مستأنفة
القطيعي
##كبات
منشأ
انفصال
يسود
زوجات
القصيم
بقدرته
لته
بأجر
قصرا
يتركوا
عزمت
##بلي
أوليائه
الفلكي
يهن
##امسة
وبرع
ليلته
جعدة
يبتدئ
الأعياد
بالموصل
##يامين
وغز
شبهات
ومصالح
##نوي
الصفي
فأرسلت
والتقى
الانضمام
احتراز
القوق
النادر
يخشون
الباقلاني
السجون
انصرفوا
ضيقة
##قيين
أصبع
الكثيرون
الداخلة
المائتين
يقابله
##سلها
مجاهدا
أسقف
حققه
الصب
ويصلح
وتأخذ
##لعن
هاربا
النهوض
مكروهة
زاهدا
وأبرز
وقدرة
وإث
أشجع
فكنا
حاصلة
الهولندية
بأحوال
فيلي
##ديف
بالعا
نكاحا
السالفة
##ذهل
بحل
الرحيل
رياضة
مخاطبة
لإنسان
والغم
يتخلص
يحفر
زالوا
والمدارس
الزهرى
##واخر
نسائكم
وشراء
بصيام
سؤالا
يكتفى
الأولمبية
لوقت
وناب
المفارقة
تعس
##رج،
المتشاب
والحفاظ
تفويض
##السيوم
عريضة
##وين،
##راوية
##كنز
مسطح
أحال
اسمي
مزينة
لطالب
الاختبارات
أضحية
بالحد
وجه،
يتحرى
ذكرك
أقضي
##وائهم
حجاج،
أحرى
الاحتجاجات
أدوار
بشارة
العالمية،
البوصيري
مظلوما
الصليبيين
الرشوة
المنة
النميري
المؤس
والبصرة
نلاحظ
اللائ
وعت
انسان
المسروق
بالتج
لبست
صورتها
فسمى
وتعاون
المتد
والإعراض
ذهنه
جرجان
ورهب
يمكنك
امرأت
##فضوا
التربوية
بالغين
الاثنان
##نيمة
والعز
والسلف
الأهواز
فعبر
ودول
سكينة
##ذفه
بالاس
وأبان
ممنوعة
للعقد
الأدوار
الموجة
فسبح
وكلوا
الثنائية
إلخ،
بالحسن
التشريح
يبلغوا
حبست
فخالف
كيوم
إعدام
خده
العط
يقرع
لموت
والسكر
أعطاك
أوك
بهي
##يبين
والتربية
الجزع
النظير
تنازعوا
أخلص
للواقع
لأف
أكثم
##جداد
وينسب
وتمثل
الطبيع
إساءة
عدالته
الحاسب
وردان
افتقر
معطوفا
الجيران
وبنحو
ننن
التغابن
التضعيف
الحويرث
##زود
##باكات
يقصده
وتضمن
فالبيع
متعديا
ليقولن
مزيج
الزبرقان
خرد
الإتقان
يطمئن
عادتها
مضاربة
كفاه
ووصلت
المعتقدات
خلوة
المئ
الفئات
ونال
تخرجه
هبت
الذوق
وجر
سنجر
والنفاق
لقياس
وحملت
ثوبي
وفاته،
انتفع
##اشات
الشعار
فشبه
ليحكم
محركات
وأمكن
تقديمها
العليا،
صحاح
الحقل
بالابتداء
والنبوة
##شاشة
كافرة
معطوفة
مبال
##رافيل
العلاف
##بداد
الشفع
وعمه
مقالته
الموضوع،
رغبته
منفردة
مباركة
عصي
منزلت
الإل
##رقى
المشا
علان
وأعطي
يان
##الأ
المورث
الطاهرة
والشيعة
الفاحش
##برى
متزايد
أفادت
بطرف
تطير
اكتسبت
الروحي
دوي
أعلا
حقبة
مهج
لنفسها
ويعبد
والجمعة
لعباد
##هاي
الأملاك
قتلتم
يكسب
لنقص
بطانة
اشتري
والقائل
كفرح
الصدمة
فاروق
اندلعت
##ضلال
وتلقى
وحصول
بسقوط
مواصلة
##سهيل
شقه
وخلص
الاخرة
ينفصل
فجميع
مؤمنون
ثوبين
درجته
أعمدة
عاجلا
طيور
نفذت
ورفعه
للزم
زيارته
الفقهاء،
ويشكل
بروتوكول
القلعة،
بالقب
وهبة
للبيان
فأست
والعزى
يسبحون
سويا
عهدة
والسل
الشجاع
بإص
الحاجة،
نهاه
خارجي
هندسة
الغزوة
تلبية
المنفي
والتلف
اللصوص
المستحيل
وطرح
والشيطان
إبدال
##كونن
المسكن
مستخد
##خاطر
الجسم،
ورت
##وهاب
##لكة،
للولي
حاجز
تعرضوا
وابراهيم
وتمامه
والمصدر
بالهمز
##غنية
المعسر
اللورد
##ذرين
بكتب
بالتفصيل
الوفا
فالب
امرىء
وهكذا،
يحاولون
بادية
لأرجو
والمحافظة
عليه؟
للبا
الخاطر
تحصيله
فطاف
والأمراء
كاثولي
بأنك
وخسر
مؤثرة
أرضية
إثباتها
تقريرا
العضد
الألياف
##ثلت
##الحة
المهدى
بالبحث
وعباس
الأقضية
أنصح
ويكت
بياء
##ضمين
قاموس
المأكول
هجرته
ثور،
فلبس
قه
والدال
يحتمله
ذبحها
لعنهم
وارثا
المملوكة
الإيمانية
سارق
غلاف
##فله
##جيرات
تقدمها
بالسلاح
أسبابه
حمارا
لثلاثة
##زيا
يتاب
خريطة
##ضمان
الميسر
##يلت
أحص
والعلة
عزا
والرحم
لبشر
##ومأ
##ذهبن
الضوابط
ويتخذ
تلمسان
الانفجار
الفقيه،
للبلدة
البرازي
وساد
ويميت
بأفواه
محمل
والاز
يتيح
خبرها
حسابه
وامرأته
حصاة
نأكل
##أتى
##ربته
الكلى
##قصا
شعرت
##ظات
الذبيحة
ضربها
يشتبه
مواضعها
خفيفا
وثلثمائة
تستلزم
شخصيا
ذاكرا
الصالحي
لاعتقاد
##قيا
بأربعين
الموات
الأشياء،
بالوصف
لمصالح
ولغيره
وطني
فصيام
بديلا
نيكولا
فبات
مابين
وتلق
##رحيم
أداه
تفريع
##جارب
دخولهم
تراكم
##ذاق
##قاله
فضح
والدول
والكفارة
لبعد
الرياسة
فتبسم
##راجا
السائلة
فاقبل
والبغي
الشر،
الجوزاء
عاطفة
وأعراض
##سعت
##قدون
ومراد
وبصره
يسقي
بشق
ربكما
حدوده
المأثور
المبدع
والموعظة
بلزوم
متساوي
تجاري
والإناث
مواضيع
تهدي
فاتك
احتيج
قومنا
دوائر
ستان
تمامه
##تز
##عيذ
النبيل
نوعها
عبيده
أدركته
يلبي
الرواية،
والغناء
الكرا
الاول،
والنذر
تخي
ونحوها،
مرضية
وأسامة
العذاب،
يحفظه
بمرور
تعبيره
وأحكامه
المناقشة
ثقب
والبرهان
ولسنا
وأنثى
معدوم
الملحق
عطش
الأسترالية
نير
ريحه
سمو
وتعود
المعير
##وضحه
للمساعدة
وثانيا
والده،
التشري
الهائل
##فينة
الحارة
الرخ
##روب،
وفات
بكف
عاين
جنوده
الذهب،
المقترح
المهارات
بائعه
لقوا
بالبحر
وبيانه
ماعز
وجحد
والإست
جنابة
أنشأها
ثانية،
العنا
ونفذ
##ماتهم
موتي
##جاهل
المحمول
وعقبة
والدتها
وعبدالله
رحلات
فعليها
والسما
صلينا
المحاولات
أضواء
للفرد
وخاتم
الأخطل
الصواب،
إسب
##واكه
الأطفال،
##افعين
##لفين
بعلبك
المستشرق
##وقيع
والبق
##حيرات
يدريك
أحرار
بهذا،
التطورات
واتخذوا
وأرضا
آخره،
أبطأ
رحمكم
عبدالرزاق
وينهون
امتحان
حفيد
تعتق
وبغض
وإرشاد
محنة
جنسا
فنزلوا
والتأخير
وأوروبا
محذورة
فيرج
المراكب
السرد
##ربية،
وعلة
أعماق
فإذن
تتلى
الاشعث
لصد
##بب
التوص
التلاميذ
يعطون
اختيارا
قومها
الصفحات
بوك
للمض
قتل،
والنظائر
غاص
الثقل
فاغ
أجرت
خلفي
عاتكة
وأقيموا
المحلة
مدافع
يهتدون
خنزير
وحوالي
يحسبون
وفارس
جدوى
وأنبأنا
ويوجه
للتد
امرأتين
ناجي
للسيطرة
أديبا
نشا
##ثمة
##ريحا
السرط
##روبة
والحذر
وذم
##واصوا
بضمتين
فتاويه
جونسون
لوارث
المهن
الجدة
والعشر
والثبات
فحج
ساقها
خضع
##كدة
والجم
الجفاف
متقار
##ولية،
##وما،
باردة
معرفتها
تورث
طغي
عاك
قشر
##هية
بالكر
اقتدى
الأقلام
الشرطية
وانتشرت
البخيل
فاب
ومالي
أبنائه
مقالا
وخيار
والنظام
مطاب
المجلس،
الكلأ
الفرنسية،
جول
##حصل
أخطب
يقترن
وظلت
احتياجات
هادوا
##جعا
الدخ
##ودته
الإر
##بتون
الغشاء
فتارة
##طففين
وآدم
والتحريم
غلمان
ماضي
اعتذر
العامي
ذاكرة
يبرز
الأحيان،
آذ
##حقا
الجليلة
بشك
وشركة
القلبية
زوا
وأمام
المنصف
بدونها
بروايته
وضربه
اللفظي
هداهم
الأتباع
خداش
الآبق
حيضا
لأمير
##كيز
بالحب
كفر،
المتصوفة
بجا
##طرا
لتقدم
والثمار
انتباه
أوكرانيا
المات
بعرف
المعالج
بدراهم
وصولا
ألفت
خرجا
نظروا
خطبنا
مملكته
قسمه
للقوم
أردتم
الإفريقي
حيوانا
نشاطه
خادما
توي
بالقدرة
النكت
##حدار
ويتق
والدكتور
توات
راق
والشيء
ويكبر
وعظيم
جزى
الوجهان
لكونهم
صوتها
وشبهه
منقطعة
اللقيط
##ذلل
بالفقه
للوق
للاقت
صرفها
نخبة
الوليمة
##كراه
فمنعه
الأحلام
ترغب
فرعية
بركعة
شيكاغو
##رواح
##غمت
##ضلع
البيئي
اعتد
##جابية
تدرون
بالقصر
##وافذ
للدراسة
المحاسبة
إحساس
قرق
يتطرق
إبراز
أدوا
لإخراج
التأكد
##راتيجيات
أعتقت
فالآية
##الطة
ومحمود
فضربت
المذكورة،
النوازل
الرضوان
العاطفة
شوارع
##روسة
تدركه
سهمه
فيبطل
نما
##بوبية
##واعظ
جدلا
تعرفون
ضن
بالذين
بالوجوب
معهود
يعطوا
ليبر
السياحية
زواله
المنظومة
حور
يعض
الغلمان
القادي
المستملي
يعملوا
محذوف،
وازداد
بأصحابه
عصبية
مئة،
##لكية
معلى
معجزات
تميمة
والقواعد
##برياء
يبقي
مجلدين
استئصال
بفساد
##فسكي
##كتين
تطالب
حكومات
عينك
مختصا
أعطاني
والضراء
فماتت
فليتبوأ
معصيته
ونفسه
بمرا
المغنى
##كسية
العدل،
فأعجب
والمناطق
مائدة
بالأمور
##ينز
نظرهم
لغيره،
اصطف
وعضو
##علج
##بتداء
القدوري
المحتوى
المقررة
انقراض
خارجه
النفوس،
وعلينا
للناظر
كوي
والزع
الإقطاع
البدوي
موصوفة
السوفييت
العشائر
النفايات
كنع
##قضاء
##بيله
واستقبل
صدقة،
يحدثه
بوي
هاري
الفري
استه
بدعة،
أكلم
وضعته
الشهر،
فعلتم
تشكلت
مقبولا
رائح
الممات
##منون
أتزوج
وعدهم
موته،
صرفا
السامري
التخصصات
وباطنا
دمها
يبصرون
اصطفى
شرفا
القرشي،
تأخرت
انطلقوا
تلفظ
ساجد
هاي
##حراف
السمات
وعلامة
استدعاء
برزت
والصيد
غزية
الاسم،
الجمهور،
المجرمون
المصرفية
شراحيل
ليله
##جروا
بصرف
شاهدان
والسرقة
أعور
تسجي
احتفظ
عقدها
##ذلان
صوره
التماثيل
تعاد
بمختلف
الأسقع
مرشد
يعودون
أعتقها
وتوكل
##هرم
وبمن
أمتى
فالوجه
بسائر
بصريح
بنتا
تزكية
يشترى
المحاضرات
ووفاته
ماشية
يغلق
بمعصية
تراهم
دس
غربية
بالمل
إسطنبول
عاجل
تحدثت
تتعامل
المحظور
##كملوا
نسخا
##وائها
المختلط
وقضيته
بأسرها
فيشترط
ولزمه
والموضوع
يستحقون
خليط
##قدها
الناش
بحري
المصورة
اتساع
المساكن
أبرهة
أسري
اللامع
سابور
تعلقه
المكسورة
صاف
والرض
النعت
معالي
فيهما،
فأث
ويرون
ودخلوا
سلخ
مسئولية
يبع
ولغير
يمحو
تكريم
التأثيرات
أبدى
##يكو
السادات
فاقتتلوا
والرجاء
المفرط
إرم
المراس
للرحمن
وأنفس
تأملت
بالعفو
قبيحا
حثمة
فورك
الفترة،
نقلوا
واجب،
فيتعين
لمعالجة
حديثا،
احتل
وبالعكس
الإفراط
مستحبة
فاجر
وأنفسهم
القاعد
والكلب
نقوم
مغول
رائعة
تغييرات
عقيدته
إرها
رث
ملق
متمت
جزئي
##جزت
اقتحم
بالاضافة
زيادات
##طمئ
السالكين
فحرم
العجلة
وزار
الشعثاء
منزلي
الاجتها
تهن
حارس
لذات
بالتب
وتحرير
الثقلين
وحياة
المسكر
الداودي
أثلاثا
##فسدت
بتز
المحسوس
الزوج،
جنسها
كالمس
الاستهلاك
ركز
المقذوف
الحسابات
الأثناء
##لتنا
تأريخ
الصفدي
بالاشتراك
أحمق
والأفكار
وضوئه
الفحول
بمضي
المقرض
الثقات،
يحرق
وجنوده
الإسماعيلية
خاقان
وجاه
بأعيان
يغزو
مسيحي
المتبقية
فريدريك
بضعف
الخفاء
والمقد
##قارات
تنصب
قبالة
بإظهار
واتهم
ورضوا
تسبوا
ستيفن
الشطرنج
إيم
نبين
الجنات
الإذ
تعالج
##حاك،
##تابعات
لكلمة
ملكه،
اصطلح
دراستها
الموصل،
المقتر
فيسلم
وعما
لساني
##يمها
##ويلها
الفرن
أخيه،
شغله
توكلت
الأبار
الشفا
##رجا
ولص
ينصره
المعبر
لتحقق
فعلية
منكبيه
أموالنا
القياسي
لبط
التحرز
الإضرار
والثمن
والخنزير
وأعجب
معتقدا
ازدادت
متعبد
بشار،
الصومال
ثقاف
الكلمة،
عونا
الصلا
وإياه
الجزيئات
والقطع
ماليز
والتشديد
الأحسن
الحكوم
والطلب
فهمت
##يوبيا
ضعفت
بوابة
موقفا
الفاتح
التغليظ
حكايات
تين
##كارم
فردوه
التغريب
وفسره
المفضلة
يسند
الزب
ليوسف
لأق
##باحية
الحميدة
للمرتهن
الميداني
اطلاع
##فيا،
##ياق
ناقش
انتفاع
ألقيت
غاد
وأقم
الطم
بي،
كالمن
الضح
يكسبون
ورسالة
لشراء
الدهون
المرسوم
طمعا
خيمة
قواد
ويصد
عظمته
طهورا
وأرادوا
الصيانة
للمسلمين،
بئرا
عبودية
ومقام
يترب
عقوبات
##وازية
بالقاف
أقرانه
شديد،
برجله
##ادثة
انخ
##كلوا
التصغير
إمبراطورية
بالمعروف،
وتقرير
بعلو
الزبيب
##تموهم
ويتصدق
الطاعة،
أسبق
##ضاد
بنوه
أندادا
الخاد
واختص
وبس
مستور
احتجم
اخي
سرك
طعمه
##مرد
يسجل
يشغله
تسهيل
وواحدة
مزدلفة
أفواههم
التتر
يتعمد
أدائه
منتظمة
أفعالهم
قصاصا
الذبائح
مذكرة
عمرك
لوحات
بشاة
خيركم
مواقيت
درء
ويعظم
النجاسات
خوفه
اضطرب
مصنوعة
تناس
##كمان
بخار
قليل،
تثنية
اليشكري
تود
الإسقاط
الانتداب
المنتجة
النقدي
يفرقون
أرواحهم
غراب
فطال
ينق
أجلا
المؤقتة
اختي
تذهيب
مفسر
##ابهم
المتخلف
جدال
مفتوحا
قيما
يضرك
يختلط
ورضيت
ملامح
النسا
متوجها
يكتف
وتحتوي
لهيعة،
يغتفر
##راكا
تقبيل
بتعيين
والقوانين
##ظيمات
النحو،
حادة
كورت
لرأ
##ضة،
ولاسيما
أبق
##يراده
بالأز
تحمي
مده
موليا
##تابه
##والاة
##وطئها
والشدة
##ناعية
الهمم
حلفاء
مقاييس
مركزية
صغيرة،
فالصحيح
بليغ
الليم
لاين
بالخص
بالظن
الناطقة
##ساهم
مطرد
فرضنا
##سفان
الإشعاع
أزواجهم
الإتلاف
أعل
جبري
خاس
عمته
برنام
بغيا
الاعتذار
راعي
خاص،
جائز،
توافر
يظنه
أنسب
الاطلاق
الاجماع
##وهي
##وحات
والإثم
خيرها
##فصاح
ضربته
يجعلوا
للكافر
بالخلق
وفتحت
تشتري
ريف
نالت
الجموع
وتقل
##طانة
للشعب
لتعزيز
الرأي،
وأتباعهم
الإرادات
بأني
والاجتماعي
طويلا،
المغت
بجن
لانقطاع
القسمين
علوي
اليمين،
##شاش
ولرب
الآلي
سعيه
##لله
أنقص
فعسى
زوجت
مستعملا
##بونات
تعق
فألف
المتكبر
فتخ
يسعون
نزعه
لإخ
المقترض
عميقة
مشيئته
الإيجابية
شاهده
سدرة
##زز
القاهري
مصنوع
اعتقل
مواسم
وسبعمائة،
قانونا
وعشرا
المتك
الأخوات
مسؤولة
وإدراك
عراة
السلي
ويستمر
التجويد
كالمت
فنام
##راة،
الدمام
لمصدر
وكا
ليص
مخد
بالسوية
نابلس
الزرقي
لكا
##وبه،
والقتال
وتجوز
قدام
يتج
حيال
ومخالفة
##وهم،
##فيون
العثمانية،
شؤ
بالولد
حدائق
الغس
الضيافة
الأرضين
ورجعت
الريان
ناجحة
أحرز
بالتسليم
للفنون
آمال
ضلوا
ناح
##لبان
تأجيل
مؤثرا
يطرأ
لإظهار
الرواتب
الحاجز
وعلمت
نازع
جوية
قنت
راضيا
وذهاب
والمشاهد
مراكش
يعمد
وحرب
الأميرة
قطعي
حقوقه
فأخبرهم
الصليبي
الأمامية
##خر،
يمنعها
اعتقادهم
الثقفي،
خبزا
أنيسة
##كروس
أباها
والصي
ونشرت
الغزال
حكموا
كلمت
تقدما
لاجل
متغير
عبدالوهاب
##تقام
يسمعوا
ببي
##وبها
تنفس
بالمسلم
والقادر
التأبيد
المرض،
يهده
فوضعه
اللمس
قرم
حديثها
أكفر
تنبه
فاستح
التأجيل
توعدون
الأقوى
أمامهم
وانتشر
الخليلي
حزبه
اسمعيل
السرج
انتظ
تطليقة
مكانه،
بروك
غروبها
امير
جوعا
رحب
فترد
يحوي
لقرب
فصبر
الحطاب
الأدعية
السوط
استلم
عزت
وسبح
قياسه
خوط
التسامح
بالحرم
نسق
البعض،
وللش
حدودها
وابى
والحيوانات
نحاس
ينجي
ينجح
##طنها
بشهوة
أربعتهم
والسعادة
فرضي
ببطلان
الاعراب
غسلها
فوضعت
##فرده
بأنا
بالمملكة
الاشعري
ارك
نقب
وقنا
وحرف
ودلالة
حى
مراع
##جف
##يران،
وأذكر
زيدان
أجرها
استحالة
كاملة،
ضيقا
مشغول
أصيبت
ألبس
يورو
مشاة
فانتهى
الشرعي،
بالهند
ضابطا
ريبة
يمكث
والفهم
عبادنا
المقرىء
يأتيني
##وشة
الأودية
تنقيح
ورعاية
##قالا
القدس،
اتهام
##برها
للنهي
ورجحه
والمسلمين،
حمران
مأذونا
غمر
الاحمر
حديثه،
أدناه
أدعى
تطرح
هدفه
يسلمون
جئتم
اكتم
اسط
بعلي
القردة
بأخرى
والفلسفة
بالنسب
المقدور
أجمعت
المقاطعات
بالطائف
الخشني
الدراية
فرانسيسكو
حريق
صلبة
##بورغ
أعجمي
وليمة
جهدا
موكله
اولا
حنا
واليس
ويبعد
##وتنا
زوجين
قبلهما
ورأسه
الفاتي
قسوة
وعادت
الفلبين
العهدة
تأذن
والنذور
التسهيل
فكرية
بالحمد
وإرادته
منه؛
المحبو
تناولت
الرمز
دواد
سادة
قارة
قوص
ليا
هت
##بوطة
وياء
الشرط،
الشمال،
المجرم
للجدل
حجي
التثبت
وموضوع
المؤثرة
تأكد
الأولوية
تلفزي
ينتمون
تدمر
ويؤثر
مقصورا
مسموع
مستحيل
العديم
الاجارة
أمشي
بموسى
فالحمد
بتفسير
والحسد
وبالفعل
الكويتية
والثلاثين
الأرقم
##ليني
##ذاعة
أيس
النابل
والنوع
لعطاء
كلهن
النبوية،
اليابس
وقن
تعجز
بينكما
وبقى
ومابعد
اللد
كتمان
نسيج
إضاعة
والمغيرة
##كس،
الجنوبية،
ودعوا
آتاهم
الدبلوماسية
وشذرات
إعتاق
سقت
قصف
يوج
الأصدقاء
النروي
الجذور
مستدركه
والخضوع
بالحقيقة
قائلة
واحتمال
عطس
متقدما
لحر
الشهادتين
نهوا
كحال
تسببت
تملأ
الأذهان
يؤت
ضرره
الخلافة،
نورث
رأيكم
وكافر
باخت
##ذبحة
##ونسو
غلامه
المتظاهرين
##ترات
البهاء
يعيب
الثع
##عينوا
وانفرد
أتاكم
تأخيرها
انكشف
ثبوتها
عبق
##جبار
معنيين
استوت
متتابعين
للشريعة
زعمتم
ورجاء
##ؤد
الغدد
مقربة
للتنمية
الحالات،
##لعان
إمامته
المسؤولة
آجر
إصب
ونوا
فعرفت
وخرجه
يعطيها
يعذبهم
فيشمل
قزوين
والعام
بالمشي
وذكرها
##اكلة
كتائب
إخباره
آليات
دراج
طرس
التلفظ
يعزر
وإسناد
ونون
أعرب
لأقل
بحرا
عقابه
تخفيض
حاجات
السوداني
بالقاهرة،
اربعة
والجاه
الصفات،
##لميذ
الدوران
الغازات
بستة
داب
وبكى
والأيام
المصنع
والإف
الأخلاقي
##ضطجع
يليها
##نسيق
معادلة
##شيف
##جم،
ولقب
تحريما
العجيبة
يوني
##إذا
النصارى،
##خلد
عامرة
للموكل
يردون
##قابله
أوطان
##ضربن
وطهر
بجماعة
التحرك
وخلقه
جدل
رمت
##جتها
وعقل
شعبي
مرادهم
العقيدة،
##فاوض
المنعقد
يزيدون
إسنادا
الاقتراع
التجريبية
وتصديق
ينعزل
تسر
يعن
بعص
أصبر
الصحيحة،
التحسين
حصان
الصوم،
الشريفين
فسخه
الدراسي
باري
قانت
الفصيح
وتضع
##رجوع
نبيذ
وذريته
معيط
عني،
وكبار
وعرفه
##ساسة
الهبوط
الاستدراك
فأنه
الهائلة
متكئا
للقص
وحافظ
بتطوير
صادف
الأوسط،
بذله
فأقبلت
افتتحت
حقة
النديم
الختم
قرنه
بالإمام
اليهودية،
الإسناد،
تخير
والدنانير
##طبخ
تزد
الشباب،
عابدا
السحور
يطأها
والجماعات
تبل
البز
الباد
قدماء
##ويتها
وللا
##قضه
إخوانا
الأوساط
تشرع
مهن
يفرد
##غاة
##ذني
أفاء
برسم
مطلوبة
محاضرات
علماؤنا
واللحم
شبها
مستقرا
ريحها
أهلكنا
كحديث
بالضبط
المرات
والوتر
العزي
بالقرية
واحدتها
تنطلق
التصريف
للنص
أيديهما
حضروا
الفاسقون
رفيقا
المنصورة
لفا
فأرجو
بتأسيس
##فارد
ابتلاء
رآهم
رحال
نضلة
##فكون
هولاك
مثناة
اللطف
إبله
برده
والسادس
كمه
وبش
أمتنا
##واتف
بطونهم
ثيابا
الجنائية
قاطبة
##ويا،
وابي
ورثه
تجويز
والزمان
راغب
اللقاح
ثانيهما
ويخالف
الزيادات
وضمير
صوا
لشريك
سواحل
الأضداد
يتفرقا
الشقاء
ومحبته
انعدام
لعلها
المعتدين
شربها
الواسطي،
مراكب
الظم
والاب
##راؤه
الحوائج
التيارات
أوجبت
همذان
حقيقة،
الزركلي
شتاء
الصوديوم
وكنيته
##كنوا
##نيفة
وتردد
ومجموع
برؤ
أرضي
##غلين
الوطئ
المكي،
لأولئك
أحرق
##كفر
البقيع
يكونان
مساحات
تنطبق
خصوم
غنما
الإصلاحات
المفردة
ببن
دمع
فتحه
##راق،
وأمرت
اللسان،
وسنذكر
مريدا
لأجلها
الاغتصاب
الحنا
ومنك
الزهراني
الانه
النقط
وعسى
##روهن
الحكمين
لسعد
تلاوته
يابس
خفة
زمرة
##هق
##جاهد
الرضع
وجزاء
القاط
جزافا
فاستجاب
الرئيسة
مهلا
الانتفاضة
رواياته
والتدبير
أخوف
استرجاع
بحياة
مقادير
زوجته،
بغا
فبم
عذره
حراء
الثنائي
تجرد
والصورة
تأكلون
تغيرات
##راك،
الحيتان
معام
يمض
لعرض
بسؤال
كرز
رضوا
أخبارهم
المغيث
والاط
والحفظ
بطبيعة
الحرمان
أشهرها
الخرق
واليون
فاشتد
فويل
نقيب
##ست،
الطري
بتأخير
انفجار
؟؟؟
تفيض
للغا
المستور
نصبا
القدامى
تزرع
مليء
برقوق
الإطلاق،
التبرعات
يلبسه
بقلعة
جاهدوا
##خات
##لهن
الجواري
الطحان
##ضا،
بأج
##وليين
تخشى
والزنا
##زعون
النرويج
والتمييز
بالجماعة
ويستدل
السكاني
السكوني
المستخدمين
ونائب
##ديني
تصوره
إيذاء
الأربعة،
يسره
العالية،
يخالط
خبيثة
سقيم
متصرف
للمنت
والعادة
بعيد،
اصحابنا
مجيئه
ترفض
الذلة
والمسك
البولندي
الجلود
الخبائث
يعرب
أسطورة
##وصا
واستبد
بزمن
الفرضية
السلاطين
هائ
##خاله
ويفر
والعسكر
المبشرين
يشبهه
ودعوى
يكتسب
الفرنسيون
لوزارة
المذموم
##وكان
الربا،
وحث
يستيقظ
فعول
المرزبان
التصنيع
خائفا
ضواحي
طيء
محرر
صرد
وفاق
##حور
##كمي
الدمار
كالمر
تنطوي
القولان
ويرضاه
مشتملة
الخاص،
وذوي
المحافظين
طبيعيا
يبادر
والشرع
يقظة
##يرا،
المدرب
فليفعل
الإسراع
الاستخلاف
المعافري
لروسيا
ملاحظات
بنقص
وأجرى
استؤ
##اريين
##بقوا
والنقص
مرتبا
الركاز
المرضية
يشربون
مواليه
اطلب
الفوقية
تعقل
متما
تصديقه
الأشهل
بصائر
وأصيب
يفتر
مقابله
والجب
القرص
والعن
وخز
نعطي
وبالن
فصيلة
ليكونوا
حدوثه
يهدد
خلقي
فمما
الهدم
الرائق
مميزا
الفتنة،
يطاق
عمار،
الأوز
يتحلل
الخطية
ستالين
أرسلني
أسره
فيسأل
زحف
المقلد
الأمم،
أصبحنا
ويزعم
وأوج
لمكافحة
كلنا
تتقدم
المستفاد
##وريت
صحبت
بالحرب
ذهب،
اشهد
رقيب
تعاقب
وإمكان
لأه
لأبى
##قطعة
بتغير
كتبته
بالكلمة
تولية
الغالبية
الزمني
أديت
واليه
الصعبة
الكتيبة
فإنى
شرحا
بالرحمة
المهملة،
لأمتي
للزراعة
إقامتها
##بقة
بمصالح
مجوس
لتفسير
همته
يقبلون
شعبان،
وتتضمن
أبناءهم
غلبه
طرحت
الخارجة
وصدقة
باثنتين
تظاهر
##جيم
الإسم
##لمام
تشديد
##ايير
أضرار
أسنده
وقلوبهم
واخذ
تصريف
التحديات
أرباح
يهديه
بايعت
انتهاك
طبخ
لقطة
والحدود
الإيدز
البليغ
الخري
واعظ
رحمتك
المنايا
النارية
عبادتهم
ألمانيا،
بكلامه
##حله
فيينا
الكرامات
الخشية
يترجم
ولمسلم
والإبل
للأص
تسألني
طباع
مقول
وأنى
يتل
تكفرون
##هيته
فجزا
لجان
للصواب
بلجيكا
الخالي
المستدل
الإبلاغ
أضيفت
الرفيع
فعظم
ميادين
وتشكل
ندوة
فعلمت
السلاسل
بأدنى
جابرا
السواحل
الموانع
##لامات
المعادية
ويمثل
كافر،
##يازات
ظهار
الأسلم
##ودور
##ابتهم
انتبه
وتتميز
كرهوا
اعلموا
كسبوا
يتفكرون
سول
شحم
للخص
فكذ
والشخص
ويملك
النظامية
يساهم
قرابته
##كنات
معرضا
متاحة
لكنت
أتلفه
وعدت
وغلط
المحتال
بأموالهم
حركتها
وأزواج
ضاعت
وده
##خية
أودية
بهجة
وسجن
##جمد
فكلا
بنيان
حاجتي
اصبح
والهوى
سبيلهم
بؤ
حافة
المته
##فرنج
تحبس
##ضعفه
مصدا
طريقان
شهوته
مفردات
فخلع
كوز
##وننا
الناج
والتزام
فالز
فصرف
القياسية
الفجار
أتاها
لإحدى
يزالوا
##لاطون
اختصاصه
احسن
يجلد
##طيات
الياس
وقاية
تقيد
الغنوي
والوج
وعش
استويا
فتصح
بطيب
وغدا
لسليمان
جامعات
والمتأخر
القطبية
وأبر
القطار
وإكمال
حكوم
والرعاية
إمامهم
ترف
##ميمة
##ريز
حمود
##لائها
أقروا
وإعطاء
المباحث
العكبري
##وردى
مثلت
أتكلم
علانية
نبهان
##قلاب
##شوست
##غمة
وتلف
الاستصناع
وفقد
تخلى
امتناعه
التوبة،
وقرن
مشركا
كفيلا
وطاوس
جثة
كوب
ومكة
ومنح
##صحب
المتقون
انتزاع
وفرقة
والأنعام
نافعة
التناسلية
عيلان
وأكم
##زيمات
رابط
رشيق
المتحرك
وحط
فالف
يشته
والإثبات
تخيل
نظمت
والعدالة
المصنوعة
ذبيحة
وأطال
الرعا
##صلب
وخلفه
الترفيه
الرحلات
فحمله
##كاها
منتف
فالمش
الوسا
المكان،
فيكتب
أثير
تطف
هيت
وعنا
الاسمية
أخلاقه
أمهم
##سطين
أرضها
تغسل
رايت
بسيفه
المهيمن
توازن
خبراء
كرس
التوت
لمصر
للمرض
لعشر
بالحال
رويدا
قارون
##ودون
كلين
ونجا
الجسدية
بطة
غط
##وذه
وجوها
وموت
تكبر
فينزل
إخوانكم
تلب
الملاحظات
يقله
انفراد
اهتمامه
ببير
الرما
الدورات
أقرض
النظر،
الشعراني
الثدييات
##رشد
يقول،
##قباله
ككتاب
تضيع
بالسك
مستل
دعني
القدرات
محتوى
عوج
##لهي
##لماني
الثورية
البيولوجية
##صدير
كونهما
مقدرا
السجلات
فبن
##أ،
القذا
الدرة
فاليوم
والزرع
المعاش
بربهم
مفصلة
المسودة
وغم
لامتناع
المباحة
الأبي
الآذان
##قاما
للأح
بالشرك
انقسام
سكنية
وتصحيح
يتخذون
مرابحة
إجار
##ذاك،
الجنس،
مقاطع
جونز
دماءهم
بمقبرة
بالتصغير
المزدلفة
خلاق
كوبا
أكس
الهموم
المصريون
الحدود،
الوظيفية
إضافي
فاني
##روعة
الناقل
##ساكره
##كاكين
##ولاها
وزنها
عيادة
يول
العنت
وأسند
للسبب
##داهم
تمد
مستندا
والصاد
##شارته
الآيات،
المضار
عقي
وجهان،
الأورام
المنسوبة
المجروحين
عديم
الذر
المعية
اتخذه
وانقطاع
الفردي
خيط
مظفر
بالمرض
سنتيم
مفقود
##انز
بالعالم
التنسيق
بخيبر
الغرم
متخ
##يبته
أسوار
وفروع
تكونت
التنور
عطفه
ببدر
زرق
##مرك
##فاعلة
أثبتوا
##طرد
النزع
بعكس
شيعا
ينب
##لالك
وروضة
كرمان
المرتدين
نخاف
فكتبت
ثيبا
وولاية
السوسي
المعقدة
##ضر،
المحذور
ولهذه
والفنون
يردد
أنفسها
زميل
ابعث
##دمه
اختبارات
يعده
التالي،
متأخرا
