[PAD]
[UNK]
[CLS]
[SEP]
[MASK]
.
/
:
=
|
،
؛
؟
ء
آ
أ
ؤ
إ
ئ
ا
ب
ة
ت
ث
ج
ح
خ
د
ذ
ر
ز
س
ش
ص
ض
ط
ظ
ع
غ
ف
ق
ك
ل
م
ن
ه
و
ى
ي
##ل
##ف
##و
##ت
##ن
##،
##ي
##ر
##ز
##ج
##ض
##د
##ع
##ا
##ك
##ح
##ه
##ط
##م
##ق
##ب
##س
##ى
##أ
##ش
##ث
##ة
##إ
##ؤ
##ظ
##ص
##آ
##ء
##خ
##ذ
##ئ
##غ
##؛
##؟
ال
##ال
في
من
##ان
##له
##ما
##لا
##لى
الم
##ين
##ها
##لي
##نا
وال
##وا
بن
##را
##ية
أن
عن
الله
##ير
##ون
##ار
##لم
##بي
##ول
##ذا
##هم
الأ
على
قال
##اب
##لك
علي
الع
##ري
الح
##ام
##ات
##دي
الت
##ست
وق
لا
بال
ما
وأ
الق
##من
##اء
أو
##مر
عليه
إلى
الس
الن
##ور
كان
##حم
##با
##إن
##ته
##عد
##كر
وه
مع
##بد
##في
الش
##اد
##يد
##بر
##ائ
##أن
الج
##وم
##حد
الر
##بن
أي
##مع
##يل
##خر
##بو
##ني
##كم
##رب
وس
الص
##وله
##يم
فق
لل
##ود
##عة
إن
##حمد
له
الد
الك
ذلك
الذ
الف
لم
ابن
وك
يق
الب
##رة
##اف
الخ
ولا
##يا
هذا
به
##بة
وي
الإ
عبد
##لة
صلى
وت
أبي
تع
##وج
وا
وع
##ذه
##لام
##رك
##رف
ثم
##بل
##لف
##لق
إذا
وج
##لو
##هر
##كون
##سم
##لت
أبو
يع
##حي
##رو
##نة
##قد
الا
وهو
هو
فإن
##كن
حد
##ديث
##دة
قوله
لأن
##فر
بين
##مة
قد
##يس
وسلم
بع
##قي
إلا
فيه
الث
أنه
##رض
محمد
##فس
##وس
بعد
##تى
##اني
##قة
غير
##جل
##عل
##به
##صل
##عت
حدث
وقال
##سول
##شر
فقال
الو
##مي
ان
##تي
الط
الذي
##هما
##حت
يت
##ضي
##فا
##مل
##ذلك
مس
وإن
##رج
##حا
وم
كما
أخ
##عي
##اه
وفي
عمر
##الى
عند
رسول
وقد
فأ
ومن
النا
##وي
كل
##ة،
##دا
##صر
##بت
##سن
##عا
##غير
أم
الز
##هل
##خت
##ه،
وب
هذه
حتى
التي
المس
تعالى
ول
##عم
يج
##يت
##وق
##ضا
حدثنا
شي
إلي
عنه
است
##لب
وإ
##قت
##فة
##تاب
وكان
ين
ون
الآ
##اج
##اح
##مان
##ده
والم
##سب
##وب
##صح
##نى
##قا
بل
يكون
بعض
ذكر
الغ
##ثر
##وى
##بع
##كل
##وز
##فع
##خرج
مت
مث
##رد
##يب
##راء
##مس
أحد
##حر
##وت
لي
##ماء
أع
##خل
النبي
##در
##فت
وما
منه
##هد
##وع
المت
##وف
##قل
أس
عام
##جر
##شت
يقول
##كان
بها
##وض
فه
فلا
##لاث
المع
فيها
##دين
##اري
##قول
يا
##رأ
لو
##لها
##اص
##نت
فت
قبل
##حة
##يرة
سلم
مال
##دم
كانت
##لاة
##اع
##رت
##رق
حديث
الناس
##ارة
فل
##سي
##مام
وح
يد
##شي
##ظر
##ورة
حي
##كت
##وه
##رس
بأ
##راد
##مت
##ذكر
يوم
والأ
إس
ولم
سنة
##بح
##رح
##سان
أهل
##از
الي
##لال
بد
المن
أحمد
##ادة
واحد
##رات
##سر
لأ
##صف
##راه
##مه
##ليل
##ية،
##يف
رأ
وأن
##قط
##لاف
##وال
بم
مج
الشي
##ريق
بي
الحديث
روا
##ئة
والت
أيضا
القر
ليس
##زي
##قر
هي
يح
##الم
نفس
لما
أك
##جد
يم
بأن
##سا
##خذ
##زل
إليه
أص
##حق
##تها
با
للم
##حيح
لأنه
ثنا
##لية
الأم
##سلام
##بار
وهذا
##سة
مثل
يس
##ينا
##ند
##رى
منها
قول
##وة
الل
مح
كتاب
فا
رضي
##فق
وهي
##ضل
أخبر
البي
##ماع
##عيد
##ضر
اله
تح
كث
يست
ولو
##طي
##كا
الدين
عبا
##خص
فال
##يات
سمع
باب
##بير
الوا
##الة
رج
كال
أمر
لها
##وان
تق
ولك
##صد
##وات
ثلاث
آخر
وغير
##ولى
بما
##ناء
أح
##زم
الرح
أب
ولي
أش
الذين
##رم
بكر
##رع
عد
بق
##طل
المؤ
##سبة
##ابن
مق
##ذي
##لاء
فع
حيث
لت
شيء
فإ
##انية
والع
##ين،
لهم
##حو
تن
##كة
##ديد
يأ
وص
الصلاة
##تم
##مال
##اق
##ضع
##واب
تم
##انه
##امة
##اهر
القا
##وية
##كي
وأما
ولكن
أما
قت
دا
##قدم
إب
فهو
قلت
##سل
يش
بت
تأ
أق
بح
والن
عم
##عب
##صحاب
أج
##رط
فقد
##ولا
سعيد
رب
##ها،
##جب
علم
أف
مالك
##راهيم
فإذا
يز
##ميع
تت
الض
الأول
المص
##دينة
مما
##ره
##وص
مست
##جة
هنا
وخ
الحسن
دون
أد
##طلق
عمرو
نا
##مات
فإنه
##قه
##آن
الرحمن
إذ
##جم
الظ
جاء
##طر
وقيل
##تب
رجل
##عه
مش
فيما
وجه
الاست
الإن
عشر
الرا
المش
##بق
##لط
بك
لكن
ور
الأن
##وجه
حم
##لات
منهم
وف
##ذر
عليها
##خرى
##ختلف
المح
##ذهب
##ظم
##حدث
##حيى
##لاق
##ريد
##قص
##طن
يص
والله
قل
##طع
والح
يكن
يقال
أخبرنا
##زة
##جت
أكثر
إنما
##ابة
الأرض
الملك
الإسلام
##دع
##وح
##يرا
مسلم
##فظ
##ضاء
##ئا
##يه
##بلغ
إبراهيم
المسلم
رحم
المست
قب
بش
##ائل
وابن
يخ
لك
سن
##قال
أول
فلما
##ربع
##ناه
##واء
الشيخ
لع
حين
حال
تس
وعن
بخ
يؤ
صاح
وش
##رائ
حق
بإ
##الح
السلام
النس
##وفي
وث
ات
صحيح
سي
تج
عليهم
يحيى
أنا
يعني
##طا
يجوز
مص
##نف
##ولي
عز
العلم
##غة
##ولة
عباس
##طة
موس
##غي
وإذا
القرآن
فى
الثاني
الرجل
الأس
##بين
ومع
##ذن
الآخر
##جه
روى
##لهم
بالم
##وضع
##بيد
##الي
##صار
حكم
أبا
تص
جع
##نيا
##هم،
وز
##افة
##رام
وان
##سين
##بيع
##ركة
##جا
خال
##هب
ود
فس
تكون
تش
##ضى
وقوله
##يلة
زيد
##رار
##صب
##حاق
##قب
##ضم
المال
واست
##ثل
ملك
##طف
##وري
اسم
تحت
دين
##الث
وذلك
الكتاب
##يمة
فلم
البر
غيره
قيل
البا
أخرج
##دت
داود
##ظهر
##عر
وإنما
وعلى
موسى
طريق
##ليم
##شة
مؤ
أصحاب
نس
##شرة
كلام
الخط
مد
##نس
ترك
فك
المد
بني
فما
نفسه
أنها
معا
##ابت
##ينة
اعت
##ان،
رواه
الأمر
##روف
قالوا
##ذب
العرب
شيئا
##ثمان
جميع
##ريم
يمكن
##لاد
سمعت
##الب
الحق
##جز
##هن
الما
الأع
الان
بالت
بر
بذلك
الآية
مات
##راب
وليس
##انا
جمع
##نع
الحج
##فه
##ضة
وله
وكذلك
##يش
##اك
ست
##يام
تلك
##عمال
أت
##فتح
الحكم
والس
لله
خط
كثير
##ائر
الإمام
لق
يف
##مد
فلي
وقت
##لاح
##اهد
##نب
والإ
##وك
سب
مخ
والج
صاحب
##بيل
المؤمن
##ذك
والش
##حدة
التع
يك
عل
مر
جز
##اته
لن
فن
تك
والث
##ونه
عائ
فر
##هود
هم
الدنيا
##فل
نص
##صة
امر
وأبو
##امل
وط
##وء
كأن
خلق
هر
##ماعة
وبين
المنا
##اس
بلغ
##خاري
##وما
عبيد
##بس
##علم
##عود
إنه
##شد
يزيد
العبا
خمس
صد
سبح
##وائ
العل
هل
عا
رحمه
العالم
##جي
الأص
بالن
فمن
كنت
عق
##ألة
##يمان
كانوا
أه
رواية
ألف
##دى
إسحاق
##افر
##بات
##حرم
تد
##هي
الأولى
أخذ
##معنى
كذلك
يل
عدد
نحو
كذا
##تق
##ك،
تقدم
ذكره
##تين
##زا
##وط
اخت
##عين
##ياس
المغ
##افعي
##حل
##أل
##ريب
يجب
##فار
زي
##وجد
البخاري
أعلم
المج
أخرى
فوق
##ليمان
الفت
##قيق
فج
الماء
أبيه
##لائ
##رأة
بط
##راق
بالأ
خرج
##مار
##راج
قوم
##افظ
##اط
جل
سعد
##رفة
الإنسان
وكانت
##حن
##ثير
##صور
خلال
##اريخ
ثلاثة
والخ
##ربعة
##صي
فعل
##لفظ
##افع
للأ
لمن
##ثبت
إل
عثمان
وهم
##أة
##رجع
فان
حسن
شع
هريرة
##ائي
##ويل
##ومة
##داء
##داد
يغ
##لوب
الجمع
##جلس
الأخ
القول
فكان
##هور
عنها
##وني
اشت
##وجود
خير
##كس
##بيه
للت
##وبة
##هار
الكلام
السنة
زوج
والص
قام
وتع
##حمل
يعلم
أنت
##ؤلاء
قر
معه
أحدهما
وآ
##سبب
##وسف
فض
رك
سفي
المدينة
نعم
سليمان
اليوم
##ئيس
جعفر
النار
انت
##ديم
##وسط
##بط
##ا،
##قات
وذكر
رق
معنى
##مرة
##ورا
الجنة
انته
بالإ
تخ
بعضهم
ولد
أراد
والا
##ارث
والد
##زوج
##ته،
حدثني
##ريك
البحر
##ظيم
والق
عدم
وجل
##طان
دخل
سورة
##يني
وكذا
ورو
##ماعيل
الحا
سبحانه
الثالث
##حب
##فى
##سط
المسلمين
##دل
دع
يحت
شرح
##كره
يوسف
الصح
لح
##واه
نع
##ابر
الجز
##قيقة
نسبة
##سنا
صلاة
بج
المق
##زيز
##لمة
الله،
قالت
الشافعي
قتل
المخ
واحدة
شاء
لنا
سفيان
صف
هناك
##نه
الأح
##اعة
الجن
##اله
أنس
##واز
نظ
ألا
بغير
رأس
##ولد
وجود
كتب
##ريح
##يع
دار
##تهم
القاضي
##يز
بالله
يط
احت
##هاب
##راف
##سلم
مرة
النساء
##كثر
##عام
شيخ
وعد
##ليه
قط
كيف
##طاء
الأش
بيت
##ملة
##مو
وغيره
ير
المط
جعل
الرج
##رسل
يعرف
##راءة
صح
##علق
##انة
تط
##امع
##قع
تف
عائشة
نز
المرأة
##سمى
والك
وغ
##تك
##ريا
بالع
##هة
##ماد
##راك
السلط
الصحيح
صالح
يقت
بص
##شا
مط
أخرجه
انتهى
رأيت
##وث
عين
موضع
##راض
##بائ
##وار
ويقال
وفيه
تست
عنده
الحال
##يته
##ريف
##كتب
كم
يصح
بلا
العمل
قدم
##فاء
##بيب
خالد
أغ
##عيف
بنت
##هاد
العلماء
والب
لان
##اصة
##ياة
##جاب
وأخرج
##كام
##بان
موا
عشرة
التح
القاسم
يتم
##بى
الساب
بس
##نية
حر
بقوله
##فسير
أبى
يعت
وبال
بهذا
##مائة
رم
##صرف
إسماعيل
يريد
قاله
الدار
هؤلاء
بالح
الحي
##ليد
أصل
لكم
##جار
##كاة
##جرة
##خد
##شام
بغ
سواء
بخلاف
##ون،
دي
##ئذ
مكان
فقط
##يده
##وجب
شرط
العبد
المذك
عرف
##باع
وإلا
أنهم
##ارت
##نات
##فاق
##صا
##ضح
##هري
##كاح
##ي،
أيام
حك
المؤمنين
والف
##يسى
أربع
بالق
##اره
##عدة
أث
##ربي
##نين
ممن
القي
سبيل
الثانية
وين
ذات
قائ
##شق
الأصل
قا
المسجد
وكل
مك
##يح
البد
##واد
لإ
عمل
ذلك،
الحسين
##بري
قدر
حص
##ذاب
##باب
##ديه
##خبر
الوقت
##ضمن
رس
##الية
قري
التق
العام
##ارك
بينهما
##شف
فح
##ارج
##لد
إني
رجلا
دخ
يخرج
##باح
حني
إليها
##ناس
العق
##صدق
##جتمع
##رير
##فن
##ونس
الحد
##أم
بالك
ويت
مصر
##الف
المعت
ظاهر
حا
نق
الباب
##عض
لفظ
وجد
العد
##اتم
بشر
مغ
##راط
خلاف
وقع
العزيز
##ئت
##ضرب
فصل
الشمس
##يدة
بهم
##ى،
بمعنى
للع
##فض
##مير
خلف
ظهر
سلمة
##روع
جن
##رش
رقم
المعنى
يأتي
يدل
الثلاث
إحد
إي
##رفع
##كذا
اث
ورد
##بال
##ارس
بسبب
دم
تقول
إما
قص
وير
منهما
لكل
عبدال
##فص
الروا
يذكر
##ارب
##هادة
##خي
بمن
##قطع
كله
اه
##ذين
##رمذي
الولا
أرض
فهذا
اللي
عاما
فقلت
وضع
لج
البيت
المراد
عيسى
الليل
##ذف
ثابت
نف
الخام
##حاديث
إلخ
عليك
##وقع
اقت
##هاء
##اة
اللهم
القب
ضعيف
والذي
نظر
##اية
امرأة
الزوج
##لس
##غم
##لوا
##لوك
وحد
##طقة
##وته
كت
فلو
الحرب
##ؤال
##شتري
##ظاهر
تعد
##أس
التن
##ارية
##منع
رد
##ثة
مسعود
الحارث
عما
شر
آية
وصف
يب
##ارض
##تر
##اذ
حنيفة
السماء
##ادر
شخص
##يق
طل
##امت
بعده
##طب
##نائ
المث
العم
##ضافة
للح
الدم
##انب
شهر
##طق
##فاع
النفس
##لث
##أت
##يث
خص
حاج
ففي
حج
##وقف
هشام
تب
القوم
العباس
تر
رأى
##حه
لأنها
مكة
##ينه
فأن
الدع
##زمه
بأنه
فد
الصف
اس
##شاء
مدينة
##ائب
فلان
العين
##قدر
##زلة
الفر
الرسول
##بني
ضرب
ولما
##خدم
الوجه
الشيء
يرو
الأز
الأد
##فرق
##شرين
وبعد
##ديدة
المتحدة
جماعة
تغ
##غيرة
معاوية
عاد
##ورية
وعبد
##قدير
الخطاب
##زع
الإيمان
##ساب
كلا
##هاية
كون
##لح
عي
انظر
نصف
تز
##فرد
##وهم
سم
##قف
اليهود
فص
لقد
أر
در
##خدام
يدخل
##قبل
##وها
##ياه
الحر
الموا
قرأ
أفضل
##اهرة
يصل
الحافظ
##نام
##فعل
بيع
البص
##غل
جابر
يدع
عرض
آمن
ارت
شك
بشكل
##سك
القيامة
بيان
##بغي
عامر
الات
عنهم
حول
##راس
##ودي
##واج
القد
ذي
##دية
إله
فتح
##بيرة
المر
مض
الموت
مثله
ابت
##قين
##ات،
##غر
أولى
فم
أط
إد
المصنف
سبع
مطلق
ثبت
مرت
##نان
فهي
القت
##اعر
##جاز
رفع
المسألة
##طلاق
يوما
##واع
الفضل
توفي
ثقة
يقع
ذهب
##شية
##يار
##فسه
بقي
والر
عب
##بيعة
عليكم
بفتح
فاست
أربعة
المذكور
##سع
للإ
المك
خبر
الحك
وهذه
##ونة
نه
##ائدة
كلها
الشع
يه
أمير
##ئل
حاتم
##آخر
ويج
البيع
##صول
زاد
والتي
مم
تاريخ
##بعض
##شار
ها
##ائه
##ابع
##قوب
إخ
السلطان
المو
وبه
##شيء
كفر
عقد
##انيا
##اء،
صار
نج
##أتي
عندما
أيها
عدة
##الك
##فو
الثام
البق
لذلك
##جن
##ثار
حن
الأخرى
##راع
الصحابة
كثيرا
وض
##حوه
أجل
ونسبة
الأب
##وير
جزء
##ودة
##لالة
وروى
##ابل
فيكون
##بعة
##ونا
الزبير
الشام
##هات
العقد
إع
منا
وأنه
أكبر
الفق
##انون
##طيع
نصر
القص
وأع
جمي
الجواب
مسألة
ليست
طالب
##اث
قيس
فرض
خلا
الكر
##زن
ومنه
##ب،
السن
الرز
يرد
##شهد
الحم
ولهذا
شهد
فيقول
##بارك
المقد
##لع
بأس
يونس
طلب
والسلام
والط
وأم
ليلة
الحاكم
وتعالى
##وذ
##ابه
را
آل
القرن
الوليد
##أنه
أولا
##وخ
رؤ
الجمعة
فب
##جاج
للس
##رجة
##د،
مختلف
##قام
الآن
آدم
ينا
عاص
يوجد
##ضية
##شارة
المز
عنهما
ضمن
الاعت
##ظام
##روة
الحاج
فأما
منذ
##هير
##بية
ماء
##وعا
والغ
كبير
جاز
ينت
الفعل
يده
الترك
العمر
الإس
##ضان
أنفس
##اتب
يشت
الى
والمع
##يدا
الصد
##هام
وبلغ
تفسير
مه
التأ
قلنا
ترج
##ائم
سا
##الا
##وش
##والي
##جارة
وأنا
بالس
معناه
##عمل
جميعا
##يمين
أز
قطع
الزهري
الأمة
##لائكة
طال
ولق
يقوم
تؤ
سأ
قبله
أحب
الدولة
مخت
##كار
##وام
##ريج
الطريق
ترى
فليس
وثلاث
الترمذي
الأمير
##اتل
مقد
##قض
للن
ونحو
##كرة
اختلف
##ربة
الخبر
##فعة
##رائيل
الولايات
أسلم
وسلم،
مل
##ائد
الأسر
أل
##حاد
##ثم
##مائ
##ال،
أحسن
وعند
فذكر
مائة
انه
##وين
للا
مذهب
الواحد
عليه،
جهة
##بقى
أبد
عطاء
دليل
##سية
##سد
الطلاق
وأبي
والثاني
حجر
##ضب
##سمة
##امعة
ويقول
كف
##بة،
زياد
رئيس
كن
الرك
##كلم
بعث
نزل
##بأ
##سام
ورس
##يك
روي
وات
النص
قتادة
الخلق
مبا
التص
الفي
إسنا
لص
بالج
##شياء
صفة
ينبغي
##نم
الحياة
##خير
##ختي
منك
##ديق
يرجع
العربية
يصلي
مثلا
به،
##ؤه
النظر
إحدى
القلب
بناء
العديد
##ريقة
##غت
بب
منصور
كنا
ذا
##جع
وأنت
يعقوب
جائ
زيادة
##ظن
##جتماع
الخير
العائ
ومنها
تو
فهم
وحدث
إليهم
حماد
لس
يرى
يفعل
يعمل
##ربية
اللفظ
يعد
ويع
ضر
المم
ومحمد
باسم
جدا
علينا
أعط
##حيث
لدي
لغير
##سكر
إق
فيهم
الشرع
##ميز
##وعة
##ارع
الروم
##برة
ضد
##راح
نبي
فرع
كثيرة
##لة،
الآخرة
##ذيب
رمضان
أقل
التك
شه
سبق
والز
##قى
امت
مرض
##فضل
الظاهر
##له،
##ظمة
##لاك
التش
اللغة
أتى
الشرط
ذو
السي
##بعث
الهم
أيوب
وهب
جد
##ليق
أعمال
##صية
يقولون
##لامة
##بيت
سبب
الخامسة
##بدأ
منع
عهد
جرير
##ذان
##دعى
شعبة
مز
##يبة
لد
الرئيس
صلا
##شى
طلق
السؤال
الور
موض
الشعر
##ليف
بث
##خة
نش
ويم
##واف
##سباب
رجع
##ارق
حسب
لابن
يلزم
نوع
الانت
ورب
يثبت
##رة،
تكن
##انت
##قتل
وغيرهم
دينار
الرجال
سر
يجعل
##غا
محم
دفع
##فيد
الكبير
##مهور
الزكاة
مجلس
يأخذ
خاصة
نافع
##باء
عبدالله
الكل
يبلغ
##شم
حل
كعب
##را،
الدي
الشرح
الكتب
##جود
ويد
##ضاف
الرزاق
يظهر
المعروف
حميد
##قاد
إج
كس
مرا
ألم
##ئك
ملي
يحدث
##باط
##ضط
الثامنة
##ثى
##س،
كأنه
##يضا
##زق
##ئمة
وست
هار
نقل
حرب
الشر
##وفة
##ريض
##لوم
بوا
إنا
معين
وجعل
بينهم
خمسة
وأربع
##ناع
##كين
تنا
فهل
الاحت
بالص
لب
الوج
الأق
هكذا
تعلم
بالش
لر
##بب
##بياء
محل
##ليلا
مرو
كق
أشهر
ويست
البلاد
##عة،
فضل
إسرائيل
بالا
السكان
##حقق
القضاء
النكاح
##نا،
##عف
##ونها
ماله
اليمن
الميت
الحمد
##ركز
##طار
منت
الصالح
##يين
الأمور
فقالت
وأص
##ائق
##ياب
سمي
درا
اللا
##ثال
سير
##ريكي
يمنع
بعدها
عمران
##الت
وقرأ
لقوله
البلد
لانه
للج
المه
وخمس
أثر
احمد
##ذل
##يمي
مدة
مولى
حالة
بهذه
إليك
##لوه
شبه
الخر
##سناد
لش
فرق
##ويه
ورواه
##كية
##ثبات
##بيان
وأمر
أمره
عاصم
حرم
##رابي
##ير،
قسم
عباد
##قاط
البن
منكم
كونه
##داية
يجد
الفتح
فله
وصل
العراق
كلمة
##ظة
##ما،
رأسه
جواز
يجز
مو
حس
يسمع
##ليا
علا
حمل
##ليفة
جنا
بلاد
##طفال
##زب
##كى
طائ
يقبل
نحن
##غفر
##مة،
الشيطان
حبان
عص
معد
قلوب
له،
بنا
##خول
أجر
حصل
الذى
النف
##شرون
حلف
##سه
أحدا
ربك
للش
العصر
مي
بري
فقالوا
##يا،
السيا
والنس
حجة
##ليات
##فيف
##بره
##نون
يملك
##وفى
الكريم
فات
فإنها
##عث
بضم
##ختار
##صال
محا
##دي،
وتح
ورسوله
##ق،
للك
قولهم
##وفا
أنزل
حقيقة
الاقت
أخبرني
##حمة
ربه
البغ
فكيف
الطعام
وصح
الام
أين
متوسط
وحده
نت
وأخ
ولذلك
مقام
كتابه
##ريع
##ختلاف
مطلقا
##اي
وأخذ
##رث
ومنهم
##كبر
##صاري
قريش
عبر
##دري
باست
المشرك
##ريعة
خر
##لاب
##روط
السيد
البقرة
وعمر
وجب
أعد
الكثير
جه
##طلع
الشاعر
أهم
نقص
##ظي
##وبا
وعنه
##احة
حبيب
ينظر
لغ
##صاد
وأح
##فين
##حتمل
##تان
سيد
##عى
الزي
##نج
##لقى
جملة
دولا
##قصود
لهذا
حرف
وعليه
معت
السم
مجمو
وأحمد
حب
ويكون
وجوب
##قيم
يعتبر
المشتري
الملائكة
المذهب
سائر
التاريخ
بحيث
##جلي
الجامع
أعظم
اسمه
يحصل
##يره
المجم
بدر
##حسان
الولد
داخل
يحل
صحي
خيرا
وشر
آمنوا
##وبي
بكل
##تا
أصبح
قبض
عض
##ولها
رجال
##عن
جنس
##فعول
بالنسبة
##ئع
بشيء
افت
شئ
قصد
##وحيد
##لكة
للق
الشرك
##انع
وترك
والمر
##كب
يديه
الفا
##صى
##ولية
العامة
الشخص
##يران
وجهه
الأف
مجاهد
##لكم
اليد
التس
والاست
سهل
صدر
عالم
عبارة
معمر
##زام
الإق
وبعض
أست
دولار
مأ
سكان
العاص
##بيح
مني
وغيرها
ويح
##ؤمن
ابنه
موجود
استخدام
##ذى
الألف
ذاك
مجموعة
حفظ
الثلاثة
الخلاف
##طية
##ليس
سقط
الفرق
##طين
##تمع
غز
الليث
##قيه
##قاق
نعيم
أثناء
##جوم
وراء
##شك
الثمن
معهم
وو
##قوا
التم
جانب
عدي
##رفه
يحتاج
فيهما
دمشق
##خط
الست
##فقه
الإج
ته
##ورد
المنت
كر
اب
عبي
يقدر
##ور،
ذكرنا
وعلي
مجال
البعض
سوى
الألب
ولقد
الجيش
السر
##عدم
الجماعة
زمان
المهم
الرواية
##سمية
العائلات
الذكر
خي
الرابع
ني
الكم
##ن،
وأخرجه
##ئي
##كمة
##فعال
##نتين
الجاه
##ري،
كقوله
##ختيار
القدر
يقتضي
سما
##ناك
بطن
ولأن
غيرها
الكافر
وفى
أصاب
الثق
##كرم
##عله
المغرب
صورة
الإع
سلط
##لل
قالا
شيبة
##درسة
عبادة
##جيل
##صم
##ثله
فعلى
##فيه
بعضها
باع
عروة
##ثرة
##دب
##روب
واحدا
واعت
العقل
اكت
أقر
وبن
بينما
أنبأ
تزوج
الأمريكي
##عبة
مشت
الشمال
نور
البشر
##احب
فخرج
ساب
وهل
كا
##قون
أصب
المعا
##ريط
##ندي
جبل
أنواع
بينه
##طال
فقيل
كلامه
قيم
كبيرة
الدا
##لما
##ضوء
يدي
نهاية
خاص
##بتد
##سند
##باد
والمن
عندي
##طلب
أصحابه
مرف
واف
الأج
عادة
قوة
##ذات
قراءة
##عيب
عظيم
المثل
##بوت
أقول
الزمان
بكسر
الخمس
الأعمال
الإخ
أشد
والأرض
الربيع
لئ
الوط
كأ
الفس
صحة
عندهم
المض
إسناده
الثالثة
البائع
تاب
النسائي
يؤمن
اليمين
##عتين
وتم
الأنبياء
وتس
وفيها
##ومه
ويل
فأمر
وأنشد
الإبل
##جمة
##اني،
معرفة
ولكنه
الكبر
بار
وأس
##افية
قضاء
##ركب
حاجة
الهد
الوز
خارج
وسمع
##اده
رح
##عار
لسان
الكفر
ليت
##حيط
بلفظ
تل
الوس
إنسان
وسبع
تعت
شريك
أمام
راج
سألت
الاسم
##ائية
ستة
قلب
##ثناء
حض
ذك
وأصحاب
##ياض
علق
بغداد
أهله
حسين
##ائف
##تاج
صاحبه
شعر
الفجر
يحب
خز
##عمش
اص
وعشرين
أمة
أموال
ويجوز
ربيعة
الجنا
##كد
يتعلق
وتن
##حث
وقالوا
الهند
##راز
لهما
جم
بيده
##نث
مب
##قطني
يسمى
أبدا
أرد
منطقة
للد
العا
##مسك
الإي
وخرج
الضر
سليم
دعا
##طه
##رأيت
معاذ
بحسب
##عتبار
آيات
هارون
فجاء
##شيخ
##دد
##قية
يحمل
عنه،
ثلاثا
وإما
سئل
تقر
##ئية
##ديل
##ائع
إنها
الخلا
فخ
مقت
الوضوء
فأخذ
##طى
فيه،
حقه
المرض
##طلا
بدون
السما
القسم
صدق
أرسل
أدرك
الكف
يسم
##حية
لأبي
##كرمة
عت
زمن
##و،
عج
والآخر
بالغ
عذاب
وإلى
##اتها
بالمع
##بته
##حص
قرب
##بض
مسا
أني
##ختص
فش
لديها
تقع
ومسلم
##براني
جبير
ابى
##املة
##قعة
لغة
سالم
النعم
سأل
سلام
الأنصاري
النو
واج
الساعة
وجوه
بدأ
##بعه
ونا
عبيدة
دائ
معظم
الأسود
الآيات
عف
يقرأ
نفي
##زوم
نقول
السابق
بمع
درجة
وقول
والحا
أكل
المنذر
أسماء
امرأ
##طرة
التر
التط
ثمان
المجتمع
شهاب
تقدير
بالب
شرع
نشر
سج
الواجب
##ئات
##ناها
الحيوان
فجعل
للص
##لا،
الذهب
##لمي
##لاج
زوجها
بالر
##صير
والمراد
النوع
ولل
النبو
##ارح
##ظلم
لكون
##بيا
الظهر
فعله
##هاجر
زك
السفر
البيان
##وغ
بلد
الساد
##تيجة
صلاته
لكنه
##مته
مهم
بات
لأنهم
شهادة
قيمة
##خلص
وفا
الكفار
اختلاف
لأحد
ومر
المرت
##ضعف
العظيم
يعود
##مبر
عوف
ثلث
وبر
أجز
فيت
متى
##أخر
يشترط
وقف
الجنس
دخلت
الشرق
##أي
شيخنا
بنو
نهى
إمام
البصري
##زيد
وذ
##بريل
صل
حضر
وسي
##ديا
##ذة
وهما
الدعاء
لكان
##قة،
##صارى
نزلت
السلف
موت
حينئذ
طلحة
إنك
نفسي
روح
بالد
بدل
##م،
بنفسه
النهار
شعب
حديثه
##ينية
تمت
حنبل
الحجاج
القيام
درهم
التج
المشت
الموص
وجاء
أمه
##نك
##البا
معروف
##حياء
الحكومة
واس
وهكذا
فالم
##اظ
العذاب
الرحيم
##زال
ونحوه
وفر
أحدكم
قي
فصار
حمزة
واحت
الوك
##شأ
دور
وكتب
##فسد
يكره
الحجر
مفت
الفقه
جاءت
##ويت
والذين
الثوري
عال
نظام
أطلق
##وسي
##عادة
كي
أنفسهم
صور
حرام
الخاص
وتش
##ثلة
##منا
الصغير
المؤلف
الحب
ويس
##مامة
المأم
يقل
أحاديث
مضى
الرس
يلزمه
##ئه
##عير
خطأ
أنك
فيمن
الرابعة
الها
محت
##صره
##قيت
##دة،
عش
البيه
##عتق
يمت
أجمع
بمنزلة
وآله
طول
وربما
وآخر
##زيادة
غاية
الخمر
بان
يلي
فقت
الأحاديث
##لبس
##لمه
مكت
تقوم
ولاية
##تهما
حوالي
مصدر
العباد
جريج
##راة
##ىء
##طح
##رارة
##خا
فرس
##ثي
واجب
ذر
كلهم
ميت
##زية
##لول
أذن
لبن
الأغ
##به،
رو
حجم
وغيرهما
الأسا
الأعلى
لنفسه
ملكه
حفص
ويق
##طاع
أولئك
عملية
بحر
بالإضافة
الرغم
قصة
##اجد
جامعة
القياس
مهر
يأكل
طا
ومات
##وا،
##راضي
##وائد
##كو
العربي
يو
بقية
اج
وتت
إذن
##جان
##دخل
كذب
##ونية
يحرم
للناس
المي
##ولوج
تعرف
الإسلامية
##ريكية
##وضة
قرية
ظن
إم
##تيب
مرات
الحقيقة
الريا
جبريل
##صاب
منه،
وظ
الخارج
##زار
الصوم
##تيبة
الدول
المسيح
ري
##كمل
مسجد
##فهوم
##هارة
الذه
أيدي
عندنا
##باه
الموضع
##تهن
المنطقة
##غب
يجمع
عنا
وجمع
الفصل
جا
بنى
والل
شري
أعلى
واله
شئت
والست
إيا
##دون
فأع
يسأل
المقصود
الزيادة
لعدم
مروان
عليهما
معي
يوجب
##ارف
##مين
التف
الدهر
##زه
##صيل
الري
ثالث
محمود
الحرام
عني
زعم
##ركات
والمعنى
فاع
أظهر
ماجه
بهما
كنتم
##طنين
حام
تسع
##ستان
##زمة
بير
الطيب
الخص
وانت
اجتمع
شركة
الشهادة
وروي
للر
أشار
القتل
الجد
ونحن
الأكثر
طرق
##ذوف
نفسها
الفقهاء
##رادة
القراءة
##ديدا
شأن
الواو
##قاء
##ثا
يحتمل
اليس
ويؤ
المدين
##خلف
وتق
بيد
متعلق
الألباني
مريم
والأن
المف
يأمر
جده
وأيضا
قيام
كالم
الخاصة
والنسائي
النهي
##برا
##فسر
الحجة
المصر
##ائن
##أخذ
##وضأ
##ت،
السف
سيف
##سات
البل
ساعة
##ويا
##ليين
##ثنى
يتع
##نوب
فترة
##ناة
موق
زر
##ويد
##سى
المسلمون
سه
واختلف
الثلث
السبب
المشهور
سيا
الته
مؤمن
المقر
##لون
أولاد
قليلا
اللام
جائز
أحكام
الطب
##ناب
قليل
صوت
تمام
حما
##يري
المسيب
أمية
فاس
لولا
لين
##انى
المكان
لاست
دل
المتن
##صلاح
شرب
صاد
طب
##ئر
تيم
أقرب
عيينة
##عاية
ورج
وثمان
المجلس
##باس
وإس
قتله
الحرم
أسد
تجب
وأخبر
أهلها
لام
فبلغ
المجموع
##واح
يومئذ
لط
نكاح
بطل
البيهقي
قلبه
الشهر
##خصوص
##خال
الدرا
المشركين
نب
المحت
##ناد
فالأ
بمكة
ربنا
يرت
قامت
الدارقطني
آلاف
وأش
بأمر
يكتب
الرؤ
طاهر
##ع،
العلوم
##اتهم
تعداد
المحرم
##لومات
بها،
وأهل
شاه
##وبه
##ندا
##لقة
المبارك
##وزا
##ثه
هد
الأشياء
الشعب
محمدا
أسرة
##ماعي
سبعة
أخي
##صلح
##قاب
##واعد
##لوق
##تهي
أمور
يضر
ضمان
##تنا
فرا
حقوق
حياة
الوق
الرد
##بهة
ثمن
باعتبار
##ناف
##روض
أصبحت
وأق
ربي
بف
##خاص
صرح
ظهور
تجد
وعدم
تكلم
صدقة
##ضت
زين
الحن
##قطة
غر
خد
فأخبر
المقت
##برت
بز
الاجتماع
##تمام
الجمهور
الأر
والتع
مجه
الأعمش
##ل،
يضمن
سنوات
أذ
##نيسة
مف
أرب
##وافق
رحمة
وسط
ثوب
##ضرة
التو
جوا
##هنا
##يص
##اجر
شمال
جامع
التى
النووي
##با،
ثعل
النظام
##ناث
مكر
وجدت
وأكثر
أشبه
الحاجة
تذكر
##لفت
##حول
والي
الأيام
##حسن
الإم
##ؤها
##زد
إليه،
ينزل
فكل
النخ
##ريس
الفض
الأحكام
ترد
الألم
سف
صنع
الأنصار
وكيع
يؤدي
تخرج
##حى
الذك
الجزء
المحا
##ار،
مختلفة
##صن
أرى
ضعف
طائفة
فغ
شديد
##يل،
الموجود
باطل
أخر
الياء
الجهاد
عقبة
طعام
والمت
الجملة
قصر
##ودا
وأج
هاشم
المسا
هما
يمين
ومس
قضى
الكبرى
علمت
##خذه
ماي
المصري
يطلق
##زلت
##فقة
##ورات
الرأس
##زين
التوبة
أخيه
قبي
القائل
آله
المطلب
كاف
لبعض
##فعله
##ضاع
##صلحة
وفتح
يبقى
الأصول
##يتها
##وائل
##عداد
النصف
قبلها
بآ
أوا
يعيش
سق
ببعض
##رحلة
رآ
تلق
شعيب
##روح
لف
الميم
##قرآن
وقعت
القدي
طرف
شمس
الأئمة
عامة
يروى
محر
حركة
الناس،
علماء
##ئتين
الأمريكية
لدى
اللبن
فهذه
وحديث
مرفوعا
كثر
صي
برق
يحكم
أبر
رسم
التاس
##درك
شا
##ريت
##وبر
##خب
لمع
الاتحاد
العسكر
##مييز
وكيف
##لي،
##بوع
##فيا
والض
##ليت
نسب
##بي،
يفت
يلت
يشهد
الشه
تعمل
الخامس
##ليلة
عاما،
الأعرابي
بإذن
وتوفي
نسمة
غالبا
جما
أدى
##وره
سفر
التاب
إثبات
##فرة
العن
واد
يشاء
##براط
فار
النهاية
سبي
مالا
##موع
والسنة
ربما
##طلح
تقديم
المغيرة
##سطة
##بيض
##فيل
دخول
العب
يقدم
##ناعة
السك
##فاظ
##حرام
##وده
ادعى
هن
يسلم
فرد
كمال
ترا
فقام
المكت
واسم
أصلا
لخ
##ر،
يصلح
النع
##راجع
الفرس
قريب
##يء
بالخ
عمار
لأجل
بقدر
الصاد
##ابد
##حرير
##تمد
العدو
##معي
##امي
##شاف
##رائي
سنين
##ابا
جواب
##الات
أصحابنا
ومعنى
ويمكن
نحوه
المب
##صبح
فرج
##يتين
##نامج
فارس
التد
أقام
أتي
القانون
العامل
الجميع
تصح
الإسناد
عكرمة
وبا
حقا
الرب
##روس
##هى
الدليل
تقبل
إف
تنت
عمله
بنسبة
انق
##لين
##أله
##صابة
النجا
الطائ
##بتدأ
علمه
##رخ
##شيد
##أجر
أى
الجاهلية
فأت
اللغ
الدخول
الوقف
غسل
الروح
##ذاك
معها
أريد
الذهبي
##غيير
ولده
خلافا
##جرد
أولي
الجنوب
السكانية
ظل
ذكرت
تقي
نوف
يعلى
يضرب
##دوا
تعرض
وقل
##خيص
لحم
##اطب
نك
##قها
##زو
الأور
الأسرة
يقر
إشارة
أحق
الواقع
يسقط
رأي
##ريمة
تحقيق
##بوب
##صرة
السنن
زال
للغ
##فذ
الثوب
ظلم
يأت
وتأ
الحس
الحالة
أنتم
يطلب
يترك
والحديث
المطلق
والجمع
##ول،
##بيرا
ابي
الرجوع
هلال
كره
يزل
امرأته
الطي
وعلم
##واري
قاد
رسوله
وبد
الفترة
العالمين
وقوع
##انها
ومما
ويحتمل
##نسا
نصب
كلما
جر
##نيف
النسب
##ميت
نوا
القضا
الحدود
##خصيص
محرم
الإد
غريب
##متع
##وزع
التوحيد
ملا
##طمة
أربعين
الطا
اليه
##روفة
##ائط
مقص
##قطاع
عرفة
ابتداء
البناء
الفل
تما
الأمريكيين
الخروج
البريط
##ياسية
الاس
عشرين
نط
##بك
زهير
اش
تعلق
قومه
دينه
##يسر
أنبأنا
آن
فإني
التفسير
يقطع
الدية
الامام
والآ
الحمل
طويل
أوله
الكث
##لتها
اع
ام
يختلف
فائدة
وحا
لهذه
سكن
آخره
فإنما
يستحق
إسلام
وحم
تحمل
المبا
أصله
تبين
نهر
نها
خلقه
تميم
يقتل
يرفع
##بنى
وثلاثين
حديثا
القلوب
##غار
عظ
الكوفي
##يدي
سل
##ليب
الخيار
الوطن
##ساء
الشعبي
القوات
المادة
وكانوا
كسر
##تهاد
##نز
الاشت
بنفس
العرش
##لفة
عطف
الموض
العلاء
##اض
او
موضوع
أحوال
##قاع
##دادي
صال
التجار
العهد
##كف
أخذه
دينا
زكاة
##سته
فأجاب
ربيع
العشر
فإنهم
##صاف
أمن
##ذاء
بالمدينة
بعضه
سوء
بينة
##جرى
الأمم
الأه
ينفع
التعليم
والإن
الرق
##يها
الحل
##بائل
##خاب
جرى
ميم
##اربة
يزال
يدفع
رضى
أفراد
##ادات
##جماع
حذف
المذكورة
##عدا
##عتبر
قدره
كذ
أسامة
يرض
للب
القديم
التخ
بيته
##ويلة
والأربعة
##احية
##ليك
##افت
طالق
##ينات
ذوي
استعمال
##طعام
##جوز
مقابل
ترجمة
اشترى
يعتقد
##لاص
متفق
نجد
##سون
بو
##ربه
جهن
##الد
##امن
يستطيع
المأ
##بحث
الدر
الأربع
##قرار
الوسط
##جلد
المرو
الضمير
وسكون
يدعو
كفروا
سبحان
منز
الخد
##راهة
غالب
##حف
##ولت
أصح
بالف
الصفة
عدا
الراء
الصحي
قلوبهم
ماذا
الرسل
واشت
جي
دولة
الوجود
مجموع
مقر
بالحق
##اهما
القتال
الخيل
نار
سنن
يصير
##ائها
بدا
الجبل
حكيم
الصواب
سوا
الصدقة
الرهن
العالمية
ووجه
##حوا
رض
النور
الحركة
خرجت
##ني،
لقي
الباقي
##لزم
مناف
القدرة
##فعت
إياه
وزاد
الفرد
محد
الخي
##حكم
تقت
أحدها
الصورة
أحي
الوح
##يمم
زكريا
##ستر
التركيب
##مني
##واية
قياس
حسان
الهي
##روق
والترمذي
عبده
##قامة
القبر
مول
بدلا
أقبل
المبيع
بشرط
الشريعة
كامل
نوح
مقا
الريح
العدد
يعطي
أقوال
الأربعة
الخال
اللسان
اللق
الصيد
##راسات
الطبري
اتخذ
بعيد
فط
##حاب
العدل
رافع
النون
يخفى
##زر
بكم
الإله
فرعون
ووا
##سيم
##شري
##اعات
بحق
هلك
تعتبر
الرازي
عتق
##لية،
اعتبار
##ذج
أورو
الصحة
القبض
تدع
مخال
شكل
ويش
المنافق
حدود
المل
##وكل
تغير
النج
شدة
ركعتين
يبق
المهملة
تمر
##ذار
##رجمة
##تني
بالل
يبد
##نسي
##فاف
مليون
مركز
العيد
وأب
##ضيف
##فيذ
##طأ
بسم
الوهاب
المختلف
المصدر
##فاه
المعد
##دعاء
منص
الأدب
البصرة
الصبح
حاز
هذا،
فقل
خش
##ونهم
القاطنين
لئلا
الطويل
بواسطة
خروج
علما
السكن
والثالث
منس
حكمه
لحق
ورأ
الاول
##اند
جهنم
##جاه
عنك
يقصد
##سيس
السماوات
جيش
المقا
قانون
الشارح
الطبراني
الأموال
##بيهقي
السود
وعشرون
يذهب
##الها
زوجته
يكفي
الكوفة
الهمزة
القطع
البو
الخطيب
توا
معلوم
##حاك
فز
الصفات
الرم
خل
جال
طريقة
القيمة
##عيان
يث
إعادة
اثنين
حسنا
##قسم
##ئن
ورجل
الصحيحين
##ئدة
تدل
نعلم
تبارك
وعلا
ومثله
فيها،
العض
##مرت
نسخ
أبواب
بدأت
##افظة
الفقيه
القاهرة
النسخ
ومثل
النز
أكت
تدخل
##شرق
وحين
فين
العدة
مظ
ومت
الوصية
الماضي
قاضي
بدم
صرف
وار
بداية
##بها
##حابي
##غض
##ظهار
البحث
العي
مار
##ريضة
أسباب
لاح
تحريم
##زاز
##ولاد
استح
الجسم
فيقال
البيض
الغير
##ح،
أثبت
أنثى
##تالي
##ورث
فعلت
##وراة
##ابلة
الشركة
أنكر
غيرهم
صن
مولا
الجديد
عرق
الأخير
مرد
##جزاء
يموت
القبلة
وجهان
الجم
القمر
إطلاق
##جال
##وريا
والمش
يشبه
الفاس
##عها
##ناول
سيما
بالث
##ذبح
أصول
الصوت
ناد
حظ
جديدة
يتبع
شم
##باحة
الأسماء
يض
فكانت
توجد
فأنت
الصديق
قتيبة
##فسخ
يبين
صلاح
##سف
سماع
موقع
جديد
العر
##ذيفة
##فاد
جعله
العبادة
بأنها
وظاهر
ناحية
وجع
شاهد
خليفة
##راقي
يروي
يجري
الشريف
قرا
عقيل
##خصص
وحدثنا
وعمل
بدليل
##ئب
علة
أرس
غدا
درج
وذكره
فعليه
الرحم
شرك
البار
الفرض
##صاص
وحسن
مجرد
وصار
الكس
جاه
الأحد
نقله
ألق
##غال
السادس
سهم
##فال
##لتين
الصبي
اختيار
##واة
يتكلم
سرا
السين
##عدد
##عون
##راث
الملا
الغالب
البغدادي
بتح
جنوب
عبدا
وقالت
##هاز
شرف
##همة
##درس
المظ
وأت
زائدة
##فاعة
النعمان
فكذلك
الاع
القصاص
ومائة
وأه
كبر
##ادم
وأصحابه
للخ
لبس
وحدة
##لفه
##كم،
بمثل
القدم
والده
بعضا
صوم
##ضطراب
المملكة
نصيب
حسنة
الفرج
حرا
نوى
##هدى
##غط
##ثنين
وعم
الكه
وام
لغيره
الكامل
مسائل
أساس
يضع
ففيه
المرء
الطرف
الغرب
حلب
خيار
##رجح
##ياط
قبر
ذكرها
عليا
المناطق
بابن
الكلمة
عجز
وكما
##كيد
##وزاعي
إلينا
وقتل
موته
##رجو
السائل
عقب
الصور
عط
إنهم
##تهد
اح
##بقات
منكر
اد
ابراهيم
الرأي
السلم
المنكر
إضافة
واخت
ضع
##لوس
النوم
جار
القرية
مشروع
تقري
الأكبر
##زالة
الكتابة
الهوى
يلق
القوة
ناق
##ذم
أمي
فدخل
وكسر
كثرة
عشر،
يدرك
##عان
والبيهقي
##ورت
الذكور
ولأ
المقام
نفسك
الجماع
جارية
الوكيل
لآ
وكم
أعم
الهيث
##لسلة
##ز،
الضمان
الكعبة
##كال
##كاف
طاعة
أعل
السبع
##ناية
##ناهم
تبلغ
##بتها
نسخة
العتق
ريح
##واق
لزم
صغير
الأو
##زى
الدعوة
المغني
مثلها
ليل
##جمع
حياته
قيمته
واعلم
بالط
والبا
##خرة
##لاه
جان
##كرر
##داب
ألفا
الهر
عصر
عمير
تسمى
##نفية
ذه
فذلك
##انية،
الأثر
##ش،
والمس
التاسع
##زاب
صغيرة
##كه
أخبار
العلة
آثار
##رحمن
وهناك
الحديد
بالي
أنشد
احد
الفريق
السموات
السير
سار
جهل
القصر
الباء
إح
النهر
##طفى
البط
نساء
ربهم
نتيجة
ليلى
سبت
للف
اللج
فاج
واب
يولي
##مارة
بلى
ورق
الآثار
ثاني
اللحم
صفات
حاله
##احل
تحدث
القيم
السا
خالف
الاقتصاد
م،
بسر
##ارم
جمال
##فية
الأطفال
الكمال
كافر
##دلال
تسم
##ميم
قيد
بيوت
الغسل
##اهدة
عطية
أمرا
##ريات
##عات
المحر
ثمانية
##ائمة
##عية
السعود
##روي
##كندر
##ازي
بلغت
حيا
يفر
لأهل
سجد
##عقد
وصلى
كبيرا
##اما
تأثير
##ادل
##جات
ناس
جعلت
يؤخذ
##افي
الموس
الخوف
موص
##نار
الظن
أمكن
##ادث
ربكم
العادة
المهاجر
الشباب
مارس
عائلة
النصر
ودخل
##علوم
كشف
أجد
شب
فاطمة
تأتي
يصف
الابت
ركب
سك
المدني
##وية،
ابو
نخ
يتأ
##فاض
بينها
الثقات
وخمسين
##رضا
إقامة
يمينه
أعضاء
برد
نسي
مواضع
تصرف
دلالة
التصرف
##كما
النية
##وي،
عاق
فضلا
قدي
##يبه
تبر
المالك
بقول
##ولات
##نسية
المحدث
وحكم
##ناق
أحدهم
محذوف
موج
المركز
دونه
##هج
الاختلاف
##فلة
الوجوب
حساب
تسا
الإسلامي
الهجرة
اثنتين
اجتماع
الحيض
##هو
عدل
بول
##ذور
فلق
##جهة
اي
##راره
##مهورية
الفطر
##ئين
كقول
أض
##راء،
سيده
يسب
##ساكر
##راها
غل
كفارة
غض
نجا
##انيين
السج
كلم
##ثيل
##إنسان
المفت
يستخدم
وأربعين
أمري
للط
الطرق
قدمت
الاص
خزيمة
السابقة
##غني
##حاء
الوطني
يكت
وانظر
##عتها
المتقدم
##لبية
ابنة
فريق
سؤال
وقر
وتقدم
بمصر
مجتمع
##رتب
المحيط
عفان
الداخ
تريد
الخلف
##وتر
##ائهم
##واص
##دح
بسي
يسار
زرعة
فسر
وأقام
##غداد
##عا،
الأمن
بمس
مرس
مجهول
حذيفة
يمس
طلاق
تظهر
المريض
##بيعي
عيا
برو
ثق
##ماه
الأخيرة
قائمة
##وحة
خذ
مؤس
ثانيا
أشياء
الكذب
##صحة
خوف
المدة
ديوان
الستة
##سناده
للسكان
وعدد
فرغ
خرا
أردت
قريبا
المهر
الصل
الكون
المطر
عمه
فمات
عذ
لتح
المرا
حمد
الجديدة
القديمة
الحضر
الوارث
هند
ونقل
يسا
##ج،
رسالة
سيرين
السمع
##جح
كع
أخو
##تمر
برأ
الشرعية
وأد
يعبد
السجود
الجه
##ربت
النبى
الفاعل
الشافع
السب
طيب
وقبل
جيد
الولي
ومح
يراد
الأصمعي
##فاعل
##ريل
السيف
بالمعروف
المولى
##تهى
قبول
فاعل
البلا
كام
يقضي
الحض
##جين
##غبة
##ولوا
##نة،
أحدث
حزم
##قرب
مباشرة
##رسال
##خار
خار
الأند
العلامة
لات
##فساد
##عاة
ناف
الجوز
ركعة
فيك
##ف،
تام
الراف
##خبار
غلام
تركه
##بويه
المساجد
بالفتح
##اش
البينة
المعرفة
عرفت
##كتور
##قبال
واسع
يبطل
مضم
مفعول
يسير
صحيحه
بض
ليكون
ولن
والشر
##شقي
##ضيق
##وهر
##راعة
قائما
والوا
ومعه
##ورك
أداء
الفراء
بالكسر
سيأتي
##وجوب
الإشارة
لزمه
نية
الخز
السابع
##طاعة
##شير
لكونه
رزق
وفقا
الجوه
دائما
ولعل
التهذيب
لقول
العلو
ثلاثين
تصل
الربا
##بغ
ونس
أدري
حلق
بذكر
##خف
تنبيه
##بادة
##عده
عباده
والمست
مجمع
الخش
ذكرناه
تفعل
شاة
تمكن
نعمة
تتم
##نها
الغني
النش
فوجد
وحكى
الملوك
واقت
##حتها
التوراة
الموضوع
كانا
الغر
أبناء
عاش
إيمان
بالضم
هذين
##وانين
المخت
بالز
الشك
أنهما
وسبعين
والأم
قوما
دراسة
دام
إحداهما
عتبة
الحميد
لست
النبات
كمن
مسلمة
لمدة
أكتوبر
أشهد
المعي
الاج
كلاهما
ولأنه
الياب
المقدس
فئة
##جاوز
##جية
##بول
##عوا
الجبال
مشي
كه
##قيب
##تها،
الظالم
وفاة
بعدما
تبع
قضا
مراد
##يلان
##لوع
فالت
صا
فلانا
أقوى
يشير
الخليفة
##قلة
الحنفية
ادع
حبس
شروط
##جازة
##لوغ
##اهرا
ممت
فكتب
إنشاء
خصوص
##نيه
##ئها
المعجمة
يخاف
##تيه
##آء
مستوى
الفات
عظم
الحص
متعد
يفهم
##فك
الحدث
القصة
##ذاهب
كفا
وذهب
والحسن
المنع
وستين
السورة
الود
طر
وعز
يعلمون
تستخدم
المختار
المصرية
العليا
عون
التراب
##ائج
##فاوت
قولا
الزنا
وتوزع
جزءا
هات
وأول
وكتاب
##رائض
مخل
مناز
##يراث
الإناث
قائم
مفر
والظاهر
سطح
قضية
الأخبار
##لاة،
##صه
##ادية
ضرورة
ينكر
رؤية
##خم
جب
##طبي
دول
مجاز
أخذت
المسائل
##خله
الأنعام
المياه
فكأن
راجع
كتابا
صدوق
محدث
ولدت
تلف
طويلة
النفي
التقدير
##مية
##لعة
فتنة
##بدل
الحكمة
إدارة
التجارة
تعيش
الجانب
للاست
##قتها
##وادث
الدولي
##كاية
قائل
##هما،
منزل
وتسعين
أطفال
تجعل
##لاقات
نظرا
بلال
##ولهم
القيس
##داق
أحيانا
##عدل
الخطأ
##علان
العشاء
عياض
##فور
التمر
سوف
##براء
الزم
بذ
الوطنية
##اصب
##بوه
##فيع
الأصح
بحديث
انا
المنصور
بالمس
الجار
أمتي
##يساب
وبهذا
قولان
يوني
الغربية
بعين
الصلح
ساق
الاخت
دعاء
شق
وتص
أجزاء
##ومية
كش
##خلت
فرنسا
المعلومات
مخرج
اعلم
##طم
##تيان
الدور
الجزيرة
##ابق
يلحق
فصلى
ههنا
##هان
الذمة
الوصول
##ارضة
##سطين
حلال
##منة
الوصف
يفيد
والعشرون
##غرب
##قن
الدين،
##سكري
##لوان
##خروج
يخالف
اتفق
إش
مسند
ومائتين
سبتمبر
الصبر
استع
##بالغة
##حك
مرتين
بينا
الرضا
##صحف
##براهيم
لتع
الدمشقي
واضح
ببغداد
النضر
يمر
رفض
الزوجة
##حرك
الزمن
##بث
##ومي
الأسباب
حز
يكونوا
الأحوال
ماجة
حبي
ضم
بدمشق
وهى
خمسين
الاسلام
##وعه
يكفر
بطريق
الباطل
حزب
##اوية
وقام
وليست
المائدة
##ويات
##داة
ووقع
##خوذ
وحتى
سد
##تكم
الإسرائي
الفساد
الفقر
##فراد
تلا
##ظل
بشير
مقدار
والعمل
وصححه
سميت
وقدم
أيضا،
منها،
أرأيت
الارض
جزاء
##وجيه
يناير
ذن
##بون
الطريقة
الإمبراط
وائل
##ميس
بمر
أوروبا
كيل
الكلب
##شه
الفار
العص
نح
يبر
##اوز
تسمع
##ود،
عذر
وعاد
##ركان
فساد
وكأن
الحديث،
احتمال
##فصل
المتوفى
ضي
يظن
##ضرورة
النبوة
##ورها
الحنفي
##لمان
عكس
فيجب
يصدق
الذات
لز
الضحاك
الطاقة
عمارة
أواخر
الهدى
يخت
تقد
المعاني
ثور
الليلة
للمسلم
ظهرت
##ئم
الركوع
عليها،
النجوم
إخراج
##حكام
إسناد
ودفن
##لاس
ديسم
النصارى
##غاء
العلا
ملكا
##طوف
##حها
##خراج
الخليل
العراقي
تض
تجوز
سنة،
هام
وسيأتي
حذ
لعبد
يحسن
عجل
الشاهد
مثال
##قدام
والمح
اجت
صفوان
ولفظ
##سي،
شهاد
وتخ
ثبوت
بالاست
عندك
مبتدأ
##وم،
حف
واقعة
عالما
صارت
##جلة
ند
النقل
وإني
الرسالة
دعوى
الزجاج
مدرسة
بقاء
تعلي
##قله
##فات
##رات،
سلطان
الجي
##راحة
الدال
الأدلة
وفاته
والحاكم
حافظ
الأمان
السع
أعتق
##لاع
الأجل
أوس
وأراد
البال
العلاج
مايو
مشهور
ديسمبر
الكلي
شرق
النوا
شعره
بمت
##سر،
عسكر
جزيرة
يعنى
##كات
وسائر
السوق
أسا
بيننا
وثمانين
أوائل
جري
تضمن
يقيم
حدوث
عدو
لعم
ذبح
##وسع
راب
##ولين
##ظيما
المثال
الفرا
نفسه،
ونظ
عينه
جائزة
شجرة
القطان
أنش
بثلاث
ووق
##يزان
الأك
##ضيع
##عيه
الناصر
العلمية
##صوص
أسمع
يحلف
حامد
كأنها
##هرة
##وامل
الصيام
بأم
عياش
الجوهري
##وسى
وسن
وفق
والبر
##وابه
قتال
الإنجلي
##تهر
ولت
القرشي
الإسلام،
##جيب
التاء
نوفمبر
##لها،
قار
##فاة
##وطأ
##ثور
##وفق
الفاء
حصين
##وة،
العظم
أخت
رجب
الاب
##فهام
يعرض
يبعث
اذا
##قار
هيئة
##واني
##وردي
تقل
##لائل
##يتان
مفهوم
الاجتماعية
الجلد
ضمير
والان
وسئل
الكاف
اليون
الهاء
المشي
وجهين
الروايات
ثياب
باستخدام
الثامن
سوق
##جملة
##فون
التحريم
لث
متن
جنب
##زيل
الخدري
المثنى
المختلفة
##راءات
مخالف
والناس
##ضه
العرض
مكانه
ويحيى
المشار
##يبا
المؤمنون
##شرع
أبلغ
السياسية
إنتاج
##حات
القط
##قيقي
عبدالرحمن
##حيي
الصحيحة
حازم
##أمل
##لوها
انتقل
أبوه
كار
بعينه
##ورهم
أئمة
##زت
##عري
الطهارة
شعبان
##خاذ
جس
ويوم
وخل
##لامه
يفرق
مكتب
رآه
الهواء
الدرد
غلب
نم
بحكم
عس
##ايخ
شرعا
##يرة،
النحو
الأزواج
شديدا
ودع
جند
فأخرج
صالحا
صحيحة
سيبويه
أمثال
فانه
##البة
سلف
##واهر
بالفعل
تحديد
علقمة
لعمر
فذكره
اق
##اها
عه
وأف
النفقة
جسم
يحا
يسر
ويجب
##هداف
بوجه
##دها
ولذا
المواد
يشعر
الابن
محمد،
ويص
عملا
راك
العشرين
مرك
مأم
##عيين
الإعلام
الغربي
واش
الصدر
البك
##نوا
القس
الوحد
مصعب
الأكل
##فوظ
معينة
فرأ
بعدم
##أذن
تحل
صنف
القرب
##قاضي
##دمي
والشافعي
الإجماع
نذر
السوفي
ونحوها
مسلما
##ضاه
##خرا
يونيو
الفئة
لقب
##بيعية
أمرهم
الأوسط
يهود
حكى
الراه
وأنتم
##فاس
##ريبة
الاصل
واحد،
وإنه
والفر
##ائص
الواحدة
الخلي
اللو
وكنت
فأنزل
ربع
ليلا
الطلب
##لاط
بدين
الشيب
عمر،
##عاون
سببا
وبالتالي
قضي
از
الأولي
الجر
ثعلبة
##ودع
الهداية
الفرنسي
الأرد
مقدم
##ؤمنين
فلذلك
فرقة
نست
يحفظ
##بارا
##ياطين
فضيلة
كلية
عوض
للنبي
قوات
الدينية
عمي
والصلاة
لأم
نائب
تا
لرسول
أغسط
##ؤل
مذك
أوصى
الأحمر
الإحرام
قولك
أهلك
الحقوق
##أه
الإش
واض
##ردد
##ركه
والأربع
سبعين
كونها
الحروف
تبا
##افا
والمؤ
المتعلق
##تهاء
توجه
الإطلاق
قم
النق
##ائض
يوليو
ومد
ويك
مناط
الوضع
رضا
##الته
تقريبا
العش
نفع
الثابت
الشارع
فتكون
معاني
حيان
##جور
يبيع
النجم
المدرسة
البعير
رده
مان
أعطى
##نساء
##رامج
جون
السد
كالأ
تتبع
وأبا
عمن
جمادى
تفرد
القن
أدخل
شيوخ
الدولية
مسح
##هرا
##دا،
ناصر
##مائة،
##وفيق
##ذير
الكفارة
##قاطعة
اليهودية
الذا
ومالك
وأي
يجتمع
الكاتب
قاعدة
المدعي
الضرب
العرف
الشديد
لرجل
المجال
كتبت
وتكون
الكنيسة
##وصل
انصرف
كتبه
المكي
ولها
تسعة
هان
أورد
بألف
برج
فقوله
القضاة
الذنوب
دراهم
الاش
حارث
فاز
الأي
تث
عمره
تبعا
سود
الباري
السعودية
كري
##فير
##حان
الزواج
حالا
هز
ويقولون
وبقي
ورث
لحديث
##لان
##يحي
بمجرد
الأحزاب
##حاجة
وأربعون
##ؤهم
المؤس
##مرار
وبي
##شيم
استغ
لذا
المسمى
قات
الصلاة،
خفي
خلي
سلسلة
الصغيرة
الفروع
##هلك
الفلسط
##موذج
##كث
متع
الفكر
ويروى
برا
##ومات
الهل
المتأخر
وضرب
انتق
يؤثر
تي
##توا
الغنم
##تة
فكأنه
غزوة
يخلق
ولكنها
الوزير
ظاهرة
سقوط
وادي
اللجنة
الكت
نادي
فبرا
صع
النفوس
ترت
##ئة،
عمرة
الصلاح
تجمع
يمن
حري
##ادي
وحق
بيعه
##صلة
عموم
##فف
الطاعة
نو
الأقل
برنامج
تفر
بره
الغز
ميل
العسكرية
سواه
يحد
والقول
فسخ
الإقرار
قدرة
وارت
كبار
غلط
وألف
عيد
مطر
معشر
البصر
أدنى
##ساس
ثقات
برقم
الخوا
فإنك
الحجاز
##متها
خلفه
المعتمد
حكاه
السبيل
رجاء
##صدر
ألمانيا
##ؤون
المفعول
##قم
الجراح
ظاهره
إخوان
كات
خان
##بز
استخدم
وخلق
بخط
وتك
رغم
فليت
وتر
شوال
تأخذ
جلس
للز
فنزل
صفر
##ذية
##حون
تجري
##حاح
الصفحة
الجمال
دعوة
##واجه
الفلك
البح
##حباب
الصلوات
غيره،
صغ
قن
ضرر
مانع
##كلة
النخل
حصول
حكومة
القليل
لعل
متر
فاح
##ويلا
تعود
اتبع
الدابة
##ونات
منظمة
جئت
##ئس
الفرع
المجر
ملوك
نفقة
القادر
##بطة
ينسب
الأراضي
غس
النصوص
دية
##شكال
##عي،
الأست
القرا
وسعيد
الأزهري
ميمون
عظيمة
والمنا
تثبت
العز
الحزب
سنان
##ديعة
نفر
أوجه
الصباح
مرحلة
الاستع
الشجر
اختار
خاف
قلبي
العموم
العال
ملت
وزارة
يؤمنون
شرا
أعرف
الأرض،
صحيحا
الواس
حرج
التل
وجوده
تختلف
قس
الموقع
##غى
##وكيل
الطواف
معهم،
كريم
فاد
يحنث
يبدأ
سلمان
الشعراء
##خابات
قيا
الأذان
الثياب
النح
الكثافة
##نق
طبع
مهدي
القرى
يغفر
هاه
والصحيح
البدن
ترجع
##رز
فأرسل
##مره
الحساب
آت
كيفية
##وبات
والدار
ورفع
وزن
الار
فخر
##وكب
الصي
ودا
##ذري
يقسم
##جاع
الأخذ
الوجوه
قبيلة
فسمع
##ماغ
أغسطس
ولولا
الأعراف
لئن
التب
##هز
التقليد
##شون
أبان
قطعا
وتقول
##روك
أعني
أوجب
الحفاظ
الرئيسية
الشافعية
بيروت
أور
المنبر
شار
معك
ينقص
يحضر
اثنان
غفر
وحر
الاولى
خطاب
لنفس
إدريس
##يد،
ووضع
الكبيرة
##ولوجيا
القاف
أخرى،
صريح
المسلمين،
زوجة
عضو
وتد
##بيث
تقرير
##شمي
تملك
يعتق
أقسام
حجاج
يشرب
خيبر
##غرا
ساك
الطفل
الإجارة
##قوم
العالية
##فصيل
غد
العملية
##وزن
يبت
##لاحظ
يحتج
الأوق
الهيثم
##واك
النظ
ونص
التغ
##ويج
##بارة
الحكيم
##لاما
##تح
الدرداء
الشرقية
##ديب
ذنب
نائ
##سنان
برك
##ريقيا
نظير
قادر
هجر
##بينة
##ماس
وجماعة
والأول
##ألت
فبراير
الأحي
##جاد
##رامة
بالناس
اغت
رز
مدى
البلدان
يمكنه
أعت
المسند
نطاق
##لاوة
أيديهم
شجر
الديم
##وفية
##يفاء
حكما
##يط
الأشخاص
تغيير
المطلوب
##مم
بكتاب
أتم
##اوى
المدونة
الجنسي
التالي
الآتي
##عته
اتفاق
وحمل
كاتب
نقد
ميس
المفسر
جور
الوطء
يتخذ
ذاته
كأس
وارث
وطلب
تشت
تولى
عينا
وبلغت
قرأت
بالقرب
سويد
##جير
ريا
أنحاء
##اقب
ارتفاع
المجاز
ياء
منظ
##شبه
شاعر
والصواب
وامت
المهدي
الاد
وبعث
##لهما
الأط
علامة
الاستثناء
##الله
يصيب
الاجت
##بيين
تعريف
##وهن
والتح
##فوا
تأخر
فيس
لإن
تعبد
فدل
يسجد
طهر
السائب
##فارقة
الأصحاب
جذ
القاعدة
لهي
الفتنة
##نده
##صرح
والذ
##هورة
الأجر
##ادة،
الأفعال
الجمل
##جري
الأوزاعي
لا،
السلمي
فبعث
مذ
الدفاع
الظلم
تزال
الولاية
اليت
صيام
حصلت
تأخير
الجرح
المسح
الجبار
##بائع
قاسم
يجلس
##شديد
المرك
يحم
##رجم
سين
الامت
بالماء
للتع
ثواب
مجلة
بسط
##بيك
التنا
الرحمة
##قلال
واحتج
مجرى
شهدت
بحال
داخ
منى
الخطا
مخط
##رتها
##وانة
علاقة
أسر
باله
هبة
فيلم
كح
الصغ
أجاز
##سيا
الروضة
الكرم
##واكب
معرف
شارك
بحث
##اثولي
##وه،
عرو
لكي
الدست
أعطي
رفعه
##وضح
ومنا
يستحب
شريح
فذهب
بإسناد
أفعال
##صفه
الرشيد
لأول
الشيعة
التابعين
الوحدات
غرب
وعرف
مادة
جوز
الضرر
##ضيح
ثقة،
المتكلم
زم
تعليق
وإذ
##سبه
ومعناه
إيم
##يتهم
النها
الأعضاء
صحبة
المرسل
يدعى
الجزائر
يختص
السحر
بكون
السبت
المدن
الجامعة
رؤوس
التأويل
##سيف
الجارية
سرق
##ائز
##وبية
والأصل
##ليها
رش
##رضه
سح
تأويل
الأخلاق
##نانير
اغ
اعتقاد
##راده
نظم
والتق
حوله
الناقة
النقص
وزير
إمكان
##بور
الوحي
الغيب
جمهور
##عتهم
##قيع
##مكن
وصلت
مناطق
جرت
قلا
عود
##تابعة
واص
كتابة
##سمي
##ؤاد
الحاضر
##طت
##جعل
##اموس
فوال
وملك
##رال
وضعت
فيست
بجميع
مهما
##ويم
الفيلم
##عال
روس
النحر
أجاب
الترجمة
##صفات
أبيه،
وزعم
يمتنع
وحينئذ
للرجل
لازم
تعالى،
رائ
##رون
شيء،
المحي
##زوجها
الشجرة
مقار
تيمية
أبريل
تضم
الحلف
يرث
وإيا
يفعله
كثافة
القبور
الصمد
قبيل
يزعم
القائم
المشروع
العفو
وهنا
الفن
أمريكا
يخلو
السياسي
وسائل
يصبح
يخبر
معنا
البول
المخط
وحدثني
عندها
المنزل
##ماية
اعتبر
المفا
##خصة
إت
خليل
محله
ويخ
والعلم
الواقعة
علي،
صاحبها
حقيق
ذم
##مارس
تطلق
غاب
بمح
الغلام
قرى
الورثة
##صرا
ربا
##ماح
خطب
عربي
##فقا
##بيات
والأربعون
والحمد
##جى
##قتال
وحيد
بكير
صبر
الأبيض
##رجال
اختلفوا
اخ
##خشري
قوي
فعلم
##جو
لهن
قرر
المجد
تأكل
المحم
##قدمة
وضم
حمله
نسبه
فرو
السهم
الطير
السلاح
##عداء
جلال
لون
خلافة
الألفاظ
الدراسات
##وطي
##بوة
بفعل
الحول
الحصول
##قبض
هدى
عيب
ويأ
مختلط
الدوري
##حاس
يستعمل
التحقيق
البشرية
ولهم
##بائر
بسن
فسأل
##طور
زوال
التلف
الأمراء
##ادت
العرقي
##غو
##قلب
##ائلة
##ط،
وقتها
##صبحت
##واس
المهاجرين
يصنع
##راسة
رأيته
عيني
فهر
الفرنسية
الخلافة
بالمر
##باعه
المحل
مقدمة
بمث
تعيين
علوم
الفاتحة
##وزيع
##طلة
##امر
الثواب
النجاسة
الثورة
عليم
نزول
صلات
وهؤلاء
فيع
فاقت
الشمالية
##نيات
بعم
ومج
ثانية
##روه
##فهم
أولياء
مذه
وفيما
الحمام
العشرة
بقر
فدعا
للذين
عقل
##صت
والمد
##خان
التعريف
لها،
##ونك
الفسخ
جلد
وعمرو
غي
تطوير
بنات
بسب
حاليا
سجود
غضب
باشا
التعبير
فقدم
الحرف
مقاتل
بتق
تصدق
##وارث
##بوا
مسج
الشت
الوسطى
وجبت
تارة
##همية
##كله
لير
فأقام
##الج
عمليات
داره
الثقفي
##واصل
واقع
الوتر
أسود
خراسان
لفظه
##يقى
وللم
منزلة
##باق
##جابة
يشتري
فقتل
##لكتر
الفرقة
##لوة
هاهنا
بالليل
فيجوز
الخطبة
ونزل
يريدون
ايضا
ناج
وسار
الاتصال
اتباع
القار
ويعرف
##امه
البروت
الحرة
ورحمة
النقد
وأشار
وأنها
سال
يخل
الدكتور
المنافقين
فلسطين
أمرنا
موضعه
سكت
##ولده
مسؤ
امتنع
لوا
##حاوي
##تبة
العوام
أسفل
الجهل
الموجودة
الجيم
سجلت
بنية
النحل
##ئته
إيجاب
الحيوانات
البقاء
اليقين
يشمل
الكلبي
لديه
الشرعي
تشمل
##يسي
استطاع
ففعل
##وس،
الأقوال
معركة
##علها
صلة
##اتي
##عدت
مرسل
قاتل
والثانية
رشد
جميل
ضبط
ناب
##صوب
ذرا
وشهد
ورض
##بنية
وعثمان
وضوء
ضعي
العمرية
الكلا
##حاث
الممت
الزرع
مستح
لابد
وصاحب
مؤلف
أنفسكم
عذا
##قا،
الوسطي
##رشاد
يبدو
##عدى
الإف
المسل
حرمة
حيوان
عالية
يكنى
##كير
للث
##وطة
المجموعة
وأصبح
قاب
حالات
منهن
##راتي
الاجتماعي
##ترنت
وأصل
أتيت
الشب
العمرة
##وصي
والستون
والو
طلوع
أموالهم
فضيل
أجرة
##زيه
أمته
واللام
الرئيسي
تحقق
روايته
##وسية
فرجع
منح
راشد
الغد
مخلوق
أحر
##ألك
العمال
شبهة
غنم
أمامة
اشتراط
النسبة
البراء
أليس
##عظ
يقرب
ألفاظ
قصيدة
##مي،
##شل
##مر،
بور
ورا
معل
فاشت
لعام
يمشي
والنهي
هج
قطعة
تقديره
بعدهم
##غيب
##عيم
##صدار
عمدا
المسيحية
الربح
الروض
##هدف
##شرط
فوجب
كب
أفر
همام
يقف
بلدة
هدي
يسكن
الأشعري
الدعوى
أقيم
مسك
نرى
شريك،
المدعى
تسمية
##كز
وتست
الرؤية
درس
القرآن،
ويب
المعتزلة
فلن
واسمه
اليهودي
وأطلق
يلبس
فنقول
شراء
يتضمن
##ليظ
المعاد
نن
تطبي
التمييز
تماما
بإن
##عبد
حارثة
المنك
فأنا
##أنيث
وردت
##اعته
مقيمة
##ضار
##ثني
الواق
فقط،
الغرض
##افات
نهي
يعتمد
وينبغي
وافق
وأصله
تخصيص
فينب
##ندق
تبطل
متعددة
فيكم
التالية
التيمم
وبما
نمير
خدي
والجواب
صيد
موجودة
الحديثة
آخرون
يدا
عر
الحلق
القدس
##نيع
إرادة
قائلا
الرفع
##قود
أهمية
فعلا
احتج
فانت
يدعون
فرح
##بعاد
الهدي
أشرف
مري
ره
فأتى
##تي،
شأنه
والوجه
العسكري
المجا
عديدة
##شرت
البعث
الأداء
البريطانية
زالت
##ديان
يدعي
السكنية
التركيبة
يخص
الحاجب
تفسيره
الجواز
ريب
سمعه
لعن
خدم
وها
##ظيفة
فعند
لعب
وبها
##جلت
السلطة
العلل
إليكم
المسافر
##جس
##حتمال
##يتم
تنظيم
##غان
المسيحي
جزم
طه
بأي
أبعد
ورجع
والفرق
يهدي
المستقبل
فخذ
الالت
بأنهم
نبات
##ئلة
والشيخ
المشرق
ومست
##ورى
الآخرين
ويدل
قبو
##دريس
البحرية
##يلاء
الزمخشري
##حش
حروف
ولنا
مصطلح
الخارجية
العنب
##ظار
##دار
المخلو
الاثنين
##رن
لأمر
التوفيق
ينقل
وعندما
أباه
##وقت
يعقل
شهرا
القسمة
مخالفة
نعم،
##خدمة
شد
الجزاء
العظ
البغوي
ينفق
جناح
المدينة،
الأساسية
دعم
سائ
##رمى
فحدث
ليث
يسي
##ئاسة
باق
الهذ
للإنسان
لجميع
سلك
##وضا
الخلايا
##ساني
المعروفة
##بقاء
داع
فينا
ديار
المائة
درجات
قواعد
الفقراء
عامل
خطر
الأما
المدارس
بالقرآن
أولها
ومش
##ض،
المرتهن
اهت
وكلا
##خفض
##امس
##ريقية
هشيم
ينافي
وقدر
##بارات
اصط
لماذا
تعليم
##قيام
موقف
ترجمته
##طوا
مختصر
وأحسن
بأحد
##حتاج
##طباء
أمين
بدع
بالصلاة
##مالي
البداية
نبيه
##ريان
##الجة
المؤذن
##وست
وبذلك
غني
كلامهم
عظيما
المكاتب
فقرأ
##وعية
##ؤلؤ
##صرت
تركت
العثم
الشروط
سام
الشرقي
فوج
القصص
للي
ينتفع
المعيشية
والحق
##مى
مها
معبد
المتعلقة
##قدار
##ثمانية
جبال
الإست
##عتم
وحي
بخمس
زيدا
##معة
##ربوا
يعملون
نقطة
منصب
والدين
سو
جوف
إزالة
غا
الحالات
##بتم
صناعة
الوادي
مالي
الأفراد
ألب
السكر
أعين
تمن
وقطع
##ائفة
كاملة
##راهم
الترتيب
فمر
بئر
##تيت
وإبراهيم
وقلت
الراوي
##فيات
##احبه
تشير
القصد
نبينا
ونصف
وإسحاق
الكفا
بدء
ترتيب
زينب
مساحة
للمسلمين
ومؤ
الهبة
يكاد
الكافرين
زرع
والأس
بأبي
الأول،
##لقاء
وبعضهم
##ناصر
دابة
أخطأ
شديدة
##ذون
الصالحين
واق
يرون
##وقوف
عددا
فآ
بالوا
منق
مبلغ
متاع
القبول
الشخصية
أعوذ
الرافعي
##ضحى
لوجود
فتن
اسحاق
تأسيس
الموطأ
الحاء
بيني
طريقه
دريد
الوفاء
مبني
##فعه
الشكل
الخالق
##يرها
ستر
ورف
وقاص
قض
قبره
العج
أكرم
تمنع
والدي
المكر
لكنها
البزار
طبقات
قراء
الجزية
يرج
السلام،
ستين
الأحيان
أجن
التعليق
طري
##زما
للأسر،
عليهم،
مأخوذ
والستون،
##ليما
الموكل
##اجت
الامر
الأصليين
الكاثولي
لاحق
لى
سمرة
##اهم
بدعة
مشترك
##وفر
الميزان
ركن
الرعاية
الأندلس
##قرا
فلك
قديم
لند
##مساك
المالية
أخبره
##ورة،
##واط
الأوروبي
تاج
سيدنا
ورك
اليدين
##فرقة
لصاحب
المزني
سماه
مخلد
الحرارة
خدمة
مجل
##ندية
##ميص
##اه،
باقي
فوا
بالتح
فضله
والظ
القاتل
التقريب
صب
المهل
وأغ
وجميع
فحين
القراء
الأولين
حاكم
يتصور
إبليس
##مون
آخرين
الخميس
مجد
نجي
أربعا
مخصوص
##لوف
##رائب
هود
ظاهرا
مبين
قلة
##كح
##بتهم
نجم
الإصابة
انح
الصناع
الجهة
##نيته
##فان
واسعة
مهمة
نقض
فبين
##ولون
سمى
عساكر
بكرة
وزوج
الكهر
إث
الرياح
معصية
##ضحية
السفينة
العلم،
عاب
##لج
الاجتهاد
الشراء
##ادا
##ديو
تعلمون
بقيت
##في،
والآخرة
الأسد
وأشهد
أرج
ماتت
##ادثة
سابق
أفعل
##ويض
الطبقة
##بلد
الذنب
مور
انتهت
##خلها
##ابقة
##ولاية
للمرأة
##كندرية
لقاء
خوفا
وإليه
##ئون
تألفت
أرق
انطلق
لحي
##ثلث
لرب
ويتم
وأط
معيلات
##زون
تسليم
ويا
##كمال
المحلية
واليوم
صلوات
منتصف
يفسد
والحكم
تأمل
غن
كيس
المعلم
وكي
الراهن
بالبيت
##نابلة
المأمون
الثمان
فوالله
ويزيد
لأنهما
##رعى
وعق
ليد
يدري
##ذكره
##امى
الصرف
يحر
بمتوسط
وشرح
تقرر
مصلحة
فينبغي
بالمن
تتعلق
##جزء
##صيب
فيح
وخمسمائة
وسواء
أجمعين
دف
آث
رهن
فكرة
أصد
والأمر
الموج
##عمه
يتنا
##صادي
بدي
ويأتي
يقبض
تبقى
نظرية
بالآ
لبنان
ودعا
اليم
##عاما
سافر
##قراط
الفرائض
كرم
تقتضي
الحلال
شرحه
##فيق
##تيق
الطبيعية
الاه
##فلس
والحر
شيئا،
الوزراء
##زله
الشهود
##ام،
القضية
قدمه
##ناط
الأحداث
الميلاد
سري
المرحلة
سقطت
تعا
اللون
الطبيعي
مدين
##اهدين
المشترك
نفوس
##زير
ذكرا
خصوصا
##تن
التقي
كد
جرح
معروفة
##قاة
##اكل
##حلل
خلافه
الاتفاق
بالإن
وابت
للصلاة
بلغني
الخل
يخطب
تجاه
القبائل
قبضه
عار
التيمي
فالله
وتب
كإ
المديني
التسليم
فانظر
العائلة
والنصارى
##برد
##ثنا
جماع
##بسط
وإنا
الغاية
إقرار
البئر
حصن
القاموس
##وفير
ابتد
الظاهرة
وجل،
كسب
آخر،
كراهة
منفعة
وولد
البيوت
طلقها
الغائب
عملت
##ضرا
الممكن
##وصية
رحل
الإسب
وخاصة
الأنواع
الداخلية
كافة
عنوان
ضلال
أنظر
فران
الصفا
بعن
الزرك
##طانيا
تحم
سننه
درهما
##نبية
##ضد
##ضيا
##وتي
ظرف
نعت
##بوك
فاعت
##ارا
##لائق
تحصل
##لوما
ينتظر
اتحاد
عقوبة
مرج
المفرد
العبارة
##زوجة
لاحقا
##ويين
نبت
مصر،
##ليغ
النعمة
وأخبرنا
##عرف
##ريش
الحدي
##ريه
تابع
الخار
راه
الدلالة
يقاتل
##تابع
##دتهم
لجنة
سكانها
المرف
السري
الإقامة
مقابلة
رمى
ودين
برب
القعدة
##حوص
فول
تنفيذ
أنعم
ناز
الصين
فيقولون
الركعة
أخاه
ولى
الحرير
##انوية
##عاد
يرف
وحفظ
أعلن
تشهد
الشاة
لفت
تشك
الوقوف
قتلت
لبني
تسقط
##بيها
بمال
##قوت
قطر
الكريمة
ورأيت
الواسطي
السجن
المعلوم
وتف
فسلم
##دته
قرن
مكروه
بترك
المنهج
##يان
السوء
المؤرخ
##خفيف
توضأ
ويوجد
رسولا
فالج
وزيد
ذهبت
قليلة
##هلاك
أظ
القولين
ائت
##زول
الولاء
العود
العت
تصحيح
هاجر
##قضي
##بهاني
##ظيف
رمي
فنزلت
كلي
مقتضى
حرة
##نو
وثلاثمائة
يليق
مسنده
خيث
الطالب
##تسل
##بر،
الوجهين
وتارة
سهيل
مشرك
رجاله
المعاصي
حاشية
إجراء
##حين
##رائع
لسانه
##واضع
الأفضل
تعين
الملكية
مملو
المأموم
##كنت
الجنائ
رغ
المسؤ
وعرض
وفض
يتمكن
الشريك
##باغ
الشياطين
حدثه
ولله
الموصل
حرك
ومتى
##سبانيا
بصورة
بيانات
حفظه
سابقا
بيتا
تفت
والرا
الغي
##شكل
يشرك
الكلمات
وظهر
الوث
##فسهم
الغاصب
الخوارج
الصيف
واحدة،
اليمنى
أقدم
وصفه
طلا
##وائف
الافت
بتلك
أنفق
يدر
المنام
اسمها
الكيمي
يهودي
##بدال
بالحج
المنفعة
شقيق
الخمسة
الارت
الظل
##مرا
##قصى
طواف
قرار
حكاية
البطن
النه
بذلك،
والعشرين
السادسة
فنا
جام
والدليل
الحرية
المروزي
قرط
بخير
اما
ترض
تمثل
##جنبي
##غون
يكثر
عباس،
##شفى
الأستاذ
##صدقة
ثعلب
##حة،
الرواة
سيدي
حملت
خبره
وأحد
##فيض
وتط
الطبيعة
العيب
فالقول
##يم،
##اريات
لدين
النيل
المحد
تحفة
الحوادث
الجنوبية
التشهد
طوال
فانطلق
التجارية
##بايع
حيض
بغيره
شكر
عوانة
منهم،
بقا
##واتر
نصه
والتص
السابعة
الفلس
وكثير
الجع
مباح
##حاكم
يغلب
إصلاح
ويعت
الباطن
وعبارة
الخلفاء
ساد
ابني
بتع
##دو
القوى
مالك،
تحتوي
أيمان
قوا
تزيد
وفد
##سها
المضاف
يكذب
وثبت
بوجود
رباح
واجبة
جدي
بزيادة
##ضاعف
داء
يشكل
أعطاه
فو
اتفا
شهود
##ماة
جوان
تحول
العيش
##فرا
مين
##عتي
وسمعت
##اليب
##شاب
معدل
العالمي
بعيدا
الخدمة
الكهف
مرح
تحتاج
ويعلم
الدفع
الإسراء
انها
فاسد
مقاطعة
صبي
أنشأ
الشا
تشبه
إنكار
مصنف
كلب
توقف
إنكم
اضط
الضوء
أبيض
المحكمة
أصدر
##عمى
##لائك
الموحدة
اللب
##طات
الشيوخ
صلي
قائد
امرئ
أغلب
إجماع
سمعته
الاستدلال
غيرهما
رجلين
##جيء
الحقيقي
وكأنه
إست
##يدان
بلسان
معجم
والنهار
شباب
##السي
معج
كلمات
هنالك
##مكان
##يارات
آخرها
قدمنا
صام
شاذ
##رب،
والطبراني
وابنه
دينهم
##قاتل
الجناية
دفن
منزله
##روفا
دليلا
بالذكر
سلامة
فأول
محافظة
الشري
إدراك
قديما
حدثت
لتن
##فها
##صرون
المعين
التميمي
المالكية
وتج
##عدام
أصغر
##راكز
##ساط
ألقى
اتقوا
الاقتصادية
##وسا
أعداء
أعرابي
يتبين
الأعظم
أيد
##بله
يعم
اليسرى
##صلي
مجر
وأمه
##تية
فأقبل
صحت
##قرير
النات
العاق
##قوط
عارض
##خه
الجمعية
##سبق
##ماليك
عزل
المحسن
قيمتها
##بدو
قولي
##عتاق
إسقاط
صليت
##ثرت
ويذكر
وكلام
الصدق
##كي،
الهيئة
وقته
استحق
##جبه
تسأل
الدماغ
يعيد
يعذب
راح
بشار
باطن
العصب
##ابط
السور
##رابل
بأرض
كفار
شو
استط
الشفعة
علو
يؤذن
النخعي
فمنهم
بنحو
قبائل
كرة
صحته
وصية
خلع
للمس
محاولة
##قدرة
##فقت
قلعة
أكره
البحرين
##فد
##ائرة
##فرت
رأت
بالدين
سلاح
تفا
هرم
مختلطين
##ضحك
استد
##غيث
بياض
بلوغ
الدنيا،
فمع
##هداء
العلاقات
فرط
##ؤوا
##جأ
يتوقف
وخص
أمرت
بانت
صري
يتناول
ار
الرزق
واختلفوا
يمثل
البريطاني
##فة،
فأراد
يعرفون
الغضب
استئ
وولي
##اهن
أسرع
فضرب
بشأن
البين
##شيا
##مامه
وأنهم
البه
لهم،
معن
صيغة
والقر
##يقظ
مقصود
##نيين
##عرض
نصيبه
السبعة
##صيغة
يغير
يصوم
ووج
ذمة
معرض
الرياض
تصنيف
نشاط
وممن
##فتين
اللات
الزناد
ظهره
للآ
اعتقد
إك
##صري
البقر
مفا
يجيء
يراه
الماوردي
ومل
الشرطة
ممكن
المشركون
سكر
وفت
تتضمن
الجوا
استمر
الوالد
والأخ
الركن
واستدل
لديهم
##لبة
بيض
القرطبي
سواد
##طاه
بآيات
بمثله
خس
عرقين
##فلان
أخذها
بصفة
ومث
طعاما
المصحف
##بهان
مقال
ومعلوم
##ؤية
##وحى
الدرجة
يصلون
بعنوان
شاب
فأكثر
صدي
أقسم
وإي
بكذا
والنا
##طلاع
دلت
منعه
السحاب
محمول
الأمراض
الدراهم
##علماء
والمرأة
البيانات
المتوسط
بماء
استدل
##كرون
##اطر
شخصية
الإمبراطورية
الفارسي
##ضطر
رضوان
الإحسان
بطولة
الوكالة
غري
وثلث
الباحث
يوافق
يقوله
الحضرمي
التلخيص
نام
أسن
صر
بلغه
بارك
##جها
تعذر
شبكة
عفا
فضة
المنظ
طي
شرطا
أكمل
##ذنب
فري
العبادات
صوته
خطي
##ائشة
الصال
انقطع
##سلطان
حملة
عوضا
وتشديد
كالح
مسمى
يتحقق
الكويت
استقر
الإك
أحرم
تهذيب
السنة،
بينكم
الآسي
##طعن
رأوا
صدره
يضم
توس
ومنع
مضي
وأجاز
أحل
وأل
##سلحة
##اءة
##قيف
للمع
المقب
الأثير
طويلا
العثمانية
صديق
بالو
أفلا
متروك
##جون
المجه
الصهي
الفقير
بالشام
أخوه
##وتها
عنقه
الجوزي
لهيعة
##ثق
فاص
موال
الاحتجاج
شغ
اذهب
مشرو
عاج
التسمية
تعني
مؤسسة
للمست
تأليف
مدح
##ضعفاء
السل
##ونت
##فروا
واجبا
بالكتاب
الترا
##بروا
اهل
##الين
جنة
وبينه
ضعفه
قناة
##حيض
ووص
وكر
العقول
ويز
وكت
أفريقيا
العلمي
##امين
فارق
إياها
ويجعل
##خ،
تستطيع
بالقاهرة
أزواج
عرش
##لندا
عنكم
المسك
الجنسية
الصحاح
البلدة
ترب
##ريته
ينقض
للإمام
والتن
فتى
موجب
خض
الاكت
##تاح
أتاه
العار
تولي
النسي
السياسة
##فيت
وغيره،
تركها
الدراسة
بقل
الاعتبار
دائرة
لاب
مواقع
الأجرة
فاف
بطلت
يتعين
أقصى
رجوع
والأع
##وقا
##وتا
الإنترنت
النظم
ذكروا
الأوقات
والكلام
##دف
باتفاق
الآدمي
ويشت
##ديت
وبيان
الأصلي
تحتها
نض
##لتهم
لانها
التفا
البدع
فقه
##افل
##نائه
صحيفة
مائ
الجو
العاصمة
البالغ
نشأ
فسار
تحد
والكس
معناها
الصادق
شهادته
##حط
إظهار
يفتح
الال
مخلو
فلأن
المحيطة
الطبيب
أخاف
فطر
الشتاء
أمس
ولع
فرأى
##ينيات
يسمح
انس
فأي
ثوبا
##ورين
##بودية
##فيان
الواقدي
لزوم
وبل
##ديك
ابنا
العطار
##بادر
##ضرر
يقولوا
فرب
ينفذ
الفع
الأت
المقدم
يصرف
البدل
واستمر
الحفظ
بقيادة
الميراث
##وند
وبنو
##بوته
كأنما
وبم
يعلمه
أرادوا
أطراف
وته
##حدة،
سيكون
التكبير
##وازن
الكلية
##طيل
للمدينة
##صحابه
مضر
الاخ
هى
##ائزة
الني
البلاء
كالص
قاص
##دلة
يلب
سوريا
باللغة
##كسر
أعاد
##وتهم
##زايد
العقوبة
حدثنى
كرا
يبعد
بطريقة
توبة
النصب
يطلع
أعمالهم
الجلال
##دفع
##راقبة
غم
##رفت
بيضاء
وطن
محبة
بالمال
عضوا
سان
العالي
تناول
مضاف
مرسلا
حينما
الظالمين
##فرض
##طاقة
الهلال
يتعرض
##رائم
##غام
يهد
##فتها
##مائه
أبرز
اللح
ودفع
تفرق
يجبر
حضور
ووجد
##تار
يرويه
قرة
ولدها
عنها،
مقامه
يعين
المحلي
القواعد
الولادة
##قان
ولعله
وشي
شمر
لاي
الإخوة
الابتداء
بإسناده
تقطع
الخضر
طيبة
##غيل
الشيباني
دما
ويعتبر
تراب
##فا،
##نائم
لمس
تؤدي
مئة
ضوء
أوقات
الإنتاج
الاح
الأولى،
لمر
تقدر
الألمانية
##بالغ
المؤمنين،
المحبة
أصابه
اسما
##اخذ
##ثلا
إص
الكبائر
الخطابي
لعله
الميتة
##باي
مزيد
الجوية
متق
دارا
وعل
الفرات
##باري
الشرف
فكر
##يثاق
والرجل
تحر
تحرير
وسنة
##قيقا
عاز
##خفاض
أحمد،
والكتاب
تجاوز
النداء
وأمره
رأينا
رقبة
ويرجع
القاد
##رية
والتأ
المصادر
بسند
آمنا
##ختصاص
الناحية
##حصاء
نيوي
صدقت
شداد
الإذن
مصطفى
##فخ
وستمائة
مقارنة
مصد
##اب،
التفصيل
السماع
عليهن
##رازي
ومص
كافرا
للمت
علمنا
قيادة
##مارات
جعلها
الجسد
مالكا
جعلنا
##قتضى
الضعيف
يغسل
ويغ
آبائ
النيساب
مفع
##داخل
حيات
بموجب
تمييز
##داني
##بعد
فإنا
جورج
##قتله
البيضاء
وأنزل
ولكل
فدع
مآ
##وعي
مقط
ولدا
##نصر
يتزوج
مشار
فجع
وأقر
##انهم
المعركة
الأمين
وجزم
العقي
استعمل
السح
الجنازة
النجار
حديد
الضحى
يتحدث
##بود
أصيب
الاز
بيانه
وهن
تقدي
بالحديث
فوائد
العوض
الضي
معه،
أعطيت
فروع
العمد
كور
الوداع
شوا
بحلول
بلي
النب
تسبب
الوال
المرضى
الخض
متأ
الزيت
##خن
الطلاب
الانتفاع
ميتا
الشيخين
إيران
تحرم
##انات
##وراء
ينصرف
##غوا
الاف
ثمر
يتوضأ
أحمر
مفس
##ياع
وحصل
هدية
والمسلم
نظرت
##اد،
المستأجر
علاج
ومي
فأبى
خيثمة
والنساء
رحيم
فوضع
الفم
بالأن
شخصا
##برية
شغل
الحادي
مصالح
يعطى
##اهل
فجمع
اسماعيل
لتكون
##نزير
##ياز
ثابتة
الوزن
منهج
بعدي
##ودها
الوحيد
أجله
والجماعة
قدرته
الصداق
الموتى
خطبة
اشترط
السواد
مسلم،
أكثرهم
طلقت
##ليله
##كول
السفن
##بوس
الخصم
إماما
سور
بالبا
اتخاذ
##طون
فقتله
##ردة
بهن
أبن
عزيز
##قراطية
الساح
الأزدي
الفتى
العقيدة
المكلف
##وأ
##موا
##الفة
تراه
بالعلم
الديار
ضيق
المرة
ينتهي
فقلنا
##داع
##فقته
بريطانيا
الطحاوي
##دعو
وصدق
أمسك
المعصية
أتت
العظام
التنبيه
النم
كاد
##هاج
تمس
يأذن
وخير
حفصة
دقيقة
البدر
##حقاق
بيم
أشكال
سرعة
موقوفا
##طلان
روم
نقي
القلعة
##راوح
طف
##ئ،
##طيط
الدجال
الشركات
بأع
ووف
عامي
تأوي
بالات
##كشف
التقوى
مند
##ائنا
##كنى
##دعي
الكندي
تجز
هدا
التعليل
زيارة
نتائج
قذف
وخلف
والمسا
الترج
منش
استق
موسم
وطل
الجح
ناقة
أعلام
التشبيه
المجمع
الأصنام
##طاليا
لقوم
##ميه
النيسابوري
مغني
للشيخ
وعنده
كالت
الكا
مكس
غيا
السلامة
ميلا
##ؤم
الإلكتر
وزيادة
تدري
##رها
وانما
الإب
حفر
المبت
##الوا
لأج
غزا
##ثيرا
يحق
الأسدي
##لعاب
مياه
##غيره
##سخ
حكمة
##افه
##شة،
وتلك
الزركشي
يركب
الاختيار
النذر
أسيد
##صله
المناسب
فالح
##بهما
الأمرين
يصلى
مولاه
جاءه
فاض
##رحام
بصر
مسدد
عقله
وأسر
برجل
سند
الكافي
مردويه
محرما
جهاز
البسي
وعين
##خيار
الثقة
فحينئذ
العجز
##لقي
وصول
النبوية
ميز
قدامة
يطوف
كنيسة
أسقط
المظفر
بطلان
فنظر
رحمهم
كناية
خلط
يكبر
تزوجها
خات
##نيت
استأجر
أراضي
التحرير
الراجح
دورا
خشية
باعه
فترك
تلقى
محال
تذهب
والخط
عمرها
عبدة
صاع
جمعة
نارا
المصلي
والقص
##حدى
##رارا
الإيط
التابعة
الطبية
محتاج
حماية
##نتان
فأح
نفسا
تقا
بالتع
وأنكر
ذمته
##ستاني
البعيد
عيش
جمل
الموقف
##راهية
والتقدير
##وجل
الانتقال
البعد
الأولاد
يلتفت
جئ
وأرض
الموسم
صغيرا
القلم
لكثرة
ويخرج
تشكل
عمان
أرباب
السيرة
تحته
لذ
شيبان
##واريخ
##يلون
الجهاز
##بدا
للمنا
المصطلح
##لقا
بذا
##دن
وسيلة
الغنى
عزم
تفصيل
كقولك
##طها
وتسع
أدلة
والشع
شهيد
الفضاء
مفتوحة
##حقه
الرقيق
##فتاء
تأس
جهد
جبر
يوصف
السام
وأرسل
##فاضة
البرق
##ختم
الاعتقاد
الهاشمي
احتيا
مسافة
وجملة
الصامت
جمعية
الملت
المرج
أكون
بسرعة
الإصلاح
والمص
بكثير
تاريخه
##طيف
السنوات
الخراج
الحربي
فوقع
أولاده
وأر
بلده
اختاره
استوى
مستق
النار،
##رامه
سأله
وفرق
أسس
الخزرج
##غ،
عدتها
تؤمن
بتأ
ويدخل
أكله
##فارق
##يرات
##هلي
أفت
السدي
الجليل
شن
##وكم
الزوال
يومين
الفتوى
##طول
وحج
المقال
والاعت
الهج
باريس
المري
##صوم
ظالم
وسبعمائة
##ديات
ويسمى
الظرف
وامرأة
##كنة
##لكه
المانع
روسيا
##ماعا
العبيد
##ديمية
الكواكب
المستوى
##لوهم
##صروا
تغلب
أمل
##والهم
##ليمة
##ويق
##روري
الإخبار
ثمنه
النشاط
##لقت
للعمل
##شين
الآخر،
لعلي
أبيات
العظيمة
سياق
فف
##مح
الصراط
المصلحة
السند
##وسة
السراج
ذكور
الغزالي
يتقدم
مملكة
البرية
وسأل
موجودا
اضطراب
الإثم
ورقة
ويكره
عبدي
المأمور
##سلط
الضرورة
الربع
الكراهة
مطرف
دعوا
يمينا
التابع
جرم
يجزئ
مصادر
المتوكل
##عمة
إجازة
اللخ
توحيد
خلقت
ابنته
لبيك
##جهزة
والقمر
نبيا
صحب
إليها،
وفعل
الثقافة
وبعدها
الداخل
لآخر
##ابة،
##خيل
وجعله
الأعرج
ينتقل
ودي
بريدة
والثلاث
وزي
الطائف
المنس
كثيرة،
وإخ
الرائ
وكره
ميسرة
بالض
ثمانين
حنث
تعارض
بثمن
بالقول
مقب
الهاد
ثان
المفهوم
المخرج
وجها
الإنجليزية
بدرا
أتباع
سعيد،
مباراة
##يعاب
##زاء
لمح
##متين
حث
لأنا
منفر
للمشتري
العيون
##واشي
لأنك
بابه
وأبى
بردة
فيم
##جبت
##عمد
الجاني
وصد
الحائط
العقاب
يغني
سحر
الواردة
قتلوا
انقطاع
محفوظ
واختار
اجعل
علية
##وصى
##حيوان
بفضل
المزيد
حرمت
الأذن
أخا
الخلع
حية
فيا
النزاع
سفينة
روايات
حاجته
المستحق
استن
الهدف
دقيق
##ارعة
##ميزة
أرش
يسعى
والات
الحالي
بتس
##يير
##خمة
##عيش
فأذن
##تابعين
##رائه
##خارى
##دال
أعرض
تطور
بصيغة
الشوا
الشرب
##ولوجية
##ظهور
المخزوم
الاستغ
يأخذه
وقتادة
والإيمان
الأصغر
المطلقة
##نائس
كذلك،
الإح
الكسائي
الضعفاء
أحداث
ورأى
الجنة،
##ارى
خطا
المواضع
بعير
##مسا
خمسمائة
دفعه
##قيد
أحد،
جف
عسى
استثناء
صلوا
هدم
بالإجماع
براءة
سجل
##غه
التاريخية
فريضة
##ك؟
المشاركة
المتقدمة
##غيرات
للآخر
الآسيوية
حاضر
العاشر
فضائل
هاج
العمليات
الغاز
##وف،
لندن
خالق
مشايخ
الحمار
أرضا
خرجوا
##اكين
جوهر
حاص
وليلة
##ماك
مدير
النت
وصحبه
كمثل
وقفت
العقود
الطبعة
##شع
فتقول
يولد
##رحل
توفى
بعلم
الأذى
صدور
##لوي
الموافق
الشفاعة
أشرك
خلت
فوقه
الأفارقة
مؤمنا
يعرفه
سرية
فلهذا
قبلك
رابع
أحا
يهم
العثماني
زا
بعمل
ذوات
##الع
##ربين
فتحت
برم
يعبر
##ضاح
وكثرة
أماكن
سبيلا
منقطع
الجمهورية
تصبح
آثاره
نون
المهلب
الشأن
لأب
مراده
خاط
فهد
وأظهر
وإد
تقدمت
الفلسطيني
##برأ
اختصاص
معطوف
تضع
##فادة
يلعب
المثال،
عينيه
الأوروبية
الدالة
كالع
لتق
##ينت
معروفا
والأش
نبه
الذبح
لمحمد
الإص
##كنا
إغ
العصور
رجعت
السكيت
##جره
كالن
حنين
وخال
##ابين
##رسة
الملك،
إثر
##سنة
##ائنات
##أمين
دبر
بأكثر
قابل
لصالح
العلاقة
معلومات
أدب
العرق
الضلال
##اريع
إسحق
يرضى
السعي
الشكر
السيطرة
التث
##بسه
تنظر
باد
##شره
##لتم
مزا
##طيه
##ص،
فهما
فرفع
يرسل
القرار
الحية
السياق
##يدر
فيؤ
بالان
انتقال
والتس
تصميم
يهت
اكتشاف
يخشى
##ضوا
السوري
##ذكار
ارتفع
دخوله
##فران
يجر
##ندوق
عات
أدت
جيم
شذ
قوية
إبطال
بكلام
إثم
راف
##وثق
##الهم
الأسنان
يضل
جدا،
رفعت
البلق
نعرف
فرأيت
ميراث
السلوك
يحج
خاتم
الحنابلة
مضت
بركة
##قي،
دير
البنك
السيوطي
إقراره
مسروق
الحوض
وجده
مجلد
##ماري
مدار
وحيث
تصوير
##ائح
قبلهم
يرحم
القوانين
أهلي
منصوب
تعتمد
ذنوب
##يسير
النط
وإع
يتغير
آخذ
وتغ
الله؟
بدار
تتخذ
سيئة
فإما
الإنسانية
العلي
##عاع
##طنطين
انما
رسل
الأوا
صادق
برهان
الأعيان
المضم
الرؤيا
##لقب
قبلكم
يباع
ويأخذ
التبر
الاحتمال
حلقة
أمها
قطعت
البع
يعارض
##احف
الغذا
##لازمة
مدن
##طهر
الرياضي
المباح
أفطر
الرمي
الكرام
ويظهر
والعد
الأشرف
##يمان،
##شن
تحرك
الفاسد
الثناء
##حام
وأقبل
##صر،
الطيبي
سلوك
الأعراض
الناظر
الصالحات
ثوبه
##تيك
الأعراب
##باك
تبت
غرض
الجند
بذل
##وضوء
الطائي
توجيه
دونها
وقص
جالسا
وبت
والمقصود
حادث
العطف
الفتن
طاف
رام
##ليث
##خصصة
النض
المنظمة
لله،
صم
المقدمة
اللم
فتع
حامل
الأجزاء
##هوة
بمدينة
آلة
باز
الزهد
المفضل
الأكا
الشئ
مسيرة
خمر
حرارة
المصالح
الواقف
المالكي
إعطاء
نصفه
الأصبهاني
##هله
المذاهب
المتأخرين
لتأ
الشعبية
مبت
النسخة
يختار
مكي
النقطة
كلف
وعطاء
سع
بيمينه
تنزل
الرأ
للنساء
خلقا
بقتل
تشي
وطئ
الصحية
العدالة
والعرب
والبد
قياسا
##دمير
فعلي
أذكر
وسليمان
وآخرون
##قيما
أمرها
الأصلية
##ظلة
مبارك
حاول
الشبهة
مرضه
وحدها
الكهربائ
وانه
المها
البرنامج
##راجعة
رط
صخر
الوقت،
المستقيم
خارجة
مساجد
المنذري
الموال
##ملت
واللفظ
عهده
وأربعمائة
يجعله
والفضة
##زان
فوجه
بالنظر
أنى
سريع
##حيات
تؤثر
التكليف
اللغات
المباد
مدر
الهجوم
##لقه
##غنى
##ضمير
##روا
وجن
##ءوس
جمهورية
دوا
الموفق
أراه
أوضح
##ذهبت
مبدأ
البلوغ
الصحابي
##وت،
##وارد
جنات
صلح
ساكنة
##شرا
##ابي
##رباء
تعظيم
اشتد
المال،
##املات
##ذرعي
وشبه
##جموع
مسل
الإير
طارق
##ضمار
باختلاف
فعال
##حنون
مقدر
خف
بالسيف
انقضاء
الضغط
الغا
نشرت
المقرئ
أضاف
بأيدي
##جته
##ذره
وأجاب
البزاز
فالذي
يؤمر
العالم،
ثي
الحش
الفائدة
واضحة
وحرم
كسائر
البرد
الرضاع
دق
مملوك
التقدم
##شرح
الكبار
بباب
طلبه
ومال
##نعة
زيد،
مناسبة
طاقة
يحتوي
جمعت
ظنه
الأنهار
وسجل
الفضة
##ثمار
اند
الحادث
تحري
طرح
العوا
انع
وقولهم
فيل
##ليون
الحلبي
دنيا
شبيب
مثقال
ذكر،
المنش
الثمرة
البرت
##خلع
فأصبح
لبيد
##ذكير
الشهير
##حيل
السعادة
##ظرة
##بطال
المشهورة
فالن
##عبين
الأشعث
أصلها
نيويورك
لقيت
##غن
الماء،
##ظا
أننا
الحسنة
الصوفية
يؤكل
لشيء
رجلان
##واته
أسلمت
مهملة
اغفر
منسوخ
مستقيم
هانئ
##يب،
ومجاهد
غائ
عمد
##غرافي
الطول
معاد
قلابة
ترفع
##شابه
كاذ
وضعه
المول
##لاها
ضربت
رجليه
طبقة
ولفظه
التوضيح
جالس
أضع
الجوع
الكفاية
والقرآن
كلاما
راع
اخبر
##كومة
تور
ربح
الحبس
##مله
##معوا
هاتين
اتفاقا
ونه
عمرو،
بابا
اتصال
العرب،
إخبار
الموصلي
يظلم
للمؤمنين
تقسيم
الهمداني
كاملا
اللخمي
والبحر
لانت
المؤتمر
##قتين
أركان
الكشف
##رهن
شرعي
الخاء
##لاته
##ذبه
قصيرة
مشى
مباد
النحوي
صحيح،
التشريع
##قيقه
وخر
##ماله
التأثير
ويصح
##أنف
كرب
أجه
##شرك
إسبانيا
##منى
الأحوص
مناق
##اتبة
أفع
واختاره
الإناء
##غية
رأيه
كلاب
وخط
امرؤ
معلومة
لاحتمال
##ودية
الإغ
المتحدة،
تضر
##ران
المثليين
طائر
بالذي
الجماعات
تجارة
ضربه
مدا
إدخال
جزر
يذكره
زواج
نهار
دينارا
تصنع
##زني
##صيحة
خروجه
القوا
لأي
ولست
الوصي
نال
##يروس
والمج
##سلسل
سماء
متص
جني
فسأله
الأبواب
الربو
ظفر
العس
المسرح
##هولة
الانسان
##شب
عاقل
الزوائد
السبكي
عموما
للبائع
ينه
الأحياء
وموسى
العقبة
##جليزية
##فش
عجلان
تلت
وصي
ينوي
موافقة
منازل
##راعية
وسر
طاوس
فكما
باي
##بيعه
الديوان
##خاء
يسن
أبت
أناس
شيخه
فالع
ورم
الحلو
بحمد
##زة،
##بتين
غنى
##يرك
أطول
انفرد
القائمة
##والة
إليهما
هول
الفطرة
الدواب
الوحدة
##صون
بالمعنى
تعدد
تميز
##قدة
الرمل
بضع
الاشتراك
لعلكم
أعراض
تطلب
قصاص
أكان
الماج
نصوص
المشايخ
فامت
بكار
الوراق
أصابع
وبالله
الإدارة
عيون
تسلم
ومسا
يلقى
الأجسام
سماك
نجيح
الحقائق
فالإ
واه
##وجين
قصده
فكذا
حمدان
قدير
الليالي
تصاني
الدماء
وقبض
رشيد
فكانوا
الحبشة
المهذب
كريب
##رأته
للمن
السودان
ماري
والنبي
طهارة
##دين،
مرتبة
##زيون
وترت
##عو
بكر،
تطبيق
القريب
للأم
مرارا
التقليدية
خبرا
الضعف
ختم
##ماذج
مسر
ساح
بحد
نسأل
تونس
والعا
يؤخر
إحسان
سعة
طبيعة
وور
ياب
وإسماعيل
##انس
رخص
وحضر
والجد
البيوع
الانتخابات
فوض
ومضى
نمو
الحيا
انتشار
صفحة
احتاج
ليسوا
وفلان
كول
يصدر
##مها
الشيخان
جاوز
لكرة
المحقق
ولئن
##ولايات
أشر
الإخلاص
ينام
الفاضل
نيل
باك
##دبر
زمانه
المرتبة
إطار
أخلاق
الشهيد
واما
صدا
يفطر
الروايتين
وأصبحت
حجاب
##ارير
إناث
المنازل
مهران
الأردن
ضل
##وقه
والاقت
مذهبه
شت
أوفى
الحكومية
يقصر
التطوع
##رفا
المجيد
حاصل
أنني
أورده
يستلزم
##بيس
وسع
ويحرم
العدا
##طيق
##راكب
الوقوع
وبناء
للذي
ونظر
##ارته
##عدوا
الأنفال
الوصل
مذكور
ساعات
##آت
والقا
الفلاح
القبي
وعبيد
فالص
نجس
الجعد
دينار،
خسر
الحقيق
قولنا
أرط
يترتب
##حا،
بثلاثة
يشارك
شىء
##ستها
##رين
تردد
الأساس
والأنثى
فأس
وذا
الأعداء
تطلع
الخليج
الشين
بالأمر
المنطق
رغبة
##سمه
والرج
##حمته
يخال
##فصلة
أعلنت
الحمي
الحق،
الغزو
أبنا
نزاع
الوعد
جنبا
##وصول
أهداف
بصري
##شطة
الحلم
شاع
إبراهيم،
سعود
تعملون
صغار
تزوجت
ينقطع
لوق
تصير
مسرح
الاقتصادي
حقها
إرسال
##اصم
والتك
الشق
##ادته
##شط
وجهها
الأمر،
نفذ
وجوههم
فيهن
قبلت
##وب،
يبكي
مكاف
مقتل
فور
قولها
التقى
زادت
النمو
السكون
ووصف
وعي
ثالثا
سبيله
يزول
أمراء
بالعمل
الدارمي
القوي
##قبول
وينت
الفوز
فسي
تابعة
رأسها
##صاة
كيلوم
بالرفع
لفلان
مسكين
##وبته
الأساسي
##ليط
مكة،
المفسرين
الطائفة
##نيس
الكثيرة
##خور
##لامي
الأخرى،
##رأس
الورد
تصد
والمغرب
والحاصل
فلها
##قتهم
بالبصرة
انف
حمار
##همه
الصغرى
ذئب
الجب
بقوة
##حلة
البرلمان
خصائص
ملح
فيصير
إياس
إنسانا
انتهاء
فليست
بكثرة
آسيا
القذف
دائم
ويبقى
ولكنهم
##ختياره
عوا
فعلوا
المخالف
السلطات
الطاهر
الأولياء
فاحت
بشئ
الدواء
اشتراه
##كيم
##مرق
أصوات
##فقوا
الأطباء
وكلاهما
الهلاك
##سبون
بفت
أنكم
الكن
عذابا
كنانة
نفى
السهو
وقوم
##غاني
كفاية
##ضاعة
البرهان
الباقون
خت
وعيسى
فأين
صبا
وأجيب
العذ
الأرواح
##عاء
الحجارة
سلا
##شارات
دخلوا
##شاه
الأمانة
فنحن
نحر
والنار
اليتيم
أذى
بالياء
غاز
##ابات
##يناه
المعالي
رعاية
بإذنه
شتى
##ضور
كسرى
توجب
العنف
ولكني
##دعوة
أسألك
##غرق
##هره
الغنيمة
##ياح
لوجه
##ورته
التصريح
كالإ
لفي
أحم
ذراع
واو
الإقليم
##صلت
مكتبة
##جنون
وسبب
##جموعة
##نائي
بالطلاق
الكلم
##زاري
النحاس
العناصر
الحزن
بأهل
الحرمين
والحم
إسحاق،
كو
ودم
الحسنى
##بيدي
للعالم
الهذلي
الإنكار
كأنهم
أجرا
جمعه
هلاك
بخبر
مجموعات
وتحت
##سوا
الثاني،
عرضت
بقد
وقا
الحاصل
غيب
برامج
الفهم
فأشبه
كثير،
##حداث
##لتي
الحرث
الرومي
بسنده
أظن
الإضافة
حكي
لض
لحا
##ينيا
مشكلة
وغيرهم،
رف
ه،
دست
التز
يسبق
عادت
تدعو
عنق
مرز
العكس
##عدون
سانت
متنا
دمشق،
الجلوس
##قاش
##جلترا
##ينا،
الغناء
صفوف
الاصط
يورث
الألماني
##غور
##رطان
الخدمات
معجمة
##وى،
وثلاثة
تكره
وبعده
شبيه
بطنه
الظروف
بيوم
اشتهر
بام
##اليف
غياث
الصبا
بالموت
مبر
الخزا
تخلف
مشك
الزع
تصور
##وائي
مطلع
##ولاه
جميعها
استحقاق
الوعيد
تخري
الجنود
##ؤس
##فاءة
الأماكن
اليمان
سفيان،
الزوجين
حت
نوعا
زائ
##لى،
يكلف
حدا
##زها
السلعة
ممنوع
التنزيل
##لوبة
وثاني
والملك
الشراب
الأبد
الرجلين
النادي
النصاب
##ائت
الشام،
##ونغ
وبح
القضايا
ذكرته
هذا؟
يشك
المعارضة
عرضا
قومي
حملها
اقتصر
فحمل
العناية
همزة
##قضت
بصف
وافت
أعطا
##يفية
##أكل
الحسن،
الحجاب
ووصل
وجوز
الجل
##طئ
واصل
كالش
نورا
##ناكم
##ءة
محض
باطلا
##زدق
مرور
قرابة
سنا
والإمام
تصف
للعبد
##كنه
أياما
الصلة
الظهار
والأح
مؤتمر
السورية
##مارك
القطاع
حصة
زفر
بأص
##بقية
الفوائد
سبقت
##ظه
علامات
##دام
يتصرف
فاخت
دب
معقل
الأهلية
رقيق
الآداب
الاستخ
الاستفهام
##وقة
والرك
حراما
##ريين
يرك
أطعم
ثورة
مدخل
اعتبارا
##ملأ
تزل
وكون
يتن
##طوع
قريبة
ويعقوب
أبي،
ينطق
رجالا
الطبقات
##حايا
تحصيل
ففيها
العلوي
سؤ
الفور
##وصاف
السدس
وأز
أصلي
نزع
شف
مخر
يستطع
اليوم،
##وائية
رجله
يفي
العسل
ساج
##لاسفة
بمثابة
العجم
##يه،
سياسة
رتبة
ابا
المواز
والسر
مسم
اخرج
لا؟
تلو
وبرك
جمعا
طلع
النظرية
الكرماني
بمائة
قادرا
الجان
بحجة
شيخا
سرير
فقر
يسيرا
الأض
الشهاب
سمعنا
هوى
التعامل
محكمة
واجت
القرون
##مالك
المبالغة
بعضكم
الصائم
أعجب
الإسرائيلي
عدى
المصطفى
ونعم
البها
الزراعة
بصره
والفق
بالآخر
##بئ
معلوما
الإيجاب
العدم
إيمانا
للملك
طرد
التصوير
متصل
مررت
المنكدر
شجاع
وبني
المعارف
عدمه
فأتاه
وطء
وأعظم
الهروي
زار
الثانية،
شهيدا
المنقول
الطيالسي
الأطراف
##راته
##ثاله
ورواية
للأن
عرب
الخلال
حائ
لوط
##رابلس
##افرين
بتحديد
المهمة
كص
ورسول
عائد
##ؤكم
مقبول
زن
المخلوق
أية
النزول
##تل
داود،
أجهزة
للزوج
ظلما
ممد
##طاط
##ينغ
وصفت
وخالف
##عتك
المقري
أربعون
توهم
الصغار
العقلية
فأكل
وبدأ
الحمى
حلت
قاموا
الجهات
##آة
الجنين
##روز
إضاف
تها
يذ
##خيرة
وشرط
##كلي
ويرى
الفنان
##مول
بالنصب
الصراع
الزهر
عناصر
فاجتمع
المخلوقات
##ذرت
والفت
قصير
معهد
##قرية
##وطء
الده
إناء
قال،
وذو
تدا
نموذج
توفر
آنفا
إباحة
وقسم
مستقلة
محاسن
فعلها
العاقل
ثلاثمائة
فخرجت
##ادها
##روضة
الفتاوى
يملكه
اقرأ
دولار،
تحا
##جاعة
##طش
مكث
البكر
ينادي
الصالحة
محي
##أمن
حرية
ردها
لأع
القصيدة
الطهر
##حال
الصنع
بكونه
المدنية
ليعلم
ربها
ولايته
##رجات
##زياء
الغيبة
تكت
وكس
المحرر
حكمها
اختلفت
تسب
لحكم
فجر
ليب
الحنب
ويط
نجاسة
الحبل
##تكلم
هذ
فأسلم
ده
يرم
أشهب
الفارس
ومرة
ثوبان
الوديعة
خطة
كج
تحسين
##هنية
كذا،
صائم
الأشجار
سلمة،
أيا
##لهم،
الحامل
العوامل
ونق
المتعة
##وعب
لتلك
الرجعة
ينعقد
مولده
ينال
يتوب
منسوب
التطبي
##يسابور
حولها
معكم
اف
واح
المقدسي
الحروب
بظاهر
جندب
يفضل
رئيسا
إقليم
لمسلم
القائد
العذر
ووال
وعظم
عبادي
سيرة
أهلا
الكتاب،
##ويس
##قبه
المفر
الوفاة
تترك
صراط
الأيمن
##وهب
مراحل
غروب
طاعته
الصلت
برسول
التام
أمان
الإسماعي
الجنب
تحكم
الزائد
منده
ينظرون
##جام
يستوي
حش
الناب
والشمس
نيابة
##حرر
ونت
الروسية
وأسلم
لويس
إجماعا
وقدمه
المسجد،
##حدر
تتأ
أرسلت
يوضع
استحباب
وجمعه
##قصير
الأفكار
فلت
##كملة
الصحف
الصحراء
والماء
إيطاليا
زل
كمية
تصلي
فصارت
ضغط
##لفا
##متاع
صدقه
البيئة
فقهاء
##علن
واكت
للغاية
تخت
الطرفين
والإسلام
إياك
الموصى
حقق
شائ
أجيب
تؤخذ
الأنا
##انوني
##رابة
مؤك
وسا
المساواة
بايع
تأكيد
مثنى
الفلسطينية
##ثوم
وجدنا
الفرقان
##سانيد
##ئيا
##رائط
اللحي
كذبت
ملكت
قمت
بالكوفة
يشرع
يفصل
اللازم
جنازة
الرسم
إنى
واتبع
السجدة
تموت
نوفل
فجلس
##ياسات
أرسلنا
ويه
الأشهر
ميتة
فأولئك
مضط
الأزهر
مسجدا
يمسح
ويقوم
حبل
قدرت
##ظائف
تفيد
نجاح
وآخره
##ميري
إسلامه
يقضى
الإل
كفى
##ابته
تبدأ
وفاء
بدنه
يكلم
مجالس
ستي
وسقط
##شاط
الصوفي
##بسوط
مكحول
##خيه
مفرد
الخف
لصاحبه
الإجابة
ليح
الأث
بالإيمان
قسمة
صنعت
أسلوب
محص
##اجتماع
وسمي
المحدثين
قومك
خيل
السنين
العارفين
يرا
بتاريخ
إحياء
المستخدم
##ارة،
مراعاة
الصلب
والمال
##جوج
الخبز
الأنف
ركعات
فتأمل
طريقا
واجتمع
بمكان
صالح،
الحصين
الخارجي
الفصول
العظمى
وعملوا
الحديبية
تمسك
##ذكروا
الدوا
الإرادة
التصديق
يذبح
أفتى
ركعت
##كا،
##ربها
صفية
كذبوا
موسى،
رسميا
قولين
عدن
تشكيل
##يرون
الشفيع
الرومانية
جنسه
بذي
فبال
الأيمان
##ستم
يزد
##بوط
##جوا
##فاح
##ساوي
المشتركة
ونحوهما
المحال
خلالها
والعصر
فسقط
##شاركة
الآباء
فحم
السرقة
وظيفة
فثبت
##قراطي
جلب
##وليا
التزام
الفريضة
##اهية
فسد
الأعشى
وثي
لبيان
الإنس
العقيلي
##ظف
الحلي
الثانوية
فقيه
ناظر
##ذروا
والبخاري
ومعرفة
خب
بخلافه
فضالة
المنافع
فكره
##حته
فحكم
بيتي
##ثاء
الصفار
حنظلة
وأك
##رىء
توك
يعط
يتميز
##تون
##سنات
بكت
إذنه
البلاد،
أمريكي
رحلة
المقتول
يقم
أحياء
##مات،
نذكر
النمل
رؤيا
##خين
الصدقات
عبرة
ببد
##جلب
الرسمية
##نتي
حكا
المتح
حبا
التعا
خفت
المناسبة
الكفالة
اعتمد
نوم
أثره
والرابع
##وابا
روينا
أعيد
غلاما
غيري
جعلوا
ظلموا
لحوم
مركب
يتفق
دمه
فقبل
بالأم
عشرون
القنا
الأسواق
##يمته
تتكون
يطعم
##مانة
رحمته
##اربه
الجبهة
يشق
الأشج
وظن
الأصوات
مباشر
##منات
طعن
حضرت
شيطان
##ابها
غسان
والحد
##تيات
دماء
الرمة
الخصوص
معط
لذي
مستقب
والتر
المعلق
##وحا
##الة،
نزيل
أخذا
للات
##ددة
للحق
يتكون
التعرض
المطالبة
فالا
كالس
الموافقة
الجغرافي
الرطب
حمص
##ديس
تحليل
ركع
للإناث
الرحمن،
ثمرة
##قيات
##كروا
أصدق
أخص
##خيير
الأخضر
الحرمة
قوانين
والجز
وحسب
باط
التعاون
للعلم
وتؤ
والبغ
هامش
لفر
فيخرج
والحال
##نتها
عدوا
وأعلم
الحالية
عنده،
الحميدي
روما
هلا
التحليل
نصا
يري
الند
كرد
الأخر
##جاح
مخافة
يمسك
##قده
للأب
تخريجه
خمسا
فأصاب
صفاته
الملكي
فرضا
تضرب
رفي
استمرت
سعى
##حوث
الرملي
المؤسسات
العمي
موقوف
وكالة
سبعون
شريكه
##لوى
أطاع
التخصيص
النفل
الجرج
باليد
النفاق
فقول
خفيف
يتعدى
وتز
اضطر
تعبير
يتولى
ردا
شفاء
الحظ
مربع
##غلب
جاءهم
حقي
تقليد
المدح
##يرته
أمانة
واستقر
حط
##ريدة
طلقة
الجنابة
السرا
الهول
ذؤ
الهندي
##ليمه
الانصاري
الأزرق
آنذاك
رفاعة
أوق
الجذ
وقصد
بالألف
الهندية
طار
صلب
وبيع
##وائز
وأكل
الموسيقى
##ادوا
لبث
دعوت
الأربعين
##بتك
المعجم
إصدار
الكلاب
أرا
صباح
غيرك
الجما
يطالب
##وان،
سببه
##طلبه
المحار
##وليد
##واها
وأست
أنما
شرطه
##طعمة
عنى
##رضى
تقتل
يصد
##اهري
الأوس
##وائم
سوداء
مواد
حصر
أعز
وفع
وأين
المنق
محددة
وكثر
##مهيد
وجهة
##طلاقه
يساوي
جنى
كانون
فاعلم
سنتين
الجوهر
لواء
سحنون
وكيل
المسافة
##مان،
بالإسلام
والعبد
يوا
النعيم
أليم
اللازمة
للإسلام
##ائى
جح
طبق
والفعل
العجل
الغذاء
زع
يهلك
فلل
لفظا
سائل
أصبغ
##قافي
##ساق
مسي
فهؤلاء
القيادة
وبالم
الفنون
الشح
ووز
الشمالي
المتع
الإنسان،
ذرة
المبار
الاضطراب
المكتبة
محالة
##عمله
فارت
ودر
أرضه
دني
الأبيات
##قاذ
وأحب
ازد
الهادي
##رادته
هدف
الواضح
المحتاج
اللقاء
##لاحظة
الثقافية
يحي
الثلاثاء
يمنعه
وجز
اختلفا
الورق
البريد
المدر
وخبر
اثني
المحافظة
لفظة
ينتج
صحابي
لابي
بالخيار
فسكت
اهتمام
وادعى
وعليها
آياته
إلها
اعتراض
الجهد
الكفيل
يسع
مريض
المني
معارض
لك،
صححه
##لوت
قطاع
غصب
بست
سيل
##صرين
##فصال
ترجيح
الداعي
صورته
الوارد
قدرا
جدة
دلال
غص
أنيس
طاب
سبأ
##ظى
والأب
ويستحب
بعشرة
ولكم
القرض
الصبيان
وأتى
يتجاوز
ملة
مليار
##نته
المرسلين
##وهوب
كالج
وأخبرني
للحصول
بالرغم
ترق
مسئ
المبتدأ
أرجو
المباراة
ناص
وآل
الفاح
غرفة
##كرين
الاعتماد
##صق
ليال
لأس
أمثلة
التحت
الاستقلال
يرغب
امتناع
##ينة،
الليل،
فيلزم
عتاب
طعم
الأسلحة
ونصب
المغربي
##لز
ساكن
ولان
الفريقين
روايتان
أمرك
ويرد
الجنائز
بعبد
المسلمة
وكلما
المكتوبة
لذلك،
##وعظة
حلم
فراس
علل
##فز
العبدي
##فر،
الفراغ
والحكمة
أسعد
دعواه
يأتيه
لور
بالبر
##تبع
النتائج
أرم
قديمة
##جرا
الداع
والمق
##لائي
قلتم
##وثان
ووقف
المبين
##خرف
ساهم
كثرت
ياسر
يشفع
يرزق
الشدة
وثقه
وقوعه
السرير
مكتوب
وظاهره
الدائم
التمثيل
الطيور
أعيان
بالنار
البشري
بيعها
##ؤنا
القطر
الشهداء
الحشر
بإس
أوتوا
##جيع
استخ
سوار
السريع
##نهم
الانق
بعده،
الكيل
وأهله
حزن
الرعد
يستدل
##يجاب
فسب
##ضمام
##ائك
سعد،
المجاورة
الدقيقة
فصح
الحائض
اقتصاد
عاصمة
##طرت
##يرت
يقتضيه
الردة
##يني،
##اته،
الجمه
الأدوية
مرزوق
أيهما
##صان
علاء
##زيمة
وتعتبر
التربية
البنات
##تيال
الحراني
هب
والإع
شهداء
يره
وتسمى
هريرة،
والدارقطني
رياض
يرب
التراث
طن
بوضع
ليع
ضربة
##؟؟
الحبيب
مجازا
انضم
بالثمن
##امية
ونقله
الخزاعي
##شوا
تكرار
##رأي
الكام
بعيدة
دورة
بتن
مستحق
بالعين
الفص
وتاريخ
المنصوص
ببر
الأربعاء
##ومين
بهدف
جسده
فظاهر
حسا
نفا
يدور
الدستور
التأخير
التما
البري
تدور
حبة
ببل
حمر
موافق
أغنية
الاستئ
ومحل
اعترف
المخزومي
معرفته
متعلقة
الغرماء
ومكان
خا
والجملة
القود
##لافا
الملي
##لكت
دعي
أوتي
دواء
بنيت
وكنا
صفته
تكر
الفنية
تحب
فرواه
##عنة
تخل
##رعان
الهيثمي
مكانا
ارتك
وبنى
للرجال
الإسرائيلية
تجر
الحما
فرصة
دنا
لكتاب
والتابعين
اليق
يحيي
##حتين
##سو
فكم
المرأ
ويقع
مستويات
رأيتم
والخبر
ازداد
إقام
لفترة
##وسطة
المنه
تكلف
##برز
الاغت
الزاهد
والمعت
##ديها
##بنت
وكف
ويلزم
لجواز
إجارة
أصناف
تكوين
مرفوع
أعماله
##وذك
الفوا
عزوجل
الفرنج
فالجواب
كيد
هبيرة
الملح
النبيين
فالق
ينقسم
وأمثال
المسيحيين
##لتان
##بتة
أصلح
نقلا
##قوله
وعقد
ميمونة
ضعيفة
الأنثى
يميز
وقلة
تأمر
فهرس
قوى
الجنوبي
جديدا
الكافرون
أمهات
##تموه
ذراعا
كيسان
غفور
بنصف
فعرف
مؤقت
##يات،
القطب
يرده
##اكم
##يريا
العساكر
وسعد
تدبير
العربية،
بأمره
وولى
وعظ
##وون
##واجد
خديجة
تصلح
يجيب
المعز
فربما
العروض
والملائكة
الرجل،
##ها؛
أكن
نريد
##وطن
الاعتكاف
بتك
اختبار
تزويج
الشورى
بموت
العراقية
مفي
مراتب
العجب
فماذا
##فتي
الفضائل
والما
متح
مبنى
ومحا
المجتمعات
إمامه
وأخرى
##شات
معان
وبركاته
الزمر
جناية
الحباب
##يرو
فأتي
##واحي
للحديث
متنوعة
اجتمعت
يصر
##سره
وصلاة
وجوبا
##كاك
سيار
مطابق
البدي
والأولى
الأموي
فوات
برس
الصلي
عظام
##كنولوجيا
والنظر
البيت،
عربية
والعم
الإمامة
##ويف
والبي
غائب
مستقل
الأقصى
أقيمت
الصناعية
الساحل
##باده
واقد
التركة
الخبيث
القاضى
اللطيف
الركعتين
##ريقي
بالشيء
حمى
الجس
فقطع
والشي
جحد
بجانب
العجلي
إعلان
المحكم
الفرزدق
الإسكندرية
##ائنة
يتصدق
والعقل
دنانير
فسوف
روحه
يصب
والحج
بالملك
##ابهة
فوقها
أرواح
وابو
شهرين
الاهتمام
ماك
##صلين
##رافية
طلبت
##متهم
عبيدالله
مستقبل
إنجلترا
الفخر
##بائح
إبل
الكائنات
لمالك
أخذوا
فيش
كالتالي
وجهك
نادى
العليم
بهم،
وشك
العودة
##ؤا
تعليل
فريد
قلبك
##خفضة
تخريج
قنا
##أب
ونقص
كلثوم
##راري
والرسول
تسمح
##فقات
رمض
يدخلون
الموجب
رءوس
أراك
فيدخل
توزيع
وثق
فظهر
الأذرعي
##ذكرة
خادم
الموصوف
الإت
##ذبون
وتولى
الفزاري
طلعت
بتقديم
المتاع
يلي،
ينبت
وضعها
ملأ
فولدت
حذر
يؤتى
أنشدني
##ورو
قوس
يزوج
الفقر،
الجهني
معينا
لتس
عندهما
الكاثوليكية
ودرس
الإلهية
بالضرورة
##قطار
المسلحة
السارق
انش
الوالدين
دوري
وبك
وبشر
##كاثر
خفض
قعد
حدة
والنون
التحكم
وبعضها
وركب
والقاضي
يتصل
الماضية
بعثه
يساره
مرة،
وخلال
تصريح
##وكس
تذ
قصص
شراب
يليه
##جزات
الشامي
شريعة
##لتا
انهم
الكلام،
القارئ
الجهر
##ظنه
بالكلية
##مائهم
##رفين
حبيبة
وبإ
الدولة،
##بش
فاعله
إحصاء
المرس
غيلان
مذاهب
بيل
لكونها
للوا
ونشر
وانصرف
الترغيب
أعمى
تفض
الأخت
فجاز
سعي
##زح
ومذهب
منتخب
واجعل
يرتفع
العادل
وحكي
والعشاء
ساحل
أري
كثيرا،
أوسع
واتقوا
والعين
الإنفاق
الليثي
##اور
المعم
المضاربة
أوص
##سنوي
ودليل
عصره
الاعتراف
هرب
التاسعة
باقية
الدعم
الآتية
##ذربي
المستخدمة
توفير
بيعة
المواقع
##راتيجية
نيته
آي
بحم
##رهاب
##منه
نطق
##ردت
رؤيته
ضمرة
جنود
شرقي
ذهاب
##زوا
بالباطل
اليابان
مسب
ولح
النساء،
رائحة
يتابع
##يادي
السعدي
الطائر
خرق
الطين
وتعالى،
أعي
سبعا
شئتم
حدي
دال
عذب
والدعاء
سنت
النقي
التنفيذ
أشخاص
المقط
الكسر
##طيئة
الآمر
بسيط
فأد
نسلم
سط
ثابتا
عسكرية
##دارة
فاته
##كاة،
والسي
الساق
وسفيان
عاقبة
والقياس
شرحبيل
##لهة
##اصي
والثانى
الأدنى
العطاء
الأمثلة
محطة
والثوري
وجعلت
واتخذ
##جاء
##رفق
معاملة
تعدادي
فمتى
تري
شح
طيبا
##طبق
نجوم
فحسب
يدك
تدفع
المركزية
تشرين
الغريب
##ندس
يطول
يميل
يشار
تدعى
المجهول
##مارية
المخالفة
وساق
مستأن
التاج
الذهاب
ربط
فأمره
بحسن
هجوم
وكن
القدير
قسمين
خطوط
بإحسان
##نائية
يعانون
وول
الأصابع
فوز
##جراء
المؤيد
ممتنع
مقالة
##وانا
يتح
والمل
يعجز
الصناعة
والسن
المحق
عندكم
##جلا
جمرة
المغصوب
للتأ
##قطعت
##هارا
اللعب
القض
##افى
الحياء
ثبتت
التدبير
فظن
الإيمان،
أعداد
الخلاصة
سره
فائ
##رائر
قالها
ويعمل
تحويل
فذكرت
تركيا
مناس
العلماء،
فأنكر
ليم
قاض
عروبة
يعدل
قاس
المرجع
##ليو
بتشديد
الإعراب
والتش
قبيصة
شاهدا
العبودية
##ذنوب
##أر
##انين
جوابا
الحركات
ويعد
بالبيع
اللذين
بالله،
وخصوص
البتة
الإتيان
السيارة
##نائها
##وات،
بصحة
##ليدي
للنا
تنازع
##اعون
يعتد
ذهبا
فصا
قرآن
تكرر
كفي
هداية
وفيهم
أنف
غسله
ملائكة
##هيل
فسأ
الميل
عرضه
##ائه،
مريضا
##وسل
المحب
أويس
##كنون
مجلسه
بالواو
جسد
##دتين
الحداد
محبو
سجن
##يرين
فلين
##صيح
##هية
نعبد
فالمراد
##انا،
شريف
##واتها
الثمار
بملك
التفريق
متك
##فتاح
أنظمة
##قاية
##ئاب
تعطي
باطلة
##صيان
حلي
مؤمنين
مره
##لاغ
الفلاسفة
زنى
##سله
الإمكان
بالذ
بيدي
يحبه
سمعوا
قدموا
باليمن
واليه
العمل،
نوعان
بطون
##قبة
##ضها
للفق
المتقين
نهارا
يرق
اللعان
وضعف
زهرة
فدخلت
عماد
##نكبوت
الطفيل
##جران
أجره
##يتا
شريكة
الطائرة
البلقيني
والمغ
تراجم
استعماله
مشهورة
يغتسل
الصهيونية
أيما
جهاد
##انيه
##معه
##فضيل
##زموا
جو
##نياء
##منت
الجدار
##اهدوا
اشترك
وحل
##غتسل
الدلائل
الزاي
فأخبره
قضايا
الصنا
الذمي
مليكة
قثنا
تقرأ
ملم
شرعية
أجنبي
وأولاد
إشكال
فجاءت
السباع
انك
مقيم
المباشر
مشاركة
##لن
الأرج
فيصح
##لاء،
دامت
والجن
##ملكة
##ذبين
خام
رضيت
يحيط
الشاب
وأقل
باعت
تكتب
تامة
ذلك؟
حيز
التقييد
##ياذ
لباس
يرمي
أجود
البطولة
جريدة
والمشهور
##طير
ونع
وثالث
للان
بشهادة
الفلسفة
البسيط
بزي
بكلمة
ومق
الثعل
الطاء
##يدها
فاذا
وعائشة
قح
بخطه
صالحة
##بعا
##يرية
إتمام
قرينة
##أسيس
مطلقة
مأمور
الذاتي
الذئب
اتجاه
الجا
وجوبه
فث
الضبي
العماد
الاستعمال
البرم
وترتفع
اللغوي
أسهم
حلالا
والضمير
##دره
فرسه
##معون
مشقة
مئ
تكونوا
##خى
خاصا
مصح
##منوا
بالاتفاق
##ماته
حائط
دينكم
الخراس
يفسر
##سرين
محذ
ببيع
أنزلت
أولم
الدكت
##كة،
ويحت
##فره
وبخ
شارع
فجعلت
المعاملة
##بعها
الحصر
الديمقراطية
عثر
أوت
الخا
أوصاف
استقبل
خرجه
##سال
بولاية
المستع
وتبعه
##يكاني
الأجنبي
مثلي
لتش
تطهر
أظهرت
بعقد
فحذف
قاط
المستدرك
الجيوش
البكاء
الثمر
رمضان،
##جة،
##مأن
الإباحة
مصن
لغات
##نوي
الاحتلال
رعي
استث
روضة
القش
المفصل
محتمل
العاج
يعمر
فنس
عقيدة
##معا
والاحت
##دران
تنفع
وتنا
فكأنما
أهدى
جير
يؤكد
طبي
يخاطب
وإياكم
مسعر
محظ
وتمت
##حاضة
حلول
والسجود
نواحي
عصب
ظروف
الرقبة
قتي
مبار
العاب
وتفسير
كتابي
آلهة
عصبة
رتب
النبي،
البياض
يطأ
النفط
##وظ
##أمر
النموذج
أصابت
يحمد
المجلد
الجوي
الحنث
يكشف
للض
الراعي
لقمان
الضم
بلغة
والباقي
المنتخب
##طيفة
فلقد
انتقلت
والحسين
أضل
غرم
غرا
##خالف
الجهمية
بشدة
لحاجة
وإسناده
المدى
قريشا
وثلاثون
رحي
##لظ
بالذهب
##زعة
##معت
يفعلون
وقضى
دان
##ائله
وفضل
يحول
الحكم،
الموارد
وهشام
ويحك
##كاه
يومه
الشبكة
##لطف
التهاب
يتوهم
لعلم
العنق
وبو
بالعقد
وثم
إبن
الثدي
بالقدر
العثور
##لات،
الندى
المجتهد
يجزئه
فقير
##حرى
زرارة
عدلا
##زته
فقالا
الأرق
ولمن
الأعلام
حوش
والرد
معيلون
صه
لدفع
ياقوت
والكسائي
العداوة
والعمرة
الخفي
منافع
الحلقة
المسئ
لمعنى
مون
استيفاء
##اجتهاد
بتص
النفسي
ندب
تتميز
تستعمل
فانصرف
أساسي
الغم
أحفظ
ناش
يزعمون
الأمصار
##قلد
##صارهم
طلاب
كائن
الجواهر
عرفا
يجيز
رزين
##كوم
بالمد
اجتمعوا
الدقيق
البت
أبدا،
##قرأ
أسترال
لتحقيق
##طوير
وشرب
تصديق
الحرب،
اللاتي
جين
كليب
ارجع
رأسي
مواجهة
يعبدون
دو
##بادل
النطق
علموا
عنهم،
الطور
يحيى،
الجميل
##شتراك
محب
كذاب
الوصا
أعلاه
##سقاء
ثيابه
الإعلان
السوداء
معتقد
وصلوا
##اطئ
سخط
##شو
باسمه
دلائل
صعد
وصرح
ويلي
البخاري،
البنت
المهد
النفسية
تشبيه
قاعدا
##فيها
أكد
مختصرا
بصير
تقضي
المجنون
احدى
بوس
كوكب
عمرا
التدريب
هاء
غفلة
##وبري
تلم
ممارسة
##وجبه
التحالف
##ادلة
##سيك
عملها
الأنباري
التركية
يسبب
أكلت
راحل
##دراك
##لادي
كالك
##ماها
وليه
ويف
والأص
صريحا
العضو
لزوج
الممارس
لهؤلاء
##وائب
##فوع
لؤ
الكبد
أنفسنا
بعدد
##رورا
اليسير
الاق
استشهد
للمر
يباح
إير
الانح
الحيوية
##جدد
صادقا
تغي
ضعيفا
##قته
التض
حصته
وجعلنا
##مئن
الميقات
الشامل
##روى
والنفس
التشريق
##طيعوا
ألحق
للسيد
##رياء
لأكثر
ويشترط
بحي
الأنس
##يتك
تلزمه
خلايا
مذم
الجود
##حاطة
مطعم
قوت
بحلب
جيدا
وبقيت
سيارة
واختلاف
الحملة
فتاوى
مناسب
العصبية
تجار
النهائي
اقترح
الحكام
متم
التقرير
##يناهم
ويترك
واجه
مجز
الأخفش
الأقرب
يتف
المبلغ
##باشر
##رائهم
تدر
الموحد
الديني
لأحدهما
مرث
فيأخذ
##كونة
الخندق
وصنف
المباشرة
المتمر
وذاك
##يقية
##ارات
المعل
فتت
الدرهم
النابغة
زلت
قبوله
وأو
يوق
بأسا
توق
المنعم
ساعد
لعموم
والفضل
التأنيث
لاختلاف
يسأله
##فيز
##الي،
لأبيه
##وائج
##وني،
وعبر
الزراعية
السرية
الحف
##قراره
##فيين
وغيرها،
بقايا
##جنب
اثنا
##فرغ
##انم
##وقية
يخلف
زائد
والأخرى
نقصان
ذلكم
##وجة
العقار
الفحل
##ملا
التغيير
كأني
وأعمال
ثلاثون
شعرا
وحب
شركات
دراسته
الصيغة
##لائكته
##انيات
الذاتية
جبلة
محسن
بغداد،
أدركت
أحضر
دراسات
ينهى
والعياذ
العاقلة
كوفي
يضاف
انخفاض
جرا
الشبه
الحال،
مواطن
الرسمي
##حيانا
وليت
السيئات
ففتح
يبني
تارك
##راتب
الكرة
العنكبوت
اتخذوا
مرق
الأعمى
مشاهد
أقف
حقيقته
فؤاد
جميعه
مخالفا
الترجيح
أطيب
اللحياني
مردود
بخصوص
الظلام
##مادا
تقولون
فصلت
##وضات
صائ
وسكن
##ياته
كله،
##فته
ذرية
تركته
المقدسة
حمام
الأمل
ذكرهم
التأكيد
طبيب
ساقط
عتقه
خدمات
بالمت
شعار
المقالة
الثابتة
النبلاء
الغصب
أعقاب
ذنبه
السابقين
تأسست
عقود
##هده
##حي،
الأمثال
قبح
عبدان
##رثوذك
فولد
الصحابة،
الوسائل
تصدر
إصابة
التفت
أستاذ
التوجه
الأبصار
وشيخ
يكف
الشافعي،
متعم
كأنك
الحنطة
مدع
ابتدأ
وجابر
آباء
المره
وماله
رخصة
##لفات
اتهم
##وضوع
بمقدار
وطئها
وتو
الأفلام
العين،
الجام
قبيح
آداب
وقوة
الشمس،
تهي
سياسية
طور
وراءه
الشهوة
وبأ
##بوها
رداء
جهود
معهما
معارضة
حمير
بعينها
تقييد
وقلنا
فقات
المنح
##اعه
مولانا
لذة
القوس
المعتبر
تسعين
التنظيم
##ستي
بطلب
تنتج
بالقتل
السيدة
رسالته
التلاوة
اجتهاد
زنا
الملكة
مدارس
بجمع
شركاء
فيأتي
منبه
##دهن
وظائف
النفع
نظرة
بسكون
يسمعون
يبرأ
فاضلا
أسأل
اختلط
لغت
الحجم
قبلة
لذكر
ووض
وفس
والباء
حوض
الحقيقية
مطالب
##صوا
##يفور
أفي
أكس
قدمناه
بوجوب
الأحم
طرابلس
التطور
آتي
##دلس
الكاملة
قضيت
فير
أنفه
##كر،
##يقن
بولي
النطاق
##ساد
##فرع
المصباح
عبدالم
ومأ
جدار
مشتركة
يكمل
السيل
ديني
طاق
تفسد
البجلي
أسف
تبد
وجاز
فيصل
غال
والكل
وصارت
##وراه
المحفوظ
الموق
والثق
المجموعات
طفل
يطهر
خرجنا
المكروه
شبر
عوامل
مهد
جاءوا
##وجي
##ستير
حجارة
أدي
عجب
الاخر
مصيبة
الآخرة،
مخاط
##ظفر
الصعيد
بقيمة
فشل
محرمة
##وفه
مشاكل
##اين
ساف
غار
وثمانمائة
يتعلم
##ائيل
##ويز
أشعث
جيدة
سخ
يحسب
مجالات
الأسفل
أخته
موز
مشغ
أنصار
قبلي
##لاثة
للتح
##شيع
يمد
أتاني
صفا
مير
يقارب
لسنة
بغض
للحكم
بالسي
القناة
مساعد
##شهاد
بمنى
إخوة
بقطع
الأولية
##بوق
زعيم
بأربع
فليح
القاب
أفاد
ابيه
##بلوما
فاضل
##اتين
##اري،
النتيجة
يفس
البرامج
والمذهب
بجواز
واللسان
بضرب
عبدالع
أرسله
معلم
الظنون
وحال
قراءته
فركب
مسلمين
يعطيه
##لك،
##واله
##قصة
وشع
المصير
المقاومة
الساكن
مغيرة
تقولوا
نبأ
##ثرا
الريف
ورئيس
الرجم
جوازه
الايمان
صومه
الشوك
بحضرة
##جبال
بمعناه
لطيف
الاعمش
تركيب
الانتق
ردي
الخلائق
##شي،
يعظم
مطلوب
مضمون
ألي
العقلاء
كبد
ويجمع
وأخوه
يتي
المتنا
شفع
##ضون
##ولة،
العزة
وجودها
##هورا
##اف،
زعموا
متابعة
وطال
النباتات
القل
جعفر،
حالهم
والاسم
قطعه
##ضين
والمروة
خزا
بعثت
التسبيح
والستين
معاهدة
آمين
العزم
بالتاء
##فاهيم
العمارة
الزور
استدلال
أرك
لاعب
أبيها
عازب
للقاضي
يبحث
##فاضل
الشريفة
غزة
السطح
##انيون
##راتها
حار
عصمة
الرحمان
تبوك
##شعر
بالنفس
وبالإ
الشخصيات
وحلف
الحمصي
الديمقراطي
ويمنع
أيام،
متأخر
##خلاص
يقتصر
اصحاب
بالهم
الحمراء
##ريابي
فأحسن
يعقد
الشيرازي
بضعة
##رسوله
حاملا
يرفعه
##حيف
هنري
الضيف
تساوي
فكنت
كذبا
فطلب
الصدور
وثنا
أدر
والتعديل
والانت
ترون
المعارض
الستر
المملوك
النخلة
وحمزة
استخلف
يزداد
المدائ
الذم
للمح
##يتي
فقيها
إنني
بالأرض
إيمانهم
ظلمة
الحذاء
الحنبلي
##ث،
واث
فلان،
صاعا
منكرا
المعتق
الإمبراطور
بغي
خبير
والقط
بالخير
##فاك
يفوت
السعودي
##اعا
ونست
بأربعة
##براطورية
ومنذ
جلاله
##ماثلة
الله؛
الأرحام
فتم
تدريب
يروا
بئس
المنافقون
##داس
تكاد
انتفاء
زاده
يصرح
##وفة،
##بكات
أخف
لحظة
القربى
##صات
أفسد
جزي
خث
أتوا
بمق
الراش
مقاومة
شام
بالقياس
أعناق
بفض
##نثى
محيط
أذا
الجنيد
وعده
الرياضية
كفه
##ضرت
الوهم
##طو
حمراء
كراهية
لزيد
الصريح
المشك
وقعة
بيانا
فمس
بعرفة
وطائفة
##خري
اتصل
وحماد
البلاغة
الموقوف
الكسب
##ونيا
سنه
##انك
##شاد
الغف
استقل
##مالا
يخرجه
حرفا
قبة
##ؤوس
مزد
الامتناع
الهندسة
##صارا
الأصم
والقدر
وغالبا
السيارات
الرغبة
قاعد
معالجة
ثماني
القرنين
ألو
ادخل
مبالغة
لهب
عبس
حبه
أحيا
##فرج
تعم
واع
خامس
للقرآن
حاد
##طورة
الصع
المشاهد
تشار
الصحيح،
والذكر
##أى
منيع
ناسا
المتقدمين
الخفين
##الس
الإجازة
قاطع
وسم
##كتة
بهاء
اخر
##واجب
##لائه
بعد،
مناك
المولود
بالنون
اللباس
##جاة
بالسنة
يضره
آبا
##ائري
بمش
بقوم
القيامة،
مبنية
##دان
##خام
المكتب
انقضت
بحرف
##غف
الأظهر
ينص
##باج
الأسئلة
بتقدير
أجريت
##راش
معتم
ملكها
ذاه
والهم
الموت،
الغنائم
الطيران
##قولة
أمرين
المماليك
والأد
وصله
##ضرار
فذاك
كنيته
##ئهم
الحين
أسرار
وأنس
وولده
فقيرا
المدبر
اليونانية
ونصر
سلطة
القومية
سماعه
والتد
الغيث
يذكرون
يأتون
##اخ
حزام
ظال
فروة
الرحلة
يقومون
للإن
يخرجاه
##طنة
تفصي
الفيل
##ديون
أمك
##بلها
قمي
المقص
ويثبت
الورى
اللوا
وعدمه
فالأول
##ميات
الدخان
المنهاج
الناتج
كالق
الأجنبية
شامل
صيا
غليظ
وأثبت
##عدهم
##بارته
فغضب
جيمس
استمرار
بأعمال
وتوجه
قبور
الأشراف
فأعط
الكشاف
ونشأ
يدخله
والتم
الاستخدام
##ذام
النبوي
المنزلة
تصيب
عقاب
مساعدة
البركة
تعب
قرئ
العاشرة
للمناطق
طوله
##يلا
وكفر
الجاهل
عشرا
جيل
##عمون
سيئات
السمن
تابعي
طائرة
الناش
##طنطينية
##ياسة
رزقه
والته
الطبع
قصور
الحمر
السوفيتي
عام،
جاءكم
فلس
##لافة
الشما
تخاف
يحاول
مود
##لته
بالنبي
الحاس
بالتشديد
##لسنة
##كاس
مائتي
احتجاج
الوحيدة
خلاد
بينهما،
صعب
متسا
المتفق
وورد
مقاب
فعاد
الوزارة
الاصح
##لازم
وأفضل
التحق
خاض
##بذ
الأرثوذك
مطار
والأنصار
فغير
##قاقه
أفلح
والمغني
للترجمة
البراز
معتبر
خارجا
##غوت
العجاج
العمري
مراكز
وأثنى
ورود
بصح
وتعلم
خواص
فطلق
الخشب
ميثاق
##اليم
بقضاء
لكنهم
هذان
وتعد
##اؤه
وكونه
خاد
##بيحة
سنده
الالف
السلسلة
وخالد
ريت
##هدم
الفتوح
تدرك
ساء
والسب
بجامعة
أقدام
الخادم
السيئة
افتتح
بوصف
اعترض
الصير
ينفي
جميلة
يرجى
الفكرة
رحمهما
البحر،
روت
الكع
افتتاح
##حويل
منفردا
##ربون
الطعن
بلاء
الصعب
فإنهما
أقوام
سجدة
عثمان،
جاك
بالتق
مشكل
بالإنجليزية
جلو
أهون
يأمره
غرة
##راكي
الصاب
فوت
المسلسل
حادثة
اليمامة
سريج
عصا
الإمارات
##خوان
الشاذ
لوح
##ضائه
الراجز
وني
وتشمل
##سيما
المذكورين
المنظمات
مكلف
ويؤيده
وأتم
فمثلا
والور
البيعة
السيوف
يأكلون
اللواء
الخطر
دعوته
تاس
بظ
الآية،
##باين
أمت
يكونا
المسم
وجلس
قريظة
لصحة
##لوبه
أقرأ
نصاب
اطلع
##ظمه
أذهب
بوج
فقبض
ولاء
##جر،
ينته
نائم
سليمان،
لحد
وكفى
##بيته
فأقول
عملوا
بذاته
صبح
ناسيا
تعديل
جاهلا
صاعد
##جاني
ويشهد
لاحظ
تلبس
جراح
يزيد،
عجبا
أطلقت
مستع
قدما
المقابل
##لقوا
##وابط
وعادة
ونهى
استخدمت
##قيها
##ياج
ينصر
ذى
وتاب
انتها
المفس
##لتك
حرملة
وإياك
المعدة
مترا
مسهر
ونفس
يستقبل
قذ
نسوة
اختص
##دنا
وأور
##جلى
البوا
راهويه
برفع
المبرد
##ميين
سفره
##بوين
والولد
الطلبة
بقصد
بوق
##زاق
مدرك
بجامع
البدعة
رؤبة
الإثبات
البنية
ثالثة
تنتهي
##غسل
السلطان،
الامير
الدني
يعاقب
فدية
فالظاهر
وشدة
لمنع
غف
الطائرات
بالخط
لخبر
مرجع
##حيته
وجاءت
فعن
أحببت
حاف
تشرك
الدرر
##شح
العراق،
خلل
محق
السويد
الأسبوع
اعتماد
##صعة
نكل
إمكانية
بعلمه
تصغير
بالنهار
مهاجر
##وارزم
صنعاء
طرفي
مقيد
قوام
ومصر
##ولوجي
المؤسسة
لؤلؤ
والعلماء
الدن
فأب
شيوعا
ينصب
الجنرال
بمنا
##حاة
يخدم
القانونية
البند
المشهود
##جيات
المسن
الخول
البيزن
وقامت
عليك،
تصرفه
وكذب
فحا
##ولياء
السماء،
الأبحاث
##ئوا
##ووا
وحدات
آكل
الكنائس
فلانة
وصفاته
رهنا
لعنة
بقرة
وأث
لمست
البابا
الشهوات
##ادين
##سيان
تجربة
##لاقة
##جيز
تفتح
سلمى
نظيره
والكر
تحريف
عددهم
وتزوج
والدم
ذكروه
بالتأ
##سوس
مجن
جاءني
الإخوان
راس
وبينهم
##كلف
##باعة
##قاليد
التخفيف
الرومان
فأق
يفتقر
##يهم
سمح
خم
والقيام
والواو
بعدك
##ازم
##نمية
بتحقيق
والرق
السمك
يفسخ
فقضى
واز
نظره
صلاتهم
الكو
صوتا
عبدالعزيز
##ستانت
وبقية
سلعة
فراغ
شها
جود
عشية
المقيم
تفاوت
قربة
جوانب
##صين
##رفون
فأقر
##سرع
تقريب
الإسماعيلي
##يو
أخبركم
عقدة
المبحث
فأشار
اليسار
سلب
التعيين
##رعها
##باته
نصير
بالشرط
الفاسدة
الأوثان
مبد
وجدوا
روبرت
##صرها
يكونون
الزبير،
##شفت
النواب
وتخرج
تمثيل
##وطات
والعق
فنون
الخس
إعلام
الحط
##وزة
##دركه
##وافقة
وصالح
الإسكندر
##يضاح
أيسر
الحضارة
علمية
أيامه
المخد
أذان
نشأت
إلغاء
##جاجة
شواهد
الغذائية
رئاسة
طير
قادة
زمزم
نخل
##يارا
اللؤلؤ
وجعلوا
المعتاد
استحب
المغازي
زبيد
المخلص
##سكين
##رفوا
ورغم
##لالات
استولى
يستر
##صالح
جميعا،
الإعادة
حان
مشارك
أخل
فأخذه
ليش
يخر
عقلا
الحصن
الرط
ريال
التوكيل
والإحسان
إحرامه
صرفه
أفض
##ومها
الطوائف
أيمن
كاليفور
##طايا
##بسة
##فقود
وقتا
والقدرة
رجوعه
تسجيل
جميعهم
نكاحها
ثقل
الطويلة
صاروا
فراش
البراءة
بالسلام
فالك
أظلم
سميع
كذبه
##شرات
الأنث
تلزم
الأمطار
الاستحقاق
وتخفيف
المعتمر
كلها،
هواه
مهرجان
أذرع
شاكر
القنوت
##اليين
##خلا
##فرون
وأحكام
الشركاء
الحضور
شط
مفتاح
وأربعة
كافية
المحافظ
ظننت
المرفوع
اط
وكال
البرا
ببينة
الاعتراض
وبط
بالذات
##أني
وأشد
مقبرة
المقبري
التعلم
أقبلت
رع
فأتيت
صدرت
تلمي
الناسخ
بيتها
الجرجاني
يتطلب
معاوية،
فلولا
أجزأه
سيم
##جني
##اهة
وعدة
والتعليم
البادية
لزيادة
وطا
ومغ
مقبل
يؤيد
آر
يتحرك
سألته
##بوعة
لابنه
اتفاقية
أصبت
وجهي
الجعفي
عكا
العورة
يتمتع
توفيت
واشن
##زلي
شعري
كالذي
سخر
نأخذ
القبيلة
فهناك
بالكلام
والثالثة
سبحانك
وسب
المشقة
الحكماء
##عاقب
تصانيفه
ضا
غرس
##ليفه
وتقدير
ذري
والسم
##حرز
ورده
المخاطب
الشعوب
للمؤ
تكبيرة
بلغنا
جوابه
دالة
يمضي
الصاحب
كاليفورنيا
الجور
الإدراك
الذل
والباقون
##قدين
اخبرنا
تخفيف
درهم،
النجاشي
رقب
لونه
أصحابي
تركوا
الجانبين
ذل
إعداد
أوحى
##واي
أبغض
المختصر
التنمية
##زي،
كوك
##صها
وقرىء
المرور
##صده
بالرج
قتيل
نسبيا
قدرها
المكره
أدع
أضعف
##قلاني
أئ
جرج
بمشي
##طاف
بأقل
ديم
المحتمل
وتقديم
استغفر
الباهلي
يساعد
خشي
وحده،
يوما،
كندا
طع
يلم
بالأس
يجعلها
##واض
##رائها
شطر
أسبوع
المور
الملة
مقات
لعلهم
القصير
تعي
أمراض
سابع
يأمن
لترك
المخاط
والتف
والجر
النوى
##لسي
##أته
أربعمائة
طين
بالعدل
الصا
##سلس
ذؤيب
جوار
##زعه
السامع
##وائر
اسمع
الزهري،
##خالفة
الزرق
##بعين
أتينا
ركوب
مبينا
المقات
امام
##ثن
بالتص
يخرجون
المفتوحة
متصلة
العاملين
عدوه
يحبس
وماء
استي
ألوان
##نابة
راكبا
البخارى
الجيل
شاهين
تأويله
للتن
##عدين
حاضرا
ملايين
##كري
راحلته
القومي
##رنا
والاجتماع
الرافضة
##بخ
##فارسية
يوح
وسميت
حاس
##واجا
باس
##اهدا
##جئ
الجهم
##نفل
بقرب
خمسون
##وزي
الروي
توما
المساكين
الدينار
أكر
الطاعات
بعض،
فلسط
نزلوا
مدي
سبل
للمرة
وعيد
ملخص
يسمعه
##صابات
##قاه
الإسلامية،
رمز
قارب
##يسان
وأخر
الجوان
الرخصة
المشاكل
ويقرأ
وخصوصا
أير
ظلت
وسلامه
بالكامل
##خلوق
يمدح
##ماوي
فسره
الصوف
الصنف
أملك
واشنطن
يوش
فبينما
صناع
البغي
قرآ
هير
الخنزير
وتل
جحش
فرك
##خلة
ينتق
بصد
مسلمون
عقيب
اللعبة
استخدامها
##جزة
المدا
التخيير
بطول
أزواجه
إيمانه
إز
عتيق
رجعوا
بالتس
لأصحاب
##قرر
شعبية
إيجاد
بماله
أجمل
بنفسها
الديون
الذهن
الرض
##همات
##درت
وعاصم
الحج،
مكانها
ضعيف،
##وران
##روها
كوم
أساسا
وترا
الظهور
الأذ
التمتع
المآ
احتمل
ويريد
والأق
الير
##لاقي
المحرمات
عورة
المعهد
الداخلي
الأيدي
ينو
النبيذ
الراية
وبالن
السرور
الآفاق
ميد
##يلعي
بمست
يناسب
##ذرهم
##صبغ
ويصلي
ينزع
إحرام
العصا
الخياط
باللسان
اجتها
البهائم
قف
##لوبا
وينظر
##اهرات
قتادة،
يشتمل
غائبا
الجبر
ووس
وضبط
شاك
الدورة
الوظائف
##ثره
يستغفر
الإذا
جسر
الحوالة
وأورد
تنقص
الفقهية
ينج
بفر
ذلك؛
الراكب
الجمعة،
لشخص
ويعتقد
##جعله
##بعوث
يمان
حيوة
##كرام
الساج
خالفه
متصلا
وانته
التكرار
##غاثة
الشديدة
##رجل
لائ
##حرق
كقولهم
المبر
الألعاب
ضربا
اسحق
##راجه
الموصي
ترجم
بوزن
يتوجه
عادته
أمروا
للمسا
وأولى
##ووس
بعت
هجرة
الحادثة
يرجعون
شأنها
وسكت
وبارك
المطالب
الخيرات
الأجهزة
أخيرا
للأول
حليف
تتع
بكى
عروض
الفريابي
##دير
المتولي
دينية
والصف
وطريق
يعيشون
فأتوا
قويا
##ليمي
الزين
النووية
ومك
المرأة،
وتكلم
فاسدا
الفداء
توضع
برز
الجمهوري
فمه
للميت
المقدار
حضرة
##ثيرات
شعراء
الرجاء
جبار
بقى
بطنها
المتعد
التسعين
القيد
تعدي
القراءات
##ذرون
سياسي
##جبة
اللوح
سقي
##ظرت
بالمح
فقراء
وعشر
القائلين
ويسلم
صداق
الفاك
يقين
يقينا
فقدان
السلا
المشكلة
الأديب
إجابة
ادعاه
خدا
السلع
الأديان
المجرد
شمل
##ومة،
المار
والطاعة
والياء
مسألت
أمامه
تخص
كفرا
مكرم
حدثناه
##سرى
ألك
كخ
##ءا
أتلف
مختص
وعلمه
والراء
##رابه
##ؤك
التغير
##وعيد
الأسلمي
والشام
ثمنا
العام،
حقائق
شعبة،
الرسائل
الأغنية
وأقول
يستمر
والمعروف
وقرئ
عري
منزلا
أميرا
الحسنات
##ذق
يتق
شهرة
لهو
حلو
##رعه
المشارك
الصفوف
استقبال
##باعا
الأفق
خطيب
##وهات
الحمض
وجمعها
يفارق
وظل
أسند
##فارة
لأصحابه
الكسوف
تقسم
لتص
##ادرة
ويؤخذ
نادر
وموا
الفيء
##راعي
##طاس
لحقوق
##دود
أضرب
ونسب
الظلمة
يتأتى
الكهربائية
وكيلا
أستراليا
انتخابات
الفراش
منط
##رضاع
سيت
والليل
لواحد
والأصح
##مدي
الإرث
الحصار
الرو
##بداع
الشد
##يس،
الحياة،
وقات
الدرس
مثله،
تار
والشعر
تعمد
##وته،
وأذن
طلي
رؤساء
لحيته
##ذربيجان
##حمده
واسط
لعبة
وجدته
يواجه
الموهوب
قطن
##لوث
والمؤمن
العزى
النائب
##هلها
فأجابه
الآخرون
استحسان
الفؤاد
المميز
بلدية
مرتفع
معالم
ونف
تحوي
سنويا
وبينها
وخمسة
إيه
معز
##شروا
فجعله
لذاته
##صراف
اللحية
الكرسي
نذير
##رفض
حقهم
الخلط
طلاقا
الخلية
##وبى
##شيدي
بولا
ينس
ترم
لأحمد
المأخوذ
شميل
برئ
اللاتينية
الموضوعات
للمفعول
النجاة
ووجهه
ميناء
وخذ
تقام
المصريين
التنفس
تمتلك
الشرائع
والفاء
المصاحف
اكتشف
يسافر
خضر
نؤ
##لبك
##نفذ
الأسلوب
وزين
عكسه
دفعت
المناخ
النجاح
غادر
محارب
النفا
الابتد
طرفة
البحوث
##راسان
##صفى
##طفه
التركيز
مستقر
التفكير
يستطيعون
القرابة
##رابا
الرشد
فأم
والإنسان
حبسه
القران
اعتم
بالكفر
بآية
حظر
حيلة
أوقع
تميل
فأف
علاقات
ثمة
اللاعب
جاهل
تنبت
ودون
كك
##قدت
مسافر
الاستواء
حده
##يسا
أفاده
حوادث
المركب
نقلت
اللفظة
اكتب
##ئيات
جماهير
تفس
خراج
نفقته
للذكر
شهوة
ضيف
المضارب
اذ
موث
الجامعات
الجحيم
الخرقي
أقا
حركات
الخاتم
مشهد
طريف
لعدة
##ائكم
تابعه
##رويج
يكر
الرفعة
نسائه
للرسول
إتلاف
ومط
##وعها
الزاني
السكري
فمعناه
حوشب
الشاملة
للكتاب
فيحتمل
للعم
فامتنع
واتفق
الوجيز
عبيد،
يهب
الفدية
##حيفة
إليهم،
غلا
##مأنينة
التواصل
بسهم
الخصومة
التربة
ابنها
الغين
التسوية
المزد
المتنبي
زه
آمنت
غزو
الكيميائية
منطق
سوي
طلبا
لشدة
الرضاعة
##طفل
يبيت
##قذ
المطاف
بيمين
عاشوراء
شفا
##نش
##كاء
المغناط
فبقي
الشعر،
يعتقدون
##ساع
الغار
ذكوان
رقاب
عرفوا
هيل
##مرين
ألزم
وحذف
ضابط
##وع،
تحية
جعلته
يوصي
الأهل
بحذف
المحسنين
والهي
تتراوح
##ابتداء
الحالف
زيت
الزبيدي
خالد،
يستح
الأصل،
سبا
والصفات
وسوء
كتبها
أصحابه،
##مرة،
فاختلف
المرتد
لضعف
##بل،
أداة
الفرار
كالخ
عث
##فيك
الخم
وجرى
تأك
صفين
استأذن
معلق
كين
بأد
مصدرا
##قلين
وليا
السعيد
بمسا
بإع
وقط
الأوصاف
أساليب
تحس
وثيقة
كفرهم
تعرضت
الأنوار
الغض
##لاحقة
الأنظمة
الجزري
وألا
##حرمة
زريع
نغ
وبالجملة
القلب،
حذفت
قوته
##امنا
جها
تناقض
البكري
لحما
##وثة
ويحمل
زينة
ووفقا
الأمة،
انعقد
مخف
خلقنا
العباسي
المرتبطة
متعمدا
قصي
يوقف
دعاه
##غفار
الذخيرة
وعباد
وداود
بآخر
##قش
وأحيانا
الآن،
كنز
موك
أفعاله
خوا
الأيسر
فسألت
والزبير
الأكاديمية
العارف
ولاه
##فتهم
علام
الأركان
يلبث
للبر
أخرجت
وعكرمة
أوج
حسن،
التجارب
##يلة،
فالمعنى
الرجال،
إيقاع
مستعم
سريعا
ضمنه
رت
مناه
ينع
الإنجيل
تسليما
الشعور
وأخذت
الارب
المعاملات
تنقسم
صغر
وقياس
ويطلق
ملحو
عرشه
باللفظ
##ابرين
غداة
إطلاقه
وديعة
المعتصم
ارتد
هزيمة
يجاوز
نسمع
باعتباره
##قلون
وبأن
لاعت
برواية
أرادت
نصي
طهور
فزاد
اكثر
خشب
يوهم
##جلال
أحكم
الجزي
##سمت
ماض
والمدينة
الماشية
فيرجع
مختار
يؤذي
رسائل
الخير،
يحزن
دن
الصحافة
وسير
المادية
حملا
عرضة
عطفا
الثقافي
لغتان
خصال
باعتبارها
الربوبية
المتعا
بالنص
سعر
##ضرات
الخفيف
##رائن
ودار
فاتبع
مقسم
التقديم
التحتية
الكوي
##عدات
##ندى
جائزا
أرقم
فدفع
الإسبانية
فؤ
وقيد
الرقا
بلادهم
ثمنها
##وفان
البحار
نفوسهم
آب
##خس
عاملا
رسله
العدوي
الأضحية
العالمين،
فأخذت
ورثته
يجدون
منتهى
وسأ
تمليك
يخف
مصرف
وكثيرا
كالز
ساحة
كهر
تعزيز
فتس
الاعلام
وروينا
أشعر
صبرا
بينك
يجت
##وق،
ليالي
الحبوب
المعرف
يزيل
حرق
دفعة
##ريث
بحيرة
لصلاة
الاقتداء
أصابعه
التوكل
اني
حلة
مثلما
بالحكم
اتفقوا
ولبس
لي،
قولوا
الفاسق
##هانة
الألوان
بمحمد
##وكي
##حلول
سهما
فليتأمل
وإقامة
مكن
##حمه
وضعفه
المضي
ميرا
نكرة
العامة،
عجيب
##مادي
النقصان
لعذر
والهند
لموسى
جندي
لوج
أغنى
الكوفيين
وره
وزنا
ورقاء
ويبلغ
أساء
الزكاة،
تنفي
الأقسام
المساعدة
تباع
أعج
لجمع
نمر
هامة
أجمعوا
##هر،
كيلومتر
الصينية
للتق
وجوبها
الابل
الكري
##داها
##سيمات
مرثد
جث
قيامه
والموت
قميص
التردد
فاطر
الأمام
عبدك
ومثال
منقط
##رضت
الجوارح
التصميم
ورسوله،
فاه
أختها
للدولة
أخضر
يستن
السميع
باخت
بقلبه
مناقب
بدت
الأوراق
أعوام
التدريس
##فسة
##راما
##ومان
مشتق
ردت
الشفاء
الدرع
الاخرى
ببناء
أموالكم
الإكراه
أضر
والفقه
وهيب
مجيء
المجاهدين
المباني
كهي
##درج
##باض
قتلهم
التين
حاجب
قادرة
مولد
بيعا
##جاسة
والعراق
تفريق
تيسر
##حار
طالب،
وأمي
باح
نهج
وأخيرا
شهدوا
##سا،
المسع
لحمه
يفضي
القاري
يتجه
يسبح
##تين،
ماج
بصلاة
التركي
يلحقه
الآلهة
العنصر
المذ
خطوة
بريء
والبن
فتبين
ضاق
الصائ
تكذيب
المقار
إياهم
للضرورة
طبيعي
مستشفى
ويعود
والصبر
التقسيم
الوالي
العظمة
ادعوا
إرث
المشر
لوس
اشتريت
المذكور،
البناني
بلو
##كيك
عمال
تعط
##كيه
المودع
وبسبب
الإرشاد
تعري
دعت
أعبد
الكلاسي
تجديد
عجي
لطلب
مفص
الاختصاص
العنبري
##اتبه
##حتهم
والكافر
النفس،
الكي
ونافع
صق
##نيها
الطبي
##بتدئ
##رافه
بالجنة
##انغ
الدائرة
مجنون
والشرب
##قياد
تطوع
المراب
العارية
##وتين
تمتد
##رتين
##شعار
أبصر
الكثرة
الأغاني
للسي
فأخرجه
##امرة
ضامن
النقض
##لائم
البكت
يجهر
شاركت
يجاب
ويأمر
يعز
كبير،
طعامه
عنصر
الطف
تقلي
##هادات
شعي
إلزام
السرعة
يحمله
أجرى
فينظر
الأل
لغرض
وأصلح
أسير
وكله
بخل
والرب
الزوجية
باستثناء
عالي
التصويت
ألسن
##تد
##وحش
##زاي
مكسورة
دينك
اشتراها
ينفعه
فيمكن
القدح
لليهود
##ضطرب
المنتجات
صبيا
فيد
الانف
ستكون
افعل
الأجانب
أنس،
لسن
مظاهر
المدائني
والحارث
الأكس
القميص
تكليف
الرجز
الأسرار
أميال
باء
##بيثة
لأني
حينها
بالعراق
معدلات
توص
##زج
المعنى،
اخذ
ودخلت
والوق
وسلط
رواد
راحة
طوائف
ليصبح
بشرا
العبرة
سرح
المحص
بالعكس
يون
وقدرته
التمهيد
عصى
غنيا
فينت
مقبو
الفرصة
كرام
عزله
جانبه
اصطلاح
مفعولا
مشاهدة
باه
العلى
محج
الكربون
ورحل
التيم
القع
دفعها
المعدل
وأضاف
والأمير
##ماما
الأطعمة
فاسق
محدود
تهدف
الطريق،
جهته
مماثلة
فابت
وسأله
غلبة
أيمانكم
الجزم
للمش
تحفظ
وذكرت
الاسود
أنوا
التحلل
التأمين
##شارد
بدن
بموته
نمط
الأهداف
أفكار
يروه
فأعطاه
خلو
فأص
بقين
والنهاية
تبعه
ضده
الامة
جليل
مئات
وزر
برأسه
ثبوته
وعلق
##زاع
تذكرة
والميم
المأذون
وبيت
##شده
لازما
أضعاف
وسماه
للدين
هلم
المثناة
نحوها
##زاة
القاهرة،
المجالس
المرح
##واهم
الزينة
فروى
##شفعة
زاوية
نفوذ
الوحش
الأنام
##يت،
بلاده
بفعله
الدوام
والفتح
##وجا
الجناح
لأنفسهم
ينفرد
دقائق
والليث
يضعف
نصفها
الزيارة
جواد
عودة
ماتوا
موضوعة
أدركه
بيتك
خفيفة
الأنفس
حالها
##قبله
مرحبا
الإنجليزي
##وانه
يمتلك
الخصائص
تحسن
والإنجيل
يصبر
كاذبا
ندم
وصفا
نفعا
وليها
أعرفه
بقبض
دجلة
وخلع
هاد
البني
##ولته
قبله،
استئناف
تقرب
لتحديد
المخطوطة
البدائع
يدها
يؤاخذ
متحف
المعتز
مطابقته
##ينها
الخطوط
الانتهاء
الحاوي
الشمسية
عك
قابلة
طرفه
كاس
المبسوط
فسم
ويونس
##نعت
##جدوا
عزة
لوحة
عرفه
بواجب
الأغلب
ثابت،
حريث
السلو
فوقف
نعرفه
فرسا
سيفه
القشيري
الوسيلة
وقراءة
كلوا
ليخرج
مصحف
تبدو
يملكون
أنزلنا
الأتراك
مناة
##يدية
أشعار
تسعى
##شاة
عينها
الحارثي
تعجب
##صام
بوي
ناه
##طوي
##ارها
معم
بنحوه
وتقع
وعاش
يدرس
وجي
لحظ
الركب
بالصواب
كتلة
الصفقة
والمث
بأخذ
واحدها
هناك،
القتلى
وباب
والدر
بالفاء
فإننا
لأخيه
بإي
موري
قدوم
ورثة
هو،
المصلى
الصاع
##قيح
##وءة
الجيد
##هرت
بروت
قدميه
بالتك
برأس
##درالية
والصالح
يلو
تتطلب
تقييم
الخطاب،
والرواية
##سهيل
العصبي
سهام
والمك
بخلق
##وثي
المفتي
كريست
لسب
غيبة
والسلام،
رجل،
الباجي
المغفرة
##شها
وأعطى
ويذهب
بمقتضى
الظفر
وأبوه
##تقاء
رود
طوا
والترك
كيلو
بحرية
الاتجاه
الماجشون
إمارة
وجعفر
كتبهم
حماة
والشرح
يدخلها
الضرير
سادس
##رارية
مسلسل
يقام
محلها
يتذكر
##حيز
مدني
للشافعي
قياما
تصحيحه
والإس
تلد
##يمة،
أحكامه
فحل
##اتا
مستحب
انظروا
موحدة
عفو
للتجارة
إسرائيل،
فذهبت
فيقع
أبوك
ويرفع
##شهدوا
وجواب
لقال
استفهام
مدبر
لبد
الحوت
الكاذ
ضمانه
منعت
القريبة
وصفة
##وائح
ورجاله
##تدي
تقنية
الضب
واستن
ميزان
يرجو
الشطر
تفضيل
والبيان
الكوكب
فتب
تنقل
عشائر
رغب
غرف
بنص
كاب
تنكح
قلوبكم
تعتد
منازلهم
لامرأته
وافر
الحرج
بعدها،
سابقة
فدا
راكب
المضارع
المشترى
المقدر
وأخت
تزول
والتاريخ
تقف
الإنشاء
##جزه
بالقضاء
مخرمة
##ولو
القطن
الزر
لاشت
وأهم
##صبة
والسبب
وقي
فضحك
يضيع
##طعم
وقفا
وصرف
الجارود
لأجله
والرس
الفني
##سنى
ثقيف
لوجوب
##باعد
وإنك
يقابل
المشرو
يصعد
يمتد
قاضيا
اربع
فحمد
السكوت
الخراساني
بود
##ذرة
أود
أنج
طبقا
أسم
محافظ
وعندي
صنا
ضح
وعام
ليوم
اعتكاف
مخزوم
ضرار
نقاط
خالدين
وأولئك
##برع
يفرض
طبيعية
##قدس
##فقين
ستون
يديك
مطيع
الحث
الحرك
منظور
بولد
##حيه
##رونا
بريد
##ستون
ويضع
الباقية
يديه،
قرض
##متك
موارد
بالعيب
العينين
الرقم
اتفقا
الثلاثين
تقط
قان
النعل
حياتها
أكابر
بالقلب
##ونسي
الحواري
وسوف
##يسة
راء
##وعظ
حائض
يستقيم
يحقق
نصح
##ريخ
المركزي
##وري،
يرتبط
أره
##درة
علمي
بسنة
بقتله
##وجهة
أخرجها
فيجعل
حجرا
معدان
العشرين،
صهيب
للاحت
الذراع
مفتوح
مقيما
الجنان
مظهر
ملاحظة
والواجب
نر
اقتضى
درو
النمط
حاك
سئ
بالقبض
الزا
بسببه
##كها
##كشاف
متلازمة
##جرت
والتخ
الإنصاف
المواطنين
بأول
يقود
العصمة
مخلص
ورجال
باليمين
تنتقل
اليماني
يبغض
البلخي
الاتصالات
حكمت
أسلموا
جلي
##ماثل
الروسي
##اهير
توقع
نصفين
لبون
مميز
##طيعة
كالغ
بإجماع
يوسف،
لجه
##لمين
الأطل
فتاة
وأعط
زماننا
##فول
ومسح
تولوا
ويقت
أبيك
فهمه
النصيحة
الطوسي
مساء
معص
القطعة
بدرهم
المزي
اشتغل
لمسا
##شيته
بقراءة
رفيع
يعلق
فلعل
فالش
التيار
أفواه
بكرا
رآها
راية
القراض
بامرأة
زهر
##ديين
لازمة
النقاد
كالا
##نجاء
خمرا
بعوض
باج
بالجز
فمنها
ويسأل
تربية
جاد
التخلص
المتوقع
بدله
##زلها
تحيض
كجزء
##ويلات
النمسا
يتأخر
والقضاء
بالصبر
الأحنف
يسمون
التاجر
رواحة
تدعون
##ظالم
وترى
##كسه
وبنت
المسكين
وصفها
دوام
بطال
حذا
استطعت
##دس
وطول
لبا
ممر
##يدته
وأموالهم
امتداد
##ياسي
والغنم
وقاله
نقلها
نقيض
ملف
ميدان
##سرة
نات
##يخ
الاعتدال
والخص
والأحاديث
##موه
المرش
مستمر
وكسرها
##ساعة
تاء
##در،
يؤم
تشاء
المناه
##قارنة
وحديثه
أصحهما
واذكر
البصريين
اختياره
##ليان
ينكح
##ارد
للشي
والعالم
##هاه
بسوء
الجريمة
عمود
عيبا
مكتوبة
واحتجوا
يطع
الجسر
بذات
الحماية
مساف
الأندلسي
##بائي
المبنى
للخط
يشتغل
ورسله
##رجاع
قولهما
والدارمي
إطعام
القبط
##فتان
وجعلها
أمكنه
طرأ
كانتا
##سكي
سنين،
جوه
فصول
كاست
الهرم
بذاك
##ذرا
##لاصة
##روية
موطن
صعصعة
##صمة
التزم
لتك
نسخت
أمم
##ماء،
لبي
الحلية
هزم
البحت
يفتي
##صيص
الدموية
الذاكرة
ويليام
تنزيل
بوص
والجمهور
نفيه
قمر
يدين
تساعد
##رحه
والدها
حسبما
مبادئ
القسامة
البرتغ
يتغ
السلطنة
ببلاد
النسيان
حافظا
خلد
مبن
يومنا
المستقب
كرامة
##ادير
##آه
##بيرات
الطيبة
آمر
اخرى
ولين
والخير
رئيسية
واضحا
شائع
##احات
دفعا
##لاله
يوضح
أحس
الباحثين
أضيف
قلم
##سيه
بلق
الرقي
تأت
اليونان
##غله
الملقب
النقاش
كونهم
الصحيفة
تجتمع
المنهي
خلقكم
##مائم
محرك
ونساء
الغلط
الالتزام
لاع
التحفة
ديوانه
المسعودي
يقاتلون
قرطبة
المراس
رضاه
##لندي
وكبر
##فعوا
بطلاق
مطلقا،
عائذ
يقدح
بواحدة
عزي
##ماج
التهمة
عائشة،
##ضاة
فتلك
العقوبات
العدول
للجمع
فأصبحت
اللزوم
المجلة
##عهم
والحيوان
مكاتب
##ناء،
صندوق
يكفيه
يفقه
زمانا
السمعاني
رابطة
بديل
تبيع
والعامل
التجربة
الطهور
بدور
أمرني
تعبدون
آتا
غام
الإمارة
تخفي
قطب
وبدأت
يبيعه
ويحب
المعادن
دح
الغريم
بإسلام
ترتبط
##يمه
طالبا
غش
أشك
القديس
##ورا،
الصنعاني
تسي
##فاعي
المحذوف
واسطة
الرسوم
أمره،
##وفون
الممثل
سحب
وقيام
المنص
خري
ضخم
ووجود
الفائ
وفهم
##مرقند
##طفان
والفض
لمكان
##برهان
حسنات
جاره
التقا
المستشفى
السلفي
ووث
الواجبات
رهط
سلمت
والتج
فقدت
تحريمه
##سة،
يتهم
ظنا
##وخي
فتوى
مفه
أسل
تضمنت
##طاة
بالتخفيف
العامري
مغفرة
الصادر
الانس
القربة
يسوغ
اغتسل
ولسان
ثلثه
ذنبا
القانوني
واليا
فصاعدا
##اتيح
والشهادة
المرتفع
##تلوا
والشراب
والاقتصاد
بحفظ
عداوة
##رتبة
الباب،
حلب،
حوا
وسبح
جلود
أسب
فعد
##ضراب
##قرة
ووافقه
لحسن
والكذب
لزوجها
واستع
الميد
##سرا
بالدعاء
أرت
اللهو
الاضط
رسمية
تكثر
نيو
لاقت
الخلق،
رياح
لاحت
حرمه
بالرجل
شهور
لتم
مقطوع
مشر
##خوة
وقالا
وظهور
إياكم
أفصح
كوريا
لمصلحة
##جي،
عبادته
لعمرو
##ئذان
حنطة
نيك
الجرير
الأدبية
اللبنانية
##دمة
العقائد
##كرت
لتت
الأثرم
والعلوم
وأدخل
معين،
العيوب
قرآنا
أفرد
المجاهد
خذوا
غاف
كابن
##شان
الشم
أزيد
وخرجت
سنوات،
##ولان
أتبع
المفض
ذاتها
##طان،
مؤخر
الشعير
ملء
وأخذوا
المكس
الرغ
##والد
صاحبي
العافية
مسعود،
العاصي
خاصة،
وشارك
بصحيح
الفاحشة
##ضن
##اعدي
فاسدة
فراشه
غلبت
خبز
بعذاب
رجح
محدد
بحاجة
بقولهم
التفاعل
وطلحة
تحالف
مؤمنة
##رعة
أستا
ببيان
وأقيم
##طرق
المخصوص
الملأ
##قصان
غيرها،
جهم
الإمساك
سبط
الكفرة
صحا
مراجعة
الظلمات
تاما
يغضب
##راوي
ثناء
يشد
المحام
بصوت
المنية
الواسع
وكذا،
فيصلي
موه
بنك
الواعظ
التقنية
الخولاني
قمة
الهن
جريمة
العزل
النائم
الاقتصار
الضلالة
يؤمنوا
##زمي
خديج
كوس
##همال
ولدي
##زمت
اختلافا
فنه
مناد
المنورة
تقصير
نافلة
ببط
بالقر
وأكرم
##صحابة
موضعا
تيمم
فزع
بعتك
##فاعه
وحسنه
القم
الدمع
##لواح
وحمله
فرقا
بالأصل
خاطب
المذكر
المتكلمين
والزكاة
الهادئ
إحداث
الشروع
فألق
مؤخرا
السليم
تقلب
عرفنا
إسماعيل،
الفراق
قدس
بالدي
الأرضية
تقوى
أعمالكم
هلكت
جشم
الوصايا
##ضيات
##شيش
والمسلمين
شاس
والحرام
أتاك
##هزاء
##سار
##وثيق
المظلوم
##ياك
تعز
التجاري
الاستغفار
ضخمة
الأمريك
أخذنا
عرفات
كسبت
طالت
وفل
وفارق
شيئين
أفلام
ضاع
والضرب
فقمت
أدم
حفي
لامت
##سس
أوراق
الحسيني
والطلاق
الاصحاب
المتق
طراز
ففر
##قهم
الإيطالية
استثنى
روز
مقدما
موعد
الهام
الداء
##ويب
##دايا
جماعات
يجده
كاذب
الأوكر
##نافس
التتار
فبينا
ويسم
ولزم
ظه
الجنون
##بوح
ويقدم
صرت
النفر
ومخ
##وفاء
ويسن
##قاني
القلق
فأرس
المصابين
أشهر،
والمي
##ادتها
تقم
يشغل
أقبح
الغفاري
##نائع
يحدد
##وذا
مشابهة
الشيوعي
##ندب
تحق
الصانع
فرضه
حبيش
مطا
##رف،
يتعا
أبين
كغ
الثم
##زيين
مولود
براء
الأعا
تستحق
يخلص
أكم
##اريا
ونتيجة
مكية
ثامن
سرت
القاص
وهبت
##داول
أدوات
للذ
الدبر
مولاي
مقبولة
##ئيل
##معاء
وسجد
مثلهم
همد
بدنة
المند
بالعربية
أثنى
لأسباب
##بطت
سينا
شفعة
##يته،
الختان
يزاد
وغسل
صعوبة
عميرة
موضعها
بآياتنا
يسرق
الفضيل
محدودة
هرمز
فيبقى
السهل
البركات
فذ
##طراف
يقعد
طبعة
أصبهان
بالقوة
الاشتغال
إزال
والموا
حسنه
وخطب
البخت
النهائية
العاط
وكلمة
التصنيف
والجهاد
التعظيم
زوجا
تقويم
قباء
##رك،
قولكم
الضاد
##ابرة
رأسه،
قريش،
مهي
ارتباط
استقلال
فالواجب
بخمسة
،و
##صته
اليأس
مولاهم
العزيز،
سموا
الاغ
الليبر
##شيح
بوت
الجدل
كمل
الصيني
اعتمادا
##راعى
يدفن
بالنية
القمح
وضمن
##ولف
حلفت
للفقراء
##فلسفة
الضرائب
العاملة
ألست
تنعقد
بالتن
صخرة
لظهور
والضحاك
ثمار
الدخل
المنط
وعليك
لال
جنبه
ابتغاء
عقبه
اعمل
وبنات
المصن
بائ
تضي
ومعاوية
واعلموا
الزن
الاختبار
المولد
حقيقي
بأح
نزار
الأوائل
التفاوت
تعجل
تنك
وتعرف
خصي
نضرة
هني
المناسك
##لاتين
والخمس
الإيطالي
يجدوا
يأتين
الجماهير
طولا
##مئ
الذال
يستحقه
##رتيب
الره
الزيلعي
اليسر
أعتقه
وأنشدني
##رباب
يده،
غافر
تلفت
يتبعه
فسألته
الوعي
ونفي
والأدب
يكسر
ببيت
وتبين
الطاعون
الجزر
والبل
للمتق
##اقات
الميز
أمسى
ويؤيد
فبعض
ندري
النافلة
الاستي
شيوخه
##وايته
العتيق
الحز
أمركم
المتصل
يبصر
الفرح
وأرج
والبيع
نماذج
تجنب
داخلة
فحدثني
المفلس
##بوي
##ميزان
بلدان
واشتغل
بجه
تراجع
كان،
##ازن
يار
##ذنت
العقب
البخل
المفسرون
ليف
بسهولة
الوقود
مزاحم
ألح
الحكاية
بالعد
مراقبة
أنشده
منفصل
الروس
أكلها
والفساد
وكلها
##قييد
المتحف
تتغير
واليد
خطبته
التحول
مرتبطة
##بيوتر
حياتهم
##يف،
بقت
الميلادي
##اتحة
الرحل
حائل
ضرو
الأهواء
المقاصد
المحققين
نيسابور
يبنى
ويبدو
ينشد
الآلة
أهمها
السبق
ولأبي
والبيت
يستقر
وشعبة
وسمى
فليقل
##فاعلات
##زالي
انض
فاعلا
##بهم
##عنبي
لؤي
التمويل
بخر
تلقي
مواليد
الإسنوي
بدخول
##سق
ضياء
##يتاء
البيئية
الداعية
ببا
يعاني
وسألت
رئيسي
##راسية
الطال
درست
##فلت
##هاره
##طيء
بقراء
##وكول
وللأ
العيدين
والباطل
##امها
المستمر
إجمالي
##يلي
##همان
التوجيه
بعرض
الاستيلاء
إيراد
فجل
الزنج
قبلنا
للأمر
الألباب
التعزير
مثلا،
الأستر
الأصناف
تفقه
قعود
يبط
وغر
الخيال
موالي
قومهم
مساكن
أصر
##قوبة
والهاء
رقبته
شكا
نداء
مازن
أسرى
##تهم،
##جزأ
تموز
لبر
مارك
##نفقة
واللغة
والإنس
والفي
والكفر
المبد
تدمير
##سما
تركيز
الشوق
بعدة
المنصب
انعقاد
##ستين
الواجبة
وصيته
التعدي
##غرافية
الأرش
أشجار
مكانة
فحص
لاحد
لمش
بصيرا
##بابات
أمريكية
فتقدم
ساقه
النهى
##ذهبي
بعيرا
وقيس
استعداد
وشد
##ذاكر
كز
مزي
##ويرية
ويقيم
يهودية
جهات
##مدة
الحصى
##ذكور
التامة
موظ
بالدم
شج
الاث
مصل
الصب
وإنها
الزائدة
استر
اللذان
##واحش
فكت
خصمه
الهيكل
وارد
##شور
##هبان
للأطفال
المالي
##رائد
يبن
قيصر
##شر،
تخصص
للفن
الاستسقاء
الأشعة
سراج
المحمد
الخلو
ينشأ
##ونين
##قل،
أسوة
أثبته
مشروعية
يهتم
نحوا
##موت
المقيد
صعيد
الغروب
الغفلة
##وريوس
سلالة
##طيب
صير
نقط
المدخل
بأنواع
مقعد
الخمسين
##ضيه
تسير
أخذته
شفاعة
##حالة
خزاعة
فافت
الغاف
قرون
بالقيمة
وأمرهم
إلقاء
لفعل
توافق
صيدا
الوجد
##ليقة
خائ
وتلا
فأعلم
محلا
ورحمته
أحواله
قررت
وقرأت
يعجب
ضررا
الراشدين
سرعان
علمهم
المصاب
##رائق
##فوذ
عسر
الغبار
مضافا
ملع
بكاء
ونسبه
البروتستانت
ضلالة
منفصلة
والآن
##شاش
والرحمة
##لكات
التعليمية
الخلوة
حنيف
المتأ
فسدت
الكريم،
ترتفع
والمكان
وسبعون
البالغة
بيا
رأسا
الضأن
زمعة
مواقف
##ارتفاع
فبعد
والخوف
بوقت
##نادق
ما،
أبطل
علمتم
تتزوج
تدريج
##برات
والخلاف
يضمنه
نقدا
فها
حديقة
أفق
المختص
نسيت
##ذبهم
النجس
ويكفي
القير
##عدية
والإجماع
لقيه
أقت
سكون
للحد
مالية
أودع
للفر
والمساكين
بدفع
أجنبية
لعباده
قلوبنا
مسكينا
الكاثوليك
شير
فراق
##كارا
##امة،
##نى،
أخبرت
الراحة
مطالبة
كفره
ذيل
##سملة
لحصول
مختلفة،
فضربه
الاكتفاء
##ألتين
الأوامر
تول
مائتين
تعجيل
عارفا
حجه
أله
الأصيل
الفخذ
فوجدت
الحيرة
##دارات
##فعلت
وأشباه
##ستان،
وأرس
الضروري
مؤنة
الاحتياط
الهدية
##متم
واذا
يسيرة
وصاح
هنا،
##داوي
##ذبية
والقلب
الاستعمار
بالقوي
الأعم
##عيفة
تحريك
##لوهية
مؤكدة
بالزنا
أنبي
القرعة
##عاذ
بنفسه،
يوحنا
وقرب
مشددة
##عارف
ممثل
يوحى
##يج
يتب
ترتب
غربي
وتركه
فرجعت
##خرون
الدرجات
يبلغه
الملو
الباقين
الحوا
يلقي
مواز
وكشف
بالعمرة
ينفقون
الخواص
المجوس
يقاس
صادقين
عقر
أبحاث
جودة
الكنز
والمخ
ذكرى
الآحاد
##بينه
##طفاء
##مائر
##ياطي
آراء
الإرهاب
والزهري
كيلا
##ابيح
##هلة
##يسية
خالصا
المخبر
مليح
اليتامى
شذرات
آذان
جاب
المعقود
حمض
ملكة
الماز
زد
أصدرت
نسم
ولادة
مقصور
وتحقيق
يسألون
أسوأ
الغرر
إتيان
وسبق
فهلا
ساجدا
القبيح
ولاة
الغراب
أعمار
تعدى
بجر
المرق
كتابته
اثنتي
##شكيل
يضحك
أنزله
الروماني
واقف
ونقول
أوامر
الفائق
وإثبات
التت
القعود
كسبه
بوض
وقتلوا
أثار
شوبري
يجزي
الغابة
##اقه
سيوف
صحتها
##ءوا
##غات
مسار
وماذا
أقدر
الجري
للحاجة
##لقين
الغداة
عفي
أبطال
تخالف
السكنى
وقصر
ثنائي
تنزي
##جابي
بلالا
المنير
الهجري
فمعنى
##قدا
##طاكية
يأخذون
##طلبات
##رونات
استأ
المعقول
خالدا
الكرامة
الحارث،
كوا
المواقف
والخلف
تقليل
المشهد
التعديل
المجالات
فداء
##زات
##بوأ
جيوش
المثبت
الدنانير
وقدره
مملك
التقليدي
عقده
بحا
##عجل
##رضوا
بأداء
مطلب
أبويه
القدرية
والآية
رمل
الجعل
أشت
نؤمن
وعا
أسهل
والآثار
ريش
فون
##سبت
##وكالة
المغرب،
شاعرا
لحن
وطب
مكافحة
المطلوبة
##فيته
الفيزي
جمعها
تسكن
جماعة،
المقدام
توب
للقضاء
##شراف
البصرة،
ووكي
بالنا
الأصولي
الفضيلة
مؤسس
خبيث
إنجاز
طاهرا
مطي
وعاء
##لفها
لدراسة
ارتفعت
##دتك
الاعلى
النمر
لمت
جيشا
الشبهات
ويكنى
وحكاه
سقى
أسباط
##شدد
كولوم
كراء
التهديد
الحلول
ولأنها
وناقة
الجراد
الثرى
ويصير
للعامل
أصابته
الرضى
##ضاوي
فلأنه
والألف
الألمان
ويدعو
الوثائق
ركعتي
عارف
ذكرهما
والكثير
الكهرباء
مركبة
بلسانه
الصخرة
##متنع
حاضت
ناقص
##خيم
تخبر
حروب
الأقر
لأغ
مفسدة
##خلل
والتب
يشكر
بيوتهم
##ساة
ديارهم
الثمانية
##غرة
والأز
والأعمال
فباع
المحظ
المساقاة
##وقها
##غلظ
للجد
الزاد
الفيديو
اليمن،
سواها
دهر
الذرية
يوجه
معصوم
الجودة
يقلب
والأقرب
أزمة
##ضلة
عقدت
الإيرانية
##شيط
اك
أشراف
الورع
نسبته
الهوية
واليمين
بناه
يود
للنس
جازت
الفناء
فلب
##زعا
##ينك
بالغة
##برس
الإشكال
يحس
اسكت
يشعرون
حفل
تأثر
بالقراءة
صباحا
هذيل
اذكر
##رضة
وصوله
طلاقها
حصار
خليلا
داف
معرب
ولانه
الاستقرار
اشتراك
ولحق
والمجر
الحرص
أخشى
تبكي
لوز
هوا
الحديثين
تنقضي
غرق
فاء
وفسر
ماد
فبكى
##ابس
وكلم
والأوزاعي
كالب
عملي
التعرف
مبنيا
صوابه
عابد
بيئة
فزعم
##موها
كالبيع
حرث
إضافية
فأمسك
متفرقة
التعم
وبع
شعائر
فعيل
اول
قع
وأولا
الرفق
الفج
خن
وبسط
استيقظ
الخبرة
##مائي
الحذف
أرحم
الأغنياء
العادية
وسطه
وباقي
والمشرك
الحلفاء
فبان
ذهبوا
طائرات
الجميلة
درع
مالها
المكنون
والأكثر
الرياضيات
الرياء
وسألته
النضير
البرج
الأبناء
سيدها
بمحذوف
بالغا
لبناء
الملابس
##وكيد
##قابلة
ديفيد
شريكا
مفردا
##انته
##بدوا
بهيمة
الديانة
آدمي
رطب
##كوا
##ماش
المزارع
بالتحريك
ونائ
##مانه
أكتب
وقضية
وأض
يستأذن
اتق
يتخ
الزخرف
محبوب
اتخذت
بولندا
مهت
الإلكترونية
وهار
الأنشطة
##بينات
وعليهم
نوره
يراجع
##ائعة
مسير
الآيتين
سفن
صواب
يطل
فيق
تقيم
##قاض
البحري
وتصرف
المنتج
اشته
##شركين
تسل
بالشفعة
وشق
وروح
استجابة
ثقافة
طرفا
غياب
نيسان
سيطرة
أنشدنا
والقسم
مسقط
##وحدة
الصادقين
الصافات
مسلك
##شارا
المنهال
جاري
وود
المقبرة
إرس
قالوه
كالد
اليومية
الإزار
تركي
الرقاب
##اليه
المقابلة
عامين
رص
##بلدة
وفرض
ونظرا
الثور
مجي
نصابا
##تقان
##طمأن
##جدة
لعلاج
شمالا
واشتد
بمرض
رابعا
##قتان
يتمثل
##يتون
##وقات
فصلوا
##وموا
##ظره
بأل
جاءك
يخفف
السرخ
الحرس
المائية
الزبيري
وفتحها
والريا
تدريس
السفلى
##لمانية
العطش
أدخلت
صفقة
سرد
مبتد
يرجح
إننا
تغطي
##خذا
الجواد
الهمز
هض
##على
فهنا
لأمه
يلتزم
للبخاري
الطراز
وإل
عداه
أحاط
والقتل
أقطع
##بوية
بهرام
والأف
سعادة
قطني
مقدرة
عضد
الشؤون
العدوى
اليابانية
والتاء
المحرمة
التقصير
ومنت
##طبيق
والشافع
##كهة
معتب
##طاول
جلدة
كالث
نجح
##طفة
فتحها
بالاعت
##طالة
خباب
كتبا
دستور
حسام
ويصل
فتأ
حال،
المتعددة
المجمل
الخيرية
مقل
والعي
##بدة
ونش
وصى
يشاهد
الموضعين
القسطنطينية
الحجرات
توج
والفا
السهام
الآراء
وضح
البطلان
يتوقع
فلأ
بتف
شعير
##كروه
هيهات
وأصلها
الإيلاء
الفلاني
وملائكته
إخراجه
زجر
توصل
للمتقين
وسنن
يتحول
جدع
الصم
ظاهرها
دابته
أجبر
الأمهات
بالغيب
المصرف
والصوم
الميثاق
يوصل
وضا
حتي
رقي
##لئ
ولبن
بمد
الدم،
تغني
الأجير
الارتفاع
توماس
سمت
عسكري
خالصة
إمساك
واحدا،
ويحكم
قدح
المازني
يقات
مسد
استقرار
والتمر
يطلقها
جبه
هوازن
شوك
فرائض
راجعا
رقيقا
المبدأ
والطب
أقوم
الجرائم
فرف
قطعها
الصار
يخالفه
أراده
الاستثمار
##فلحون
خزائن
بوز
نكون
##ستا
يسلك
عهدا
##كلها
##بتان
بالأول
فجاءه
عظمة
تحولت
اجتماعية
التعلق
##حلال
الخانية
تحصي
والبقر
نخلة
فافهم
يأتيهم
السماح
تشارلز
##ونه،
##ضاها
المجرمين
حقيقية
لقتال
##جله
بطرس
قصدا
كبرى
أرجح
##بهت
معق
وصحح
##روسيا
لإس
فالأولى
المركبات
وهب،
وبالت
ذب
الرصاص
أحرف
يحكي
قود
وأصح
##لافه
تحسب
يركع
يقيد
##طاعت
زكاته
الحسين،
وري
سالما
شرو
##ديقه
الصيرفي
انتشرت
##ضحة
مقالات
بصيرة
وبالر
والتقوى
##جتهم
شكرا
يحرك
##ييس
قتلا
نائبا
رواة
بوش
تهم
ثمامة
عقول
##احبة
بطوله
حاطب
دافع
يتس
أحسب
وأمها
##هاهم
الاي
الخبر،
لدينا
والعدل
الحوار
الناقد
فتوضأ
القتيل
فأدخل
الناظم
استطعتم
تختص
عرس
معطوفة
##وحد
والكا
الكبير،
ضحى
الأشكال
مرتفعة
تلي
##زيم
القه
أكثرها
الأخوة
الندب
بإمكان
تسليمه
##وود
تحتمل
فكبر
عنهما،
##خلي
المنى
الورقة
الفردية
##راتهم
واتباع
استخدامه
فهى
المؤقت
##ثوا
الرئا
##طا،
يأتوا
السبعين
لزوجته
داري
قراب
مماليك
المحض
سرى
أخاك
الأثرية
والمز
ليقول
##هلال
##لسوف
النهضة
ونظيره
عرج
والصح
ودل
التصوف
الإجمال
فأخبرته
آلات
##برق
الجوار
عقدا
الطيبات
مختلفين
سماها
الوسيط
التفضيل
##خلال
فالس
وضو
بغيرها
يشترك
المؤرخين
المشروط
عددها
تطوعا
الصائغ
قاف
الكرب
معتمر
جلوس
##صميم
عشرة،
بواحد
السوا
فترات
المصيبة
الرابطة
الموالي
أساسية
يملأ
وقومه
وأجر
التعب
يخطر
عشرات
مائت
وعشرة
الأزد
صدورهم
جوفه
الصليب
والقاسم
المصلين
الرباط
الكبري
بالمغرب
وتقوم
الحيل
سنته
يدركه
سقف
بالرد
وحفص
فللم
وحش
المكارم
الأبرار
البلدية
بمعروف
موصوف
يوص
عدنان
يراها
أند
مجا
المستثنى
المضادة
##ورون
خيره
التنفي
عظيم،
مبيع
عذرا
بسلام
يسوع
لإنتاج
الرش
مدريد
فالتفت
##نادا
الدكتوراه
قلي
جلده
##سعى
لنفسك
صيغ
##هملة
تنسب
تدبر
##فح
اللقطة
واليهود
العروس
فعم
##اليا
بالقسط
الركوب
الأحق
الذباب
##وفيت
تهد
صعود
الهات
بالخروج
توقيع
مملوكا
##صلها
القاهر
##أيها
جهر
جرد
غناء
يوقع
أنفع
صبيح
ضبطه
الحادية
تغتسل
والكتابة
ايام
برح
ثانيه
استعم
الضفة
بينت
والقوة
##فاذ
وحبس
##سرون
مايكل
ولحم
الحليم
القزو
يغيب
فنف
مكتوم
موصولة
وأفاد
ركبتيه
خفية
سرج
بتم
حلا
المبتد
الأزل
الغمام
لدلالة
تقدمه
ولج
والصدقة
فجعلوا
الإحص
داخلا
وذات
ومقا
سكوت
أأ
##يون
خصم
تبرع
عبدالملك
آدم،
القارة
ماله،
رقعة
نواس
سمن
الحور
أيوب،
واعتبر
خلقها
الخضراء
##فعا
والنخ
بديع
ووجوب
أباح
ابتاع
الحديدية
بأمور
الصباغ
والحساب
##قوس
لمثل
وعدا
الجوامع
عصام
لعد
الطحا
عنبسة
الشهور
##ائره
المملو
أكسيد
وانتهى
بالدخول
تواجه
الجوانب
ويكتب
يؤول
ويغفر
##يوم
وعض
مسه
تشريع
خلاصة
يتبعون
والشرط
العاقبة
التثنية
وأني
البلاغ
ينتقض
تنص
##جهيز
أطال
اللقب
كبيرة،
أصابهم
الموصول
فيرد
الفط
المترجم
##صفور
##ائلته
حصوله
والعقاب
الاستمتاع
أردنا
الفضلاء
تجارية
##حدد
ويقدر
يأخذها
اللباب
التوقف
وتنت
المعطوف
عمدة
أولا،
فنادى
##نكم
الغفور
أبل
##وبين
رآني
بالخبر
فام
##زيارة
قلق
وإعادة
الثقيلة
موتها
بمساعدة
المنثور
يفرغ
##شفيات
الخلاء
امرأتي
القزاز
للسنة
خليج
الول
وزراء
بجوار
ساقطة
لعمري
القفال
تخلي
الانتخاب
تظن
بالكذب
مظنة
نسا
سهوا
لحقه
محدثا
الراغب
##رامية
تخلو
والمط
##دينا
درب
العمامة
الشاط
##راهين
عامر،
الأرمن
مارت
##ويح
لتصبح
لعائشة
ارفع
سبرة
أحدنا
وخاف
المقابر
كأبي
جبير،
أنسا
يجهل
ملكهم
المرهون
النصرانية
الاخبار
ومقت
الإرسال
يحبون
جوائز
نواه
المان
التمسك
بلغوا
المقالات
الاستبراء
المشيئة
##ائية،
وصحيح
والشراء
صحح
وحكمه
للقيام
تكذب
أهله،
سفرا
بوجهه
أرفع
المطا
الأعور
البيهقى
##ويله
وبلاد
المستعم
النشر
الفعال
المنتهى
نصلي
ومرا
تفضل
بنس
المعهود
بأق
التكاليف
فوصل
الهما
الحظر
وأدرك
محكم
سيئ
وخمسون
يلاحظ
##قدمه
فمكث
أسمائه
الجمرة
بالانت
ورزق
أحوالهم
صنيع
الموظ
الاصطلاح
سياس
بندار
أعلمه
الجماعة،
يخافون
لعبت
نعمه
شخصيات
ليبيا
البصير
فأحب
مثلك
بجنا
الحربية
والطيب
وستون
##ضره
الناتجة
القصور
##بوهم
للبيع
المواطن
خدمته
إنش
بالباء
لمجرد
صوف
فورا
رسوم
محار
##ضرع
بخي
واستمرت
الثلاثي
الإدارية
##لاميذ
موط
##غرس
أثرا
خلفهم
غنيمة
الزيتون
سماعا
لكانت
وامتنع
داني
يمارس
يخط
وكلهم
أزال
بأيديهم
المخر
السرطان
##خرية
##عتان
فيلزمه
مصير
انتخاب
وغيرهما،
بسبع
فشهد
ونحوهم
لدعم
الفرسان
##لأ
لنقل
ونز
ثمود
تأثيرا
للحرب
يعجل
##ويته
حنيفة،
القصيرة
التجمع
أخلا
النيابة
بشي
المهنية
بالبينة
الغابات
##ريبية
أعمل
تعلموا
يمل
للنفس
الأمور،
الأذكار
الواهب
والحياة
السلطانية
لإي
أفس
يلا
فأش
الاعتداء
مصدق
الأوط
فلعله
جاءنا
الكرخي
افتت
ورع
بينهم،
الفتاة
##راجعه
والدنيا
أسبو
هادي
وأقرب
الصناعات
مراب
##وهما
خوارزم
يبس
##حج
للقرية
حديثة
يخطئ
رؤوسهم
فلست
وأمثاله
مرضى
ذهن
سحاب
قاعة
##خها
فيقت
محبته
يطلبون
رين
فلهم
بعمر
الهجر
خطط
##ترا
فعمل
بسيطة
محس
البرقاني
حق،
مخير
يجعلون
عاقلا
للسلطان
متقدم
باقيا
لانتفاء
الدنمارك
صراع
لطف
أخيك
ملعب
للكافرين
والروم
تجزئ
الأشجعي
الروم،
لامرأة
شين
العيني
الإنساني
فيحرم
بالحاء
أسابيع
##دامة
الدافع
##قاليم
يجوز،
المسؤول
منخفضة
السواك
##عايتين
وذكروا
ويفعل
فلابد
تحدد
ارتكاب
##ودان
الفيروس
الشهيرة
جمعوا
دواب
المهي
والفس
##ورغ
لحماية
بأسماء
شؤون
وموضع
العقلي
طولها
##وها،
فيقوم
تخف
محرز
أهد
يفع
##تمن
الردى
بعشر
التناقض
وقضي
مالكه
والمعرفة
وأقره
##طر،
حجب
طبيع
##شوف
##ثت
##لالا
عرضها
بالشك
بالحر
فاش
##جهول
عربيا
حو
##رور
الثانى
للجميع
رومان
التفرق
##طي،
المعتقد
زراعة
غريبة
القعنبي
الدائمة
طلبة
الهامة
المصدق
السقوط
##نبوا
حلية
##انيد
مجلدات
الخطة
مروا
الضعيفة
الأنساب
الإجراءات
الإجمالي
اين
والليلة
وأيام
إلياس
يغت
بدرجة
أدخله
تشغيل
البصري،
ويسقط
اعتقال
وغلب
دخولها
كريمة
عنوة
لعمل
سبقه
بالعقل
تلحق
تعيينه
السختي
ملكية
تبعد
زيادته
قتيلا
بنفي
بالشر
##احظ
بحوالي
إضمار
ستمائة
والشعير
السرى
ومآ
الحرام،
ريتشارد
فملك
غدر
للبن
##اصلة
##ماعه
والعرض
علوا
مراس
##نتم
لحفظ
رعا
مكا
والخروج
بالنساء
الجوف
بينهن
رأسك
لإعادة
ورح
وبات
إسلامية
الجائزة
والنصر
المستعير
لقلة
ويحصل
يمكنها
##مداد
للأرض
##باعية
شجا
الأحرار
حاولت
##وفاة
القليلة
الكات
بالأمس
الملل
ارتكب
التأليف
بالجر
فقولوا
مسكن
الترم
##ومون
##عيض
فرص
اليهود،
الاستيعاب
سجوده
ترضى
وجهه،
الجراحة
السني
##اهي
الغلو
ضمنها
##نازير
بعمرة
رواها
تشتمل
##ناه،
نفخ
باعها
دقة
رواته
وأموال
الكتلة
خالص
الخطب
وبالع
ومز
فأوحى
أولو
بإعادة
فسجد
فيأ
والزيادة
##قره
##تمرات
تعليقا
شربت
وتفقه
مثاله
##هباء
إمامة
حجته
إر
وطعام
الظاهرية
المبكرة
ووجدت
فأجاز
أمد
الآلات
للعا
لموا
متفر
##وبيخ
والهر
للحا
شاءت
##وايا
ومعظم
الأنصاري،
##طعات
موجبا
وضي
للجيش
يتحمل
##وزون
بسا
واستعمل
المدير
مغا
وأعاد
ضروري
العابد
بالإس
الأقارب
عنت
ببلد
##مش
##بهات
##ديته
فالتق
ميلاد
شملت
ملابس
والروح
والسنة،
نادرا
عير
للانت
تتمة
عجائب
##وفت
يسهل
الإخراج
##ميزا
الخيط
##ها؟
وأدى
كفل
الغفار
المحرك
##لم،
##ياق
صائما
يطيق
نفعه
وسهل
الغزل
شهادتهم
تهديد
الكذاب
المكتوب
علاق
يظل
##قاف
وأكبر
الشرا
فاكت
تشخيص
يوفر
الموسيقية
فيحمل
تدفق
عبارته
##رته
نجران
الحذر
الثبوت
يتضح
ونظم
جوي
فمضى
##وسيقي
احفظ
##طأت
رسمي
##رقه
بالتوبة
للحكومة
إعراب
هرقل
##هارته
مباحا
ألقي
المرافق
رون
مجمل
تغرب
بقيد
ذمي
فارج
وألق
##حدا
وبينهما
زائدا
##قلها
سرقة
متعدد
تلعب
دكين
ينح
##سلطة
عادل
##شرهم
لمنا
قرأها
وأعت
صحبته
الرماح
##قدان
والمسي
متكلم
الفردوس
حكام
رطل
##غوط
حاجي
بثلث
حواشي
الرعية
أقصر
الشريكين
الأمريكية،
وظلم
##تيج
الاستنجاء
يعلموا
نفلا
##غلبة
فاتقوا
المعدن
للما
ويقتل
##غيبة
حرص
رزقا
تتخذوا
مضمومة
تتنا
الغلاف
سرطان
فارسي
حرام،
حزيران
التوالي
للشيء
ومائت
أجزأ
سلمنا
للحاكم
##وبان
بأف
بالمست
خطه
وخدم
##صيته
فمثل
##عدة،
ونور
دخلها
شرقا
الدجى
أذنيه
رطبا
السلب
##واء،
سلطانا
تاريخية
النوادر
جرائم
فيب
بأنفسهم
ربعي
مات،
الإمام،
##وخة
مجالد
كمر
بنقل
وأرى
معمر،
النهار،
القبة
يريده
الرعب
يأثم
العائد
لقضاء
المحاسن
كميات
##غلال
الزاوية
المسير
ويدفع
آياتنا
احدهما
واخ
كتابنا
الجزائري
كشفت
ووقت
ادعاء
عارية
##طس
فأطلق
##قصاء
ريحا
ثنتين
صيف
ويضرب
لقومه
##لائد
جبهة
##دمات
أكثر،
صاحبكم
يسيل
النسك
للقوات
لاستخدام
والذى
خلافته
نكح
فظ
##بياض
ءامن
سني
فلله
مشيخة
##أنا
##غاث
##حميد
الكوفة،
تنكر
الجمحي
القوية
الإثنين
والملا
مشهورا
النصراني
ترو
لولده
فأدرك
بابها
الظواهر
أوان
بالأولى
ينتمي
طمع
كراع
حمده
##قراء
الثلج
الانقطاع
يضيق
##كلما
فوقهم
ميقات
فشرب
التكذيب
للدلالة
المكا
البستان
##ذيرا
غصن
للمص
ثلاثا،
سيرته
مفل
ولادته
هق
##ضير
يعذر
أبقى
ديننا
العصر،
ضحك
يأكله
ثبو
##اربها
اليها
قسمت
جهلا
مسرحية
جنين
يقتله
الانتصار
##ضائع
منبر
المعالجة
صلاها
إرادته
بنيه
السنية
##اريو
فكلما
صديقا
لنس
##مروا
واستخدام
لمعرفة
الإسباني
بفتحتين
فصد
الشاه
##قدوا
تقارير
تكبير
الاشتراكي
تاسع
##ودين
الذرة
الوظيفة
نصيبا
الوليد،
نزلنا
وفوق
مصري
واعترض
##ثات
بالعذاب
##انة،
السجد
أحوج
دونهم
التعجب
يربط
العاد
##وسيقى
مطال
صيانة
صبغ
بند
الرحال
لبسه
رحيما
يعلمها
انتظار
اكتسب
الآلاف
الخيانة
العربي،
لماذا؟
حرس
كير
داعي
المعظم
تنس
تشعر
أظنه
كرها
بالظاهر
معلقا
والطحاوي
خفف
المراه
##رداد
السعر
الخبث
أيديكم
##وانع
وبينك
المطبوعة
الشيء،
لوك
مملوكة
والشعبي
القرآنية
عجبت
الشفق
فتق
تنفذ
التمليك
فيض
##لايا
بالرك
انفص
استقام
فرسان
المجني
تمشي
الظاهري
##انيف
معايير
يعقلون
يستجيب
يصيبه
دائمة
التونسي
وإظهار
##طلعت
طرقه
ويوسف
القرم
محلة
مؤنث
فانته
صحف
هشام،
##غين
استجاب
وانتقل
متعلقا
فرانسيس
هولندا
بجد
يضي
##راقة
وأبد
ستا
الطعام،
التوسع
الدلو
احتلال
والفروع
##ستهم
بالمنا
كغيره
هين
##فوظة
ليتني
توبته
رميت
بشراء
الديلمي
ثبات
صانع
وبحلول
التنوين
يونس،
بدمشق،
القدماء
لربه
المفروضة
ترس
##لحاد
وبطل
##برك
إلي،
المدنيين
المبادرة
حلاوة
الإبهام
بإطلاق
والبصر
ويتبع
وفقه
جلست
إلحاق
الواسعة
المبادئ
أنبياء
الوص
بتد
##حتم
فتا
زوجتك
نزوله
يصلوا
جهالة
منذر
وحجة
حياء
مجته
بابل
الركاب
##ليفة،
بستان
الرقة
الفاط
##ياكل
انتشر
مبكر
وسلام
النافع
بأجرة
الشوارع
فناء
يبايع
القادة
البأس
##ذهان
اللين
أذنت
البعثة
الدعاة
غلظ
##أنس
عيناه
ممكنا
الجهالة
المركبة
لقل
للرك
الظالمون
الضحايا
للحال
الاستئناف
##شفة
الأوجه
النحاة
فليراجع
حملته
بأعلى
##ادف
ركوع
شرطة
ويمت
باتجاه
كيمي
للور
للماء
يعا
فتنا
برلين
وربك
وعليكم
نفل
هيكل
بكفر
فأعرض
مخصوصة
السينما
سات
نيف
##بارهم
اعتبرت
فادع
داعية
المبتاع
والخر
بالسر
بالمكان
صدري
البير
الأحول
والسين
العادات
الشائع
وعلا،
وبشكل
اختصار
تناوله
معجمه
فلينظر
منعها
باستمرار
الكميت
وخي
صلاتي
زور
المعارك
المحلى
بيديه
نجاحا
بالفارسية
معلقة
##خره
##جل،
فبد
##شخاص
وهرب
وزيرا
كمس
##رطب
تعدل
واشتهر
مانعا
##ريكا
التصحيح
وامرأ
بالمش
وكمال
وهارون
ظهرا
نفسها،
صوفي
المشاريع
الحكومات
خشبة
كائنا
يخير
التقارير
خلون
وصر
فيشت
المودة
السويس
بحاله
التقويم
قسما
لبيت
مطل
وزنه
حجج
صنعة
##طة،
بنور
الزجر
يشركون
سريعة
فجئت
وكيفية
حمي
##ذت
تقال
يعرفها
ليؤ
يومي
محاولات
تمتع
ثغر
##وتة
بأكم
المطبوع
##تلر
##ذع
ساع
بأنفس
سبعمائة
ادعت
وتصح
##نر
##دياد
وصلا
تفاصيل
تطي
الحواس
يشهدون
ويقبل
أكا
الأسماك
نصرة
اجل
نبوة
وقفه
فصاح
معروف،
شاذان
##ائيا
##بغى
محيي
إدوارد
ففى
##هدي
##نيان
##يبها
ظلمات
##رامات
##بعيد
المصي
عسكره
معجزة
أفاق
وفساد
وقلب
المتم
مجتهد
وترج
تقنيات
قيرا
المماثلة
##لمس
العبر
نهيت
جلا
زنج
شره
مشاريع
والخز
تفضي
التنفيذي
بيس
اللبس
##هم؛
متط
المزارعة
##ضعة
##انيها
##ضاءة
الانفراد
السكينة
يدفعه
هال
البذر
##سمها
عليه؛
بالمسجد
بصفات
والظلم
الجاري
والخامس
ووجب
أقم
والجار
دبليو
نسل
يور
منصوص
##تز
باغ
سيتم
البسط
تقديمه
ضخ
الشأم
تغيرت
المناعة
وثانيها
بدونه
تسميته
الموجبة
الرائحة
مدنية
ورضي
دعائه
القاضي،
طلبوا
الصناعي
مثالا
ردوا
لبابة
##حدون
للعلماء
التاريخي
المفروض
قاتله
الأواخر
##لمانيا
يتخلف
مقرا
الفعل،
أولادهم
شراح
الحمير
إنت
الثريا
يبالي
وظهرت
كالف
الخلل
تتمتع
فسمعت
ليأخذ
الكلابي
الكأس
##روء
بإثبات
لثلاث
الثعلبي
##هن،
فكن
##وقي
##عز
اشتمل
يبدل
بغية
##ذاذ
نعمته
قصرت
عطا
الشها
##وك،
##كسار
وينزل
كرو
##خوله
وفصل
وعندهما
بارد
التزويج
الاك
واستغفر
##ئية،
وأنواع
تزعم
بالبناء
وأهلها
بالحجارة
وأعطاه
نادرة
دفاع
الأعداد
المجته
التحديد
ذنوبه
بالآية
روض
##ابية
القوم،
##رافي
فإنكم
##يناك
المستح
الزمان،
مرآة
وأعوذ
لدن
الأضحى
بأحسن
للمبالغة
آخرهم
بواسط
مندوب
يعترف
##سرها
تنزيه
الأدوات
إكس
فعليك
تطهير
عوده
وذي
أيهم
##تيقن
طالما
أبصارهم
تنقطع
##مار،
موصولا
تعليمه
وكتبه
##صع
##ذاني
##غيان
العقد،
وإسكان
مصنفه
بقليل
ماريا
والقبول
بمنع
النوافل
أوحي
علمها
وألحق
ذكره،
تليها
معجز
بعدهما
والبغوي
أزل
منج
مدته
البهيمة
الفعلية
أنبا
انط
فحسن
مصف
ومولده
المحلل
الأولم
المضمون
##لاند
وسام
سلمه
##متنا
الخالص
العصبة
خويل
##عيات
وشمال
أهلية
مرتب
وإمام
ظالما
##ظير
عنان
ينقلب
ونح
للمؤمن
منصور،
عبادك
وتمكن
سألوا
العسر
التواضع
تعظيما
الاطلاع
##سبين
##طنه
ومعاذ
القدوم
طلبها
نطفة
الطبر
##عاذة
يمكنهم
طاووس
غذا
##باشرة
المعرض
ياسين
##طروا
وشهر
غريبا
##سيق
تفعلوا
وكانا
قهر
يستحيل
##يعاد
خليلي
يتيمم
##فعاله
##باره
##رافات
وزوجته
##فري
كالمس
أشكل
فساده
بدءا
المثلي
للحياة
الحيلة
ألبتة
لدرجة
ينك
ولابن
بيناه
شرعه
وتأخير
والدة
بشروط
اجتهد
المساحة
الأموات
مفيدة
التدخل
يستفاد
والحب
عيوب
آبائهم
العسقلاني
##ماض
قتالا
فعا
وأنك
يقتلون
معدن
الرمح
الممد
الهيدر
أصبحوا
بإنشاء
مركزا
قسط
##ذوا
العشيرة
تقديرا
إنزال
يحتاجون
بينته
لأخذ
بالنكاح
##كميل
المعلى
المقرر
##غيت
##ماط
##ياطة
استقال
##دينة،
دروس
وفعله
مجانا
التعبد
وصحة
شيبة،
فتكلم
والنكاح
الحسد
بالفر
بالتي
##جارات
تنتشر
لشيخ
نخرج
يقبله
ولإ
بعثني
نصارى
تدعم
بائع
القلة
فاق
المستن
##برغ
##قتك
موافقا
##وقد
الجليد
##اهده
والسيد
والسماء
خلقهم
##نعا
تبدل
خاش
اليا
ومعهم
الجهود
##رائية
##هبط
فحلف
التمام
خالية
تكفي
الماضي،
##لحق
أسفار
به؛
وعجز
بادر
فجأة
للحج
فرضت
##رقت
##يقين
الضيق
موسيقى
لشركة
##غانستان
كفن
##هوت
النيران
الخبير
لضرورة
وتضم
ولدته
##قنا
والقي
مؤرخ
نائبه
التلفزي
فأخبرني
جسمه
فست
أستطيع
الحلواني
##فنه
أحسنت
المرجح
##خلهم
البينات
خشيت
رفضت
##افة،
استهلاك
##ضعاف
جزئيا
الجريري
##حمله
يقوى
للأع
أبوها
##وقوا
##ذنه
المواهب
صديقه
وجمهور
المحاكم
واقتصر
اجتهاده
حجرة
مضل
##كمان
##ضايا
ويلزمه
يفيده
سورية
##هني
##ديمي
ترابا
كريما
السهمي
الاستقبال
##حلوا
السخا
##نتاج
##وتن
##رتهم
نعلمه
مجددا
بذن
وخروج
القصار
##غد
المثلية
ووافق
وآمن
سهو
الذكاء
جذب
يشر
هديه
تأي
الضو
واستولى
يله
وبالأ
العظيم،
العابدين
تبني
##ومن
الحليفة
غفل
لأننا
مؤسسات
غندر
المدع
الكنى
والأحكام
المؤمنات
وحاصل
التخطيط
كراه
وأعد
الخصال
ثلثي
##يثار
الاستمرار
تشبيها
العميل
شهدا
إليك،
سجدتين
لنع
ويلك
تتكلم
##بنا
العير
الطر
بأخ
الصق
تحزن
استغنى
يقاب
لعلك
وثالثها
مصلح
الثبات
بالشهادة
هالك
##زواج
وعالم
اقتراح
راد
والنصب
سواء،
الوجه،
علاوة
عشيرة
سؤاله
بقط
النخيل
##آني
##انو
فهلك
خلقك
لأهله
##حنث
##الية،
الأقدام
أوكر
وتظهر
أكبر،
اكتساب
##ابرات
وألقى
العضوية
##يناء
يتقرب
الغائط
##ساقط
سراقة
تفرقوا
أمتك
والمشتري
الاختلاط
السرخسي
بعثة
##رادات
مأمون
الردي
##رهيب
يختلفون
مونت
الدعا
يندب
المنفرد
جوزيف
شربه
وتحمل
أسط
كتم
ينجس
والإي
لرؤ
منافق
وأفتى
المزا
المراكز
بالسن
وحقيقة
الوافر
وسيد
المصائب
تزداد
الفجر،
فبايع
أنوار
السط
يحجب
##نبط
بشرح
الستين
آذار
وهدى
والاجتماعية
الهزيمة
##لندية
##ويش
الاستجابة
وقضاء
يستوفي
بإح
تطورت
شكلت
واستدلوا
حوائج
وقرر
البرازيل
##باحث
مشتركا
غانم
التمس
قتلته
عناية
وأبعد
وشرحه
ناع
##واما
##ارن
أجسام
ويدع
الرياضة
الحبر
مسيح
المراحل
جمه
وشت
العوفي
الزبر
أضحى
ملاحظ
##سمين
ذوو
والريح
##تيش
مقصوده
الإلكتروني
##ءون
يوميا
قيس،
سيب
وتبع
أحبه
جدد
ورأس
ديته
والدا
أوصي
وطاعة
بعيب
##ضافي
شابا
المسور
كأم
يهي
##لقاب
استبد
همز
والبحث
الحفر
البديع
اللئ
الألبوم
ذريته
ويبين
تكشف
النصيب
نوعين
فيهم،
السوي
##فيس
الصفر
يعالج
التذكير
الشيعي
الإنت
للأمم
قبولها
تدريجيا
بعهد
تتحرك
أضي
أنكره
الرها
غرر
تبعث
اللاحقة
للعلوم
ينف
ربى
الزوجات
العتي
تحمله
الحيات
يشأ
جانبي
##زقه
يعفو
الورا
تفريط
اقتضاه
سارة
أنث
منك،
جميلا
صرا
الحريق
ومشي
فاختار
فرده
ترث
ملكي
وافقه
المحمود
وأطلقهما
وقوف
موجبة
إخوانه
علته
قدمها
##ذفت
الشهادات
##يدة،
للأمة
والاخت
ساعدة
رمح
ظلال
للوصول
أينما
مؤلفات
متحرك
##شتاين
شارح
يهوديا
يوتر
المتحدث
مقعده
القاسم،
##ضاعفة
خضراء
طم
العباب
وخالفه
الدفن
##كتم
نافع،
الإفراد
أسلف
##طفال،
الدار،
منخفض
سلطانه
أوسط
الغرفة
اختلافهم
##رزاق
مساكين
مفيد
ايضاح
وسل
تجده
فخرجوا
إملاء
والطريق
الأوعية
الحسا
يداه
القاطع
الاستحسان
احتياطا
##رفته
اضرب
##ئنا
المرد
والوج
غضون
إرشاد
تحي
المنز
الاستحباب
وشعر
ضو
والاس
الحطب
مسكر
لوال
والمنت
آثر
الصغر
##جئين
##لاعب
بالبد
القابلة
للفت
عالمية
فخطب
فرجها
##شتر
غضبه
##مامها
ويجري
المحتار
مذكر
##ملي
الميكاني
التبع
الإحياء
يملكها
وأخذه
##ناعه
وعبادة
خلفا
يقرر
الكاذب
بطعام
نلت
##بيا،
البلد،
ورجح
يغشى
##كرا
##هون
لقيته
فنعم
الإنجليز
##قس
والولايات
معقول
##لفون
سيفا
البروج
شعور
##وبة،
قصب
وصور
ضمت
الأسير
تعبر
الغوث
وصورة
تجلى
##أمله
##أتون
تأكلوا
الإسلامي،
عقولهم
ركبت
بطر
صاحبة
فائد
المكرمة
والاه
اتباعه
المعاصرة
صاف
بالقبول
المحاربي
الخوار
ورؤ
حكمته
العباس،
##ظرا
##مرأة
والبزار
عياله
تظلم
دبي
الأولون
##حشاء
آمنة
الغرق
متفاوت
الراحم
اليمني
العلامات
سها
ويطلب
متهم
المعبود
قضاة
وريح
أتانا
يتعذر
بليل
حولا
معاص
##بتنا
##عاس
القديمة،
تبنى
طوعا
##ضيب
والعبادة
عيسى،
البيضاوي
واستخدم
يوكل
##جميل
خيف
فيز
والقب
##راغ
##يداع
الرزاق،
أصوله
المؤدب
أهلها،
الاشتراكية
بهز
يحتسب
المصرية،
إيف
##ارقة
##عد،
المسماة
والدته
##صدقاء
العمى
الدبلوما
الاستيفاء
##اكنة
والصالحين
وتجب
تجهي
والثناء
وقلبه
غيبته
كغير
ليحيى
منهاج
تشق
شماله
يختم
ياأيها
آحاد
وذهبت
أيلول
المستعان
مرات،
طهرت
عبدوس
الأرثوذكسية
شباط
يعاد
بأحدهما
حدد
ونوى
نبيهم
يحاسب
##اناة
المبكر
الإشهاد
##زوين
بنوا
فقيه،
ينسى
شفي
##كك
##بكة
وعزاه
التخصص
البش
قضاعة
شديدا،
##جبني
التكوين
جهله
هتلر
مجاهد،
العراقيين
المخدرات
وتغير
##فعية
فأنشد
توقي
اراد
ظهير
##ئان
وقرا
وهذان
الشيوعية
العدوان
يسميه
وانق
الجنسين
للإشارة
كرر
علقت
اعتباره
##عيته
استفاد
##وفرة
المنظر
بموضع
ولهما
عاليا
أيمانهم
والمجتمع
##عبان
اقر
إلكتر
الإبراء
بصاحب
لعبده
وشرع
غالبية
بخت
مرب
التلبية
##يتس
استخراج
ءامنوا
شقي
أبيت
وجنوب
ندا
السبيعي
هذه،
اللوم
نمت
##نعه
تايم
الابتدائية
عملك
##ابير
تتعرض
يخضع
نودي
أوح
##شرها
مستند
راض
يطيع
وكتبت
السحرة
طوبى
وباط
منهي
لوجب
التور
وإحسان
ليسا
نجعل
##ضوب
والعديد
نوحا
جراء
وتصل
برض
خبث
الكائن
تغطية
الانتشار
##شياء،
##راب،
تربة
منصرف
فعالية
فردا
توسع
الفزع
موسرا
التناس
معتمد
تأمين
بالتعاون
الرقاشي
يتردد
يجئ
يجامع
متشاب
همدان
الاية
القيود
الساعي
التا
بعضنا
##راثية
قلته
أحاديثه
وضمها
الكراء
تحيط
الاحكام
##وفين
##مائية
التكفير
يتكلمون
محصن
فليصل
وبينكم
البيع،
الفارسية
تزايد
الحضانة
تعليقه
اسلم
حيي
تفري
مجهولا
الاستخبارات
مطابقة
##ضبط
نستطيع
بعمله
الساعدي
##يمون
فلذا
برؤية
السابق،
أنزلناه
إفريقية
رباط
الشاهدين
الاصول
يلزمها
أجناس
تلقاء
محلية
يعترض
##مائها
قو
كمثله
البنوك
##ضلوا
لإبراهيم
التوحيد،
كاتبه
وأذ
##تهاب
ويستخدم
تابوا
##طلاقا
والزوج
والصيام
الطباع
بدو
غازي
والطي
ووعد
أمثالهم
الصهيوني
لعدد
تتجاوز
والام
باللام
ونصه
##مرون
##وجها
الزنى
موضعين
واسعا
تربط
ثنية
عسك
مخاض
نصراني
التشغيل
جنسيا
مخرجا
وارثه
منظومة
للعالمين
كط
ومغني
ولكنا
أجده
المدائن
المكث
تعاون
وقبله
قلع
بخراسان
ذكرناها
أيرلندا
وبالرغم
والى
الدارين
السفلي
للتص
أنساب
الفسق
تقتلوا
إقامته
منطلق
القصب
واثلة
تكاليف
رئيسهم
منصبه
التلفزيون
والارض
الناطق
لغو
بالمؤمنين
والجمال
وهد
##فيلد
الثغر
والمجنون
تند
عاقلة
أرطاة
##ادهم
الثيب
والمض
##جاهات
##رابعة
بشران
تابعا
لبعضهم
##ء،
الدقاق
انفصل
فأغ
أذربيجان
##الون
بالرق
الرع
والأئمة
وضوءه
سوط
الحرارية
بالظ
للحر
ينفسخ
المخاطر
التمكن
والقد
الدير
جنيه
ولف
والعامة
تمرا
زعمت
بحجر
المؤلفين
النكرة
##واترة
قبورهم
##راجح
همه
البشرة
وجوابه
بصدق
تيقن
سارية
الأبعاد
النقود
الجزائرية
البحتري
عامدا
والمرسل
بيده،
حققت
نيوز
##حصيل
توسيع
المشكلات
وأمن
الكناية
أمينا
قائله
##وازي
يستند
الخلاص
تفاعل
وسورة
وتعت
فاشترى
السادة
الصلاتين
وإنهم
بيقين
لكثير
يتكرر
عقلي
##سم،
والقراءة
هاما
بثوب
المعايير
إخواننا
جرحه
والأج
يستفيد
الضالين
الموجودات
البحيرة
عروة،
ثدي
أوغ
##سموا
صدقات
المقدمات
النسل
حدثا
ورعا
تشارك
اللغوية
فيروز
الأزمة
يسمي
نظمه
المحارم
فخذه
##بلة
يحملون
أجلها
ممدود
عتب
الساحة
للقتال
##عيت
##علمون
وأصاب
لنفسي
##كرمة،
##زف
##بيبة
ينش
إحص
##مامات
##نشاق
##كبرون
تفهم
إفريقيا
إنهما
السفيه
الساعات
##افعة
والكاف
مصيب
وافقت
السريعة
الكفاءة
يقا
ومقتضى
خيرا،
البزازية
حيضها
بعدا
##عينه
والخلق
توضيح
البروتين
فنظرت
مناسك
واجتماع
استخرج
روايتين
سلع
عشره
لبقاء
للمالك
المنايا
يذكروا
مفتي
الهمام
##ديهم
ويكثر
الثان
برف
بنيسابور
فيثبت
ونج
تتحدث
مكارم
والثلاثون
دمع
غنية
فالمس
عملهم
تجارب
كفيه
##ارئ
##صرهم
مشهود
البعيدة
عسل
العك
الانصار
وستة
##ياخ
لقوة
ألفا،
حلقه
دولية
عقال
الائت
ويضم
باختيار
والفقهاء
سودة
التفرقة
بالصحة
السمرق
التحديث
النواة
المتظاهر
أجور
خطوات
المجادلة
عظيمة،
##رسول
##ريمه
الصندوق
المحبوب
مشيئة
##سح
والجزاء
ينفخ
والعربية
بحثه
حرز
يخرجوا
خطيئة
بحمل
فيغ
والصد
الآخذ
واستح
باستعمال
صوب
الجاحظ
والأر
الضخم
##ارين
فحصل
دمر
##اذان
وخمسمائة،
ركعتان
المغناطيسي
##باش
معسكر
أنهى
اليك
نفعل
الطلاق،
الطائفتين
والتحقيق
يصعب
وبعضه
مأخوذة
تشابه
افترض
##ونى
يتقي
مرداس
حضره
برضا
المستقلة
خده
خازم
راق
سرب
فصي
يزكي
القعقاع
يوفق
المعطي
ذاتية
##لوه،
أهواء
ألسنة
صفي
المعالم
##شيات
فعالة
أشير
##غوب
الصخور
أسيرا
فالحكم
رماه
المدرس
التقط
ومعها
مئوية
المفيد
الكور
تنشأ
نجيب
سرور
الأكابر
##خراجه
للثاني
فؤادي
والجبال
##بيلية
وأثر
##لوبهم
مناكير
المتهم
نبيكم
فالأمر
ويشبه
تبرأ
##بج
##مارا
المدعو
الحاشية
##اتمة
بالعم
وقتله
يطير
ويعطي
البارد
جويرية
##لولا
الأصفر
##ظنون
ثوابه
لملك
للبا
الولاة
تسوية
الأحبار
خراش
تعالي
تنبيها
حلقات
غشي
لقط
محقق
فهزم
بتمامه
الكناني
كمع
خاتمة
سيس
طاع
تركز
أنهار
لإنشاء
وإخراج
الغليظ
والمصنف
تأنيث
شدد
##اعرة
رجم
إفراد
النهدي
أصنع
المفتوح
ويأكل
يعنون
وانتهت
لود
##ديده
ليون
بمحا
أبالي
مصدقا
الفلسطينيين
ميك
المتوسطة
وصلة
القول،
كليا
بالرم
##يتام
يؤد
مؤذن
كتبنا
الأجناس
وارتفاع
وجمال
تخضع
مرتبط
ونظير
##بنة
يغرم
العتب
جئنا
والوليد
##كرمه
الفلب
نقصت
قتالهم
حاصله
شرعت
حظه
ذها
وباع
##خائر
حدثتني
حرب،
بصرى
غيث
النقاط
يتوصل
أصابها
حمرة
فضاء
##صفح
##روان
بإخراج
الروياني
فوه
ورائ
##ذيبه
قاصدا
##جبا
##ذ،
بالقص
بيدك
يهدف
فاتحة
الفكرية
البلو
بدوره
المؤنث
والجميع
تكفير
المغربية
الشافعى
##وتو
بأب
الضابط
##ثان
الحميري
فالخ
المجن
الغساني
القرظي
الضبع
عجوز
##عق
والضلال
فيحتاج
الصمت
بيته،
نتاج
أؤ
##ماق
الخت
وهاجر
##قر،
أجي
الحجج
الاحتفال
وأقاموا
أخرجوا
ضرورية
الموالاة
قحط
##قتصاد
##رتك
فوقعت
بمثلها
فيف
وسد
الاستفتاء
##طنبول
الحزم
القناع
الكعبين
الواضحة
وواحد
بالجمع
باطنا
متناه
الذهبية
نعوذ
##بائه
ووكيع
فيخ
لعلمه
عيينة،
وذك
##رافا
الترب
التكنولوجيا
بيعت
ومعا
تصحيف
الكيمياء
وتطوير
ذباب
يسمونه
وكيله
فافعل
إعتاق
اعتراف
والخيل
قرره
المغير
الإعت
والإقامة
وصفهم
ومثلها
البدء
العادي
المظالم
الجذع
خلوا
##جج
##ظري
فيروس
بالرجال
المشاعر
##خطأ
يمينك
استغلال
باكستان
خفاء
##ايا
وسجود
ينكرون
المبارك،
تولد
فجز
ويقطع
الشيطان،
اتبعوا
جرب
##نيك
ولس
##وريات
##ئكم
تقدم،
الأدباء
غبار
##حظ
الضبط
سهلة
ندبا
للعد
اتفقت
أقط
المفقود
الاقرار
يجع
##وارئ
مشايخنا
لطيفة
##رتم
بروتين
الصلبة
شيوخنا
الثمانين
صريحة
فسمي
##يروز
ويحل
للمال
الضخمة
وشرف
الموظفين
تهمة
الفتيات
##بعير
وآثار
##ساطة
تجيء
إخوته
تلخيص
ضعفا
فبدأ
الحاف
انتفى
المقنع
تبديل
مكره
السعد
تشد
لخمس
ائ
##بوض
ولغ
بدلالة
كونوا
معدود
ووهب
المصح
مفصل
##براطور
الإذاعة
خفاف
##ليته
وبق
متاب
والدعوة
الضامن
##جهز
خلاله
المقربين
وأسماء
رصد
لار
وأطيعوا
وحن
##طانية،
الإعراض
والخل
بنوع
##زيق
المنجم
التفاضل
مخلوقة
والأعمش
بيبرس
لنبيه
ويشير
بورت
استبدال
تمرة
##نوية
الغلة
أسواق
فسق
والشرك
المكسيك
بقلب
اتجه
تكلفة
ملحق
الحاسوب
أساط
بالجيم
يكفيك
بخروج
##ادن
يحذف
اللذة
نسك
اعتمر
أنشئت
الحسب
التنوخي
الحموي
بالجامع
حكيما
العارض
القضاء،
ومهر
الطاغوت
أرجع
الناصري
##لاتهم
##هدة
والمحا
لمرض
الكويتي
##شيت
للجنة
كاتبا
فسل
النك
##خرق
معا،
##نبلة
شعرها
أولادكم
يدرى
بالوجه
لأنفس
##ساك
فكلم
القرط
تخفى
شبرمة
ليك
أشارت
عمك
خبيب
يتسع
مثبت
تقاتل
المؤثر
بائنا
ينفك
شرعيا
ناقته
خويلد
فقامت
شاملة
نعل
وتفرق
تلاوة
الفرنسيين
صداقها
ألت
كفت
##سامح
وسمعته
##ه؛
وتأتي
##جارة،
إثما
صمت
للولايات
ونهب
##زابيث
وفرس
أقاموا
##رافة
ويتأ
مذهبهم
ووصفه
##زدلفة
وضاح
التسلسل
معسرا
يتزوجها
##ضارات
والمقا
يدعوه
وطنية
##سبي
المسلح
فادعى
رستم
بالزيادة
اشتملت
مطبعة
حادي
للشمس
مسيلمة
باتباع
وأشهر
ومهما
##واتيم
ويراد
الإلهي
بحقوق
للفعل
وتحدث
الأكثرين
طلاقه
جراحة
كبي
وقيمة
بعبادة
##زلوا
فكسر
الامور
تقتضيه
وسافر
ابنك
مسعدة
إجراءات
وتركت
الرؤساء
##تلاف
الممن
ويضمن
واستخلف
دينه،
يظنون
##هيد
بنون
ذبحه
والمؤمنات
تثبيت
اللاعبين
والحجة
الكتب،
يقدرون
اللواتي
فيج
وعامة
عدوان
أباك
والربيع
يناقض
أذنه
أفمن
ترتي
نشاء
وللح
مخطوط
وأجل
يتلو
الممر
والرم
##حاول
##زيغ
أصفر
ادخلوا
منف
##بياء،
الوثي
الأساليب
المتصلة
والنجوم
المحلوف
والخلاصة
فأك
النكاح،
المقتدر
فارس،
أضاء
لخص
الاحاديث
مسندا
يقتص
مذهبنا
لآيات
عتيبة
أوجبه
أيار
زوجي
تتمثل
البالغين
التشديد
تكملة
##ليلها
عيال
قرأه
##ماتها
اللبناني
##صاله
العبسي
الخفيفة
تطل
أنط
النماذج
الكحول
الوفد
##ضاجع
شيط
مقصودا
الهذيل
جيران
رمت
وتعا
رويت
أمثالها
شيب
بحبل
صفرة
ألعاب
بامت
قانع
والعت
للقر
يعلو
المعينة
الغربية،
بطاعة
السبي
##نتا
أخبرناه
اختلاط
قبضة
الأفريقية
لظاهر
والحاوي
تبادل
فيص
انخفض
الطعم
فلحق
المطهر
مرادا
المفترض
توري
وكلامه
ورحم
امرىء
خير،
ويروي
وأجمع
الالتفات
القادمة
باختصار
الأبوين
وتمر
الجاهلية،
أعينهم
حاضرة
لآدم
والأموال
شبع
وعذاب
يلتقي
##هاي
والديه
القبيل
ولعب
فاغفر
سمعتم
غطفان
المقاطعة
والحنابلة
أتباعه
إنكاره
مكتوبا
التراويح
البرتغال
والره
السياس
العبارات
بالصوم
أملاك
فهرب
##سوخ
##ظان
يقض
##موهم
كرهت
بجل
وسبعة
لوصف
والنبات
دهن
وأكد
##ورن
##سيط
بشهر
أسنان
أهالي
إلهي
ذاهب
##لزام
لاخت
السقط
وتعظيم
يكتفي
صاب
الموسيقي
وأبلغ
السه
وأتباع
سلما
##سوم
ورش
##قيقته
التحذير
ويقر
الرتبة
ومنعه
##ياتها
وخارج
الأكوع
الممالك
الفيزياء
إثباته
أيدينا
التبرع
سفين
أزهر
الأمي
محركة
تستمر
الثقيل
لزمته
كالصلاة
شان
##هاض
الزيات
بحضر
انتظر
الجندي
وجدها
الأكسجين
بئ
جيب
والمصدر
تخلق
الفلا
معامل
##عياد
للعهد
شرائط
غرار
##وامر
المعجزات
والنوا
بناها
الشائعة
الصبغ
##عارا
وإب
##جيال
العضلات
المسرحية
##يسيا
إحداهن
دمج
ويحفظ
لبنها
بالآخرة
المتابعة
معارك
فشي
حرير
وتستخدم
خلص
يغر
نظائر
مختلفا
##اوف
فلماذا
وطبق
بنعم
بحثا
الصحبة
مفاتيح
##طيخ
والعقد
قتلى
خاليا
الراهب
النقاب
بالمق
الصادرة
بلوغه
##مأ
القحط
##ضمنة
اهد
جآء
التغي
##فعته
##رقوا
فمد
أوثق
الازد
مطبوع
بمعرفة
أخبرهم
بقرينة
الإفطار
والأخلاق
الأرجح
الدولا
أمورا
الإقليمية
درك
##راص
استعادة
ينطلق
الكامنة
الصنعة
يزرع
للعبادة
الوفيات
مقداره
يأمرهم
لآل
للأس
الفرنس
يردها
المخلوقين
بجز
نكت
##هدا
والمأم
##جعلها
قاتلوا
وسالم
##يتو
##دادا
بالسجود
السفهاء
لزوال
##ذذ
وآتوا
وأيوب
ضاب
أنفقت
متعة
المؤجر
أتاهم
##الق
بالمثل
إيصال
الأوقاف
فسا
وأحاديث
يعص
ومائة،
ويصبح
##ويه،
الأسب
##اريف
رأوه
خاله
نصرانيا
فوث
##ينيين
المكاتبة
الإفاضة
يحذر
قلبت
معاوضة
غضبا
بائن
فناد
قرع
##صص
أزواجا
ونادى
لتعذر
مؤمل
وحاصله
##نجس
##شميهني
بالديار
##قاوة
مدل
الحالين
أعدائه
ضامنا
عمى
يصاب
بإقرار
عقار
الكلاسيكية
تركة
سيدة
ضب
هبت
الهض
##فلون
الحزام
التسع
السياسات
الآمدي
لأت
بمكة،
وفضله
غلة
##باز
ولابد
##ولي،
الحجرة
لجعل
##وافر
##درون
مقيدا
##رام،
المدثر
عرفها
بنفسك
والوس
##بحوث
فعرض
جلسة
الاحتراز
الهجمات
سمرقند
نأتي
يباشر
##كررة
وفيات
انتصار
والدال
تهامة
المقطوع
البكتيريا
أعا
استوفى
بالشراء
قلناه
ويؤمن
الجماعية
زريق
اقتر
جناب
ضيع
المستعمل
بريط
المحدود
وبحث
بإحدى
المنتقى
##ورثته
##ضيت
عطاء،
ناجية
##ياها
بأصل
بدعم
يقتضى
فبأي
للنظر
الأسرى
والواقع
عدت
أعلم،
فيليب
الواح
التشريعية
هت
##ينو
بنصب
##ستاذ
معلما
المفردات
فصر
نوبة
يتد
##كيين
صدقوا
وغاية
التغذية
##كاني
الضباط
المعتضد
قبضها
النحويين
وحلق
والنور
يدعوهم
ينفعهم
الباحثون
بالرجوع
هواء
ويحدث
وتوفى
أكذب
وجدتم
ضربين
تفي
مكون
يقوي
واختيار
مفض
الفواحش
الذكرى
والتفسير
ألفين
عريض
##أو
بنعمة
ونهاية
كثيرون
لتقديم
الإلزام
جبهته
الهرب
معظمها
الأعمش،
ننظر
الزعفر
خثيم
##داح
سمعا
الأردنية
واقعا
الموحدين
ارض
والرف
التكلم
يقلل
يتقون
سترة
يطرح
للحسن
##قلت
الشوكاني
يوف
البكال
وبذل
لإقامة
لسيده
فيحصل
##بوبة
لدخول
بعتق
##خلوا
الساحر
الأنسجة
فتست
وصلي
العمود
##يما
##ألهم
القري
السيرا
أيكم
المخابرات
لضمان
باف
الإبل،
تراض
نومه
الجائز
وتث
يطي
وجا
الطل
الاستقامة
البشر،
الذيل
الغري
الاختلافات
تجلس
##ؤه،
فيديو
العجوز
رجلي
المستهلك
بإقامة
المحصنات
يحافظ
شعوب
بدر،
مناقشة
بى
##يدات
بيوتكم
يضلل
نذرت
ووقعت
لاس
##روهم
برزة
##زعات
لوازم
شبة
ظله
القادم
حسد
منقول
أعض
إبقاء
##ماتة
##رار،
بالتد
أغاني
ليتم
وتسعمائة
تحاول
المراجع
بلفظه
صاحبه،
السماك
جواهر
الصوتية
نواب
##غاف
##وايات
الآفات
باش
خزانة
كاه
وجواز
ثلاثتهم
المغا
والخي
المشددة
الكهربائي
وترد
الفقه،
يارسول
الشارب
ثقيل
الغزاة
أكف
فعندما
شائعة
ملو
يطف
وعامر
بثقة
ظهوره
الشحم
##قيته
تحلل
يغطي
الأغراض
والشجر
سوري
شاطئ
المستق
وطيب
أثقل
جنوبا
ألقاه
برأيه
مؤلفاته
المكفول
بتحريم
بذكره
بالمسلمين
وختم
المذم
##ارتها
##ميتة
غلي
التشي
الفقرة
وطلق
يضيف
##ضج
##دتها
تعاني
الحاضرين
التعذيب
وهلك
##روش
والأظهر
لتف
تتحقق
والطير
أبيح
ليصل
البسملة
الاتفاقية
قوائم
الصنائع
##اقبة
أرشد
لتعلق
فأخذها
فيقتل
العقيقة
التغيرات
مستن
كادت
##انق
أوتر
يعادل
مشرف
تقريبا،
والبط
##حده
وعص
التعلي
العقل،
المنكر،
سكة
استحسانا
وعكسه
##يتنا
##سيات
المهندس
منتق
يسد
يجزه
للدفاع
والأسود
يورد
الملق
وقبول
الجمار
اليقظة
مستأنفة
بالعود
الرئاسة
وبص
إخلاص
##تيها
لتعلم
##طعنا
بالدليل
وأكثرهم
قفا
مناص
سواك
التصرفات
عتي
وسعى
الإقدام
للتك
تؤكد
بناحية
الفحم
وصدر
كارل
يظلمون
الفوارس
الندم
وتذكر
بمصر،
المختلط
القزويني
##صرة،
انقطعت
فألقى
باحت
موضوعا
تيار
تتوقف
والحجر
اتحد
تجن
فسكون
دارت
أأن
لرسوله
بنتيجة
##بيه،
##بنه
المعاهد
أبرأ
ترعى
ومم
للاعت
تمكنت
بطرق
بسورة
قرق
قتلها
المشبه
وينهى
الثلثين
اعبدوا
النظريات
طبر
القائلون
سويس
الآدميين
أفقه
طوى
مورد
المذا
يتراوح
وجهت
جابر،
أثرت
نواة
البضائع
والكسر
عائدا
رقية
الباردة
هو؟
يتلقى
أعطيته
الدجاج
الإطعام
##غيظ
للحفاظ
سكنى
تظل
المناصب
دعاة
السجستاني
الماجستير
للتب
للفاعل
وتمام
تعال
والنسائى
التوصل
انقلاب
بألفاظ
وينا
سوءا
تطع
دمي
ملام
وأنشأ
وتحريم
حضرته
##رايا
ماجد
##من،
أهو
والاختلاف
الواقع،
بفرض
وإليك
ظهرها
مضمر
بقيمته
والحزن
جعلناه
مجهولة
وسيف
سكنت
التخلي
الخشوع
سحابة
ربو
الراج
المناق
وأحضر
عذابه
شرار
هجمات
الغس
وبينما
الاشتقاق
قانونية
فشق
الكونية
الثاء
تركنا
ربه،
نهائي
إجاز
##زلهم
واللا
البطر
وبقوله
قصائد
يكتبون
الازدي
منسوخة
يوشك
اتها
وقاتل
الاستعداد
الأسطول
والقصر
ثلثمائة
وطنه
ملحوظ
الشن
الدنيوية
أقطار
فحضر
ألفي
فوجهان
أفندي
أطلب
منتج
لنفسه،
لبل
السياحة
أنب
اثنتان
نجدة
الممتنع
والمجرور
تفع
الحمرة
التلم
##جزئ
الحجة،
قط،
الكمبيوتر
يقبضه
الإث
أموت
##فقون
خيانة
ألبوم
المراتب
وتشت
وإصلاح
والوز
##لكان
الخدم
والأمة
ولقوله
الأمنية
بظهور
التزا
واغ
الوقاية
ويشرب
بدينه
مهام
والالت
القان
للشخص
القيسي
غربت
##تك،
الخبيثة
المتعلم
برئاسة
المناقب
خراب
بالطعام
وتبقى
متقد
##نتهم
أشعة
والصل
بالقيام
قدمي
دخله
نهض
ترع
فورد
الوقعة
ينسخ
بأهله
للمشركين
وأوضح
متفرق
##واتهم
والإكرام
##ودهم
ويجاب
تعطيل
الزعيم
التعارض
##كاره
لمجلس
المستنصر
##سسات
الأسانيد
القتال،
يسوق
أشق
المصري،
فرغت
بفاتحة
وأعلن
فالحق
##رعات
وفائدة
خطيرة
لإع
##ويناه
بالمرأة
والاص
والمقت
توم
المظهر
المستمع
واستعمال
البسيطة
الرأسم
##طوم
استب
فطرة
وتوجد
بالنذر
المخطوطات
الموط
##ية؛
البضع
##قييم
بظلم
##كرير
مؤيد
والصلاح
إشراف
مسؤول
طفلا
تبو
##مامي
وآية
مستمرة
يتعامل
تتناول
خبرة
وثمانية
تتألف
##ثهم
ومدينة
هاذا
انطلقت
الكيميائي
ترام
تقصر
مخففة
غراب
ومشى
رجعة
##دتان
منامه
الكوفيون
خوان
ففرق
والثلث
واغت
##ضاحي
بالعبادة
المؤلفة
التوزيع
المقداد
اجلس
##تابك
للمعت
##جارية
ويسجد
لقيام
مؤجلا
الخلقة
التطبيقات
السخاوي
##ضوع
التخلف
ويفرق
##وتك
المعق
انتخب
أغني
والبناء
الأعلى،
الجدول
برأي
كهيل
المشاركين
يبيح
المهمات
النواحي
إظ
##فورد
سعدا
باث
النظرة
مخطط
عاهد
عورته
مميزة
الكيس
##لام،
متاعا
الفنانين
##وشي
فاضرب
الباه
اختراع
طلحة،
الفتح،
##جمل
ماه
السلبية
ولرسوله
ينكره
اللذات
فكون
والجل
أتع
بالأب
الكرك
لسبب
##نسخ
والسعي
الأسود،
##دهور
معتبرة
بالحد
للمجتمع
بريرة
إبد
##افية،
يوم،
المهام
المسألتين
يحلق
فليكن
فرحا
للعديد
الدعوات
بون
ثقي
الإعدام
الأخطاء
كليهما
السجدتين
وبث
##كلين
يبسط
استواء
مباريات
أفرأ
التطبيق
شرائع
وللت
يصط
صرحوا
اليوناني
ضرا
ولازم
منهما،
تضمنه
فاحشة
خطايا
غطاء
والسدي
المسر
يسري
وربيعة
تلام
فنع
لمدينة
للهجرة
زمنه
مهرها
شات
صهي
مراجع
##وطا
الجينات
الضحك
بإقراره
خلفها
المعص
لإثبات
يثاب
بقتال
سيرا
مسن
##ضاض
عودته
رضع
معذور
وعلوم
يتوكل
تحقيقا
الاند
جهينة
##وبيا
كتيبة
##تكف
نكاحه
بجزء
التوسل
صياغة
ميلان
##راضا
باشر
مشاعر
وآت
جريج،
أرأيتم
يندفع
إسرائي
لكلام
وحميد
المهاجرون
ظرفا
الجلالة
ولوا
والأصول
وصنع
مصنع
أخرجاه
أدا
مفارقة
يرع
##يلاند
البث
منتجات
غزوان
التسم
تبي
فيرى
الفوت
##لف،
بحضور
فعلته
وحقوق
استعار
بمؤ
الفضل،
الميدان
والمفعول
أعلاها
بيضة
للموت
والجماع
لرفع
الجين
وإطلاق
يلتمس
تنتمي
الاذن
الطلق
وانقطع
اقتداء
فوجده
فإنني
كالط
##طمئن
لحل
فأهل
أصلا،
يزن
كبرت
حاتم،
المضمر
نستعين
للمرء
الوظيف
فتزوج
جريان
تاريخها
المذهب،
تعالوا
##لقاه
بتخفيف
تغيب
يئ
##حاه
##فارس
بتش
تسبيح
خلفاء
العنوان
وأوص
أقرت
الظهر،
المنطقة،
شركا
##ذاة
الأظ
يستدعي
نافعا
آتاه
الممارسة
يتسبب
إبان
التشخيص
اعتقاده
الأبدان
##فالات
##امير
المتط
تأخذه
والجهل
قائدا
صنعه
الصغاني
التونس
وبكل
##ثر،
دخلنا
ارتحل
للصائم
روج
ضار
والعل
الغام
يسكت
عدوهم
فبطل
صوا
##عيها
الثوري،
شهادات
هذي
##عتنا
فأعتق
فانهزم
طهمان
##رجاء
باطل،
التست
وطالب
##ذوذ
وأوصى
الزل
متس
المنخفضة
اهتدى
يأتيك
نظر،
التواتر
فتوجه
الشمائل
وعرضه
الأخيار
ركاب
قدروا
نوادر
مترو
السختياني
يرس
##قالة
وصلاح
رحمك
أغار
الشامية
خطأ،
خلدون
الإعتاق
جنون
منعك
المقتضي
سعاد
مخصص
##قلا
ولب
لثبوت
دليله
ذالك
سيدا
##هيلي
لجاز
جدول
ترجعون
يرمى
فيكت
والسلطان
لانهم
يكرهه
الفضائية
الوثيقة
##لبسه
أعان
مسافرا
سباق
والحرب
مكات
##غلا
الباطلة
اقتصادية
فمال
يدافع
السيادة
البطل
وجرح
مسيحي
المسبب
المحراب
تكف
مغل
أوروبا،
ذهل
أسعار
وحول
واستشهد
فجا
قانوني
للقا
لتطوير
##وريين
خارجية
حزنا
ينصح
أولى،
##ذلل
وشرعا
تمنى
الأرجنتين
أورث
ثمانون
ومه
السابقة،
تخلص
فاعتبر
بالتوحيد
ويلت
وجيزة
البختري
للورثة
بمي
##وز،
الظهير
يغل
مروي
الأغذية
المحددة
السبل
يحصى
##كايات
##تهيأ
جانبا
ويبطل
هائلة
والأخبار
المدني،
حفظها
راجعون
الاغتسال
كلمته
الكونغرس
حبال
الأوت
##رى،
والمسألة
ت،
يجي
يفلح
الثوار
متزوج
قلد
صفراء
عفوا
واصط
حيثما
بردا
يرمون
اللتين
بمحل
##جيج
إمرة
ودخول
للعين
ينطبق
تجميع
رحله
مجلسا
وزوجها
التصور
##زل،
ممثلة
ببغداد،
وكيع،
يذم
فيضمن
الكليات
لنبي
تكلموا
ملازم
مقاصد
والمسجد
الأوكرانية
##سيون
مضرة
هدفا
مضمونة
عشت
المعبد
العمدة
يقيمون
هديا
##راية
##رقية
حياته،
أكاديمية
لأق
عاشر
غايته
رفيق
الذاريات
الراحلة
مستحقا
بالأندلس
بإسقاط
الأزمنة
الشخصي
تدخلوا
مظلمة
أفاض
حفرة
وانح
تشا
نذكره
##يعة
الشقص
متعا
انقضى
##ذته
لتخ
قطرة
اسرائيل
يلقب
##حمود
انهي
ألف،
فاتته
المثلثة
المختلفة،
العثمانيين
شافع
قرضا
لحر
ومساحتها
ظلمه
أثبتت
آلية
اثر
مودة
##مرها
وهدم
سيتي
الضياء
ظني
ويقضي
غيركم
ابتدع
حسبي
المنافسة
فيسقط
ليز
وتأمل
المعدوم
الهاتف
ففعلت
وهبه
يجتهد
لعظم
يؤدى
زياد،
أخوك
والمه
نسبا
المواقيت
الكردي
فني
المزع
القسط
##ادق
##عاها
المكرم
السقي
ينوب
أدل
العضد
جذع
المليح
رخ
كنف
والبعض
يجرى
مهج
##ئتي
النصح
الأمد
فاما
##صارى،
##عرية
يهتدي
الغيرة
##حيين
الطوال
أحسبه
فضيلته
تآ
للخبر
الثقل
تنقض
بالاحت
الشرك،
قيده
مكونة
ويفت
فمنع
القدر،
وفرنسا
الخلد
الاوزاعي
والنظم
موسكو
بالعبد
نفقتها
تفسيرا
##طته
بنظام
يعقب
يدعيه
النسبية
هنيئا
القنية
ينحر
##والدين
البيتين
حرمته
قصدت
مسجده
وجم
أصحابها
فجرى
فقاتل
للحزب
##طالبة
الأرز
نافذ
الطوا
واسمها
بحقه
أنشأت
##ستن
السامي
##روت
##بتر
يدبر
الانبياء
نظرنا
أنبت
ماشيا
أدعو
قلبا
وطرق
رابعة
وتابعه
كفاءة
مفسد
نقر
##اجد،
يصح،
كساء
والمؤمنون
والشيء
##ونكم
للخير
المسب
وحصلت
نجسا
سجدا
متاعه
المطي
الأشر
##روبة
تتن
الثالث،
رجلا،
يحارب
تحبون
يستقل
لعنه
ابتلي
ذروة
فراجعه
للتش
إخراجها
وجرت
بإد
فرش
السوفيتية
الاضطرابات
السقف
يتش
وبلا
##رابطة
حواء
##فوف
وانا
##لائمة
التصانيف
الموضحة
ناقصة
جريح
يطلبه
المبيت
مجيد
للملائكة
الهز
والحالة
للعرب
لطول
تشترط
المازري
وعروة
مستقيما
مبشر
متوسطة
يخوض
تذكرون
رأيك
لجماعة
كندة
كماله
توسط
وشاهد
البربر
للبشر
تره
لمؤ
أفغانستان
يثني
للبحث
ونهر
##وائده
تواجد
##مامة،
اللع
الاتحادية
القادسية
فلسفة
##بيون
وأوجب
يقلد
مقياس
يأبى
الأشربة
الارتباط
الكاهن
المعاصر
مستقلا
خرب
فصالح
كسرت
قضت
السرة
عمق
قليلا،
معانيه
دفنه
محطات
##صموا
الألو
بالصدق
##جيله
الحيضة
كآ
مظلم
لافت
نراه
صاحبك
طبعا
الجدد
ونظام
تكسر
احترام
البدا
المسافرين
ساحر
قهرا
والعتق
ينشر
يخبره
تنتظر
صبروا
كهيئة
حاكما
##يرى
الجبل،
زبد
والكرم
التها
أبنائ
تله
وعهد
بتج
بمنطقة
الإقالة
انقلب
مذا
والكت
التمار
ينبئ
لكما
البقعة
أنكروا
فاجعل
تمي
يظ
الشجاعة
أسي
##فعها
وشهادة
أغراض
يسألونك
زوجه
بالبينات
الدروس
وكاتب
##ذهبه
بعذر
##يبس
الإط
بمص
التاريخ،
القوت
##برين
والمؤمنين
المحيل
المتمردين
##ذبة
##حتك
النائ
بالأعمال
بكونها
غاد
مني،
أمية،
تمثي
سمك
اكتفى
شبل
فاستع
مصدرية
المحتملة
للتعليم
ممس
تشرب
المجتهدين
##ضات
الألي
يومها
لأولي
وأنعم
الاستعانة
للمحرم
أقارب
خصلة
توفيق
الحريري
الواحدي
أسفر
فتجب
##ناهى
زوجها،
والمعتمد
حضرموت
سراح
لعا
نشهد
تصا
بالتراب
معينة،
عجرة
والامت
محاربة
مصلى
جعلهم
عقائد
يطرد
يبذل
الحرز
المكاف
الغرور
##طرون
يؤجر
حارب
##ويك
الأطلسي
مولي
##ثام
##باطا
الصعود
ونسي
والرضا
ويث
ومفهوم
ليظهر
##كتها
أنت؟
يرعى
مساحتها
وجوهكم
أطلقه
تذبح
لتد
مشابه
وانتق
السبا
الإشارات
أخبرك
فحفظ
وسطها
والأخذ
والسير
طويلة،
صنم
نأ
بالهاء
واط
##لائكة،
وتسعون
رضاع
عشاء
لقا
##حض
##ومته
الغدر
بغتة
العدو،
##رشح
تبدي
##كافحة
السمرقندي
كلو
##رقا
استنادا
يزني
الباطنة
الأعصاب
وحمد
وخبره
نسائهم
البيزنطي
كظهر
وزم
##مهم
الدراسية
أسكن
أدهم
الأسط
العبادة،
##تابي
ويشمل
النقدية
إفساد
رويناه
المعماري
واتفقوا
داعش
والعجب
يشتد
الهند،
للام
نصره
فزارة
رهنه
ملخصا
##بيط
رأيا
نسيم
بجير
ثالثها
يرجون
فيعلم
فيعتبر
الوغى
لأمته
سمعان
فشلت
السكك
##انوس
الحاد
إحداها
للجنس
نفيل
يكرهون
فقتلوا
جيء
المهند
آكد
صفحات
الجوزاء
عائلته
وأثناء
الاثر
أبكي
يفقد
##ضيحة
اتسع
صدقته
ضحايا
##صاء
القبل
النهج
كلبا
ينبغى
بيتر
##سلت
وانطلق
الحافظ،
فاتخذ
ضياع
للفظ
أختي
والجنة
يفيض
##وعد
بالسب
الوع
ناقصا
تظ
فتوح
المشاة
المحدد
عفيف
##وعود
مراك
والحمل
الأهمية
ينبه
نبوته
عامله
الجهال
المطار
يذكرها
##كراه
##هلا
بالثلث
أجري
قلبه،
لبست
فازت
##ريبي
أمه،
بدائع
وصفته
القدوس
ترف
بشهاد
أغلق
فيذهب
الفحص
توكل
قميصه
حريم
سليمة
همة
والري
التوازن
وسق
البشارة
##راهن
أحجار
المادي
سلطنة
ثوابا
زان
للمك
واللبن
##وسيع
يمشون
بجنس
واعتمد
المروءة
فبر
متجه
##شاكل
يثرب
الغذائي
ينافيه
الديك
لقيط
سمة
قصره
يثير
وكبير
والمالك
الاستش
أرباع
بقرية
##تمون
لعثمان
كافيا
الخلود
عقا
هيد
النفوذ
معار
وعتق
##ولادة
المبطل
يتحدثون
زبر
والرجال
بأحكام
وقوعها
مقصورة
كلمه
الأسعار
نصبه
التقنيات
جبرائيل
خلية
الحنف
القرينة
يصليها
آتينا
السقاء
##ائس
الصخر
والرجوع
المتحركة
##حدين
صلاحه
تصر
حجره
الشعرية
تضمين
آفة
سلو
أقرع
فحكمه
الفاكهة
##أها
قلما
تتوفر
أمواله
يوافقه
الجمر
##اليون
ملجأ
النصرة
اللحظة
خولة
يال
الحار
وتجمع
##ضاي
المشكل
الانفصال
مناخ
بالشعر
اجتمعا
وثمانون
أجازه
المعراج
التحية
وأخيه
غرائب
لنظام
أرضى
##كبروا
تريدون
ضاح
##وفوا
اليهم
التقرب
حله
عور
##طبة
الألوهية
ومخت
##بيري
والجامع
مرش
جيشه
والهدى
بالحم
بالضرب
لوقوع
والمعتزلة
فأتيته
ثار
مالكها
المضطر
يجل
الربط
بدقة
مصاب
بالتمر
بالثاني
مشروعا
موجة
الأنثيين
بنشر
##بيلة
يتلى
الظاهر،
للسلام
يتك
##دمج
مضمونا
تبعهم
بنكاح
المسالك
يحكى
أجعل
والصبيان
أولادها
بالوحي
الكيفية
حميم
والساد
جملتها
الخاصة،
إزار
سفل
شياطين
والمنع
الأبر
بحقيقة
وبالغ
مغم
سببها
تنافي
مشيرا
والمحبة
مخالفته
مذكورة
للاتحاد
يوس
##سرت
أسئلة
فلزم
فغسل
النسيج
فشيئا
الحشرات
خفتم
منظر
الفهري
مقابر
ورسم
تأخيره
وعرفت
##ظما
##ريها
الدهن
ينازع
الإحاطة
ليعمل
طريقين
المدار
أثلاث
السالك
متبا
بمدرسة
##درا
ماؤه
##طىء
الخنثى
الإضاف
تعميم
مقيدة
الباشا
برماوي
عالميا
استئجار
الكوثر
المقارنة
والأفعال
##يفة،
تنته
تستطع
شبابة
متساوية
وحف
بتو
ربيعة،
يفترض
صلاتك
لينا
##كيت
##ظمات
قوله،
فتأمله
الأخطل
حكومية
الحدوث
مغفل
لخلق
أيق
فصلا
يتناوله
##ئي،
هدبة
اضطرابات
المنسوب
##سران
كالآ
المقبل
مضارع
حضوره
##صفهاني
تروي
خفا
صان
مزاج
فذبح
مناج
بكلية
##نبؤ
وتعمل
وأشرف
تجدد
رقيقة
يتمنى
للمولى
ومسجد
الفرعية
نفق
التتابع
المعنيين
وردا
الاتباع
بعضا،
ورتب
الغرة
وأنبأ
صاحبنا
لقولهم
بفع
##انيته
تأكيدا
أوحينا
كيت
ناصح
الاستفادة
بالمص
يربوع
سلس
للتم
أحلام
وليعلم
أسلحة
واضط
المسألة،
عتقت
الخضوع
القضائية
فديك
الرئ
نهيه
مخلصا
بنجاح
والمثبت
أسست
عاجز
ومائتين،
سلي
نذره
الصدا
أقاربه
بدينار
السباق
المسابقة
ودية
توض
شما
الحام
السمان
فأخ
وبئس
معانيها
خسارة
وبالإضافة
طيف
الصدي
##بلت
مالم
أبوا
والصفة
خرقة
قربه
بخمسين
وأداء
ونزلت
فتعين
لأداء
للمد
أجابت
الاستماع
المستشار
بفضله
الراحمين
بذنوب
وأسد
الرص
المحجور
حفظت
والفرس
المعلمين
واتبعوا
السكين
##ائرات
##قدمت
وفاز
إكمال
دج
التقاليد
بعشرين
حنبل،
فلقيه
واليت
##بوغ
الدوائر
متبر
والمعاصي
توصف
واعتقاد
موصول
يتألف
مسؤولية
للوجوب
بك،
##يمانهم
زمنا
مبي
وضر
وعلما
تفوق
الغيظ
بوب
تيس
الغش
المصابيح
المغنى
وعمله
دمت
كلتا
زيادتي
وستمائة،
اليمنية
سميث
ظنوا
القرارات
##سلسلة
الحدا
المعاف
أصحابك
واوا
##واتا
ركوعه
النوعين
الطابع
ثلاثي
بحج
##دعوى
العلية
الفاع
يدوم
الأدبي
كاشف
والتسليم
أوجد
الجرا
مطولا
خالدون
تكلمت
دأ
لظ
علينا،
كرسي
الضرورية
غضبان
أنماط
رعيته
انضمت
ففت
موعظة
الزه
##عهن
فرآه
الورم
بمرو
اذهبوا
شيد
التصدق
الرؤوس
##وكة
والوصية
الغطاء
بمهر
مرضا
استعمالها
غدوة
أعرابيا
طوي
الاحرام
يستعين
ودعم
الكبرى،
ألقت
##بيهات
فعلة
مالك؟
بالحجر
الفاسي
إكراه
منفص
المميزة
الايام
وبحر
بقص
واحدتها
أبصار
قسمان
يكفرون
صمم
##طري
وتسلم
ليعرف
أهدي
اشتكى
الرجيم
هؤلاء،
المروذي
كبري
نصل
##المة
فأج
بالمدرسة
للشيطان
الملاح
الإحكام
فهن
بيروت،
بعموم
منته
##رحيل
##حوش
##اقان
أفضى
عمامة
محتاجا
طابع
##عدن
الثغور
أصلية
طولون
تاجر
ماكس
البور
##حاها
لإطلاق
السماوية
استعارة
وأطعم
كبيع
كاره
النوبة
##ائبة
فرسخ
المقل
##ياه،
فتحة
تدارك
ديون
نائما
نكا
##دق
المفاهيم
والأفضل
عمومه
##وصف
##ارثة
راوي
أقوالهم
الاستعارة
جدعان
لوي
##رفي
ونعيم
##وحيده
##نبات
نقش
والرعاية
##نيب
##اجرة
محارم
تنال
تواضع
ممكنة
للكفار
ببني
وبغير
تقارب
بالأص
وأعلى
وقولوا
روحي
حماس
زرق
فرمى
للخروج
إنهاء
تعقلون
##ريقيا،
مارتن
##ريدا
التواب
الإطار
##ضيض
المتاحة
هناد
بالحجاز
الربيع،
سفه
وسعة
الجديد،
الأوضاع
ساكنا
والمسلمون
آنية
##خش
##خلات
والوعيد
كتابات
أقامت
المرآة
نكر
##بابي
يزور
هممت
العنبر
شهادتهما
ننت
وإزالة
##سب،
بجائزة
أبوابها
الإماء
والله،
الحنظ
مقبلا
بتقوى
وبخاصة
طبعه
نان
اندل
المتص
الحقبة
طبية
##سير
الأبطال
حقه،
لديك
صلحا
وبدا
سدس
##ناطة
وكقوله
حدثهم
جاءتهم
البنين
جنادة
عليما
أكثره
البقية
اقل
وطؤها
فأمرهم
مفردة
المسؤولين
شرائ
العذب
التوا
بوجوه
##ذائ
البقا
وتض
##انيوم
غيرهم،
##زعوا
وأتباعه
التمرد
آخرا
الائمة
الميث
الحراري
الدلال
##رجيح
المساء
ونك
مهلك
الشهرة
إثارة
الميلاد،
فوافق
ثنائية
##ونا،
أجرته
تكمل
والكتب
الخاف
##وعات
وصبر
زائدة،
المقاتلة
##مل،
اتقى
الخمر،
نابليون
مشروعة
درة
وعمار
أصابك
بركات
غرضه
##ذفه
ومب
##طاها
والسكون
لنحو
لوضع
وأحل
##يلين
المعج
أسلم،
المجتمع،
الصورتين
الفصح
إعادته
مركبات
اهتماما
الأوطار
أبط
بجعل
الشرعية،
لعمرك
عوضه
فسلمت
استج
والثواب
مساو
ثلثا
ويختلف
ينظم
##غرافيا
منظمات
تقبض
لتر
فأنتم
وبحسب
وأبقى
مدلول
الواحد،
بنائه
حجا
بالعتق
بأحاديث
##يفة
##ائيات
انفس
حالية
عاشت
لنا،
سواهم
القسري
الجرم
ولعن
المحليين
قومه،
جدته
ثني
أمثاله
وينقص
عادوا
فأخذوا
الساكنين
تبن
دوي
دماغ
يوجبه
والحي
تعطى
وبنا
فتك
طريقها
سترا
أوسق
أنشطة
صبيحة
مضطرب
جوع
خياط
ديك
رشيدي
فحق
المخصص
حيوية
المقصد
ونحوه،
يديها
والاق
وأيدي
وغضب
أشبهه
النبت
يقولها
وعزل
المنادي
حربا
بالخلافة
بولس
الشجاع
الهموم
بشيء،
وتابع
محفوظة
وليام
##سل،
فعلنا
##حبته
وتركوا
الرداء
واذكروا
استعمله
فعلوه
يفكر
الزوجان
غفرت
##شلونة
زاذان
##غاله
المراقبة
الأير
بعيره
وقدمت
استيعاب
##قلبت
وخوف
ولدك
جنازته
فكلوا
##ريء
##ياجات
فوجدته
الياباني
ساهمت
ولات
بعرف
يصور
فعل،
##فعلن
حفظا
شعاع
التنفيذية
إط
##ودت
##وزان
وحيا
للمريض
قتله،
لعلى
حران
خائف
##فسق
يجاهد
لأربع
ذرو
ووهم
##يرهم
راو
الديات
الأعمال،
##تفع
معمول
الملعب
نيران
أشباه
##دعية
تدعي
المكذبين
ويحسن
القواد
المحكوم
إجبار
الكعبة،
عوي
نرجو
وأيد
أمضى
كتابك
الخطوة
أثواب
أون
إشك
##ريا،
الصابرين
والمحدث
##تموها
المهرجان
صوابا
العملة
قبل،
والبرد
لسر
خصص
بارز
عندهم،
والشاهد
والغضب
والاتحاد
مذموم
تجرى
غذاء
##صباء
##نعيم
واللو
والاح
##فاعا
إعت
والمم
مجاوز
الحجامة
تيسير
يوفي
المرادي
المخلصين
والمختار
ينتشر
غفورا
لأغراض
تتابع
حفاظ
شتم
اعمال
فصدق
كني
وقفة
استس
المعترض
الكافية
والغرب
لبنا
الأوليين
زنت
يتصف
القرآني
جحر
الملف
والرفع
فبما
الطحاوى
##لاتها
##يسون
المشاهدة
##ضمون
بالأح
تخدم
مهنا
المفتاح
خطيبا
واحمد
إيماء
جاؤوا
ورمى
نصيحة
نعي
هبط
بالوطء
##وطئ
أعناقهم
حقل
فيقدم
شيكا
كالمت
تصوم
تكفر
وتعقب
أتيته
للبلاد
وإله
##ائي،
يرثه
ظهورها
الرقمية
الفعلي
واللي
بالرأي
##ازة
سيطر
خلقه،
الحيوي
فرنسا،
آس
عاف
ندع
وسطا
يعول
والأمن
أبشر
الأشعار
فاعبد
سطر
هون
##زنا
بأكل
باتت
الوقائع
الجهاد،
أفيد
##ووي
##ياحة
الحسية
التطهير
باطنه
لصح
##وابق
بوادي
عصابة
وبالنسبة
حبر
فته
ووه
##طعه
##صوبة
يعامل
نقصه
تعلقت
تعريفه
فجلست
##مط
فاغت
مؤن
يتجر
وللع
علم،
عصاه
الكسوة
فتصير
والهبة
الأنصار،
أوها
فأر
فخاف
الحجاج،
بوم
تبق
ظواهر
الدباغ
##طني
مزارع
##سور
الفهر
فالآ
اللغة،
جبة
شارب
يضاعف
##زمان
##قليم
##قراض
والند
الإحت
المعجزة
والسفر
فانها
هارون،
مدة،
تصانيف
يدعم
تتقون
يبول
معذ
البقاع
##لقون
الاسناد
القاذف
بالمقارنة
المعروفين
منزلته
أعمارهم
بالطاعة
أوف
صحراء
الادب
الخطايا
وزعموا
طاهرة
النازية
يستخرج
رأيتك
منكرة
التلق
بلبن
اشتقاق
القدوة
السفر،
أدبر
والشكر
البدنية
قصيدته
المعدنية
ضباط
جرير،
أعدل
صيفي
الجرمي
المحمول
جامعا
الفوات
للمسي
الحجري
صدقا
الانتباه
##نية،
الأقاليم
##روسية
الغدة
الظباء
بالسجن
ومحله
كاذبة
##كيل
الفائز
يقولان
كتابه،
الأحبة
وأعرض
وأمير
ألسنتهم
شعرة
##هاجرين
مؤكدا
##ثها
والصدق
##روحة
الطوارئ
ومقاتل
يستثنى
ضعفاء
السكران
فبه
##وسم
السو
وهزم
الجماعي
والإشارة
##وائه
يحمي
دنياه
ظبي
##صنة
الملام
المصد
أنفذ
وأبر
لمجموعة
وباء
ونهي
اللعن
##مدادات
يدخلوا
بتسليم
وههنا
الدرج
وشريك
الأسفار
##ضمض
دخان
أجرهم
مبلغا
بدورها
مشا
بعثنا
عفان،
لباب
المعتمدة
يفعلوا
الهلالي
##مارسة
فلكل
لخدمة
##ريحة
يعفى
تتصل
والسؤال
ظهورهم
فرجه
بكتابة
##دهم
أوليا
السرح
المسبوق
##قاص
العجائب
قعر
العهود
##لفى
المتوفي
والنحو
دونك
فغلب
##لنا
##كوك
وتتم
وتخصيص
المتشابه
الهدايا
المحور
المراسيل
قمع
وأفض
الحاجات
يشاركه
خاب
##حقا
##درالي
بشبهة
##ائر،
صلبه
يتبعها
مخصصة
##رازا
للوارث
أنفقوا
وطي
##عك
بالباب
للزوجة
المعني
##سلخ
صدام
اشتهرت
وأسباب
للبد
الكوم
بالمغ
رقة
سمعها
ومركز
جسما
الحديقة
عمة
غابت
##ماهم
السكة
الاكثر
كفوا
للمسجد
طوق
مريد
##قائق
وأفعال
أقمت
مصباح
الزحف
وحص
والإنصاف
يتأثر
آبائه
ومأجوج
شجاعا
جذور
بلدا
يشكو
الباك
تبليغ
نوعه
معتق
باختياره
تستر
نوعية
عنترة
برحمته
حبذا
الذهلي
شريط
للوكيل
والبعد
الكمية
براون
انهيار
##ديع
بالقتال
الكار
الناشر
والقصد
يطمع
##وهام
القدمين
ليدخل
عراق
العلق
##بادي
للشر
تنح
بارزة
رث
##بوذ
الكوفى
محصور
للنظام
الهدنة
الأخيرة،
تجعلوا
الهيدروجين
حور
مبط
##دادي،
بقبول
مهنة
فصاروا
أشرت
حيل
حاض
هوية
بأيام
أولهما
بطاقة
العشق
متت
تمكين
القنوات
ورفض
أطل
ريد
المقطع
يعرج
وثب
##صيبه
##كانة
لأخ
تقوية
يخفي
##بادئ
بنته
##بورا
زوجتي
ساعة،
لفقد
للعلاج
منصوبا
أسفله
##لت،
جهز
بمسجد
محدثة
صلاتكم
منفرد
##فرقا
الطفي
ومض
الدراوردي
مكروها
كرهه
الافتتاح
فمسح
يكرم
عمري
والاشت
اقتضاء
الإعجاز
##ساتين
بوضوح
سياسات
##بع،
كالر
فروخ
أعطاها
تذك
وربع
##سبا
للغة
الغرف
نفرا
خيال
علقه
وفاطمة
أحت
##شاور
الجديدة،
والها
له؛
وفات
وانضم
اثن
إغلاق
فصيح
يهاجر
والصحة
الحاكمة
##غارا
والنخعي
الأنبياء،
بشخص
بالأش
رموز
عشري
بيدها
المرفق
##ضلال
فدفن
للإيمان
المبني
##حيت
عادية
مقدمات
نشرها
توط
الخدي
بلخ
معاشر
المغاربة
بسام
البريطانيين
الحضرية
ونعوذ
القفا
النسوة
خطورة
كسوة
فاسقا
صعبة
##بيلي
وقعد
والعذاب
غربا
يضبط
الأعين
فانك
الحاضرة
تعلمه
الدستورية
بالخي
وسخر
الخفاف
##سندر
الغزي
بإزاء
علقة
حسناته
النقب
اعملوا
ضمنا
لاسيما
بموا
المحصول
تفقد
##ونسون
بسطام
باص
هبته
لجأ
ترمي
أعمالها
نقصا
الأغلبية
جندل
حشر
النعام
الاعمال
##ارقه
وقب
بالنصف
تقدموا
##مونا
الثلاثة،
بكلمات
افتراض
تظاهر
القطا
الشقيق
##عمري
وحبيب
الهمة
بالري
معبود
انزل
الناقص
مروان،
فدخلوا
عكرمة،
كمد
بالمنع
الفروض
الغلبة
ستره
يرخص
الإيراني
يركز
الفارق
وتمامه
##تموا
خطابا
الدموع
الخصوم
##بار،
إيضاح
نفير
للحافظ
لسانك
موصوفا
الرئة
##لونا
اغتيال
العاجز
تجت
##كية،
وتصد
الاستث
وثائق
الصحفي
البنيان
وددت
يأخذوا
الديلم
والاستع
وكرم
للحم
يحط
التنوع
وصفنا
قبلها،
وكأنها
المحمدية
ذكاة
ساه
فالد
ايوب
أيتها
للطاقة
أظفار
فريقا
الجامعي
ورت
##أرة
الكشميهني
وإف
لحركة
انهزم
شبهه
يوحي
فيتم
يسقي
وذكرنا
الثقافات
بحديثه
عابدين
##ضحت
يعظ
مسابقة
والحافظ
##قطعوا
يثق
خيرة
لوم
التكملة
المنخفض
فالمع
وأجمعوا
واقفا
عجيبة
قفل
لخط
مشد
رجعيا
زح
ونجد
وصاروا
بوين
جليلة
##ضارة
المئة
بالفضل
السليمة
##قياء
مؤثر
والسياسية
الكسرة
ينفر
للجماعة
الغصن
بالشرع
##ركة،
وأحوال
شمالي
نوبل
الجبن
ويسر
##لبها
##ظرية
أنفسهم،
تميم،
رحلته
للرب
وجر
الزند
وندب
المتبادر
المكلفين
دلالته
الإنكلي
##صاره
بارت
تنام
ظهري
##ماده
ألفه
الأحجار
باليوم
الرقص
وتقر
عدوى
المؤكد
والغالب
أحسنوا
وتحسين
للدنيا
المريخ
فيعمل
أجساد
العبد،
حظا
طيلة
والميزان
فأعت
وبكر
مهند
بالصفة
الأكراد
لقطع
##ذرية
والحقيقة
الماهية
خصه
لتحسين
زجاج
خلقوا
بالحياة
إجاب
وأعيد
برحم
##قافة
القابل
تقريره
نفيا
تدرس
متوال
خلقة
للأمير
بله
الوعظ
المعمر
يستأجر
وبلغني
الكفر،
إسلامي
كفارا
قادرين
يعارضه
الهولندي
لقت
الميس
وجدا
##سيين
فرقد
ففعلوا
وند
##شيق
اخترت
القيوم
حنيفا
يقنت
التسعة
وخرجوا
##اشع
فرحون
لتغ
بحساب
والنف
وشروط
##وكو
بالغسل
##طلقة
الاستئذان
مصاد
لإدارة
سألني
أسلاف
المنفصل
تحذف
أثرها
##ظيفي
##كثار
أنباء
أمنا
إقبال
كوني
والرابعة
والتغ
قتلوه
التأمل
لولد
نبو
عادي
اللفظ،
مقصودة
فكأنها
ووع
لمحا
الإصدار
##نبى
قضيته
وجهات
قلبها
حليم
وتعليم
العملاء
وده
المروة
قدومه
تحديدا
بالدنيا
وآخرين
جاهد
##نتج
فمنه
الجامعية
القلوب،
كبائر
##ستور
بمعدل
##ساعد
بكف
تصب
ويتع
سيارات
خلكان
وجبل
##ليل،
الأرقام
سليما
الجحد
فإلى
##صالات
زكرياء
المشتبه
جذيمة
يهدى
الرقاع
أنهن
المسودة
##رسالة
البارحة
للتأكيد
لفض
ميسر
الإبداع
حاجتك
ترجح
والآيات
شهري
السحب
فالذين
تصنيع
وكا
وجرير
ونوع
فتش
ثلاثية
بالجواز
صادر
العطية
ابنتي
سكين
ميش
وتأخر
كنوز
والحاجة
والثقافة
الريفية
##جئة
تنمية
سهلا
لرد
##ديرات
بالتكبير
لسي
يوثق
يجزيه
والقوم
أعطوا
ذميا
فالحديث
عده
بالحب
وساء
الصواريخ
##ميرا
الغزال
وصاحبه
##تبى
جديد،
تربي
ميكاني
##ذوب
##واره
##يلت
وإقام
فارسا
الصاغاني
إشارات
لونها
##ثلها
بالوضع
وأحر
النفاس
الطمع
##صرفه
التنوير
وأخبار
الساعة،
المطلب،
المسئول
والشافعية
موف
الدقة
الخيام
داوود
مخاطر
بغرض
فسادا
تملكه
ران
كرك
ويحتاج
يلج
وغنم
كسرة
أعلا
عامة،
ذاكر
يسكنها
تأسس
صقلية
ليا
الحبة
ومعناها
ضربته
للسهو
لساني
أجزائه
جاهلية
المخطط
حينا
مضاد
القيروان
بطي
بساط
تأول
أفراده
##بائث
والخطيب
غمر
وأعل
الساكنة
الوريد
المعاهدة
##يبات
##زمين
##بات،
الزعفراني
برت
##بعون
الشرع،
المهت
الاختصار
##حموا
للغير
تعهد
واضع
##قولون
والتوحيد
نزهة
الرماد
فنسب
حيضة
الأماني
العلوية
المعيشة
الجاذبية
يي
متوق
بإرسال
الجزع
المعاوضة
مستقبلا
الممارسات
مفصلا
تكفل
وأربعمائة،
معتد
صدوقا
قصبة
كولومبيا
تسبق
قضاه
والذهب
وبحمد
وصوم
##ولا،
صدوق،
تطبيقات
المؤرخون
وأولاده
والكف
البدو
عوف،
يخلط
غريم
##غلوا
##راقه
إنجيل
الكوا
آلاء
منزه
وتسم
لغيرهم
اللاجئين
والنصف
فسماه
يطيب
تغلي
المرز
الحنفي،
يخصه
حركته
ضغ
ميث
لاجتماع
ماس
##برج
لتج
##يكية
الحسني
بدعوى
فوص
تركب
فنية
التسجيل
تعذيب
مشتقة
فرأيته
المفاصل
الجبلية
دبره
##حمي
##رجي
يستمع
يرشد
والطبري
التجريد
الرأس،
فبا
الإتمام
والشارح
النقيب
يترب
المنصوب
والسمع
قرين
لينظر
البروتينات
##لأت
الآجري
البيضة
فالغ
بعثك
دولته
العرقية
##ملها
التبري
وأرد
##وقراط
بقعة
تصني
صادقة
حتما
ضال
بعق
ودوا
التابعي
إفادة
صبيان
مبسوط
##سهم
##أة،
السمر
والنق
أغلبية
دعاهم
وأبناء
خميس
##مسح
ليعبد
لأش
مكان،
بخص
لوجد
المستحاضة
مكونات
الكلأ
أخره
مظعون
شربة
المرام
##درى
أشكو
وشمل
##تيناه
الفيدرالية
الاجارة
غرناطة
سوم
سارت
بالفت
للجن
تحص
أقاتل
حمدا
والبخارى
الديباج
بدايات
الحلة
بعلة
ثلاثة،
بالإشارة
عظمت
تضاف
رفقة
فروض
##بيدة
ومراده
فأقل
##طفية
الحالتين
لإمكان
يجتمعان
الدب
والتصرف
الحد،
السدوسي
فطلقها
وطر
وراح
##ذنا
فيعت
فيمتنع
توبي
المضمضة
أوكرانيا
مقطع
العنا
يقرع
صيحة
شبيهة
قه
##الفا
يتما
مماثل
الراشد
لعلة
أرضعت
كعب،
اللاحق
وتشير
قضائه
تاي
##ونة،
للرد
الوصال
يأيها
مؤكد
بطرف
لفظها
قبضته
فشبه
وفاقا
اندلاع
##كنها
بمذهب
السنوي
بنفسي
ومحبة
لقص
ويبدأ
قنوات
وأنزلنا
والسنن
أقتل
مبالغ
##كنز
النسائية
تكنولوجيا
وشيء
الكراهية
يجادل
والعباس
الكروم
وعمرة
إياه،
بأصبهان
كلفة
يكرر
مناصب
فاكهة
تقضى
أقواما
تاريخيا
الفيض
الجيش،
أنعمت
الملتقط
وإدارة
بصور
يجلب
البخيل
##افير
أدرج
القصوى
فاصبر
القابض
أرحام
##فاقه
محور
الحاقة
واشترط
ورائه
الصقر
بسببها
ألفاظه
اصل
دولي
نهب
الطيار
حياتي
بتخ
وشرك
نشره
الكوفي،
ركعتين،
صلت
صامت
نفاه
بالبعث
الصنم
فأتا
##ناهي
لقصد
بشر،
أبدى
دمياط
المكسي
حسبك
مولاة
فاتفق
أسمعه
##واطئ
فالث
واستثنى
اشتبه
جديدة،
ميراثه
بذبح
مخص
##ورج
الصواف
الكلى
وصلها
والجنوب
سيناء
منقطعا
##يبين
تشري
مؤشر
بالاسم
التمكين
ريحه
مجتمعات
الدورقي
والعدوان
##حمت
##ياما
وطرد
طفي
الشف
الكنا
الأملاك
الاستهلاك
بمشيئته
يهل
القرام
الطاق
أمران
والاستغفار
معظمهم
بالخاء
أجلس
ويقل
##انيت
الإنذار
##رياض
تغفر
وعمره
البلدين
أخيها
خما
عنف
الوراثية
وثابت
لإزالة
الصفي
راغ
مرافق
##ثارا
لعملية
ويخاف
ووجوه
شبرا
بنغ
التقاط
التعدد
رددت
والاج
الخالية
يأجوج
نفاق
منحت
السرج
بجن
التأويلات
يجتمعون
خسائر
محظور
فلسطين،
دورات
##تكاب
مباحث
الموالية
الأضداد
جنت
ووسط
التوكيد
يقص
امرأة،
حذافة
كنه
الحضرة
##ضعفين
تسجد
##وديوم
يأمركم
الكاذبين
ثانوية
الرمادي
العباسية
مبطل
تسن
مبس
السائدة
محتملة
رأيهم
تسلسل
وراجع
##رامي
السعة
معدي
الرضي
مدحه
والصبي
مقاما
يكذبون
لسبع
ككل
بالاج
##ائها،
الجلي
الوافي
##قالات
أرزاق
الأفريقي
تلقت
تفتقر
عيدا
وعت
وبج
الانع
حملوا
##البه
به؟
##شيه
الشيخ،
كأحد
##واصلة
##خوا
وأظن
##فعى
وحرك
بأنك
##شاشة
يزالون
بالطريق
الخلفية
وثلثمائة
حارة
الواثق
حالي
ومعت
المزاج
واليمن
##قرت
الأمعاء
استهلك
وشهدت
المصلح
الفخار
فأبوا
بلجي
وصيام
حالته
تأتيهم
توجهت
المقدس،
عاصم،
إين
ردة
تعرفه
يعلن
تقابل
لتست
يصرفه
بالتالي
آثارهم
يمنح
مجتهدا
شبكات
ثناؤه
فعلهم
أجلا
##جبين
أفهم
والغرض
موقعها
انتقض
مستقرة
مبتدع
مناهج
احب
جحيفة
بمدة
##ؤدي
لمص
##تيار
فتدبر
مال،
لأح
وشم
بالسماع
الوضوء،
بروح
بلقب
تهب
##؟؟؟؟
ذكرتم
##كييف
فنز
رسلا
ويسمع
المشهورين
يرتد
ووضعت
ذريعة
زمام
واي
##لق،
بحب
مستثنى
يتركه
سيء
الصالح،
المروي
الأندلس،
الباطنية
بوقوع
وتقديره
##باني
##ثلي
الكفار،
مركبا
البكالوريوس
بظهر
السواء
القديم،
##ريهم
المقدرة
دورها
شاهدين
فاجت
طيبات
سئلت
فلع
بحالة
وعدل
فذكروا
فأتت
لحمها
الانتقام
رفق
فخير
السجل
فيه؛
علمته
ورغ
حجر،
منعوا
بدعوة
معتبرا
##جزي
##هت
##ملح
متقدمة
التعجيل
الرجس
قارئ
ذاق
##ريقه
وبهذه
الأخلاقية
قحطان
ضبة
التكن
أوساط
ويقف
يما
والتل
تجعله
نعمل
حضارة
وجامعة
يتيم
الزبد
نسيان
يسرع
التراخي
صني
العقيق
العنان
السهيلي
ويخبر
وإحدى
##مانية
يستغرق
دعاني
تحريمها
الساجي
جمة
تحط
ويدعون
شأنهم
المنكرات
تعتق
تنطق
حكمنا
ببطن
مأكول
والتعبير
توليد
والاقتصادية
يشرف
الحماني
التفويض
تجدوا
سلاما
الطها
فالحا
##بيره
والنسب
##رخاء
ويده
للفي
##قاها
والفكر
حسرة
الهيئات
والنقل
بإضافة
اقتضت
أعدت
أموره
بصفته
الشدائد
نبى
##غة،
حلفه
المصطلحات
أثمان
ليقت
سدا
فبادر
##لفوا
##رق،
بتهمة
والإخلاص
##وطنات
حاجا
سرقت
فاتت
لفوات
يفرح
استقرت
##كوب
والوقف
الأديم
أوقف
للولد
يتجزأ
فأثبت
بالتحريم
الساحلية
##عياء
جعلا
مرسوم
التغل
ولام
والنفقة
بشعر
ثقيلة
ضاقت
##ضا،
للقلب
الإداري
متقارب
بانه
المديون
##نبور
مقدور
حسبنا
ويلحق
مدرس
وخش
وزهير
فبات
الدواد
للمدعي
التنازع
احتجوا
المرحوم
الاختي
الغل
لأص
فالإنسان
الرحيل
والإقرار
حماد،
وإسرائيل
##ضاعفات
##قيه،
وشخص
المكونات
جولة
الأغر
يحشر
اشتر
والمنكر
المرتفعة
المفي
بدراسة
جزما
ميزة
فحيث
تحقيقه
والعفو
برشلونة
اختارت
للمسافر
تخفيفا
##ذونا
بالاجتهاد
الجغرافية
الداري
ينز
نسألك
للتس
المسيب،
الجوائز
الكفن
والنسيان
موسي
ركنا
التوقيع
مكرها
تلقاه
##رادا
الفاجر
استطاعت
وتعلق
ماء،
##طارد
التونسية
حباب
الصوري
سيره
سلبه
مباركا
اعتمده
الاربعة
بقراءتي
##تبعت
شكلا
رياء
أطلع
توضح
بالتم
النمس
الطرد
محبا
تمويل
القصائد
المقامات
وأفعاله
ونون
فرقت
الثالثة،
لرئيس
والمجد
الهمذاني
هجرية
ومنصور
حقك
العملي
معتدل
وقفوا
والوقوف
##راكم
الرف
##وجات
مسالك
تسعا
الفتيا
خاصية
تقصد
والدواب
عبلة
امتدت
بأموال
بذنب
المذي
ويعيد
##كيله
الاستطاعة
اللاهوت
عصرنا
آثم
النسفي
يطيل
بناته
فانطلقت
تزويجها
غيرت
وطريقة
صلاته،
محمية
فوثب
منافاة
تمنح
##غمت
والضم
انتقد
بالإع
المشركين،
وأخبره
أنطاكية
الاخير
اختصارا
بأسلوب
الإيقاع
التغييرات
وأكمل
##سيوم
يلد
موقعا
الغيوب
##اخذة
سرك
المنار
بالنهي
والصاد
بفتحها
بالسوء
فاسأل
يرفض
تايمز
قين
الزيادي
فجعلها
وأحكم
وارتفع
سارق
عاك
##انج
يسهم
الجزئية
مختصة
وبايع
##وضى
حديثي
للمأم
سمحت
إقرارا
فالأصل
بالهمز
سلول
##ثية
بالقل
تنفس
العاقد
البوي
العيال
اعتمدت
ثقب
بنين
وتصدق
الطوفان
##ذر،
وولا
يقبلها
أعضائه
مدبرا
بالأع
##فاعله
صلاتها
عشير
نموذ
حيدر
هاب
والوسط
لأهلها
طبعت
فلقيت
المفاسد
الآمال
##كس،
نسخه
##نايا
التكاثر
وجامع
الجميع،
تؤمنوا
كنية
##نجي
##يمتها
للبلدة
وتجعل
والمجاز
يمكننا
شاء،
الدعاء،
التطوير
أنكرت
غزاة
الفواكه
فولى
قطيعة
محلي
خصومة
التشبه
الحيوانية
وعلماء
الفصاحة
##كروس
قدام
حرمان
حقوقهم
وتبلغ
لكني
عقلية
مضطر
أشركوا
رسلنا
مخلصين
##مالة
##ضلع
الأهواز
فشد
لدا
##غراق
اللائق
المدخول
عاين
تنافس
وأكثرها
سهمه
قضاؤه
خاتما
ظلام
الوف
المعصوم
المشكاة
وشكر
وغالب
لفهم
كفاه
##عاقة
المستحب
الحاسب
رفعها
تبيين
شقه
وسك
##يناها
جنسا
وعندهم
جده،
الأولمبية
دحية
##معن
ويصدق
##قاويل
محذور
إبط
إبله
يكلمه
رأيتها
الكثير،
الرقابة
ضن
ويفتح
والنشر
سليم،
زرعة،
والصلح
لقريش
والإرادة
##تيني
كفالة
رجعنا
وشبهه
المفسدة
الهنود
ارم
توكيل
يبال
بالسين
شاءوا
والغسل
الرأى
الناشئة
مبينة
##دية،
الخان
##جرها
عيار
مهرا
##ضطرابات
إحسانا
الينا
##ويها
تطيب
اللغو
واجتناب
تير
ضروب
فاب
الراحل
الكرى
الخفا
المعمارية
تنه
برئت
محذوف،
حصاة
##بت،
الغريبة
بتركه
واستطاع
أترك
الجمعيات
بتأويل
##حنة
واللح
أناسا
بشرى
مزرعة
الأهلي
يزوجها
##خالفته
سمير
والطعام
##ولدة
##باذ
فتزوجها
فعول
##صيبة
مهموز
ونزع
اختر
يعرفوا
تطير
الوطئ
إكرام
إقطاع
فندق
كواكب
صحية
قبضت
الرياسة
الفلكية
المحيض
فأحضر
الطلا
بأش
حميد،
مجنونا
##علب
انسان
احتراز
إشعار
ويسعى
انفسخ
شفيع
غدت
مذهبا
لدينه
حجت
والإبل
والخطأ
عهود
منير
##وارح
الوض
المسار
المقيمين
مفسر
##ثرات
العينة
أكدت
المشرف
فرارا
نبأنا
##قيا
ليأ
وأمسك
النعت
فارقت
بالآيات
أحلف
مشاهير
بطلانه
بروتوكول
يطعن
##ظب
والغر
الدرك
الإفك
ينجو
خطرا
انتهوا
##ريعته
غنائم
بالهدى
##سبها
يدى
بالمدينة،
المقبوض
وضعوا
ربكما
أشرنا
شائعا
الأحقاف
وألزم
القطي
الذكاة
##حيق
والتشديد
مستهل
بالمصدر
المغول
قصته
بأس،
##كارى
يعدو
فراسخ
اذن
ديز
فيقبل
الحقيقة،
والثلاثة
إصاب
كورة
##زاله
##خبين
فيلي
بمقت
##ياتهم
مطمئ
الأدب،
وسنده
مستعمل
والسلاح
مجتمعة
لمساعدة
ووثقه
يجمعون
لمواجهة
كاز
افترى
##ليح
التحقق
الزانية
والعباد
أستغفر
ومرض
أحمق
الحصاد
الإسنا
ومنطقة
أغنياء
##هتمام
والسل
الجسيمات
يعجبه
##تابة
نقضه
بزعم
##كوس
##غته
اللف
##قاس
وثوب
خالفت
##ئتها
##جازات
وأرب
##دمت
موقوفة
ظنك
يناله
المتنوعة
الأموال،
التفاصيل
##باكات
نجحت
مأذون
والهمزة
والحركة
تتمكن
تقلد
الرئاسية
##وله،
مشروط
يلزمهم
عالمي
الاحتجاجات
إزالته
تفسيرها
عهدهم
بالكتابة
خامسا
سمات
##ثالا
يتقا
أسأ
أخباره
بسيف
متكلما
تخط
الدمياطي
التميم
التخريج
تعاطي
الإحساس
يخصص
##سية،
##ماكن
على،
تعقب
وإش
والمأ
تحضر
مدعي
لفظي
عادتها
التصغير
حبست
عاجزا
سياسيا
##جعا
##خلو
التدري
وازد
الآش
تهدي
البارزة
شبابه
والضي
القشرة
ويصف
للموا
##نسوة
أنت،
وقائع
الأميركية
الجاهلين
مأمورا
بزوج
الحبال
عدول
الجياد
ريع
##نيم
##ديد،
أمارة
ادريس
##جتها
والكبير
خراسان،
##انه،
البلوى
##جم،
لعباد
موضوعات
وأورده
صراحة
بحركة
وثياب
صاروخ
وسبعمائة،
السائلة
وإرادة
بأمان
##قطاب
تقص
جزية
خبي
المستويات
بإجراء
المدلول
بالحكمة
يعتبرون
قيود
مباشرة،
الأودي
وياء
مسيرته
أصولها
الانش
وعندنا
المفوض
فيط
إيجابية
كوت
بالجد
##حاقه
مالت
تسافر
النسيم
مصم
مؤجل
وتعرض
يخرجها
الصفراء
الأكثرون
فاحش
التعميم
طعمه
طهارته
##ونية،
ومجلس
##وار،
ويقسم
ضريبة
لقتل
النميري
إبلا
والخدمات
حربي
إيقاف
المهدى
والأطفال
مستد
وأسقط
دوره
تمامه
اليابس
المجرور
أزواجهن
##زويج
والبق
والرسل
##باخ
للإي
##نظر
الثروة
أخفى
إليزابيث
بالترك
المواجهة
الاسم،
الحنيف
ناطق
الشبكات
يعينه
استف
متنه
داخلية
كبشة
نازل
ومخرج
حمارا
عطش
بعملية
التساوي
الرهبان
##وزه
##مسة
وتعقبه
مجموعه
شرفا
داعيا
##لكترونات
بولاق
إنقاذ
ابنتها
##هرية
لقبه
والفقر
ويؤدي
حابس
كشاف
برود
يفوق
الانحراف
الترمذى
وسلم؟
أخطأت
ولرب
خبيرا
ديل
الدف
ينبع
بهامش
هيبة
دخلا
طلقتم
أولهم
عمها
حمزة،
وشمالا
منقذ
وجزء
لنف
نرد
الذكر،
عبق
ويجلس
تتحول
روك
وسقوط
الإقبال
والأه
التكلفة
للقوم
موقعه
تفرض
مخلوقا
فشر
##تيانه
يتعد
يعلمهم
بغسل
عجزه
القرافي
الحاصلة
بالقد
الغرام
بحرا
إجمال
الإجهاض
زعماء
لوحظ
إراد
كارت
الخفية
استه
مضادة
عوق
##ارون
وسعها
اللعنة
عقيد
عينك
محاكم
أسقطت
اخبار
كلكم
رئيسة
البشرى
الشحنة
ملق
##ته؛
يقنع
الانتظار
فراغه
الخزانة
وتهذيب
أخوات
لأست
يرتكب
جامعه
##اتك
المسي
يشبع
ولماذا
تسميتها
تلميذ
نحت
العبرية
والمواد
فتد
أبق
المناوي
العميد
الحصون
المندوب
ضيا
فذا
نفسك،
أرسلان
أرسلناك
المرجئة
فيؤخذ
ثوبي
فشك
متواض
ساكت
خروجا
الصغائر
##برون
المنقطع
المستخرج
بجيش
بهمزة
السموم
وظيف
القلعة،
طيران
##واخر
الاول،
عدالة
سنقر
وشا
أقاويل
وليد
بغلة
الألفية
بالغين
المختصة
خاطر
التزوج
للقتل
مثناة
وتعني
الصفدي
ويلز
وذبح
##فنا
##باها
أشجع
تمثال
تخال
فحبس
مرتين،
سافرت
القوار
قرص
القدسي
عميق
الاستعمارية
كبيرا،
أعور
الاموال
ويهدي
##طائه
وعلو
المستشفيات
##وطئها
الطائفي
جاع
##وارج
عبارات
الراسخ
خلفية
شرور
ويعني
وابى
رحب
فأهلك
لنفي
أثم
اجتناب
العجمي
اربعة
دائر
##جأة
والطرق
حذرا
مديرا
عمره،
بلادنا
والباطن
النقيض
الرطوبة
الخوارزمي
##قرض
##خلوها
العجي
حكمهم
والكلب
ويتوجه
يئس
##راخ
السفاح
عمله،
جمعهم
ليلته
أكملت
##شستر
##رويه
وللب
الوسطى،
##ضاد
العذار
نتج
مبادرة
جلوسا
المعير
تنشر
اتبعه
أمورهم
أعتقت
غفار
الآبق
##كانية
ويتجه
ببساطة
امتد
للشباب
تلقوا
والبغضاء
تاركا
عقي
##ئام
نسبت
##دى،
لحرب
مغرب
للدكتور
أدرى
بويع
دوس
دوق
العرس
الفحول
والنعم
لكنا
حاله،
ذاتي
نبذ
توال
عورات
##درائية
##غلت
القلا
معونة
عدمها
تفوت
نشأة
وأمان
ومجموعة
أصي
الرجلان
تخزين
تخطيط
تهلك
إحضار
مصنفات
المريد
وجهل
ومدح
وإجماع
صرفا
نسيئة
السياسيين
أوقية
عزا
مباحة
التنافس
حيوانات
الإجزاء
أخطاء
والمشي
فتركه
برده
الوجهان
تيمور
الخزرجي
لخال
بالمي
ونب
ونبه
امتثال
وأصحابه،
حسنة،
الاثنان
فارجع
الناف
استحسن
ولمسلم
طالوت
ببعضها
تمكنه
شوق
نير
يعل
بياء
عاتقه
فالصحيح
حوائ
خلة
فقعد
وجلال
##وضه
مسؤولا
ليبين
##مبراطورية
##ين؛
الألواح
##نيمة
والتجارة
والقاف
مختارا
ثروة
##اتذة
فتصدق
##طلاحا
الشريعة،
ليشمل
خفة
أغر
زمنية
وابراهيم
إزاره
أوهايو
##ضاره
منة
انج
وإث
اشتدت
الخرطوم
الملاحظ
##امح
نفسية
معاذا
قرنا
##باحته
مفهومه
تواتر
لولي
لأمره
يحفر
أشع
تطمئن
بالعهد
وتحديد
ظبيان
المارك
واشترى
##فله
##غها
الإيضاح
المرئي
فسمعته
النطفة
عوج
##لحاق
يستغني
التحلي
موتي
الصليبية
##جعه
##سلها
والوص
طريقته
بالعديد
مضغة
فأعطى
بزوال
العذراء
ترسل
ماز
ماشية
القاهري
يصيح
كلامه،
ذكرك
بمبلغ
كاله
الأعوام
الهجرة،
والقصاص
جعدة
الرملة
##وبرا
فتفرق
لبعد
مرفوعة
ذكري
البصرية
الادعاء
والخطاب
حلها
##برى
يتقيد
مقلوبه
التعريض
انتخ
المواشي
##مائنا
الجنايات
وادع
مقرر
فلقي
وترتيب
##كش
الحسان
غيرة
يتطهر
ومالي
الشمسي
تثنية
يابس
الكندية
الزهرة
فترى
أحرار
قوموا
الأحلام
البغدادي،
وناب
تلمسان
وجهان،
حملك
حبك
والأرض،
راجعة
جرحا
تواصل
الإعلامية
اسط
حسي
سقت
غاص
المسلك
##وانية
المجلات
الديانات
تعتقد
وبدون
الجانبية
الكتاني
شوكة
توقفت
##ونز
##بتداء
المطعم
أبدل
للدار
بأشياء
تنج
زعمه
لحاجته
متزايد
للمط
والخمر
نظمت
توي
دهرا
والسكر
##ؤد
##ومهم
للظ
الزوا
##قبلها
فرنسي
وغل
المواريث
امتصاص
ملازمة
عواقب
مضيق
وضيق
وسعت
يتقبل
نظريات
لكمال
لسوء
مزينة
محمولة
عيلان
الحوير
الخريف
فأظهر
تؤكل
والآخرين
لطائف
لهيعة،
الزبرقان
بنسب
التذك
الآبار
الغشاء
أحدا،
##كتشاف
##قطا
أبطأ
الكهنة
المظاهر
العجيب
بالابتداء
استبعاد
وماتت
المحاصيل
وحكمته
##كين،
##ريما
بأسانيد
إليهن
##بائية
بالقصر
إعجاب
للجهاد
مسألتنا
حوار
ماهية
الشفع
والقن
خداش
العثمان
##ديقا
أخوة
الأسهم
والرعايتين
مهلا
المشروعة
الأصوليين
صواريخ
فسمى
خالفوا
وظنوا
تذر
توثيق
خالي
فعله،
وغدا
ودينه
الافتراض
بوك
##ثناة
ولايات
مدافع
أتبعه
وضمان
اكتفاء
القبر،
أعطاهم
اثبت
والياب
والراجح
##قاظ
والشهداء
اللوحة
فسبحان
المجيء
منسوبة
حلوا
شحم
##ؤول
للوز
##عاش
والشرف
والخش
المزار
بثبوت
فقتلوه
أبه
اطمأن
بالوضوء
وتقبل
##يتر
علمك
بالبحر
مرجح
##ابض
تعاليم
الأزهار
مشتمل
الطفولة
قرم
الملائكة،
مسبو
الزراعي
المتف
تقربوا
##وصوف
المسلم،
المأكول
البلاط
اللحوم
بضاعة
خليف
##ديف
بالكل
##ائد،
تعامل
يتساء
فاغ
عادتهم
##ظيما،
##كنات
المراكب
فعبر
نسائكم
نصبت
الصالحي
##أين
أشراط
القبلية
بلى،
##ناقشة
مفيدا
وقصة
انتصر
احتلت
القبلة،
فرضها
عهدة
رشدا
زاهر
طيء
أوضاع
الخزاز
أمثل
تحديث
أعطني
للشركة
##ذال
والدتها
مزية
عزيزا
أ،
والبه
##افها
القرء
جوامع
وعملا
تشر
وحركة
رأيتني
وضربه
المجردة
الزرقاء
ضريح
وأصول
##رادى
شهر،
وسرعة
أطف
فولي
كهل
الاله
النفقات
الدائن
يعرب
الويل
استيلاء
يبخل
نتكلم
##ليج
امرأت
والزمان
المحرم،
صغره
يرحمك
فحسب،
أساطير
الداني
##دهد
اسمك
يذهبون
خفيفا
يبتدئ
منية
الكتيبة
الاطلاق
اهتم
الخيول
تود
يقذف
##خنة
الموات
الزبيب
أخبرته
تجا
سعدان
أغلظ
هاشم،
حبها
وداع
ماكولا
رداءه
تشركوا
دانيال
وإح
مقرونا
لسائر
الاسدي
حذو
يحزنون
تزا
ذبائح
نشا
وغي
ومقد
المعسر
المدفوع
مغر
ولقي
محتر
ساروا
دالا
زانية
فاجر
كفيل
بالور
وأرجو
الصن
وإلي
##كتات
الإشراف
##السيوم
الشواهد
أعطاك
والطا
شيعة
بمجلس
محضة
##رابها
ساعدت
تسمي
وثانيهما
لبط
فيضرب
الخاط
ولاي
وتوجيه
##فاهم
الراح
اتباعا
طريقهم
##وما،
ويعرض
جنابة
##فاسير
الأردني
يبيعها
المستعمرات
بادية
لقر
يان
القرائن
مطرد
المعتبرة
لوقت
وعش
تحصى
تتفق
فرضية
القتل،
أساسيا
حقيقتها
فئات
والاع
الفجور
اللحن
التروية
باشت
كالمع
تجريد
مقتضاه
امرأتين
غنمه
يتخير
##فاية
فأث
فأولى
باقت
وخاص
الابتلاء
الموجات
كنائس
يها
##اباة
التلو
الجني
واخرج
##دعون
فسئل
نبيذ
حذفه
فيظهر
##يدون
للجز
تشجيع
نافذة
##خفف
ينتظرون
##طيته
أفأ
ضربها
وأمكن
للسائل
الفلاحين
بجا
التجي
أصبع
أفضل،
محفوظا
##يلندا
أبيهم
ولزمه
وغض
يدعوا
بمشيئة
الأجن
##ائده
فتحا
يغادر
يطبق
ديانة
عبيده
يشرح
الأخص
بالكر
ماعز
وسلم؛
لإصلاح
مساويا
##وطنين
الأقطار
أوزار
بالاضافة
أموالا
ثانيها
سلبية
##خدا
البان
عنهن
متعين
يزا
السعودية،
لتأكيد
##نط
يستهز
دبل
تنمو
بركعة
المكسورة
إصب
فكشف
اعترفت
ويستثنى
والآداب
الموضوعة
الغرب،
احتيج
لتنفيذ
##رافيل
والمقام
##وليات
ومعمر
الفرص
##قضوا
وارثا
فحملت
الانقلاب
خضع
##خارف
أنذر
قدوة
ونال
دمها
##جعة
للبي
الثل
المصطلق
بطيب
الفيلسوف
الاحتفاظ
الإقناع
للسر
نفسي،
أقضي
نصبا
التفات
##بورغ
التحقيقات
##يمات
##مده
بتر
المائتين
بالطبع
رافعا
تكرير
ألبس
##يمها
وكعب
ويخت
ودور
مخنف
هاربا
أحرى
مفارق
وكثرت
تمارس
الإشعا
قحافة
تفصيلا
استعملت
اذكروا
كنان
والاجتهاد
وليسوا
والدهر
السنوية
وحملت
ماؤها
سعيدا
اكتشفت
الصيدل
اللحظ
طغ
وقليل
السوط
والجيم
بالنصر
يضحي
تباعد
سمر
##صبه
وأظنه
يسود
التحريف
دوران
طهورا
وخت
والبلد
وتفر
##يتها،
تناسب
اللجوء
هندسة
زهد
البرازي
ومابعد
ستار
عضوية
قربت
المصيصي
إهلاك
خاقان
العط
القف
السالم
محذورة
بقدرة
تبل
زمي
##ذله
بأسباب
والنظ
المستمرة
وردان
##كارم
المعاصرين
الاجتماعية،
للخلق
الداخلة
ضروريا
التائب
##وسعة
##بائهم
يعدون
اللقيط
##متعة
اختل
الممتدة
##ظالمين
موليا
التحمل
وأحا
وبالح
والأغ
وفارس
والصغير
فاستأذن
واتصل
ودعاء
باللع
المستوعب
قبري
اصحابنا
التأسيس
الشريط
الجولة
وجدي
##جددة
النسوية
الأحرف
وصحب
صابر
##معيل
تعريض
ونها
اليشك
فاليوم
العلوم،
مقاعد
نفت
وتوقف
أمهم
الإنزال
الشرطية
كافرين
هاري
البخار
نعيم،
تمرد
قرارا
نيكولا
التهم
##فسكي
الشرقية،
فقصد
##واتب
الماس
فحج
منكبيه
حظي
لوارث
يورو
##ثة،
وحكمة
اترك
##طاكي
يحتمله
مبتدأ،
البيزنطية
حارس
مرم
وبار
العباد،
والخارج
نزولها
ويقصد
محمودا
##تيح
المتطوع
اللصوص
جزع
ضلالا
تحسبن
لفساد
والكم
لمذهب
الخبراء
كالمن
##قدمين
عبثا
عليكم،
التوقيت
سواه،
قشر
كورت
نحب
الياس
وجودا
إعراض
برقوق
إفراز
نفذت
وثمود
لزيارة
##رجس
لأحكام
للمشاركة
علمني
بدعاء
لسنا
##يض
فتخ
حديثها
قومها
ثوبين
ناسخ
قراءتها
الخاسرين
وتوا
عميد
وينسب
العشائر
وأجازه
بالضمان
المملوكة
جونسون
عميس
استحقاقه
سائلا
كدر
القهوة
يعض
ونفى
والأثر
وشه
المعادلة
##فاحشة
أديم
المفلحون
##ناهما
وبينا
والعز
المحلة
دارهم
أصواتهم
كوي
##سلا
القوق
وخلاف
والآخرة،
لتعليم
تلميذه
فالحاصل
العداء
ينفصل
##يفه
بالإحسان
لأد
كالذين
يغفل
للعباد
أوربا
السامية
فيبطل
فتاب
##امسة
الرخ
##وبها
والساب
##ضطرار
وواحدة
بيوتا
إرساله
والابت
البضاعة
الغلمان
##تبط
##تبين
قبالة
مضار
عبادة،
يفترون
التابوت
المرعى
بالإنسان
بالحمد
الجدة
وملا
حيضا
ورخص
صحيحة،
تغل
فداك
بئرا
عان
لاجل
##لوكم
الاخرة
أصنام
والباب
الداودي
عفير
محرم،
اجتماعي
أثلاثا
والاد
##ساها
فاخرج
فنهى
##فاقم
أثقال
حصان
##سكرات
طالق،
##أييد
متفقون
الرموز
أنبيائهم
ليله
تمضي
جول
وسعه
الكفين
تعقد
بعضهما
أكثم
العلمانية
الأكبر،
موكله
المحاملي
تمل
الجدران
يتل
آخره،
للمرتهن
المئ
الأبنية
##بوله
أعرب
المشا
فأنه
المرتضى
الخصيب
شأنك
صنعوا
وامرأته
تالله
الممات
بالحقيقة
جنايته
مده
وكذ
ويفهم
وتختلف
لقمة
بالحسن
التدليس
ورفعه
##جزت
العقرب
الحسي
القح
##مرد
وتجوز
الغنية
بشرطه
يقرون
شجع
الماع
##صرية
ستان
يرثي
تماما،
والمنافقين
تعبدوا
الثمرات
بأغ
ضربات
النجف
وضوئه
مفاهيم
والبو
بأخبار
تأثيرات
أدراك
بائعه
يبادر
بهجة
##كاي
والعافية
ملكوت
حيوانا
أحرز
المبتدعة
حريق
لضرب
الرمال
والعرف
الأزمان
قبيحا
وباي
قسطنطين
بلت
كوين
الشراح
يستس
لنقص
الميت،
النخبة
معطوفا
أسقف
##كتبة
تنفق
دوني
نبيك
فريدة
يطأها
للمساعدة
خيمة
ضارب
النصي
##حرص
ليلي
مؤقتة
وفسره
الانسحاب
نقب
للبيان
بقائه
والدخول
امرأتك
وأهلك
أرجاء
الشطرنج
##بدي
والزوجة
معاهد
بالموصل
كردي
سابور
للمعنى
الزهرى
البروتستانتية
الوراثة
لجر
نثر
وأولي
##ضايق
تقديمها
عطفه
##عداوة
معرضون
نكاحا
أوك
يتيسر
يجزم
حقبة
ووحد
تهتم
عذرة
المأمومين
باحث
المغيرة،
##ساكره
تثير
##قضاء
والاب
عدوك
أداه
ملكه،
أتدري
##ذائف
غلمان
##ؤن
تعاد
##لوفة
حاصلة
وعقب
يعكس
المؤدي
القاعد
تصلى
خطير
فنقل
##بطه
قصرا
ومروان
غسلها
المباركة
والثقافية
نصرا
##جار،
إخواني
إعمال
بالشيخ
الخث
ومقر
بشارة
يعتذر
والمعاني
الخرق
سهولة
سلخ
الدمشقي،
جزيئات
تين
وتوق
بمجموع
خبزا
الصاروخ
محمل
مهدى
بالعا
ماضي
الصها
ويكت
وللش
لتعزيز
مزيج
المكون
وساد
الطح
إبراء
أدناه
المدافع
حسنها
المقذوف
بالعفو
سويسرا
مقول
نحا
الأجيال
وحوالي
بأج
لتحرير
##جا،
شعا
فطال
ووك
وخلص
جزئي
إصبع
ملاك
##سامة
فيذكر
والصحابة
##ائين
المعنية
الدينية،
الهولندية
هواك
##ذني
الحقد
الإعداد
وبقى
استدعاء
##شتم
بالتزام
اشتمال
بألسن
القهر
بينات
غيرنا
طبخ
عطس
الزركلي
يلعبون
ريف
هاني
بهؤلاء
##مامته
انتفع
فاستقبل
معدوم
المهملة،
باردة
وقاموا
الاربع
المتظاهرين
لاقى
##ائبين
تعادل
والتنمية
الانصراف
الضرع
المصرى
مجلز
عشق
عمرك
يثبتون
##قاقير
الميكر
يضح
الاصابة
المتخصصة
التملك
الشمالية،
زواله
مملكته
غان
المفسد
السمس
##رجا
كتائب
سهمان
لآية
معتمدا
وليل
العصيان
فيهما،
حبيب،
مواضعه
أعتقها
تخصيصه
والحرية
وزياد
يبع
الجواري
رئيسيا
يضربون
والقطع
الرفض
الطرس
البر،
كتا
##جازه
عجزت
للشار
الخيل،
وتميز
أحص
النوم،
لذات
نحاس
ليص
عامرة
واحده
الإمامية
رسال
وذوي
مجردة
أغير
خرد
بالقرية
مشاة
##قبلة
المغضوب
جدير
واللحم
الإشراك
الانتخابية
باري
يبل
الحافر
السرط
##يابي
##لبان
بالعرف
جموع
موتا
للناس،
فاروق
ولأجل
##شوست
يستع
لمنظمة
الحكومي
##سفان
غلامه
اسمعيل
إعل
رائد
نما
العون
واخذ
أسنانه
الزيدية
استند
والمرا
البيئي
تقييده
رات
والإد
الرسول،
يشتبه
الأذنين
بصحته
عمت
الأضاحي
وسلمة
لأعمال
##حوط
يصنف
عتقها
الخشبة
التبليغ
قابلا
##لاميذه
مسبقا
وولاه
##جده
العروق
أوهام
مجاشع
وليكن
الشرط،
وعلمت
خنزير
عصي
والميسر
تنصب
خرجا
تؤدى
منعهم
المحتوى
ناجي
كوز
##حمون
والحجاز
##تقار
أجرت
وعمران
خصوصية
البنا
استعان
رجس
##عب،
التحصيل
التحكيم
اقتصادي
##يكو
الثمن،
يحرص
امير
##زود
ولغيره
وحصول
نظري
وتركها
والمرض
إسب
##موك
بالصدقة
الشفا
الرفاعي
##خر،
الغنوي
تشغل
##وطنة
يهجو
ذكاء
فماتت
منفردة
مراكب
الموز
الأرم
للأخ
احتجم
فسبح
اندلعت
الثنائي
استويا
متطلبات
الآخرين،
والشك
التنزيه
متعديا
##فيظ
فأسر
ليقوم
المحس
وينتهي
رووا
لخوف
فأصبحوا
أديب
ساجد
للرحمن
##فاها
##جدية
مستخد
##وارها
مسيحية
##شوش
وقولي
المتخصص
العمران
وللإ
وعملت
انصرفوا
كاثولي
لنت
الألقاب
##ومأ
الإما
وطني
مضاربة
السندي
مأجور
عهدي
ظهار
والتوبة
الأنباء
غزية
الريش
##كفير
الاهت
مضاعفة
والرأي
السائر
##خرين
والإست
ضربان
المؤلفات
بقدرته
والتكبير
##كبات
المخصصة
وجنا
ومكث
أسأله
المدرب
لرواية
معدودة
تساقط
كليات
الأهم
فتر
##حل،
يأتيها
سألوه
ورأوا
إبدال
الثع
أخى
يستمعون
نسج
يلونهم
وغا
يليها
كنع
وسلك
ويمر
الإيم
انفصال
##وانئ
راعي
للرئيس
قياسه
بصدقة
قصف
بالما
بالولد
##رفها
وجماع
ولص
محضا
##وح،
كلمت
##طيات
تقوله
والحن
أباها
فأنى
الحميم
حقة
##غره
لتوفير
المستدل
لكم،
فطاف
تتبعوا
الجيران
البرز
دعوتهم
يرونه
بصنع
صرد
هيت
##كم؟
بهي
والإجارة
أرسطو
وسنذكر
هاجم
تأييد
بمل
والوتر
الثنائية
استحل
حصى
كلهن
المدينى
ستيفن
محركات
ورثه
لقرب
والصرف
الأشهل
وغز
وغم
والمعا
سبحانه،
النباتية
لحمل
##بيله
أعود
##صيلا
والكفارة
فيتنام
أعتقد
مجردا
التوتر
وبس
وإيتاء
أصم
عزمت
همته
منحة
لموت
بمضي
##زايدة
بنتا
ردود
يلقون
طوافه
للفنون
##كان،
##شيف
المستشر
تطلي
أرضهم
##وامع
##كتين
والعن
بتغيير
ويمين
بعيني
بخارى
لقوا
تطليقة
أعمالا
والمؤسسات
الخطيئة
والأولاد
والكفار
معالج
سنجر
وواجب
تعبيره
مؤقتا
##ثمة
##ينهم
##وضحه
فتخرج
الأميرة
أحال
جعلوه
ذاكرا
والتأخير
المستخدمين
التذكرة
القهار
انكسر
النافعة
واحدته
اعتقل
يعدم
الخصوصية
##بلا
##حملها
والإرشاد
والده،
ضمنت
فاتك
باثنتين
##تباع
النعاس
بغا
والهوى
التفسير،
مبعوث
الشاي
الرفي
وعلة
لقى
لحزب
العاملي
نهاه
يحرق
متخصصة
##طياد
لتقدم
وشركة
وبرع
فقدمت
احتياج
الدهون
المسروق
الآلية
بيك
الخطوب
##جزئة
خبرها
صادف
الأرباح
برجله
والقرى
يهدم
طلو
##فكر
##ضارب
##فيا،
الشخير
وتضمن
اعتدى
كذابا
الصدمة
لغيرها
وحقق
فيشترط
التحدث
بالرب
الغرم
المجروح
حاجز
بوصفه
أقواله
حريز
الإبلاغ
المحطة
برحمة
رأيتهم
لانهما
يبقي
الترمذي،
القسمين
حلمت
كالل
أفادت
الضياع
فخالف
السفير
الكفارات
سكران
لقطة
وموت
وحماية
المنون
نزعه
نعد
ناح
##قسام
بعلبك
الغازي
مثلكم
##دمه
تخي
حلفاء
وحاول
##ابقات
الهالك
والمنسوخ
واجبات
واشربوا
يمنعك
دأب
##ضمان
العلائي
متصرف
مصرا
ووصلت
ببدر
##غناط
المبنية
بالنيات
فالمت
فالبيع
فعليها
اختيارا
يعقوب،
ومسألة
الحويرث
موهب
والعشر
بشاة
اقتدى
قرىء
بالواجب
تخر
##وين،
فيمنع
وقذف
##روقة
التكلف
التشريح
واسأل
##وعت
معلى
وسهم
وإنشاء
المتعارف
والطواف
راضيا
التغليظ
الترس
إذاعة
وصولا
بخيل
زوجت
فأعاد
حقا،
متقاربة
فدعاه
الليم
والتقى
داخله
واستقبل
العاص،
وافى
يضطر
فنزلوا
ريبة
##ون؟
وتما
زعمتم
الاستغناء
الأليم
الخوض
وإضافة
عمته
##نعوا
التقاء
الركاز
قسمه
جملا
المناسبات
جرجان
فأرسلت
الحرا
##لوبين
وحساب
اسق
ويلبس
مكروهة
وكرمه
سعيه
والني
والغم
المحارب
القدوري
وضوح
وتنظيم
آثارها
سلفا
هاجروا
قواد
##وبون
##قلان
وحما
رأيي
الأورام
الدستوائي
للجدل
لروسيا
وعطف
يتر
استوت
فليأت
للحركة
##سابق
غروبها
ثنى
##ففة
النادرة
##فتر
يسلط
برسم
عادات
قرارات
الجلسة
الفلق
اللطف
الحاكم،
التأثيرات
تلفزي
وسرعان
الكاش
التركم
يقابله
كفة
عنزة
##افح
والزهد
الفرس،
المرسوم
جدران
هكت
##ضة،
##ذاه
وجه،
فأست
والتنا
بادي
##واعق
ثيابا
والمشركين
أبعث
زوائد
عوام
عودا
المسكن
##مانع
لأرجو
الحديثة،
يستخلف
المحسوس
اشتري
المقدور
البنفس
والأنبياء
ويعتمد
اسكتلندا
يفعلها
يوج
##كمات
فيضع
الصلا
الدية،
وزك
بجواب
لإجراء
اثبات
اقترب
الإساءة
السلفية
لته
ومراد
##مام،
شئنا
متقدما
أطباء
##ادون
حاجتي
الفاصل
الامتحان
اختي
##زيا
الفتيان
متغير
أحلى
سيطرت
##وتهن
طهران
البولندي
##راتيجي
الذر
##جمية
تبصر
اللقاح
وأهلي
يبتغون
ملعون
فلبس
لكا
المصل
خلقناكم
الأيام،
خروجها
الإكثار
والضعف
##ذهل
##رقى
##كاملة
جنوده
السادات
اليمين،
أبرزها
شابه
استماع
أصبر
المصانع
أنتج
##ونسو
الموجة
##بايعه
المعمول
دواد
##ريكه
##وذة
وتتبع
يموتون
يحضره
كوفى
وفاق
##ناعات
آلاف،
الأجد
##ضمين
##شايخ
وسقطت
##لازل
معيار
للولي
وتلق
وعزم
##وسي،
مصغر
صدرك
تعلقه
العشب
تميزت
ينعزل
لإنسان
فأل
##عبارة
ورمي
مهين
##ذلان
محاكمة
الكتف
بمقبرة
غور
القولان
يمنعون
الثقفى
أدركته
نضلة
المخالفين
بالاس
بعباد
##والم
##وانات
والعلاج
##قالا
فحذفت
خيط
سلطات
أعجمي
الحليب
يستحل
النظير
خور
##جنة
أندر
يعهد
بالكثير
يلبسه
الضيافة
والسيف
الشىء
##بونا
يعجبني
ومنكم
استبراء
الآيتان
الاكتشاف
##نباط
الإسم
بالنسب
فضربت
فليتبوأ
المسؤولية
##وشة
القرد
##افعين
##صفية
أراني
السياحية
ليحصل
داب
والدع
الفري
بحري
احترازا
بالقاف
وعادت
##وراق
وعمه
وجاه
ومقام
بعضهم،
ليزيد
بسائر
الشعثاء
الصغير،
عاتكة
اللمس
##خون
##لهن
للعام
المتحرك
المحاربين
الأحمق
عظيما،
لبيع
##عوبة
أتلفه
وطاعته
عقدها
وأعجب
تضعيف
قصاصا
عراقي
تعقل
يعطون
بأطراف
والأيام
أتاها
فمنعه
شربها
لثلاثة
رياضة
فوصف
طرس
##يلاد
##طرا
الاشياء
أخلف
بأسرها
الأخوات
موصوفة
##ولندا
الحارة
مسخ
المساجد،
##سبير
يستحي
##قصا
اعتاد
كرز
الوليمة
شوقا
##وعيين
التيسير
وأئمة
بأجر
تشكرون
بسقوط
الزمنية
غنما
السرد
ومجال
الفترة،
إخفاء
أردتم
قوص
وأوج
الجدي
فأردت
النجاسات
مقامات
تدعوا
عذره
يبرح
خطبنا
وتلقى
بأني
بشع
مواليه
شراحيل
بالخص
فترد
بالحال
مغول
أعطاني
ألقاب
خاتمه
بنصر
أفاء
أدام
فضح
البصيرة
رفعا
أسبق
اى
ارك
وعما
كذاك
والزرع
ويستعمل
والمؤنث
##صحب
والعام
يشغله
اتساع
للكل
الثلثان
أعمدة
احتمالية
التضعيف
ءا
وتجاوز
وعشرا
الناصح
متميزة
المشرفة
برزت
الغرباء
الزعفران
##كدة
ويتق
والصيد
بالجهاد
جنسها
وميك
الحسام
##قلبة
ألقيت
خوفه
فسخه
أسرته
بورك
زدت
لدع
فيء
والرض
والراف
والزع
الحسبة
التبيين
القياسي
يلبي
الجزيئات
آذ
المربع
الفصيح
أخطب
الناطقة
وبغض
لكنت
لامتناع
القذا
##ربته
جزئية
المعتادة
الحاجة،
خلفي
إيمانكم
إرم
سنام
المكونة
الخيرة
بابك
المجلس،
رئا
التحرز
##رجان
اليور
##ريقية،
حملات
ذاكرة
التالي،
وسماع
الانتداب
الشهر،
شاهدان
فوجدوا
الاختبارات
إحسانه
وصيا
والقرب
موحد
إخوانهم
شيكاغو
قفاه
الأحباب
الستينيات
وخرجه
أهلكنا
فاقتتلوا
مزدلفة
فرم
##سلي
التواريخ
##حدار
لعطاء
دينها
مخد
دموع
مظلوما
تأويلان
نابلس
الهجاء
قاع
##بيلا
وقوته
يترجح
يكونان
الاستاذ
والإناث
مواضعها
واليقين
العهدة
أبوي
بقلة
الضمة
##يهود
تخرجه
الدواوين
دراج
كمه
##لكية
العزلة
الجذا
فأصلح
الاستسلام
قرنه
نوعها
تهوى
أديبا
ندعو
الوفا
الطم
##بتون
استلم
فكنا
الشاميين
اضطرب
النفايات
##شندي
الطمأنينة
المناظر
بالدراهم
يلقاه
خذها
ساقها
الزمن،
لتنظيم
بقلعة
المنزلية
##ثورة
المنة
النزع
الفشل
الإحصاء
لصاحبها
تلفظ
معرضا
المنفي
سمعة
لقياس
الاعتصام
تأخرت
##برها
مثلت
تحبس
عصم
والجمعة
ينهض
##ابى
##وفها
المؤمل
وصوابه
فصعد
مختصا
صوتها
هجرته
السامري
بفساد
كوب
الأكرم
يعزر
المتبقية
التحدي
وعرضها
دعواهم
مستعمرة
العصاة
للنف
استأنف
والمحرر
يعنيه
قومنا
وعدت
بالرواية
لبنان،
الشماخ
والسادس
أضحية
واليس
التتر
بلح
متوجها
موفق
##بكر
المهن
الميناء
التحويل
##خرت
واحتمل
وعج
وسلموا
تتلى
تجرد
السيئ
العنزي
لقبول
الامتثال
شغلت
ذنوبكم
مندة
فإذن
والعلة
الدعوة،
وبإسناده
خوط
وكلت
يسقى
بشق
منزلي
يكتم
بتأخير
لجب
الإلحاد
لأمير
أدوا
المقرىء
المفاوضات
مشكلات
الحشا
بالوصف
مدرسا
الزرقي
بليغ
مرع
##وج،
فاقبل
الزوج،
جهرا
وحديثا
##راة،
وأصدق
يأتى
الشعار
نورث
ونهيه
تختار
تبحث
هدر
فتصح
وأنش
لتبين
##اكلة
انتظ
وكتابه
الاخذ
يشترى
بروك
عراة
عريضة
##غز
الطبيع
وأنثى
أيديهما
الرباعي
تتأثر
مفعل
##اليات
##ست،
أمشي
المتواتر
يمض
قبلهما
الحرم،
أنشأها
حثمة
بالتصغير
أنقص
##ودته
##ردن
الفاسقين
متقار
الإسراع
وراءها
ونائب
اطلق
التآ
السداد
النامية
المتون
##كسرت
بأربعين
ريم
يراعى
تحذير
##فارد
والقانون
الأدوار
شاهده
آلهتهم
بوال
أوري
تمد
ذبحها
عاجلا
شتاء
سالت
الفك
متميز
بأصحاب
عيادة
قاتلهم
يحملها
تدرون
المؤقتة
حذاء
يته
الرخاء
بعدت
وحض
للموكل
الضح
##قباله
جائز،
بستة
بالتسليم
سداد
ندى
المبالغ
مائدة
وأجرى
وعمارة
استمع
لأقل
الاستعاذة
زيادات
الجدال
أصدقاء
الخارجة
نازع
خائفا
تسر
ثيبا
حلوان
لعي
أوجبت
معقدة
ونفذ
تراكم
أخلاقه
##رسي
عني،
##روسة
يسأ
عداد
شعرت
##وقراطية
ببي
الحقل
##حادي
بأيد
فضول
والفائق
مكش
تراها
ألقاها
الدرة
الكاري
وتأخذ
بشك
فأعجب
حجي
النديم
بأصحابه
المعدات
أروى
تفعله
بتصرف
الأعذار
يقترن
عرفته
للعقل
##سابا
المهيمن
إسم
صبرة
الأودية
التسهيل
ورغب
وانتفع
##اوي
لاهل
يميني
المحبو
سنتي
##شتريه
الاعراب
فأقبلت
فابن
الهيد
يؤتيه
فاستح
بنار
للشك
تعرضوا
يرضي
ورأسه
البطالة
ضيقا
فيحلف
المهارات
نسمة،
علت
والكمال
وإياه
تنظم
##طنها
عزاه
الانضمام
تفكر
##زعج
اكتسبت
بالفضة
هاتان
يصنعون
البخ
##قاما
والخاص
##ويري
السبعينيات
عينيك
جيف
##تف
المفارقة
السطر
وتدخل
ومكر
تستند
المرابحة
الوظيفية
ريس
##راوية
الصافي
شيئان
فتوفي
للعقد
مرضية
رشدين
الكاذبة
نأكل
##صلات
ويلاحظ
كالمر
فجميع
المخاض
قدمته
الأشياء،
يقصده
يتحلل
مسلح
أكلم
ممارس
تركوه
التحري
ونحوها،
المحدودة
##صاق
##حداد
البتر
طريقان
كتبوا
الصالحون
وذم
صلينا
يضرهم
##دوز
فيسلم
تعويض
وقدرة
جزاك
عاشق
نزه
مطاب
راغب
الجنس،
لامر
أديت
خلوة
##عش
العيس
استراتيجية
بحل
العلمية،
البائن
والسياسة
بقيام
واتخاذ
يقدمون
##طففين
بصريح
الأقلام
وأقوى
خارجه
اطلب
سباع
الرضع
الهوائية
المناظرة
والصبح
مكانه،
الحدائق
وثلاثمائة،
منشأ
المطل
الأثناء
أودية
وجنة
وجمل
##ازى
بتب
للنهي
فرقوا
لمعاوية
والمستوعب
والأحوال
##ثلت
##بونات
ورجحه
مقرن
وإخلاص
##ذوق
لأفضل
سيادة
والخنزير
##فاعته
ورجعت
تقدما
وقواعد
النبأ
##حاك،
##بائك
الأقليات
الموجهة
والعتاق
يعتم
الأمراء،
الضالة
لكثر
وقعوا
بالأمور
مخاطبة
تسيطر
ولزوم
بأنا
اللآ
تكساس
رمزا
الحملات
مأذونا
والأمراء
صحاح
يسرا
الانساب
يفنى
بطاعته
الجمع،
مأوى
المحتال
مشيئته
استأجره
حمران
شيم
الرباب
وبفتح
بغيا
بوابة
الملحق
يبعثون
تسببت
رئ
فبن
##وبه،
##ياهم
وتمسك
تفويض
خارجي
فاشتد
أنواعا
آذن
وولاية
يفرد
وتلف
الطاع
النازل
جاهلي
الاصبهاني
سمو
لرج
معنيين
##مانا
يستجاب
مستل
برقة
خطابه
تخير
احتل
الأقوام
وظلت
القطان،
مستعملا
زكي
المحمل
##ريحا
المؤجل
تدركه
##راتيجيات
حركتها
وفعلا
حى
شقيقه
طغي
لبشر
حضروا
مريدا
بالقاهرة،
السحور
للناظر
مشغول
##خرفة
والنوع
لحساب
كيوم
قابوس
أخلص
وقاتلوا
وبالعكس
بحضرته
أيس
الغمر
##رقون
##زيمات
بالمشي
اعتد
لحقت
تشكلت
شغله
فخل
هادوا
##ديب،
الفحشاء
أدائها
فكذ
احتفظ
التنور
نجده
يمنعها
السوفييتي
تأخيرها
الحلقات
جوية
حفيد
زاهدا
صحن
قرد
والرح
##ونيو
##انيا،
الولد،
وصدقه
السهر
ويصرف
يمحو
المستحيل
##رشيد
الركبة
يشبهه
وقس
الخاطر
أرخ
##زعت
تعكس
فأه
الآذان
ودنيا
والثمن
يظهرون
الأفلاك
عظمته
أستاذه
خاس
بالوجوب
إنفاق
لمصدر
##فارا
أسما
الضرو
المفرط
بزيارة
الانفجار
التضحية
بالقدرة
الاجل
لوحات
الفتاح
للإع
ينتسب
واحترز
رويدا
أوامره
انقراض
ازدياد
المزدلفة
احسن
فرجة
وبرة
الحطيئة
وسلامة
الزائر
وصب
أهوى
المزمل
فرعية
الجمهور،
الاحمر
الليبرالية
##وينا
##زية،
المبعوث
الغلا
تسجي
بالجهل
الثمانينيات
النروي
بعبارة
وذكرها
اصبح
صرفها
تسلط
التوت
حدائق
أرضها
جنسية
فيتعين
اعتبارها
كيلومترا
مقابله
لفا
فيلق
العنت
بحار
يغزو
مقدرا
ياف
تعس
يعيب
وطبع
##وازية
وعضو
لصد
موجه
نين
الراد
يعطف
وإنكار
تتواجد
المقصودة
إجار
لومة
##وادي
بالبن
أسري
أسره
ولد،
يكتسب
السرايا
##خات
##عيذ
أعالي
أخبرنى
##ضطجع
غلبه
المناهج
الحنا
وقاد
##هدت
خلقي
لسيد
المقتر
بقدره
بمناسبة
غرو
قعدت
##سعت
للغا
##ذهبن
رأته
عدله
بالأخ
زوجات
محمولا
تقريرا
فنام
فباعه
مهن
يجلد
وقن
##عدته
الصوديوم
ونفسه
وآداب
أحكامها
الظهيرية
ببن
زوا
والهد
يكسب
وحاشية
قارن
للحمل
مسطح
وبمن
رجحه
الظبي
بالنقل
فالاست
المفسدين
الحوائج
البز
الفسطاط
النقش
الموصل،
عاقلته
أستاذا
المطيع
الأصفهاني
الفريد
ولده،
أزواجهم
يفقهون
كمي
كرس
القمة
##لب،
##كلوا
تخشى
والشرق
##امله
بدلها
لتحقق
بهذا،
بالسوية
وهكذا،
يسبحون
المختارة
أسنده
##ديح
فلا،
بخار
رست
طرا
نقيب
##هوات
والزاي
النتاج
الوعاء
درر
القياسية
وتأثير
الدوران
يختلط
غلاف
الجيدة
لمصر
بعل
محنة
قتلة
فعلان
خيرها
##وارثه
بالاشتراك
##للنا
يشهدوا
أوليائه
بكمال
يضرك
الفلسفية
وتذهب
##جروا
بدراهم
رجا
عدالته
الثعلب
##وحي
والثمار
وتحول
ودخلوا
مستحبة
ينجي
المعالج
تفريع
يفتر
الجسم،
ومنك
أمست
فتارة
همذان
سدرة
إخباره
##ؤسسة
تحصيله
الأبي
الفروق
ويصلح
بإص
تعترف
الرازي،
جونز
عديدة،
فانظروا
الأسترالية
سويا
فيصبح
أنص
القداح
وجحد
صفاء
التأبيد
ومسلم،
المقاطعات
الغزوة
جذعة
القرامطة
اليشكري
ثمرات
##وائق
بطانة
للتد
رحال
وذهاب
فوالذي
ارج
معسر
الدروع
انقض
والتخفيف
لحكمة
تطعم
عبور
أخيه،
يراعي
جوده
الدما
إساءة
أشرب
##نائب
الأمير،
نتبع
كرمان
يسمونها
برهن
الإتلاف
وبخلاف
تكذبان
والخزرج
##علج
الغيم
فتل
لقلت
راي
أنفسها
منتف
لكونهم
##لاطون
أنيسة
يوزن
وأنى
الذوق
##قدها
يتفاوت
النادر
مجوس
##بادرة
المبهم
ائذن
اولا
فيجد
##يتد
أحدثه
وحدي
وحسين
فعلية
وانفرد
الأحسن
وكلوا
وصفات
السجلات
والمناطق
فعلمت
أحرق
ليقولن
دري
يوه
الأصدقاء
وجيه
تأويلا
المحنة
المساعدات
الإذ
للمنت
اعتذر
برؤ
البدنة
كونهما
الذهب،
الأعاجم
جثة
متف
##زا،
نظروا
##وشن
رحلات
قليل،
نجاة
بإسلامه
صافي
والعدد
استش
يأوي
جنوبي
حرجا
هرمون
مذكرة
المود
والار
بنقص
أنبئ
##يبته
ومعي
وزع
تزد
عاصيا
الاقتراح
رآهم
الباطل،
والثلاثين
واتخذوا
تغييرات
بزيد
نحكم
يظفر
##جرات
يتواجد
##صرنا
تنوع
يبصرون
المذكورة،
وتنفيذ
خادما
دحيم
بائنة
فتنت
وثاب
والسف
##وكله
التخصصات
##منها
الجفاف
متشابه
ليوسف
المتدا
##واتف
##طلبة
##ائل،
عاجل
ودعوة
##لفين
يشته
مؤمنون
ووادي
سول
##أتى
الرفيع
الكرا
واختص
تقدمها
##زاما
اختبارات
الحالات،
سكنية
يكتفى
احتياجات
ظفرت
العديدة
بالحمل
انب
##فاوض
المعبر
##كتوراه
والأوجه
بتعيين
##صاها
التجديد
الجنائية
أصف
اوله
والفل
وأبان
بشهوة
مصانع
حسبت
الشاعر،
صلاحها
وإخوان
قوائ
##ذبحة
يلجأ
والاعتبار
التصريف
كفيلا
والتدبير
لائم
للدم
البقل
ويتصدق
وضعته
إلخ،
وعقبة
الفاحش
الرضوان
جلالة
قنت
فالوجه
تميمة
##طارا
زوجين
والدولة
جهده
السريرية
وقنا
##ودوا
الفكري
البطين
واجب،
الفرضية
التراجم
اعتكافه
افتتحت
معهود
##روب،
وللا
يدريك
يطاق
تحققت
العثمانية،
زحف
ملاء
قدرات
ومواضع
##لال،
##كيز
قصيرا
العبور
ناجحة
بأدنى
يول
اللائ
##لكة،
الويب
وحط
بماذا
مقالته
بتأسيس
سماحة
الشمال،
مظفر
حدوثه
تأكلون
جابرا
اتصف
بساتين
وبالا
بزا
توت
هتك
أنفا
الثنية
نهوا
والشعراء
أوطان
##ركت
متخصص
فتحه
والإف
الاقتراع
كرئيس
بمرور
لوزارة
حمامة
البساتين
لتجنب
تأليفه
أتدرون
لقاح
بطونهم
انتشارا
شرطهما
ممنوعة
قدرنا
المنتظر
المضروب
الريان
تلع
رباع
طابت
بالراء
وعلامة
المائع
ستالين
يجعلنا
خياره
بثمنه
التغلبي
تبري
##الحة
##تهب
بتطوير
يبلغوا
بالدار
##خاذه
وفتحت
تفيض
وعفا
##صلب
دخولهم
موته،
البهجة
تطا
طباع
بالجملة
ماضيا
##قطعة
بي،
يحث
بإظهار
مطبو
المكان،
رضوا
بضمتين
ولكنك
مؤثرا
تغسل
ميلي
صلبة
تقتصر
كارول
مائتا
آجر
##ديرا
مادام
قائلة
وأصيب
والتعظيم
الرطبة
انتباه
تراني
##ارعون
الذبيحة
البس
البقيع
بحروف
لبنى
الأساطير
البوسنة
يصفون
وبيانه
انطلقوا
ريق
سادة
مميزا
أنسب
##باية
الضال
التفريط
صغارا
لطي
يعصم
يعطوا
الغدد
متاحة
اسمي
لإخراج
ذهب،
معيط
أربابا
الأنصارية
العواقب
غلم
النسا
الجموع
##ذهبا
لأخي
##وائها
دعني
الفرن
الحكوم
الصواب،
مجزوء
##ينوس
بدونها
مستوفى
##قاله
فصيام
والهداية
نهيك
والسرقة
قرابته
بخيبر
كنى
مبال
##مز
##ثيق
انكشف
النبيل
بأجمع
البليغ
ونصفه
##ذرين
برية
تلبية
فيصدق
##يرن
الدروز
ويمن
المتد
المتكبر
البيولوجية
فحديث
##وافذ
ضيعة
بؤ
فخلع
وإج
أحدهما،
جاريا
خليط
الجعدي
بفلان
جذا
ضواحي
لوف
العذري
وجوها
مجاهدا
الشيئين
مشارق
ويملك
وتسعة
مركزية
ضيقة
##وذه
##هيرة
واللع
وألمانيا
السمات
متمت
وحجاج
تجبر
##نسى
بالتش
برون
مريم،
مسؤولة
فتبسم
بقاع
دوما
نالت
الإبط
الاجماع
فضلت
والاول
ولقب
اللامع
معها،
القرص
كروم
##خاطر
غريمه
شأ
التقت
أفريقيا،
العقدي
المرض،
##دونيسيا
يخالط
آمد
نقت
والوث
عداده
ويرضى
فعلتم
طيور
جئتم
أسبابه
يظنه
الموجه
السمو
الكالسيوم
ولغير
الاستراتيجية
نسق
##طبخ
وللآخر
أنواعه
السيرافي
وآن
##اميم
##ودور
وتغيير
وشعيب
بإضمار
مؤت
يغلق
قتل،
العامي
##فاعلة
الشعبي،
ورأيته
يبتغي
شوارع
فتجد
وحز
بنيان
قتلنا
والبلا
وتحديدا
الاسماء
الرسل،
والواحد
للزراعة
الأحيان،
معادن
بحدوث
انفجار
الجلود
منقطعة
مطع
والإثبات
والقائل
أيت
بحالها
والنبوة
مستقرا
##فضوا
مضادات
تورث
عتيك
فيينا
المراجعة
الحضارات
وكنيته
مسام
صفد
مفتوحا
معادلة
بحت
حبب
سائق
ضالة
والاف
والفاعل
النبل
الفصيل
وتحقق
المؤتمرات
لعشر
فسكن
المقادير
ويميت
يسره
التابعين،
##قفة
المغيث
##راكا
واديا
الوظيفي
فأبد
والشين
تكبيرات
الحاجز
ببطلان
لاتفاق
أرواحهم
العتبية
غزل
ميرك
##انمين
المورث
##هاة
وجزاء
يمكث
أدائه
##دعوا
وقتنا
بالحجة
شهوته
##فندي
أموالنا
كافرة
وكأنما
يأتيني
##طفا
يقلع
الختم
يتلف
يتخلص
متتابعين
لحية
ردته
حلل
وفرقة
بسيفه
بذله
وجنوده
##وفيتش
بالدر
حديثهم
##تقام
الدولية،
المسؤولة
اختصاصه
الفصولين
التتمة
خافت
طمعا
الخطط
وباطنا
الأوز
الأبار
##افته
والنسبة
تتقدم
زوجك
شرطية
اثناء
والحدود
الاغتصاب
الأكف
السائد
وتعود
يعتكف
أصالة
بقياس
فجائز
##شاها
شرطها
استحالة
يشتريه
وساروا
مجيئه
نافية
##امد
الخالي
والمسك
منه؛
##رسه
وغاب
أرضي
موجات
يهتدون
فوضعت
رشيق
لورثته
##أثر
##بوطة
##احته
للمرض
الظاء
ودام
مرضاة
خيلا
اللسان،
القدم،
##راؤه
الأشتر
تقبيل
وخسر
وأسامة
مبهم
بالمرض
تحركت
فحمله
وطاوس
أضيفت
التجيبي
أعاده
حديثين
##طنب
##لائها
توعد
أجرها
أجمعين،
ثقافية
بإسكان
متفاوتة
صورا
##يلو
متما
مثلثة
الأشباه
المكية
ويخالف
ويمتنع
للخص
اقتص
مرتبا
هضبة
تدم
جمر
العتاب
مائه
##عملها
إسطنبول
والدية
##يقاف
يهوى
أطلقوا
الطويل،
فيشمل
أصيبت
آمال
##ثاق
##باما
##كند
يجبه
تجويز
المعتدل
المجرمون
العليا،
للسيطرة
الياقوت
حوت
فروي
عليه؟
فعظم
وشراء
والشدة
بنوه
وأجد
تنفسخ
وغفر
السلف،
رغبته
صبري
الحيز
ماهان
مستخدم
شكله
بيانها
فالمقصود
موقفه
مانعة
حقيقيا
لمكافحة
##علل
ونجا
المستث
مؤثرة
وطرح
زيارته
تصرفات
للخدمة
البغل
وعقل
بكيت
المحاضرة
يعطيها
استدراك
فتاويه
غرام
بالصد
الخب
والاستدلال
بالرسول
الحمل،
##ليني
##خاله
##يدز
الكوك
أبواه
النسائى
التقديرات
المعتدة
بشرية
للدراسات
ألمانيا،
بتنفيذ
فكتبت
فنب
نحمده
##منون
##ائصه
لأف
وخلفه
تكبر
فانتهى
يغتر
وردها
##وديعة
نفيس
درجته
يهر
والسا
##ضييق
المتصدق
المنتشرة
كرهوا
يحفظه
فعرفت
تأملت
تسهيل
وزار
فنلندا
كتمان
ميخ
##صيري
لأمتي
مابين
والافت
بالبط
الجنات
##وياء
والتمييز
وفاته،
تخيل
شاذة
##جموعات
السراويل
العجلة
يتفرقا
يحوي
المشابهة
القلبية
لغيره،
آتاكم
سقيم
مائل
##ختر
والعزى
الحجام
جزافا
واختلفت
السينمائي
معرفتها
بربه
بالصف
##برة،
##ومغناط
##بارها
ثانية،
مهل
##رواح
والجب
وقود
الخصب
يلعن
نترك
العاشق
تفعلون
مسموع
الأرقم
المتعاقدين
بالظن
وابي
يتحرى
ليحكم
والأك
##قطعه
والنص
واستبد
سالف
##زاج
القلع
البديل
بعدكم
متش
أحلت
تشديد
والسما
دعى
مواهب
صورتها
وانهزم
معتقدا
ب،
##حور
صاحبا
ودلالة
أنتجت
##ساتشوست
يتعبد
هدانا
ينفعك
يفهمه
يصيبهم
الدبلوماسية
الفرنسية،
الحداثة
خالة
فصب
##لغاء
الرما
الدخ
الدمام
رحمها
الجزار
وغلط
اليهودية،
حرمها
أقروا
جوادا
إتش
نشاطه
الألياف
الرخص
للوق
وحرب
تصديقه
بالتيمم
الاعتذار
##قيموا
لامه
ضلوا
فيكره
وأفر
دارك
قريبه
##وديو
وضعا
صيامه
المفردة
المرسلة
رقيب
##حاف
##عدوم
باقيه
##ضرم
نعامة
##خبره
محتوى
ببعضه
إثباتها
حريصا
##طفي
##خية
وحشي
اللحد
##كاها
الخطية
أتزوج
العبادي
للآية
المنقولة
شبها
غلو
يقطر
ونفع
أتاكم
والسلوك
الفتحة
مواضيع
حصون
ويعبد
الدهر،
المحاسبة
كسبوا
مديرية
الإسناد،
المقلد
عدلين
موكل
البعض،
المفيدة
جدل
##أ،
الجماد
وبأنه
فبم
يمسي
توكلت
يفسره
بفل
تملأ
السوم
وسج
ونكاح
فروا
العذاب،
القراآت
اللئيم
بالسك
السفل
##ضربن
يشآء
وخم
رحمتك
نهائيا
وأرادوا
أفعالهم
استئصال
ج،
##راك،
وأريد
الثورية
وحس
##از،
والشمال
فاستغفر
المتأخرة
غيظ
استطاعوا
نبهان
ونعمة
المطابقة
والبصرة
بالسكون
##ناعية
الإجراء
الوسواس
تذكير
حنا
دكان
منزلت
القامة
الفجار
والعنب
مطاع
توعدون
الثمانينات
إضافي
##لامات
وأمس
أفلس
والحفاظ
##غتون
لسعد
البطون
توات
##شال
القطار
وكث
وتردد
ونصح
والمملكة
والنجم
جزاكم
تفصل
اصطفى
الأندية
آتاهم
ارسل
والقبض
##هم؟
بعلي
أقرض
الحكمين
الإسراف
انقسام
نرجع
الشقاء
وترب
واعظ
وإرادته
بأخرى
الروحية
منزلها
مفرط
واثنان
##شفه
الأشد
لمزيد
واجهة
عدلت
فرعا
##صارات
ريحها
الأمامية
شاق
والربع
بعود
المؤخر
مقادير
السابقون
التدخين
ضعفت
شرابا
أذل
فبت
يهن
الأرضين
بالسلاح
فأخبرهم
نخبة
يمانية
عوان
##جان،
##كمي
الذب
وإسلام
حقن
نسخا
واحتمال
المباريات
الجويني
صداقا
يتيح
يتيقن
لفتح
##نغ
##زهم
##ينز
والوزن
نسوا
يزيدون
الصفرة
##الطة
منفعته
يؤت
داره،
لإظهار
سكينة
مرادهم
يعذبهم
الحشفة
أحمل
تفسر
كيم
والبرهان
الإقطاع
المتك
وليمة
صدقة،
يعودون
أبياتا
فسميت
##قلاب
الجليلة
وتوفير
وبان
الهبوط
##بقوا
الأقوى
القصر،
قميصا
جوعا
ذوى
وورث
##لر
##جمي
##موس
##خروا
فأوجب
##بارى
مستوي
##وريس
بالإقرار
##قضه
ضمها
فريدريك
حوي
يونا
الأطفال،
الشريان
وعلل
ولكنني
أدق
صحبت
الرواية،
الدراية
متكئا
وازداد
بالإسكندرية
شقة
نويت
الريق
الميسر
ويتكلم
##فسدت
وزنها
مغادرة
فمما
ودعوا
الغربي،
تدين
وقاية
المشارق
بإف
وآدم
تستلزم
المواضيع
اللفظي
أبنية
تجل
مبعث
##ئناف
الموث
##ورك،
الطيرة
يسيطر
حاصلا
تدبيره
أهواءهم
رماح
مضافة
النرويج
الروابط
فأجمع
وللك
متوجه
انتفاع
بصيام
للجمهور
أصابوا
السوفياتي
الوضعية
ووصله
كصلاة
للواحد
تهن
##علت
##غمة
بأعين
يستحسن
والنقصان
مستور
##قصاص
وشغل
بروايته
مواصلة
ذاته،
امتحان
للكافر
النحو،
انصرفت
يشربون
##بقة
بينكما
خالط
الانقياد
وتعذر
جنح
أرضية
##اثية
مسئول
فحرم
##جيم
بالنع
بالحرم
تعددت
مشتملة
شديد،
مقصورا
المبيعات
كعبد
ماجه،
وحجر
مكعب
الإعطاء
أجنحة
مقطوعة
السلاسل
##غلاق
##الأ
فقده
بموسى
المعتكف
##شىء
الشر،
الليث،
بالخلق
الرباني
مشركي
قوتها
الطلقة
##كتهم
بقولي
يمكنك
والثياب
الحرمان
إعانة
الثقات،
مجتمعين
الدعاوى
فيجمع
والولي
##واهد
ومسند
والمثل
##درية
##اريين
فاذهب
بالسفر
شعبان،
صرحت
وإدراك
##عاب
##حهم
##شمة
##إذا
الشغل
العقدة
ويحلف
أعطيك
ضابطا
التستري
مراكش
##زمني
والرع
الدان
تأذن
زوجته،
الأشاعرة
تطبق
وتمثل
الإسبان
ازدادت
التناسلية
عويمر
##ناعي
بعباده
وبري
نصر،
يعتقده
والترهيب
اللد
تأدي
أتعرف
##مارها
القطيعي
النقط
والقنا
والسلامة
فردها
نطقت
سواحل
المبتدع
هلاكه
بوف
##طاب
إذنا
يكسبون
وطبقات
امتناعه
الفلكي
فيسأل
شقيقة
وترجع
الناجمة
##خلد
زميل
إقامتها
فرات
الذاهب
المرات
السائمة
ويوما
##يبان
فتية
أمرهما
أبصرت
يخش
والاصل
افتقر
رفيقا
##كفر
الحلب
الفسي
وفيهما
##راءى
المصنع
للأشخاص
حرصا
الكعب
انخ
ينصرون
وحرف
أدوية
أنابيب
شكوى
وأمرت
المحتلة
نعتا
وأقيموا
##آئ
والنوم
حالك
##طاهم
مدلس
##حولين
يزالوا
##خولها
العزي
والتوكل
هرون
والبغي
فصبر
لسليمان
البولي
والورع
##شية،
تعق
##فرنج
وفقد
لعرض
وزوال
ملتقى
بالهمزة
برع
كوبا
الخاتمة
##ويع
ونشرت
والعسل
الخطابة
المجتبى
##صاديا
النبى،
يصدقه
يغتفر
السياسية،
نفاس
فيقسم
معلول
موسر
المنازعة
الطيب،
الأحوال،
لنفسها
أرح
غوا
وذل
بالنف
الصر
المسكر
ينق
تصريف
وطئت
بالأدلة
والمنطق
بالطائف
التبشير
خسف
البشير
##كاما
الضباب
##دىء
ويشكل
السوفييت
المحظور
حتم
##وهم،
##كانيات
الحجب
الخمار
##سمان
##اجي
يشاء،
يفارقه
آمنين
شهاب،
قضاها
متحركة
دس
عرى
##ضته
الشاطئ
بابي
فاط
بحرب
وفروع
لإحدى
فينزل
ممتنعا
ووت
التفاعلات
النكت
الآل
عبيدة،
السلاطين
الاشارة
##فرين
##قيين
انفر
##قفين
مصنوعة
كيني
وجائز
فليفعل
لنشر
للاستخدام
وحفظه
عمران،
##كل،
المتغير
فعسى
والصلة
فرضي
يحدثه
يستخدمون
المتب
للأص
نعمتي
ويؤكد
وحينما
وأرضاه
فوضعه
تناس
الرعا
مصروف
بصوم
قيما
وآخرها
##راق،
لجان
المرضية
الرسالة،
لاتحاد
متأخرا
بايعت
تنازعوا
أطيعوا
أندادا
وأسند
وسؤال
للزم
##زيدي
اتخذه
علان
والدنانير
##واعظ
الملوك،
##جيد
كسرها
##وجيهات
طويلا،
##ونني
وتقل
ينضم
الدينوري
يغدو
الموسر
##حاز
الآونة
يدير
المستملي
منتظم
تايل
الأحمر،
لذوي
اليرموك
تراج
وتصبح
بعص
الضمائر
سمية
دراستها
روبن
والتقريب
بالذين
القوائم
##جلين
يفتى
نتحدث
الحلقوم
أبعاد
زمرة
وأبيه
للقول
للصحة
الفوقية
وتوكل
##لفل
وجاهدوا
حديثه،
يسكر
بصاحبه
العمرى
والتحريم
عصفور
##زز
##لمون
##ائما
لمد
##رضاء
استؤ
أدعى
وزيره
كلامي
والإب
علله
النارية
ليلة،
لانا
الأبه
التداوي
##مرك
بكلامه
زيدان
تخفيض
مرارة
جرعة
وقرن
لاعتقاد
نبا
بنقد
ترغب
والأنعام
للسبب
الاجرة
سحيم
الأناض
فنت
وكافر
##رابط
لقراءة
مقاطع
##وميديا
حكايات
ذئ
نحتاج
##روهن
##فهومه
بالعرض
##جاره
للقلق
إضافته
حساسية
الرضيع
##فاؤه
لأه
للموصى
الاستهزاء
اتصاف
##عرانة
فضلك
وعندها
والزبيب
فراشا
المكتري
البينونة
عينة
غارة
والبس
الخيمة
##داهم
وبقاء
والعجز
وعدهم
لولاية
خالفهم
يبرز
حكاهما
غب
نحل
يلف
تشكي
فانهم
للامام
ظلمت
##فكير
حوى
التنبؤ
معقد
مواقيت
التشابه
مستحيل
بفترة
قانت
مفار
تشتهر
برص
والرغبة
وأمريكا
التجريبية
السفارة
الغازات
تجهيز
##نآ
والحرم
مستدركه
عقوبات
الواقعية
مفعوله
بذهب
حصد
ديس
##كملوا
الطحان
##ناءة
امتلأ
##غاير
المنصور،
لأجلها
فيموت
هراة
وأدب
عليهما،
لانقطاع
الأبعد
زالوا
الاشعث
ترامب
##زلا
الناقل
المصورة
الظهيرة
تصنف
مخاطب
بالإذن
تطويل
بالكف
والمالكية
فيكتب
بالدعوة
##سكار
معيبا
استحي
مقلوب
##عرش
شعبي
يعده
منتظمة
لينة
##فساء
المتضمن
مصغرا
##وسفات
القيء
عفراء
فرانك
مملوءة
ملط
يتعمد
حكموا
الجزور
منصوبة
راكعا
تسألني
والملح
المعافري
##لله
والاجت
##كونن
أقله
فسرت
رجعية
حملنا
أجنبيا
المعلومة
تلب
##روعة
وعبدالله
تهت
دوم
سامي
##هق
وأطال
للفرق
ولديه
برنام
الجزيرة،
عباده،
المثنى،
تصدقت
بضرورة
شامي
البسر
يسل
لتشكيل
بالإي
القبور،
ميشي
محرر
سقوطه
الخلفي
تؤمنون
تحريما
وعيون
حائضا
مرابحة
مراه
الحيتان
الصعبة
الكيان
##دروا
##شترى
تجاري
قاضى
أطرافه
التأجيل
الرحيم،
الحماسة
بلحم
##صدير
لغوا
الوسائط
كالمست
للفريق
برسالة
اشتركا
تشرع
##شفي
##ليوس
أخطر
##قارات
والاختيار
أنواعها
فكأنهم
حافة
مائة،
ويصد
والأذن
تنوين
تكريم
شمول
صغيرة،
مذحج
مباركة
بلجيكا
فطن
فيدل
##ابهم
القين
ويكبر
فكف
إياي
النسب،
بحوث
والترم
والإش
ألفت
صنعته
حسابه
الطاعة،
اختارها
النهوض
الخسارة
##شته
الجاز
الفئات
الكتابين
أغض
الغالبية
المحققون
منصة
##ائهم،
وأنفق
مقربة
##ذيه
تنقيح
الأولوية
مصاف
فضلها
وتترك
عديم
وريا
وسلوك
وتوزيع
استلام
ليق
يستيقظ
##ضعفه
والنذر
يخشون
وطهر
عاطفة
والدراسات
ضرره
يسلمون
بخمسمائة
مناسبا
خريطة
بهما،
##قاومة
تنزع
بكأس
وشذ
##باتها
الجوزجاني
محدث،
مخرجه
سادات
وبلد
والجه
العريض
##نيفة
وتشهد
وبكى
##هيته
ماركس
السجون
إشبيلية
الأقرع
دقيقا
الرات
وسلاح
تنجس
وانقطاع
ألين
بناؤه
قصدوا
سجلات
غازيا
خثعم
ذهنه
كائنة
لرأ
أسطول
حيال
##ازا
فاجلد
##طارات
مخبر
اصطلح
الإشعاع
مهارات
مجلدين
يتيما
بأفواه
سعت
مفضل
نعود
يسند
##زاد
استكمل
محسنا
##كاكين
##ولاها
مؤلفه
الصادقة
زب
فتيان
لخروج
الأني
##اعى
وشار
تراهم
بعينه،
مقدمته
قتيبة،
##جف
ماساتشوست
الدرب
فإنى
المعول
بجماعة
الرجعية
وبالفعل
يجعلوا
أرسلني
الوحشي
طرفيه
قضيب
والرسالة
الشاطبي
السمسار
##جهات
وتجد
عنه؛
التعصب
يطرأ
خلاف،
ثانيهما
الساقط
والإعراض
ونستغفر
جولي
رقا
صدع
يقطعه
ومكة
الغداء
فاستوى
يقوموا
بمعصية
تساهم
وقضيته
##انى،
البواب
ليبر
أسانيد
مستندا
حمدي
والحس
واتهم
وستر
تسبوا
ثبوتها
وأحق
الشفة
الجون
وللق
مصرية
اللفظين
امتلاك
واليون
يتركوا
الأوروبيين
الإصلاحات
بالتقوى
موجهة
نكتة
فيعود
والوضوء
معصيته
متد
والزيتون
المتأخرون
تطف
فبنى
##انز
الأمثل
بالمؤ
اسود
واصبر
أوهم
##ودون
المتخذ
الأسف
أبرهة
لمعالجة
قارون
هجوما
جورجيا
مفلح
المرزبان
تليق
العث
ينجح
الأسقع
بسعر
بسؤال
##لسلات
كافي
هداه
نسيج
والظفر
فاجتمعوا
مجاوزة
اشهد
كالرجل
دارم
الرمز
يسكنون
لوجهين
المعتقدات
الميعاد
والصور
بالفقه
فتعلق
لحج
مغربها
نجيح،
وضبطه
مفقود
نذرا
القلاع
ونخ
يستتر
بصرف
مرضي
التشري
العتمة
ببقاء
جبرا
عارم
والرهن
الفوضى
##سبورغ
وخز
للأح
وأخلاق
مستأنفة،
فويل
والتلف
رجوعا
والنقص
بالحرب
كقولنا
وبيده
سوس
فاني
قزوين
لحرمة
##لتنا
ينعم
لونا
تحكيم
مواسم
الخواطر
قلاوون
إض
صوما
النوق
وكاد
أخوف
المعقدة
##متان
بمط
وأقوال
يحلفون
مغيث
يعي
الطيف
بأفضل
الضحية
والحلم
نعمان
الاعتقال
لسعيد
نخاف
حكاها
استخدا
الصهاينة
وميكائيل
##ثنية
والبح
##ريرا
تنف
خيركم
آوى
طرب
تنطوي
##وشك
##ادثات
معناهما
قارة
##طهير
الوباء
##شارته
والنسائي،
صبغة
أعيا
عاملة
لأعلم
وصوت
بجان
دريد،
إدراكه
تضيق
وأرضا
النقا
النسر
كلنا
وبصره
##ثرين
انتبه
تخلى
مختصره
المرتبط
كاملة،
الزواج،
بصدد
نبيل
##كرها
##واليه
يشم
عشرينه
التعويض
الصالحين،
المهني
معترف
المعيار
انشقت
طاقم
تغيرات
أمتار
الأصمع
يطرق
المذكورات
نجسة
مجهول،
الإطلاق،
تتاب
##ماطي
بالجن
الروع
الكلالة
وتدل
ولسنا
ونفخ
وغرب
شرها
تولية
نخلا
طغى
هجم
##اتها،
وعر
##حيب
##رجون
أسطورة
وشراب
وقولها
##تقى
العالية،
الإفراط
الطرماح
تفلحون
خند
نضر
الفلاة
الوفاق
والحفظ
الصدقة،
المساكن
آتيناهم
عارضه
الخصمين
المخاطبين
توف
ذوا
نقدر
##كيا
تقيد
والحرف
والسك
المتعدي
##كروسوفت
التوص
ينمو
عقوبته
##ريب،
لإخوان
ينتفي
لشراء
المرضعة
وكنتم
يوشع
حادة
حشد
النابل
بدوام
اللورد
مقالا
الباعث
مكلفا
مفرو
حديدة
وكونها
##ويلها
والمحرم
##مسه
##رقب
والتعاون
##خطى
للطلاب
السببية
يجتنب
الناج
##ختين
المسيء
أدوار
##جمد
##اطبه
نعليه
بسماع
الركبان
الصوم،
خضرة
السالفة
الجباب
##كاديمية
برقان
حزبه
ويبعد
مكاتبا
بجهة
دلي
بنيته
كونغ
الهندسية
شاور
السكاني
وضربت
أرطال
يلوح
##غافورة
السراب
تعاقب
المتواترة
القدس،
المعاش
الدستوري
كرامات
الجسدية
الموعود
##وليين
الرمية
الرشوة
يعن
والمغيرة
فتف
محليا
مقلة
وزال
##ابتهم
المنادى
مغناط
معتاد
تحمي
السكوني
##ؤهما
##وافل
واغفر
المعنوي
تأجيل
##ائيين
صحفي
حامية
ظلمهم
المأثور
المباحث
خرس
كلفت
##وكا
يعزل
يعيده
الطابق
وبش
وطاف
جاز،
الربعي
بذلت
استنباط
التماثيل
خفيه
عانى
القائلة
يقرض
ونية
فكثر
يقترح
مكاتبة
راضية
وبدل
يبارك
##مور
##سيل
##ثقل
واللق
##بادة،
حديثا،
فالف
مقصد
##كسير
الزيادات
الملتزم
شنت
وهات
##بغا
والوقت
القصف
إنشا
الزمني
المشورة
يفد
المغت
بالجناية
وحرمة
عصبية
طيار
##بوبية
الطار
عامه
والنعمة
الأسقف
المدفعية
يقتدي
مطلوبة
الخلافات
مبكرة
ودعوى
##يازات
مصنوع
يبالغ
وعائ
يجاد
يستشهد
يقتلوا
تعرفون
النهر،
موجبه
وأطراف
شوقي
ذنوبهم
خلاق
دلف
##نح
##حصل
##طره
النماء
تعجز
الناسي
توقد
برة
##يريز
العلاف
أولية
وخض
يطمئن
##جارب
عيانا
طورا
التحر
##بدان
##ركشي
##بهن
الزاهرة
استضاف
وحث
وخيار
العقيد
المزكي
الأربعة،
إتباع
والشيطان
ابعث
بنائها
فعجب
وأمهات
سيرين،
سالم،
كادوا
آتيك
حزمة
يام
##جرته
والنظام
والإثم
قرني
##زعون
النفخة
إمبراطورية
فأسقط
##وكان
للحيوان
الخاد
المعافى
##والب
حقيقة،
متعددة،
الرأسمالية
مجيب
##ابتن
كتع
الممثلة
خاص،
المثل،
حضير
بقرطبة
وعشرين،
المبدع
الحمال
مستلزم
ارتفاعه
##ايير
روحا
الأرزاق
تراث
بعيد،
الموسوعة
أقيموا
##ينى
الأذهان
ومقاب
مجاري
بإيجاب
كثيره
نعطي
حاشيته
مغت
رايت
قيراط
والظن
الرشيدي
فقها
والكبر
والرزق
حللت
معيشة
وخلقه
الإسكندرية،
التبعية
الآلي
اعتكف
المنذر،
مثلها،
رزقهم
والرجاء
رءوسهم
نبين
##ترات
##ئلا
وحقيقته
لحال
أزد
جدوى
الاردن
بأحوال
##حلت
الأدم
علنا
علانية
والفصل
المقترح
الحدثان
مشركين
ببلده
شماس
صهر
مشرق
منفذ
الشبع
وعباس
مشق
يعملوا
مرضت
السمآء
حدودها
مانشستر
البرمجيات
جعد
ففا
يكل
المتصرف
وحذيفة
ركز
الهاشم
جراد
##ينية،
##لماني
الغال
والأمانة
المحذور
##رافقة
التحرك
بمنزل
وقولنا
##فاسق
قواته
يعمله
استدلوا
مقبولا
فرانسيسكو
قزعة
##يران،
لاز
انطلاق
بتاء
وخفض
المغنم
يغوث
وأعطي
يستحقون
تبرز
العميق
كوسيلة
موات
المضاجع
##ريقا
بالنس
يدلك
لعان
مدرب
الشعائر
مأك
العدل،
بالثلاث
والشرع
بالبركة
جلوسه
الحنفية،
اطلاق
##شرى
استثمار
يسلب
محط
والحلق
بالعصا
الليبية
المزمن
الدراسي
أخرت
صياد
السحابة
الكلمة،
الانقسام
المتشاب
وأنفسهم
المساهمة
تباين
الإفتاء
المستودع
والشخص
وتعزيز
فبقيت
عبادنا
عمار،
دثار
والابن
بالروح
يتوارث
لأبى
منتشرة
صحيحي
رسوله،
يوقنون
والورق
فرادى
هرت
##عنا
وقيده
##سبوا
انحراف
يزي
تعالج
تجس
خلاص
##لابسة
رزقكم
بوصفها
ورط
##فوه
##ميمة
##بلي
##راجا
##سترا
بالوق
##كوني
متتاب
أكلة
يسار،
##وائهم
نقرأ
بالجماع
امتنعت
أوردها
عنك،
أخلق
ذكرتها
##أسف
عاقبته
احتمالا
ينسبون
مبحث
المزن
المبدل
الخزر
ويفر
متحي
القرشى
حمدون
ينادى
النبوة،
شريفا
يضربه
المؤسس
أطي
جسيم
خزي
الإضمار
يجود
متولي
##مت،
للمق
سنذكره
عقابه
##زاوي
##كسون
التقديرين
فرجعوا
فيعتق
والمقد
الغلي
والإج
شئت،
أثبتوا
لزومه
وبالتالي،
تولت
مورا
والزم
وقائد
ومدرسة
فأحر
المعارج
جزى
وانتشار
يحكمون
فهرست
الرأي،
الأوساط
أنور
الجارح
للطلاق
كملت
إدراج
للبحر
الحجاز،
يلفظ
والبعث
يقله
هوت
شيراز
المتقون
مثلنا
إعادتها
توظيف
ويعظم
الخاص،
محتملا
والمشاهد
الشباب،
كامب
فعليكم
وأوروبا
ركانة
##نبل
##مص
##ين؟
الحري
الفير
الإضرار
##ويتها
المحركات
وثيق
مغيب
القبلي
سقم
تفرقت
ذراعيه
الغارات
سامع
عونا
الأقدار
التماس
للبيهقي
بخدمة
الجزئي
بالسواد
جدال
حبلى
الأواني
الأيوبي
بالهند
ووضعه
والخميس
جوانبه
الثانوي
نموذجا
نفض
والقتال
##اداة
متجر
وصال
ملكان
والجاه
الامراء
للدراسة
الموجودين
علماؤنا
لعنهم
محذوفا
إزالتها
السائ
ومئة
ويتكون
ويدعى
لندن،
توكيد
خصيصا
؟؟
دوائر
السنا
السلة
##ودى
##سانية
كثيرين
حنش
فهمت
هانىء
أراكم
##شفع
##لاهم
الصريحة
وتفا
وفار
شرحا
يتأمل
سائغ
##ستخدام
ذكرنا،
رجب،
التصنيع
ونسخ
قائلون
المسيحيون
للعب
فالمن
سجستان
وذريته
يلبغا
وطلبت
حجز
##لهل
##ذاعة
الأكمل
يتطرق
المعنوية
أفلم
مطهرة
التمريض
بالرحمة
مقرها
النمساوية
ألط
مريضة
##اءه
الكاس
انى
المناعي
والخامسة
أفواههم
مادي
انبعا
موسيقية
والصورة
البشرية،
يصفه
##ينتون
التبرعات
معجزات
بعام
وإسناد
##ليموس
المنافس
صدرا
حججت
##زعها
أذني
الأحكام،
شوال،
القوافي
ضاعت
أذي
##فكون
##ربة،
حددت
##انيق
ومحدث
اتضح
مؤلفة
مرشد
التحسين
توقيت
عبيدا
المكتبات
جئتك
الشافي
وسجن
الإبادة
وعبارته
##وسين
انفراد
الطقس
أخوان
يسوء
##عينوا
وتعليق
يقطعها
الاشتباه
أمنية
##فعتها
رائعة
ورابعها
والمف
وأنفس
##ناهز
عزمه
صدى
تدار
أزرق
وأخطأ
الريبة
غرين
سلاسل
الحنظلي
كاي
##أمة
السفه
حداد
بحصته
المشاهير
##جتنب
الأسلم
حاجة،
يردون
رؤس
نشط
الكتائب
الفتوحات
تضل
مضرب
##سون،
الرمان
وحياة
##لالته
يشتهر
يخفض
والجلوس
##بطأ
يصحح
##فصاح
ينتصب
النظر،
نقلته
السمين
وتتميز
منسوبا
انسحاب
المنشآت
عماله
فأكرم
مترد
والعادة
المحيا
المحصن
قبلا
كأنهما
أعطت
بالغداة
ألقوا
مخلوقاته
التلفزيونية
هذة
وفسخ
##يفا
كتابتها
فعليا
أقبض
الرائي
وثبوت
##ولية،
نحوه،
##صيها
##ربيا
فصيلة
للسفر
قلوبهم،
ومرت
مشكوك
وأزواج
إزاء
تكل
نزا
##كته
##ذول
أكلا
ذاك،
شعيب،
الملاك
العادة،
وسخ
انضمام
##وفهم
الرحلات
الضربة
وروايته
فكلا
أتقاني
لجامعة
نقلوا
هكذا،
كحديث
حافر
خبيثة
##لهي
عمرته
الباقر
إياد
إمامته
مستقبلات
دارة
وطلع
وأوس
السائق
المعية
سلموا
##قرى
أكفر
قبرا
تطالب
جانبها
الهدم
شعره،
الفقهاء،
##ئران
قادم
وكتابة
##فلونزا
##ظمي
##يمانه
بقصر
جعلتها
اشتق
مشتر
الترفيه
لستة
عابدا
حياتنا
خوار
غول
أنصف
وألب
لهما،
بارا
يسجل
مصارع
##هبانية
بلغته
اختير
بطني
##عضو
بمنه
لسقوط
اجمع
قابلية
العتاهية
وكذبوا
افتح
منكن
##ماسة
بالعدد
وألح
معقود
الرواتب
للفرد
هولاك
أشياخ
##بيدات
الأصيلي
التنقيح
فرسخا
المقاتلين
تيق
قصار
مكرمة
##قيهم
استم
الغارة
الأخنس
تزويد
البلدي
زنكي
وبحمدك
ألهم
##نيعة
أصلاب
يستأنف
##ؤمنوا
يقصدون
الجوهرة
كبش
البداية،
شامة
##بتني
مستمرا
فكلمه
ويندب
الأختين
رعى
المعيب
بالزوج
وأكم
السنام
##افهة
يستوجب
يخدع
بجبل
والكوفي
صلاة،
يسمعها
عصمته
الحدود،
يمسه
صاغر
الفيزيائية
إضاعة
الموانع
الرفيق
##فارات
ونن
المستفاد
نظاما
فاستحق
يهديه
وتسليم
كيان
اركب
بارتفاع
نهد
##ناني
فيحكم
المضيف
##ابعه
لاق
التغابن
شبيها
هور
##صلا
ماش
الطبل
وقدمنا
فلزمه
المشعر
فلوريدا
فأنشأ
واتق
وخالفهم
اللهجة
وإنتاج
##ضر،
وصعد
ويتخذ
يسمعوا
##نسيق
الأوسط،
واهت
الطهارة،
رطلا
##خبات
##غناء
##وضعه
الهيك
سيبو
##ثلج
فروج
صفح
والزنا
قبيحة
العسكرية،
ونسأل
ويزعم
قاطبة
فوائده
والاز
والعدة
وقبح
النثر
كلامك
والشعب
اشتروا
يطبخ
ويستمر
والضراء
وبدلا
القبطية
المجل
للنار
والمطر
بإسم
انتهيت
ميكر
وتسقط
النجمية
بقاؤه
الكاشف
ضئ
الدبابات
الطالع
يسق
والنفاق
فكثير
التنسيق
خصما
المرزب
الجنوبية،
أحدثت
كفايته
يراك
وتقرير
بأفعال
مجت
##رائح
تشرف
جمعته
والثوب
##فاء،
أجمعت
الصديق،
بربهم
للاتباع
التبادل
إيثار
كفرت
المهلبي
إعدام
##زك
الخنا
وعرفه
بعيسى
المنتجة
الأجساد
فقتله،
التفكر
المجاور
مفردات
طبيبا
الفيروسات
زكى
فصف
كاهن
##صنع
الخلة
تعنى
##سبح
بيضا
بلاك
قاذف
الإسقاط
التطورات
وويل
##فنت
العشرون
السعير
الصماء
متخ
تأكله
بالكلمة
شخصيا
الصفات،
##راسة،
فرضنا
إناثا
أئمتنا
الخميني
جائر
صفتها
##غلة
القيل
الفرش
إسمعيل
سوادة
بعبده
شاد
غط
لفعله
وبيض
الغبن
يعرفونه
انتهى،
درعا
الهمم
يجدد
ولأهل
المريسي
الطالبين
مارية
الرقاق
واعمل
المعري
##اريق
بحصول
أزكى
ثيابهم
كحال
##ينين
فتعلم
##تهاده
المؤت
بالأكل
بالصاد
أظهروا
السبابة
الكافرة
اليتيمة
موطأ
المجز
العرو
مجالا
بحير
الاستشهاد
تسيل
ركبته
تستقبل
مأخذ
للمنطقة
فسألوه
كهم
العوالي
لمي
##ضاؤه
يحيا
كرجل
##بادلة
يطلقون
نباتة
تشتري
ضحية
غيم
تعلو
يتكلف
ينتمون
يدخر
بقصة
الراك
القدرات
وتصديق
والولاء
حبوب
ف،
بالولايات
للأش
ابتلى
عبرت
بالدفع
المنصورة
ممالك
##مرته
عمليا
##وحات
ممنوعا
الموعد
ويستدل
ويكفر
راهب
بوسطن
عريانا
مفصلة
##سبات
تكفرون
والدفاع
المثاني
تأثيره
يرح
##ظبة
##صة،
والفلسفة
السويق
واضرب
الطاهرة
المعتل
مختبر
بالصالح
فالأقرب
حقوقه
الأتباع
تكميل
[...]
