[PAD]
[UNK]
[CLS]
[SEP]
[MASK]
.
/
:
=
|
،
؛
؟
ء
ا
ب
ة
ت
ث
ج
ح
خ
د
ذ
ر
ز
س
ش
ص
ض
ط
ظ
ع
غ
ف
ق
ك
ل
م
ن
ه
و
ى
ي
##ا
##ل
##ض
##ي
##ق
##ة
##،
##ت
##س
##ى
##ب
##غ
##و
##ر
##ن
##ش
##ه
##م
##ح
##ء
##ف
##ظ
##ك
##خ
##ط
##د
##ع
##؟
##ج
##ص
##ز
##ذ
##؛
##ث
ال
##ال
##ان
في
من
##ما
##له
الم
##ين
ان
عل
الا
##لا
##ها
وال
##را
##ية
##وا
##نا
بن
عن
##ير
##ول
الله
اب
##ار
##يه
##ون
##ذا
وا
##لم
على
##هم
قال
##يا
##لك
##اب
الع
الح
##ري
لا
##ام
##يد
ما
##يل
الت
##ست
وق
بال
##ات
عليه
الق
##من
الى
او
كان
##دي
الس
##ور
الن
##بي
##اء
##حم
##يم
##مر
##ته
##كر
##عد
وه
مع
##با
الش
##بد
##وم
##حد
الج
##عل
##بر
اي
اخ
الر
##مع
##اد
الف
##كم
##ود
وس
##وله
الص
##في
فق
##رب
##عة
##حمد
الب
الخ
له
الد
##لى
وان
الك
##رة
ذلك
الذ
ابن
لم
##رج
وك
يق
ولا
##لي
##اف
لل
هذا
##بة
به
##ني
عبد
##اي
صلى
وي
وت
##وج
فان
اس
##بل
فا
##رف
##ذه
##لام
##رك
تع
ثم
##اه
لان
اذا
ابي
انه
هو
وج
##رو
##قد
ابو
##كون
ول
##مل
##نة
وهو
##وس
ام
يع
حد
##يس
##كن
##حي
##صل
##ديث
قوله
##قة
بين
##اس
##فر
قد
وسلم
بع
##مة
فيه
الث
وع
##دة
محمد
##اني
##فس
بعد
##به
##جل
##يت
غير
##وق
اع
##تى
##رض
حدث
وقال
##سول
##شر
فقال
الذي
الط
علي
##حت
##لف
##اق
يت
##هر
مس
##لت
##اع
وم
##قي
##ذلك
كما
##مي
##وب
عمر
##ضي
##الى
##بع
##لق
كل
##اج
عند
##دا
##هما
رسول
وقد
ومن
النا
الاس
##ة،
الان
##صر
##يب
المس
##اح
##هل
الز
##غير
است
هذه
حتى
التي
عنه
تعالى
شي
وب
يج
##وت
##وع
##وف
حدثنا
وفي
##بت
##وي
احد
##خل
##ضا
##سن
##يف
وكان
##قل
##تاب
##يات
##رى
اص
##نى
##ده
ين
ون
##وز
##كل
والم
بل
##فع
المع
الغ
يكون
##لة
ذكر
##وى
بعض
##لب
##وه
##فت
##ثر
##مه
مت
##اص
مث
##رد
##راء
يا
##رت
##عم
منه
##حر
##مس
##ماء
اليه
##خت
فل
##ضع
النبي
##فة
##قت
اش
وما
الو
##كان
##الة
##هد
لي
المت
##سب
##در
##مان
اج
عام
##عا
##يرة
يقول
فلا
بها
##فا
##لاث
فه
##سم
فيها
##رق
يد
الي
##حة
##قول
##اري
##عت
قبل
الاخ
فت
اد
##دين
##حا
##وال
مال
سلم
لو
اك
كانت
##قا
ات
##لاة
##ه،
##لها
##ارة
##نت
حديث
الاول
الناس
##مت
##رات
احمد
##مام
وح
##ية،
والا
والت
واب
##عي
##ظر
سب
##ورة
يوم
اله
##راد
با
##ذكر
عد
بان
اهل
الل
##رح
##تب
سنة
ولم
##سل
واحد
##سان
الام
##راه
المن
وص
اح
بد
اق
مج
لانه
##حاب
الشي
##الم
##خرج
##ره
##از
حي
بم
ايضا
يس
##ريق
الحديث
##يع
اما
روا
يح
##وة
ليس
##زل
##شت
يم
نفس
لما
هي
وف
##شي
##لاف
يص
المو
القر
##تها
##قط
##جد
##ضل
##ينا
##نس
##جر
مو
##حيح
##ند
##طل
للم
باب
ثنا
مح
اذ
##مال
قول
مثل
وهذا
##زي
امر
فال
كتاب
##حق
##ماع
نس
اخبر
منها
##فق
تق
##خذ
##على
##باس
##رع
وهي
##لال
اول
##تي
كث
يست
##وان
##يلة
رضي
##رس
الدين
##وية
بق
ولو
الوا
##عيد
سمع
##بير
##خص
مق
##يمان
واما
يو
اف
كال
قل
لها
##وات
ولك
انت
##كا
ثلاث
بما
وغير
اخر
##سة
##رم
رج
##طا
تح
الرح
الذين
##يمة
بكر
##زم
##صف
##ديد
##راة
حيث
##نه
شيء
##ين،
الرا
##ياء
##ضر
اث
والع
لت
لهم
##ناء
##حو
##كة
دا
##لاء
البي
##بار
##خر
##انية
الصلاة
##واب
تم
##كت
بي
فقد
تن
فهو
سل
المص
تت
##وك
قت
##بح
##عب
بح
##قدم
##سر
##سي
الاست
عب
ولي
يش
قلت
##ذي
##طي
##جب
بت
فاذا
فانه
##يام
رب
سعيد
##ها،
مالك
##راهيم
##ميع
يز
مما
##دينة
##صد
وخ
انا
هنا
مست
##رط
##ولا
##اهر
##ادة
الحسن
دون
قب
رجل
##مات
عمرو
##كي
##سا
جاء
حق
الرحمن
للا
##طع
##تم
##طر
##ليل
الظ
مش
وقيل
فيما
المج
##طان
ابراهيم
وجه
الارض
عشر
المح
انما
الاسلام
الض
المش
##يدة
##فظ
الاص
اه
ولكن
لكن
##طلق
##يرا
##جة
##وجه
بك
##لاق
القا
والس
منهم
الال
##انه
عليها
##ذهب
والح
موس
اخبرنا
##وح
##ذر
##طة
نا
اكثر
##حيى
##ظم
##حدث
والله
##ريد
يكن
##تق
يقال
انها
##زة
##ضاء
النس
الملك
##امة
##قص
مسلم
تص
##لات
##دم
المسلم
رحم
المست
##نف
##قر
اخت
لك
فلما
##واء
تو
الشيخ
الاج
حين
##الح
حال
##ناه
##طن
وش
ود
حم
صاح
بخ
تج
السلام
بش
سن
صحيح
وابن
وث
مص
عليهم
الاش
عم
يخ
يحيى
واذا
وز
تس
##اك
##نب
يجوز
##نيا
##غة
ارب
يعني
القران
لع
عز
عباس
العلم
##ولة
الاع
##بلغ
فعل
فس
فى
الثاني
ور
العل
الرجل
بالم
روى
##الي
##انا
الما
##طب
##ضة
##صار
حكم
شع
##ينة
##غي
##امل
##قال
واست
##بيع
علم
##ثل
##رام
##ضى
الامر
##افة
تش
ابا
فع
##ركة
##ذب
وانما
الامام
خال
##رار
تكون
##دل
اصحاب
##طف
المال
##لهم
##وص
باس
يب
اخرج
وقوله
##شا
زيد
ومع
را
##باب
##ضم
يك
ملك
لق
تحت
الكتاب
البر
##الث
دين
##قه
وذلك
وار
نص
##هب
##زا
##دت
داود
فلم
المد
والن
قيل
##يش
غيره
##حاق
##فه
وعلى
موسى
##ظهر
##هم،
##جم
طريق
##يك
يف
البا
##جه
الحق
##سين
##الب
كلام
##شرة
##يهم
ترك
فما
عا
والج
نفسه
مد
الاح
رواه
##راب
العرب
قالوا
##ختلف
##نع
##شة
بني
شييا
جميع
يمكن
سمعت
##ريم
##لاد
الاية
جع
##روف
##ثمان
معا
بذلك
الحج
مات
وعن
ست
وليس
##عين
##راي
جمع
صد
واس
راي
وله
وكذلك
##عه
تلك
الخط
##يادة
##فتح
##ي،
الحكم
عق
يل
لله
بالت
كثير
فكان
فك
##لاح
##اله
تك
##اهد
##ياس
قا
وقت
##فل
##وء
الاولى
صاحب
ار
المومن
بالا
هم
ابيه
##يق
##حدة
اسحاق
السل
عبيد
اعلم
اخذ
##ونه
الوق
##صب
##ذك
والث
عمل
الدنيا
مر
##ولى
والش
تد
##ان،
جل
وابو
لاب
هر
##صة
##ماعة
المنا
وبين
##خاري
بلغ
##وري
فج
المق
اغ
##بات
يزيد
خمس
هل
##عود
فر
##ملة
سبح
كنت
العالم
خلق
تا
رحمه
##يز
##بس
فمن
الاد
##وض
فلي
لن
كانوا
##حل
##شد
رواية
الاخر
ضع
بر
الانسان
فن
##حرم
##هن
##معنى
كذلك
عدد
الاب
##ريب
كذا
##راق
##راج
الفت
اخرى
##ابت
نع
اسم
تقدم
ذكره
والق
نحو
##عر
##افر
المغ
##داد
##دى
يجب
##فار
والب
##افعي
##يني
##وجد
البخاري
فوق
##يار
##قيق
##رفة
الماء
جز
##ريك
بط
##اريخ
والص
ابى
##افع
خرج
قوم
##افظ
##جا
##اسم
سعد
مخ
##ذن
سا
وكانت
##مار
##وبة
والد
خلال
ثلاثة
##حن
##ولي
اعت
جعل
##تمع
##ثير
##صور
اني
##ويل
والخ
##بين
لمن
عثمان
وهم
وط
رق
اراد
راس
##اتي
حسن
السنة
هريرة
احدهما
##امر
##ومة
يغ
القول
للت
الجمع
##حمل
##جلس
##رجع
لح
##وجود
معه
عنها
##هور
خير
انس
الكلام
الحم
زوج
##وسف
قام
اشت
يعلم
##ماعيل
سي
اط
##وها
##علق
##هار
##قى
##اته
رك
##سبب
العمل
المدينة
سليمان
اليوم
بس
جعفر
##ته،
النار
واق
##ابة
##وفي
##وسط
انته
##ديم
بج
##فيان
##ارب
وذكر
عبا
معنى
ورو
##الت
##عى
الجنة
انهم
تف
ولد
بعضهم
وجل
##يح
نعم
بص
##ماية
وتع
##زوج
##ارض
قر
البحر
الاف
##ظيم
موضع
##فى
دخل
عاي
واج
حدثني
##واه
مك
فض
##وط
الاصل
سورة
تخ
وكذا
الحا
##وني
احت
##تهم
##ا،
##ك،
##ايي
##مرة
##نية
##نان
قتل
سبحانه
الثالث
##اة
المسلمين
##ابر
يوسف
شرح
يحت
##كره
##مو
بيت
بالع
##قيقة
نسبة
واع
##جز
صلاة
##بان
##لفظ
الله،
##زيز
قالت
شاء
##راف
الشافعي
لنا
##قات
والك
صف
الول
##يده
صح
##خد
واحدة
##رير
سفيان
والف
##واد
##واز
##لمة
هناك
##الف
واص
##اره
ير
از
واخ
كتب
وجود
بغير
دع
عدم
##ريح
اض
##بعض
##داء
وعل
##طاء
##تين
القاضي
بالله
##ايل
النساء
مرة
##هاب
وعد
كيف
##ارث
شيخ
نظ
##سبة
##تل
لب
جه
##عام
المراة
اسماعيل
خط
##ناد
وغيره
الرج
يعرف
##راءة
عين
##ثبت
##ارج
##نين
##امع
كم
نز
عايشة
قدم
##راك
وغ
تط
##راض
##ماد
رم
اصل
وفيه
اخرجه
يط
##تك
بلا
انتهى
##ياد
##بال
صالح
الصحيح
##كثر
##ياة
ويقال
تست
عنده
##ريف
##اث
واخرج
##اصة
بالق
##حب
وضع
باع
خالد
حس
طل
حك
بنت
##هي
العلماء
##ورا
عشرة
يتم
التع
الساب
امن
حر
قط
يصح
بقوله
##فسير
فار
بهذا
القاسم
##نات
هولاء
بالح
##الية
قاله
##ضح
موا
يريد
الدار
##شام
##كاة
دار
لكم
##غل
حج
سواء
##صرف
##سلم
##وار
يعت
##شف
##بط
البل
نف
##كس
فات
##راس
بخلاف
##ون،
##كاح
البد
الاق
التح
قري
مكان
##باع
##بيب
الاز
##مش
##صي
##هاد
##وجب
العبد
عرف
##جي
المذك
##كام
فقط
##سط
سم
##يسى
الات
سبيل
##وث
المومنين
##صا
وكل
##هري
وين
الايمان
##اجة
ضعيف
فصل
بالن
##عدة
بغ
ممن
الثانية
##ارية
اليها
تب
##انة
المسجد
##يدي
##ونس
ذلك،
رايت
الحسين
قدر
ايام
فح
الجز
للع
##ذاب
##ارك
يض
ذات
رس
##طق
##ربي
##اتم
نق
بينهما
المخ
الوقت
رجلا
اقت
الحي
العق
يخرج
حني
الفق
الباب
حا
ري
نج
الحد
مط
مصر
العام
الروا
##فاق
دخ
ارض
##لاي
انك
لفظ
##راط
خلاف
وجد
وانه
بشر
##قع
الحال
وام
وقع
العزيز
العد
لانها
##بري
##باح
الشمس
##وهم
بهم
خلف
بمعنى
##روع
تعد
ظهر
اية
بيع
سلمة
##ى،
الفا
ويت
فد
رقم
المعنى
الفر
ايا
يدل
##اذ
لكل
فلان
##ما،
الثلاث
##رجل
##ناس
تقول
شرط
##كذا
##انب
الليل
ورد
بسبب
شر
انظر
منهما
##جاب
##فاء
الولا
عبدال
وير
نظر
يذكر
##هادة
بمن
الخطاب
كله
##غم
##رمذي
##فن
الاعم
##يدا
لج
##رفع
فهذا
##صول
فقلت
صار
امراة
##الك
الجن
المراد
مل
##ذين
البيت
الموت
عيسى
بالك
ثابت
للح
العباس
الخام
عليك
##اية
قص
##وقع
اللهم
يه
##ذف
والذي
مض
وحد
##فاع
الزوج
المط
جن
##يذ
##طقة
##فض
الحرب
الصحاب
السماء
##ينه
##يية
القيا
حل
رد
مسعود
الحارث
عما
##قطع
##ايب
رفع
بالس
##راييل
بانه
المر
##ادر
##وما
حنيفة
##اعة
شهر
شخص
بعده
والان
##منع
ارت
وات
##هاء
راى
بدا
##يته
النفس
قرا
هشام
القوم
##وقف
الموا
##شاء
الصف
ضرب
واش
##يا،
الرسول
مغ
##زمه
مكة
##ونا
##زع
سبع
##لث
الدع
المشت
العين
مدينة
##سمى
لد
المك
##قدر
القيامة
عاد
ولما
##اتل
الوجه
الشيء
يرو
##فرق
##شرين
##لية
وبعد
ابت
الاث
المتحدة
##حه
كلا
##ثال
جماعة
##غيرة
##ورية
معاوية
خص
وعبد
##ونة
##قدير
افضل
كون
البع
##وذ
السب
##فص
##رة،
##ويه
##هاية
نصف
الحر
##زلة
تز
يدخل
ظاهر
##حاديث
##ياض
اليهود
التج
يصل
##باد
يشت
لقد
##بض
##فرد
در
وبال
وض
ياتي
##خدام
##ودي
كت
السلطان
اجل
فاما
الحافظ
فص
الصد
اربع
##ثة
يقت
القد
##موع
ويج
جابر
الري
عرض
##اير
##واج
تغ
بشكل
فلو
حول
نه
ويع
بيان
شك
##وته
عامر
وانا
عنهم
##وخ
##فعل
وانت
##بغي
الاخرى
فاست
اربعة
فتح
##بيرة
وظ
ذي
مثله
بب
##حوه
المصنف
البص
فم
امير
مرت
ثبت
البق
##غر
##قين
##اعر
##واع
ايها
فهي
ذهب
الفضل
##م،
خل
اولى
ثقة
تاريخ
يقع
##يث
##يي
##فسه
##جرة
##ودة
##ابل
##قبل
##بيعة
عليكم
بفتح
توفي
واد
المذكور
الفعل
خبر
الحك
الشام
وهذه
التن
الاعت
كلها
رو
حاتم
وصف
##بيه
البيع
زاد
##قوب
الشع
كف
المسالة
وبه
ينا
##ابع
اقل
الانت
اذن
عقد
كفر
والتي
عي
##ير،
##ولد
##مد
##شيء
عندما
عدة
##اش
##سك
مه
الثام
انفس
لذلك
اولا
##خدم
الكر
##نون
واله
الصحابة
كثيرا
اكبر
ونسبة
خلا
التش
جزء
وروى
##ياب
حن
النج
اللي
فيكون
##يمين
##هات
يده
قطع
طالب
الزبير
##خي
النب
##انون
العقد
السن
حص
للس
يوما
التق
نصر
##ابه
جمي
##راع
الامة
الجواب
فب
ليست
##وير
المز
قيس
فرض
مسالة
شه
الرز
ومنه
طلب
يونس
امام
وصل
##رش
##يين
##مير
يرد
مطلق
ادم
##بعث
ولهذا
##رجة
فيقول
والط
شهد
مب
##اهرة
المقد
##بارك
لص
##اتب
##قب
والسلام
ليلة
الحاكم
وتعالى
الوليد
##ارس
##وعا
القرن
منا
فاع
امت
الجمعة
احب
الامير
##وين
القص
مختلف
##ق،
ماء
المعت
عاص
يوجد
عنهما
اثر
##دية
ضمن
والغ
بالج
##تماع
##روة
##ظام
##ضان
منذ
تر
كبير
جاز
احدى
##عة،
##ربة
الترك
العمر
##بدا
##الا
##فو
##ضب
اسلم
تل
اكت
يدع
تفسير
قلنا
ترج
والر
##ات،
وبلغ
والز
ينت
معناه
جميعا
لس
روي
##قض
##لايكة
واح
دفع
النص
الزهري
يقوم
##ريج
قبله
حصل
احسن
الدولة
اختلف
مخت
##دع
الطريق
فليس
ترى
الاخت
وثلاث
##والي
الترمذي
مقد
##كب
##كرة
##وام
الخبر
تعل
##يو
وابي
معل
حمل
النظر
##ناده
الولايات
##قتل
وسلم،
كنا
##طه
##د،
ذو
##بة،
والمع
فذكر
ماية
مذهب
وجعل
دليل
الواحد
العديد
عليه،
عطاء
جهة
الطلاق
##نام
##هام
والثاني
وعند
ويقول
رييس
المض
نزل
ورس
##شية
اليهم
واي
بعث
وهب
وو
##ضمن
##كلم
اعمال
قتادة
##صدق
اعط
عاما
الكل
جاي
ونحو
دي
التص
باق
##رر
##روج
صفة
##فعة
ينبغي
الحياة
الطب
الارب
يرجع
##اجر
العربية
مثلا
به،
##جاج
القلب
##صى
بناء
الاخرة
##ريقة
منصور
الرجال
##ذيب
زيادة
##سكر
سال
##امعة
للن
الاسر
ذا
منك
زياد
المل
يعقوب
يفعل
##اعي
العم
طال
الهم
##ارع
يصلي
##ظاهر
اتى
دل
يعمل
ومنها
##وغ
فهم
ايوب
امرا
وحدث
الحس
حماد
يرى
ففي
الشرع
##ربية
يعد
شديد
اللفظ
نب
علينا
ورب
الدم
جدا
ومحمد
##حيث
اعد
##ضية
لغير
##اء،
مز
فيهم
ارا
سبب
##احة
الروم
##موعة
##نم
ويم
حجر
فرع
##يفة
##ولف
اسراييل
الانب
كثيرة
رمضان
##ضافة
الاحت
##بره
##تبار
افت
##ديق
مرض
##لاك
ضد
##برة
نوع
التك
الخلق
كس
##ظمة
##ميز
كا
##ياتي
##طين
##صية
##هير
##بعين
اللغة
الاك
بث
##بلة
الشرط
الرك
صل
##واف
بالص
الظاهر
##وفة
##بيت
للج
##يج
##طيع
يقولون
##راح
الاغ
بار
الخامسة
منع
السوال
جرير
##مهور
سبق
##عمل
شعبة
النف
يجعل
الور
محل
اين
##حف
ويد
##تان
الشعر
مبا
##حاد
##يها
بنا
حسب
محم
الرييس
##يبة
رجع
عبدالله
##خير
بري
نقل
عهد
يثبت
تكن
ياخذ
جد
فرق
وغيرهم
والنس
##خة
##شار
فاس
يلزم
دينار
الكبير
اللا
كعب
هار
##سام
الزكاة
المه
مجلس
خاصة
مرا
حرب
الامور
نافع
الجنس
##ايق
##يه،
صلا
##شى
اليك
كانه
سر
يبلغ
لغ
بوا
الخير
##قوله
الكتب
الشرح
الرزاق
##كين
حميد
المعروف
اشهر
##ياه
##را،
يحدث
##يان
يظهر
احدا
الثامنة
##ثى
الانص
##مبر
المث
وست
##لاب
##ضوع
معين
##زب
##ريض
##يتين
##جع
##له،
##انيا
##زن
خمسة
تنا
بينهم
باسم
فرا
##يهقي
##وبا
##ناع
فهل
داخل
جديد
شريك
ملي
##ال،
مرو
الوج
##ملك
هكذا
تعلم
##امت
فضل
الدول
بالنس
##ذل
امره
ويست
الشيطان
ماله
##زق
البلاد
وامر
بالش
طب
##باط
السكان
القضاء
##مى
النكاح
##ومن
موت
##س،
وخمس
اليمن
الشر
لش
الميت
الحل
الصالح
##كار
##زاء
##ركز
الار
منت
##نج
فقالت
##ونها
التعل
##مشق
##دق
فانها
حب
##ليلا
الاي
السج
درا
لابن
انزل
عمران
يمنع
بعدها
سير
الدا
لقوله
الاقت
##يلي
##تمد
جنا
مدة
##ريكي
مولى
حالة
##نا،
بهذه
شبه
اوا
العقل
العا
ورواه
##طية
واخذ
وقرا
##يل،
ولان
##فين
راسه
القل
اهم
كونه
##حية
الوز
باست
##بيان
منكم
##باني
الجنا
العراق
##ديها
فله
كلمة
##ظة
جواز
الفتح
##كى
الموس
يجد
يسمع
وتس
##ايفة
جنس
سيل
##روب
##دان
##فيه
يقبل
نحن
معد
حبان
##ختار
##صاد
##طفال
##خول
قلوب
له،
##ن،
##ليفة
اخبرني
الذى
الحمد
كن
##طال
##شرون
السيا
للش
حلف
المف
ربك
بكل
العصر
فقالوا
واحمد
اسمه
حجة
##ومات
بلاد
البغ
##فيف
يملك
الكريم
الها
يات
بضم
##وفى
##حقق
##طار
بالب
ورسوله
##وش
للك
سلام
الدي
##صح
حقيقة
الست
عاصم
عباد
والاست
مخل
##حمة
ربه
ابدا
فكيف
الطعام
طلق
##فاظ
##انع
وعليه
سهل
حرف
متوسط
وحده
##خبر
قولهم
ولذلك
##ولها
فش
وجب
##ايما
كتابه
مطلقا
مقام
##حتمل
##افية
ومنهم
عبر
سيد
بقي
واعت
ساير
العب
##صال
##قاء
المشرك
اعظم
##ريعة
##طلاق
اصبح
السيد
اصاب
التاريخ
البقرة
##ايع
وعمر
قريش
##مة،
الكثير
الشاعر
ويل
##طلع
##رابي
نقص
وعنه
##اقة
ينظر
##ريع
يحل
حبيب
##قاط
نت
دولا
##قصود
لهذا
امنوا
اكل
##ندي
##اهل
لين
حيا
وجوب
ويكون
الملايكة
يعتبر
مف
##علم
الابل
ورا
##فعول
##بعة
المذهب
المشتري
بحيث
اليس
بدر
الجامع
بام
##يران
يحصل
##تر
##ريس
جملة
الكف
##عن
عص
الخل
##وعة
زا
خيرا
##يره
حض
وشر
الانبياء
قبض
##روط
اثناء
اليد
ابنه
رجال
المثل
عض
##ظن
بالنسبة
##وحيد
بشيء
معت
##وفا
جانب
##جار
##بول
يديه
الشرك
##بادة
##ذان
وترك
لام
قسم
قصد
##امن
العامة
الجل
تاب
الشخص
للق
مجاهد
وجهه
##جلي
فجعل
عالم
استخدام
##ري،
عبارة
حرم
معمر
صحي
الانصاري
وبعض
ايمان
بير
سج
الخد
##مكن
الخلاف
##عله
القت
دعا
دولار
سكان
العاص
##نتين
وغيرها
موجود
##ايلات
ويح
الفرق
##ايف
والل
نبي
انب
عدي
ذاك
مجموعة
حفظ
وراء
الثلاثة
يلي
الخلا
عندي
والارض
سقط
ليل
يجز
ضر
الليث
بز
نعيم
##يلا
الذكر
الثمن
السم
##رفه
والاخ
غز
##فقه
سما
لاحد
##قف
معهم
فيهما
يحتاج
##طاع
الجديد
##احب
المنت
##ور،
يقدر
وتح
ذكرنا
جبل
مني
مجال
واخرجه
سوى
ولقد
بالغ
هد
الجيش
##ومه
زمان
المهم
الجماعة
انواع
الرواية
واحدا
العايلات
اللب
الرابع
البعض
اشد
##كمة
##عمال
كقوله
##ب،
ساب
##ارق
نور
##وبي
مشت
خطا
##عدم
القدر
الولد
غيرها
انسان
الكافر
وفى
##صلة
اصحابه
##ضرب
المغرب
اسناده
الثق
صورة
حاج
اصب
قالا
يقل
شيبة
##نك
##طى
وهل
##درسة
عبادة
الاسود
خارج
الاسم
##ثله
فعلى
##ناك
بعضها
عروة
واف
تبع
فخ
##ويا
الفس
الامريكي
##يهما
##قون
اعتق
بالخ
الشمال
الكم
بينما
دم
غل
تزوج
البشر
##ارت
الوض
لابي
##بعون
##لمه
فخرج
##عبة
##ورد
وانشد
اقول
السر
ليلا
الكبر
##ويت
##بية
واصحاب
يحب
##كية
قيم
بينه
##عار
ارد
فقيل
كلامه
##ذات
بف
كبيرة
نهاية
خاص
##قيم
ونا
والمن
والى
الوس
##تنا
مرف
عادة
قوة
البايع
قراءة
##اده
ويس
##غفر
##راز
الاعمال
الهد
صدق
الزمان
عظيم
الحب
التو
الخمس
##ثرة
وصح
الربيع
##يء
صحة
يومن
الصل
##وضع
عندهم
##لكم
الثالثة
والاع
بكسر
اليمين
ته
بدل
وفيها
ولكنه
##بته
امة
##انت
ارسل
##كرم
الخص
ليت
معرفة
##و،
قضاء
الخارج
عظ
حاجة
اهله
الشه
##ريط
اموال
##طلب
##ميم
وسمع
##كال
الكفر
لسان
قلب
##حث
##اني،
بلفظ
الفل
##حديد
##اط
##ركب
والاس
##ساب
راج
سالت
فاخذ
شيت
لز
ستة
شعر
بغداد
##جمة
##سمية
ادرك
##جلة
صاحبه
##حيط
بات
بالف
حسين
الفجر
رح
النسايي
وعشرين
التا
لانهم
صدر
ويجوز
##وبه
ربيعة
الهند
يتعلق
سليم
ها
لهما
وقالوا
تعت
وتش
##فان
يحمل
بيده
منطقة
##قطني
اسماء
يسمى
وخرج
واخت
فجاء
بحسب
##سليم
معاذ
هارون
##شيخ
##فعال
عنه،
##بيح
ثلاثا
حذ
عج
قرب
الصح
##يري
السما
ظل
##يد،
مقت
الوضوء
مفت
فيه،
المرض
المعل
الايات
بدون
##ودا
موق
##قة،
##كرمة
عذاب
ذك
واث
زمن
اقر
الوط
الاعلى
الرق
وجوه
ونحوه
##املة
حقه
لديها
تقع
##براني
##حى
ومسلم
##دي،
جبير
لغة
سالم
##وده
النعم
التس
##لامة
الساعة
للص
##طرة
السابق
شرع
النوع
وقول
نقول
معظم
درجة
امه
التد
ثمان
المنذر
الضر
القسم
والام
الاحاديث
##دد
المجتمع
تقدير
شهاب
ولل
##جاز
##كيل
نشر
نش
الواجب
##برا
ويق
النو
الذهب
الحيوان
##رون
اختلاف
##قلب
##ملكة
خد
اطلق
زوجها
اجمع
والمراد
##يتها
لكان
##نز
##ناها
##لاج
بالمع
لكون
##ثه
فعله
الظهر
الشرق
المام
البيان
الساد
##عتين
##زام
##تهما
لكنه
##ارح
مهم
##عون
شهادة
قيمة
##قوا
واحت
##ثم
الكفار
احاديث
يقرا
ثلث
العباد
##دون
##ويد
عوف
المرت
شعب
العظيم
الحن
فالم
السفر
بمع
صلاته
##طح
وقف
متى
السلم
دخلت
##ضعف
الحاج
شيخنا
نهى
بيد
##هول
بالاضافة
دور
##ذة
الدعاء
انفسهم
وهما
##صارى
السلف
يشترط
حنبل
نزلت
روح
حينيذ
احدكم
طلحة
وجاء
تمت
للد
النهار
عبيدة
##وا،
بنفسه
التف
حديثه
يقتضي
##زية
دمشق
وذ
البصري
##سية
صور
الحجاج
درهم
ومر
##قاد
نفسي
##قية
سيف
اجر
##هاجر
خي
محا
يسال
بنو
وفا
فانت
##مين
الحكومة
رض
وهكذا
الرحيم
الرس
العذاب
ارس
وكتب
##جيل
عال
فصار
حمزة
##كمل
يكره
كذب
##بايع
الاعمش
الفقه
يلزمه
جاءت
يعود
اوليك
والذين
##البا
الثوري
##ليف
نظام
##غا
الاما
لاست
فاب
تجد
الحجر
##حمر
الخاص
الصغير
بالد
حرام
خز
بطن
مضى
اقام
الاسلامية
التط
طول
معروف
الاحكام
مول
##بريل
مسا
##ثناء
فيمن
فيت
واجب
نسب
##صره
ذر
علمت
الاكثر
يمت
وربما
بمنزلة
الخمر
محت
ميت
غاية
ولاية
اشار
تقوم
السي
مصدر
الجد
##خا
جريج
##قام
##ينية
##مته
##صير
حوالي
الاشياء
ترت
بالر
##مسك
##لا،
لط
فاد
بحر
ويا
شان
##ار،
ياكل
اساس
جده
كلهم
يدي
ومات
##غب
وغيرهما
بطل
لنفسه
ملكه
حفص
احكام
وتن
حجم
السف
عملية
الزيادة
##تبة
الرغم
قصة
القياس
الرابعة
اعل
وفر
وبر
كاف
الالف
بقية
##رز
للب
طرق
مكت
##وتر
ايد
##اهما
اعلى
##اجد
##اسة
مرات
العربي
##رارة
جامعة
الاصول
الموضع
كالم
اظهر
##اخر
تعرف
##ركات
للناس
يحرم
قلبه
##وضا
##تيجة
وايضا
وقل
قرية
باي
##بوت
الحقيقة
##وبية
جبريل
##هة
وتم
المسيح
##وايد
##ريكية
ظن
##بعه
منه،
الصوم
والمر
الرب
##فهوم
الفرنس
اثبات
جوا
##هارة
الفصل
يتع
عندنا
##ولوج
فامر
##تيبة
##حاكم
##يم،
##تهن
المنطقة
سيا
##ستان
يجمع
نكاح
بنى
وجمع
مسجد
اجتمع
##يما
والست
لخ
اسد
يوجب
عليهما
المقصود
##فسد
صوت
مروان
##اربعة
لعدم
##واح
وتت
الدهر
ثالث
الحرام
##ابات
##ارف
يفت
الذه
والمعنى
المب
ماجه
##شهد
تلق
بهما
كنتم
##ينات
تقل
##طنين
تال
##ذوف
والاق
##لاع
المولف
##انى
##ظل
وروي
##لاه
##ربه
الطيب
القتل
ادع
واهل
الواو
شركة
الشهادة
##ظلم
امية
الانصار
##ختص
##ريت
ونحن
يسم
يقتل
الالباني
حام
القراءة
##ذى
نفسها
المصر
الفقهاء
##يون
التاس
برو
##خلص
يحتمل
##تما
المدين
##ثا
##ثلة
مريم
عنا
لاح
##يص
صنع
اقرب
الخاصة
##زمة
اختي
الحجة
##وسي
اهلها
بلد
##نوب
واختلف
المجموع
امري
الايام
واض
سمي
توا
الاسناد
العن
فترة
تسع
نفي
##غت
الثلث
الجاه
المسلمون
انف
القب
مومن
##يوم
السبب
اولاد
المشهور
وبا
جايز
انق
##رعة
ساق
اللام
الاجتماع
اخبار
قليلا
صاد
عش
بالان
ند
المسيب
تجب
ملا
المكان
ربنا
سف
##ورات
ايات
امور
سق
عيينة
واه
##عاية
وثمان
يوميذ
المجلس
تيم
النهي
استح
قامت
##اتها
##يال
الوف
##قران
اصبحت
قتله
الاه
الحرم
فرس
##باه
فبلغ
الراس
جم
الاخبار
البيهقي
##ناة
الشهر
كر
مسل
##خصوص
المتن
المشركين
##سه
البلد
القس
اشبه
واخر
يكتب
اسرة
جا
قليل
بمكة
يرت
الدارقطني
##ندا
المحت
الدرا
##صن
##بتدا
محمود
##كو
التاب
العلوم
الشعب
تعداد
هاش
المحرم
بها،
##زال
شاه
الادب
واكثر
الياء
حقوق
المبارك
زعم
الجمهور
##خلف
الكا
محمدا
علق
طرف
سبعة
والنسايي
عني
ثوب
##ضت
ضمان
الاقل
تكلم
##ايية
معي
لولا
القيام
حياة
شعيب
للان
طاهر
يوا
حضر
ثمن
##روض
##با،
فاج
فكل
ترد
جس
المطل
صرح
ظهور
والاح
شا
الرد
صدقة
باطل
زين
ارى
##قاب
الاساس
اخيه
المقت
مكر
ربي
##ايها
الايمة
فاص
##صلح
شمال
النع
##به،
يضمن
سنوات
لر
##بهة
واخبر
ظاه
رحمة
وعدم
انش
وسط
اليه،
##ىء
##حول
ورج
##ضرة
عاق
التى
ثعل
الاشع
جامع
الاعرابي
النووي
الاتحاد
يشاء
وجدت
قس
ادعى
النظام
##نيسة
طايفة
عتق
لاجل
باح
تذكر
الحاجة
اطلاق
##هنا
ينزل
برق
##واعد
ساعة
اى
##خاص
والار
اصحابنا
لف
وكيع
الخز
جما
تخرج
الجزء
مختلفة
##قلة
الموجود
يمين
الجهاد
وتق
عقبة
طعام
هما
اصلا
مي
قصر
بالل
##سع
##لامه
##الته
قضى
الكبرى
افراد
##تا
تمام
يطلق
يبقى
##زلت
المبا
التوبة
الاشت
##ت،
##ده،
المطلب
اخره
##زيد
نحوه
فاح
ادى
لبعض
تام
##يمون
الوار
وفتح
##صلحة
##الات
##ياسية
القايل
النصف
قبلها
##وبر
فغ
مم
والاج
##طات
ببعض
الامريكية
##رحلة
يعيش
##فعله
الذك
ناس
المصري
وقعت
##دة،
##صاص
القدي
شمس
والمت
ضعف
وكيف
محر
عامة
لعل
يروى
التيم
حركة
##رين
علمه
الناس،
علماء
تما
الراي
شرب
لدى
فهذه
وحديث
الاض
كثر
يحكم
راه
##وره
##سون
يودي
مالا
العسكر
باج
##خب
نك
##مييز
باد
تعمل
يلت
الخامس
يشهد
عاما،
غالبا
نسمة
ومس
وتوفي
الملا
##ليين
الريا
والسنة
زكر
فاني
نح
الذهبي
##جلت
##زوم
النهاية
الجملة
##براط
##سى
مهر
ربما
##فرة
فرد
اشارة
##طلح
المغيرة
##يتم
فام
السك
الته
قريب
دخول
ابل
انبانا
##ليس
##ناعة
سفر
تقديم
الاور
لمع
##برت
اوله
يسلم
كمال
##راجع
العامل
انح
اريد
##سات
فقام
يقطع
نوا
يصلح
##بن
القانون
ترا
الصاد
##شاف
ووا
##معي
##ركه
عمار
##حرير
تاس
العدو
موج
##سطة
بقدر
جواب
سنين
##ايط
واعلم
الارا
الشعبي
ومعنى
ويمكن
##وليك
##نامج
علما
##خال
الاحد
انتم
فرج
##خذه
اربعين
فانهم
يخل
سه
الجميع
فاط
يطلب
فيج
هن
الاسرة
اللغ
الجبل
عكرمة
الدليل
نوف
تقبل
تنت
غسل
عمله
حقا
امراته
فانما
السع
بنسبة
مجموع
الجاهلية
##وضة
هاشم
وقتل
سوا
الدخول
##ونية
##زين
الروح
اخذه
معها
الوقف
مرفوعا
ولده
##غيير
خلافا
السكانية
لحم
فارس
الكث
ذكرت
##خيص
يعلى
##فقة
الواق
ظلم
تعرض
قيام
وعلم
منز
الاعلام
اجاز
يسقط
##ريمة
تحقيق
الواقع
الثوب
زال
السنن
##جرد
وعمل
اصله
##داية
الامم
##روح
الحالة
ابتداء
والحديث
##بيرا
والجمع
##ابا
للغ
الرجوع
##ذاك
هلال
كره
يزل
وقوع
ومما
رسوله
الفترة
الحمل
العالمين
تقي
قاد
ويش
كلما
ويحتمل
النسب
##خرة
مقص
غريب
الفاس
الحدود
##نيف
##خصيص
اثار
##عدا
نط
فاف
باعتبار
محرم
يقدم
التوحيد
سبي
احوال
##روفة
مرد
الامريكيين
بالاس
عرفة
##احية
البناء
##قها
كاس
اسامة
##صلي
يضرب
الخروج
الميم
##وكل
##يغة
البريط
موضوع
قومه
##ادل
دينه
##هود
كامل
باط
##اعات
##روس
##بك
تحمل
التفسير
طويل
الدية
يستحق
عشرين
فز
سكن
المكت
حما
احق
اتخذ
##سلة
الانف
عطف
وعلي
يختلف
والاص
واشت
اللبن
لهذه
##بايل
اقبل
اتفاق
للخ
##صيل
خلقه
الهج
يرفع
##يسر
نها
##فاف
تبين
حديثا
القلوب
وثلاثين
##تني
اخي
الوطن
ارج
الكوفي
الخيار
وحم
##اربة
##قطة
ربيع
يامر
فاجاب
الاموال
التعليم
##وزع
اياه
تصح
القوات
##بدل
المادة
وكانوا
نصب
اسباب
##نها
بنفس
العرش
##ليب
المثال
العلاء
اصول
والاربعة
يث
نهر
##دوا
العهد
زكاة
##واري
دينا
##دادي
سلطان
العشر
صال
بالمدينة
جر
بعضه
سوء
##ذاء
والاخر
ينفع
اصح
بينة
يدفع
##متع
##تهاد
اشترى
يستطيع
جرى
يزال
رضى
العبادة
##عاء
حذف
المذكورة
قدره
مقابل
يرض
##ويلة
القديم
##طعام
بيته
##زو
اثبت
##اطب
مناف
يلق
اظ
فقل
طالق
غالب
##وحة
هج
احدها
ترجمة
فايدة
##خلوق
يعتقد
الاخير
##غار
نجد
اعادة
##زاب
المرا
متفق
القضا
جهن
##ليت
##ودية
ماذا
ني
الوسط
والض
وسكون
كفروا
والمش
الخال
سبحان
##رقي
##بغ
##راهة
الرسل
النح
الصفة
##لاص
زهير
الاربعة
ذوي
الراء
اقوال
##يبه
رش
##نو
##عدل
الاثر
الصحي
ورجل
يدعو
قلوبهم
الوجود
الاط
الخيل
##امي
استع
دولة
المرو
بالحق
حظ
المفت
الفرد
القتال
يصير
الاسماء
نار
الصواب
هلك
بدلا
الصدقة
اقرا
شكل
##فذ
الرهن
##وريا
فاخبر
يذهب
العالمية
ووجه
التم
سنن
##ني،
الحركة
القدرة
العدل
خرجت
وزاد
نوح
الوح
محد
النور
اسمع
##تهي
اللسان
طا
زكريا
الصورة
##ذج
##سته
يترك
##بيض
##واية
التركيب
قياس
##مية
##لط
##جلد
حسان
##راسات
والترمذي
عبده
القبر
الضمير
الصوت
##حاك
بشرط
المبيع
بول
##بدو
الشريعة
##لبس
اثنين
الريح
##بحث
العدد
##عتبر
احي
الامن
ناد
الطبري
خش
##نبي
متعد
الاصح
عدا
السود
النون
رافع
يخفى
##زار
بكم
فرعون
##روق
عرق
بحق
##ع،
بذ
##زه
القبض
الرازي
تعتبر
ابواب
الحديد
الصحة
بامر
المنافق
صلاح
تغير
##ر،
جال
##اعد
شدة
انكر
ركعتين
##ثنى
تمر
فاعل
المهملة
فالا
مركز
##رجمة
ناق
مليون
##ولية
##فيذ
الفي
المختلف
الوهاب
خيار
المصدر
يضر
قانون
الصبح
النخ
الخطا
سوال
البصرة
تدل
منس
حدود
حاز
هذا،
الكس
##عوا
النز
الفرس
تميم
تلف
الطويل
عدل
القاطنين
بدات
##ولت
القطع
السكن
لحق
##فاعل
بواسطة
خروج
والثالث
حكمه
تدخل
الابت
السماوات
بانها
جهنم
الشارح
الطبراني
منص
##شري
مخال
التخ
##تة
وعشرون
زوجته
الكوفة
الهمزة
والاب
الخطيب
##واة
انثى
يقصد
ومثل
ومت
اتباع
طريقة
الصفات
القيمة
##ونهم
نسخ
الفقيه
##واق
حكيم
##وي،
لات
الصحيحين
تبارك
انهما
كذ
عنك
##وه،
ومثله
فيها،
بسم
##ضيف
##وم،
##افظة
فط
الينا
##شرق
النسخ
الباقي
ونس
##ورث
##الها
##سد
العدة
##الد
##كه
الوصية
صرف
بو
وعلا
الداخل
بداية
##اند
كبر
المحل
البحث
بالث
##ريضة
الاكبر
العص
الغير
فيقال
بسن
الصبي
مار
البيض
واقام
الماضي
التل
##نسا
اضافة
فانا
الشركة
##ابلة
غدا
الفض
الكامل
##مامة
غيرهم
##هى
الصيد
##اتهم
##ادم
##ريل
فعليه
يموت
القبلة
وجهان
##وية،
القمر
برا
##ينيذ
بالز
لاهل
يشبه
غر
اخو
سيما
واصحابه
رسم
##عداد
ابنا
اختيار
ويك
تحريم
##دح
طلاق
##قطاع
فكانت
توجد
ففيه
قتيبة
ولانه
موقع
سماع
نشا
اورو
عقيل
الغالب
الكه
جعله
ناحية
خليفة
##احل
فيك
##ضاع
شاهد
الشريف
##خصص
##بها
يبق
وحدثنا
بدليل
علة
قاضي
درج
حرا
بعيد
وذكره
الاله
الرحم
العض
الفرض
وحسن
مجرد
وصار
جار
للف
##ثي
الزم
##ياط
اهد
نقله
##همة
##انها
فين
الضع
##درس
السادس
يكفي
السين
سهم
شرف
باص
وعب
وماية
يتكلم
العيد
ورق
##غط
##هاز
عليا
##مني
##طراب
##راقي
عبدا
يجري
وقالت
كام
بقول
البغدادي
مسايل
باذن
مشروع
النعمان
##صرة
فكذلك
##فاعة
بمثل
القصاص
##غال
اللج
وحدة
ادخل
##ناول
##يتي
والده
القدم
بعضا
نصيب
المملكة
يروي
##سف
حسنة
لبس
##دار
الفرج
نوى
اللق
جنوب
يضع
السايل
الغرب
الطرف
فوا
##اهدة
لغيره
اتبع
ذه
الاقتصاد
قبر
##ربت
صوم
حلب
الاطفال
وبد
جهل
المرء
وكما
معلوم
ذكرها
انشد
المناطق
فدخل
##ارى
##دها
الفاعل
الكلمة
##لفة
##علوم
الجسم
منكر
الاتي
الصور
تقري
بابن
##نوا
##جت
##روي
المنكر
يبين
القرية
وبالت
الجم
الكتابة
الهوى
واصل
القوة
شرك
##فوا
ومح
اشهد
##مرت
افريق
##ود،
كثرة
عشر،
سار
بالاج
متعلق
سيب
##تهد
والبيهقي
الذكور
الجماع
اقامة
نفسك
جارية
الوكيل
الضمان
الهيث
الكعبة
مجهول
##ناية
طاعة
##كم،
اعضاء
تبلغ
نسخة
المقام
والبا
وكم
ريح
العتق
حياته
عط
موته
الاكل
سك
صغير
الدعوة
مثلها
عصر
قيمته
كع
##زى
الحنف
اشياء
وتج
سبت
لاج
عمير
يرج
الاثار
الرش
والمس
التقل
الاخيرة
الاختلاف
فذلك
تسمى
##ياش
امكن
نساء
التاسع
##ناهم
نفع
##جح
لزم
صغيرة
العلة
استق
وهناك
واربعين
الاذن
##فلة
السير
##رحمن
والنا
الباء
##كرر
الصديق
الفريق
تاثير
##عها
##مه،
اعتبار
السموات
##باء
القصر
الشباب
##هج
قضا
##طفى
##ثيل
مارس
##ورت
نتيجة
واك
المغني
مذ
ربهم
شرق
روس
بلى
##ولات
حاله
##اض
اللحم
ويب
قاي
تحدث
الاشارة
البار
##قسم
م،
##يات،
عاش
جمال
كي
كافر
بيوت
السعود
سرا
الكمال
##كندر
صفات
ومج
##عان
وكسر
اجتماع
##صم
الغسل
مرس
خر
للام
الاسلامي
عطية
والاد
ثمانية
المحر
احدهم
ودخل
الفطر
تعلق
يوخذ
بلغت
الملوك
##ثار
كبيرا
سجد
##دلال
وصلى
عجز
##سفة
وانظر
الخوف
##ولاد
##ملوك
قيد
##ادث
ربكم
تقت
العادة
بالط
سع
كشف
استحق
##بوع
عايلة
الانعام
المهاجر
النخل
النصر
واني
##خط
اثنتين
##غض
قيا
فاطمة
الظن
للاست
الرياض
بمس
القيم
##زاز
محذوف
بينها
ادري
عذ
الثقات
وخمسين
مواضع
المدني
##فسخ
فضلا
##لزم
يمينه
ربع
الانس
##مانية
##رتيب
جديدة
تصرف
المالك
التصرف
دلالة
الشديد
النية
##وة،
وسل
الاصمعي
ابنة
المحدث
وحكم
قدي
يسب
##ماه
ثق
##وزاعي
المركز
##فرض
البط
كقول
##اقب
دونه
الوجوب
احداهما
المسا
الحيض
##ارم
##راء،
الرم
##جهة
##مهورية
سيده
##زت
كلم
##ساكر
##فون
والمح
##ح،
##راها
كفارة
رغ
##وون
تفعل
طبع
##ولوا
اردت
باخ
الخلف
انبا
خوف
احدث
مطل
طيب
الوع
نعلم
بسر
##ايج
##الهم
الطرق
ضم
شق
المي
##وكم
قدمت
دول
##بي،
##نث
##عقد
خزيمة
برد
السابقة
الاجل
الامبراط
المتقدم
فريق
واراد
الحض
عقب
##صاف
##حوا
بمصر
مجتمع
فانك
عفان
الوطني
وتقدم
تحل
خذ
##جاه
ناف
المحيط
بض
قايمة
الحص
ونقل
لاي
بالام
##ازي
زايدة
زرعة
انشاء
يسار
خطب
اجزاء
جان
حف
اداء
يمس
حذيفة
المريض
##عات
يكت
هند
الكون
يبيع
تريد
وابا
##ايخ
##صه
##اكيد
تظهر
النوم
الكذب
اسلام
##عية
##ختلاف
كانا
##انيين
ديوان
المدة
##لبية
##ناق
الستة
فرغ
للسكان
المفس
المسي
ابناء
قريبا
ولعل
##فاض
المطر
فمات
عمه
مناس
##وهر
القديمة
كه
قايما
سيرين
الوارث
رسالة
السمع
##ول،
ليلى
فعلت
الشرعية
وقبل
ميل
الشافع
يولي
تصل
والاش
قايم
السيف
ثبوت
جيش
يعبد
يراد
الخي
غض
المولى
##كتور
مام
بالمعروف
##واني
والمغ
قبول
الموضوع
وسب
شرا
##كلة
##ز،
مباشرة
شري
العلامة
الجوز
حزم
##رن
##شتري
مظ
##ورك
##بيعي
##فف
واذ
##علقة
ركعة
لزمه
مفعول
فقتل
##راث
تركه
وقدم
المساجد
##بتها
لست
بالفتح
لاص
البينة
##لي،
واربع
المعرفة
يبطل
يسير
##وجوب
لقول
##راير
خرا
مضم
وفقا
##فير
عرفت
اقوى
صحيحه
ليكون
الفراء
يستخدم
ومعه
##ضيق
النهر
روية
قض
واقت
##طاعة
بالكسر
ديس
دايما
نية
##غداد
تنبيه
الخش
السابع
##ذور
لكونه
ثان
دام
##سيم
الجوه
بذكر
بالمس
التهذيب
##نة،
ثلاثين
الاناث
والمست
والوا
##يتان
البلا
وعدد
##جن
الحضر
واغ
الجزا
الربا
خالف
فية
والشر
يتبع
عباده
والعمل
مجمع
تض
تمكن
ذكرناه
للط
شاة
##جان
نعمة
نظرا
اكتوبر
الاحوال
##ومية
##كما
وحكى
فوجد
الخوا
##حتها
الامان
الخليل
صن
التوراة
اخراج
الجوا
وتص
##اعا
##ابق
وسبعين
هذين
بالضم
##وانين
##شق
##اوز
##خلت
منزل
دراسة
يخاف
##خله
فلانا
المخت
عتبة
النبات
كمن
وخل
مسلمة
لمدة
رزق
##تها،
شم
شب
الفار
##كاف
اسما
##ذبح
كلاهما
الاخذ
##ناف
المقدس
##ويات
اخذت
##ذاهب
##جات
الزا
الجبال
##يراث
واز
##قيب
فكتب
القاهرة
الظالم
##اصي
صب
وفاة
بعدما
كش
انكم
##حكم
السا
يشير
قوما
الخليفة
المعد
الحنفية
ووضع
واضح
حبس
المسل
المقر
خصوص
المعجمة
وكتاب
فالت
ولن
ممت
##رضا
مستوى
##اصب
ابان
يفهم
الاندل
القطان
وذهب
الحدث
##فساد
القصة
احيانا
والحسن
المنع
وستين
تجعل
السورة
وتد
التراب
سياتي
السجود
يعلمون
المختار
التر
المصرية
##شم
##تهى
العليا
جعلت
##فاوت
##رايض
##لمي
عون
عظم
##نهي
قولا
الاسباب
جزءا
##ش،
##زر
مراد
الدور
وتوزع
وسيل
##عدد
##شير
سوف
بالاست
حلق
ادارة
المسايل
قايل
ثانيا
عسكر
شج
امين
ويو
سطح
مناز
##راعة
مجاز
والظاهر
قضية
بعين
مبتدا
##لاة،
##سطين
الارد
الشك
##ثق
فاي
ضرورة
ينكر
جيت
العج
المظ
##يدية
مايو
##كات
علا
##مشقي
المياه
كتابا
امتي
راجع
الاحرام
صدوق
ولدت
فاخرج
اطفال
محدث
الجانب
طويلة
##جاوز
التقدير
يعط
فتنة
اور
الهجرة
##ورخ
الحكمة
##نده
النوا
التجارة
##ماس
##كاية
الدر
تعيش
##وادث
عياش
صا
##فور
تستخدم
وتسعين
استعمال
بلال
لاع
الطاقة
اتفق
مخلوق
الاصحاب
الود
القيس
العشاء
جيد
عس
عياض
دعاء
##ظا
الحميد
هات
اواخر
الاقرار
الاسراييل
التمر
الجه
وايا
##عاة
الوطنية
حزب
##فيع
واسع
وتك
الاذان
ريا
بحديث
سلف
المنصور
الانجلي
وبهذا
قولان
يدرك
كيل
الغربية
انتاج
وعاد
##يبا
##حرك
##شه
الجار
تدع
اسناد
##يساب
##قار
الباطل
المعلومات
مخرج
##علها
##يزان
سد
سميت
##قرا
##رتها
##صاب
##ونيو
جزاء
الوصول
يلحق
الجزيرة
العلا
الاطلاق
وعز
العاق
ههنا
فصلى
الاسلام،
اخوان
الذمة
الزنا
حلال
النبى
راب
ومايتين
الاجماع
يخالف
شرعا
الوصف
احتمال
يفيد
##خم
والعشرون
##حك
الدين،
##انس
وانها
حبي
##خروج
الصبر
سبتمبر
##وقت
##بالغة
مرتين
ايضا،
الزمن
يقضي
##حان
العوا
الدمشقي
مسند
والاول
##ارضة
بينا
استغ
يمر
ببغداد
##نبيه
رفض
الزوجة
الادلة
##وهن
النضر
##ذار
##فاد
الاحمر
يكونوا
##بون
واط
##قيت
والاف
ماجة
##لوب
##منة
المخلوق
كار
وهى
خمسين
بطريق
يكفر
اليا
النقل
##ورها
الفات
وتخ
وليست
المايدة
الطي
##وسى
##فاية
ووقع
##طبي
تسا
وقام
اوروبا
وحتى
##خوذ
الفساد
سيبويه
بشير
الكلب
مقدار
الاجتماعية
وصححه
منها،
تجوز
##وجيه
يناير
اوت
جند
##ميس
الذات
تقد
الطريقة
الفقر
والحاكم
اوايل
تسمع
البن
عجل
الفرا
للر
النبوة
فساد
يهد
عذر
واليه
مقا
##سكري
يحلف
خار
##ولهم
الحديث،
##لين
الفية
غلام
المتوفى
والتع
شروط
##ضرورة
ثور
فيجب
عكس
وايل
الحنفي
الجديدة
اوس
الضحاك
المطلق
##ساير
عمارة
##حاوي
الهدى
فيا
امثال
وساير
المعاني
##عده
افعل
الليلة
للمسلم
زي
ظهرت
##لاوة
الركوع
عليها،
ودفن
النصارى
عه
ملكا
الموج
##حها
لعبد
يعطي
ارتفاع
باستخدام
امامة
الدال
غلب
##طوف
سنة،
قاتل
##طت
الرضا
العراقي
يصدق
وسبع
##يعة
يحسن
حسنا
الشاهد
##قدام
فانزل
السوق
##وعه
صفوان
لاخ
ولفظ
شهاد
مثال
مفر
قي
عندك
##رات،
عالما
واقعة
فاعت
الثان
الرسالة
##ادات
دعوى
انتقل
##وول
بقاء
##لالة
مدرسة
##ادية
بمر
وسياتي
وفاته
البال
##راته
العلاج
##تماعي
##فية
اجد
يبت
حافظ
ابريل
مخالف
##هو
مكتب
تقرير
بمت
مشهور
ديسمبر
خليل
الاوسط
والبر
شعره
عقل
خاف
هام
كانها
الولي
ايمة
جزيرة
يعنى
##جال
##اوي
بيننا
ابوه
وثمانين
تضمن
##ط،
حدوث
راك
##وسع
تبر
حز
جايزة
نفسه،
##هرة
عينه
##ضيع
اتيت
ادريس
الاجر
ويوم
صارت
الجمل
الامت
##تمام
الكلي
بثلاث
مشي
##صوص
##لمان
الناصر
الاجارة
العلمية
الكاتب
وعم
اليون
##وفق
حامد
##قتها
ذبح
##وابه
الجوهري
الصيام
وانتم
التاء
نوفمبر
الفاء
تاتي
الكاف
سوق
##ثور
العظم
القرشي
رجب
حصين
الصلح
الازواج
هيية
##وصل
المهر
القرا
قم
يعرض
يبعث
جنب
الهاء
مفهوم
مون
##يرة،
موص
##وس،
##ضايل
##راءات
اشكال
وجهين
تحديد
امرهم
##تهر
الثامن
انى
##قاق
##شرع
التحريم
##يفا
المثنى
المختلفة
النفي
والناس
العرض
المشار
باحد
لقي
المومنون
اغسط
مكانه
ضمير
ونظ
ويحيى
##ج،
##ل،
السياسية
عبدالرحمن
الصحيحة
وكنت
حازم
فاش
##وردي
حساب
عملا
##اهم
##يتهم
##لوا
بعينه
لتح
شعبان
الطهارة
الوضع
الدرد
الاستع
بالفعل
يفرق
##لو
الهواء
##لايل
##ورهم
بحكم
##ايض
##بيل
##ايص
المشي
اعرف
غن
صالحا
صحيحة
وحا
شجرة
زم
محب
##مي،
ويجب
##وسا
##افا
##خاذ
سود
الباري
الاحزاب
علقمة
##قم
##روه
وادي
المواد
لعمر
فذكره
يخت
النفقة
##قله
مرك
نم
القرب
واول
بوجه
##ماية،
##زيل
ولذا
القن
يشعر
البك
محمد،
العشرين
ذن
اهلك
التنا
##ضاه
اوصى
الصدر
الوحد
مصعب
##ريبة
واحد،
##يمه
##بث
معينة
صنف
##صبح
الاعراب
الغربي
اعطى
##ونات
والشافعي
نذر
ونحوها
مسلما
بعدم
وامت
انصرف
##حون
يونيو
وظاهر
اورد
##بيعية
##قيقي
حكى
الراه
الحقوق
جاه
اند
الدولي
الواحدة
الطلب
المنزل
نست
##بروا
الشيب
##رتب
بدين
##عاون
ركب
##ركان
وفق
اعاد
كالت
##امين
السد
عمر،
جري
النجوم
الاثنين
سببا
الافراد
##لها،
الجنوب
##ومنين
وبالتالي
اجاب
اختار
ايجاب
استطاع
ثعلبة
الروايات
الهداية
عوض
الهل
##قاضي
لامر
نايب
فلذلك
فرقة
##جارة
قطعا
الحزب
يحفظ
فضيلة
اليم
قوا
##ياطين
كلية
الابن
##تهاء
لرسول
قوات
للنبي
الدينية
مان
##حيي
##ودع
تتبع
والصلاة
جي
نخ
الزجاج
يصف
مذك
كسر
مقدم
المفعول
##تكم
مسح
قولك
والمج
سبعين
كونها
شيوخ
الصلاح
المدعي
البول
ابلغ
الحروف
الاهل
توجه
##دب
يعتق
الاراضي
الغز
يوليو
وارت
وحق
تقريبا
الارض،
##رال
كاب
الاوق
الثابت
جون
الشارع
##سر،
فتكون
الخدري
##رامج
حيان
##داة
النجم
جلس
اغت
المدرسة
البعير
ناصر
ايديهم
بتح
رده
ففعل
القرى
النق
صع
##جين
##ملت
عمن
جمادى
##لاط
متن
الدولية
الاوزاعي
الازهري
امكان
ومالك
تفرد
والمنا
ثاني
##وفيق
طر
لرجل
والحق
##راحة
الكفارة
كتبت
##قاطعة
والاصل
اليهودية
ايدي
تتم
العرف
يجتمع
الضرب
قاعدة
فرنسا
لث
ره
المجال
واربعون
وتكون
الكنيسة
##سايل
كتبه
البصر
تسعة
اعلام
فقوله
##هرا
##بارا
القضاة
##ياته
المكي
ولها
الذنوب
##موذج
دراهم
##وبات
حارث
عمره
طاع
تبعا
ورث
فكانه
##متها
السعودية
##فعي
ضرر
الزواج
ادنى
التغ
حالا
##كد
ويقولون
##ليك
##لون
لحديث
##فيل
##البة
تسليم
بمجرد
يوثر
اذهب
المقري
ومد
قرات
الصلاة،
الفروع
سلسلة
الصغيرة
عموم
لذا
##ذير
لاول
##ردد
اسود
الفكر
الاو
ويروى
يمن
النحو
اعني
غزوة
يخلق
ولكنها
الوزير
اللجنة
سقوط
الحجاز
تاج
والدار
فسخ
والقول
عمرة
حري
الذا
تجمع
اقسام
فارسل
اوجه
##وطة
الافعال
##فسر
اغسطس
##بز
اذكر
واسم
برنامج
عاب
الطاعة
مسي
##صت
وحر
وطي
قلا
سواه
وتا
العسكرية
الانتق
الاعراف
كبار
يحد
تاخذ
قدرة
بره
والذ
##فصيل
الاخلاق
معشر
##ويلا
##مرار
مقر
برج
##فصل
برقم
ملت
خلفه
حكاه
العموم
جزي
ثقات
رجاء
فنزل
اثنان
##لفه
خان
الجراح
##ضه
##ربوا
ظاهره
المعا
##شك
ارايت
الفلك
افتت
اوجب
القليل
##طبق
صفر
##افات
سبا
بخط
كري
ملوك
شوال
ينسب
بالاع
##هما،
رغم
##بارات
##يلان
بيعه
##دا،
##لول
قبيل
البح
وبقي
الاشخاص
الصفحة
الجمال
نادي
دعوة
##نيه
للز
##وكيل
مطر
خفي
##صدر
المسمى
الصلوات
غيره،
مانع
##موا
صغ
الفرع
حصول
كاتب
المستقبل
هز
متع
اليت
ويخ
حكومة
يختص
تعليق
تعود
##اليف
الدابة
الامراء
توق
لوا
منظمة
القادر
نفقة
عيد
##ضيه
##سيط
النصوص
##عته
دية
وسعيد
تثبت
بقل
ميمون
المسند
عظيمة
سنان
##يمي
##ديعة
الصباح
الفلسط
مرحلة
وخلق
نطاق
##جور
وحمل
يومنون
وزارة
البير
اخرى،
انحاء
##اوى
الواس
صحيحا
اصط
حرج
الاعضاء
يبدا
##عتها
الاستثناء
وجوده
سلمان
تختلف
الموقع
مري
الطواف
قلبي
معهم،
فقت
##خابات
يفر
##بطة
الشعراء
كرا
##هاج
ميس
الكثافة
المقا
الثياب
الحول
يحنث
يغفر
الكت
هاه
##يب،
والصحيح
المجر
البدن
ترجع
تشت
عدو
الصا
باسناد
تبا
##مون
الضل
كيفية
والتح
##سله
ورفع
احياء
##كث
لاس
الوجوه
ساك
القط
قبيلة
فسمع
المعتمد
التوا
##بابة
ايت
وتقول
وبي
اعم
ولولا
بيروت
معك
تسم
الحفاظ
##هزة
##ماغ
ظاهرة
الرييسية
##روك
تجري
يصيب
الشافعية
المعيش
##ولوجيا
فاض
المنبر
ينقص
غفر
الدفاع
تهد
##ليج
جور
بكتاب
مهدي
برك
الطفل
لنفس
القاف
##وزن
المطلوب
السياسي
##نق
##واكب
كات
الكبيرة
تث
جذ
وزن
الجلد
##يرها
المسلمين،
صريح
زوجة
حوا
تملك
كب
##فهام
خيبر
فدل
العال
الالفاظ
تاكل
حجاج
كريم
السبت
##ويم
شار
ولت
افعال
العالية
نقد
رز
اسر
##فات
الشجر
العملية
نفر
الافت
ذنب
وطلب
المحا
الدرداء
قادر
الشرقية
باله
يظن
##ويج
السبع
##عث
وجماعة
حكما
بدمشق
فبراير
البلدان
ومنا
##لاما
بالناس
عضو
مدى
فسر
يحتج
##شون
يشرب
يمكنه
##وفية
الهي
##خان
##ديب
التالي
رات
باشا
كح
خا
قن
الديم
##هورة
فيس
تغيير
##فال
زع
المدونة
السايب
متر
##فوظ
ذاته
نو
ونص
يصنع
بمح
غد
الوطء
يتخذ
مرج
ياء
تولى
الشرعي
وبلغت
بالقرب
المجاز
جمهور
الاخوة
##لاحظ
غرب
منظ
المهدي
والصواب
##بور
القوا
##حات
حيات
شاعر
وبعث
الجر
علامة
الابد
موم
الالم
السبيل
تعريف
##الج
سين
علاقة
رضا
يسجد
الابيض
##وانة
الارت
تلا
القاعدة
##صرح
عوا
الفتنة
التب
لا،
طهر
##وتي
##كير
الغنم
واحتج
##ايز
الهيثم
##ولاء
##ارات
##مارة
الجهل
الاشعري
الروس
الغر
##الوا
المسح
##شديد
فبعث
##فيد
جمل
الولاية
يود
الظلم
وتب
جوز
مناطق
السلمي
خطاب
تات
الجزاير
الجرح
الجبار
##حيان
وافق
معرف
يجلس
##ستر
يهود
بالماء
ثواب
مجرى
##حين
مجلة
وملك
##فارقة
المرك
النفوس
تحد
يقسم
فاخ
الرحمة
المرسل
شارك
سرق
الكلا
فيع
اولياء
##فقا
##اذن
التاويل
وانهم
الاسكندر
ويه
عمي
شهدت
وابراهيم
منى
##نانير
الاول،
تاخير
الصغ
فيلم
هبة
تاويل
فذهب
الروضة
##عليم
محله
الدست
بحث
والمد
رفعه
##ووا
لبي
قار
يدعى
شريح
الشيعة
وعرف
التابعين
الوحدات
الطل
مادة
رايته
حصلت
ثقة،
فاز
المدن
لكي
المتكلم
المم
يستحب
##ندق
ومعناه
##رية
ومش
صحبة
##فرقة
##ذري
##ضيح
ابيه،
الاقوال
بكون
السحر
تزال
العش
الكرم
لقب
الجارية
النها
جرت
غضب
قتال
عرو
##ث،
حوله
الناقة
النقص
##في،
حقيق
قاسم
##وزيع
الحكيم
ووق
عود
طلوع
##تابعة
وهنا
سويد
##بيين
كتابة
فوال
##حمله
الحاضر
مسج
##وقة
وزير
نبات
الوحي
اير
المحم
بجميع
مهما
وسايل
الفيلم
قاب
لعب
مقاتل
النحر
الترجمة
##اقه
##باير
يمتنع
امريكا
وحينيذ
حمله
تعالى،
للرجل
##خف
شيء،
##ماح
يعتمد
لازم
ونصف
تيمية
##زوجها
مقار
الاتصال
تضم
والاربعون
مرب
الحلف
باف
##صاء
يفعله
كثافة
القبور
فرو
الصمد
لتع
المشروع
اباه
رووس
العفو
معنا
##اكل
نظير
الضرر
المحي
##طور
يصبح
عندها
وحدثني
نظم
##ونك
الحساب
الاصابة
المانيا
وزعم
واشار
##خصة
يرث
##ظار
##ضاح
اختلفوا
فيست
بفعل
اسفل
تعبد
##مارس
الواقعة
صاحبها
علي،
ثياب
كاد
يخلو
##لاقات
##صفات
ياس
الغلام
عت
قرى
الورثة
يستعمل
ربا
المتاخر
##ثنا
والعلم
الاوا
##ومي
والحمد
الطاي
##غى
تطلق
فيد
التلف
مختل
##حاول
وحيد
بكير
امته
##رجان
الاجتماعي
والات
لديه
##خشري
فعلم
وعرض
المجد
وسن
فاقام
##قدمة
الجنسي
ياب
الطير
نسبه
##ف،
مستح
السهم
السلاح
قرر
بحال
جلال
لهن
خلافة
وضم
الدراسات
يقيم
يخبر
النه
الحصول
احداث
هدى
بقا
##تاء
##شيم
##هان
واصبح
التحقيق
##رجال
البشرية
##معة
ولهم
زوال
وقتها
##ايه
المهاجرين
صلات
شديدا
الغيب
امرنا
وهولاء
الفرنسية
الخلافة
انني
##يميا
فاشت
مقدمة
اقيم
تعيين
الفاتحة
علوم
منح
عليم
الثورة
##واك
اعتبر
الثواب
نزول
النجاسة
##باعه
لانهما
فهر
امتنع
اسحق
لون
الشمالية
##لتها
الاداء
الشب
ابعد
ثانية
صي
شانه
##اموس
يقر
وفيما
ارش
يزعم
العشرة
##رنت
واسحاق
قوي
العرقي
بابي
عينا
للذين
واصله
يقاتل
##قلال
الاحداث
##جو
##جود
وضعت
وفل
الاتفاق
وتف
##داخل
بمث
ودع
##يفاء
التعريف
الحمام
مرسل
حاليا
لها،
الفسخ
اولها
##طباء
##قوم
لابد
فليت
لير
الحرف
بنات
وجبت
التعبير
تطوير
وعمرو
يقرب
اشرف
##ديك
افريقيا
انفسكم
يبدو
الوسطى
فلسطين
مذه
ارق
تارة
الاخرين
##عير
اليكم
الوتر
##يقى
##قن
الحوا
برب
داره
جناح
فدعا
ونزل
##طنة
الطا
مور
البروت
استد
خراسان
##عداء
فنا
ناج
لفظه
وسار
اجرة
الممت
واطلق
عمليات
شجر
بور
يخص
الفرقة
هاهنا
بالليل
##عيان
اموالهم
فيجوز
##شل
الخطبة
يريدون
##سبه
الالت
ارادة
الاستق
ذم
ويعرف
النقد
الحرة
ورحمة
النحل
تصدق
المنافقين
الدكتور
عيب
##راسة
الترتيب
اليقين
##ولده
فف
##ذية
موضعه
الموجودة
اسال
الموطا
سكت
بنية
البقاء
الحيوانات
ورض
يشمل
سجلت
وصاحب
تشمل
وللم
داع
الكلبي
##دته
السوفي
معركة
الروية
صلة
##طاب
فوضع
والثانية
للانسان
##صوب
علاج
وصلت
اخرون
جميل
ادراك
##يط
##عتق
الكويت
وعثمان
وشهد
القران،
وضوء
العمرية
الجامعة
وبها
الزرع
ضبط
##خلها
ابطال
##عاب
واسمه
اربعا
الوسطي
ريب
حيوان
والرا
حرمة
##امه
عالية
يكنى
شيب
التعليق
اشتراط
حالات
منهن
واو
وبن
اهمية
رشد
##غو
فخر
العمرة
واللام
الدوري
منزلة
##ارا
البراء
والستون
باه
ناي
##هلك
فضيل
اتاه
الشجرة
لعم
احتج
تاليف
يعل
روايته
فرجع
ليب
##همية
##عدى
راشد
##شارة
##عيين
##ريان
الاستاذ
طرا
يحضر
مجل
العمال
شبهة
عذا
##شاط
قصيدة
والظ
تحقق
فاتى
المدعى
فالج
##ضار
لاحت
الفن
قطعة
تقديره
بعدهم
عمدا
الربح
المسيحية
##كبر
الروض
##براء
فوجب
##شرط
الفاظ
همام
مسك
بلدة
##حاث
الافضل
يسكن
الموق
##كز
ويدل
الوظ
الاولين
بانهم
الدعوى
الاساسية
معاني
درس
نرى
##وارث
شريك،
##رمى
فيح
نبيه
ازالة
ديار
##صرا
تسمية
وبما
العز
فنقول
شراء
تماما
عامل
والامر
يتضمن
يقف
القبول
التمييز
##نوي
تطبي
حارثة
المدا
والعل
##اعه
لبن
وردت
##جى
والفر
مقيمة
المعاد
يمشي
تبطل
لال
فقط،
وقطع
الغرض
وينبغي
الرييسي
##هدى
تخصيص
##ادا
متعددة
غاي
طبقات
التالية
لعام
التيمم
تفت
فيكم
##ماة
##غان
الظل
اجعل
ولنا
والجواب
موجودة
صيد
الحديثة
فسال
قايلا
القدس
الرفع
فعلا
التميم
##ديان
للنس
يدعون
##نيع
واحسن
غاب
الاقامة
وتست
اليهودي
##شرت
##صبحت
والوجه
##وست
الهدي
الاحياء
الرشيد
زالت
المخط
##لقى
البريطانية
فرح
الحاجب
الاسد
السكنية
التركيبة
الطالب
صحاب
تفسيره
بالاح
اتم
ابيض
لانت
الجواز
العسكري
سمعه
اعين
المبت
ارتفع
النسبة
العلل
السلطة
جلد
المجموعة
الغد
ينقل
طه
للاس
##فها
المسافر
##ذم
تنظيم
##الجة
##رب،
##اها
المكاتب
يدعي
##وكب
وكلا
##باي
الجيم
جزم
المنك
والفرق
ورجع
قبي
##اه،
سور
ترتيب
واشهد
فخذ
##قتال
سام
المشرق
##الله
السكر
والشيخ
الشكل
البحرية
الزمخشري
استط
المهل
##يدة،
المحب
بقيت
اثم
ابليس
مصطلح
الخارجية
يعقل
العنب
ودعا
ومست
##يسي
شهرا
##ورى
##خدمة
التوفيق
اعطي
وعندما
اعتقد
الشا
##غيب
مخالفة
القسمة
ودفع
##جاة
لعن
فعند
المسيحي
سلك
نعم،
الجزاء
فيل
عف
البغوي
المدينة،
##ويض
ينفق
الهذ
فحدث
الماية
الوك
تخل
والنهي
فلن
الفقراء
فينب
لجميع
الكاث
##ضيا
الخلايا
دابة
اجراء
##ساس
المعروفة
قواعد
فمر
درجات
فاق
##نار
خطر
فاقبل
المدارس
مخط
ورك
##اسب
المرتهن
##وعية
الاحيان
صيام
استعمل
غنم
اكرم
احر
##طها
خدي
البداية
لماذا
مختصر
موقف
##افه
الموذن
##دال
بالصلاة
اخرين
اخر،
عظيما
وبذلك
القصص
كلامهم
##ندية
اننا
##صرت
##رجم
تمن
نبينا
##نيت
الشروط
فوج
منق
جوف
بخمس
ينتفع
وقدر
منصب
##اءة
ولين
المعيشية
يجزي
المتعلقة
جبال
ترجمته
##ثمانية
زيدا
اعوذ
تركت
الشرقي
تاسيس
العثم
فانظر
يعملون
نقطة
##ولو
##يارات
للامام
والدين
تعليم
##قدار
اخبره
الحنا
والتق
سابقا
الحالات
##عال
انطلق
صناعة
ينافي
##نيته
الوادي
تشير
فلك
المري
##احبه
كاملة
والاخرة
وقلت
الاجتهاد
لاحقا
القصد
الراوي
ايق
الميزان
##بتم
بدء
الاعراض
زينب
مساحة
للمسلمين
امنا
الاصليين
زرع
الهبة
الكافرين
وبعضهم
يكاد
##قود
فينا
المكر
لاحق
يرون
نن
الصالحين
ماخوذ
مولف
عددا
المعتزلة
مبني
##يابة
اتي
##نتي
ليد
العاب
انتهت
فلق
ورف
الشخصية
بالوا
اجز
الرافعي
الوث
لوجود
##برد
مالي
هدي
الحاء
##عفر
##يدان
طريقه
دريد
مبلغ
فضله
##ام،
الخالق
المرج
قبره
تمنع
قراء
##ظهار
##عدت
البخ
اخرها
وقاص
لكنها
##يناه
الجزية
ستين
وحصل
باك
السلام،
وبل
الالكت
مصد
الازدي
##غبة
##ريقا
اقرار
القايم
الاوروبي
للاسر،
عليهم،
والحر
ركن
الموكل
والستون،
واتق
لرب
القاتل
البعث
صم
لى
سمرة
المالية
بدعة
مشترك
العوام
الحلق
##قراط
لند
الرعاية
ستر
بيني
ناب
فتن
##زما
##الة،
قديم
الانواع
لصاحب
سيدنا
##واص
الثقفي
اليدين
المزني
سماه
الحرارة
السحاب
خدمة
مخلد
الاصبه
وسم
ليث
بتق
تاخر
جب
##حش
سابق
التقريب
اعلن
وجميع
##صفه
العظ
نقض
واليوم
للمراة
حاكم
اجمعين
يتصور
بشي
لقاء
القراء
الخميس
تامل
##ادة،
مخصوص
##لتين
يدا
هود
##زله
هجر
ظاهرا
##عبد
بعمل
مبين
قلة
المول
الجهة
##يله
مجد
##جس
وتر
اصيب
واسعة
مهمة
فو
وها
سمى
عساكر
باذ
معبد
بكرة
وزوج
نجم
##زون
##غرا
معصية
السفينة
الصناع
العلم،
دما
انعم
الذنب
الشراء
ترب
##درك
##ولاية
عار
وخمسماية
المامون
##زايد
ماتت
##وايف
##ادثة
اعداد
##رايب
##ضد
تالفت
الطبقة
لبنان
##رييس
غلط
##انيث
بالقران
الاسراء
ابني
تضع
##ذون
فبين
دعم
تبقى
التسليم
##سي،
##وقا
معيلات
بعل
اتحاد
تقرر
شباب
##ورة،
المحلية
كيس
##فاه
صلوات
منتصف
##فيق
فول
والحكم
ساد
القبايل
المعلم
##خفض
الراهن
يحر
ذكرا
بالبيت
يتنا
فوالله
##يفية
##رفا
##ازة
مقب
الصرف
##بر،
بمتوسط
بالمن
وسواء
ويز
مصلحة
فينبغي
تتعلق
##يرات
امامه
ويتم
الانترنت
##علان
الارش
ساي
حمد
يقبض
نعت
فكرة
ممل
الفرايض
ذرا
خوفا
سافر
##يوب
رحل
اخاه
##امى
اقدم
تعا
تعلمون
العت
نظرية
الغضب
الوفاء
كد
تحصل
##ليط
يخطب
كافة
##عاما
جرح
الحلال
شرحه
##كمال
##حلل
##باحة
الطبيعية
شييا،
الوزراء
الصين
##ودها
القضية
قدمه
##صيب
واخبرنا
الميلاد
##اهدين
لاه
اللون
اصلاح
اسمها
##رعى
##وفير
المرحلة
انفق
يلبس
سقطت
مدين
خصوصا
المشترك
نبت
والتص
لفت
قطر
البزار
##لحة
معروفة
##راده
خام
معج
خلافه
خف
##اقا
##اخ
كسب
##ثلث
##شات
التيمي
للصلاة
بلغني
كرم
التقي
فالله
##نبية
قبضه
##تابع
النت
اجت
القاري
الاجزاء
جماع
العايلة
والنصارى
الغاية
المديني
##عديل
حصن
النخعي
الغايب
البيوت
وجل،
الامبراطورية
نمير
##ميص
كراهة
قات
طلقها
##ختيار
##عا،
الممكن
للث
المطب
الجاهل
##زير
الاعظم
وخاصة
عنوان
ويزيد
##طانيا
الداخلية
ضلال
##هولة
##مله
انشا
##ياسة
بعن
الزرك
يشتري
فضرب
سننه
درهما
الاير
ونع
احمر
##طاة
##جيب
وابت
يدري
قايد
ينتظر
عقوبة
المفرد
العبارة
واقع
##ناصر
##زوجة
##راهم
مصر،
احل
النعمة
موك
##خاب
الاثير
جام
الشريك
##فك
##وفر
الدلالة
فاذن
اغلب
تي
سكانها
لجنة
اجماع
الموصل
##اقات
بارض
مقابلة
يكذب
تابع
وثلاثماية
يغلب
هشيم
بالات
رمى
ناز
ودين
يتق
القعدة
تنفيذ
عرب
وته
فيقولون
##ماليك
الزناد
الركعة
الحرير
ولى
##بيث
لاصحاب
وحفظ
الشاة
الاكت
المورخ
الوقوف
قتلت
تشهد
تسقط
الطبيعي
وضرب
المنهج
بمال
حيض
الكريمة
يلب
الواسطي
لبني
الاسدي
##ريش
فسلم
تفر
##سلطان
##كح
القاموس
##ليظ
بالتح
##جية
##طاه
مكروه
بترك
انكار
السوء
##مرا
رجاله
##حتاج
##خفيف
ماك
الارج
الاجرة
رسولا
ذهبت
نفوس
يوكل
##سند
توك
ويوجد
الاستدلال
والحا
قليلة
القولين
##وجل
الولاء
تصحيح
قرن
الاقتصادية
مين
##نانة
فنزلت
الماموم
مقتضى
العود
حرة
هاجر
مسنده
خيث
وولد
الصفا
الوجهين
##عق
سهيل
والعد
وتارة
وزيد
مشرك
##حوص
حاشية
السري
فانطلق
##غون
مسب
لسانه
##دف
وصفه
الملكية
اقسم
جسم
تعين
حروف
##نيين
شوا
وشرح
ابرز
النيل
افلا
يتمكن
الاحسان
اصغر
يهدي
المرف
##حيض
بانت
الشياطين
بيتا
ولله
ومتى
حدثه
الجع
سح
##مالي
موال
منفعة
اخطا
##عتم
بصورة
##ليغ
اعطاه
##فيض
بيانات
حفظه
##ويين
نام
اضط
بالحج
يشرك
الكلمات
##لفت
وظهر
الغاصب
واحدة،
الخوارج
العصب
اليمنى
الصبا
ثمر
##فهم
الغني
بتلك
المنام
الشهود
##شع
اخذها
ترض
النظ
يليق
البه
سري
يفسد
استخ
المصحف
وامه
الخمسة
طواف
قرار
بسط
البطن
والدليل
حكاية
والايمان
بذلك،
تول
والعشرين
##دعاء
السادسة
اعداء
للمع
ماي
توس
شقيق
تمثل
ويذكر
وحج
توضا
فاراد
الحرية
المروزي
اناس
بخير
القى
يكثر
يرف
عباس،
صبر
بالمر
ثعلب
##بيها
عديدة
##قتضى
##قان
المعلوم
الرواة
اسس
فالقول
طاي
خبره
مبت
الطبيعة
شديدة
##قلت
لدين
لار
سيدي
المحد
تحفة
##مر،
الحوادث
الجنوبية
التشهد
اكمل
##شفى
العيش
بزيادة
وثبت
شكر
التجارية
بغيره
عوانة
منهم،
باسناده
##اهن
صلي
نصه
ويعت
##مشق،
وابى
السابعة
كلب
وكثير
الهر
مباح
الترا
وفت
الكهر
متق
الباطن
ورايت
##غني
مالك،
اضاف
وعبارة
اكره
الخلفاء
الفرنسي
المصاب
##ولين
القوى
امس
وكانه
جوان
بيس
صر
تزيد
##باق
الغن
تحتوي
واجبة
بوجود
رباح
الامراض
##وصية
##وكة
وابنه
##قق
يشكل
دنيا
معدل
##دتهم
تحول
##سانه
حفر
##بله
ركعت
داء
مصنف
عارض
غرض
##واتر
##صوم
##واهر
بالشام
وسمعت
##وسة
قرط
يعذب
بعيدا
حرك
الدفع
##يلاء
السور
منزله
الكهف
معرو
مرح
الخدمة
##ران
##صادي
تحتاج
اسرع
الارث
يرب
مقاطعة
##كاته
استعم
ودا
تشبه
##انف
##يمم
الضوء
توقف
##طوا
المحكمة
عملت
##صرون
الموحدة
الهادي
##فلان
##فعه
الشيوخ
اتقوا
الاختيار
الاولى،
سمعته
وفد
المضاف
##رادة
غيرهما
تسل
رجلين
واجاز
##وتها
شاذ
حدثت
صحت
الاوقات
والنهار
عزل
بالذكر
صام
كلمات
هنالك
الحقيقي
لديهم
صدي
##دو
الاربع
اخلاق
قدمنا
الطلاب
امرت
والطبراني
دينهم
الجناية
القي
قديما
اخوه
وفعل
دليلا
سلامة
محافظة
زر
اوج
الربع
والما
##فقته
المعين
بلوغ
المالكية
دفن
مقل
##راكز
فقرا
باث
##ليله
شاب
يتبين
استمر
اليسرى
##بيد
التميمي
##قوط
الاعتبار
والفق
وتط
الوال
##اسن
معجم
الرياح
للمت
الاصلي
##ناط
الهيية
تقتل
الجمعية
##يدها
المحسن
قيمتها
انفا
بالاق
باش
الهاش
الدماغ
##شكل
وكلام
قبايل
وقته
الصدق
لاق
بشار
فاسد
##كنت
العالمي
الظاهرة
كفار
الامين
بيض
اياها
البين
ضل
اظهار
دوا
الكاثوليك
والمراة
البحرين
المنفعة
امل
##ياح
صبي
واستدل
فمنهم
شرطا
محاولة
كرة
##قدرة
وصية
صحته
فاكثر
##زول
قلعة
الاحتجاج
واختلفوا
الصحاح
بياض
سلاح
طوال
##ادي
ضي
بالدين
##ساء
##لاقا
وياتي
هرم
سكر
مختلطين
معرض
وعق
والنف
خطي
الدنيا،
يتناول
والو
احرم
##ايشة
##رامة
وكر
العلاقات
فاك
والال
يتوقف
يمثل
العيب
امي
نبه
يعرفون
صري
الرزق
استدل
##تسل
يبر
##غاء
اللات
##اصد
الدوا
##ارة،
وفض
##واجه
هب
الامرين
##وتا
الاسي
##قته
##خلي
اعراض
لهم،
##ربين
صيغة
##ناب
سان
الشري
نجاح
##نيات
الاصط
ظفر
نصيبه
اذنه
يغير
صليت
يصوم
ذمة
فالح
##افل
##فيت
يسر
وتشديد
وممن
ظهره
يراه
تصنيف
ووف
البريطاني
يجيء
الماوردي
ممكن
##قايد
الشرطة
الابتداء
المشركون
لاد
تتضمن
الركن
باقي
##ابط
##ابها
انقطع
وخص
##غيل
##ابقة
##يتك
القرطبي
محمول
اعتقاد
بماء
وطل
الاستغ
بمثله
استقر
الكندي
الانتاج
طعاما
عرقين
مطب
##حص
##كرون
بصفة
##ليما
اطراف
لانا
بارك
الدرجة
يصلون
بعنوان
##انهم
##يقظ
الاندلس
الاصبهاني
بكذا
مية
عيني
دلت
منعه
ازواج
الدراهم
البقر
راوا
بايع
وثلث
البيانات
نض
سواد
##روية
نسي
ووج
شخصية
رضوان
##حة،
التفصيل
اقصى
تستطيع
ومعلوم
بطولة
الوكالة
المتوسط
ارم
يوافق
الباحث
##قيقا
##ثلا
يقوله
ثيا
التلخيص
الفارسي
يوذن
الحضرمي
مفس
بلغه
##ريته
الادمي
تعذر
##اور
شبكة
بالاب
فضة
##حته
##رفت
المنظ
##تج
رجوع
العبادات
صوته
بدي
الجزي
حملة
عوضا
السنة،
##يلون
لمس
اللح
##طعن
##طبة
تهذيب
شغل
##وتهم
##جابة
بينكم
الاعرج
##خه
اكله
صدره
وانزل
ويجعل
الصال
يضم
ومنع
وصد
باتفاق
موض
للعمل
طويلا
بنحو
الشفعة
ايران
العثمانية
##فسهم
الشوا
##ياع
متروك
##حيوان
الصهي
بالكتاب
الفقير
ارادوا
لهيعة
عنقه
##ويس
وسي
موسسة
الجوزي
##كف
يتحقق
##همه
فرب
اعمالهم
لذ
امسك
##اصيل
التسمية
وبع
تجاه
##عاد
لانك
العار
ضعفه
واجبا
نهي
##غيث
لتن
هاني
اكس
اماما
للمست
فكر
النسي
جنة
وبينه
السجن
عربي
عرش
قناة
##جمع
واستمر
العقول
الساق
ويشت
فطر
دايرة
##يقات
المسك
##شابه
وافت
ومل
##طم
عنكم
الجنسية
ميم
ببل
البلدة
فتى
##ياز
العلمي
مند
ينقض
كانما
البدل
اتينا
ويعلم
فراى
##مول
الحدي
السياسة
##عرض
المعاصي
وغيره،
الدراسة
الفلا
تركها
##هداء
تودي
##زد
مواقع
##واي
فقه
##شيا
تعني
بطلت
الياب
يتعين
تحتها
##يرية
يحج
النظم
ذكروا
براس
وكت
والكلام
وبيان
البدع
فسار
موجب
وانك
تسال
صحيفة
الشتاء
العاصمة
البالغ
معناها
شد
##حيته
الصادق
كور
اوقات
شهادته
سفي
##نصر
##يمن
##خاء
يفتح
##اثر
اصابه
المحيطة
##وب،
التشبيه
مسمى
يسمح
والمص
##مامه
بسب
ثوبا
فرط
يظ
للمس
كالح
الواقدي
اخاف
الايجاب
طع
العطار
ادب
يقولوا
اتت
بالمال
ينفذ
##فاضل
امرات
الطبيب
المقدم
##قضي
بيضاء
الهلال
ميلا
##واضع
الحفظ
بقيادة
الميراث
وبنو
الصداق
##جاد
##حدة،
سوريا
##يتا
سيكون
التكبير
##ضحية
اعطا
راح
الكلية
يصرف
للمدينة
##وازن
بالاجماع
وامره
##وى،
صديق
الفرات
بعدي
هى
يعلمه
البلاء
غيا
خزا
##ضرا
##اعية
اجله
بظ
باللغة
احمد،
##برية
غم
النصب
العقوبة
لزوم
افر
حدثنى
تسب
يبعد
بطريقة
##ايزة
اسيد
يطلع
الجلال
الالمانية
##راقبة
بشان
والكتاب
##ووس
##كي،
تجاوز
##ذكره
عضوا
##لاها
##ادت
عفا
محبة
اسقاط
الموص
غري
تناول
الظالمين
الانتفاع
##طاقة
لعله
مضاف
يتعرض
السلوك
الاعتقاد
مرسلا
حينما
العالي
تراب
ميز
##زيون
شمر
##جوم
حضور
الاعيان
تفرق
النش
ميتا
##انات
يجبر
بالكل
##الين
يرويه
وستماية
فاعلم
قرة
مضر
ووجد
ولدها
صدقت
مقصود
عنها،
يعين
مقامه
القواعد
وارسل
الاثم
اتخاذ
المحلي
روم
الولادة
##يف،
استخدم
اجرا
ولعله
##داني
تقطع
الجو
الشيباني
نقي
طيبة
وبم
مشرو
مدح
ويعتبر
##دلالة
راينا
ضوء
##طيل
##اهره
المومنين،
تقدر
##قرير
الاصلاح
السبعة
جورج
المحبة
الخطابي
الكباير
##ارعة
##ليق
الميتة
برجل
الجوية
جرا
احتاج
متاع
والرجل
وبدا
الانق
لمر
##وف،
دارا
##يدر
الاولاد
تحرير
يغسل
وسنة
اسقط
الخضر
البلق
هاج
##حسن
##بوا
النداء
اكثرهم
##خفاض
فقتله
رقبة
ويرجع
كافرا
المصادر
مها
القاد
قيادة
عاز
الناحية
مالكا
نيوي
##يثاق
ولكل
الشرف
منهج
النيساب
القاه
شداد
مصطفى
يعيد
فقدم
والكس
مزيد
الراجح
مقارنة
جعلنا
عليهن
##حقاق
اعرض
السماع
##يهم،
##ديت
الجسد
للاب
علمنا
تقدي
الفوا
جعلها
ويغ
##تيق
بصر
تمييز
بسند
اضع
اجازة
وحين
البيضاء
المفا
يتوضا
##ركوا
الاصغر
بموجب
فوايد
##لندا
مقط
كالا
ابيات
يتزوج
تحر
##وعي
##بسه
اهت
##فاة
المعركة
وجزم
الزيت
عيش
الجنازة
نجيح
الضحى
يتحدث
##ضرر
فروع
بيانه
بالحديث
الوداع
ولدا
معه،
نظرت
العوض
##لح
تسبب
بحلول
ازد
ومص
الياس
##رايع
##وراء
المرضى
المستاجر
والنساء
وزيادة
الايط
ليف
##غام
الشيخين
ينصرف
فمع
العمد
##شاة
الكواكب
ثمانين
##ادلة
هدية
تحرم
والمسلم
##غ،
خلع
الموتى
خيثمة
الحادي
##جير
الفم
اشترط
العقاب
##ثرت
واتبع
شخصا
جزا
توبة
##فخ
رحيم
معان
مصالح
يعطى
السواد
فجمع
##يوش
لتكون
ثابتة
##بادر
وانكر
ووصل
##اين
بذل
الجليل
اغفر
والجماعة
غيب
قدرته
مردويه
يحم
خطبة
الاردن
الاخر،
اليمان
##عرف
مسلم،
طلقت
##نزير
السفن
تمس
اسبان
##قصى
مود
عزيز
##بانية
انقطاع
عر
##عو
##حوث
##قراطية
##اورة
##وعات
الفتى
العقيدة
المكلف
##طول
تراه
عاج
الديار
المرة
فقلنا
ضيق
شغ
الطحاوي
بريطانيا
##قتله
واختار
مشايخ
التنبيه
يركب
العظام
الجح
بهن
المعصية
ايل
##وكا
##ضحك
ومث
ياذن
##خن
##نتان
وخلف
احم
نتايج
حفصة
دقيقة
وامن
اختاره
بالعلم
##ساط
تنس
طف
حملت
سرعة
##خ،
##طلان
وارث
القلعة
##بيس
اكون
تاوي
نخل
جاءه
تعلي
الوحيد
الترج
شيطان
الشركات
الدجال
ينتهي
##انيد
وخير
خات
##راوح
الاشرف
##بتهم
##يقن
بيم
الجما
النيسابوري
الوالد
عامي
النم
##اسد
البدر
##كنى
والدي
زيارة
##الفة
##اوية
البتة
احفظ
صاع
بايات
المجمع
تفصيل
ناقة
ذراع
طاف
لقوم
الرمل
##وت،
للشيخ
ادلة
وعنده
##طاليا
السلامة
اولاده
##صان
##يرك
##اد،
عقله
اللط
##غن
غزا
مياه
##غيره
طاير
قذف
الاسنان
##بهما
حكمة
انج
وتلك
راف
الزركشي
النذر
البرق
الاحوص
##يمة،
تذهب
مغني
السام
المناسب
##فتين
اسيا
ابنته
يصلى
العجز
مولاه
بدع
تغلب
##يناف
##فروا
تاريخه
مسدد
وصول
##كنا
جهاز
محرما
وصدق
فنظر
الثقة
فحينيذ
النبوية
قدامة
بطلان
كنيسة
المظفر
رحمهم
كناية
##راتيج
يعم
خس
يكبر
##طيط
تزوجها
##غه
التحرير
باعه
خشية
تلقى
وامراة
هول
عمرها
اضطراب
عبدة
المامور
جمعة
دورا
تبت
وسع
يطوف
التابعة
الطبية
المصلي
حماية
وسبعماية
قابل
نفسا
رع
والقص
ساله
الاذى
رهن
##فاضة
البعيد
الموقف
اللخ
##راهية
الازهر
البعد
##والهم
صغيرا
والتقدير
##ثيرا
تشكل
يلتفت
##والد
كالص
##رامه
لمح
الفيل
##ستاني
القلم
للمنا
سند
لكثرة
##رحل
ويخرج
السيرة
##ايح
احا
الجهاز
بذا
نارا
المصطلح
وسيلة
الغنى
التعليل
شيبان
الخراج
مبار
كقولك
الفضاء
تحته
الانجليزية
مفتوحة
مضي
جوهر
الرقيق
الاشعث
توب
يوصف
ليا
احتيا
المتوكل
##نايم
الملت
تور
مسافة
وولي
جمعية
شهيد
الصامت
الاستح
تومن
بسرعة
##ساك
بكثير
جدي
واسماعيل
##يوطي
واربعماية
السنوات
الاصنام
خدم
##طيب
وجملة
فوقع
##شب
اذى
فهد
بلده
ويدخل
الموصلي
مدل
النار،
الخزرج
##صري
##قاتل
اليها،
واقبل
وفرق
عمان
عدتها
الاصلية
##صدقة
مشار
استحباب
باريس
ابد
ذمته
قبلك
الزوال
يومين
##اناث
وهن
##ريدة
بسي
يام
اصدق
كرب
##انك
##ضوا
والمق
اشر
ارضا
ثوبه
المانع
الظرف
اماكن
السراج
##صروا
حرمت
ويسمى
استوى
روسيا
المسرح
##رىء
##ديمية
الغاز
السدي
##ويق
بابا
اناء
الحربي
الاولياء
لاخر
ثمنه
ظالم
##فرا
فابى
انط
معن
واظهر
السند
العظيمة
##ينا،
اثاره
اقراره
اياس
الصنا
الصراط
عزم
المصلحة
##عدام
ذكور
البرية
الغزالي
مملكة
موجودا
الضعيف
يتح
ادت
##فتها
ورقة
يتقدم
ويكره
سجود
جهد
توحيد
ناص
المقال
المفضل
الضرورة
اعطاء
الكراهة
##اديث
الانسانية
ويص
سياق
##وارد
لبيك
قح
البرت
بضع
مصادر
نبيا
##شة،
والقمر
الاحتمال
عبدي
الطايف
امها
بالامر
##باطل
والجد
التث
لعلي
الصحف
يسعى
وجها
مباراة
مقال
الكافي
مسرح
الثقافة
نون
وبعدها
سجل
استثناء
حث
الرضاع
اكتشاف
ينتقل
خلقت
وجعله
التاريخية
بريدة
والثلاث
كثيرة،
المنس
وكره
بالقول
الانهار
العيون
يضل
اصد
مغل
اخا
ميسرة
رمي
يذ
##ختم
الجاني
تعارض
المهلب
جرم
بثمن
بابه
##ذبين
المفهوم
وراى
المخرج
##شين
اختصاص
سعيد،
بدرا
الاربعين
الاسيوية
ارجع
تاك
##واته
استن
##طيه
فاين
بردة
كول
الحايط
ياخذه
المستحق
بفضل
احد،
قتلوا
الواردة
المسب
موقوفا
قضي
علية
باكثر
##وند
حية
بالو
##ضاف
مكس
سفينة
##ميزة
حاجته
##اكين
الهدف
وعين
تدري
النزاع
ونه
يلعب
استه
دقيق
تطور
النحاس
خمسماية
الحالي
##تابعين
##ولوجية
الضعفاء
ظرف
كالع
بصيغة
براءة
بالايمان
##عتهم
مفع
الابواب
المخزوم
##مره
وقتادة
المطلقة
والقران
المزيد
كذلك،
خلت
ايمانهم
##ريا
##ليها
والشع
مملوك
الجنة،
المواضع
اطار
دفعه
فيب
##شاير
عسى
وتغ
التابع
##دعي
فريضة
المشاركة
الزي
المتقدمة
##غيرات
شرعي
رام
النط
برم
العاشر
##سال
اثنا
الافارقة
خالق
لندن
جيم
الحمار
تقتضي
افطر
##كنة
دعوا
##رسة
وقفت
خرجوا
فتحت
فضايل
كمثل
وليلة
المستوى
##غوا
فتقول
وصحبه
الشرب
العقود
مومنا
##ايير
العرق
يولد
##لل
##ايته
توفى
بعلم
الموافق
الاوروبية
الشفاعة
لقيت
فوقه
اولي
##ص،
تبد
معطوف
رابع
سرية
مدا
فالق
فلهذا
العمليات
يعرفه
الطبعة
##روري
الطيال
والبد
صدور
التقوى
الة
الاستخ
ذوات
وشي
الشان
الاشكال
##ندوق
امرها
يعبر
وكثرة
فاغ
منقطع
ادخال
اليهما
سبيلا
الجمهورية
دبر
تصبح
الوزن
اكتب
##يض
تقدمت
اشتد
مراده
الاناء
العثماني
##عظ
عينيه
الاجسام
رجعت
المثال،
##فش
الدالة
##اريع
والامام
الصيف
معروفا
فترك
ولع
##بهان
##ماله
الذبح
لمحمد
يرسل
العصور
##زيه
يهت
حنين
السكيت
سلوك
مطرف
حامل
##الع
الملك،
الحش
منفر
##لاس
ودي
##صون
لصالح
العلاقة
التام
معلومات
قولي
يرضى
الاذر
الشكر
السيطرة
تصميم
كلف
التت
تنظر
القم
فهما
القرار
فرفع
الحية
الاشج
اراه
ومال
اقتصاد
السياق
اوضح
اعرابي
يمينا
والفت
الساح
يخشى
##يروس
انتقال
دخوله
قوية
بكلام
شذ
جدا،
اكد
الاضافة
نعرف
وياخذ
ميراث
##ظيف
مضت
واخرون
تعتمد
رياض
##احف
الحنابلة
##طنطين
بركة
##باك
كج
الاخلاص
السيوطي
وتل
مسروق
قطعت
السوري
وخال
الرويا
اعجب
##خار
وجده
الفص
خت
وحيث
حاضر
فدع
الله؟
موسم
##ياف
ادا
قبلهم
ذنوب
رسل
بحد
يرحم
حنث
القوانين
##اجي
##ايك
##شط
ووص
الاشراف
بدار
الفتوى
##رباء
سيية
يتغير
##شره
تتخذ
##صر،
المضم
السعي
باختلاف
يباع
##دن
الرمي
حلقة
اصلها
برهان
سحر
يعارض
##وع،
الغذا
##لازمة
الانكار
تنزل
مدار
حش
طاقة
تصوير
##يدات
بعير
صادق
المباح
للمشتري
الكرام
اللم
الثناء
ده
الجند
فاصبح
ويظهر
صلوا
الحجاب
الطيبي
باذنه
منصوب
الصالحات
الفاسد
##واس
معط
مدن
للبايع
المتع
باز
النض
الخليج
الزهد
دونها
دير
الناظر
امرو
جالسا
توجيه
تحري
حادث
العطف
##هوة
والمقصود
خمر
محال
الفتن
وترت
الخلع
المتاخرين
تصنع
##خصصة
المنظمة
لله،
##نعة
##ضحى
جف
بالنظر
المقدمة
والعرب
الموفق
الحوض
##ومين
بمدينة
عات
مسيرة
خاتم
##بى
حرارة
##رهن
المصالح
##اصم
نصفه
الكسايي
المذاهب
والانثى
اركان
المبار
##روا
شهود
الشعبية
النسخة
انقضاء
اعطيت
محتاج
بقتل
يختار
النقطة
وعطاء
##يعاب
خلقا
بيمينه
المشايخ
المستقيم
للنساء
##بو
كين
##سنة
الصحية
##قيما
العدالة
الموسم
مجر
قياسا
توثر
الانتخابات
منف
فامت
##رحام
وسليمان
مبارك
العذ
والاقت
فاقت
##ظلة
البرنامج
صداق
المالكي
الاشتراك
انع
##ك؟
##ماري
حاول
الشبهة
مرضه
وحدها
المها
المال،
##راجعة
الوقت،
خارجة
المنذري
افع
مجلد
اخذا
اتصال
واللفظ
عهده
الاعداء
والفضة
بالض
يجعله
مساجد
فوجه
التبر
بباب
ذيب
سريع
اللغات
##ءوس
ورم
مستق
العبيد
##لقب
انجلت
حديد
باهل
الامر،
التكليف
تطلب
##ضمير
جمهورية
##ذهبت
كالج
جنات
قاص
البلوغ
فالص
فاحت
للتع
اسلمت
ساكنة
لباس
##لهما
تعظيم
مبدا
وشبه
##وضوء
يومر
الامانة
##حنون
بالسيف
تصد
بالقاهرة
غي
##ليث
##خمة
يسن
بالعمل
وانس
نشرت
الانفال
كساير
الكبار
رايه
العالم،
فالذي
البزاز
##اطر
##تباره
الضغط
داب
مقدر
التقدم
باطن
وسجل
واضحة
اجما
يغني
ينه
سنا
اراضي
فسب
الفاضل
اعلنت
##فقوا
يوج
جالس
الطول
##حلة
طلبه
الاقليم
جبر
زيد،
ظنه
تحرك
لتش
##هنية
طرح
الفضة
##بلس
الحادث
والتك
التاثير
مكي
##اثة
اتفاقا
مقبول
وقولهم
يحتوي
##خين
شاع
فتع
النجار
الحلبي
الماج
امراء
رجلان
فاشبه
ذكر،
الثمرة
مثقال
##خلا
انسانا
كسرى
ونظر
جمعت
السعادة
مناق
##ظرة
المشهورة
##ظي
ارباب
##راره
نيويورك
الماء،
##عبين
كاذ
الاكا
الخف
يجر
العط
الحسنة
الصوفية
الاخرى،
تلت
لشيء
مستقيم
الكفاية
##طرب
انتشار
مهملة
واختاره
واين
ومجاهد
اورده
منسوخ
العس
##فضل
زواج
واصبحت
ترفع
اخوة
طاوس
لوق
قلابة
اصابع
وضعه
الاطباء
##فرت
يسيرا
واجاب
رجليه
ضربت
##املات
##ذكير
طبقة
والكل
التوضيح
ولفظه
وقص
ربح
كلاما
يجزيه
الموال
تحم
والحم
##دمير
انفرد
الحبس
##بعاد
هاتين
قبلكم
##زء
عمرو،
##غية
للمومنين
##ذره
العرب،
كالس
كلاب
الادارة
الهمداني
كاملا
نهار
الارواح
طي
اثره
##كومة
بالياء
الكشف
والبحر
##حيل
اصبع
عمد
اللخمي
ابراهيم،
لظ
##لكه
##واريخ
والمسا
اكان
اطول
الخاء
##زان
##قيقه
قصيرة
اسبانيا
مشى
النحوي
صحيح،
جزر
نال
السودان
الفلسطيني
الاباء
الكيميا
الكلاب
تونس
كفا
تقسيم
الثمان
نسال
البرد
صبا
مدر
صخر
##رقا
بالذي
فرايت
التشريع
سماء
معلومة
المتحدة،
فعال
النصاب
المثليين
شبيب
انتهاء
اوفى
الاسماعيل
الجماعات
##زوق
##لاته
تجارة
ضربه
دينارا
اسبوع
يتج
يذكره
قاس
القريب
تلم
الزوايد
خروجه
ولست
السح
اعراب
واذكر
تصف
سيار
وللا
الواقف
الاقتصادي
##وحا
##ذبه
وموسى
السبكي
والخل
التجار
امان
عجلان
العقبة
الديوان
منازل
الهاشمي
يوت
##قدة
موافقة
جاوز
التقى
القايمة
فكما
استاذ
##مرق
شيخه
##ارير
فحمل
##يلة،
الاطراف
بحمد
سماك
##اصله
الدواب
الصحابي
غنى
راع
يحسب
تميز
##راعية
والملك
الفطرة
الوحدة
بالمعنى
الاهلية
الجعد
تعدد
لعلكم
معلق
##نيس
البس
يهم
كريب
نصوص
الليالي
اصوات
للاخر
قصاص
للات
تسلم
##غرافي
الدماء
الوراق
وبالله
##ماك
وكس
محض
يلقى
##ونث
ساح
نيل
بكار
##انية،
##عدوا
حمدان
فكذا
قصده
الجس
يرم
##سنا
قدير
##زني
##وقه
وقبض
تصاني
الاماكن
##هايم
مذكور
المهذب
الحبشة
فكانوا
واكل
طهارة
وحل
مرتبة
الاخوان
ينوي
بكر،
خبرا
صلح
تطبيق
وور
##قتين
##قضت
مرارا
التقليدية
##ماذج
سعود
##اما
##ينت
##شطة
الغي
ركبت
لبيد
حاصل
سعة
طبيعة
##طهر
والنبي
ارسال
بقد
اعبد
##ريقي
طارق
الوصل
الاشجار
##بود
الحيا
رخص
وذا
##رارا
##وصول
ويصح
ارسلت
ليسوا
عيون
اناث
ومضى
وفلان
الكنا
صفحة
ختم
يصدر
لكرة
الشيخان
شجاع
لاحتمال
الضعف
##راجه
الشهير
رط
##ثمار
بفت
والرج
المنازل
واكت
زمانه
التحليل
المرتبة
اسالك
والتد
يفطر
الروايتين
فور
دق
مهران
الحقيق
##طيق
بالاخ
مذهبه
للذي
الحكومية
نجس
يقصر
##راكب
اهلي
الاوس
##عيش
غس
##فارق
وبناء
##ياتهم
الفايدة
ويحرم
ومق
الشهيد
البرلمان
##معوا
الفلاح
البنك
راسها
##ربها
##عمد
اثني
دينار،
للمن
يستلزم
##صيحة
الشين
للمش
اشتهر
##زة،
قولنا
ساعات
بثلاثة
يشارك
##ليون
وتحت
شىء
اوص
متصل
الوصي
مناسبة
الموتمر
تطلع
##صين
يترتب
##ولايات
للملك
تردد
الجنين
رغبة
الحق،
اسحاق،
فيم
ماري
سلا
##جليزية
والاعت
الغزو
يزول
جنبا
الوعد
##رها
فالع
تزوجت
##فة،
اياما
استحقاق
الجرا
صغار
تعملون
وجهها
صيا
مقتل
##حمته
ينقطع
مستحق
##ستها
حقها
المجيد
وعبيد
العدا
فساله
اعيان
تصير
المنطق
نفذ
وجوههم
الاداب
ووصف
قبلت
الاجابة
والاسلام
لض
يخال
الايمن
برس
التز
واجيب
زادت
الحلم
قولها
ثالثا
السكون
رفعت
سبيله
الاسكندرية
##ايهم
الدارمي
الفوز
فيهن
وبيع
##ظه
الطبقات
بصري
جني
الانفاق
تابعة
الطايفة
كيلوم
متنا
اطعم
حمار
بالرفع
لفلان
مسكين
##حنا
مكة،
المفسرين
الكثيرة
اقتصر
##رتهم
يهودي
نزاع
اشتراه
والحاصل
فلها
##دين،
بالبصرة
نجا
كفاية
##قرية
الصغرى
بقوة
الورد
فيش
ويبقى
شفع
الحروب
خصايص
النمو
كالش
وطن
كانهم
الاذرعي
القوي
##تموه
فيصير
التفت
##غور
##واط
البرهان
بكثرة
القذف
الارادة
بالموت
ولكنهم
الاشهر
الجنايز
والتن
فعلوا
القض
##جون
##حابة
المخالف
اظن
السلطات
خسر
اعمل
الدواء
##ذكار
##شرا
المحقق
ساع
رويا
##طاط
وقا
شاي
العنف
وكلاهما
فاسلم
الهلاك
فليست
عذابا
وبح
كنانة
وقوم
غاز
نفى
الفهم
فاكل
ينس
السهو
بوضع
##بالغ
##شاب
وراي
الباقون
وعيسى
دخلوا
الحجارة
##متين
كالن
##ضاعة
الازرق
##خرف
فنحن
توجب
ادي
ارك
المعالي
الشام،
رعاية
الطاهر
##بق
##خرا
عنق
شتى
وكون
مستقبل
الباه
##شرح
اتق
ولكني
اجيب
والنار
الكهربا
الغنيمة
زل
التصريح
لوجه
##يفه
وحي
##مالك
الجنب
اقليم
مكتبة
بالطلاق
الكلم
الحاصل
##ضور
العناصر
صفوف
اليق
الحزن
الحرمين
الوقوع
الحسنى
يشك
فارق
فنس
للعالم
الهذلي
يدر
برامج
الطايي
شبيه
جمعه
الالماني
بخبر
هلاك
مجموعات
وحرم
كص
ماد
الثاني،
يورث
فاتاه
عرضت
واتى
يظلم
تصور
كثير،
##رطان
اهلا
واجه
الجلوس
بسنده
الافكار
التنزيل
اعتبارا
عاقل
طرد
العكس
يرا
مشكلة
ساج
الرومي
زايد
ايمانا
وغيرهم،
دست
زار
ه،
عادت
يسبق
تجار
اليتيم
الشق
مسو
دمشق،
تدعو
متص
##ولاه
الغناء
الخدمات
مرفوع
تكره
معجمة
مدخل
وثلاثة
شن
وبعده
بطنه
سبقت
الظروف
##رازي
كق
وجوز
وملا
تخلف
حكي
بالذ
يبكي
اجهزة
##جيء
جميعها
اربعون
الاسواق
##طانية
مطلع
الجنود
##نتها
##جموعة
مزا
اباحة
الامكان
المواز
اصدار
سفيان،
الزوجين
الشراب
##يدته
الاخضر
##وسل
الاعشى
بالاسلام
الاثبات
##عدون
ردا
يكلف
الزهر
السلعة
الحقايق
الخصم
النادي
تخري
ورسول
الرجلين
القضايا
عرضا
ذكرته
##فاءة
هذا؟
##موم
المعارضة
حملها
ايه
يستطع
الاستفهام
##حام
##مم
العناية
سانت
وجن
همزة
المبتدا
والحد
##يريا
نورا
الحسن،
الفوايد
اسلامه
##وهب
قومي
##جاع
اسلوب
ومسا
##قبه
مرور
##مرات
واعظم
ابي،
والاولى
قرابة
فوز
للعبد
معقل
والاحت
الانتقال
##ولون
وبني
تحليل
القطاع
الظهار
اطلع
##زدق
الصلة
الراف
السورية
##سمة
الهندي
رقيق
##فيز
الاساسي
حصة
زفر
سط
نوم
بصف
##غراف
علامات
النشاط
امرك
##طون
العسل
اجماعا
يتصرف
الفور
وبك
حراما
ونعم
ثورة
والرك
العلوي
الاسراييلي
##شن
اصلي
تزل
رجالا
##جزء
ينطق
ويعقوب
##قايه
مولا
قريبة
حلت
##حايا
##ثاله
واسلم
ففيها
نزع
الده
السدس
خض
##هره
##سباب
واخره
لور
اليوم،
##ثوم
العجم
رجله
تحصيل
لتق
##هداف
بمثابة
اياك
بماية
##فلس
وذو
##وافق
سياسة
قادرا
رتبة
وشع
لا؟
##رضه
مشك
وسال
طلع
الزايد
الكرماني
ليح
النظرية
ظلما
جمعا
هوا
شيخا
بحجة
لوط
##قتهم
سرير
سمعنا
التعامل
والمال
التاج
هوى
##بتين
الاصوات
الشهاب
القرون
محكمة
العدم
فاجتمع
##روز
زن
المبالغة
بعضكم
الجان
##صلت
عدى
افاد
المصطفى
نوعا
الزراعة
عدمه
العادل
##وضح
موقوف
بصره
##لج
داود،
معلوما
والسل
نموذج
الحرث
اعتمد
التقليد
نمو
رشيد
اوق
المعارف
الحبل
مررت
وطء
المنقول
الثانية،
شهيدا
الطيالسي
التما
##فادة
ورواية
المنكدر
##شاه
الخلال
محي
##كيم
القاب
الهروي
وخالف
##روها
بتحديد
ايما
المهمة
الجوع
وصفت
اشهب
##يرت
الضلال
والمل
ابتدا
النزول
##نيان
ارسلنا
للزوج
ممد
##يمته
الصغار
الامامة
الاربعاء
العقلية
الحمى
قاموا
جاءهم
##افرين
الجهات
##وصاف
اسعد
##وطء
القايد
وشرط
المسوول
التطوع
##ض،
البيوع
##منى
الفنان
ويرى
يرك
بالنصب
##رجات
الصراع
عناصر
اصدر
عايد
##يس،
##جها
ثلاثماية
معهد
قال،
انذاك
توفر
مبر
##يسير
قصير
مستقلة
الهجوم
والسن
والفعل
فعلها
اختلفت
الفتاوى
فخرجت
اضل
##وعب
يملكه
اري
دولار،
والقا
##جاعة
محص
الصالحة
الصنع
واجعل
مستقل
تاي
احيا
حرية
ردها
ملكت
اعيد
القصيدة
موتمر
الطهر
بكونه
المدنية
ليعلم
ربها
ولايته
##ريقية
خب
الغيبة
الميل
##ياسات
المحرر
حكمها
بيل
البكر
الابيات
منسوب
الحامل
لحكم
ايطاليا
نجاسة
##وءة
البراز
##بادرة
واقل
##غرب
غروب
ممنوع
##نسية
ثوبان
ومرة
##ناكم
وقسم
الوديعة
خطة
برسول
مجالس
تحسين
والعقل
كذا،
سلمة،
العوامل
الصلت
طريقا
يفضل
المتعة
الساحل
لتلك
يتوب
الرجعة
ينعقد
مولده
رييسا
اهداف
##ورته
التطبي
ارفع
فقطع
##تكلم
حاي
حولها
استغفر
مكث
المقدسي
جندب
للاسلام
فاوليك
فلت
العذر
لمسلم
##والة
##حرر
الكتاب،
الاذ
ينال
سيرة
والاي
معكم
وجدنا
الوفاة
الغل
الفارس
صراط
مراحل
الناب
عبادي
يوضع
طاعته
الاجنبي
تحكم
واحب
منده
ينظرون
يستوي
التمثيل
تبدا
والشمس
##كملة
##وكس
نيابة
وسبب
صنعت
##تي،
الروسية
وقدمه
المسجد،
صلب
ماج
لفي
وجمعه
ببد
افتى
البيية
الصحراء
والماء
كمية
امارة
فصارت
حبل
توخذ
تشكيل
صدقه
اخص
##عي،
جلب
فقهاء
موث
بتاريخ
للغاية
الطرفين
##رايط
الموصى
كذبت
##امية
##اري،
##لايين
قمت
المخاطب
اضطر
الفرقان
المساواة
هدا
##اتبة
##كنه
تها
مثنى
الادوية
الفلسطينية
حصر
##وثر
##قيف
العاقل
تضرب
##وصى
ضغط
وقر
يفصل
الالهية
خيل
تاكيد
اللازم
ونت
##فا،
واجتمع
الصلب
بالكوفة
اصبغ
يشرع
يوخر
جنازة
نوفل
تموت
##بسط
السجدة
##سها
ميتة
فجلس
مسجدا
يمسح
بدنه
مواد
ناظر
ويقوم
##بعد
##حدر
اعز
فتامل
##مها
##اهية
وادعى
سخ
##ديو
يقضى
وفاء
كفى
التصوير
وسقط
يكلم
صباح
والرب
وحضر
المكتب
والاك
مكحول
مفرد
لصاحبه
تصلي
حبا
##غرق
##بسوط
اشعار
قسمة
##خيرة
قومك
المحدثين
السنين
العارفين
نحر
مراعاة
اعماله
##ثاء
مدير
وول
الابصار
الحصين
##جلب
دايم
القيادة
الخض
ركعات
##وظ
##اكد
وبت
##ياتها
والسر
بمكان
المجهول
##ينيا
الفصول
تفيد
صالح،
والمغرب
النمل
العظمى
وعملوا
##يسابور
تمسك
الحديبية
لاغ
لوي
المتح
خلالها
رسميا
الانثى
يطالب
##نهم
اباح
بذي
اقدام
ترق
والبل
واقد
كذبوا
صفية
كرد
الايت
موسى،
هذ
قولين
عموما
عدن
##سانا
المنق
##نياء
الشفيع
يجيب
الرومانية
جنسه
غسله
##فري
الصوفي
الاضطراب
ببيع
الاسلحة
اللحي
المستخدم
المشتركة
ونحوهما
انيس
والعصر
##لهم،
الند
فسقط
العقيلي
يزد
وظيفة
السرقة
الوعيد
وعظم
انضم
##وان،
فثبت
يذبح
الخبز
فراس
المحال
الانسان،
##وابا
##بوته
الفريضة
الاتيان
والوق
اشراف
لبيان
##لتهم
فسد
ازداد
فقيه
الثانوية
##انيها
والبخاري
غني
##تنب
ومعرفة
القبل
امريكي
##علي
بتع
اغنية
يتميز
بلسان
فضالة
الخصوص
بوس
وتز
فكره
بخلافه
اضرب
##اتى
امانة
المنافع
الصفار
فحكم
تامر
يتن
تحب
##رسي
حنظلة
استمرت
الحنب
خفت
##حال
دب
الطفيل
البلاد،
الباس
##ذروا
رحلة
المقتول
غياث
##ربون
الاموي
يقم
##دبر
نذكر
الاعتماد
مباشر
##التين
الاقصى
الصدقات
عبرة
فنه
باطلا
##فد
الرسمية
##اهرا
##وطا
الزاي
كاين
العجل
##يرته
السبعين
النفل
المناسبة
غلاما
الكفالة
والمعت
والرابع
يحي
اللوح
ظلموا
التزام
بالخيار
حمص
جعلوا
لحوم
حدا
واستقر
فقبل
دمه
اتهم
بالالف
عشرون
تتكون
الاصابع
دماء
##ريين
باليد
رحمته
الجبهة
الرطب
غيري
بتك
وكنا
روينا
##ايى
##فتي
سايل
##ونت
باغ
للحق
جح
##مان،
والبغ
الرمة
تكلف
اعتراض
اذان
وسمي
وحسب
يتفق
حضرت
يتكون
واخبرني
مكلف
نزيل
##شاركة
##يت،
ركع
سعى
التعاون
بتص
##مات،
##دفع
حقي
ياق
##فقات
يطعم
التعرض
المطالبة
تكت
منش
وقري
الموافقة
بيوم
لذي
غسان
الحما
استر
فلين
##ددة
اعترف
ارضه
النتايج
الشح
##طوع
##ثني
الرحمن،
ثمرة
بيتي
الاغت
##كول
شفاء
الالكترون
القطب
عدوا
فانكر
##زيمة
قوانين
الحرمة
تقليد
المود
##خيير
معارض
الحالية
هامش
##اهة
فيخرج
بايد
الحظ
نصا
هلا
##هيل
فير
عنده،
الحميدي
لعمل
##يرون
الطاير
وكيل
يسع
طاب
والحال
خمسا
مخافة
مركب
دعوت
للاناث
يمسك
محفوظ
تخريجه
##فيها
للعلم
صفاته
##قاذ
واسر
الاسبوع
##كتو
##شح
وكالة
طعن
المدح
لويس
النفاق
الرملي
##ينة،
سبعون
شريكه
وكف
التخصيص
المفر
المستع
الامبراطور
##خدمت
يتعدى
اجزا
معاد
##ادوا
فقول
تعبير
للفق
الهول
يتولى
غصب
##لتم
اقيمت
شهداء
النقي
الجغرافي
طلقة
الجنابة
اكن
لامت
##قا،
ايم
والنب
فرضا
##رور
رفاعة
##سوف
بموت
الهندية
انض
الاستقلال
الموسيقى
ووز
##حا،
امثلة
##بيا
المعجم
عتاب
غيرك
سببه
لاحدهما
وبالم
كانون
ومحل
الجام
شرطه
##طعمة
المباراة
عنى
فهولاء
##مارك
##رعان
سوداء
العر
ضاق
##ياق
الجذ
المعلق
لبث
الشوك
واتباع
خفيف
التوق
محددة
الطف
اللازمة
اخل
وجهة
الجوهر
وكثر
يرغب
جنى
ايهما
##قاش
لواء
سنتين
سحنون
شح
هدم
والعبد
اشخاص
المسافة
اياته
ياتيه
الاهتمام
لفر
##زوا
الجرج
للنا
التصديق
النعيم
حط
التحت
ونصب
الغذاء
وشك
يهلك
اطل
اصناف
لفظا
##علة
##ونغ
اجره
##قراطي
الملكي
الغريب
ليال
اختلفا
##بايح
ينتج
الفنون
وقصد
وعقد
للوا
##وهوب
##ضره
اجارة
ذرة
تذ
##رويج
الموسسات
واذن
الامثال
المكتبة
علل
##حقه
امتناع
واهله
محالة
والنظر
ياسر
بالاد
قان
ساكن
الورق
يشق
المحار
اللقاء
الواضح
وخبر
البريد
بالتع
لاث
##لاحظة
الثلاثاء
الثقافية
يمنعه
هدف
بست
اصلح
##صرين
المحافظة
لفظة
الشاب
اليابان
فسكت
بكت
وعليها
اشرك
الجهد
##قليل
للاش
يحاول
المني
لك،
صححه
الاعتراف
مريض
قدرا
يتجاوز
كبد
بقر
الوارد
##كرين
ترجيح
صورته
وامثال
مستويات
##غنى
##حظ
السوا
جدة
دلال
##ساد
اطاع
سوار
صايم
##جعل
القرض
##وانا
والحج
الكفيل
اوتوا
بعشرة
ويستحب
##رابة
القان
ولكم
يفس
بالبر
الصبيان
قلتم
##جموع
##فصال
ملة
مليار
الاحتلال
##رى،
##بيحة
بعبد
##ضايه
المرسلين
حقق
للحصول
بالرغم
مشابه
يبد
وتاريخ
والتش
تعليل
الفاح
##اكم
الطيور
دف
مكتوب
بلي
غرفة
والاث
قطاع
ايضاح
وينت
ينام
الشمالي
الرعد
روايات
الليل،
الفز
##زاق
##يهود
##روضة
##يقية
يساوي
الكيل
الفريقين
روايتان
بالتق
وكلما
فيلزم
المسلمة
امهات
والتس
المكتوبة
لذلك،
##وعظة
الملي
الشهداء
الايمان،
زه
فبال
الداعي
الاستس
##وليد
ويرد
الفراغ
##ومنات
العبدي
والحكمة
دعواه
ووقف
##وثان
انجلترا
قديمة
تكر
والطب
مناد
##قافي
##يابي
بالاف
المغربي
المبين
ساهم
كلي
الامصار
الاستعمار
كثرت
الجا
يشفع
الشدة
وثقه
فاه
المخلوقات
##كا،
اباء
الازد
وقوعه
السرير
ارجو
وظاهره
ينادي
توزيع
ويط
ليع
##فز
##سلط
##ساني
بيعها
بالنار
الاحم
والاه
متسا
حلم
القنا
السريع
والجن
مرزوق
##باغ
بعده،
اخذوا
القطر
##باين
الحياء
##رضى
##يجار
وافر
فلل
لكتاب
الرسم
يستدل
المجاورة
##الس
البري
سعد،
الحايض
يقتضيه
الدقيقة
اسف
مصل
عاصمة
المصل
المدر
الردة
السينما
الاسراييلية
الانح
البنات
##يكم
التربية
للاول
الحراني
وتعتبر
البشري
الاتية
حزن
يره
يساعد
##وذك
هريرة،
وتسمى
اسط
والدارقطني
الاقدام
التراث
الخزاعي
##؟؟
ضربة
مجازا
تترك
تكرار
بالثمن
ونقله
اراك
بجانب
علاء
اصابت
الدستور
الاظهر
بعيدة
يرزق
دورة
بالعين
يصب
الاعتكاف
بامره
المنصوص
الادنى
بالملك
بهدف
استاجر
الاقرب
جسده
ببر
دنا
يدور
تدور
حبة
الحبيب
##قي،
للض
حمر
##قيح
ارواح
تخت
وبنى
معرفته
طعم
الفرنج
ايمانكم
ومكان
متعلقة
الغرماء
النمس
المخزومي
دواء
القود
والجملة
##بادي
والشي
الامثلة
رياسة
##اربه
صفته
الفنية
فرواه
مكانا
المنه
الهيثمي
ودم
للرجال
فرصة
ونف
طلبت
والتابعين
##حتين
##اصرة
ويقع
والخبر
##خيل
السرا
لفترة
غص
##وسطة
الزاهد
مبنى
باليمن
الهة
تكوين
لجواز
واخرى
النبيين
الارق
عزوجل
البنت
فالجواب
هبيرة
المحتاج
الخر
فتت
##الق
والملايكة
يميز
##وهما
نقلا
المسيحيين
الضم
قوس
ويلزم
ميمونة
ضعيفة
##ذرت
بالاص
بنصف
##قده
فهرس
وقلة
قوى
الاباحة
كيسان
فعرف
##ركين
الكافرون
غفور
لاز
ذراعا
فاخت
فكم
يرده
الجنوبي
##اقبة
مامور
العساكر
وسعد
يلا
وولى
تدبير
موافق
فاصاب
##واله
اجنبي
العربية،
تصلح
قبوله
وحب
اعمى
خديجة
##بتي
الامارات
العروض
المعز
الرجل،
الاعمى
فربما
##كتب
##طاني
الحباب
تزويج
الامل
فماذا
##ندس
ينقسم
الشورى
##جزات
العراقية
مراتب
العجب
اعج
تفض
الاعلان
##ياذ
المجتمعات
اوسع
الثنا
احصاء
مكاف
غايب
فاته
تكتب
لابيه
##شوا
الصي
الزمر
وبركاته
##قصير
جناية
يصر
خلي
للحديث
عذب
يطا
وجوبا
##قيها
وثي
فريد
وصلاة
وانصرف
قدرت
مطابق
المحق
##عاقد
فوات
##باده
##كنولوجيا
انشدني
فابت
بنيت
اجتمعت
البيت،
عظام
نريد
عربية
كيد
ارتك
رويته
ووك
##اسي
##ديس
##اييل
والتف
##غاني
حيز
##طيية
##فتاح
الصناعية
ليم
فوقها
التركة
يكف
الصلي
القاضى
الامارة
والاخرى
##ايله
الركعتين
##تح
بالشيء
حمى
بالاش
الفرزدق
المذ
##راليا
جحد
واتخذ
النجا
مرق
المحكم
طلعت
لمالك
فسوف
فاتي
العجلي
نادى
##وبهم
روحه
##جيع
نشاط
دنانير
شهرين
عبيدالله
المملوك
يوتى
##خور
قاض
شراب
##كله
كالتالي
فاعله
الصايم
##امله
وجهك
ساحل
بهم،
فيدخل
##ابي
العودة
والرسول
المفصل
رف
الفخر
تخريج
قلبك
##خفضة
رءوس
ونقص
كلثوم
المرس
تسمح
##اته،
الموجب
اوليا
##كاك
يدخلون
الموصوف
اتجاه
##ذبون
الانباري
صحابي
ودرس
فظهر
##ذكرة
سنت
##رتين
قصص
##رفين
وضعها
وتولى
يليه
هرب
سلب
الحشر
الفيز
ينبت
يلي،
حذر
المتاع
فولدت
وبشر
##دخل
يزوج
##عاير
الفقر،
رمض
توهم
يتصل
يرتفع
رفي
بتقديم
##ضحة
معينا
عندهما
##دنا
اصابة
الكاثوليكية
##لايي
واتقوا
قعد
بالضرورة
الجهني
بالاتفاق
الذيب
##كاثر
الجهر
والنون
المسلحة
يتصدق
للاص
الوالدين
خفض
##لاقة
حدة
التحكم
وبعضها
الماضية
بعثه
والقاضي
وتو
يساره
مرة،
وخلال
وطب
تصريح
جاهل
شريعة
الكلام،
امنت
لاكثر
الجي
بالكلية
طن
حبيبة
الدولة،
##فر،
مشه
فحسب
شت
ودليل
قران
حاف
غيلان
يتف
ومذهب
مذاهب
وساق
لكونها
اعلان
مهد
##زيارة
ونشر
والعين
فجاز
المقل
والانس
خادم
منتخب
والعشاء
تبوك
كثيرا،
اسهم
رتب
بخل
##فران
المضاربة
خرق
عصره
عصب
وحكي
فامره
التاسعة
رايحة
باقية
الدعم
المستخدمة
توفير
##شان
بيعة
المواقع
التاخير
نيته
الطين
##راتيجية
بسيط
ابصار
بالباطل
واعل
##ظف
نطق
انظمة
والي
##لقه
ذهاب
كالق
ضمرة
جنود
العلو
طاق
التنفيذ
##متاع
##واتها
النساء،
يري
يتابع
وجوبه
غا
المرجع
وتعالى،
والدعاء
##بادل
الشامي
المقط
السعدي
واسناده
##معون
الدايم
يحيي
##ها؛
##ويف
تدفع
نسلم
##كاة،
##لافا
ثابتا
عسكرية
تود
##خالف
انز
الكسر
وسفيان
سبعا
عاقبة
والقياس
جين
##ايكم
وارض
والثانى
تحسب
اجود
تحويل
قريشا
العطاء
محطة
فدخلت
والثوري
اخف
دال
معاملة
تعدادي
فمتى
طيبا
تدعى
نجوم
فاخبره
اللوا
الاصم
يدك
رايتم
المركزية
تشرين
##كبوت
يعدل
يميل
يطول
##جتمع
الاخفش
ثيابه
ممتنع
المخالفة
##لة،
ربط
##ميين
الذهاب
يعجب
اظهرت
الكاينات
استقبل
بحسن
الاسفل
قسمين
الترغيب
القدير
##معه
اتباعه
خطوط
يعانون
بملك
مقالة
استعماله
الصناعة
الطاع
اللعب
وبخ
اختبار
عندكم
بتشديد
جمرة
المغصوب
الاجازة
يعجز
##مهيد
ينتق
ويعمل
محتمل
##كوم
وجع
العليم
ثبتت
وعظ
التدبير
تركيا
عثر
##يكاني
الخلاصة
تقا
الخارجي
سره
الجدار
قالها
العلماء،
##انا،
وطا
والبي
عروبة
العنق
موز
##مساك
بمش
انزلت
يشار
فذكرت
شاهدا
فظن
##كروا
والموت
وثق
##جام
جوابا
افاق
قبيصة
العبودية
يخاطب
بالبيع
اوصاف
بالواو
فصح
##زح
الحركات
اللذين
وخصوص
بالله،
##وات،
اتاني
للاخ
السيارة
الفاي
تنازع
ذهبا
بصحة
ملايكة
اسرار
اقف
هداية
وثنا
وفيهم
##جران
##كة،
تكرر
جير
والعق
مريضا
##ستم
عرضه
فصا
##معت
مجلسه
الحداد
##كلي
##وحى
نعبد
فالمراد
بظاهر
##ضعيف
يعتد
##وقية
شريف
##ديقة
الثمار
##قطعت
مليكة
الجمه
يومه
التفريق
توج
اقترح
مومنين
والجل
باطلة
اهدى
طلاب
قدموا
مره
##وضات
الفلاسفة
زنى
وتنا
يحبه
سمعوا
وبان
الحاس
وليه
العمل،
نوعان
نهارا
##لاغ
البت
ودر
الاعادة
المتقين
فاتبع
يور
اللعان
زهرة
##انم
انتقلت
##فضيل
للاع
الطايرة
بمق
شريكة
البلقيني
##افى
الدلايل
مشهورة
يغتسل
الصهيونية
##ريث
##حي،
عماد
اعلاه
اتوا
الخبيث
باسمه
المان
متح
فيق
شعرا
##اليب
وبالا
رضيت
تراجم
قضايا
الكن
##سلسل
قثنا
##ارته
ملم
نات
شرعية
ويعد
##يدين
الانجيل
##ياء،
فجاءت
##غتسل
ولح
مشاركة
المباشر
دامت
تشبيه
##كنون
تامة
فظ
بالارض
##وطن
ذلك؟
الابتد
##اهدوا
انص
السارق
جو
مطالب
وضعف
راحل
والمشهور
البطولة
جريدة
##وارزم
الثعل
الشامل
##هلة
ساف
الارحام
القش
حايط
وثالث
فارت
فالن
بشهادة
##الي،
التهاب
البسيط
الفلسفة
بكلمة
##ونيا
الطاء
البرم
السباع
فاضل
وعايشة
##وتين
واياكم
الاصل،
##طلبه
بخطه
صالحة
العمي
##اسية
قرينة
مطلقة
العماد
اشك
فكانما
الضبي
الذاتي
والته
اكلت
حلالا
فيصح
اتس
وترتفع
فقير
##ارها
والضمير
مشقة
فث
فرسه
تكونوا
خاصا
بطون
الصعيد
الخراس
دينكم
##صايد
##نسي
بصد
##ميته
##اخير
لاعب
يحيط
كاني
شيتم
شارع
ويحت
##وقي
اويس
استبد
المعاملة
النبلاء
##فيين
استشهد
الديمقراطية
الحصر
اسن
خرجه
تنفع
ارحم
بولاية
وتبعه
ويحك
تطهر
وراس
اللغوي
البياض
بعقد
وحلف
##ارن
##تن
اللطيف
انخفاض
فحذف
بيدي
##يمها
بتن
##شي،
البكاء
والاسم
المستدرك
بالانجليزية
النموذج
فانصرف
وجعلت
رمضان،
الثمر
لغات
الافلام
خوا
روضة
وفضل
يعمر
عقيدة
##طي،
روما
انصار
##معا
وتمت
وموا
ابدا،
اولم
##ابيع
##كاه
لاشت
حلول
وبالج
مسعر
محظ
##زموا
##شاد
##يهن
##حاضة
طبي
النبي،
شرحبيل
ساعد
الرقبة
وتفسير
ويف
مير
عصبة
##لس
النفط
##دران
التقييد
المماليك
##فره
يحمد
استيفاء
اجتمعوا
لقمان
انفسنا
فجعلت
صه
فلقد
يكشف
مرتفع
##وفه
جها
بلغة
المنتخب
مستع
باحسان
قتي
والهم
اعقاب
والحسين
الراعي
المهد
##لى،
الجهمية
الاسرار
بشدة
بالذهب
المدى
لحاجة
وثلاثون
ادركت
##واحي
بالعقد
انفه
لدفع
اسند
يفعلون
والباقي
##جاجة
وقضى
يحول
اخته
الحكم،
فالاول
المجلد
الموارد
اللاتي
متنوعة
وهشام
##ظلوم
تقرب
##اويل
##عمة
الشبكة
ردي
فاشار
وشرب
##روى
لعلم
##زعة
يتوهم
دان
يرمي
احكم
فطلب
بالقدر
فقالا
العثور
الندى
شركاء
زرارة
عدلا
تستعمل
كليب
##وبري
ذل
حوش
##سيك
معيلون
الطور
الخفي
النهايي
العداوة
والعمرة
منافع
##اتين
##امة،
الحلقة
لمعنى
تصيب
الثدي
كوكب
##زته
تتميز
ولمن
المجتهد
##ماته
اللباس
رزين
يزعمون
السيل
راسي
الخلايق
بصير
امك
لاختلاف
المعتق
عرفا
العقلاء
اكر
يجيز
والجب
وبقيت
##يذان
زلت
الاستعمال
الاعداد
علموا
تخاف
##صيان
##راضي
الدقيق
معتقد
واختلاف
والرد
لتحقيق
اطيب
النطق
ونشا
وخط
جديدا
الحرب،
والاصح
يعبدون
دراسات
دلايل
مواجهة
كذاب
قنا
وماله
تلزمه
غرم
عنهم،
يحيى،
وصرح
الانث
المور
الجواهر
السوداء
##ظى
بالال
الفضايل
اشعث
##وها،
وصلوا
يرق
لهولاء
استقل
التدريب
البخاري،
قاعدا
صعد
وركب
النفسية
##دره
##تقال
هاء
كانك
المجنون
يسبب
عمرا
دوري
بالمت
غفلة
ممارسة
جهاد
تقر
وثم
التحالف
والانصار
التركية
استقبال
يطع
واحي
الكبد
عملها
واحكام
وجعلنا
مصن
صريحا
اليسير
العضو
قضيت
الممارس
لزوج
##ركا
##ورين
اتخذوا
##رورا
تصديق
يوق
وتعد
وتسع
طار
واثبت
يباح
شرقي
صادقا
فياخذ
الحيوية
ضعيفا
##لز
الجود
حصته
##برز
واخوه
بالسنة
ميد
الاسلمي
والنفس
بحم
تارك
التشريق
راهويه
اقطع
مختصرا
الاولية
##يكته
##باشر
محذ
بعدد
خلايا
باقل
ويشترط
بلق
يكمل
تاسست
بالعد
فتاوى
بحلب
رحي
سيارة
العصبية
جيدا
النفسي
شركات
مطعم
الحكام
والفضل
وقاتل
الزب
الموحد
##امنوا
مساعد
وصنف
مرث
##وفة،
اعتما
##كونة
##جدد
المباشرة
الخندق
المتمر
##واها
استخلف
النابغة
الدرهم
المرات
##برين
وذاك
المنعم
لعموم
قوت
##صوا
الجوي
##وجة
السرية
وعبر
يخلف
الزراعية
الفحل
##وزة
##طوير
بقايا
محسن
وغيرها،
طفل
ارسله
الحلي
ملف
العقار
السييات
ذلكم
الاسماعيلي
##يهة
##راتها
##فقت
ثلاثون
التغيير
جاءكم
نقصان
الصيغة
دراسته
ففتح
الذاتية
جبلة
وطيها
تلام
##واجد
بغداد،
الاجنبية
والكسايي
ينهى
والعياذ
العاقلة
الشبه
البرا
الحال،
الرسمي
فيصل
الوصا
المبلغ
مربع
##دهن
الكرة
الفزاري
##متهم
##رفق
الايسر
يضاف
مفا
لاش
تعطي
الظلام
مخالفا
فيات
ابيها
تمثيل
مردود
حقيقته
##وثة
الترجيح
اللحياني
التقرير
مشاهد
غال
جميعه
بخصوص
والقط
##بتك
تقولون
ظروف
فانهما
ضاع
قذ
وسكن
فولد
كله،
ونست
ذرية
وتعل
تركته
المقدسة
ايمن
يساله
الغصب
ذكرهم
خدمات
##ضون
##غلب
مسوول
اداب
المقالة
الثابتة
ذنبه
الذمي
السابقين
والستين
حاس
##باج
الوسايل
القوس
الانوار
محج
عقود
زنا
وظل
مشارك
لذكر
الصحابة،
##ديع
الاخرة،
اتصل
مدارس
قبح
عبدان
ليش
وشيخ
##طرت
##وصي
التوجه
وراءه
اجريت
الشافعي،
حجاب
الحنث
الامتناع
اثنى
متعم
##دتين
الحنطة
الاديب
المره
افتتاح
رخصة
قاطع
طور
ملح
لاحمد
تقرا
العين،
وجابر
بمقدار
الديني
جاءوا
سجن
##داول
قبيح
##ريه
منبه
وقوة
باية
الشمس،
والاحسان
سياسية
النفع
الشهوة
فاحسن
رداء
يعاقب
تنتج
وليا
معهما
حمير
معارضة
بعينها
وقلنا
مولانا
##يعه
لذة
التنظيم
تسعين
التلاوة
##ستير
بالقتل
بطلب
السيدة
رسالته
بجمع
فاضلا
الملكة
##هيية
اساء
المتنا
##مالا
مشكل
تركيب
يسمعون
معلم
بسكون
نظرة
الادراك
الليثي
حاد
وفس
الحجم
عتقه
قبلة
والباء
جوار
##ركون
وظايف
عقاب
اعناق
الزع
للمر
ديف
الحقيقية
للامر
بغض
##حيف
قدمناه
طرابلس
طبيب
##جوا
بوجوب
التطور
كخ
الريف
وايت
الكاملة
باختيار
تضر
للعد
ازال
جيل
مواطن
شامل
فشل
##كر،
والثق
المصباح
واشد
المحفوظ
##ضلال
مشتركة
فصلت
##هية
كوم
الاسيلة
يبني
عبدالم
المقبري
افسد
بتس
هير
يقارب
##ويح
##كلف
فليح
واثنى
تري
لتس
واللسان
مشاكل
البجلي
وصارت
الافاق
عجب
انتفاء
المجموعات
واقر
المكروه
تغي
خرجنا
فمس
##رابا
عوامل
استدلال
##يفور
اضعاف
وثمانماية
يطهر
حجارة
مصيبة
بقيمة
محرمة
البرامج
الايدي
يتعلم
وتاب
جيدة
مستقب
مجالات
لاعت
الاسبانية
##واصل
المنح
##حويل
لسنة
القناة
للحكم
بقطع
ايام،
بمنى
نعل
فدفع
وجاز
يفسر
الكام
امكانية
##شو
الاذا
النتيجة
##بلوما
لهب
امرين
##ادها
تشي
والمذهب
##قصة
اطلقت
ندب
قراءته
بجواز
باربعة
قبلي
يعطيه
الظنون
التحق
المصير
مسلمين
الساكن
ديني
تقولوا
المقاومة
بوق
تفسد
مغيرة
##اعم
ونق
للمح
الستر
جوازه
روبة
الرجم
##طو
##يادي
##ماها
صومه
وجلس
بحضرة
يبرا
بمعناه
تقييد
مضمون
والمروة
تجر
ينص
ويجمع
##ايي،
استمرار
التاكيد
اجتهاد
العنكبوت
مشغ
العزة
وجودها
متابعة
زعموا
صفا
##راما
النباتات
دو
جعفر،
فيو
حالهم
سنه
الظاه
التسبيح
معاهدة
كوفي
بالتاء
فركب
ورييس
العزم
لامه
البوا
وكذب
العمارة
عبدالع
قرانا
وبط
الزور
جدار
عازب
يبحث
للقاضي
فتب
الشريفة
غزة
الانفس
الرحمان
حلي
##وزا
عصمة
الطبع
الاوثان
الشاي
بالنفس
الشخصيات
اختلط
##اقاة
مستد
ويمنع
بالهم
بلاء
الحمراء
يقتصر
ترون
##روجين
والذكر
الدرر
يعقد
واعمال
حاملا
بضعة
يعظم
##رسوله
بعثت
حوض
يرفعه
افق
واهم
الذم
نصاب
تكاد
الصدور
كذبا
فلان،
فواد
وطايفة
ياقوت
لتص
مفتاح
افي
والعم
##لتا
اود
فكنت
المعارض
والرق
##صق
فقيها
فغضب
النخلة
انقضت
##يرهم
السطح
اشتق
وحمزة
يزداد
##جاح
الجيوش
ظلمة
الحذاء
مثلي
المقابل
وافضل
الحنبلي
احضر
خن
منكرا
صاعا
خث
باخت
اعترض
اسل
الشيرازي
مقيم
والكر
يفوت
خبير
الله؛
جلاله
الملح
يروا
اجزاه
تدريب
زاده
المنافقون
الطوايف
حمام
##سبون
يصرح
الكسب
للتح
المطاف
##فرع
لحظة
##ينيات
الضي
وليت
القربى
ووال
##كشف
وحال
##وطات
مقاومة
ساء
شبر
ومنذ
استخدمت
بالقياس
تعم
يوكد
الاستحقاق
كفه
الرياضية
جلوس
ونها
الوهم
الالمان
##ماثلة
الحملة
فقر
حمراء
الصريح
بيانا
كراهية
حت
وقعة
الغنايم
##بكات
##لقت
قاعد
علو
بعرفة
##لات،
باسا
الجنيد
غار
ينب
##وسية
##يارا
وحماد
البلاغة
الاسنوي
الراش
حرفا
يخرجه
افتتح
قبة
والقدر
وعده
قطعه
الهندسة
وغالبا
اصابته
السيارات
شام
##ازم
الرغبة
والسجود
الالب
تشار
احتجاج
معالجة
الغم
القرنين
مبالغة
حبه
الاستخدام
املك
اهتمام
الموت،
ثماني
المشاهد
الاقسام
فظاهر
منيع
الصحيح،
للاح
الاعتراض
النطاق
##كتوراه
صنا
##بلها
المتقدمين
الخفين
يوف
كتابي
بهاء
الناتج
##كتة
ياتون
##ينها
بعد،
المولود
هنري
##فتاء
بالنون
يضره
بحرف
فسي
القيامة،
##تناب
بقوم
مزد
##ياج
##صارا
مبنية
النايب
##وايية
تقضي
ظال
##مايه
الاكس
قف
كفي
بتقدير
بالمد
اهون
ريت
ملكها
بالعدل
##خام
وخد
والسي
اوتي
الطيران
وصله
ينج
الارثوذك
السعودي
لدي
واتم
فذاك
الحين
شعار
فقيرا
مناك
##قولة
انتها
المرور
خراج
وولده
كنيته
اليونانية
لاصحابه
للاج
##ذام
احرامه
سلطة
ونصر
القومية
الغيث
المنهاج
سماعه
فري
وكفر
يذكرون
ابتد
فروة
الرحلة
حزام
الدخان
يخرجاه
يقومون
واياك
ويثبت
افلح
الورى
وعدمه
ذاه
تصدر
ايامه
واثر
النبوي
##هده
عشرا
جيمس
##ومها
قبور
واولاد
وتوجه
##بارته
منط
يدخله
الكشاف
السمن
##يرين
مساعدة
##منا
يوضح
البركة
مايتي
ازل
الشاذ
الترب
##رعها
واور
التانيث
العاشرة
##ايغ
للمناطق
خاد
##ظمه
الميقات
طوله
##مايل
الاية،
فعاد
خلط
طايرة
الانساب
##رعه
اختص
الحمر
##طنطينية
##نتم
الجميل
رزقه
يمد
قصور
لطيف
فاقول
عام،
افرا
لابنه
##ماء،
باول
بالتشديد
السوفيتي
بالظ
قمي
وكونه
الابحاث
الاتراك
##اقل
بالنبي
معتم
سيت
اميرا
عايل
##ملا
بمنا
احببت
اعتماد
الوحيدة
خلاد
امراض
وصالح
اقوام
صعب
بينهما،
##ويب
الصاحب
اتفاقية
هذان
اعتم
الوزارة
ينته
بوج
##اعها
المقص
قدما
جاك
فغير
اتمام
وادخل
##راش
للترجمة
يستر
خارجا
ورود
العمري
بوصف
لحد
##غوت
يامره
مراكز
ياكلون
الخشب
الديمقراطي
بقضاء
لكنهم
السيية
المسلسل
سنده
السلسلة
الفتوح
وخالد
ايجاد
مرجع
##انين
بجامعة
##خى
المخد
الصير
جميلة
يرجى
الفكرة
رحمهما
البحر،
زعيم
افريقية
منفردا
متم
فوت
المدبر
ناسا
الصعب
##اليين
ايمانه
سجدة
مدي
##سيما
عثمان،
##نادا
الالهة
والاجتماع
اليمامة
غرة
الاغاني
فادخل
الخادم
الموقوف
حادثة
بالسن
سريج
صاعد
##فرون
الامطار
مطار
ويويده
وتشمل
والاغ
الراجز
فاخذه
فمثلا
المذكورين
##دري
المنظمات
مدع
والور
الخطر
اللواء
البيعة
السيوف
نكل
الاركان
ولاء
مخر
وورد
دعوته
شمل
ينصب
يكونا
##دلس
##اجم
فاتوا
قريظة
لصحة
فقبض
جاهلا
بذاته
الافق
سليمان،
وكفى
عملوا
لاحظ
الغاء
الميلا
##راكي
##تيك
ناسيا
اخبركم
ويشهد
مترا
يزيد،
عجبا
##وابط
محيط
##وطي
##نته
جراح
والانت
وعادة
ونهى
نشات
ينصر
احرام
اضعف
ذى
حرملة
المعدة
ونفس
فالوا
الحسنات
يستقبل
وجاءت
مسهر
احتمل
##خلع
نسوة
اربعماية
صبح
ومغ
كوك
كاست
برفع
البادية
سفره
المبرد
والولد
اذرع
ووس
الطلبة
##بيك
لمنع
حار
ابغض
بجامع
البدعة
البنية
ثالثة
اهتما
السلطان،
##رابه
فالظاهر
فدية
الجيل
وشدة
البابا
الخول
الطايرات
##تبع
الموسسة
الكنايس
ايسر
العراق،
##كري
تنتهي
اظلم
الذل
ونسب
غش
واضاف
##صعة
فقاتل
بعلمه
##قيع
بالنهار
صنعاء
ينفي
تصغير
##زاة
فاتيت
مقاب
واربعة
تقريب
ولاه
ومصر
اقبلت
المعتبر
##زي،
الجنرال
فعن
جود
اخضر
##عمون
بقصد
القانونية
##نمية
اجمعوا
لقا
تابعي
##رفون
البيزن
باعمال
فنف
وقامت
عليك،
تصرفه
فارج
فلانة
سمح
وحدات
السماء،
شها
جاءني
والواو
##جبه
ذويب
استولى
تحق
##طاف
##حاة
وصفاته
رهنا
مجن
##روان
والاز
لعنة
بقرة
تفتح
لمش
##رفوا
لثلاث
##لافة
والتج
الشهوات
العلي
تجربة
النواب
تحريف
الاضحية
المحتمل
سلمى
نظيره
الين
عددهم
وتزوج
ذكروه
تعديل
وبينهم
اوحى
##باعة
لمست
المعتاد
الرومان
ويصلي
ريال
التخفيف
الزرق
فتم
والليل
اصبت
الطعن
##طفة
واوا
بعدك
##مور
##اليم
بتحقيق
يفرض
##ستانت
##اهدا
اليسار
والدع
والقر
لزيد
يفسخ
##وايي
فقضى
الدني
صوتا
تفاوت
##رايي
نظره
والمغني
صلاتهم
عبدالعزيز
يون
التمتع
وبقية
سلعة
فراغ
ولب
جوانب
عشية
الشرايع
اتلف
ترم
قربة
اجمل
الاقط
للسيد
روبرت
##تين،
تتع
عقلا
عقدة
المبحث
التعيين
الاكراه
السمك
بالشرط
الكاس
مقبل
##امنا
الفاسدة
الخلي
وجدوا
قوام
الزبير،
حان
يكونون
نبا
اجتها
وتخرج
وباب
##زيين
تسجيل
فلولا
فنون
##صرها
اصحابي
والتعديل
##نيها
##افعال
روت
فطلق
##وافقة
الجب
والقيام
استي
اتلاف
الحمض
##وانه
الحضارة
العجاج
فسالت
علمية
استا
##لك،
نصير
والشام
الغذايية
##شفت
##منت
يفتقر
قادة
##قيه
الدن
الغف
زمزم
المخلص
وجعلوا
معتبر
طير
المغازي
الاغنية
بفض
صوف
ورغم
باعت
هجوم
بالذات
جميعا،
صدرت
ثقل
##ضرت
##طايا
الراكب
الارشاد
نر
يحق
وقتا
شانها
نواحي
الاطل
الحصن
اخيرا
كالخ
ناخذ
الاديان
##ساوي
والدم
التوكيل
فالك
واظ
صرفه
##زيرا
المراة،
هواه
كاليفور
استراليا
الاغلب
استخدامها
خاط
وصي
والقدرة
##فقود
##رسال
رجوعه
جميعهم
نكاحها
البراءة
للقران
الطويلة
صاروا
واشن
سالته
سميع
شاكر
كذبه
بالتص
يامن
يتس
شواهد
قارب
يويد
الاجهزة
##انيون
اجابة
والانسان
كلها،
المعتمر
وتخفيف
لخبر
كافية
الشركاء
الحضور
مهرجان
فافت
امروا
الالعاب
المحافظ
المويد
الاسلامية،
ببينة
القنوت
##نتهم
المطالب
لزيادة
المعدل
شو
نسايه
مقبرة
التعلم
##تهم،
يتطلب
اكتشف
السعيد
فهناك
الناسخ
كالذي
بيتها
المعج
معاوية،
فتس
وعدة
الجرجاني
والموا
يتحرك
بطول
الاسط
الجعفي
عكا
العورة
بالكلام
وانته
توفيت
حركات
الاوصاف
غرس
القبيلة
لونه
والثالثة
بالرج
المنش
سبحانك
فرانس
المشقة
الاندلسي
تصانيفه
اجلس
يمدح
شطر
وتقدير
الاشهاد
الشعوب
الجور
الاستواء
الضيف
ورده
ازواجه
##ولوجي
سابع
تكبيرة
وامام
استش
##وعها
بلغنا
كاليفورنيا
دالة
جوابه
بذن
##اع،
طرفي
والباقون
تخفيف
درهم،
اسوا
النجاشي
رمز
للاحت
تركوا
الجانبين
فراش
يكر
##كوا
تلزم
##راري
طلاقا
مجه
##صالح
النوى
نسبيا
##كافي
اشتغل
خلل
المختصر
التنمية
##طمة
وقرىء
شعري
##طفه
قدرها
##طلة
المكره
الصوف
الاسلوب
انتخابات
بالخير
اعرفه
##عيته
تاويله
##وبين
##رحه
امد
يوما،
وارد
تعط
##ميها
يجعلها
هان
وحده،
فمه
بالكامل
عصا
##شرات
الكع
الملة
لعلهم
الصاب
وجهي
القصير
التفاعل
##طة،
وتقديم
##يلين
##دعو
يلم
الير
اشعر
المتفق
السامع
المشاكل
والخام
الزهري،
ظلت
##ضين
##خالفة
مبينا
##عادة
##قلاني
واورد
وسميت
واليا
يحبس
يخرجون
المفتوحة
##قهم
متصلة
عبس
العاملين
عدوه
##يادات
الوان
عنب
راكبا
البخارى
الخرقي
الصنف
##بعها
حاضرا
الباهلي
العصا
##حرز
شاهين
ملايين
الاخرون
##وزي
بقرب
راحلته
##فارسية
الرافضة
واولى
محاسن
نصي
سبل
المشك
الانصاف
الجهم
##عدهم
ومك
المنزلة
خمسون
الاثرم
المساكين
الدينار
##رفض
الطاعات
بعض،
جسر
لفعل
##لاء،
نزلوا
محس
الجوان
للمرة
صناع
وخصوصا
ملخص
يسمعه
مهاجر
الرخصة
الاستي
وسلامه
فسره
##فارة
بماله
تساوي
##زج
الذهن
واشنطن
##تاح
##فرغ
فبينما
وتعلم
بمشي
التجارب
فجر
واستق
ابنها
وسر
وبنت
مسلمون
عقيب
وكن
اللعبة
تطوع
الاوراق
جحش
##وود
المعتز
رجعوا
ميثاق
ابط
ادعاه
الامة،
الديون
التخيير
شعبية
بنفسها
##حار
الزين
##وق،
الالوان
##زعه
يناسب
##ثوا
##روني
وعيد
تلبس
##نفل
مكانها
البغي
الراية
الحج،
ضعيف،
للكتاب
البهايم
وعاصم
اطلاقه
الداخلي
والصف
كالب
الظهور
جليل
سحاب
الحالف
الخنزير
ويريد
بالاصل
السلا
احص
المحرمات
عورة
باللسان
المعهد
الرياسة
تار
السرور
غايبا
عتيق
النبيذ
##يمياء
نغ
##يلعي
طين
الانشاء
##شيته
##ذرهم
##منه
ينزع
الوظايف
وابد
وعندي
اغتسل
الحمصي
وينظر
اساسي
قتادة،
يشتمل
مختص
وماء
واقول
الدورة
وضبط
الخياط
وكيلا
تجزي
القراءات
يستغفر
ضربا
الحوالة
تنقص
الفقهية
وترا
ذلك؛
الجمعة،
لشخص
دفاع
خالفه
ويعتقد
موه
يتب
##باره
متصلا
القح
حيوة
توضع
المتعد
التكرار
الموصي
وفع
محق
الاحنف
الاقتداء
تخص
ديم
##فته
السويد
##ضمام
بمست
قتيل
كقولهم
الابار
##لبن
الخيرات
يتوجه
عادته
بوزن
كالك
ترجم
الحادثة
وبارك
يرجعون
طبق
عروض
الرو
الفاك
المشهود
بروت
اساليب
الفريابي
فاجابه
فقراء
الاسته
بكى
قويا
دينية
ادعوا
يعيشون
النووية
فرك
##وهات
##دود
##فوع
وسكت
الاسباني
اطلب
##فيك
فاسدا
##شده
وتكلم
الفداء
وغل
اداة
اوقع
تدرك
ينو
شعراء
الرجاء
المقدار
حضرة
سخر
وسا
بقى
التسعين
بطنها
للشي
ووث
الرض
##ذرون
اساسا
مطلوب
ابر
الفواد
القايلين
يتخ
والند
##مانينة
فقدان
المجرد
وطريق
##ضط
امركم
ويسلم
يهب
##علماء
يقينا
وعشر
المشكلة
والياء
المتنبي
لاخيه
مقيد
##اسيس
كفرا
والطاعة
ارادت
حدثناه
واقامة
ويقرا
##فلت
وانق
##فيا
دعي
والراء
وعلمه
استك
شيوعا
التغير
##ودهم
##ظيما
ثمنا
والاخت
محارب
العام،
##ادرة
##وران
شعبة،
منزلا
لاني
الاجانب
التدريس
ويوخذ
جبار
فلسط
سراج
شهرة
افعاله
تفس
المشارك
##ريري
رقاب
خطيب
الصفوف
ظه
نادر
##وبى
نيك
وجمعها
الهيكل
الاكاديمية
ماض
الفيء
واحيانا
والمعروف
برز
الكسوف
اختها
الاختصاص
سياسي
ارقم
##خره
المباني
لحقوق
التواصل
حقايق
يفارق
الجبر
الظلمة
الكهربايية
شط
يتاتى
واتفق
##ديه
واضع
بغي
روساء
الحكماء
باعتبارها
الدرس
بشرا
الفراش
لواحد
استاذن
الحصار
اياهم
تقسم
خامس
الحياة،
##طيها
قطب
مثله،
ونافع
##الون
الانظمة
المتولي
باعتباره
##وبة،
والمومن
فامتنع
بولا
الماخوذ
لحيته
##طفل
بضرب
##بعوث
افاده
لعبة
وجدته
الموهوب
الانتهاء
واخذت
كريست
يواجه
يمضي
العزى
لموا
##قاه
معز
المتق
اليهم،
اخرجت
المرق
المميز
وكبر
##وعيد
سنويا
ويترك
والشعر
تعجب
##وبته
##تداء
بنحوه
بلدية
مطيع
لوس
النجاة
تعمد
وبينها
فجعله
الكرسي
وخمسة
الروي
للذكر
اللحية
واستح
النجاح
لذاته
نذير
حقهم
##يلية
##تبين
اللاتينية
##حمده
##شروا
والانجيل
يقين
للمفعول
القومي
الخلية
ارطاة
ركوب
سخط
##ضاة
##راسان
فالش
الاطعمة
الموضوعات
وبيت
##وته،
انوا
تقام
تمتلك
ووجهه
ميناء
المصريين
التنفس
##واجا
حليف
يسافر
المصاحف
نقلت
##رتك
##ارد
باخذ
عكسه
غادر
الان،
يخف
طرفة
لانفسهم
المند
التركيز
##سيا
الرشد
شميل
حسنات
التفكير
وخذ
مسافر
استث
##ريفا
يستطيعون
القرابة
بالكفر
اللاعب
باستثناء
واخيرا
هجرة
مسر
##وري،
المقيم
حبسه
يستمر
الاستش
واستغفر
منفصل
حيلة
المضارب
حظر
بيا
طوايف
المركب
ثمة
تنبت
بالمح
##لكة
الخاتم
المناخ
تظ
ذري
حده
اصحابه،
اللفظة
حوادث
ودون
##ورا،
##يديو
قطن
نفقته
##يسية
المدايني
علاقات
شهوة
واولا
الجحيم
الجامعات
جماهير
بيمين
اسكت
فتا
جسد
##باعا
الغين
طريف
لعدة
تابعه
للرسول
##يسة
ارتد
علاق
الني
كالز
زبيد
تعي
فمعناه
احكامه
حوشب
انعقد
اصبهان
مضط
الشاملة
فيحتمل
تند
تعدي
##حيفة
الوجيز
الفدية
عبيد،
الزاني
لهو
افض
فاختلف
خلقنا
معالم
بسهم
الخصومة
التسوية
التربة
اصر
الالباب
طلبا
كندا
القيد
الغار
لقل
كنز
الكيميايية
والمك
الازار
الاتباع
المرفوع
مشهد
لشدة
الرضاعة
يبيت
اصابعه
الغا
نيس
عاشوراء
##ففة
المغناط
يعتقدون
الشعر،
النات
ذكوان
تميل
فاخذت
سيم
عرفوا
تيسر
هاد
السكري
عث
تحوي
البند
##رتم
وحذف
تحية
جعلته
بحذف
المحسنين
تتراوح
الزبيدي
الركب
اغنى
##رافه
خالد،
وداود
مستمر
فدا
للاف
ومثال
ابصر
المزد
الازل
كتبها
بالنص
المرتد
دعت
المراب
فيز
الفرار
##هدف
غزو
ويحمل
##وك،
والصفات
##اريا
مصدرا
نمر
وعص
اشتريت
صفين
وطال
اره
غلا
واحدها
الاتجاه
واصلح
وسوء
##ماوي
وجرى
وثيقة
##ضو
افكار
سلط
كفرهم
الامساك
فبقي
باجماع
تعرضت
الاهداف
الجزري
تناقض
زريع
خاض
فاطر
##حرمة
القلب،
حذفت
والعلماء
وبالجملة
قوته
اتاك
##اطير
ووفقا
فزاد
##درون
فران
البكري
##قاليد
زينة
لحما
وهيب
يجاوز
والتم
##قرة
##جديد
الرع
دعاه
لاجله
متعمدا
يوقف
المرتبطة
وعباد
##لاحقة
عك
الذخيرة
اتفقوا
بنص
لوج
والزبير
الزعفر
مصرف
صغر
مناه
##رك،
المسع
وعكرمة
خم
العارف
حسن،
براء
فالمعنى
بالمش
الرجال،
##جاني
ويونس
بالتك
سريعا
ضمنه
##خس
##اعته
##قرر
تسليما
الامام،
الشعور
##ديون
البحوث
##ذق
المعاملات
ملحو
زيت
التين
وقياس
ويطلق
تنقسم
عرشه
باللفظ
غداة
يعز
التصميم
واثبات
وديعة
هزيمة
##راعي
نسمع
فحم
اجرى
برواية
##ابرين
##بهم
عطفا
##هادات
طهور
##ءة
بالشف
الواج
اكم
##ضرات
الاستر
فيرجع
والمدينة
الماشية
اموالكم
الخير،
لضعف
##اتلة
للبر
اتيان
الصحافة
واستن
المادية
انظروا
كارل
لغتان
مكن
احس
والفاء
عرضة
سعر
الثقافي
الربوبية
وزين
جايزا
خصال
قلق
ساقط
التحتية
بقت
التقديم
اصحهما
حماة
خشب
فاننا
ليوم
بلادهم
ثمنها
المعرف
عاملا
لول
فاقر
البحار
يجدون
نفوسهم
##حرق
رسله
العدوي
العالمين،
ورثته
الرفعة
اميال
##ضها
منتهى
##شيش
وكثيرا
حملا
وضعفه
حرق
ساحة
صبرا
بينك
مقسم
انزلنا
تعزيز
توكل
ضابط
##قدت
كغ
وعلق
يزيل
الضبع
وروينا
نهج
الحبوب
عجيب
##كاء
ولبس
فليتامل
##اهرات
بحيرة
لصلاة
التوكل
وني
قولوا
بالحكم
حلة
يحمله
الخفيف
اتاهم
مثلما
الفاسق
عنصر
##وفان
لي،
بمحمد
وره
خضر
سهما
ميرا
##حلول
قيامه
مصحف
والهند
قميص
وقيد
العامة،
ادركه
نكرة
منج
المضي
للمسا
النقصان
لموسى
لعذر
##لالات
لتك
انس،
الكوفيين
متعل
ورقاء
والعا
وامي
ويبلغ
##ينغ
الزكاة،
لجمع
الابر
##ابد
المساعدة
تباع
عمود
سعي
هامة
مختار
بالاول
##يتين،
اعمار
والامير
كيلومتر
الصينية
وجوبها
العنصر
##درة
مرثد
##حيز
والرس
##سيمات
التردد
السلع
مبادي
لسن
عبدك
يستح
يوصي
منقط
انجاز
فاسق
الجوارح
وعاش
ورسوله،
والاحاديث
بدت
وزنا
يحا
##متي
للدولة
ثبوته
رسايل
السميع
مناقب
الدرع
بقلبه
##فسة
فاخرجه
والعراق
ردت
والفقه
المنص
الفين
##ناء،
ويامر
الشفاء
##ويع
مشتق
##ومة،
الطبي
مجيء
المجاهدين
المبر
فاعطاه
قادرة
تفريق
حاجب
يجاب
تنفي
قتلهم
##اعدة
يجهر
طالب،
بيعا
##جيبة
ودخلت
اصطلاح
##مرقند
شهدوا
فالان
لحمه
##بارة
وجعفر
الكربون
بصلاة
خطوة
بريء
يتجه
للميت
يلحقه
ببناء
يسبح
اسير
الجدل
يفضي
تكذيب
للضرورة
##وجا
كالغ
مستشفى
مكرم
الرسايل
ويعود
الاند
بالاخر
الوالي
الاولي
التركي
العظمة
ليالي
المبنى
مصاب
ولانها
##رضت
البناني
اشتراها
المذكور،
##كيك
ودار
عمال
تفصي
والصبر
لطلب
المودع
وبسبب
الدايرة
##نجي
والشرب
##ضطراب
وابوه
لاقت
النفس،
##تد
باء
مجنون
والكافر
العنبري
الادبية
التامين
وكال
تبيع
بالجنة
كك
##حتهم
##غلظ
فاتت
خاطب
ورحل
العارية
واعطى
تمتد
نسخت
الكلاسي
ميات
##بيثة
الكثرة
الهيد
فتبين
الانجليزي
تبدو
##باعد
وصفا
ضامن
تكليف
النقض
كبير،
##دس
الرجز
البكت
الخا
طعامه
تشاء
بوت
يول
العيوب
والاوزاعي
السرعة
براسه
واجل
فينظر
الاتق
لغرض
تعب
التصويت
وكله
معص
الزوجية
يتذكر
نسا
صبيا
دينك
ميزان
مكسورة
##ماثل
القدح
فينت
تسعى
ينفعه
فيمكن
صحب
المنتجات
##رونا
ستكون
دفعة
منعت
داي
والادب
والعت
والحارث
مبد
القميص
يقابل
محفو
حينها
مخاط
بالعراق
معدلات
جينا
المعنى،
الاعتدال
فبايع
مستقر
ضح
تحيض
راحة
شاس
##طس
##جوز
غنيا
اكابر
اطعام
##عهم
##جر،
العبرة
##سمت
ورع
وظن
طوا
##عنة
بالعكس
لامراته
الحفر
ليصبح
الاصناف
وقدرته
عصى
##نعت
لازمة
الفرصة
الثلاثين
خديج
مفعولا
عزله
التحلل
بموته
رواد
جانبه
العلى
مشاهدة
الوحش
محدود
دفعها
رود
جث
طبيعي
والتاريخ
##اتيح
جندي
الطريق،
جهته
مماثلة
فحل
فروى
غلبة
الجزم
تحفظ
##انبياء
نمط
لبد
يروه
تهدف
شرو
للتق
الماذون
والنهاية
وذكرت
ضده
للبل
والتعليم
تبعه
شايع
ابوك
بقين
الجناح
كز
هلم
لازما
التبع
تذكرة
بدن
يشتغل
للظ
بقتله
المحص
يواخذ
واوليك
زاوية
الشديدة
وسماه
للدين
نحوها
المجالس
المثناة
القاهرة،
الزينة
افس
المخل
نفوذ
بامراة
الالتزام
بفعله
بلاده
والفتح
الاضط
يقص
ينفرد
##سو
راها
البدايع
شاركت
والاقتصاد
رت
اسراييل،
الزيارة
نصفها
زهر
وساله
ماتوا
متحف
بيتك
مرحبا
دن
عودة
والموس
##رارية
الانتخاب
حالها
خفيفة
الهاد
تحسن
##ذرة
اسلموا
الخصايص
سو
يمتلك
كاذبا
يصبر
##جدوا
فصول
بقبض
المشر
نفعا
دجلة
وليها
مضاع
قبله،
يدها
لتحديد
المخطوطة
شاك
فاقتل
تنقل
مطابقته
لحاج
الخطوط
الشمسية
قابلة
##نسبة
الاغنياء
اضر
طرفه
المتب
يدرس
المبسوط
الاصيل
##شارد
##لندي
بلدان
##تلوا
عزة
لوحة
فوقف
مناة
وقراءة
ناه
##يرو
تعقل
عرفه
بواجب
كلوا
ثابت،
حريث
مصف
نعرفه
الوسيلة
الاوز
القشيري
ليخرج
سيفه
والميم
يومنا
واخذوا
عينها
امتداد
يملكون
للاد
##ارسال
اخرجها
لحظ
ويذهب
##لتي
وتقع
ارث
رمل
التزم
##امها
ابيك
بالصواب
بالفاء
##قيته
هناك،
كتلة
الصفقة
ممثل
القتلى
وخلع
الخار
امم
##فعوا
والدر
قدوم
ورثة
هو،
محلها
المصلى
الحاوي
قدميه
استيناف
بود
بطلاق
مستان
الاتصالات
والرواية
جواد
قمر
افواه
تتطلب
والصالح
واشتغل
الخطاب،
##رنا
الحارثي
غيبة
##يقي
بتد
والسلام،
رجل،
بخلق
المغفرة
##غفار
الظفر
مسلسل
بمقتضى
فبان
الماجشون
##وخي
بحرية
تفضيل
افلام
اختياره
يضعف
##باض
فيجعل
كتبهم
العصبي
القطن
الكرب
الايلاء
والشرح
##رته
يدخلها
الضرير
قياما
الحوت
سادس
##يسا
اقتضى
بريد
تصحيحه
غام
ويحب
تنكح
##اجز
موحدة
تدعون
للشافعي
للتجارة
فذهبت
##وذا
فيقع
وجواب
تقنية
ورجاله
استس
يقام
المتصل
ضمانه
القريبة
اصنع
وصفة
##لتك
##احات
السكوت
##ظرت
اتفقا
لقال
امكنه
راكب
الشطر
راية
اعتكاف
والبيان
عايذ
غرف
مولد
الحث
اضيف
وهد
قلوبكم
تنتقل
منازلهم
وسوف
بعدها،
تزول
سابقة
وصرف
التقسيم
تعتد
القاء
المضارع
##نود
##عكس
بدور
يشا
نايم
الاجير
جاب
المقدر
##اهيم
بالقضاء
واموالهم
والاجماع
مخرمة
يعلق
تقف
عري
والسبب
الرقم
ثقيف
تاثر
فضحك
الجارود
##فقين
يضيع
يسيل
بكرا
لوجوب
يصعد
بالعيب
##متم
قاضيا
طبقا
افرد
حاك
الحرج
الخراساني
فحمد
المشرو
يمتد
الجنان
ويضع
راء
الفني
محافظ
ضرار
##قلين
مخزوم
النعل
ويرفع
##ستي
اعوام
خالدين
وقفا
تنك
طبيعية
باطلاق
يديك
منظور
الاستغفار
##ضن
يديه،
الباقية
حايض
قرض
وسالت
واعاد
العينين
فيصلي
مثبت
يكفيه
##ذت
الحرك
اوراق
##وعظ
يحقق
بفر
الانام
يستقيم
كوس
حجرا
تقط
علمي
مظهر
##قدس
النفا
##لان
معق
##رجح
##وجهة
بسنة
صهيب
##تون
تشك
العشرين،
معدان
لسل
مقيما
الذراع
الجسر
الكوكب
ونساء
النمط
ملاحظة
مفتوح
والواجب
ابين
بحج
استطعت
كهر
##كاس
والخد
بالقبض
يتاخر
فرسا
المفتي
تختص
متلازمة
المواطنين
بسببه
سرح
##ويز
الامريك
سهام
اكلها
العصمة
اليماني
الاوايل
فلعل
باليمين
وسير
##فتهم
يبغض
##تكف
ايقاع
البلخي
مميز
##يية،
##اب،
لبون
ميدان
الامامية
الساع
يومي
امرني
اياكم
توقع
حياتها
المركزي
ممر
نصفين
##ونسي
فتاة
الارضية
يوسف،
مظاهر
ومسح
بقراءة
مستحب
زماننا
تولوا
مساء
##فصلا
ادخلوا
فهمه
الاقتصار
بجل
الاوجه
النصيحة
فاحب
واقيم
الميز
موارد
القطعة
الحواري
##طيعة
ستون
يغضب
بدرهم
يرجو
##صام
الطوسي
الصاع
عشاير
##نادق
##نجاء
رفيع
##تيال
نقاط
التيار
حكمت
وباط
##زلي
مسالت
القراض
خمرا
بعوض
الالكترونية
النقاد
##طا،
تربية
##يافة
##مادي
فمنها
بذات
الارهاب
##جاسة
##انيه
بدله
خواص
التخلص
المتوقع
ازيد
وموضع
والتر
وزر
وطول
##بيوتر
لجه
التاجر
كجزء
##متك
فالس
فاعط
##عجل
فاصبحت
والحب
والقضاء
واحتجوا
بالصبر
والجمهور
المسكين
رواحة
##نساء
فرنس
يسمون
حذا
وتبع
وصفها
##اهير
افصح
نقيض
الشم
عالي
والعالم
بولد
فانى
الروسي
وقاله
نقلها
##يبات
وبدات
ايراد
يقدح
استفهام
الاهواء
العزل
ينكح
تاء
##ماج
ورجال
##وحش
وكسرها
وترى
وتمكن
الغروب
##قارنة
المناه
الانما
الواح
الاستيلاء
وحديثه
بالاولى
البصريين
صندوق
السهل
والترك
استب
عيبا
بسوء
السو
الجريمة
يرتبط
الحماية
الاشتغال
##ساعة
اسماعيل،
##برع
قولهما
امره،
ورسله
##اقط
الممثل
درو
##لاقي
وادى
وجعلها
والدارمي
علام
فلانه
ريش
تنزيل
كانتا
مدني
مساف
سنين،
##راتي
اخذنا
بذاك
##زها
##لمين
صعصعة
##لاصة
البحت
انث
الحلية
بالنا
الجيد
يتل
الافريقي
نفيه
الدموية
الذاكرة
ادوات
##كسه
بالسي
واضحا
افندي
تساعد
##درج
مجز
كرام
محاس
والدها
اجن
ويليام
اليونان
والحاوي
حسبما
رضاه
البرتغ
##حاء
تلقي
القسامة
##كايات
السلطنة
النسيان
كو
حافظا
فياتي
بنس
امبراط
كرامة
##قش
##ياكل
##بيرات
##بل،
##طوي
ابتغاء
دوام
يفي
##فول
الخيال
للسي
الطيبة
##ياك
بالبل
الاعور
والخير
فاعرض
رييسية
هزم
الهرم
قلم
##نى،
يخطي
##ومان
الباحثين
غليظ
##ادير
الملقب
الايد
ومحا
كونهم
الصحيفة
تجتمع
خلقكم
عايشة،
واعط
يقاتلون
دح
التحفة
دفعا
ديوانه
سوي
قرطبة
الايطالية
فتلك
المسعودي
اثما
مطلقا،
ونظرا
باياتنا
والصد
فبينا
##عدين
العدول
بواحدة
التهمة
احسب
ظننت
بعم
العقوبات
للجمع
والحيوان
##رتي
منطق
المجلة
اللزوم
زمانا
##طعمه
##طفان
طالبا
ناقص
ظنا
##غله
والعامل
رابطة
كمل
يفقه
السمعاني
اراء
##ديين
التجربة
الطهور
تعبدون
وعا
المحذوف
والليث
المعادن
الالة
##يايه
القديس
الاطلاع
الغريم
##سكين
الصنعاني
اقبح
يبيعه
الاوكر
المراس
الاشعة
واسطة
الرسوم
الرياضي
ووجود
اجمالي
وفهم
والاكثر
##برهان
جاره
ضخم
لمكان
اقدر
المنهي
الايطالي
العقايد
المستشفى
الواجبات
اعمالكم
رهط
تحريمه
يتهم
السلفي
مفه
البخت
تكثر
المشترى
فتوى
فقدت
الباب،
اسوة
اختلافا
لحسن
وعليك
واعلموا
##ذرا
الصادر
اللوم
تضمنت
اشع
الباجي
بالتخفيف
مغفرة
فشهد
تنه
##اتبه
القربة
يسوغ
مكاتب
تخفي
ثلثه
عداوة
فالاولى
ذنبا
الغرر
##جزه
العامري
المرتفع
فصاعدا
ترتبط
والشراب
اشته
والشهادة
وقالا
##در،
سلمت
ماب
##رتبة
بحفظ
حلب،
وسبح
فسم
الرقي
المستمر
##زاع
##وجي
ووافقه
##صحاب
وتقل
والكذب
ببلاد
كيلو
طالت
كوريا
لزوجها
الميد
انفع
بالدعاء
لاف
اهمها
رسمية
كوا
بالرجل
##بايي
الخلق،
اللهو
يشغل
فحص
رياح
لاسباب
والملا
حرمه
موضوعة
شهور
اتبعه
الزوا
وظهور
لمصلحة
فعلي
عبادته
انشده
حنطة
جاد
الدخل
اللبنانية
لعمرو
ثناء
يصد
اعتقه
وشارك
التض
معين،
المجاهد
اقتل
##رف،
احاط
اعتمادا
تسي
خذوا
متك
وخرجت
سنوات،
فوصل
يقاس
ذاتها
الشعير
##يتنا
ملء
المكس
قدس
تطلي
جرد
يار
ويقت
الفاحشة
العافية
مسعود،
##قبله
الانصاري،
والاخبار
القه
بطال
بصحيح
خاصة،
##دير
فاسدة
بعذاب
بابل
فراشه
العاصي
خبز
استثنى
غلبت
واللا
تحالف
بحاجة
ولابي
بقولهم
مومنة
وطلحة
غاف
روز
##مارات
ببيان
للال
##عمله
ويسن
##رايها
المخصوص
محدد
فتق
بصوت
غيرها،
##وهية
اشهر،
جهم
ايس
يخدم
وغسل
الرغ
احسان
الخمسين
الكفرة
الظلمات
مراجعة
بالقر
كمس
الواعظ
##قصان
سبط
اصدرت
المنية
تدريس
وكذا،
يومنوا
##مح
الاختبار
##وضي
##باقي
موخرا
فرقا
يشد
التقنية
الخولاني
غلي
قمة
تجه
جريمة
##اف،
الواسع
الضلالة
##جيين
##اس،
لتج
مصح
تجديد
بنك
العي
تمليك
اخباره
فزع
تعز
المنورة
نافلة
##دايا
للاطفال
للفقراء
بحي
الدمع
بعتك
موضعا
وحسنه
بغل
تاما
##حبته
وحمله
##بش
تستحق
الاوامر
المذكر
المتكلمين
باحت
والزكاة
##وقوف
المدخل
الشروع
الفراق
عرفنا
تضي
توف
بايدي
بوص
والخص
تقوى
الوصايا
رغب
حايل
تعجل
##وفاء
والمسلمين
الغلط
##شتراك
استعداد
المحام
ضخمة
الداء
والحرام
تلد
القلق
كسبت
اسكن
##ركت
عرفات
ابطل
##رار،
شييين
واتوا
هلكت
نظاير
التهد
وفارق
طراز
##هرت
##كندرية
فجل
لرو
والطلاق
مقدما
##شاش
##ايش
موعد
##ولة،
فقمت
تيمم
كاذب
عفو
ليه
النايم
##فاك
جماعات
##نش
يجده
الجنون
##حمه
التتار
اقا
##حداث
وامرهم
المدل
المحس
التجاري
##طىء
امسى
##اق،
كيلا
##اجرة
يجي
دموع
الزخرف
الفضيل
المصابين
هيل
بالدي
##ماش
الغفاري
##ايتين
راسه،
مشابهة
ويويد
مولود
النفر
الصانع
والمه
فرضه
الدوام
فهلك
##طهير
يخلص
وهبت
بعتق
مولاي
حبيش
كان،
الحسيني
ونتيجة
متا
مكية
مواز
ثامن
##علومات
تقييم
المنط
اذربي
مقبولة
الدبر
روب
وسجد
يحدد
ويقدم
مثلهم
بدنة
هرمز
##لاتين
الاكتفاء
وقب
بالعربية
الضاد
مكتوبة
فيبقى
فذ
الختان
لمسا
##ضاها
يزاد
ينح
وخطب
تجنب
عميرة
موضعها
يسرق
محدودة
واطيع
واكرم
وانشدني
النهايية
يقعد
تكذب
بالقوة
ولزم
##شيح
شبع
حسنه
اضافية
غف
##عتك
وقرب
اثبته
وكلمة
زوجا
واشباه
قباء
والجهاد
##وفيت
##ستون
اسباط
##وريوس
التعظيم
الاخراج
قولكم
قريش،
التمويل
اذه
اضاء
##ولان
تراجع
احواله
بخمسة
فالواجب
بديل
##طبخ
##وضوع
سموا
تقم
مولاهم
التمهيد
العزيز،
الليبر
الجعل
التصنيف
دني
انزله
الضرايب
المعتصم
لاخذ
##قلية
بالنية
الصيني
##فلسفة
القمح
يدين
ببط
الاجمال
المالي
طبعة
##تدي
العاملة
مشر
تنعقد
والضحاك
صخرة
لظهور
ثمار
الذال
فاعلا
##ييا
جنبه
حلفت
##خري
الاحول
والاعمال
الموصول
ومعاوية
عقبه
المولد
##يتكم
وبنات
بانواع
فسالته
الصايغ
##سلت
ضياء
التفاوت
ادخلت
وتعرف
##واهم
ببيت
##نثى
يدفن
نضرة
والغل
المناسك
اليسر
ويبدو
والخمس
##راة،
ودل
قراها
نزار
يجدوا
طولا
اوامر
اخبرت
بالار
يستحقه
الايرانية
الزيلعي
الاستسقاء
ارتكب
يده،
جيشا
غافر
##كرت
ومخ
المتحف
صاحبي
الطاعون
الجزر
دقايق
فبعض
بجه
مملك
كابن
النافلة
للمتق
يكسر
الابناء
شيوخه
اشجار
تقصير
الكنز
يبصر
مارك
نيسابور
الفرح
اجنبية
الغراب
نماذج
##اتحة
اودع
راسا
والبيع
المنصب
قصي
اخذته
##راسية
##دام
داخلة
بسل
المفلس
اسرى
واسط
المفسرون
رطب
وقرات
البخل
فليقل
تلفت
الاشجعي
البرج
الحكاية
المصن
الوقود
بسهولة
مزاحم
وتبين
يتبعه
مراقبة
فحدثني
مقطوع
والفساد
##ازن
##تقاء
التحول
وكلها
الامهات
الحف
تتغير
مرتبطة
حياتهم
العتيق
موسس
##عنبي
لبل
الرحل
##يبها
بالسلام
ابحاث
يوهم
ينشا
المحققين
الجمهوري
معس
يبنى
##احا
وشعبة
وسمى
رقبته
الوعي
##وقها
سينا
والبيت
بدخول
بقراء
والباطل
مواليد
رص
نفا
##نافس
البييية
نداء
الداعية
لتت
والكفر
فافهم
نيو
##خرون
بطي
صاف
تدريج
الايق
وتلا
الماز
والنه
والهاء
درست
اجبر
والضرب
##ابن
الخاس
العيدين
توقيع
التوجيه
بعرض
صعيد
فاول
قبلنا
التعزير
يبدل
يتش
مثلا،
رييسي
فامسك
تفقه
قعود
الشوق
##هر،
قومهم
حاضت
مساكن
الفيدر
ينشد
شفعة
يظل
واعد
##ستين
امريكية
نرج
وباس
باصحاب
داف
والعدل
مازن
تموز
عطا
##طير
واللغة
بالتحريك
اثرا
##ويلات
##نفذ
##راقب
##صته
تركيز
بعدة
رقيقا
وعي
##زالي
واستع
اذنت
رجح
المار
الواجبة
##جني
وصيته
بصيرا
بامكان
##ضلة
والمسي
مكانة
##همان
##لالا
امنة
##فتان
##ميري
ساقه
الاراء
النهى
بعيرا
فتقدم
##ذكور
وقيس
الرقا
نحوا
حصار
للما
##قييد
تقاتل
الخس
يتمتع
اثنتي
##ويرية
##كها
المحمد
للحد
التامة
##واحش
ويقيم
فعد
##بابات
يهودية
باداء
جهات
طلي
الحصى
بدم
راني
اللذان
##ثت
مقعد
محلا
والاية
ازمة
خصمه
النجس
##غات
الاحق
تخصص
المختص
قيصر
الارتفاع
ادر
##صدار
فاختار
##وكول
##زوين
خطبته
الارسال
لحي
الصم
##رايق
مشروعية
اخراجه
##ارتها
مالية
باين
التعدي
يهتم
##ذاكر
الغفلة
##مانه
متاخر
سلالة
المرح
الحاق
ونح
نقط
اخرجوا
الاحتياط
الوجد
انتخاب
تسير
فرسان
شفاعة
اسهل
خزاعة
البوم
صعوبة
الاذكار
الفيروس
##شر،
ابويه
بالقيمة
تدا
التلم
صيدا
##سكي
الرهب
ورحمته
قرون
البروتستانت
شير
بالدم
يتغ
الانشطة
الغاف
يلقي
ضررا
والمكان
##لقي
الراشدين
سرعان
علمهم
والخلاف
والخلف
بالقلب
الغبار
مضافا
تدمير
حروب
مونة
المزي
مالها
بكاء
ونسبه
ضلالة
استقلال
والرحمة
ويسال
التعليمية
منفصلة
الخلوة
نسيت
حنيف
سقي
##خها
##وايته
فسدت
والغنم
الكريم،
ترتفع
انشدنا
البالغة
وسبعون
##انو
##رقه
والخوف
القانوني
زمعة
وصحح
بوقت
بدفع
ذيل
يستقر
واستعمل
فبعد
درب
عسر
##جوج
التاليف
ما،
تتزوج
مطلب
نقدا
موكدة
##خيم
يسالون
يضمنه
اتخذت
لقيه
حديقة
فراق
##ضعة
مايتين
القير
والمز
علمتم
للذ
البركات
سكون
والمساكين
لعباده
مسكينا
ونب
قلوبنا
الراحة
مواقف
مطالبة
كفره
لحصول
مختلفة،
المعقول
تحريك
واسكان
فضربه
##اريات
موظ
للارض
الاصولي
حجه
سرد
##يهقى
اخوته
اخشى
##ليو
##روهم
هنا،
##دتك
عارفا
تعجيل
خشي
الحيرة
الفخذ
جاءك
حاطب
الهدية
##وخة
ياخذون
وموس
يسيرة
لترك
سيوف
##ذبية
للجد
##ستان،
للسلطان
بالقوي
##عارف
المسو
ستيف
جشم
جوه
لبر
والعلوم
اوح
القرعة
اجتماعية
الفرسان
بنفسه،
يوحنا
مشددة
بالزنا
يوحى
##ذبهم
ندري
حمض
وتركه
فرجعت
الجري
الدرجات
واحدا،
يبلغه
ومه
##ترا
##راتهم
الباقين
خوارزم
المجوس
##نفقة
مقالات
بالعمرة
ينفقون
فداء
استيقظ
##بطت
العاقد
##طفاء
صادقين
وكشف
جودة
ذكرى
يقلب
خالصا
##لكات
فهلا
تخالف
اليتامى
شذرات
المعقود
ثنايي
ملكة
مليح
وتحقيق
بالقسط
ولادة
مقصور
اشتراك
سيق
وخاف
لانتاج
فوجدت
عفي
ولاة
والزهري
ساجدا
تعدى
الميلادي
كتابته
##كارا
يضحك
فيغ
القبيح
اخيك
وماذا
الروماني
ويسم
ونقول
فون
##قيد
القعود
مسار
##احبة
كسبه
المرب
الملف
شوبري
يعاني
بلالا
الغابة
صحتها
خاي
لليهود
الاثرية
عزي
الغداة
خالدا
للحاجة
##غلا
ينك
##صيص
السكنى
##مرة،
وقصر
##بريت
شفاع
طري
نومن
##رونات
المنير
انتظر
صير
فمعنى
للانت
وعاء
##طاكية
##طلبات
اكتسب
الكرامة
الافريقية
الحارث،
زد
اندر
وحش
المشهد
النقاش
المجالات
المواقف
سقى
المثبت
الدنانير
سات
وقدره
هيكل
يلبث
##ينك
والرع
##ادى
الضروري
عقده
يقود
##عليل
وحس
واصط
ولج
فعيل
القدرية
هادي
التقليدي
فاء
المنتج
ارتفعت
شاعرا
فباع
وارج
المغرب،
مكافحة
تسكن
المطلوبة
موصوف
ونز
جمعها
اطال
جماعة،
المقدام
للقضاء
دهر
##ماير
البصرة،
سيس
فها
##ينو
النمر
ونفي
تقليل
الايتين
##ثيق
القبط
الاستثمار
الفضيلة
طاهرا
##مارية
لدراسة
##ضاوي
##ويها
وحكاه
الشبهات
ويكنى
حفل
البو
كولوم
لوز
##جيز
الجراد
اقوم
كراء
الخبا
وارى
وناقة
ترتب
الضان
ويصير
نواس
باثبات
الرضى
الاحاد
للعامل
الارمن
اكثرها
واصلها
اتش
فالحق
مبنيا
والاثار
ويدعو
بلسانه
ذكرهما
واعادة
والكثير
الكهرباء
مركبة
##ذوا
الصخرة
الخطب
الزاد
سحب
##ريفه
واشتد
مفسدة
صواب
يشكر
##خرت
الثمانية
##وتة
ديارهم
بيوتهم
المساقاة
المحظ
سواها
بتش
اليمن،
تخبر
يوجه
معصوم
الذرية
الجودة
عقدت
الابرار
بالعقل
وسالته
قررت
##معاء
الهوية
الورع
نسبته
بناه
بالاي
الفيديو
باخر
فلب
واليمين
يوصل
الهمز
معتمر
ادعاء
الفناء
اسق
جازت
##خاطب
ويصل
##ختي
##وضاع
بالقراءة
ركعتي
##عدية
هذيل
بالغة
الزنج
يشعرون
معرب
سييات
وصوله
طلاقها
احرف
زاي
الرياء
ولحق
الحرص
صوابه
فكت
نواه
والمي
##وجر
الحديثين
اراده
باربع
وفرض
تنقضي
التعرف
فبكى
اوان
وكلم
بانك
تطا
##نكم
التعا
بيية
درع
عارف
فزعم
كالبيع
الافر
متفرقة
يجل
##وموا
التعم
الرفق
لمت
واجر
التعب
قاط
خليلا
وفسر
الثور
المقاصد
وقتلوا
الجماهير
الخبرة
##قابلة
ففر
الحذف
وقلب
ادم،
انهار
العادية
وسطه
استجابة
ادوارد
ذهبوا
دفعت
الحلفاء
##برس
وجي
الوص
لعد
##ويك
السليم
واعتبر
الجميلة
لتم
فهنا
المقب
الحلول
الرياضيات
بمحذوف
المكنون
اليما
##وحدة
ديفيد
ينق
والمجر
##وكيد
سيدها
النضير
المتعلق
لبناء
استخدامه
الملابس
وبسط
ارادته
الديانة
شريكا
مفردا
بهيمة
انتشرت
السبق
المزارع
القار
##ابة،
وقضية
بولندا
هض
الناقد
المقيد
وامها
نوره
بالغيب
خليج
##لاله
توافق
الهجري
الادارية
وعليهم
يبايع
والتمر
الاستيعاب
وتصرف
عابد
اسابيع
البحري
سفن
وهار
يتبعون
بالشفعة
شمالا
طرفا
ثقافة
##اثير
##رقت
الحرس
سيطرة
الاقارب
دستور
##شعر
نيسان
الصافات
مسقط
توصل
مملوكا
وخر
توماس
الصادقين
مفل
مسلك
المجمل
اكسيد
المنهال
الادباء
الاستقرار
المقبرة
اساسية
الالات
قالوه
الجوار
يستن
اليومية
وعام
الاستد
تبكي
نصابا
##رضة
عداه
المقابلة
شعاير
##ضعت
وبالر
تقلب
عامين
زوا
رابعا
##موح
لعلاج
الجواد
صرت
فصد
يتمثل
##ضاعف
وود
وروح
فصلوا
وارتفاع
##ابرة
يملا
المايية
ارتباط
وملايكته
ومز
وفتحها
##ابيب
الشوون
##راوي
السفلى
كابي
حقيقي
تنزي
صفقة
مبيع
والالف
والقتل
الطوا
شكا
السرخ
والاحكام
شوك
يراجع
للبخاري
##رفيه
الطراز
الاعتداء
##خارى
بهرام
تنص
الابراء
السه
سعادة
وضح
قطني
مقدرة
والتاء
العدوى
اليابانية
والشافع
##طبيق
بوز
ويكفي
المحرمة
ايرلندا
طايرات
التفضيل
اخاك
جلدة
مستعم
بمرض
استقرار
##صبة
باعادة
فتحها
الزبيري
جوايز
خباب
الاشعار
كتبا
شعير
امداد
حال،
المتعددة
الخيرية
الموضعين
البطلان
وصى
القسطنطينية
الحجرات
الصار
محرك
خزاين
فيض
الصق
للفت
يتوقع
لاعادة
##افي
هيهات
بتف
الفلاني
فاخبرته
##غرة
الميثاق
التقصير
للمتقين
مماليك
ظاهرها
ياتيهم
ضيف
والقلب
معتب
يتحول
جدع
سرت
##لنا
##طرف
##شيط
بوش
دابته
اردنا
توم
المصرف
والصوم
سمت
الحور
##غرافية
غرا
معم
اخى
الجرايم
الحوار
الدم،
الاجراءات
وباقي
وسنن
حجب
كالف
تنسب
خالصة
التعديل
فرايض
المازني
ويحكم
يلتزم
للفر
جبه
##صفور
موطن
يطلقها
الاستقبال
الخانية
استج
راجعا
السماح
غياب
هوازن
وقرر
واقرب
اضمار
قطعها
التعلق
محبوب
يخالفه
حتي
والهي
##نايه
الحط
بالجز
قدح
كالث
عهدا
نكون
##اعت
يسلك
ميلاد
فجاءه
عظمة
تحولت
##شارا
##كك
الوثايق
البوس
قصدا
الاصطلاح
نخلة
لابراهيم
##ية؛
وقط
المجرمين
تشارلز
يشاهد
كبرى
استطعتم
##ديقه
الشيوعي
والبقر
الزايدة
مسد
وحذ
##صها
##ثان
فعمل
بطرس
ياتوا
تجز
سالما
صيغ
##دايد
المركبات
زكاته
نجح
وهب،
فرف
الرصاص
##كيين
##جدة
الفايق
يركع
قود
##انغ
نايبا
الندب
يقيد
شكرا
الحسين،
##ريها
لدينا
الصيرفي
##اهي
بصيرة
والتقوى
##سما
الحادية
لامراة
ثبات
قتلا
دافع
عقول
وبق
رواة
ثمامة
بطوله
رويت
والقاسم
وغلب
بامور
تهم
الاستمتاع
عضد
اسمايه
الخبر،
وذات
فكبر
الناظم
زيار
##طش
الره
تحصي
معطوفة
##كروه
##فلحون
الكبير،
واعترض
ضحى
بعت
##يناهم
##بارهم
مراة
انسا
بجنا
المنى
السلب
تحتمل
عنهما،
الورقة
بالاك
بينت
واختيار
المورخين
قاف
##اييس
فهى
##ختصاص
حقيقية
الصليب
##جلوس
المحض
وشد
هرقل
يقرر
تسليمه
حلا
غربي
##صات
##داوي
اترك
اصابهم
فالتفت
المداين
لزوجته
ميا
اعلمه
عقدا
ليقول
يجادل
يسوع
النهضة
ونظيره
كرر
نيف
التصوف
سماها
الطيبات
صيف
الهات
يحكي
مختلفين
وانتهى
##ودان
بغيرها
المتا
بالتد
المعتقد
ايوب،
باسماء
تركي
عددها
فتوضا
والنخ
عرس
##ايا
فاضرب
البيهقى
امال
بواحد
الفردية
لحن
الرابطة
عشرة،
##علهم
فترات
المصيبة
برح
كرس
احوالهم
##ولته
مثلك
وشق
الحيل
يخطر
يخفف
ارجح
وقومه
عشرات
ثانيه
مراب
##زيرة
وعشرة
جوفه
المفض
##ونه،
صدورهم
والقسم
سمن
يراها
##سار
وتقوم
المصلين
احدنا
يدركه
سنته
المكارم
##طفي
اسنان
وحفص
بالغا
عرج
الرباط
والمض
البلدية
الذباب
ماله،
##طانة
عذرا
عدنان
المستثنى
المضادة
خيره
عظيم،
للمص
واليهود
يمل
فاجاز
مدرك
لطف
مدريد
الدكتوراه
الاسف
وبات
جلده
لنفسك
##ليلها
رومان
شين
اولا،
##هملة
اقصر
تدبر
الامور،
اللقطة
غناء
العروس
التمس
بمد
سكوت
صعود
طبيع
##ماي
وصاح
بالخروج
سقف
للي
يوقع
الركوب
ياخذها
ضبطه
جهر
زب
بالرد
اللباب
وانتق
لمثل
تغتسل
والكتابة
لاخت
ادخله
سياس
صبيح
واستمرت
الضفة
والقوة
مايكل
والقبول
ارتكاب
الاضحى
غفل
وحبس
كالمس
مصيب
##طر،
فحا
الهما
الثرى
##لتان
والحساب
بسبع
فملك
متقدم
المشروط
مكتوم
مونت
موصولة
ركبتيه
يغيب
خفية
لدلالة
ابرا
تقدمه
قع
داخلا
ويكتب
بديع
غرق
والصدقة
فجعلوا
سرج
املاء
جاءنا
بجوار
تبرع
الغمام
##ءا
##يامه
##متنع
بايديهم
عبدالملك
وايد
الفج
موتها
القتيل
القارة
##نسيق
رقعة
وعدا
وامثاله
عصام
فيرد
##وكد
خلقها
الخواص
الخضراء
تولي
مزي
##وبان
براي
سرى
##روفه
الاستبراء
تشغيل
واصاب
داري
ووجوب
ولحم
يوول
والعقاب
تفاعل
##اناة
##فيته
التنفي
الجوامع
اهله،
راسك
فادع
الصب
المعطوف
الجوانب
##يلى
الشهور
الطحا
تقويم
تاثيرا
عنبسة
بالدخول
تواجه
ويغفر
فللم
الانتصار
شف
##اقت
خلاصة
بارت
الحديدية
العاقبة
التثنية
واظهار
والعبادة
##جهيز
البلاغ
ينتقض
يوس
الاضا
مسه
محار
تشريع
ادمي
##يكية
اللقب
فيشت
ويقدر
الاحرار
كبيرة،
##نزه
##ودين
##شفيات
الفضلاء
مظل
يجهل
##عليق
تجارية
حصوله
وتنت
سفرا
التوقف
فاذ
عمدة
فنادى
الغفور
الاجمالي
لنقل
##بهت
وامتنع
اذنا
والزيادة
الثقيلة
بمساعدة
##قوبة
الموالي
المنثور
يفرغ
واسب
الخلاء
الاواخر
القزاز
للسنة
وزراء
لاستخدام
ساقطة
محدثا
المرهون
ويقتل
##طلوب
القفال
وتحد
الراغب
بالكذب
سهوا
مظنة
لحقه
لعمري
لعايشة
المراه
عامر،
العمامة
هني
لتصبح
صحبته
المقابر
العباسي
سبرة
جبير،
راد
الالاف
##رامية
ملكهم
النصرانية
ومقت
تفضل
اسلامية
الابهام
باتجاه
وبايع
##ماعه
يحبون
التمسك
بلغوا
المقالات
ابقى
النشر
الزيتون
##وفاة
وصحيح
كالد
والشراء
وحكمه
خلفا
بوجهه
الفعال
##ورو
##يتون
المنتهى
بالبين
الكتر
##ساة
التكاليف
للقيام
والسم
الحظر
لانتفاء
تخلو
محكم
فالتق
المبادي
السبي
والتخ
فمكث
وخمسون
##ويته
##شوف
الجمرة
اسفار
فاطلق
الموظ
ليبيا
فيلزمه
بندار
##اعف
الاشتراكي
صنيع
##برات
##حبة
##لافه
نعمه
الجماعة،
يخافون
يلاحظ
البصير
الناتجة
اذنيه
القصور
للبيع
الواهب
خدمته
##سلات
يعجل
ذوا
السرطان
المواطن
بالحر
##هيمن
وستون
الالبوم
وضل
##اتا
لعبت
رسوم
لمجرد
خلفهم
الثلاثي
لكانت
غنيمة
##بدة
بانفس
##ويي
سماعا
اولو
واقره
وكلهم
المشيية
فورا
بابها
ثمود
والاعمش
وغيرهما،
الصع
الحربية
ونحوهم
تواضع
رووسهم
حاص
##جته
واموال
للحرب
وسبق
المهنية
مجمل
حنيفة،
التجمع
القصيرة
##وقد
للعم
استطيع
النيابة
الغابات
بالبينة
اجتهد
تعلموا
##راهين
بموضع
لدعم
##ورون
همز
بمعروف
دواب
ورزق
للنفس
##طلاع
والحياة
السلطانية
الالكتروني
للحاكم
فلعله
المقاتل
تخف
عسكري
بينهم،
##خرية
وشه
الفتاة
والدنيا
ومض
##راجعه
الصناعات
كفل
الغزل
فلست
الكرخي
يرجح
والشرط
خبيث
للقرية
حديثة
فانكم
مرضى
المبدا
##قاض
##ريبية
باقيا
زجر
##دينا
محبته
بالاعت
فلهم
بعمر
شوون
والروم
خطط
وظيف
بسيطة
##هاره
الثبوت
البرقاني
##ثمر
حق،
بالمق
عاقلا
يطلبون
مخير
ملعب
الدنمارك
صراع
##نيك
وبلاد
للكافرين
##احظ
التناقض
##لته
##انته
فاوحى
الانقطاع
اسمعيل
يمارس
بالحاء
الروم،
يجعلون
العيني
ويفعل
فرص
##زمي
الدافع
##حيين
مارت
##سمه
فيحرم
فاغفر
يجوز،
منخفضة
وذكروا
داني
السواك
الاسماك
فلابد
الشهيرة
قاعة
والفس
الزام
يغت
جمعوا
##وثق
ذنوبه
القاهر
مالكه
لحماية
تحدد
طولها
الشت
محرز
الانساني
##قوس
فيقوم
الردى
بعشر
اكا
ستماية
مروا
والمعرفة
عربيا
الاستنجاء
ويضرب
اتاكم
##جهول
عرضها
الهامة
بخت
الثانى
للجميع
الدايمة
جلي
غريبة
التفرق
##يتة
وارتفع
صباحا
زراعة
القعنبي
السقوط
##قدمه
المعتم
طلبة
الكحول
احتلال
##قتان
حلية
مجلدات
الابعاد
الخطة
##طنبول
مراس
الانفراد
الضعيفة
وطعام
##لقين
والليلة
##فارات
فيخ
بدرجة
واجمع
البصري،
ويسقط
الجوف
##حتم
للاعت
دخولها
كريمة
عنوة
##وتو
اتانا
سبقه
تلحق
قتيلا
تعيينه
رواها
اذار
اذربيجان
ينف
للموت
##ولا،
زيادته
##صيته
تبعد
بحوالي
ملكية
##وضوح
الحليم
الستين
##راغ
مسير
الحرام،
علوا
##رطب
رون
والعرض
جهود
اظنه
للعب
##واما
اعتبرت
لحفظ
بالنساء
عجايب
والزم
والخروج
الجايزة
يحرك
الاستيناف
يفتي
##سوا
بالرب
ويحصل
لقلة
##وبها
المستعير
وانتقل
وبطل
والنصر
يمكنها
والشعير
مسكن
الاسير
##قاة
المخبر
رباع
انزال
الترم
بالشك
القليلة
سيع
المظلوم
فقولوا
اليهود،
##نين،
تلي
بينهن
##ابتداء
انبياء
وسهل
##اربها
سجوده
ترضى
وجهه،
اقامته
الجراحة
##قدا
ضمنها
##نازير
بعمرة
الوسيط
تشتمل
يضي
رواته
باعها
نفخ
دقة
ماس
يتحمل
الكتلة
##يته،
##ميزا
احوج
فسجد
خالص
تعليقا
الاستمرار
للاق
تاريخية
مثاله
بالقبول
العقلي
التشغيل
وترج
وتفقه
حجته
حاولت
بالخبر
المترجم
ووجدت
##حدا
المبكرة
باستمرار
للسل
الابطال
الخيط
بالاحت
شاءت
##وبيخ
موجبا
ليق
##طعات
ذب
عنت
بانفسهم
انتظار
للجيش
شربت
بايمان
اياتنا
والروح
##ريز
اخرهم
حسام
والسنة،
الامريكية،
المدير
##ميزان
زايدا
نادرا
لاهله
الية
فاتقوا
##فاوض
ورح
يسهل
الظاهرية
ملابس
بثلث
صايما
تتمة
العابد
فيحمل
تشخيص
##دعوة
المكتوب
##ايس
الغفار
موخر
ورش
تلعب
ريتشارد
يطيق
##نر
المساعد
تطوعا
اثرت
فشرب
نفعه
الكذاب
فاتته
شهادتهم
الحذر
باكم
ومعظم
السني
##وفت
يوفر
رسمي
الموسيقية
ندا
تدفق
عبارته
نجران
ادعت
والخط
يتضح
##سا،
فمضى
كاش
##جره
##لام،
اقبال
للحكومة
اللاه
##هارته
مباحا
الي،
تغرب
المرافق
قراه
ايديكم
##وشي
السهام
الاموات
اخوانه
بانشاء
انتشر
وبينهما
عادل
##حدون
يجت
##هباء
##امير
سرقة
البرازيل
بقلب
دكين
ناع
##غف
برض
الشاه
الرعب
اكثر،
نصلي
رطل
وايمان
##شرهم
##خلل
بالباء
الردي
متكلم
الفردوس
وفوق
تتنا
بالامس
الابتدايية
الرعية
اختصار
حاجي
الشريكين
ذمي
سرطان
يعلموا
نفلا
فمثل
الركاب
الثلج
##غيبة
الاكابر
المعدن
تتخذوا
فايد
سلمنا
مناسب
مضمومة
رزقا
##دمه
الدعا
استحب
الغلاف
الكاين
وافقه
يتعا
ووقت
##غرس
##غوط
حرام،
واكبر
حزيران
##ونين
التوالي
للشيء
فارسي
المعلى
الاولم
هق
خطه
حوايج
انعقاد
##حاف
##ورغ
بجد
##سبت
بنقل
الاكثرين
حاب
الادوات
دخلها
الدجى
واستخدام
رطبا
ياكله
سلطانا
النوادر
مات،
مجالد
فبدا
بالشر
##همات
ونور
الرماح
القرانية
ويدفع
معمر،
النهار،
القبة
##روت
بالمست
اشتمل
كميات
واشتهر
الزاوية
يريده
المسير
لقضاء
جرايم
والبصر
يعلمها
كتابنا
ويمت
كشفت
جنين
عارية
حرص
ثنتين
تقيم
لقومه
جبهة
##جاء
النسك
صاحبكم
الجزايري
تنكر
نزلنا
للقوات
والذى
##كاها
##طروا
عزا
ريحا
خلافته
كرها
صحف
متعدد
##ساطة
مشيخة
الكوفة،
فانته
فلله
##مانة
القوية
البستان
وانواع
استقام
والتل
شملت
عقر
بارد
حرس
خاش
كراع
لولده
ويوسف
الظواهر
غصن
النصراني
طمع
لبيت
##حاطة
حمده
انساب
غرر
انوار
وايم
بالبد
ينتمي
يضيق
فوقهم
واعطاه
##كلما
للدلالة
ثلاثا،
التكذيب
##ذيرا
جهلا
خدا
سيرته
ولادته
##واء،
بالتن
القلا
يعذر
استجاب
ديننا
العصر،
##ندة
باعلى
صلاها
الانجليز
الهام
بنيه
مجته
بالمنا
مسرحية
ونظم
يقتله
قسمت
##ابير
##لقا
المعالجة
السنية
الكري
تعدل
صبغ
##يمات
اندل
فكلما
بفتحتين
منبر
ابايهم
لمعرفة
##يديا
بالقل
تقارير
تاسع
الذرة
نصيبا
الوليد،
الوظيفة
تكبير
حرث
فالخ
بالعذاب
التعجب
نكح
السجد
##حميد
دونهم
يربط
كير
##وز،
الجمحي
صيانة
صديقا
رحيما
##انيف
فليراجع
لبسه
الشايع
الخيانة
##زمت
لاننا
العربي،
اولادهم
لماذا؟
تشعر
##ءوا
معلقا
اقم
الرحال
رميت
والطحاوي
ندم
نودي
واطلاق
المعظم
اللين
ووكيع
##رداد
##خذة
اصبحوا
ابصارهم
##السي
السعر
الخبث
اصفر
المحاكم
الشفق
##قاية
المحرك
وبينك
الشيء،
المطبوعة
قسط
تنفذ
مملوكة
والشعبي
بالظاهر
فحلف
عجبت
يعاد
معتد
حجج
##بينه
فلينظر
دايمة
المجني
بالحسن
تغطي
جلا
الكوم
اجسام
وفقه
##رامات
##فرقا
الاسفار
تبدل
صانع
معايير
جلست
الظاهري
وفصل
يصيبه
فراي
واستشهد
شرقا
محلة
والفروع
هشام،
طرقه
يعقلون
متعلقا
هولندا
التوسع
القرم
الطعام،
واهلها
النافع
تضل
ضحك
نفل
##ضير
كغيره
مرتفعة
الدقاق
مجي
بشراء
##بادلة
يونس،
ليتني
الرقاب
بنفي
وبحلول
بدمشق،
التنوين
باحسن
توبته
القدماء
ثار
لربه
تقنيات
والسماء
المفروضة
المعبود
مصري
الديلمي
تمشي
السوفيت
المبادرة
##ناه،
التونسي
المدنيين
حلاوة
خصم
بستان
زوجتك
الواسعة
حياء
استقال
يحس
نزوله
يصلوا
نبوة
##ضرع
منذر
##ستهم
اشكل
##رموت
جهالة
بنوع
ونش
وحجة
تايم
الرقة
الشوارع
فناء
القادة
وكانا
##وكي
البعثة
لنع
الدعاة
غلظ
##اريو
##تلر
عيناه
ممكنا
الظالمون
الجهالة
المركبة
ايهم
##فعلها
مبكر
##عقاع
بالاية
للور
الضحايا
##هاه
التاريخي
هين
فيقت
ابق
النحاة
اثرها
حملته
ربعي
شرطة
##بعا
بكفر
برلين
وربك
الاوعية
للماء
ولدي
وشمال
بريت
وعليكم
منعها
والاجتماعية
هاب
وهرب
مخصوصة
لمنا
بحاله
مدبر
والقى
نجاحا
تقال
لتد
يستجيب
بالمكان
تناوله
##غين
العادات
السوف
##ومل
يقبله
وعلا،
وبشكل
ظهرا
قراب
المودة
لانفس
معجمه
المعارك
واخذه
مرتب
الكميت
بيديه
اهلية
المقار
زور
المحلى
امراتي
بالفارسية
للرك
اسلف
تبرا
##مار،
ارتحل
معلقة
التصحيح
زك
يعرفها
داعية
مندوب
وزنه
سبعماية
مانعا
##بوط
الاولون
واصح
تمتع
وهارون
بالرك
نفسها،
مقرا
الحكومات
وافتى
خشبة
وهلك
المشاريع
لياخذ
##خلهم
##كميل
والحنا
خلون
التقارير
كاينا
قسما
بنور
الخم
صدري
صنعة
ايلول
ثغر
##روء
الزجر
اتقى
المحاس
سريعة
وابعد
وكيفية
يشركون
نسل
وايام
محاولات
للامة
واعوذ
##فنه
##وني،
السويس
اوحي
للتص
بادر
متاخ
سالوا
يشهدون
العطش
عير
وقفه
وسام
ويقبل
نصرة
وكمال
لقتال
##انة،
البذر
شاذان
وسلام
معروف،
باجرة
##وهم،
والبع
فاخبرني
غدر
ففى
وفساد
بالسر
ظلمات
الحواس
ضخ
مقات
##رام،
##يقين
عسكره
معجزة
والصل
وانى
##داقة
ياثم
الملل
فرانسيس
قيرا
المماثلة
امتك
شره
مشاريع
اقتراح
المزارعة
ابعث
لهي
واتباعه
السكينة
يدفعه
ومرا
وينزل
فسل
عليه؛
بالمسجد
والظلم
##مامها
فصاح
والخامس
ووجب
##عتي
يحجب
والاقامة
والجار
اللبس
الرايحة
استهلاك
لوم
منصوص
انجيل
##اعى
بدونه
دعايه
تاه
بقيد
تفاصيل
تغيرت
تقديمه
دبليو
بصفات
عملي
وعبادة
ومنت
وثانيها
المناعة
محيي
يته
##برك
##عاش
الموجبة
التنفيذي
توت
##حج
الزبر
مثالا
المجته
يخير
مدنية
طاووس
الكلابي
يال
##تك،
القاضي،
والاستق
كمر
ردوا
طلبوا
للامم
لبابة
سيتم
تنزيه
المفروض
قاتله
فكن
الثريا
العبر
يتخلف
الفعل،
اينما
مفصل
جزييا
فسمعت
فتنا
مضل
##ضايع
ابوها
##وكالة
ارشاد
وظهرت
الشها
الثعلبي
جيب
الانتشار
وزيرا
وتصل
شخصيات
##دارات
بغية
للحال
صلاتي
التدخل
اوكر
السرى
بردا
نعمته
قصرت
##خوله
وعندهما
الصناعي
التزويج
التحديد
للاشارة
اعتراف
للحج
تزعم
جذب
##ذاذ
##ريكا
بالبناء
لرا
بالحجارة
نادرة
هال
اباك
##ياطة
القوم،
الخالص
##لايا
السط
##بتان
افراده
ايار
الزمان،
##ضات
فعليك
للمبالغة
فجيت
واخراج
بواسط
هاي
ينقلب
##ظره
علمها
يعترف
##ليفة،
روض
##خاير
ماريا
واقتصر
طالما
فافعل
عوده
##عز
انفاق
الجاري
##تهاب
وكتبه
##مثل
فجاة
##ظير
عنان
فالمس
تنقطع
يطيع
فحسن
العقد،
مصنفه
النوافل
الورا
يستاذن
##غيان
مجتهد
فست
احبه
ذكره،
تليها
بعدهما
يبالي
كفوا
والبغوي
الاذاعة
مدته
بمنع
مامون
البهيمة
الاصبع
ومولده
المضمون
##اجا
##كسار
##بديل
سلمه
العصبة
خويل
يوذ
طلبها
للمومن
الاستخبارات
ظالما
##لايه
وذي
منصور،
التواضع
تعظيما
الطبر
يسمي
عبادك
والدة
التفاضل
فاذكر
والمخ
اليك،
القدوم
باتباع
نطفة
يمكنهم
احسنت
ورضي
غريبا
##باشرة
##خلة
ومعاذ
شهدا
احاديثه
##اسا
المعرض
تفعلوا
بدءا
وباع
وعلما
غذا
##اهده
ضروري
يستحيل
الاستجابة
الازمة
العسر
انهى
اعجاز
جلود
وزوجته
الثمانين
فساده
خليلي
ياسين
##كيه
للحياة
الحيلة
تطهير
التعبد
لدرجة
انكره
بيناه
لدن
الصباغ
دروس
ونج
شرعه
##ادف
المساحة
مفيدة
المرد
العسقلاني
اجتهاده
مورخ
وتصح
يستفاد
افيد
وشهر
والفض
مركزا
والسين
التمليك
قتالا
الفه
البسي
واستولى
الفعلية
مفيد
##ناعه
##برغ
الرمح
##هارا
السخا
السفيه
البطي
الابوين
##باحث
معدن
تقديرا
المبد
الممد
العشيرة
يحتاجون
بقط
وجمهور
بينته
بالنكاح
الاجناس
المقرر
الممل
##دينة،
خلقهم
ديك
وفعله
وصحة
مجانا
اضحى
رقي
شيبة،
وبذل
والنكاح
الاحبار
وضاح
يان
ويلك
فتكلم
لشيخ
نخرج
##ظرا
والعي
تغني
بعثني
الحسد
تنتشر
نصارى
لايم
القلة
##سل،
موافقا
##اذان
##افة،
يطل
وقيام
استغنى
الحلواني
خرب
فوض
التمام
اهواء
ومعهم
قهر
امينا
##موهم
الجهود
الاشتراكية
##عك
متط
للعبادة
ويلزمه
جسمه
الماضي،
للحر
نايبه
لاثبات
##ياطي
به؛
اللولو
وصلا
شراح
##اعي،
تدعم
المثلي
مشهورا
الصدي
فرضت
##غانستان
احمل
النيران
تعال
موسيقى
واقف
لشركة
الخبير
فبد
لضرورة
الضيق
واجد
ولدته
##نعا
##صفح
خالية
يمان
وتضم
##عاذة
بهد
باخراج
الغايط
##زقه
##نايي
##ضيب
وارثه
تتمتع
الالهي
هديه
رفضت
الجريري
البينات
##ضايا
الابل،
الاضرار
الاهم
والكت
يقوى
##وقوا
##وذن
المواهب
اكبر،
ترابا
صديقه
##يناء
##ها؟
والسب
الكنى
يله
لوك
اتجه
كريما
المومنات
اوسط
##كمان
يفيده
سورية
الاسبان
السهمي
المبتاع
القصار
##اهرة،
##رقوا
اعتمر
الكوا
المصايب
نعلمه
مجددا
وخروج
##لقوا
قو
بادي
صحح
الذكاء
منافق
##ينهم
تعليمه
وحاصل
والامت
وشت
اجراءات
##افيا
فانشد
الاصفر
تسميته
العظيم،
خشيت
التخطيط
العابدين
الحليفة
التقويم
##بغى
##رايية
كراه
فالامر
غندر
الخصال
تشبيها
البان
لعلك
الاستحباب
##تيان
المثلية
اخواننا
##هاض
سواله
سجدتين
طبر
##ضوب
تتكلم
تحمله
رين
العير
الثبات
وعالم
باحدهما
واستدلوا
##جيات
معقول
للمد
هالك
وثالثها
##ثن
الاسلامي،
بالشهادة
التقا
استاج
اجناس
سواء،
علاوة
حرير
بالتي
والنصب
الوجه،
الاعمش،
النخيل
عشيرة
ثلثي
سها
والامة
تفري
##ابرات
وتحمل
خلقك
العميل
العضوية
العباب
فخطب
سراقة
تفرقوا
كوب
مسيح
مستانف
بعثة
اختلافهم
##كوت
والبحث
وتظهر
يوميا
يختلفون
جوزيف
الاستحسان
والقل
انهن
شربه
##ريطة
المنفرد
اصبر
السرخسي
فعم
البديع
بعيب
موسسات
##حنث
بخر
جاري
ينجس
سهو
بامت
جرب
المراكز
علقت
وحقيقة
الوافر
الارجح
##لازم
بالنب
تزداد
الفجر،
وقضاء
اقطاع
خفف
اجلها
الاحتفال
وقوف
وهدى
الهزيمة
الافطار
##رهيب
منفع
اشير
المستهلك
تطورت
شكلت
غانم
فقات
مشتركا
جيوش
نشاء
##ندى
قتلته
وضمن
الرياضة
استخراج
ليك
بالتوبة
وشرحه
يوص
والاسود
بايعه
الالتفات
اقتضاه
افترض
المراحل
بهز
لوح
عناية
والريح
العوفي
اصوله
ذوو
بنوا
الشج
العايد
مقصوده
قيس،
امرة
المحاسن
ديته
شارح
يندب
خيف
الصفر
واثار
وطاعة
يتيمم
المسور
الاكوع
داعي
ينز
فكسر
النصيب
احتياطا
وانح
يعالج
ذريته
ويبين
الطلق
نوعين
فيهم،
وقبله
تدريجيا
##انق
الاظ
##لمس
انفصل
مصدق
واطلقهما
شابا
بالانت
##اسات
تتحرك
قبولها
تكشف
رمح
وسيد
تبعث
##فنون
الزوجات
امتثال
تغل
##حشاء
اللاحقة
باض
الشيعي
ربى
##نبط
اعتباره
بشرح
الغوث
موصولا
كتم
العتي
سارة
مصلح
##سلية
الاستيفاء
التذكير
جميلا
ترث
المحمود
خصي
لعا
منك،
فخل
الحريق
وليل
يعفو
فرده
وتجب
استفاد
املاك
الضالين
تفضي
موجبة
علته
الرها
قدمها
الشهادات
ساعدة
ويحل
ظلال
للوصول
##وتك
بالمغرب
##يفي
لادم
##شتاين
امثالهم
السبا
ياايها
يعترض
يهوديا
الفيزيا
##لندية
والقد
ويطلب
المتحدث
مقعده
القاسم،
التلفزي
وخالفه
خضراء
مولفات
نافع،
وتاخير
##يرى
الصغر
الدلو
##طفال،
الدار،
منخفض
ابيت
القاطع
##شيت
الدفن
الغرفة
##زيغ
وشعر
مساكين
والسيد
لجعل
والاخلاق
قضاة
تاكلوا
واية
الحبر
##وفون
تجده
ويدع
جدد
فخرجوا
سلطانه
ترس
متحرك
اهلها،
بطعام
يداه
والطريق
الحطب
والاعراض
بالرق
ونهب
دمر
##رفته
تظن
لانشاء
بعهد
مسكر
والوج
معتمد
استخرج
غضون
لجا
مذكر
القابلة
فنعم
فرجها
وعجز
شعور
بالعبادة
الافاضة
الخ،
المحتار
الكاذب
غضبه
راق
غب
الميكاني
باشر
يوذي
يملكها
بدو
يحتسب
ضمت
##جرت
فيص
فعرض
البلد،
نبيهم
الاسطول
ونوى
يغشى
الفاط
انشيت
اشارت
لقيته
صرا
ادام
التلفزيون
##وزون
وصور
انزلناه
عالمية
##فيظ
بالتس
البسط
تعبر
نلت
بتسليم
الامي
للقا
وصورة
تجلى
زنج
وصر
عقولهم
بالاندلس
متفاوت
صاحبة
ابتاع
المكرمة
ابره
اجده
البيضاوي
المعاصرة
ادفع
حجرة
المحاربي
الارثوذكسية
حكمته
العباس،
ياج
متهم
عياله
قصب
##غاث
اجابت
الراحم
والخز
واسماء
ازهر
اليمني
المنف
##رعات
العلامات
##فاها
بحل
يتعذر
جرج
وريح
والبس
تبنى
بموا
القديمة،
##شيه
عيسى،
الخلل
اون
ءامنوا
الاطعام
التور
##طارات
يختم
يوتر
##ديمي
الرزاق،
شماله
##يعاد
الاسرى
المصرية،
التخصص
ولابن
المسماة
منهاج
والدته
العمى
تلقاء
الدبلوما
انتصار
عملك
##اكنة
والثناء
والصالحين
##فعية
بصاحب
والاموال
وقلبه
غيبته
كغير
ليحيى
التكوين
والايمة
واسال
مرات،
بروية
وذهبت
##طالب
##ذع
بالفر
الطباع
الاسانيد
المستعان
المودب
عبدوس
ينع
جراء
##زات
النك
##عبان
شديدا،
اتبعوا
شباط
##وفرة
وشرع
طهرت
فلير
نستطيع
##ايرة
الادم
فقيه،
ينسى
الغرق
ضعفا
العدوان
المبكر
وعزاه
ميك
##ومون
يحاسب
وانتهت
فوادي
قضاعة
والولايات
ركوع
جهله
هتلر
التقط
وهذان
##اييد
بعمله
مجاهد،
العراقيين
المخدرات
واعم
وتغير
حدد
الشيوعية
لايات
متف
عاليا
لاقامة
يخضع
ولهما
واجتماع
اسيرا
المنظر
الحيات
المصي
الجنسين
والمجتمع
تراض
نمت
##طرق
والاظهر
تتج
لعبده
لحل
الاشتقاق
غالبية
نكت
##او
التلبية
السبيعي
ويجري
يسميه
واليك
هذه،
توسع
تتعرض
وليد
راض
الاعتاق
##ادن
اجور
حكام
وكتبت
واحضر
تابوا
ورجح
##نابة
للعلماء
موسرا
همدان
السحرة
لنس
طوبى
لوجب
منهي
مستند
السعد
ايصال
نجعل
تكفي
##قيان
احداها
والاخذ
تغطية
##ايين
فردا
بخي
تربة
منصرف
فعالية
السختي
نوحا
خبث
ولكنا
##طيين
بالتعاون
فليصل
واثلة
الساعي
يجامع
والاقرب
الرقاشي
تيقن
كاث
##ء،
القيود
سني
قاري
##ماخ
الفزع
بعضنا
##نتاج
واسعا
ووعد
##ارين
##ياها
الفا،
قلته
حلو
واشهر
وضمها
والعديد
##ذ،
الكراء
موالي
يتكلمون
متاب
وبينكم
البيع،
التكفير
وجنوب
محصن
المشكل
الحضانة
تعليقه
دبي
مطابقة
##مرقندي
الساعدي
والمث
فلذا
السابق،
الشاهدين
وحف
تتجاوز
فسق
الفارسية
تظلم
الالزام
وايوب
يلزمها
حيي
محلية
لغو
فاشترى
تجل
كمثله
البنوك
##ماض
واضرب
فاجعل
التوحيد،
كاتبه
يقاب
والزوج
##ياخ
الناطق
والصيام
السفلي
العاد
اغا
جنسيا
المكث
وظلم
الصهيوني
احداهن
تمرا
تعاون
تزايد
القصب
يتردد
ومب
ونصه
##فاهم
رجم
الزنى
واستد
موضعين
مخرجا
تربط
ثنية
قرق
ملب
بالمومنين
مخاض
منظومة
مشايخنا
للعالمين
وسد
ولق
بخراسان
ذكرناها
وافقت
رييسهم
وبالرغم
تطع
الدارين
الفسق
تامين
تكاليف
وغر
##ونا،
منصبه
والمجنون
بيعت
المولفين
لبعضهم
##عدة،
##افير
والجمال
الاوقاف
الثغر
قلع
فعالة
نصراني
تابعا
هاما
واقاموا
##راب،
بشران
برف
سرب
الاقال
يعا
تشارك
اثباته
عاقلة
استغلال
##رابعة
برضا
اصابها
وتعت
المخاطر
وضوءه
الحرارية
التمكن
##بيته
وسورة
ينفسخ
والعامة
سيفا
وري
بالما
##فايدة
##جاهات
تقتلوا
العك
جنيه
شفي
وخمسماية،
بالزيادة
النكرة
##واترة
##جعله
قايله
سوط
طلا
عتب
لقط
##وليا
البشرة
وترد
وجوابه
قبورهم
##راجح
ويتبع
ماخوذة
تحيط
سارية
غازي
همه
النقود
البحتري
عامدا
حققت
الخلاص
بيده،
توسيع
اخرا
بالاخرة
تخلي
الجزايرية
المشكلات
##غوب
الكناية
والمشتري
اثارة
تنشا
والقراءة
اوها
يستند
بيقين
السادة
الصندوق
انكاره
شاطي
الصلاتين
لكثير
##فاعلات
زعمت
الدير
يستفيد
جرحه
المعايير
الموجودات
البحيرة
عروة،
صدقات
المقدمات
وافاد
##ضاد
ابقاء
يقض
حدثا
اللغوية
ملاحظ
##اول
يعص
نظمه
##سق
المحارم
الباق
فخذه
تبادل
##جة،
والطي
تفهم
والكاف
يحملون
بالاز
##ويش
الاغراض
باحدى
الساحة
##حدد
للقتال
باحكام
##كرمة،
وسج
##قدوا
ولغ
يتكرر
الاستفتاء
جانبي
ممدود
بعدا
اجلا
البروتين
ياتيك
##يهني
وابلغ
كفيه
شركا
##اعرة
باصل
بتم
وياكل
##سفية
ابالي
##كرا
بنيسابور
لاطلاق
الكور
المحبوب
بطر
والمرسل
ينفخ
خيرا،
معتق
##رافات
السريعة
الكفاءة
شقي
فيروز
الجزييات
##اتمة
ومقتضى
توضيح
البزازية
لعدد
##طعم
##ريمه
حيضها
اغلاق
فحصل
##بيبة
##بعاث
بحجر
مناسك
طوعا
اوثق
المنايا
خطوات
لنفسي
يتد
روايتين
للمالك
تجارب
عشره
لبقاء
##زاير
فنظرت
يذكروا
الهمام
##لظ
ويكثر
ونسي
متقارب
رخ
وكيله
يبسط
دمع
فيثبت
موذن
تتحدث
والثلاثون
غنية
كاره
احلف
عملهم
اقاموا
البعيدة
سودة
والمام
##رجت
لقوة
وستة
غاد
لملك
##زيق
مكارم
اكتساب
حلقه
دولية
البث
واعرض
مرداس
والفقهاء
بحمل
التفرقة
امرىء
والجزاء
نفعل
التحديث
بالصحة
الاقليمية
النواة
ويضم
اكذب
المجادلة
##يثار
عظيمة،
مشيية
امساك
خطيية
الرات
والعربية
بحثه
يخرجوا
اعدايه
للمال
حرز
الجاحظ
ولام
اتفقت
يصعب
لولو
والخلق
صوب
الطايفتين
الحاف
الضخم
ركعتان
المدرس
الطلاق،
والتحقيق
ارط
بفرض
التسلسل
معسكر
بليل
تشابه
وبعضه
##لميذه
تظل
##رسول
وبص
حضره
اياد
يوفق
القعقاع
معامل
المستقلة
##خدمه
خده
المغناطيسي
السفل
خازم
الصخور
المتهم
##صفى
##جبت
المعالم
المفيد
يظنون
مهاج
ميوية
##رافي
##رافة
ابنك
ومعها
تخضع
نجيب
رماه
الضب
نبيكم
كفن
فيليب
تسوية
سرور
للثاني
عقال
ومغني
مطال
انقلاب
##زويني
والجبال
فالحكم
ويشبه
البارد
ظهير
انخفض
اسواق
يعنون
الزن
قتالهم
الحاشية
وقتله
يطير
الاستقامة
جويرية
واحل
النبا
تنبيها
##ذنوب
ثوابه
الايج
المتشابه
تركز
هاذا
الولاة
ووافق
خراش
ذباب
كاه
دواد
##مز
تعالي
حلقات
الكناني
مناكير
تلب
بتمامه
الروياني
تيار
الاخيار
خاتمة
كليا
بقص
موصول
باطنا
النهدي
والمصنف
فيف
للعلوم
المرجح
شدد
العتب
ليون
المفتوح
##قوت
##فوف
الهجر
واطيعوا
الرط
الفلب
الغليظ
مصدقا
الفلسطينيين
المتوسطة
القول،
واخبار
وصلة
وجمال
بالمثل
كتبنا
بالحم
يبال
افقه
افك
ذاتية
ايدينا
الاتفاقية
المتظاهر
حاصله
لود
ملكي
الاقالة
كفت
والوليد
شرعت
حظه
ونظير
ذها
##وحد
والالت
يتوصل
حرب،
نقصت
بصرى
غيث
النقاط
اسطنبول
حمرة
فضاء
يغرم
ولعب
الاختلاط
اولادكم
قاصدا
الاكسجين
بالقص
والتب
بيدك
تحزن
فاتحة
بدوره
والجميع
تكفير
المغربية
بثوب
الشافعى
الجذع
الضابط
بصدق
##غها
انفقت
النمسا
##ماتها
الصمت
الغساني
اعينهم
فيحتاج
بيته،
##ذيبه
الحميري
انشات
##قس
##وجها
الحجج
الافات
##طانية،
اهالي
واستخلف
باختصار
الثيب
ضرورية
الموالاة
صفي
القرظي
انتفى
فوقعت
باقامة
يقتلون
وواحد
بمثلها
ووهب
بالاه
فيروس
الحزم
الكعبين
الواضحة
##التهم
فادعى
الفكرية
فيقتل
القناع
بالجمع
ويستخدم
امثالها
##ذهبي
يهدف
ترو
اخلاص
متناه
الغض
نعوذ
باقرار
يشر
التكنولوجيا
الكيمياء
وتابع
##طاها
لعلمه
عيينة،
الخت
تصحيف
الذهبية
يسمونه
حولا
الامدي
قرره
الكمبيوتر
ومثلها
##جرا
المغير
وصفهم
وفرس
باكستان
افمن
البدء
السفهاء
المظالم
##ستا
وسق
بالرجال
المشاعر
يمينك
تولد
خفاء
راوه
والخيل
المبارك،
ويقطع
ومشي
عقلي
الشيطان،
نيوز
الانسجة
ينكرون
الصنايع
اوف
اعان
للحسن
للفعل
وتطوير
غبار
##صاله
الموثر
تقدم،
##دهم
اشق
سهلة
ندبا
لخمس
الانثيين
ويات
المفقود
انطاكية
الاستعداد
فسمي
الفتيات
واحر
لقيام
الصلبة
لطيفة
الاختلافات
شيوخنا
صريحة
الموظفين
السياس
بعبادة
الوراث
انتخب
الضخمة
الابدان
تهمة
##مروا
وشرف
رصد
مكره
##قيط
تجيء
بالمص
المقنع
المكسيك
تلخيص
فيعلم
باينا
اشترك
انبت
وتث
كونوا
خفاف
##كرمه
بدلالة
رمت
الاساليب
الضبط
الضامن
المقربين
امامهم
معدود
والدعوة
##خون
المنجم
للموس
التهديد
لنبيه
يناد
اثقل
والبزار
مخلوقة
الحاسوب
الغلو
بيبرس
العادي
ملحق
##ويه،
الاغذية
تمرة
امورا
الغلة
وامس
الارز
ويشير
##حاس
السمرقندي
تكلفة
بالجيم
حكيما
فوه
##مهم
والشرك
يكفيك
صمت
اللذة
المدعو
واكد
بخروج
العارض
ادل
تبني
الحسب
نسك
بالجامع
مذهبهم
الاوت
واحاديث
وتشت
فهزم
القضاء،
اخبرهم
معا،
ستا
فكلم
يحذف
وخارج
الامنية
الطاغوت
كاتبا
كرو
الحز
للجنة
الناصري
يدرى
شعرها
كاي
بالوجه
اعلم،
لدع
حدثتني
وفيات
الحموي
تخفى
الروساء
شبرمة
تلاوة
عمك
واعلن
فقامت
ينفك
المرش
شرعيا
ناقته
خويلد
خبيب
##رافا
وتمر
##اقم
خلاله
شاملة
وتفرق
وصنع
ييس
الاعدام
للتد
وسمعته
الفرنسيين
##وما،
اتحد
للنظر
جناب
انقل
معسرا
ووصفه
رضع
يتزوجها
##ضارات
يدعوه
ورايه
وحاج
##زدلفة
رستم
##اوف
ومهما
الاسود،
الاهواز
وضي
الممر
اجنب
##فايه
للشمس
مسيلمة
لارت
وسافر
##اح،
وابنا
لتعلم
تقتضيه
##تز
بحقوق
ذبحه
اشعة
الاعجاز
جيران
جراحة
ويراد
وتحدث
والمومنات
البروج
ملام
وقيمة
السمس
عدوان
استبدال
كمع
التشديد
لامته
فناد
##ونى
للتش
حمي
##يي،
##بج
الممن
مسعدة
مصير
##عينه
ازواجا
لاك
ويضمن
##يسيا
دينه،
حادي
اللاعبين
بنون
والربيع
تثبيت
لثبوت
كيت
للولايات
وعامة
والحجة
الكتب،
يقدرون
اللواتي
اخبرناه
يناقض
الاعلى،
ماه
مسندا
بالمغ
المحلوف
مطبعة
اوغ
##افية،
الاحتراز
العبسي
بحبل
المتصلة
ارشد
والخلاصة
فارس،
يقتص
##سامح
تفرض
الغام
##يناك
المجن
النكاح،
ورحم
واصلاح
مذهبنا
عتيبة
تتمثل
الهذيل
البالغين
كاع
هيد
المستعمل
تشد
والديه
تكملة
اكف
صداقها
ميقات
اشتملت
مخطوط
القرط
##نجس
استعادة
الخفيفة
النماذج
وتذكر
المعمر
التنوخي
المنتقى
مقصودا
اللبناني
اوجبه
وطنية
والوس
اقطار
##فقون
عيوب
##ضبط
##نوية
ولوا
وعامر
صفرة
وتركت
##خلية
##دادا
قانع
##لفا
##داح
المعينة
الغربية،
بطاعة
اشتر
فلحق
قبضة
المستح
##وريين
واليد
فهرب
والافضل
اركب
وانشا
##بلسي
الطعم
##اثيرات
المطهر
المفترض
تبديل
ستي
ايكم
وكلامه
خير،
مرادا
القادمة
##بكة
وعذاب
الجاهلية،
غطفان
لنب
الانكلي
حاضرة
التراويح
تطي
فاث
سمعتم
وشاهد
للتك
كرهت
كبي
##ثية
##افعة
وطالب
مكتوبا
المقاطعة
##والدين
والعقد
البرتغال
والحنابلة
والرو
العبارات
وعتق
يتسع
الاشارات
بالصوم
ذاهب
ترام
##سوخ
والره
وبقوله
لوصف
الوفد
اوى
##ادته
بون
لافت
وادرك
المقتدر
يامرهم
لبنها
##شها
##شفة
##وازي
السقط
الشيوع
بشهر
يكتفي
وتعظيم
الزل
بنعم
والمعد
الوثي
اختلاط
##قيقته
التحذير
بذنب
بوب
عسل
فراه
اوتر
بقليل
سفين
هبت
##ظري
الرتبة
فانني
وجا
ومنعه
الموسيقي
##سوم
الممالك
ابدل
الايضاح
لمرض
التبرع
الفيزياء
##موه
دليله
فمش
الوه
الاماء
##نتا
محركة
تغيب
لزمته
كالصلاة
الابا
والاختلاف
وجدها
الجندي
واكثرهم
بتب
شرايط
وتوق
والمصدر
تخلق
دمج
افاض
##ورن
رباط
لارج
ابعاد
للعهد
بناها
مفتي
بالراي
النرويج
المعجزات
الشايعة
فوث
الصبغ
استوفى
##تابك
ويحفظ
ادعو
العضلات
معارك
بروتين
بلوغه
الادميين
المتابعة
ليصل
وحن
للاتحاد
ابيح
الطر
مختلفا
تجهيز
شعي
واوص
##عارا
فالاق
بحثا
فلماذا
##ينيين
تهب
##نظر
خاليا
اغاني
سديد
فباي
##بهات
الصحبة
المسرحية
والهر
##رادات
قتلى
الراهب
والرف
الصادرة
##وقات
الاتحادية
التغي
ضيع
##جبا
باللام
الدولا
فاثبت
زوجي
فاخذها
##لم،
اموت
متشابه
وطيب
بمعرفة
فند
فالقى
واستطاع
والدال
مرتبط
الثقيل
القبيل
بقرينة
تحي
يضيف
##دعة
##صايم
تناز
غرار
وسبعة
##ايية،
ينطلق
الكامنة
الصنعة
##ظان
ولابد
عيال
مقداره
الوفيات
##برق
##فيس
كالاج
يردها
المخلوقين
##ذذ
##ريبي
كبيع
يحز
يزرع
لزوال
وماية،
وسالم
يصاب
متعة
اختراع
خاله
باهله
منطلق
بالحد
ولقوله
معاوضة
انطلقت
##يروز
ويصبح
يبس
ونادى
الفط
وسعى
المكاتبة
لفقد
لسب
##هم؛
المعق
يحذر
قلبت
غضبا
تستمر
وقبول
وصلي
عقار
##شميهني
لتعذر
والجر
الجين
يتلو
وحاصله
المستم
الكهربايي
بالديار
ويومن
الحالين
ضامنا
##مارا
بكف
عمى
فكذب
برياسة
##بيلية
الكلاسيكية
تركة
سيدة
هواء
##قصاء
الاردنية
ثدي
الحزام
السياسات
وانف
بمكة،
مقيدا
خطا،
وفضله
غلة
##اقها
الاخطاء
الحجرة
تحاول
السيادة
المدثر
عرفها
بنفسك
سمرقند
والسلطان
متش
يسي
جلسة
انباء
عجوز
يباشر
الزيات
##راتين
الهجمات
تهامة
البكتيريا
المراجع
##كررة
وبري
##ثره
بالشراء
مجهولا
بالفاظ
##باطا
فتل
قلناه
المحدود
عاشر
زريق
##طانا
باقراره
المهندس
بنصب
وبحث
بالمراة
برايه
قرع
مفعل
عطاء،
فصر
يقتضى
خلص
والواقع
وتستخدم
اعطيته
واقعا
##قاوة
بدعم
##ورثته
##ملوا
مشرف
الاتمام
المفردات
ا،
نوبة
للايمان
##تقاد
##فلون
وغاية
التغذية
واغت
للمض
قبضها
فادرك
النحويين
ناجية
تسن
خاس
الفواحش
ويحدث
الضباط
المعتضد
يدعوهم
ينفعهم
الباحثون
بالرجوع
وتوفى
ينشر
ضربين
الهرب
وجدتم
مكون
##ماق
انقطعت
الجايز
##رج،
فاكت
فتش
وحلق
العمود
الذكرى
الموجر
قاتلوا
والتفسير
قوايم
عريض
نومه
بنعمة
ونهاية
كثيرون
ابتلي
الجماعية
الخشوع
اعبدوا
جبهته
فتك
تتالف
معظمها
ننظر
خثيم
يتقون
سمعا
يطرح
لدخول
اخراجها
الموحدين
والوز
التكلم
الشارب
يسرع
سترة
تهديد
تطل
ضرا
##برون
عدت
الساحر
لتقديم
البكال
معلما
الشوكاني
لسيده
فيحصل
ضاب
نواب
لايق
الهض
##شدد
المخابرات
الاشر
السيرا
##وجبه
يضلل
التشريعية
وند
لضمان
لقت
وقضي
التزا
والراي
استراتيجية
اثنتان
اوحينا
سويس
البشر،
صاب
فته
اقامت
اثبتت
مستانفة
تجلس
هت
للفاعل
متس
بلفظه
اقتصادية
وتسعماية
ضب
القادم
##المين
المحصنات
نذرت
الذيل
##عاها
يحافظ
الاستراتيجية
بدر،
مناقشة
بى
لخص
##لاند
فيديو
اشرب
##زعات
بيوتكم
منقول
ووقعت
المزا
برزة
شبة
غراب
ادهم
للحزب
السماك
شايعة
جموع
ظله
صاحبه،
##ذته
خزانة
##حده
وانعم
وجواز
ثلاثتهم
يبذل
ومعت
الازمنة
المشددة
الاشربة
جنوبا
ظهوره
بذكره
عتي
كيميا
الفقه،
جواهر
يارسول
بنشر
يعادل
استحسانا
فشي
الغزاة
والاذن
فعندما
بسيف
بثقة
لظاهر
الشحم
البور
مولفاته
حسا
وختم
التجا
القسط
المكفول
الدب
##غاف
الاصفه
مضمر
بالمسلمين
الصوتية
شرايع
وصلاح
اقرع
الفقرة
يجزه
اكراه
التعذيب
خلوا
الحاضرين
اكمال
القزويني
النبت
اسعار
والصلاح
التها
والشجر
المذم
القاص
والطير
يودى
البسملة
حارب
المونث
##عد،
الثقل
يسد
كادت
العقيقة
التغيرات
تعاني
انهاء
اغار
##انيته
وبنا
والنور
المقبل
تقريبا،
لوازم
العقل،
انبيا
المنكر،
سكة
سفل
الخوار
وعكسه
الراسم
تغلي
طلاقه
الجمار
باكل
##جميل
ويروي
للدفاع
اليقظة
والاكرام
بالعود
تاريخها
##غد
اقرت
بالدليل
##وريات
باني
سواك
التصرفات
الندم
سلما
الامد
البرلم
بناحية
منتق
الفحم
##ايبة
اعدل
الفوارس
عايدا
نهايي
بمصر،
يظلمون
##الية،
تتن
التخلي
المفسر
نصل
واليمن
##يلت
تتوقف
فسكون
نواة
الاغتسال
لرسوله
بنتيجة
بمص
دارت
اقتداء
صدقوا
ترعى
اسيلة
المعاهد
اتباعا
يومها
وصدر
##غيظ
بطرق
ويشرب
تمكنت
الارتباط
##ءون
##رايا
بسورة
قتلها
وينهى
الثلثين
القايلون
فاهل
المشبه
النظريات
طوى
المذا
يتراوح
والكسر
جابر،
وادع
والمنت
ثلثماية
تاجر
البضايع
##طعنا
ثقيل
المناصب
الباردة
ابوا
هو؟
يتلقى
المعص
##واتيم
وجهت
والحجر
الماجستير
ارف
الملق
للنب
المغل
للحفاظ
سكنى
ترع
خراب
وطنه
والنسايى
السجستاني
دعاة
التوصل
##هاهم
يعلو
مفض
##داها
##يفة،
الاوليين
سوءا
ارايتم
حضرته
اعلاها
##عتان
ارن
رقية
ظهرها
توفيق
منتج
الواقع،
ماجد
يستقل
بدينه
عقا
لتب
الميدان
مجهولة
بقيمته
يوشك
والحزن
سحابة
الثاء
فتست
والقصر
جعلناه
سكنت
هجمات
شرار
##دات
الساج
عذابه
الحار
##ريحة
البطر
مصنع
وبينما
فصيح
الكونية
تركنا
ربه،
تحقيقا
والعباس
للتن
اشتري
يكتبون
منسوخة
اتع
والاشت
والكبر
يقبضه
الاضطرابات
ملحوظ
جوي
##فالات
##ديا
الدنيوية
جوع
معذ
استواء
المناق
لامكان
فوجهان
لنفسه،
مذب
يتقي
السياحة
نتاج
الممتنع
توكد
الاحاطة
الاسعار
تكسر
نجدة
والمجرور
افساد
الحمرة
والمثل
احسبه
الحجة،
قط،
فحضر
وتبقى
اكاديمية
الداع
خيانة
والمفعول
الامداد
وفقد
##واتهم
المراتب
عاف
انتفع
لكلام
الوقاية
فورد
الكيس
تتحقق
يقلل
بظهور
محقق
المستنصر
للشخص
اراض
صوا
غربت
الخبيثة
الدهن
المناقب
ركاب
القيسي
##يادته
قانونية
بالطعام
المصدق
دخله
كاهل
الوقعة
للمشركين
بالجر
ويجاب
متفرق
بولي
تعطيل
بازاء
تتناول
التعارض
وافع
لمجلس
وكقوله
مهت
##قاها
##رايين
القتال،
اعتقاده
بالاعمال
الارجنتين
المظهر
البضع
الانفصال
يسوق
المصري،
بفاتحة
غطاء
المسالتين
خطيرة
جزييات
الساعات
وتوجد
والمقت
اضرار
مورد
موجلا
البسيطة
وبث
فطرة
اسفر
بالنذر
المخطوطات
طفلا
التوزيع
استعار
المستمع
تفريط
تدر
،و
خوان
النسل
وبكل
يحارب
فحين
يتعامل
مستمرة
المولفة
تقصر
خبرة
والغضب
وثمانية
ومدينة
##سلوا
المقداد
وكاتب
وتمام
انهيار
##قتك
مخففة
الاكثرون
ففرق
فامن
واوصى
ومشى
رجعة
ماكولا
جمه
منامه
بالاسم
المتعلم
والحل
اصحابها
بالقيام
الكوفيون
##اييا
بالسجود
المضمر
الاستعارة
##كرير
خلفاء
ويسجد
الجدول
التطبيقات
السخاوي
يرس
اخرجاه
والبناء
الخلقة
المهمات
التخلف
وسيا
البطل
ويفرق
فاجر
يوم،
اعادته
المشاركين
يبيح
##شيد
##فح
كهيل
النواحي
مراجع
وانقطع
اجساد
مهج
اهتدى
اغراض
النظرة
عورته
مميزة
البنا
ويفت
الفنانين
لسبب
##نغ
اللذات
ورسم
فرغت
طلحة،
الفتح،
السلبية
ولرسوله
ينكره
وحول
وتحريم
فكون
متاعا
الكرك
ارو
للرب
##حاباة
الاعصاب
والنجوم
معتبرة
خطايا
وحقوق
##دهور
للمجتمع
تنح
رايا
بريرة
الاقاليم
انقلب
لاداء
الفريد
الخرق
ابتدع
مومل
يرع
يورد
يحلق
فليكن
الدعوات
التطبيق
للعديد
عاهد
كليهما
اصلا،
فرحا
الشامية
والفرس
السجدتين
الجينات
##لاثة
فانهزم
للمعت
زمنه
فمال
صرحوا
تضمنه
واسمها
##كيت
منهما،
فاحشة
المتط
سعدا
نكاحه
دمي
شات
والسدي
##عرية
اليوناني
الاستعانة
بمحل
والسعي
وربيعة
وفايدة
لمدينة
فالف
الخلط
مهرها
انكروا
تقص
تشرب
##فارس
واتبعوا
لوضع
خلفها
يثاب
يسري
بشروط
ظرفا
ليز
تاخذه
الفوت
اغلق
يغر
عودته
ثقي
سيرا
لحر
##نية،
واليت
معذور
يتوكل
جهينة
صهي
كتيبة
اسلحة
يندفع
مهام
##ظما
التوسل
##وفين
بجزء
يشترك
صياغة
والنبات
المتضمن
جاءتهم
مشاعر
نهض
التشخيص
جريج،
وحميد
نابل
الاوط
والافعال
الشف
##صبغ
المهاجرون
تحلل
للشيطان
الجلالة
واثناء
رفيق
مفارقة
فبطل
غزوان
بتحريم
الاستفادة
اهدي
قايدا
منتجات
اقارب
الموث
مويد
يلتمس
فاعتبر
بحضور
الفضل،
التونس
الف،
بيضة
والجهل
والجماع
لرفع
تنتمي
##نشاق
وتاتي
مذموم
فوجده
كاز
فيرى
مناص
يبط
وللت
اتيته
##ضاض
حاتم،
نستعين
للمرء
فتزوج
الالية
جريان
تعالوا
المذهب،
الخدم
بتخفيف
تجن
والثلث
موقت
العنوان
كنف
احاد
تسبيح
الاكراد
للجنس
كبرت
يتسبب
مصب
الظهر،
المنطقة،
فعلته
مكات
نافعا
الممارسة
اولى،
##ويية
دخلنا
واوجب
الحاد
اخوك
والحرب
الصغاني
ذالك
انصاف
التست
عدوهم
انقضى
##كبرون
##ذوذ
وتامل
تخي
الثوري،
شهادات
الاطار
##طرون
يكرهه
طهمان
وافض
اطلقه
باطل،
مباريات
اكتفى
المنخفضة
اعمالها
بعموم
قدروا
نظر،
السختياني
نان
اسست
فتوجه
يسكت
خلدون
نوادر
يقوي
ولات
الاخطل
وعرضه
وبالاضافة
##سيل
التواتر
الضحك
منعك
اجبار
بحب
رحمك
جدول
اوروبا،
ذهل
المحراب
##لاتهم
جنون
مخصص
السبل
المسيول
##صرهم
لجاز
مسافرا
لنف
يرمى
وجرح
صفراء
الفضايية
ويبطل
الوثيقة
سيدا
صنعه
موضوعا
عفوا
##لكان
##اجيل
الباطلة
ترجعون
والها
استنادا
متت
يدافع
المسبب
ملجا
هايلة
حزنا
ادن
جانبا
يتالف
خارجية
المقتضي
واشرف
وشرعا
تمنى
والابل
ثمانون
السابقة،
تخلص
##وايات
لتطوير
##يكة،
بالتوحيد
البختري
وجيزة
للورثة
وبالك
##اصمة
##راهن
المحددة
ببلد
اعرابيا
فصي
يحصى
التاريخ،
##سس
المدني،
حفظها
راجعون
الكونغرس
الاهمية
ابله
كلمته
##ذاة
##روبة
##جهز
ت،
ميث
##راضا
وبلا
احترام
يقيمون
الثوار
متزوج
هذي
##وضى
حيثما
اللتين
ارباع
هدفا
الزعيم
الاوكرانية
##رقية
الاستماع
ودخول
للعين
متخ
للمسي
تجميع
رحله
مجلسا
وزوجها
التصور
##زل،
ممثلة
ببغداد،
عشت
قضت
فنز
الكليات
تكلموا
وكيع،
يلقب
يرمون
شافع
ناتي
وطبق
فيضمن
والمسجد
المعبد
مضرة
فاعبد
مضمونة
##شور
يعقب
##لقاه
متقد
المستق
العمدة
مسموع
واخيه
حياته،
اخلف
اليزاب
اتسع
الاطلسي
باري
الذاريات
##والها
الراحلة
مروي
واعتمد
والمسالة
وانطلق
اخبرك
تدخلوا
مظلمة
مستحقا
حفرة
الشخصي
ليدخل
اضا
تبي
الشقص
المعهود
والخطاب
هديا
نذكره
##قليد
اهو
قطرة
يتقرب
بسا
والكا
ابكي
##ونكم
##حمود
الالوهية
المثلثة
المختلفة،
العثمانيين
ومساحتها
قرضا
السق
ينطبق
والاثر
فاعجب
##ذلل
والاصول
انضمت
ظلمه
لموس
موط
نسايهم
يزن
الضياء
ويلت
مودة
##صنة
المواقيت
سباق
مخطط
حبال
ضار
##خوا
فاخر
غيركم
نسبا
اجزايه
##بيط
الاعين
المنافسة
حسبي
فاتخذ
البدا
احلام
الاشباه
اجازه
العضد
فيسقط
المذنب
الهاتف
##قلها
المعدوم
السنا
وهبه
الظهير
فصالح
زياد،
والاتحاد
المزع
امية،
ليسا
انتفاع
اهتم
ملازم
لاربع
دفنه
##بيون
##فعها
بحقه
والبعض
بعص
يجرى
##بيري
ظني
الغيرة
افغانستان
المليح
##مايم
الكوثر
##صارى،
استعارة
والاشارة
يهتدي
تفسيرا
فنع
الطوال
للملايكة
مهنا
الكردي
ليتم
فضيلته
##ميت
الدجاج
تنقض
الشرك،
باصبهان
المقطوع
قيده
مكونة
الابه
##اجد،
الزه
يدعيه
القدر،
والنظم
بالعبد
نفقتها
للعرب
النسبية
بنظام
للمك
لعنه
كماله
##حض
القنية
ينحر
البيتين
لكما
حرمته
نافذ
مسجده
المستن
##طالبة
تكمل
مذا
##قييم
متاعه
فجرى
معانيه
تمثال
قصدت
مجيد
رجلا،
قلبا
نجسا
نظرنا
رابعة
ماشيا
وحض
وطرق
لبنا
وتابعه
والمومنون
كفاءة
والشيء
ولازم
وبالف
موسكو
فرش
يصح،
كساء
يسالونك
المازري
لحا
يسل
مفاتيح
يجتهد
تحبون
البربر
الاحجار
الثالث،
ويقضي
##بابه
حواء
ذروة
شبل
مراك
الاوضاع
الخضوع
يحزن
المصد
الباشا
افة
خاب
فراجعه
ايماء
وجرت
محطات
##رابطة
فاستع
مبشر
اعدا
سجدا
وذك
مخاطب
ارضى
غايته
الموضحة
##شاكل
التصانيف
فغسل
ناقصة
جريح
مفار
يطلبه
المبيت
ينبه
##قاومة
مستقيما
والحالة
لطول
اليابس
اذهبوا
انية
وابل
وعروة
##فعا
##رافية
متوسطة
يخوض
لجماعة
امواله
للبشر
تذكرون
كندة
تشترط
الكويتي
توسط
وثان
تره
وطلق
##وراة
اجري
والنع
غرايب
واداء
ساحر
ماز
للبحث
مستقلا
متضمن
فلسفة
فخاف
قليلا،
القادسية
زان
##ومهم
مقياس
وحصلت
السوفيتية
كهيية
واتفقوا
باحاديث
المعاصر
جذع
والقي
##ليان
انت؟
بجنس
تانيث
السرة
الكاهن
فانتم
عمق
سول
ندع
كاحد
طبعا
السقف
امثاله
##يبس
##مانا
انتقاد
الحيضة
اضطرابات
تحا
زبد
فرات
امه،
زهد
قهرا
صاحبك
صبروا
##هدة
الجدد
الخاف
ونظام
وازالة
المسافرين
حاكما
يخبره
تنتظر
الجبل،
تله
##ليته
واوضح
التمار
##موما
بمنطقة
ارسلان
الرفاع
وحيا
البقعة
تواجد
فني
الشجاعة
فتجب
بدايع
اثلاث
واسمع
##سلها
التامل
القوت
وشهادة
والانصاف
زوجه
ممس
الدروس
##تبوا
الاحساس
يابى
بالبينات
قصايد
انماط
كسرت
الوب
##ايرات
##ايتها
بعذر
والمومنين
المتمردين
عقايد
##لاعب
السامي
والاط
المحيل
ومعا
نبوته
بكونها
مريد
مني،
استل
المشاة
فمنع
عشاء
الاغر
والحمل
وساعد
ونهر
الادبي
مصدرية
دهن
فبا
اميل
المجتهدين
فالى
بالتراب
حضرموت
خصلة
يفيض
##سح
الميا
ابشر
للمحرم
لعظم
الحريري
الواحدي
سراح
بالهاء
فليم
##ناهى
زوجها،
والمعتمد
الانصار،
ككل
نراه
فتوح
معينة،
الغرور
الفها
محاربة
مصلى
جعلهم
الحرز
تاكيدا
السقي
وعت
اقاربه
يسته
رهنه
وعزل
الاعذار
وردا
واطعم
الصعود
بسلام
المحلل
ولسان
ومفهوم
مساحتها
اولادها
فغلب
يرعى
والرضا
القيوم
والسير
وجوهكم
مماثل
##اشع
وتوس
##حتك
فحفظ
وسطها
باسلام
يفقد
سمك
وتسعون
طويلة،
مظلم
واعلى
العدو،
نشهد
##اسق
بغتة
##كافحة
وحمد
يزني
##يك،
الباطنة
نصره
اجرته
بجر
وخبره
المطار
الدراسية
ليظهر
ويشمل
العبادة،
النقدية
اوجد
الغدر
رويناه
الهند،
داعش
المعماري
وابقى
وغضب
يشتد
افترى
يثرب
النهج
ابوي
الغش
##ولادة
النفوذ
فزارة
يرجون
ملخصا
اسات
قلد
والعجب
نفيل
ينافيه
##رشح
ثالثها
فاتيته
هنييا
تذبح
جيء
فيعتبر
الوغى
سمعان
الاعمال،
فشلت
السكك
بجير
الجوزاء
العجوز
مغم
العايل
فاصل
##اجع
ووع
كظهر
وزم
##سة،
بالاشارة
تستطع
عايلته
الرص
##ضيحة
صفحات
صدقته
التوقيع
الاوطار
ضحايا
وموت
ينبغى
وجزء
والمالك
الاملاك
اصحابك
يطرد
الحافظ،
الانتباه
للفظ
والجنة
ضياع
##جنون
ناقصا
رياء
##والى
اجتمعا
ورتب
فيذهب
##يدون
##راية
##يبين
عامله
نصرانيا
وستماية،
بظلم
ايتها
وبيس
بوك
وعهد
بالاذن
يذكرها
الجهال
المهام
فازت
قلبه،
ضاح
الحدا
بهامش
تايل
فليص
القدوس
وصفته
يكرهون
المبطل
##اليون
لبست
حواشي
والضلال
وبالغ
كافيا
قميصه
ثوابا
همة
التوازن
البشارة
سليمة
سلطنة
رايك
لقيط
جبراييل
الغذايي
##المة
##يتو
متجه
المروءة
يثير
وكبير
##ايت
يمشون
يغطي
اقوالهم
صلاحه
الابدال
##روش
افضى
ودنيا
بشهاد
والعتق
معجز
فاقل
احجار
باخبار
سمة
قصره
مطي
بقرية
واسد
##ودى
لعثمان
حجره
للامير
الكيميايي
قه
##خلات
الفحص
امضى
كلبا
##اجاة
اشتكى
التقنيات
فاسال
الخلود
يتحدثون
بورت
خولة
زبر
والرجال
وخوف
بالتمر
وقوعها
مقصورة
كلمه
يي
بخد
نصبه
خلية
ينبي
مجاوز
القرينة
يصليها
فاخذوا
السقاء
مناخ
مطبوع
##فاخر
انشطة
جيشه
والرجوع
المتحركة
##وعد
والاعلام
##زعوا
الشعرية
ابوابها
الفاكهة
طوي
عفيف
##كتات
تاخيره
فحكمه
بالعم
والاستع
النسيج
##حدين
تتوفر
النصرة
يوافقه
تصر
المكرم
الجمر
ومخت
اشباه
لتغ
ابايه
بالشعر
وثمانون
اللحظة
يترب
انتج
##بب
والطا
ماوه
##ومته
المعراج
التحية
بركات
##اقان
##اجه
قلما
راو
نصح
لنظام
تريدون
والجامع
اصلية
التقرب
حله
العتاب
الخرط
استعمالها
لوقوع
للاث
##ظمات
والهدى
##ريخ
يعامل
وتصد
ليعمل
كالر
مالكها
المضطر
يثني
مشروعا
##باش
بدقة
بالثاني
اكثره
موجة
خبي
صان
يتلى
استحل
تنته
الظاهر،
والرض
والصبيان
تبعهم
بنكاح
الربط
المسالك
يحكى
بتج
مشيرا
جملتها
بالوحي
منظر
الكيفية
والساد
الخاصة،
شياطين
ضيا
بحقيقة
سببها
والمحبة
مخالفته
مذكورة
الافتتاح
للخبر
يستدعي
الحشرات
مقابر
والنقل
##وثي
يفترض
اشبهه
خفتم
تعميم
المسالة،
وحص
فالغ
وشريك
وعرفت
الفهري
الدموع
واجمعوا
الاقبال
شعوب
مغفل
الافرنج
والمنع
طريقين
المهند
عالميا
فامرهم
المنسوب
فيكت
السالك
الشمايل
بمدرسة
فصلا
##بدال
والمف
شعاع
غضبان
متساوية
الفايز
الخنثى
##بتنا
فتامله
مقيدة
برماوي
الحمير
##ارقة
الادعاء
بيتر
يتناوله
المقارنة
بمل
شبابة
موف
فتج
##وعود
ربيعة،
صلاتك
قوله،
اشارات
المادي
رايتك
حكومية
الحدوث
لخلق
بارسال
عور
مكا
للمولى
معبود
هدبة
##لاحا
مضارع
حضوره
الحام
قحطان
##رايه
الرووس
والتسليم
##بات،
بكلية
يربوع
ببع
رقيقة
ويث
يتمنى
تجدد
الفرعية
شارب
التتابع
ينوب
المعنيين
##يشة
بعضا،
الدواير
لاغراض
الغرة
ومايتين،
ليج
لتخ
صاحبنا
المخاط
لقولهم
ويقل
مالم
باسقاط
تبدي
القضايية
وليعلم
عتقت
مسوولية
##مايهم
وادم
السباق
وماجوج
مخلصا
قربه
شيد
بنجاح
والمثبت
مضطرب
استعمله
نذره
المعم
فلزم
بدينار
عاجز
وللب
المسابقة
ودية
اعمارهم
فديك
اختل
الانباء
معانيها
خسارة
##داده
والصفة
خرقة
بخمسين
فتعين
تقارب
المستشار
وفاز
المعلمين
بفضله
الراحمين
##ثرا
لاية
ويسر
وبج
ونزلت
المحجور
فلقيه
##غاله
انغ
السكين
الديك
بعشرين
وبحر
توصف
اسلم،
حنبل،
ومسجد
##واتا
والمعاصي
اعناقهم
##ذاني
الرباني
للوجوب
بك،
كاشف
سميث
اوسق
اعملوا
ترف
دمت
التواب
التقاليد
كالان
المغنى
تفوق
مباحث
المصابيح
الغيظ
نسيان
وعمله
الانقلاب
اليزابيث
زرق
نايما
##نان،
اليمنية
ونك
##ضرته
تنوع
##ضاءة
المدار
مرش
زيادتي
ظنوا
القرارات
كلتا
لته
الاء
##ارثة
الاهلي
كالمت
تدارك
ركوعه
النوعين
وازد
الطابع
المعاف
فسيل
يدوم
##فنا
واستغ
خالدون
رعيته
علينا،
الضرورية
موعظة
هون
ديون
الورم
واهلك
اغتيال
ثلاثي
العلية
حفظت
غدوة
والوصية
اخرت
الغطاء
افهم
هولاء،
نهيه
##وتن
واحدتها
يستعين
ودعم
اصابك
الكبرى،
مركبات
مالك؟
فعلة
بالحجر
الايراني
منته
المميزة
ماكس
الداين
فقتلوا
اثواب
واحكم
قسمان
المروذي
يكفرون
الملاح
##ليفه
##نيب
وتسلم
الرجيم
تكلمت
بمرو
ففت
بالمدرسة
بيروت،
تضمين
ينسخ
الاعا
##رحيل
والصاد
##حوش
عمامة
تنافي
السماوية
الاخيرة،
محتاجا
الاستيذان
صلحا
طولون
زمنا
طابع
الثغور
مرضا
العنبر
اشتهرت
جوية
النوبة
فتحة
المفاهيم
##انيت
##حاصل
عمومه
يتاثر
جدعان
##بني
الاودي
##وحيده
والرعاية
فرسخ
حماس
فحق
هيب
وليام
الاميركية
وقولوا
للمق
والطيب
للكفار
وللح
ممكنة
المسبوق
##دتها
##ذبة
وبغير
تنال
تمي
فرمى
نكر
للخروج
##نفية
ساكنا
انفقوا
سفه
##حاها
موثر
والحس
بالحجاز
خايف
وافعال
المتاحة
##اريين
تحص
هناد
بجايزة
باستعمال
الربيع،
والاقرار
اسفله
تعقلون
##ثة،
السمان
وسعة
##ضيض
الجديد،
والمسلمون
واذكروا
##ايد
البنين
##لفون
تعلقت
الانتقام
سيتي
لديك
##مينة
التصدق
كتابات
الاحبة
هممت
ينازع
شهادتهما
مقبلا
مارتن
صنم
ننت
##يعوا
يزور
مضمونا
اعطاها
##يها،
بالصد
ليعرف
والله،
حالية
زايدة،
وانضم
وطوها
سدس
بتقوى
وبخاصة
طبعه
##راقه
بند
بالباب
فاغت
الحقبة
القابل
حقه،
وناد
حدثهم
جنادة
المسوولين
العذب
وتوا
عليما
ادبر
البقية
مهلك
بارز
درك
بجعل
بنايه
مفردة
##اقفة
عوضه
بوجوه
الاصدار
##رجيح
غيرهم،
حربا
طبية
ابلا
السنتهم
الدلال
الطواري
المساء
اجمال
##هن،
الشهرة
الميلاد،
##مط
الحراري
الشجاع
الانذار
وصبر
ثنايية
والكتب
المقاتلة
روحي
الانبياء،
لوال
##هيج
الخمر،
نابليون
مشروعة
انقاذ
##ساعد
وثب
درة
لولي
يما
##لاعه
يديها
والسكون
غرضه
واعيد
##انيوم
تقبض
##جبال
##بانة
المجتمع،
الصورتين
لعلى
معار
الرخ
استثنا
##خلال
اسمعه
##سور
وسيف
اسلاف
وعمار
الشرعية،
لعمرك
ساه
##تفع
والثواب
فسلمت
الجرم
ويختلف
منظمات
والفي
كاله
ازار
ثلثا
الاضداد
وبحسب
الميث
الفصح
##سران
الواحد،
القسري
دماغ
وهاجر
خيال
حقل
حميم
عاشت
لنا،
طريقها
لنحو
قومه،
جدته
سواهم
الساكنين
كاج
المحليين
تدعي
وينقص
عادوا
افتراض
البز
تعطى
##قدمت
الفاسي
صبيحة
يوجبه
فبه
ناش
خياط
##ضج
##ضيت
مترو
للموا
المقصد
الخلد
رشيدي
المخصص
الانك
ينظم
حيوية
تستر
ونحوه،
اضي
معمول
وفات
مدلول
الرداء
يقولها
بشيء،
بالخلافة
المتف
الهموم
وللع
##رفي
الرباع
وتركوا
غفرت
محفوظة
النقاب
فعلنا
فعلوه
يفكر
ولدك
حران
الزوجان
فبما
بولس
##شلونة
اهتماما
المراقبة
الايو
##يمتها
بعيره
واقرا
جنازته
فكلوا
بالعتق
فوجدته
الهولندي
ذرو
##ووي
القواد
بعرف
يصور
فعل،
##واهي
حفظا
اجرهم
حفاظ
الفك
الاختصار
ساهمت
التنفيذية
زاذان
للمريض
قتله،
تشا
للتعليم
الياباني
##طط
البها
قانوني
ويحسن
صوابا
ووهم
##ليم
الديات
##بلت
وقدمت
يثق
لاقل
انهزم
الوقايع
الملعب
مبي
نيران
وساء
للقر
##كلين
وتعمل
المكذبين
رضاع
ساس
الامعاء
ومف
المحكوم
الكعبة،
بالثلث
الخطوة
وتعقب
جاووا
اندلاع
##ادب
الصابرين
والمحدث
بانق
المنفصل
كتابك
##مرها
##فسق
قبل،
##زا،
خصص
والاخلاص
الارقام
##حتي
لازالة
غذاء
عندهم،
يجاهد
والشاهد
والغرب
اشرت
ولعن
متبر
فلس
تجرى
تتابع
##ميل
والسوال
الحجامة
المهرجان
المحتملة
بالصدق
الغيوب
##سموا
##داب
ينصح
##نعيم
والانق
ينتشر
الاغلبية
المرادي
المخلصين
وباء
اظفار
غفورا
##وزه
والمختار
اقمت
العجايب
والبرد
هبط
يطي
وقفة
الكافية
فاذهب
اعجاب
##اشية
المعترض
باطنه
باختياره
متوال
المهت
تيسير
زنت
للتم
##ضمون
##اذى
اولهما
يتصف
نقصه
وسلطان
الطحاوى
##خراج
والرفع
##وسه
ومقاتل
المشاهدة
##زايم
خطيبا
يدبر
##وابق
المنادي
باتت
غرنا
اسلامي
ورمى
بالوطء
نصيحة
بوم
##ثهم
والوعيد
تعريفه
للبلاد
لادارة
سطر
تصوم
تكفر
عجرة
الرقمية
ظهورها
تيس
وسطا
##رجاع
يعول
كالط
تمث
##صباء
خلقه،
فرنسا،
المون
ويتق
سيطر
الفع
وكي
اعطوا
الجهاد،
فلكل
حجا
فيقدم
باليوم
للصايم
ونوع
##باته
طيف
الزحف
يبول
الاحص
الحيوي
وبالنسبة
عصابة
موكدا
##بنا
القراني
واجت
والهبة
فجلست
فصدق
علم،
اقتضاء
عصاه
الكسوة
نهب
##لوك
وحما
الفعلي
اديب
ظواهر
##عاذ
فتصير
ضعفاء
مزارع
الحجاج،
ايقاف
تذك
##صوبة
##ثها
الصقر
الافك
##ستن
##زلوا
ويتع
بوادي
اللغة،
المعجزة
جبة
متبا
هارون،
مدة،
##ميرا
فتخ
تتقون
القاذف
بالمقارنة
صحراء
المعروفين
منزلته
بالطاعة
##صدقاء
الخطايا
وزعموا
ووه
النازية
يستخرج
الظباء
والنسب
كاذبة
منكرة
##قاطه
والشكر
القدوة
السفر،
يتبعها
اللاهوت
لموت
بلخ
البدنية
قصيدته
الحسية
المعدنية
عفان،
مفسد
##مرون
ابنتي
فالد
المطيع
جرير،
الاشتر
المحمول
جامعا
الملام
الفوات
يقولان
والارادة
الحجري
فنسب
الجرمي
حريم
واكمل
الغدة
يدعم
الاماني
افادة
يرثه
ويعطي
ومحله
تصانيف
واللبن
كتابه،
##قبال
##مسا
نوعه
بارزة
الهيدروجين
شعرة
اغنياء
نقش
البقاع
صيفي
نرجو
يستثنى
السكران
مبلغا
فارجع
عراق
فتد
احسنوا
فرجه
يدخلوا
وههنا
توضح
دنياه
##طته
المية
لمجموعة
بدورها
دخان
بالفت
واحدى
واسراييل
بعثنا
يفعلوا
##مارسة
اسراف
تتصل
##ضمض
الهلالي
المعتمدة
لخدمة
يعفى
بكتابة
قعر
السرح
المحور
واخلاق
حور
طوق
##زنا
الهدايا
##ياحة
وتخصيص
دونك
الالواح
يشاركه
المراسيل
قشر
##يموس
صدقا
الحاجات
##وادي
المتعاقد
باضافة
الاجري
بشبهة
صلبه
مخصصة
يعظ
صدام
ظبي
للبد
للزوجة
المعني
المتوفي
يحط
تكس
الميس
##ارقه
ومركز
##هاجرين
ظهورهم
الحديقة
رقة
نعي
##نط
##بيهات
الانزال
سمعها
المحصول
مصاد
واخرين
جسما
لاهلها
ياجوج
سيك
عمة
غابت
فريقا
السكة
اعض
الازهار
استحسن
شجاعا
للمسجد
شيكا
وكانها
مصباح
والبعد
النصح
الفهر
##بحه
تاسس
الرية
وتعلق
تبليغ
لاجتماع
ابدى
العهود
بقبول
نوعية
براون
عنترة
جحر
برحمته
حبذا
الكمية
الذهلي
جذور
يقنع
وجبل
##حيت
##عمرات
الرف
للوكيل
##ذهان
تكف
وطرد
بالقتال
الناشر
والقصد
يطمع
القدمين
بمسجد
واولاده
قمع
بلدا
محصور
تجعلوا
الكوفى
حسد
للنظام
الديباج
الهدنة
الجوايز
عويم
بالشرع
##دادي،
##كانة
اجرت
مهنة
فصاروا
المقطع
##اييات
لتف
هوية
والصح
ارح
بطاقة
شتم
اللف
فيتم
تمكين
كرهه
القنوات
بالسل
اعلا
بسام
الاستهلاك
##زاه
تقوية
بنته
وقعد
ساعة،
نفرا
منصوبا
##طفية
معاشر
لنبي
للعلاج
فاصبر
فاحضر
افا
مبس
والتغ
فشق
مكروها
محدثة
صلاتكم
علقه
الغرف
تفقد
##صرفه
الدراوردي
بوضوح
وابناء
سياسات
ياف
##ياجات
ورفض
منفرد
للغة
##وقراط
وفاطمة
ببني
الجديدة،
فروخ
دوي
له؛
ادرى
تعتق
يشكو
والصحة
##ونسون
الحاكمة
بيدها
والنخعي
حيل
قفل
بشخص
انفسهم،
ياخذوا
فاسقا
والكرم
##وبون
مقدمات
عظمت
المرفق
يهاجر
انقص
##جل،
والايات
فدفن
عادية
نشرها
غربا
الاندلس،
ايجابية
والمعتزلة
كط
داوود
المغاربة
##صيبه
البريطانيين
الحضرية
ونعوذ
اخيها
النسوة
خطورة
كسوة
صعبة
المروة
والميزان
وتتم
والعذاب
المحدد
للحم
الحاضرة
سيلت
التمرد
الدستورية
علقة
وهزم
الخفاف
الوطي
وتعرض
تطيب
حسناته
لاسيما
النعام
##لقون
عمري
نقصا
بسطام
اختر
##شاور
جهز
هبته
الهمة
جندل
يذم
##رايح
اغلبية
الثلاثة،
مرافق
العاجز
الغزي
انتصر
تقدموا
بالنصف
بكلمات
واربعماية،
##غرافيا
شريط
فيسب
##ركة،
ادوا
اللول
محارم
##اكس
تعلمه
والاستغفار
الحنظ
نفق
يركز
النقب
الشقيق
انتقض
لرج
بالمنع
الفروض
وتمامه
الناقص
والقوا
مروان،
فدخلوا
بحديثه
عكرمة،
كنه
اشكو
وحبيب
يرخص
الغلبة
ريد
اخترت
ستره
الديلم
كرسي
لدا
اوضاع
البنيان
خطابا
الخصوم
##اسير
نفير
للحافظ
لسانك
الفاظه
توليد
بوين
الخدي
##سيين
جنت
شبهه
يايها
##عمري
##رطبة
وددت
سالني
حظا
ذكاة
بالضرب
المعاص
امران
وثايق
التنوع
وصفنا
الصحفي
قبلها،
المحمدية
التنب
الكشميهني
##رق،
واقفا
والكف
للطاقة
الالحاد
للشر
##شا،
فكانها
لحركة
فابوا
وانزلنا
يتك
الباك
ضمنا
بله
الراحل
وذكرنا
الثقافات
الالفية
عابدين
خبا
لقطع
التكملة
مسابقة
والحافظ
رجعيا
الاستعمارية
والاقتصادية
خيرة
عجيبة
للخير
المنخفض
تاول
##ابهة
بالفضل
##ارون
يعرج
والغالب
بالاسكندرية
وصاروا
واللي
واهد
الزند
الموكد
والسياسية
وداع
##زايدة
السليمة
جليلة
فرقد
الكسرة
##برج
للجماعة
واشترط
الاديم
والباب
الغصن
يستوفي
وزع
يضبط
##غارا
المريخ
فيعت
اوقف
نوبل
الجامعي
فمسح
ديل
فيعمل
العلق
ونجد
تميم،
انعمت
رحلته
واسن
الانطا
المتبادر
مشد
اقتر
المكلفين
دلالته
##حالة
##نتج
زوجتي
مضاد
الرقص
ارضعت
للدنيا
تكل
اصبعه
عدوى
اقواما
يوحي
نفيا
وتحسين
تدرس
##قتي
العبد،
والانف
طيلة
وتعليم
وشمل
والنحو
##اذبة
بالصفة
معاص
ومهر
الالقاب
والحقيقة
الماهية
باسلوب
خصه
لتحسين
يعارضه
زجاج
وبكر
بايام
اقاتل
وارضاه
خلقوا
بالحياة
##ذوب
##وامل
الحرا
##يلد
وجدا
برحم
والرم
العملة
ماذ
تصب
والقوم
ازالته
##ساتين
تقريره
##ورج
خلقة
ويدعون
حوار
ذكرتم
##زمين
وبلغني
الكفر،
كفارا
الاحقاف
بالسجن
التفويض
ففعلوا
قادرين
فارسا
وخرجوا
كباير
يقنت
حنيفا
التسعة
الوعظ
فرحون
انعام
القفا
الاستطاعة
اياه،
بالغسل
شمالي
يحمي
المجل
##علن
##رجي
##جزية
مقاصد
يوثق
تحذف
مطولا
لسبع
ران
ادراج
اعتذر
افتح
والرابعة
##تبى
نسيم
قتلوه
##شيق
اللفظ،
مقصودة
##ذهبه
وجهات
سيارات
قضيته
قلبها
والابت
يتيم
فمنه
العملاء
بالدنيا
والراس
قدومه
##ظرية
بمعدل
والانعام
الاثنان
الجامعية
القلوب،
بافضل
رث
يخر
واسل
تركب
الادب،
ذاكر
النفاس
جاهد
خلكان
سليما
##سبا
الجحد
وانش
##كانية
##تكاب
زكرياء
##براطورية
برت
المتص
المشتبه
جذيمة
واظن
المسودة
##سندر
فهن
الرقاع
البارحة
يهدى
ابتل
ينفر
متواضع
تصنيع
رايتها
واعراض
حاجتك
مسن
فالذين
فالاصل
ورت
بالفق
وجرير
ثلاثية
تملكه
العطية
##رجا
الراس،
المغول
يغل
ترجح
سكين
صادر
لرد
والحاجة
سهلا
الريفية
والثقافة
حينا
##ستور
##ديرات
تنمية
اشتبه
بالجواز
معتدل
بالوضع
السحب
ويودي
##فعيل
المبني
ذميا
مستقبلا
بالتكبير
وده
القري
افراز
الصاغاني
فالحديث
عده
كرك
الصواريخ
وصاحبه
جديد،
طغ
ميكاني
الاخلاقية
غمر
الطمع
الغزال
الوريد
وطبع
الساعة،
المطلب،
المفاصل
والشافعية
فتاب
لونها
الدقة
تقابل
واسقط
بغرض
فسادا
جاهلية
الاولمبية
الرماد
##وله،
ويحتاج
مخاطر
كسرة
اثارها
موصوفا
صقلية
وبير
عامة،
يسكنها
القيروان
ارحام
الحبة
اعضايه
ومعناها
واخبره
ضربته
للسهو
انفاس
ماكول
يخفي
العلوية
والخطيب
فاتفق
المخطط
اوهايو
وامسك
امراة،
الصغاير
الساكنة
استيجار
المعاهدة
اختصارا
اعدت
الزعفراني
بالنف
##ديته
يطيب
لساني
يخلط
##هيد
##قولون
والتوحيد
ورغ
الحاقة
الشرع،
المعاوضة
مفصلا
والذهب
والارت
##ودون
للغير
وندب
تنشر
نزهة
وخش
الجزع
اموره
الجاذبية
والهد
متوق
المنصوب
حيضة
تكفل
نتج
اثارهم
المعيشة
المورخون
التسم
ويبدا
وخدم
مقدور
اللاجيين
باجراء
الممارسات
كولومبيا
حبر
الريب
التبري
الجياد
ولاح
صدوقا
تلميذ
فجا
قصبة
وبحمد
البدو
صدوق،
يخصه
ضباط
وسما
##تمون
##وهام
عوف،
ويخاف
تطبيقات
يبتدي
يجلب
والنصف
الاقناع
لغيرهم
فسماه
الحنفي،
حركته
انتقد
تصني
الاجرام
واصيب
بدعوى
يكرم
الاجد
النشا
موشر
فنية
التجريد
الاعلامية
لقص
للوارث
تعذيب
الحد،
الحسني
مشتقة
ففعلت
##وموس
الخيام
وجر
دبره
والشارح
نعمل
وادارة
منزه
بالاجتهاد
بمشييته
جول
##يادا
النقيب
##وبية،
تاريخيا
لينظر
البروتينات
حتما
الفخار
لمص
البيضة
والسمع
بعثك
منكبيه
المفتاح
قضايه
دولته
العرقية
تعهد
بقعة
ودوا
بطرف
صادقة
##روسيا
صبيان
اخبارا
فالب
يستع
ارزاق
##واض
الكار
ارجاء
اقرارا
خميس
رايهم
زوجت
مكان،
دعاهم
الجبلية
وبس
ينبع
والاكل
يستمع
المستحاضة
والخارج
مكونات
مظعون
بساط
شربة
المرام
استيعاب
تسمي
مدعي
الفيدرالية
مبسوط
وبالق
التسجيل
التابعي
غرناطة
مقطع
والبخارى
الاقطار
لوجد
##وامر
الحلة
ليعبد
اقب
ثلاثة،
الراى
امتدت
سيناء
بعلة
رفقة
مخص
الحالتين
ومراده
الوصال
##رعوا
حمدا
لاحكام
يجتمعان
صلت
فطلقها
تروي
فيمتنع
واحا
والتصرف
بمذهب
اللاحق
انكرت
المضمضة
كيان
السواء
##ايرين
السدوسي
صيحة
شبيهة
عيار
##ليح
محور
الراج
لسر
الراشد
كعب،
فشبه
نشره
لعلة
فروض
وفاقا
لفظها
قبضته
شانهم
يهل
القذا
احضار
الاشهل
السنوي
وتشير
ومحبة
قنوات
فاكهة
وايق
يرشد
مبطل
تسبق
والسنن
##وسين
النسايية
تكنولوجيا
وباي
ريحه
وشيء
##ونة،
الكراهية
تسلسل
وافعاله
مناصب
##ياضة
وعمرة
واستثنى
وعدل
كلفة
للرد
موكد
تقضى
الجيش،
الملتقط
بصور
الطيار
القصوى
يامركم
الفيض
القابض
##كنز
سترا
بسببها
التاويلات
##ابته
والنق
نفاه
واكثرها
ثني
الكوفي،
ركعتين،
كاص
مدرس
بالبعث
ايش
بشر،
البخيل
ميش
##ساع
ادخ
مولاة
والعباد
اختارت
حسبك
دمياط
اعتمدت
ابدال
الكلى
جديدة،
والعدوان
ميراثه
امع
التطهير
الصواف
وصلها
اعتمده
الكي
وناب
التمكين
مجتمعات
منقطعا
دورات
صامت
نما
استهلك
بالخاء
خساير
القرام
الابنية
##صاح
اتاها
معظمهم
لامره
بمهر
وعمره
الاموال،
حياتي
لفض
عنف
وميك
احسانا
للمدعي
البلدين
تغفر
اذنها
الدورقي
فالانسان
كوت
التعدد
رددت
تاتيهم
شبرا
اليز
وثابت
الاشراك
اقتضت
اناسا
ووجوه
لعملية
وارادة
تمويل
المكسي
لاصلاح
##سيس
الخالية
الطرا
##شارات
##وديوم
الكاذبين
تضاف
محظور
مبالغ
وراجع
##خات
##لفى
استقرت
يجتمعون
فلسطين،
##ودوا
الموالية
حذافة
والامن
وثلثماية
الوراثية
الحضرة
يقرع
تسجد
والصبي
دورها
تفتقر
شينا
##ضاره
الرمادي
الفارق
مال،
قرين
العباسية
ثانوية
اشرنا
منحت
اشركوا
##طاول
لتعلق
مستعمل
مقاما
السعة
الاجهاض
مدحه
يكذبون
الرضي
راغ
تلقت
بنفسي
غنايم
يتركه
والاطفال
الوافي
لقصد
والدواب
حملوا
لشي
##تار
به؟
ثناوه
الشيخ،
غوا
فسا
مبط
ووسط
المعسر
لكنا
يرتد
يزالون
بالطريق
الخلفية
اسقطت
حارة
عيدا
الكات
الواثق
الاصفهاني
ننس
اكدت
وصوم
فالز
حالته
بالتالي
رموز
توجهت
وشهدت
وتقديره
جدل
اندي
الصخر
للاخت
المقدس،
عاصم،
شارل
احمق
مجتهدا
ردة
الوفا
تعرفه
يصرفه
اعتقت
مناهج
شبكات
##قايق
##اءه
##بهن
والخطا
والغرض
موقعها
مستقرة
فرايته
جحيفة
معدي
##معهم
بمدة
يسا
يشبع
فعلهم
السجل
وسلك
للمام
فتدبر
بالسماع
الوضوء،
افريقيا،
بلقب
روك
ويده
##يدهم
رسلا
الانتظار
مركبا
##؟؟؟؟
المصلح
فحذ
المشهورين
ذريعة
مستثنى
للاز
الاحتجاجات
التوكيد
الغان
سيء
الصالح،
موليا
المروي
الباطنية
بوقوع
الشدايد
فلوري
##شاشة
المقدرة
اعطني
الكفار،
البكالوريوس
##حنة
##يناها
اللايق
القديم،
بالطبع
##يداء
كالاب
توبي
شاهدين
بظهر
بالجد
الدواد
بحالة
فذكروا
وفرنسا
لحمها
طيبات
يعلن
معتبرا
فيه؛
الزبد
##ذرية
علمته
حجر،
منعوا
بدعوة
ابدان
الصفي
متقدمة
##ناهي
الرجس
كنايس
التكن
##شتي
##ماتة
وبهذه
ضبة
##وين،
##زبان
##قر،
تجعله
بثبوت
حضارة
الهييات
العنان
دعاني
اخواني
احتجوا
التراخي
رسلنا
السهيلي
العقيق
الساجي
والاوجه
وصحب
يستغرق
لتر
تحريمها
جمة
ببطن
الاذنين
المنكرات
تربي
غريم
##اهيل
الطها
##ريقه
حكمنا
بصنع
الجليد
للخلق
والتعبير
مسيول
سلاما
الابي
يشرف
الحماني
والفكر
بدايات
التكلف
تجدوا
ضال
##دعون
فبات
اصولها
تحط
حسرة
حلفه
والاجارة
الافتراض
الانحراف
وولا
وراح
العيال
التغل
اخوات
اخفى
##رسالة
عشري
بصفته
والوقف
التوس
##حمت
الشاط
امثل
تنطق
حاض
سرقت
المصطلحات
تنام
انخ
تشجيع
كنوز
القصايد
بتهمة
جعلا
##وطنات
لفوات
المديون
معيار
للولد
اسا
وجامعة
موذ
حاجا
بالتحريم
الساحلية
وسخر
اليهن
ورعا
مرسوم
##كاني
##زيم
الطرد
نسايكم
بشعر
فوافق
تاليفه
فانطلقت
والنفقة
الدرج
وترب
فالث
##بيره
باس،
بالتش
المزاج
ثقيلة
لجل
لباب
اخطاء
ابنتها
##روحة
لولد
حسبنا
سيره
ويلحق
اباد
##مرد
##وجات
الانع
الرحيل
##نبور
واجماع
يفرح
فرم
تجرد
واضط
التنازع
المرحوم
انفص
الانج
حماد،
لقتل
وشخص
جزما
حليم
مغرب
المكونات
جولة
والمنكر
اللغو
##وارح
العشق
الاسم،
بدراسة
لتست
ميزة
اان
فحيث
تحقيقه
برشلونة
للمسافر
اقاويل
زمام
ضروب
##اريف
الجغرافية
والعفو
للهجرة
شكلا
تلقاه
المسيب،
المختل
وسبعماية،
تخفيفا
الفاجر
والمجاز
راوي
المناوي
ركنا
والنسيان
مكرها
ضاقت
بقراءتي
المقبوض
الدباغ
الكفن
ونون
اكرام
يحشر
بالايات
ماء،
التونسية
كواكب
##سلي
مباركا
صني
##وافل
العقا
الصوري
فرقت
الابق
محبا
المقامات
خما
ظلام
##قل،
يفلح
الثالثة،
مهند
الهمذاني
##صالات
ويسعى
وتجعل
اساله
مسالك
والمجد
للتاكيد
هجرية
تير
اولهم
ومنصور
حقك
الفتيا
واعجب
اكلة
باموال
وقفوا
##غمت
##دية،
يقرون
##ضعفين
خاصية
الجزيية
عبلة
بالابتداء
##ايقة
##ندب
تسعا
كفاه
##من،
ويعيد
سلبه
محمية
عصرنا
نسالك
النسفي
الاحرف
يطيل
بناته
رجعنا
تزويجها
فوثب
سوم
ظهري
هايل
##ين؛
غيرت
##صاره
وطريقة
صلاته،
عاين
قبضت
ارساله
منافاة
لرييس
والضم
اعور
اشجع
فارقت
المشركين،
فذبح
موقعا
الصيدل
التغييرات
بتاويل
الاحلام
ازاره
قضاه
ميسر
الاعل
ويقف
فاظهر
الاداري
بالسوء
بفتحها
المنار
بالهمز
تايمز
يكرر
والبه
##باذ
##داين
يسهم
فجعلها
انتهوا
مختصة
ويقسم
يرفض
تومنوا
ازواجهن
غدت
الزيادي
تنفس
المشرف
سمحت
نسخه
مصم
الاصوليين
الطوفان
##ضا،
والوسط
يقبلها
قدام
مدبرا
صلاتها
بالخل
المجاور
اسمك
احتراز
المفاسد
##الكم
عشير
سهمه
الفواكه
التكاثر
وجامع
تقصد
الجميع،
فلقيت
غزاة
كنية
##غته
الصن
يمكننا
والشك
شاء،
وعلماء
الدعاء،
قضاوه
للبلدة
فولى
قطيعة
##جزة
والقت
المعطي
وزياد
يلد
وغالب
خصومة
التشبه
الحيوانية
مهموز
الفصاحة
والطبري
رما
الكوك
ومعد
فتر
حقوقهم
قين
##بيكم
وتبلغ
##حيق
مخلصين
توكيل
لينا
##رجه
وشكر
مضطر
تنافس
اكملت
كني
##كنها
يتما
تتمكن
المشكاة
المدخول
ووضعت
بالاحسان
وشبهه
المعصوم
اللعن
والنشر
لفهم
تبيين
شوق
##زلهم
بنين
##ردل
##وانية
لكني
رفعها
وعندهم
شقه
جده،
ازا
دحية
##كروس
الناشية
##سم،
المستحب
يكلمه
والغسل
الكثير،
الرقابة
بالسين
ويفتح
سليم،
زرعة،
خاتما
تبل
راعي
فشد
##البه
الطبيع
محذور
لقريش
وغنم
##غلبة
كفالة
المفسدة
عقلية
الهنود
اهلاك
شاءوا
##طارد
يمنح
رجس
مبينة
والوقوف
والصلح
اسقف
يتساء
للعباد
غط
الكرى
تناسب
تمنح
المعمارية
تاثي
اعمالا
محذوف،
الغريبة
بتركه
حصاة
احرز
##خالفته
وقايع
ولقب
فتزوجها
فعول
بشرى
مزرعة
يزوجها
والطعام
ونزع
انتق
الاجراء
حالي
امتد
امورهم
سالك
شل
العنا
##علب
بارا
يعرفوا
تطير
الازمان
##صيبة
مذهبا
لدينه
ابطا
الشن
يجه
يناله
بشك
صحية
الفلكية
المحيض
فندق
وطر
##ولدة
بالسب
البتر
ويصدق
وتقر
الاسهم
اشراط
نبانا
حميد،
جنسا
والاخرين
اذكروا
مجنونا
لارجو
##غة،
اسب
التعجيل
مهرا
ديز
##كشاف
بالقد
متفر
الجمعيات
والارض،
والصدق
الضرع
الرهبان
شفيع
مطا
تخال
الاتلاف
تهدي
يوجر
شايعا
بروتوكول
##غيت
منير
وتصدق
والسفر
المقيمين
##رازا
العينة
اغر
ساكت
خطرا
فرارا
الايقاع
ثقب
طاهرة
المسار
##حاولة
واورده
كهل
النعت
##تبط
مستهل
##كييف
بطلانه
يزكي
تشرك
نازل
##خبين
ماذون
انت،
##طيته
##ريعته
دوق
يطعن
بالهدى
##يتها،
يدى
بالمدينة،
وضعوا
انفسخ
ربكما
بالانسان
سرك
الذكاة
والتشديد
فالمع
رجلي
تسجي
بالمصدر
قصته
##كارى
فراسخ
اريك
##ناهما
فاهلك
يتعد
الفاصل
مامورا
فيقبل
الداري
املا
ملعون
اعتقها
الحقيقة،
استطلاع
والثلاثة
كورة
وسنده
ينجو
حديثي
##از،
##طلقة
والسلاح
احتلت
ويسمع
توص
مجتمعة
ووثقه
لمساعدة
وترتيب
المعيار
يجمعون
لمواجهة
حيدر
##ثلي
مالت
وخي
الزانية
يرتكب
شبابه
حباب
الحصاد
ومنطقة
بمقت
الجسيمات
الرياسية
اقبض
انتخ
##ذر،
صحاح
واخوان
نقضه
نبذ
والبغضاء
والغر
الدرك
خالفت
والنعم
الاثني
المفوض
والعن
اشتقاق
استص
تطمين
يعدو
موقوفة
##والديه
ظنك
عورات
لانسان
والسكر
وغن
الابتلاء
طبعت
فشييا
خضع
الحان
تحال
نجحت
ياتين
والهمزة
وبار
والحركة
التخريج
##باكات
##مسة
عدول
التنوير
يلزمهم
ارسلناك
خامسا
##صرية
احرار
##بار،
تنج
اطمان
واجتناب
تفسيرها
عهدهم
بالكتابة
سمات
بالتم
تمامه
واتهم
وهدم
##تابة
متكلما
##عايه
واشربوا
سياسيا
هيا
يخصص
والفل
بنسب
على،
مقرر
##وكو
عادتها
التصغير
بادية
البلاط
وياء
ليخ
تحضر
البارزة
الانسحاب
الحبال
القشرة
##تموها
حبست
توال
الخان
بزوج
##صاير
السايلة
خراسان،
ريف
##طرا
##كتم
جزية
والكبير
الاحتفاظ
البلوى
صاروخ
موضوعات
تين
صراحة
ومدح
المتم
بحركة
اهبط
فاعطى
شما
##ييات
واحتمل
اوقية
يعجبه
الجاهلين
بالنهي
المستويات
بالحكمة
يعتبرون
مباشرة،
كرز
مسيرته
##سبين
الصفراء
وعندنا
طعمه
نير
اخطات
##ادق
##ايها،
ولرب
بيرا
تسافر
يخرجها
قيود
شهري
ضريبة
طهارته
للوز
ومجلس
الاعوام
اغلظ
##جيكا
استطاعت
المرجية
التعميم
##زويج
والخدمات
المهدى
بالكر
الجبن
دخلا
للكل
ومرض
المجرور
باشياء
##وح،
النسيم
اكتفاء
اعطاهم
التحويل
النميري
الثروة
الغري
الغرام
بالترك
حربي
المواجهة
##وذة
دوره
حمارا
الحنيف
##ايق،
متنه
رجا
واصول
امتصاص
تقلد
الاجتماعية،
منقذ
يتجزا
فخير
الشبكات
يعينه
ناطق
كبشة
حابس
اوما
ايذن
ومخرج
ويلز
شرفا
داعيا
بعملية
التحقق
التساوي
اقضي
مستن
وتعقبه
موقعه
السفاح
مجموعه
بولاق
كشاف
وتض
##عبية
وشمالا
يفوق
قرنا
العميد
عجزه
ملق
##طني
يستس
لقبه
اشتدت
الترمذى
خبيرا
##تس
فيضرب
وسلم؟
نفاق
نشاة
الاردني
جامعه
مهي
التملك
والمواد
هيبة
طلقتم
بالحب
السرج
الموض
حمزة،
عمها
ابيهم
قرص
داخلية
الذكر،
ضغ
لكا
##يما،
القطي
البني
ويجلس
تتحول
بحرا
للقوم
ريع
فذا
وسقوط
وعج
وعما
التكلفة
مخلوقا
والفقر
دس
هش
وانكم
##افها
لوحظ
يعلمهم
يحتمله
بغسل
اموالا
التفات
القرافي
##يذه
التجي
الداير
المتبايع
الامال
الحاصلة
الاعتقال
رييسة
زعماء
##كية،
الخفية
تعقب
مضادة
الطايفي
فيوخذ
عوق
وسعها
اللعنة
عينك
موقتا
محاكم
وتجمع
وامان
اعرب
نسبت
البشرى
الفلس
الشحنة
لبيع
نقر
##شستر
##علك
بالرم
فاشهد
فراغه
الخزانة
وتهذيب
امهم
استف
مشاهير
##جيج
اكتشفت
انسب
بالخي
عقيد
اعتقل
ولماذا
تسميتها
تدم
العبرية
مبتدع
##وفوا
نفسك،
الحصون
ناصح
نحت
وجهل
نصبت
##اتيان
خروجا
تذر
طيران
يتجر
المنقطع
المستخرج
تكساس
بهمزة
القلعة،
السموم
امراتين
فايق
##وتون
عدالة
وشم
##وغا
الامتثال
يبخل
بغلة
المختصة
عرا
غشي
التزوج
للقتل
اساطير
مثناة
الاخوات
والاض
الصفدي
تواصل
صمم
ريس
نرد
##صرة،
##ابعه
والشهداء
فحبس
مرتين،
بالغين
واصحابه،
ويهدي
##جعه
سافرت
كبيرا،
اقعد
واشترى
الاكبر،
عميق
المستشفيات
وتعني
القدسي
ليلته
مديرا
فبع
اخطب
وارجو
عبارات
خلفية
شرور
حذرا
محتملة
وبدل
بجيش
والطرق
للشباب
ارسطو
العجمي
##رايم
الفحول
##اسل
اثقال
تخدم
التسع
تاركا
##طري
##ريما
فقعد
عمره،
والدهر
بلادنا
موقتة
والاجتهاد
والباطن
##تنبوا
النقيض
الرطوبة
##لاتها
##وفها
يصط
حكمهم
ويتوجه
زح
##جعا
لامير
وتحديد
##مل،
عمله،
الانصراف
اوكرانيا
وانب
ولص
المودي
وخلا
جمعهم
واعتقاد
تعتقد
الوسطى،
مبادرة
جلوسا
تلقوا
وتسليم
ونبه
المعير
##سمها
لحرب
الفصيح
غفار
معسر
##احشة
اخبرته
ويتجه
ببساطة
والاصحاب
القهر
اذاعة
وينسب
ويعني
للدكتور
هيت
انذر
ادوار
باشت
حاله،
حبك
اساسيا
الانفجار
مصنفات
نموذ
العثمان
معونة
البش
الرجلان
تخزين
عدمها
تهلك
حيوانات
فحملت
نسيية
ذبايح
المريد
الاساءة
لفظي
صرفا
لاجراء
السياسيين
الاقا
##بعيض
متوا
الاجيال
الوجهان
مباحة
تيمور
التنافس
بويع
وتعا
الاسراع
فتركه
مسته
برده
رووا
بروح
تمكنه
المريي
اعطاك
الخزرجي
##درايية
ومجموعة
وثوب
طالوت
حسنة،
ليبين
بياء
شفا
##باخ
ومالي
وبالح
بانف
ولمسلم
واستعمال
والقاف
مخيم
شانك
ببعضها
واجازه
مسوولا
##هامه
##ودد
طريقته
يلج
مشتمل
عاتقه
فالصحيح
خلة
##كنات
والتجارة
معاذا
تفوت
اخوانهم
وعملا
ثروة
الشريعة،
خفة
الادوار
زمنية
ليشمل
منة
وجلال
حملك
الخرطوم
ذاتي
الملاحظ
نفسية
مفهومه
شحم
ظبيان
اوطان
وساد
ولاجل
##رويه
الناف
احدا،
يحفر
والخمر
بالعهد
تواتر
الموات
تعامل
استيلاء
زعمه
الانتخابية
الاتها
فسمعته
النطفة
العرس
يستغني
وينه
العذراء
الصليبية
ماشية
مضغة
عاجزا
بالعديد
تفي
ذكرك
يصيح
المارك
كلامه،
نظمت
يابس
القاهري
##ثلها
التذك
اوزار
بمبلغ
لطايف
الهجرة،
والقصاص
جعدة
##فله
##منوا
##ميراث
فتفرق
لبعد
وامكن
واحفظ
القراين
البصرية
ودينه
حلها
##رادى
الاحباب
التعريض
المواشي
الجنايات
مقلوبه
عوج
##امح
غيرة
يتطهر
الزهرة
تثنية
الخوارزمي
الكندية
فترى
قوموا
والخش
الشمسي
البغدادي،
وحكمته
سقت
المسلك
وجهان،
بزعم
راجعة
الكتاني
شوكة
الشفع
يعرب
الرافع
المجلات
فنقل
المطعم
الديانات
واعتم
للدار
الجانبية
توقفت
والمشي
عيلان
##صص
وسعت
اعوج
وغدا
لحاجته
حسي
دهرا
فغل
قفا
بالعب
للسايل
تشديد
برون
واتصل
انفذ
تلمسان
مسالتنا
غاص
كلكم
فاقطع
الزرقي
الماكول
باسباب
بالتف
ويعرض
وبدون
وانشاء
وبول
##نسوة
المواريث
ملازمة
عواقب
دراج
مضيق
الخريف
##لاميذ
##يسون
يتقبل
##يامين
توثيق
اعترفت
لسوء
مزينة
الاكثار
محمولة
ضروريا
وضيق
وليم
عالمي
لهيعة،
الزبرقان
سارق
الغشاء
المتد
الضباب
جرحا
الكهنة
واظنه
ولقي
وماتت
##صموا
دج
الحوير
وقليل
فتصدق
يحص
تشغل
وظنوا
للجهاد
ابراء
ماهية
##ديقا
احرى
الاعاجم
تبق
السايدة
##افاة
الويل
رايتهم
##فعلن
اسكتلندا
المشروعة
والرعايتين
صواريخ
##اتر
اخفاء
فاولى
خالفوا
وارثا
##يادية
يوه
الحسان
اتل
فعله،
مدافع
بالقصر
فطاف
كحل
##ثناة
المظاهر
استحي
والشرف
القبر،
فسمى
والراجح
ماخ
ولايات
##قاظ
اللوحة
##وضه
لكمال
فسبحان
اصواتهم
خداش
العاش
المجيء
##دى،
احتيج
مختارا
منسوبة
فقتلوه
##بورغ
وتقبل
ولزمه
رايتني
المزار
والزمان
##ناقشة
##قراره
الافتاء
مقول
بالوضوء
اصنام
البوي
والحن
علمك
بالبحر
الطفولة
المدلول
##حاضر
تقربوا
المسلم،
الملايكة،
اللحوم
بضاعة
المستد
فعبر
عادتهم
خالي
المراكب
##هاة
ويقر
يسقي
الصالحي
لساير
الافع
توضي
وزهير
مفيدا
رشدا
بلى،
شفت
وقصة
احال
لتاكيد
وضربه
فرضها
عهدة
القبلة،
ذاق
طيء
واضافة
تحديث
للشركة
بالمل
والدتها
مزية
لصد
##يلي،
##روسية
الانجاز
الزراعي
استدعاء
القرء
فحج
اوربا
وحركة
موجل
المجردة
الزرقاء
الاضاحي
اندلعت
ضريح
التوتر
السوط
وسرعة
شهر،
التطوير
القبلية
النفقات
اسمي
اداه
باسكان
المدع
##وذية
تسر
ضارب
##فاذ
تجريد
افضل،
نتكلم
بمجلس
يكسب
والامراء
المحرم،
الخيول
صغره
يرحمك
فحسب،
الصيا
الالي
بالنسب
نظريات
وانتفع
يذهبون
خفيفا
رداءه
منية
الكتيبة
المتلف
مشروط
سعدان
وتتبع
الجماعي
ضن
##نوت
الداني
الزبيب
وايتاء
عان
##اتك
هاشم،
يقذف
ويصف
والاولاد
تشركوا
حبها
الفيلسوف
دانيال
يحزنون
اديم
دالا
مقرونا
##صارهم
اثلاثا
لوقت
بالور
##وثيق
نبى
ساروا
زانية
اخره،
الشواهد
##خنة
التشي
شيعة
اشبيلية
محضة
وثانيهما
بزع
وتوجيه
ادناه
المستعمرات
طريقهم
ساعدت
جنابة
مقتضاه
يبيعها
ثوبي
وقس
اللحن
اشتمال
مطرد
المعتبرة
جوامع
نفت
اوصي
معالج
##دامات
تحصى
وامراته
فرضية
مقتض
القتل،
حقيقتها
والوتر
ماجور
التهم
التروية
الخث
ترمي
نبيذ
حذفه
انبيايهم
ملاك
##راكم
التايب
اوك
الفجور
##ثر،
وللش
غنمه
لفق
نسج
لنفي
الموجات
الامتحان
اتساع
فشر
القف
خاضع
تزا
##جلى
والحو
وكعب
مسم
والتقى
الابلاغ
بطيب
مساويا
نافذة
ينتظرون
اسنانه
فيظهر
فاليوم
برود
ضربها
ترحم
الفلاحين
بمشيية
محفوظا
##ريسي
ماوها
يدعوا
دوران
##السيوم
##ويان
حرمان
يقلد
يغادر
ديانة
تباعد
دبل
يشرح
##ضرم
ماعز
وسلم؛
تنق
عبيده
سلي
والساب
ثانيها
سلبية
انقض
##وسي،
متعين
##عيها
يبن
السعودية،
##وطنين
##عاف
الموز
يعض
عنهن
تنمو
نحاس
كنان
##وشة
ياك
الاعصار
حصان
بركعة
المكسورة
باجر
رحب
سمر
ومعمر
فكشف
الفرص
ويستثنى
حذو
الغرب،
لتنفيذ
##خارف
الصنم
##دهد
بيك
رايي
وحملت
استاذا
قدوة
اجتماعي
المايتين
نصبا
دمها
التحقيقات
الوت
مضار
خاطر
رافعا
كوز
نحب
##حاض
نفسي،
هاربا
استعملت
عاك
الاخص
يستاجر
والاخرة،
مبتدا،
تكرير
سعيدا
عادي
##رابها
وليسوا
مخنف
ابرزها
الاحمق
وكثرت
ودور
والجيم
احتجم
قحافة
استاذه
تفصيلا
##يابه
السنوية
قرم
وربع
لايج
فتف
اطلاع
##نزيه
طهورا
اللحظ
وخت
استند
اطلعت
زاهر
##يلندا
التحمل
الاميرة
التحريف
وردان
اللجوء
هندسة
يتقيد
ومابعد
وفارس
عضوية
تهتم
تمارس
حارس
خاقان
وجنا
##قلد
والميسر
محذورة
بقدرة
والوص
الشريط
استمع
##سلخ
المستمرة
اعتقال
قربت
الداخلة
المعاصرين
تحديدا
##فسكي
اصم
تتفق
وضويه
واحوال
عمت
ونال
موتي
الممتدة
المندوب
القيت
يتخير
بدعاء
تحس
الاخرين،
والصغير
ارضهم
نورث
تاثيرات
والحي
وصيا
المستوعب
ودعاء
الاحصاء
يبع
انفصال
الجولة
والمقام
##جددة
النسوية
يعدون
صابر
تعريض
وجمل
يستحل
العلوم،
فاحش
مقاعد
ضلالا
الشد
وتوقف
ومقد
##عيذ
يغفل
الشرطية
كافرين
##اغ
فانف
اليشك
ادبار
كالمن
المستر
قرارا
مغر
نعيم،
سايلا
نيكولا
والانبياء
وانهما
اسي
يعن
والايام
وخاص
وخلاف
تخطيط
ادركته
الشرقية،
كفيل
الايام،
لمذهب
متزايد
##عايا
وحكمة
##ازى
لتعليم
العباد،
البخار
الاستغناء
البيزنطية
##ضحت
الاكرم
##كان،
اباها
نزولها
محمودا
سواه،
امراتك
وكرم
اللصوص
يضاعف
احتمالية
لفساد
محمل
هاري
##حمي
الخبراء
للقلب
عبثا
وجودا
عليكم،
برقوق
##داخلة
الماع
##التي
حديثها
##قدمين
رايد
جزع
الارباح
نفذت
وثمود
كنع
لزيارة
##ته؛
للطب
للمشاركة
اينا
##ه؛
##باة
للنف
فالمت
قومها
احتل
ثوبين
ناسخ
عطش
قراءتها
بالضمان
الخاسرين
عفير
محلي
بالنصر
وبالعكس
الداودي
المملوكة
جونسون
يتيسر
البييي
المحارب
عميس
والكلب
تمه
##سرة
القوق
القهوة
فاحر
تعادل
اعود
ونفى
اتيتم
الاورام
المعادلة
المفلحون
والتنا
المحلة
دارهم
يكتسب
تلميذه
##جي،
فالحاصل
مهلا
الاكتشاف
فاصبحوا
الشطرنج
اغير
##ذال
العداء
ينفصل
التابوت
السامية
فيبطل
رهب
##ضارة
واسباب
الغلمان
كالذين
القاعد
نزه
لذات
قبالة
وواحدة
يطاها
نل
نثر
البضاعة
فاعاد
عبادة،
يفترون
##موك
المرعى
وسعه
وبينا
حيضا
لاحدى
لوف
بالحمد
الجدة
امشي
صحيحة،
ورخص
سابور
جزيي
اسرته
موكله
فداك
كوين
##ابية
ويخت
تعقد
##هلال
وفاق
بقيام
محرم،
الاقطاع
فقصد
يصحب
محركات
العقرب
فاستقبل
طالق،
ويقصد
اجرها
متفقون
الرموز
فنهى
##راخ
الكفين
تعس
الطح
بلبن
ليله
ترسل
بيوتا
ورفعه
##طفا
الجدران
اسبق
بعضهما
العلمانية
يورو
اوساط
ولقا
##مانيا
الخصيب
التفاصيل
تالله
استحقاقه
للمرتهن
##هال
الحافر
اكلا
##حوها
##سكرات
المرتضى
صنعوا
بالاقرار
المحاملي
اطباء
##ظايف
##افح
للبي
يعكس
يومهم
بانا
احساس
بالحقيقة
جنايته
باحث
كدر
الممات
الشراح
الدرب
ويفهم
وتختلف
اثمان
سلول
لقمة
التدليس
قصا
واحق
للسر
اكثم
ملكوت
وضمان
السالم
الغنية
وابان
والعرف
تمضي
بشرطه
اقروا
الايتان
وتفر
الثمرات
##طاير
الادغام
واصبر
والرياض
تماما،
والمنافقين
تعبدوا
المامومين
غان
ضربات
النجف
بقايه
احتياج
والعافية
بالموصل
اتيناهم
حريق
شجع
يبادر
##طره
لاقى
الرمال
بهجة
عداد
قسطنطين
المبتدعة
قبيحا
وقي
مخد
##بادية
المرتفعة
اقامتها
حيوانا
مرم
فيذكر
واحده
الميت،
نبيك
كردي
النخبة
الصاروخ
فريدة
وسخ
المتطوع
لنقص
والدخول
اعتاد
للمساعدة
بلت
خيمة
عجي
##كيهم
تعق
الانضمام
##كتبة
ستار
وفسره
للبيان
##يكو
كتايب
الاختبارات
##عداوة
المطبوع
مكل
والزوجة
الاستعاذة
للمعنى
الزهرى
البروتستانتية
الوراثة
تثير
الاودية
بهولاء
اتدري
الاعطاء
نكاحا
تقديمها
معرضون
##طاي
معاهد
وكا
فليات
اتيا
حقبة
للاه
الافلاك
وامير
قصرا
ووحد
عطفه
عذرة
المغيرة،
##واره
##ساكره
##نبوا
اعتاق
اقترب
حظي
الثنايي
غلمان
يجزم
عدوك
بمرا
ملكه،
انكسر
الاعتصام
البولندي
حاصلة
تنصب
تصلى
خطير
ومروان
انصرفوا
وحقق
المباركة
غسلها
والثقافية
ونقض
سلخ
بكاس
امامنا
اقد
حنا
مايل
بالشيخ
بشارة
يعتذر
والمعاني
سهولة
الدمشقي،
الحوايج
تودى
هواك
##ذفه
مهدى
الموقت
غيرنا
باسنا
المقذوف
لتعزيز
بخص
المكون
##ابض
العصيان
الدف
المدافع
مزيج
سويسرا
مده
لتحرير
ناكل
نصرا
حسنها
بالعفو
بقتال
فلقي
انشاها
الحقد
الصها
المعنية
الدينية،
فكس
والصحابة
الهولندية
الفلق
وبقى
باردة
عطس
السوفييت
افادت
عقوب
الزركلي
يلعبون
وويل
بينات
احسانه
واستخدم
معدوم
المهملة،
اقواله
وقاموا
معتمدا
المتظاهرين
ماخذ
والتنمية
عميد
الاحكام،
المصرى
وتجوز
مجلز
معطوفا
كمه
يضح
الكسندر
ليص
والسف
حلوا
التقاء
يثبتون
سهمان
برع
غلامه
##بيله
المتخصصة
تحلف
طبخ
الشمالية،
زواله
مملكته
والقطع
عمرك
فاروق
فارسلت
مفاعل
فيهما،
##صدع
رييسيا
حبيب،
مواضعه
تخصيصه
والحرية
طايف
##يليا
الجواري
استلم
تنفق
والنص
بصحته
رفق
الرفض
ويمن
وتميز
احلى
مشاة
المستقل
البر،
اعتكف
سعاد
وقاد
النوم،
الخيل،
الكماة
يضحي
الميكر
وخلص
يوتي
العون
عامرة
الاقلام
لسنا
مرفوعة
يضربون
مجردة
كورت
لنت
ناح
##فورد
بالقرية
ويكت
الطرس
استبعاد
الاخنس
##قاما
يشته
المغضوب
واللحم
سمو
والغم
بالعرف
سالوه
جدير
وراوا
للناس،
##ساها
لمنظمة
خلو
يها
##غلت
والمرا
##راد،
موري
دوني
موتا
اعمدة
##وامع
الزيدية
الغنوي
التنزيه
تقييده
كلمت
مسبقا
##شوست
##يني،
يسود
المحاصيل
بالاشتراك
الرسول،
فاعتق
وولاه
وسلمة
يصنف
عتقها
لاتفاق
الخشبة
التبليغ
قابلا
جاع
الزر
استويا
مجاشع
وليكن
والحجاز
فاردت
العمران
الشرط،
عزيزا
سارت
الكاش
ولبن
##مامته
البرز
خرجا
التحكيم
منعهم
المحتوى
التيه
محضا
الاحسن
ياتيها
والمرض
خصوصية
عهدي
العروق
لافضل
وحصول
##جبين
اختيارا
باسرها
وعمران
الثمن،
وعلمت
ناجي
يحرص
مراكب
##خانية
وايمة
الذر
ولغيره
باسانيد
يرونه
وتركها
بالصدقة
##وطنة
ضربان
فماتت
منفردة
اسري
##روفا
فقدمت
سيي
الاقراء
فاستاذن
متعديا
قاع
بعق
متطلبات
والتوبة
امنتم
يشتبه
والاحوال
هاجم
الرفاعي
##وارج
اعجم
ليقوم
##درالية
اللقيط
الامثل
ظهار
التاثيرات
للرحمن
انتجت
باسلامه
المدرب
مسيحية
##عوبة
المتخصص
المصطلق
بالاث
اعتدى
الريش
المولفات
لاخراج
حلمت
طوافه
خنزير
صرد
وافى
وكاس
واستقبل
مضاربة
لحمل
يهجو
غزية
باطراف
بالامور
اعجمي
##شوش
المات
العيس
اعي
ومكث
##جدية
سلطات
لقرب
وطني
بقدرته
والتكبير
مضاعفة
اروى
##اليه
المخصصة
معدودة
لرواية
بالتب
وجماع
اقض
الحميم
الاف،
##يجة
المخر
الهتهم
يستمعون
لقوا
يلونهم
يليها
وعملت
ازدياد
##ذله
فتحا
عزمت
قياسه
باثنتين
اهاب
اديت
بصدقة
قصف
لجب
نعد
بالولد
متب
##رقون
تقوله
اديبا
حقة
الجيران
بلح
المستدل
لكم،
تتبعوا
لتوفير
دعوتهم
والرسل
الارقم
الخطيية
امض
##يتني
وحوالي
وبرع
وسنذكر
احرق
اضطرب
سباع
##ملها
ابرد
تملي
والصرف
وينتهي
كلهن
حصى
المدينى
تمرد
الثنايية
للرييس
يتر
ورثه
واستب
للسلام
سبحانه،
النباتية
مجردا
بالري
الثل
للاغ
والكفارة
اقتدى
لاكت
فليتبوا
السندي
العملي
ويمين
منحة
واليس
وايدي
للفنون
##وصوف
همته
ردود
اردتم
الموقتة
المستشر
كيوم
يبل
وقولي
وجاه
##صفية
بتغيير
اراني
يلقون
بجا
بخارى
مونث
تطليقة
وباسناده
اتلفه
قبري
سنجر
اعتد
والكفار
الانتداب
الاندية
استوت
وواجب
تعبيره
ابسط
##ميله
فتخرج
واحدته
بمضي
بمجموع
جعلوه
وغز
العاملي
ذاكرا
مفتوحا
المستخدمين
التذكرة
القهار
المعاش
##وهة
لحزب
بنتا
الخصوصية
واجبات
احكامها
النعاس
الموضوعة
غور
والده،
##ريون
القاها
يعدم
##غره
السمر
فالاس
مستغ
والهوى
صادف
قسمه
التفسير،
نهاه
يحرق
امبراطورية
الفال
##رفها
استانف
لقى
وعلة
فخالف
واتي
السرد
متخصصة
وشركة
الخطوب
تاخرت
الدهون
فاصلح
##رارها
كذابا
والقرى
خبرها
السفير
برجله
فدعاه
##حط
السرط
وتضمن
وجدي
استماع
متصرف
مستل
المجروح
##يكس
##وليكي
نزعه
الصدمة
لغيرها
ميلان
والموسسات
لوارث
التحدث
الغرم
واخلاص
بوصفه
حشر
##مص
وتجاوز
فليل
المحطة
برحمة
ضمنت
الترمذي،
حاجز
القسمين
اهلكنا
فيشترط
واياه
العث
الكفارات
الضياع
فالاست
جزيية
بعلبك
سكران
لقطة
فقرات
الغازي
وحماية
المنون
تتاثر
وحاول
حريز
بكا
قواد
##شندي
##رتان
بامان
الاشياء،
ومسالة
النسا
والاجل
الهالك
والمنسوخ
الانصارية
##غناط
العلايي
المسروق
افات
الماس
والزهد
يمنعك
##انج
بالعل
وسجود
وانكار
والعز
الاعتذار
باربعين
الاصدقاء
العاج
باعداد
فالبيع
بشاة
فعليها
بالنيات
باقت
يعقوب،
المبنية
يهدم
ببدر
انيسة
الحويرث
فلبس
والشا
الرفي
اسفا
وصولا
للاكل
ودعوا
التشريح
قرىء
بالواجب
الانطاكي
جرجان
فيمنع
##بايية
وسهم
ياتى
جملا
زوايد
معلى
المتعارف
راضيا
والطواف
حقا،
التغليظ
فنزلوا
المهيمن
الدس
وانفس
وعطف
الاسقع
ادايها
والعشر
##جزاء
يلتقي
متقاربة
للجدل
بفل
ليلي
مسخ
داخله
بخيل
##وار،
ريبة
العاص،
استحسان
جيف
وضر
##ضمان
الخوض
يقا
باظهار
لتقدم
زعمتم
##قاع
وقذف
الرضع
وتلف
عمته
والمشركين
عجزت
سعيه
الانقياد
المناسبات
موهب
ايفان
وانثى
##بت،
وضوح
ويلبس
مكروهة
وكرمه
##شتم
سمير
يضطر
القدوري
##وبيته
وتنظيم
هاجروا
فبادر
##باري
علمني
الدستوايي
لروسيا
اللطف
للحركة
عادات
واضطراب
سلفا
غروبها
ثنى
الذاهب
النادرة
قرارات
الجلسة
بروك
الحاكم،
##ذلان
فسبح
عودا
وسرعان
يتلف
##حل،
التركم
ثيابا
يقابله
كفة
عنزة
واوج
وتوكل
الفرس،
المرسوم
يفعلها
##ينز
اسره
وجه،
المعمول
والسيف
عاجل
بجواب
##واعق
ايديهما
لخوف
بالصف
المسكن
الحديثة،
يستخلف
احتفظ
احترازا
الدمياطي
##جعلها
يموتون
البنفس
ويعتمد
التوقيت
الدية،
اسنده
مستخد
المقدور
السلفية
جدران
لنه
هكت
لامتناع
متقدما
الفتيان
لانس
طهران
فيضع
##اميم
استبراء
افاء
حاجتي
يبتغون
باضمار
شابه
القرد
متغير
##قاطع
##جموعات
خلقناكم
##ونسو
خروجها
##شمي
يحضره
الارضين
يرثي
جنوده
السادات
الاسناد،
اليمين،
العشب
مبعوث
المصانع
تبصر
الصالحون
الموجة
ووصلت
بساير
تعلقه
كوفى
##لازل
##انيك
الامير،
##ضمين
فمنعه
واجرى
وبالاس
والضعف
افل
ليحصل
وسقطت
##عني
فترد
بابك
والعلاج
##قصا
مصغر
بالتسليم
##وتهن
##ناعات
الاقتراح
الكتف
تميزت
المسوولية
ينعزل
اسطول
مغول
مهين
محاكمة
بمقبرة
اليور
##طنها
صدرك
القولان
ارضها
الثقفى
نضلة
المخالفين
اخلص
اودية
ومنكم
اللمس
فحذفت
الحليب
يمنعون
الضيافة
يلبسه
النظير
تراس
سيادة
فطال
واضل
الشىء
وارحم
وعلل
بالكثير
يعجبني
فضربت
##روسة
امست
السياحية
ذكاء
الاقليات
العجيب
وعادت
اوجبت
المحسوس
طرس
مهل
##ابقات
##سمين
يعهد
##دايه
بعضهم،
وغض
الشعثاء
الصغير،
والارشاد
عاتكة
##نباط
##جله
والكم
وعمه
وعقب
ومي
وعلو
الشاميين
فوصف
التراجم
المحاربين
والفاعل
ويتل
اكلم
##عب،
الباين
وطاعته
عقدها
ونايب
عظيما،
رياضة
قصاصا
الخب
اساءة
الطمانينة
شربها
لثلاثة
موصوفة
فيحلف
شوقا
##اطة
##زيا
الحارة
اعاده
المساجد،
الوليمة
بالقاف
غنما
تعاد
ومقام
##بيعه
تشكرون
بسقوط
واقوى
الزمنية
##كينة
##برها
##وبرا
يستحي
الضح
الفترة،
فضول
##وط،
ويستعمل
فاقبلت
رست
العشاير
وعشرا
وابيه
تدعوا
##كاملة
اثبتوا
يبرح
خبزا
لخل
انجل
التقاط
النجاسات
اوامره
عذره
خطبنا
مقامات
ثي
بنصر
التيسير
وتلقى
والقرب
شراحيل
مفص
المسن
والعام
تشق
كذاك
اضحية
الاقرع
الاقوام
خاتمه
البصيرة
والزاي
للشك
الامامي
سينما
##قلا
مايدة
وعقل
##كاما
المصح
واخوته
##بطه
والزرع
لشريك
يصنعون
اهواءهم
قوص
المنة
يعنيه
يشغله
حمية
الثلثان
انصر
والزع
##وسيا
النازل
متميزة
الراح
المشرفة
برزت
الغرباء
بورك
تشر
عراقي
وكلت
موحد
##حلوا
بالجهاد
جنسها
التالي،
انواعا
زدت
عوام
مرع
شييان
رفعا
واحترز
خوفه
فسخه
استاجره
كلت
فيء
الحسبة
التبيين
برسم
وتاخذ
##رث
المذب
التسل
الناطقة
اعطاني
والاثبات
##صع
##ودته
يلبي
المعتادة
##سابهم
الحاجة،
المكونة
التحرز
بالفي
الخيرة
المتحرك
فكنا
المجلس،
##وفيتش
الراد
لاظهار
الكول
الاسراف
يسقى
حملات
ذاكرة
تمل
ولاي
فاسر
الاسكت
اخبرنى
انتباه
قرنه
الشهر،
شاهدان
فوجدوا
عيادة
لكنت
اختبارات
فضح
اطلقوا
الزعفران
شيكاغو
قفاه
الناصح
وخرجه
الهجاء
اوليايه
مزدلفة
خايفا
مظلوما
خيلا
واليقين
التواريخ
مجرم
بشع
لعطاء
دينها
##سهيل
بذبح
مرجح
تاويلان
الدواوين
عقي
وقوته
##حملها
وسماع
وعزم
يكونان
##لبها
الابعد
مواضعها
لامتي
بقلة
العهدة
ليقتل
الاملاء
الضمة
نوعها
##سابا
غزل
##نبه
المطي
مثلت
قومنا
تهوى
تخرجه
النفايات
الجذا
##انيق
وبغض
يمض
واتخاذ
##انه،
واللق
والدا
##حيان،
اجتناب
وثياب
##زاين
بالدراهم
ساقها
خذها
الزمن،
بقلعة
لتنظيم
عهود
النزع
الفشل
##قلبة
المنفي
المناظر
لصاحبها
تلفظ
معرضا
اتخذه
سمعة
لقياس
وعلوم
ساجد
لضرب
##ثورة
الشماخ
##حدار
تحبس
بالحال
فصعد
والجمعة
افتتحت
شغلت
ينهض
موفق
ماوى
##فتر
##عارات
وصوابه
لقبول
مختصا
صوتها
اتباعهم
المنزلية
هجرته
تضعيف
باصحابه
بفساد
وسلموا
يترجح
والقانون
الحكوم
وعرضها
دعواهم
مستعمرة
المتبقية
##جلا
والمحرر
متوجها
بحري
عينيك
الحكومي
بالرواية
العصاة
لبنان،
والسادس
##لكية
التتر
يعيب
حلوان
فاستغفر
ذنوبكم
وراسه
الميناء
##راك،
ومراد
تتلى
انفسها
العنزي
مندة
الحقل
الدعوة،
الركاز
فاشتد
والعلة
##مج
##علت
للعام
بتوق
والصيد
تلفزي
بتاخير
المقرىء
تعاطي
المفاوضات
مشكلات
الاغتصاب
تبحث
فعا
المته
تعويض
ومكر
الامراء،
الاليم
جهرا
مدرسا
هدر
وشرك
الزوج،
وحديثا
يعطون
بالوصف
يراعى
بليغ
تختار
خور
والجرح
اعتبارها
احتياجات
دوس
المومل
##كانه
الشعار
##قبلها
وكتابه
##باتها
يشترى
مشييته
عراة
عريضة
الحشا
##ريجي
الاقتراع
الفاسقين
تفا
الحلب
وابطال
وصب
اكتسبت
قبلهما
وراءها
الحرم،
حثمة
بالتصغير
تدرون
ذهن
الاساطير
المتون
بشق
واعتقد
روج
الفجار
وبرا
للموكل
يكتم
ازواجهم
يوتيه
النامية
حلفاء
جايز،
المتنوعة
##وقراطية
لتبين
الاباط
السداد
اصطفى
انتشارا
تحذير
الضالة
امتلا
خيط
##ضطرار
شتاء
انطلاق
ممارس
بالامام
وثلاثماية،
شاهده
ذبحها
عاجلا
حذاء
فيلي
الحسي
متمت
يلجا
للعقل
وذوي
قاتلهم
يحملها
ضالة
قرد
الرخاء
بستة
ثيبا
ندى
الميسر
وعمارة
بعدت
متميز
فتصح
##كسرت
الجدال
انقراض
تراكم
الشاطي
اخلاقه
الخارجة
نوب
معقدة
يتحلل
##احته
ونفذ
تفويض
للعقد
ينتسب
زيادات
مواليه
ونهيه
مارب
##غز
انجز
عني،
##منها
اللع
اهوى
مخف
تراها
استعان
الوظيفية
##كته
##ينين
للاقت
##قالا
التسهيل
واخرها
ونظاير
السينمايي
الدرة
بتخ
##وريس
والاعتبار
##ست،
النديم
##ويري
المعدات
الفحشاء
##سبير
بتصرف
عرفته
يقترن
الارواء
تفعله
دقيقا
صبرة
فحمله
##كم؟
##ربته
البغل
##اسر
الاقوى
والاداب
##والم
تفكر
اقتص
الخزاز
وتدخل
##وفاك
باذان
نسمة،
باعيان
تعرضوا
يلقاه
البطالة
ضيقا
المهارات
والفا
واليها
والعدد
والكمال
طريقان
فاستح
المضروب
بنار
مفاهيم
بالفضة
هاتان
ماذونا
##وليت
تنظم
عزاه
جزاك
بالخلق
المفارقة
للحمل
تستند
فالمش
اصيبت
ادايه
المرابحة
بالخص
الكاذبة
وتاخر
##كند
قدمي
اصالة
وحرك
المخاض
مطاب
الملحق
مرضية
مشتر
منزلي
رشدين
كند
##يلو
فقص
ويلاحظ
اسوار
راغب
فجميع
قدمته
##زعت
ويخبر
##اقي
مقرن
ونحوها،
##يمامة
المحدودة
يقصده
تسيطر
وذل
فيسلم
للقل
##ايتهم
حدايق
احدثه
##عماله
تركوه
كتبوا
يضرهم
وقدرة
صلينا
الجنس،
##نفس
مايه
السطر
الانش
والسياسة
العلمية،
واسته
خلوة
##سامة
المحمل
##يع،
##طففين
##شاها
بصريح
يقدمون
خارجه
صوفي
نين
القلاع
الرباب
المتواتر
اتصف
الهوايية
يميني
تمد
المناظرة
والصبح
مكانه،
فرقوا
الاسترالية
##راتيجي
وتما
وجنة
##روهن
تجيب
والنوع
واتاه
لمعاوية
والمستوعب
##صمة
بغيا
ورجعت
ورجحه
تقدما
يبعثون
عصي
الفان
مثلكم
خلفي
شغله
تايب
وقواعد
لعباد
تحسبن
تشكلت
وينا
الموجهة
والاناث
الخاطر
##حاك،
بحضرته
وقعوا
بزوال
قابوس
مخاطبة
ولزوم
الهبوط
لكثر
##راق،
الحملات
ذكري
اصدقاء
##سابه
تعكس
يفنى
بطاعته
الجمع،
تخير
وظلت
المعتدل
اثباتها
المحتال
وتاثير
حمران
##دوز
وتجد
وبفتح
شعرت
واسامة
والخنزير
يغن
بوابة
وارادته
تسببت
اضيفت
وولاية
وتمسك
استرق
ورغب
القياسي
ينجح
ليزيد
مستعملا
سنام
##حلال
معنيين
يستجاب
راهم
برقة
الافراط
خطابه
القطان،
يفرد
##شال
##ديش
اقرض
وشغل
تدركه
فرانك
التحصيل
مريدا
تاكلون
تاخيرها
حركتها
وفعلا
حى
شقيقه
لاعمال
الغمر
بالقاهرة،
حلل
حضروا
الموجل
السحور
مشغول
جيو
الحطيية
اعالي
##كانها
فتوفي
لبشر
##لاطون
تان
طغي
لومة
يسرا
وطاف
لحقت
##وازية
التنور
زاهدا
سنتي
مبال
هادوا
انذا
مسام
نجده
يمنعها
الحلقات
راته
##موس
ونفع
تنف
الولد،
المزمل
يشبهه
وصدقه
للناظر
ببي
الحاسب
المستحيل
سنقر
الركبة
زكي
##ارهم
ويصرف
وثبوت
انسحاب
فانظروا
##ثات
والثمن
رويدا
يظهرون
تهت
عظمته
بزيارة
غرين
يراس
بالوجوب
لمصدر
##قلان
ببير
الاقران
التضحية
بالقدرة
للدم
الواصل
الاعياد
المفرط
الاستسلام
المزدلفة
فرجة
وبرة
فيينا
##راوية
ماضي
وسلامة
انكشف
فرعية
الجمهور،
الليبرالية
لاعلم
بالجهل
مقدرا
البطين
بعبارة
وذكرها
صرفها
الثعلب
مقابله
##سيد
ومول
بتاسيس
تزد
جنسية
فيتعين
كيلومترا
نجاة
وعضو
فعلتم
نالت
بنع
لوحات
##قاعد
والفايق
التحدي
تاييد
سفيه
يعطف
عدله
امارات
تتواجد
الاعمار
اقرانه
تقريرا
اضافته
واتخذوا
المقصودة
موجه
كليات
بالاكل
لحج
ولد،
السرايا
طفيل
المبالغ
اصطف
بالمشي
بالنقل
المناهج
##ذوق
التقت
اخيه،
يعزر
وادراك
بادنى
بقدره
بمناسبة
وانفرد
ارها
زوجات
خلقي
محمولا
الاهوازي
المقتر
يفقهون
فباعه
الصوديوم
ونفسه
غلبه
انطلقوا
انواعه
الظهيرية
قعدت
والشرق
الاجناد
وعدت
وحاشية
قارن
الموصل،
ويض
مسطح
رجحه
لقلت
##اثا
المفسدين
تسلط
ارواحهم
نقيب
وابر
اربابا
رمزا
##صاها
الفسطاط
بكمال
يسبحون
عاقلته
غنا
##يلاد
ولده،
وبمن
بغا
جاهلي
##يلته
القمة
##ودت
البقل
للولي
وبانه
المعالج
##زيمات
بقوا
تخشى
السامري
غلاف
الكاري
الظبي
بهذا،
بالسوية
درر
واديا
وهكذا،
المختارة
يريب
##طاس
##صبه
لمصر
ومنك
فلا،
بدلها
وفص
لتحقق
فعلان
وطبقات
الايادي
وتذهب
تاويلا
وتحول
واثنان
القياسية
يشهدوا
الوعاء
الرباعي
الدوران
للاتباع
ورايته
الاذهان
الجيدة
اعيا
عدالته
محنة
قتلة
خيرها
النتاج
ازدادت
سويا
##هوات
اوز
الذوق
بدراهم
بحار
نتبع
ودخلوا
تحصيله
##بوس
##وريد
الدمام
الالياف
والثمار
##فارد
##وارثه
والاستدلال
الاطلاق،
مستحبة
الويب
اتح
والاكت
الموخر
اختير
همذان
تفريع
الافهام
الجسم،
##ظمت
المسموع
فتارة
تملا
سدرة
مراه
القداح
الفروق
ويصلح
النادر
عديدة،
يبدي
يغزو
تعترف
انقسام
الرازي،
جونز
السوفييتي
فروي
فيصبح
بالحمل
وجحد
الاناض
ادوية
امامك
الفلسطين
ومسلم،
الغزوة
المقاطعات
جذعة
المصيصي
القرامطة
بطانة
ثمرات
الام،
يضرك
الفلسفية
وذهاب
مومنون
فوالذي
هرمون
والثلاثين
والشعراء
فيجد
والرح
الدروع
والتخفيف
باينة
احلت
عبور
لحكمة
مطاع
اموالنا
لاجلها
فريدريك
البيزنطي
اليشكري
جوده
شيم
يوزن
واكم
للتي
الاسقف
الغيم
يسمونها
برهن
وبخلاف
تكذبان
والاثم
والخاص
لكونهم
##شقاق
وازداد
يتفاوت
الناقل
المبهم
اللقاح
الاكتياب
تفيض
الصر
الاسلم
اكفر
البرون
اطرافه
تطعم
وكلوا
السجلات
ليقولن
##ربيا
ياوي
المحنة
تجويز
يبقي
مزاج
الجنايية
كرمان
ماركس
والمناطق
فعلمت
المساعدات
الاواني
العف
الترفيه
##اتون
يتواجد
يدريك
للمنت
نسق
البدنة
نظروا
كونهما
وصفات
الذهب،
حرجا
موثرا
بوف
جثة
قنت
كاح
##سلا
##ديح
اتدرون
محام
قليل،
رحلات
اسبابه
ملاء
الاحيان،
الدما
ليوسف
فتنت
##خرط
مكش
قدرنا
لاتحاد
مذكرة
##شفه
انام
بنقص
ابنية
موكل
وثاب
امتار
عاصيا
الباطل،
افعالهم
تغييرات
خادما
الاكمل
العنت
وتوزيع
المعبر
والاختيار
يبصرون
لنشر
المذكورة،
وتنفيذ
دحيم
##سية،
المورث
واراه
واصد
الفيت
للنهي
وحسين
منتف
اخبارهم
التخصصات
الموه
الجفاف
فاجلس
##طلبة
وشروط
القراات
ودعوة
##وافر
بالمه
فاحتمل
وجزاء
##صلب
محك
##واتف
الظه
ارضية
دلف
##الحة
السهر
الرفيع
ويبت
##وجين
قدرات
ومقر
برية
تقدمها
تخطي
الحالات،
استحالة
سكنية
يكتفى
توكلت
زحف
طباع
يلف
نسيج
بتعيين
التصريف
اجنحة
انابيب
الفوضى
وخسر
بشهوة
مصانع
احدهما،
ارضي
الشاعر،
صلاحها
الاستهزاء
اعتكافه
اضافي
واغفر
##ايبين
ومواضع
الاسقاط
متج
اقناع
موته،
وخيار
انفجار
##راتيجيات
والتدبير
كفيلا
زاير
مايتا
يصفون
يستب
للتس
والامانة
واجب،
وعقبة
الفاحش
الرضوان
ويسب
فالوجه
تميمة
عبق
جلالة
والدولة
زوجين
جهده
حسبت
يفتر
نحكم
باصبعه
اختصاصه
السريرية
وقاتلوا
##وذي
الشفا
الفكري
الشمال،
مساو
الفرضية
اليربوع
هتك
##لهن
الايلي
اعياد
اعانة
##رضوا
الاولوية
فالاص
بماذا
يغلق
قصيرا
ميخ
تحققت
العثمانية،
##ونته
واباح
نهوا
العبور
الاحمر،
ناجحة
ظفرت
الجموع
للوق
مقالته
فعلية
بساتين
سماحة
فاحكم
حدوثه
مسيحي
ابرهة
##زمان
##وننا
متخصص
ودام
الريان
ووادي
مظفر
اندفع
##حموا
الثنية
ومجاز
ليط
عصم
استيصال
لتجنب
وانفق
فتحه
بخار
##ارعون
الاسمية
حمامة
والافت
بمرور
جابرا
لوزارة
بالنع
البساتين
##يتد
يتيح
الموك
يستق
والسما
الاشاعرة
بطونهم
التحري
شرطهما
المنتظر
بالراء
وعلامة
اشكر
فالاف
ستالين
تراني
يجعلنا
كارول
بثمنه
طابت
##زامن
واطال
ماضيا
##قطعة
تادي
##ناديل
دخولهم
يبلغوا
وطاوس
التغلبي
تورث
##خية
وكانما
الغنا
##حادي
يحث
قايلة
اللامع
رضوا
البهجة
وفتحت
##رهم
بي،
بالجملة
الاختين
المكان،
بضمتين
غلم
##يتش
بتطوير
ولكنك
صلبة
تقتصر
للاستخدام
مادام
تراج
خليط
مباد
والوث
الرطبة
##عهن
والبلا
الهامش
##خاذه
والتعظيم
##وكان
بالشي
##ودور
##افعين
فاوجب
##ذهل
الاونة
الاطفال،
ابواه
الذبيحة
##ازف
بمج
##جا،
لبنى
وارادوا
وبيانه
البوسنة
جذا
ريق
سادة
مميزا
##فيفة
البقيع
التفريط
الاشعاع
استدراك
تلبية
صغارا
انجلي
الغدد
متاحة
وحط
ذهب،
النبيل
معيط
خياره
يعطوا
العواقب
الابداع
مسوولة
مجزوء
خو
مطع
وتلق
وجزا
بدونها
الضال
والسيا
الاحصان
صفاء
دعني
نهيك
الصواب،
ونكاح
مستو
مستوفى
والهداية
واحتمال
يرضي
جاريا
والسرقة
قرابته
بخيبر
كنى
##طلت
ادق
الفتاح
جنوبي
ويعبد
البليغ
الدروز
المتكبر
والخي
فضلت
##وافذ
والاصابة
ونصفه
ضيعة
##ترات
بالدر
مجاهدا
الشييين
البيولوجية
تجبر
فحديث
الايرلندي
اا
الرملة
وجوها
##طارا
وضعته
بالدار
بفلان
##بوب
العذري
##بتون
ويملك
وتسعة
مركزية
والواحد
الاسكندرية،
ضيقة
##لن
##بكر
##خرفة
القيء
السمات
وحجاج
مشارق
الاصبغ
مريم،
الشخير
البوص
يخالط
فتبسم
##ظمي
معها،
##علج
القرص
##كتين
والنجم
ياتيني
الاحوال،
السايد
الجعدي
غريمه
##وذه
##نحة
عداده
مستقرا
توعد
والشمال
وغفر
الاربعة،
المرض،
##دونيسيا
دوما
فصب
فخلع
بالادلة
يسره
ويرضى
الارزاق
طيور
ويمتنع
اليل
الموجه
الكالسيوم
فاحد
ولغير
فتجد
اتزوج
الهوا
وزار
يظنه
شاق
عصفور
ميرك
وتغيير
لعشر
لقاح
قتل،
وانهزم
الشعبي،
شوارع
وشعيب
والنبوة
الاقدار
الانبار
المتك
##طاهم
قتلنا
العامي
الحاجز
الرسل،
فاخبرهم
للزراعة
بحدوث
يراعي
معادن
منقطعة
##ذبت
ايج
##روون
بنيان
سيط
العقدي
امتحان
مقاطع
السيرافي
جاير
النبل
ونخ
بحالها
مضادات
افتقر
ابياتا
اتقاني
المسوولة
توات
##نبل
المراجعة
الاحمد
الحضارات
معادلة
وكنيته
وعيون
والتاخير
الراب
المقادير
يتعبد
يعصم
##ذرين
فسكن
##جزيه
نفاس
الموتمرات
##وبا،
تفعلون
التابعين،
الحت
تكبيرات
والشين
ببطلان
ويحلف
اجمعين،
يبتغي
الوظيفي
العتبية
بحت
عتيك
نويت
وقات
الكرا
يمكث
للاية
واريد
وقتنا
بالحجة
شهوته
##رشيد
صيامه
مجييه
فنب
العبادي
##ايصه
استلام
صفد
كافرة
للاشخاص
فتاويه
نوت
##اليات
الترس
الختم
يتخلص
متتابعين
امرهما
لحية
ردته
وفرقة
بذله
وجنوده
المانيا،
طمعا
##لاحي
اتصاف
حديثهم
موثرة
##ماتهم
فجايز
يشتريه
الدولية،
معتاد
التتمة
الفصولين
اصابتهم
فانتهى
##يتر
لعين
المايع
الخطط
زوجك
بسيفه
استطاعوا
والحدود
وباطنا
نقت
نحل
متغ
شرطية
اصابوا
ومرك
واختلفت
سايق
##ناني
##لمون
التضعيف
وتعود
بقياس
بحساب
مستخدم
الظاء
الاصلين
امنين
شرطها
##وديو
مرتبا
##كارم
وساروا
كوني
نافية
ولاهل
يعتكف
والمسك
منه؛
يسق
تتش
##اثية
وامرت
وذبح
موجات
والعتاق
لورثته
المبعوث
اعجز
للمرض
اذل
##رسه
اضاع
لسيد
##اعيان
مرضاة
اللسان،
القدم،
يهتدون
السراويل
رشيق
لفا
##وياء
الخالي
بعباد
مبهم
بالمرض
تحركت
وتحديدا
التجيبي
##ربة،
حديثين
تتقدم
ثقافية
متفاوتة
جمر
ضواحي
##قعة
متبع
مثلثة
وطرح
والفطر
المكية
##وديعة
ويخالف
اياي
بالرسول
هضبة
حوت
وكث
وشراء
والدية
يهوى
موقفه
الطويل،
فيشمل
غرام
##غمة
العليا،
وارش
المجرمون
وامنوا
للسيطرة
عليه؟
والشدة
بنوه
##ونني
الحيز
لايت
اتعرف
تنفسخ
بيانها
السلف،
رغبته
يطف
##هدي
النسر
يجبه
وصيام
الرواتب
شكله
فالمقصود
مانعة
حقيقيا
##حور
لمكافحة
وبغ
بكيت
تسهيل
ويتصدق
والنسبة
فاسقط
الاصلاحات
صبري
##منون
للخدمة
الاستث
بتل
تكبر
بالخط
تصرفات
يعطيها
المحاضرة
كاق
##ريرا
لاحب
ماهان
السراب
##باية
##روبا
وعف
استكمل
وحرب
واسرع
وطرا
الحمل،
شاذة
والسلوك
المتاخرة
بارتفاع
دعى
المذي
النسايى
تسيل
فروا
بشرية
التقديرات
المعتدة
للدراسات
نفيس
الانقسام
بتنفيذ
فكتبت
نحمده
بنب
اخلق
وانقطاع
##ضييق
وخلفه
وردها
تاملت
درجته
موات
فيصدق
كتمان
المنتشرة
كرهوا
دولي
صورا
##صلات
المبدل
الارم
والاجر
الجنات
والتمييز
عدلت
الحجام
فنلندا
ويميت
##روبية
##جعة
##ذبا
للغا
وتحقق
وحجر
وفاته،
صاحبا
فعظم
السلط
##يزيا
مخبر
للجمهور
يحفظه
زيارته
العجلة
##رجون
المشابهة
وغاب
باقيه
القلبية
لغيره،
اعادتها
اوري
الخصب
يتفرقا
والعزى
جزافا
الحدايق
معرفتها
بربه
ندعو
واستحق
فعرفت
ازرق
نشاطه
سقيم
واقطع
وقود
امتلاك
نترك
ثانية،
ايط
مواهب
صورتها
اعطيك
يتحرى
معتقدا
العزلة
##امرة
بعدكم
الاصمع
واسناد
للطلاب
الدبلوماسية
ب،
فبت
##عنا
##ثمة
##ايبه
رحمها
ودلالة
اليهودية،
هدانا
الفرنسية،
##ساتشوست
ينفعك
يفهمه
يصيبهم
اسطورة
الحداثة
خالة
رقيب
##عالب
وافعل
حرمها
حريصا
ووت
فيكره
القاس
الرخص
تصديقه
الخطية
بالتيمم
دارك
الجزار
##زامه
وذم
فابن
اطف
الحيتان
قريبه
اللييم
المفردة
المرسلة
نعامة
مخلص
محتوى
جوادا
ببعضه
المهن
اللحد
ادراكه
المنقولة
المتعاقدين
شبها
العضل
الجماد
يقطر
مديرية
الفتحة
تفصل
مواضيع
الدهر،
كسبوا
منشا
القين
الاب،
يغتر
مواقيت
المفيدة
##علمون
البعض،
نهاييا
يمانية
##وقين
بحاج
فاتك
انصرفت
يفسره
يطبق
##قنا
ترغب
العذاب،
##حيوانات
##زية،
اندادا
القطار
اخطر
فاقسم
ليحكم
##عتنا
تقبيل
والعنب
رحمتك
وضعا
انواعها
خارجي
ج،
##فرين
الثورية
اتضح
انتبه
الابط
البطون
فيلق
وقنا
القامة
النقا
تعاقب
والبصرة
صحبت
المطابقة
بالسكون
الوسواس
ونعمة
نبهان
الثمانينات
بيه
طرب
وعباس
توعدون
لسعد
غيظ
##غلال
##وعة،
##ثاق
##انوية
وحرف
والحفاظ
والقبض
شمول
##اليل
ابع
ابصرت
والمملكة
جزاكم
واقيموا
الشريان
المسر
فليد
الحكمين
##جارة،
عدلين
متاخرا
فنام
نرجع
اوكس
الشقاء
الروحية
مفرط
واجهة
الاخرس
والنظ
السابقون
##صارات
امتناعه
التدخين
منزلها
ريحها
يمسي
دري
##ريحا
التوت
##قدها
##تقام
ضعفت
##غتون
شرابا
اضم
وورث
وقرن
السوم
##برى
وسه
لمزيد
احج
نسخا
بالسلاح
نخبة
يعذبهم
الجويني
المباريات
حنف
صياد
عوان
##سلام
صداقا
امامها
بايجاب
مرادهم
مراق
والوزن
الشبع
بتر
حقن
يلعن
الصفرة
للقلق
مابين
لفتح
والبرهان
بعود
وحز
المنشات
نسوا
تاذن
داره،
##خاطر
سكينة
الحشفة
##ضته
وليمة
يسلب
مستب
صدقة،
الموسس
المقلد
ذوى
##زز
الريق
##الطة
واشر
التبادل
##باها
##ومغناط
الرما
وتردد
اسانيد
وللك
مفضل
الجليلة
يعودون
القصر،
قميصا
يسيطر
##ذرات
الاضمار
ضمها
##ماكن
المكا
وتوفير
اسماع
ولكنني
يخش
الرواية،
المواضيع
الدراية
يشربون
فسميت
حاصلا
منفعته
شقة
يوني
##يران،
ويتكلم
##ازا
مستور
وزنها
بالكف
مغادرة
فمما
الغربي،
فوضعت
بالاخبار
بزا
رماح
فوص
وقاية
الطيرة
خالط
اللفظي
للواحد
تدين
سيه
سداد
مبعث
اليات
اشياخ
ذاته،
تغسل
سواحل
تدبيره
منزلت
الروابط
للخص
اسك
يزيدون
وتعذر
تخيل
مضافة
فصيام
الوضعية
ووصله
كصلاة
السوفياتي
التحر
الشغل
الفسي
##افحة
متوجه
يستحسن
والنقصان
بروايته
مواصلة
للكافر
النحو،
يجلد
##تان،
##لهل
بينكما
موسر
اطيعوا
كعبد
السلاسل
بوي
وراه
بالبط
الدان
تعددت
شديد،
مقصورا
المبيعات
ماجه،
الدعاوى
والشيطان
قوتها
واللب
الجيب
فقده
وموال
بموسى
يمحو
##كيز
ترين
الشر،
الليث،
##ناعي
بالحرم
##كلوا
المتس
يونا
يمكنك
تستلزم
الحرمان
الثقات،
مجتمعين
اختارها
الطلقة
مشركي
##ضال
وابرز
النقط
##ردت
##راءى
تشكي
حصون
مشتملة
شعبان،
وتمثل
صرحت
تتاب
تنزع
المصنع
يخط
مكعب
العقدة
##شىء
فاكتب
ضابطا
سامع
استيفا
اجعله
والثياب
زوجته،
يطمين
ارسلني
التستري
مراكش
بعباده
يحوي
بالتج
##دىء
نصر،
يعتقده
فالاقرب
صحن
ضلوا
##وتى
##زلها
وكاد
##سميه
تصريف
القطيعي
##زف
انشي
##ورك،
##رووا
المعول
اقله
سلس
حرصا
والسلامة
محتر
فردها
نطقت
هلاكه
تالف
##نجة
بالوق
وترجع
لانهن
والعسل
يكسبون
مطمين
عويمر
شقيقة
الناجمة
والمونث
اغسل
وغرب
فاتبعه
بقولي
السايمة
معقد
فتية
مالهم
والترهيب
##حلية
##خش
الاثمان
ويوما
وفيهما
ممنوعة
واعتبار
التناسلية
الفلكي
اخوف
البيا
##زم،
شكوى
المحتلة
بالطايف
ملتقى
نعتا
الاتقان
ابدع
اوهم
تعاليم
لانقطاع
وجيه
ينصرون
اتيك
والتوكل
والنوم
فرعا
يزالوا
ازالتها
والورع
فحرم
ويبغ
استم
##والا
حالك
فصبر
##حولين
رفيقا
لسليمان
وجايز
لعرض
هرون
والبغي
بالسفر
والمنطق
بالهمزة
##خولها
المملك
الفصيل
الخاتمة
##يتس
ونشرت
المجتبى
الخطابة
النبى،
يصدقه
يغتفر
السياسية،
العزي
الشرا
وانني
##حاز
المنازعة
##راجا
جنح
الطيب،
لنفسها
قيما
المغيث
الحجب
المسكر
##واعظ
واشتقاق
التبشير
تذكير
خسف
انصف
البشير
للمشت
المشارق
##قبلة
ويشكل
حتم
فامنوا
الخمار
وفروع
يشاء،
شهاب،
فينزل
قضاها
ممتنعا
متحركة
المحظور
عرى
السول
اصطلح
يفارقه
فويل
علان
التفاعلات
النكت
##لفل
##مسح
الضماير
عبيدة،
السلاطين
نهد
التوص
يتيقن
##وتم
##مت،
الموانع
فليفعل
فيتنام
عمران،
##قصاص
الجلود
وحفظه
سالف
##ليني
##ينوس
والصلة
وعض
المتغير
فعسى
يلوح
وتشهد
الخبايث
اجنبيا
تفسر
بنقد
افلس
المقبول
نعمتي
التعويض
يحدثه
وحينما
خليف
##زود
للقول
يستشهد
بصوم
فضلك
تطالب
واطراف
فوضعه
اديب،
طويلا،
##يبان
فتيان
##راييني
##فضوا
اعطت
المرضية
الرسالة،
بايعت
يستخدمون
تنازعوا
##عش
يدير
والدنانير
وطيت
##ناعية
الموسر
الملوك،
ارطال
##وينا
كسرها
القوايم
ينضم
الدينوري
كالمع
##وسفات
اليرموك
##نح
بالقط
للسبب
اسمان
ولط
مصرا
##مارها
يظفر
المستملي
##لامات
واطاع
ماش
##صرنا
سمية
دراستها
محترز
والتقريب
بالذين
الاعلم
يفتى
ولديه
لجان
منتظم
نتحدث
الحلقوم
زمرة
واسند
التداوي
##ديرا
الفوقية
وجاهدوا
حديثه،
يسكر
وزيره
بصاحبه
العمرى
للصحة
وتصبح
والتحريم
علله
بكلامه
واستبد
زيدان
فكانهم
برص
للتبعيض
النارية
تفويت
تخفيض
ليلة،
جرعة
##غول
والحرم
الجون
وكافر
للرا
##وتات
وامريكا
حملنا
مرارة
بزيد
الوسايط
يبرز
مته
##قني
المضل
اولية
##كتهم
بحرب
##عرانة
يغدو
الجاز
##ويله
##ختر
مقادير
اطلاقا
والروا
انشقت
والابن
لقراءة
فراشا
سحيم
نحتاج
واعداد
وللق
بقاع
##فهومه
لابى
اشتركا
بالعرض
حساسية
وعندها
ماية،
الرشا
الرضيع
اتنا
موريس
للموصى
##رابط
التابيد
المكتري
خالفهم
البينونة
تسالني
واحكامه
عينة
غارة
فنت
الخيمة
##وج،
الاسماع
وبقاء
وعدهم
حكاهما
ابتلى
والزبيب
لولاية
الاقاويل
##هدا
وتدل
تصنف
التشابه
حفيد
حوى
مدرب
بفترة
قانت
بالظن
الفيات
امامته
والرغبة
السفارة
الواقعية
الغازات
بالطا
الجباب
يفد
عقوبات
تطويل
مستحيل
الاوروبيين
مفعوله
فاقتتلوا
مستدركه
ترامب
رعي
عسك
هراة
##ظيفة
الطحان
المنصور،
بذهب
هانى
عليهما،
الرقى
ادار
والعجز
تشتهر
الاشتباه
زالوا
واوس
ومية
المصورة
حسابه
مملوءة
الاوساط
والملح
والمالكية
الظهيرة
كرجل
لقر
بالدعوة
القطا
الناشي
المشا
التجريبية
معيبا
فيكتب
يطرا
يعده
منتظمة
لذوي
لينة
ووالد
الترق
للمج
بحض
الاجساد
مصغرا
الاهالي
بافواه
عفراء
تومنون
##بيلي
فيدل
الايم
##كريا
والتلف
##كاكين
حكموا
ظلمت
منصوبة
خافت
المعافري
حصد
وابدا
استثمار
المعتل
الادعية
رجعية
المعلومة
راكعا
مصنوعة
حكايات
بنف
##كونن
الجزور
وعبدالله
لغوا
##واهد
الكيان
للفرق
##رورات
داير
والدول
عباده،
بالحس
الجزيرة،
كامب
المثنى،
تصدقت
لتشكيل
حايضا
بضرورة
سدا
ويخل
##عرش
الرحيم،
القبور،
سقوطه
تحريما
مرابحة
يتساءلون
جياد
حجز
الصعبة
##والب
قاضى
الحماسة
الابادة
بلحم
##صدير
مفرو
للفريق
مذحج
برسالة
تشرع
حافة
تنوين
فبم
بخمسماية
ونعيم
السويدي
طيار
بلجيكا
شعبي
صغيرة،
وسلوك
مباركة
غرو
والمشت
كاينة
السجون
النسب،
ذهنه
المحققون
##فيون
للبيه
##نيفة
يتيما
الزمني
والترم
واحدهم
الكتابين
##بالا
صنعته
الطاعة،
الخسارة
تيق
بناوه
##نزيل
الغالبية
مناسبا
النهوض
فاجتمعوا
وبالفعل
فيوم
منصة
للزم
مقربة
انتسب
تنجس
تنقيح
والدراسات
فضلها
##ظاما
بازالة
جبرا
جادل
حوي
خريطة
وعش
يجتنب
يخشون
والنذر
عاطفة
للحاج
فاستوى
فمد
ضرره
تراهم
الجوزجاني
واليون
واجلس
بهما،
النافعة
##قيموا
افرادها
يسلمون
انحراف
محدث،
مخرجه
المتاخرون
ريم
العريض
وسلاح
وبكى
وحشي
##تيح
مقرون
حلفا
مهارات
متكيا
عديم
والحديد
المسم
عاطف
اغني
الاثناء
قصدوا
سجلات
مولفه
طرفيه
بالاسناد
غازيا
خثعم
بزي
سعت
فطن
يسلط
##صهم
انست
حيال
والكه
مجلدين
بمه
نعود
الجلي
##تابه
هداه
كالمست
محرر
الصادقة
لخروج
البواب
##وفهم
##جرها
فسرت
التعصب
بعينه،
زميل
مقدمته
قتيبة،
المنطقي
بحوث
##لع
ماساتشوست
وروا
تكريم
بجماعة
الرجعية
يجعلوا
الخلفي
يتركوا
قارون
والرسالة
السمسار
الشاطبي
##ديف
##اداة
فاجلد
عنه؛
##عملها
خلاف،
فرضي
يقوموا
ثانيهما
قضيب
ونستغفر
وقضيته
غما
##ذايف
البسر
الدخ
##افو
ومكة
المعتكف
الغداء
اناثا
مستندا
والحلق
والطلب
لاحدهم
بمعصية
تساهم
قزوين
فيط
حمدي
برنام
والزيتون
اشهرها
اقيموا
تسبوا
تظاهر
##وضيح
الشفة
##اريق
وفار
##رارهم
واعطاء
مصرية
اللفظين
الوحشي
اوردها
اجابته
لالتقاء
بالتقوى
موجهة
نكتة
فيعود
والوضوء
معصيته
والجنوب
هجوما
قايلون
مجاوزة
اودي
الطيف
يدخر
اذانهم
فبنى
وميكاييل
طايل
الميعاد
##لاهم
لاين
ولباس
دارم
المرزبان
لمعالجة
الجزيي
جورجيا
فاختص
بسعر
بصرف
وامهات
المهني
الرمز
والظفر
يسكنون
مفلح
خلاق
كيم
وصوت
كالرجل
##ناءة
مذنب
##يازات
لوجهين
المعتقدات
نذرا
##مث
بالفقه
يعزل
وعفا
##داهم
اليع
مغربها
ثبوتها
الصافي
نجيح،
اصبعا
وضبطه
اضاعة
عارم
مفقود
لامة
والاضطراب
يستتر
ببقاء
العتمة
مستانفة،
##كين،
والرهن
واتفاق
ميشي
يحلفون
##ايات
واحم
##ياي
النوق
وبيده
امرته
والنقص
والقنا
كقولنا
قلاوون
غول
لحرمة
مولي
ايثار
##اسيوم
لونا
يستيقظ
الاشهب
نعمان
التشكيل
اعدام
يقطعه
الخواطر
نخاف
خند
هجم
انور
يتعمد
ينعم
المعقدة
الضحية
وشراب
مصروف
ازاء
لسعيد
ارتفاعه
##ماهم
والحلم
نقرا
مرضي
اجمعت
الصهاينة
حكاها
##راكا
اوهام
الساير
ليبر
##قايا
##ولاها
ارخص
خيركم
امنية
##لايها
نهيت
صوما
##يلها
##يرن
ونفخ
الغوا
تنطوي
الخصمين
الاعلام،
معناهما
الاسفراييني
قارة
للقب
##تهاده
نظري
اراكم
والنسايي،
بذلت
##ادثات
صبغة
بالذنب
واتباعهم
##تو
عاملة
واعتق
دريد،
الوباء
تضيق
وبصره
الاعارة
تخلى
مختصره
كاملة،
الزواج،
علت
الروع
الذياب
يعش
كلنا
##ضعفه
##متعون
عشرينه
لابوين
مواسم
الصالحين،
تغيرات
العلاف
التماس
##مرين
ايكون
والحرف
يطرق
المذكورات
نجسة
مجهول،
الطرماح
تولية
رشا
ومسند
الماثور
وقولها
##رافقة
شرها
بمنزل
الكلالة
معترف
نخلا
التفتيش
طغى
والولاء
الرمية
##ليز
##اسمة
الالسنة
والحفظ
ويبعد
العالية،
مصنوع
تفلحون
##فني
الفلاة
اعقب
القايلة
توقد
الصدقة،
الانتحار
المساكن
عارضه
طاقم
نقدر
وانتشار
اظهروا
المتعدي
الراسمالية
ينمو
والتعاون
##مالها
مقالا
عقوبته
وطهر
وضربت
ينتفي
لشراء
المرضعة
وكنتم
تاجيل
حادة
سادات
المفسد
اوبا
##وفيه
يوشع
وستر
عبادنا
حامية
والشرع
يختلط
مكلفا
وكونها
والمحرم
وحث
اللورد
اعتزل
حللت
السببية
محليا
بنايها
المسيء
بسماع
والفصل
يطاق
الركبان
الصوم،
مقطوعة
نعليه
خضرة
انفر
السالفة
الخاد
ويصوم
ولسنا
##سبورغ
برقان
حزبه
مكاتبا
بجهة
حشد
##ذول
الموعود
وانفسهم
وارفع
الباعث
بنيته
الهندسية
شاور
السكاني
احتمالا
سايغ
المخاطبين
##غافورة
تطبق
خفيه
والوقت
الغلا
المتواترة
مجا
فعجب
##جهالة
القدس،
ويجزي
حبب
المرتبط
ظلمهم
والضراء
##اويله
الجسدية
مدم
##حيب
مسرور
وزال
كلامي
كونغ
الرشوة
مقلة
انعدام
تعجي
يتامل
والمغيرة
المنادى
مغناط
السكوني
التماثل
وهات
##يريز
البوت
يعيده
كالاع
سلع
المباحث
شنت
بالي
الطابق
بدوام
محط
بالحرب
جاز،
التماثيل
عانى
يقرض
يعمله
##ميان
ونية
##دروا
وشا
راضية
فكثر
مكاتبة
يقترح
والاربعين
جفن
يبارك
##وايب
حداد
الزيادات
ليو
حديثا،
تتف
العديدة
بثوبه
ذنوبهم
القصف
##ربان
الناسي
المشورة
والفوا
##زعون
بالجناية
وحرمة
عصبية
فوك
الحمال
##وفيا
عامه
وصيف
مجيب
ومعي
والنعمة
يقتدي
مبكرة
والاستثناء
الخلافات
مطلوبة
الدستوري
ودعوى
الربعي
وسيع
##ركشي
تجاري
المدفعية
تعرفون
موجبه
النهر،
شوقي
مفسر
وطف
##نيمة
##فنت
النماء
##درية
الاخريين
افلم
لارتفاع
برة
مترد
الامري
اثيوب
المغت
والبول
عيانا
الراي،
مدف
ملع
المزكي
##شته
##التها
وانبا
##قطعه
نعما
سيرين،
سالم،
كادوا
استدلوا
الايجابية
افواههم
تليق
حزمة
الاكمال
تعجز
الانجاب
اصلاب
##رت،
يزع
والنظام
امتنعت
النفخة
الحلو
الاضراب
والاباحة
رءوسهم
حوال
طورا
المعافى
تقيد
الاحماض
اغض
العقيد
وامرات
حقيقة،
تراث
متعددة،
احدثت
وتعليق
شامة
##انيا،
بعيني
فلاح
يصفه
بقرطبة
المدفوع
حجي
حضير
المثل،
خاص،
وازواج
الممثلة
وعشرين،
المبدع
قويت
العما
##مرك
بعيد،
مستلزم
##ابتن
والمعا
اهمال
حفي
سوس
شماس
مشرق
##ميمة
الطبل
كثيره
لحساب
حاشيته
فاستحق
التشري
عاقبته
قيراط
جعد
سامي
منفذ
التنسيق
معيشة
فقها
المتصرف
##رقى
رزقهم
وخلقه
والرجاء
التبعية
سون
نبين
معجزات
وخف
ركز
المنذر،
مثلها،
الرشيدي
الحدثان
##حصل
##ماسة
علانية
وحقيقته
فبقيت
جدوى
##ين؟
علنا
الثر
##وصا
وارباب
شيت،
المقترح
بالاجازة
اخوانكم
ببلده
##اليا
لعان
يعملوا
مرضت
يستحقون
حدودها
تبرز
البرمجيات
المحاسبة
شامي
الاحو
اجابه
يخدع
الاوسط،
مقبولا
وحذيفة
الكش
بتاء
المحذور
وادخال
وقولنا
قواته
مانشستر
صهر
قزعة
ابار
وخفض
تكسب
يغوث
تباين
العميق
يوقنون
كوسيلة
فرانسيسكو
هرت
بالروح
اذاه
يدلك
واعلام
والفخر
التحرك
العدل،
بالثلاث
اتبعت
الحنفية،
الكلمة،
بالبركة
ريك
##ثقل
فتذكر
بحص
ريي
روحا
الليبية
المزمن
الدراسي
السحابة
والورق
ومط
المستودع
كافي
المساهمة
هدايا
الخنا
ونجا
ونهي
##وزان
ليغ
والشخص
اشتروا
وروية
وتعزيز
بالعصا
النبوة،
عمار،
اطرافها
##ادون
فالمن
منتشرة
رسوله،
فرادى
##وايه
لاوليك
وقيده
كانهما
تعالج
متتاب
يغسله
يضربه
للبحر
ويكبر
جلوسه
روع
التجديد
لمد
يتوارث
المعية
اثينا
اثارت
##لابسة
رزقكم
مشركين
بوصفها
حدي
مبحث
وتضع
اجب
يسار،
اربد
الاقمار
بالجماع
##اطبه
والربع
كيب
لفس
نيا
عنك،
اوب
الفارة
ذكرتها
مستشار
الاصيلي
والسلف
حمدون
انتهيت
كونت
شريفا
##فيلد
فبر
لاصل
اسجد
القرشى
مغيب
ينادى
الاسماعيلية
والمقد
##طيك
سنذكره
عقابه
واتس
يحكمون
فرجعوا
تناس
بهت
ومقاب
المعارج
متحي
والنج
بالاخذ
والخضوع
ويدعى
لزومه
التقديرين
وبالتالي،
ومدرسة
شيراز
يجود
كالل
جزى
وقدمنا
يهديه
فهرست
عول
اخماس
للطلاق
الطقس
المتش
##لال،
محتملا
الحجاز،
تولت
يلفظ
والبعث
الجارح
يقله
الغارات
المتقون
اقلام
مثلنا
فعليكم
قرني
ارسلوا
الخاص،
ونسال
الشباب،
بالهند
تفرقت
ذراعيه
ايمتنا
ركانة
عونا
همت
والطف
القباب
المحركات
الاصرار
والمشاهد
التاجيل
نموذجا
يهر
تحج
تنبه
حبلى
علماونا
ووضعه
بخدمة
انبعاث
باو
ملكان
والخميس
بصاير
بالسواد
الكتايب
##طابقة
لعنهم
جوانبه
اعرضوا
اسفلها
زايل
نضر
هور
والقتال
وتصلي
##اجية
##رعته
الاكرام
للدراسة
الموجودين
ونسخ
خصيصا
السلة
اعتداء
ويتكون
الاختراع
فهمت
القبلي
لندن،
؟؟
تون
##قيا
##كوك
الملاك
وحوا
اذني
كثيرين
جرين
الصريحة
فاقد
##ملة،
فلزمه
وصعد
##قالات
التصنيع
مولفة
المسيحيون
ذكرنا،
ليصلي
رجب،
واترك
سجستان
توكيد
واسروا
الاقدم
واصف
##كوني
المعنوي
بالعباد
ازكى
شرحا
وذريته
يلبغا
المعنوية
الغلي
رايعة
مطهرة
خصما
بالرحمة
التمريض
تلفزيون
باخرى
مقرها
النمساوية
رعى
مريضة
الناج
ارتبط
المضاع
وطلبت
والخامسة
والمكاتب
فعدل
##يعا
وجار
موسيقية
صدرا
المنافس
المناعي
والصورة
للسفر
البشرية،
جيتك
صافي
التبرعات
تكميل
كملت
واصدق
وصم
مرشد
وامته
الانتفاضة
جدال
انشدك
شوال،
ينسبون
القوافي
الايتام
##ون؟
حددت
ومحدث
استضاف
توظيف
التحسين
تاكله
المكتبات
والخزرج
ديد
##راص
وعبارته
سلموا
الامكنة
يسوء
وثيق
عبيدا
الريبة
ورابعها
المحتسب
يقطعها
هبوط
حافر
الجني
الرمان
للاصل
المشاهير
عزمه
صدى
البديل
بمنه
حنش
ينتصب
##ومنوا
القلع
اصابات
عاشق
سلاسل
الحنظلي
ممالك
وحياة
بحصته
##ناهز
يصحح
حاجة،
الفتوحات
##ياري
الحوث
اعنى
يستانف
يخفض
##عينوا
فكلا
شخصيا
النظر،
نقلته
وتتميز
دواير
والجلوس
عماله
وارا
استولت
والعادة
المحيا
المحصن
فعليا
انسى
بجبل
يردون
مختبر
السمين
بالغداة
مخلوقاته
التلفزيونية
خدع
هذة
وفسخ
##جيد
##شرى
كتابتها
رجوعا
فكف
فصيلة
فاسمع
قلوبهم،
نشط
نحوه،
مشكوك
اللاي
علوي
بابيه
قبرا
مصارع
ارتباطا
وانتشرت
هكذا،
ذاك،
شعيب،
كرامات
مفردات
رفقا
والبح
العادة،
اخوها
هولاك
الرحلات
الضربة
وروايته
وارس
نقلوا
كحديث
##ينتون
خبيثة
النثر
عمرته
يسجل
افلت
انتصب
عمليا
اراضيها
مستقبلات
دارة
وطلع
يراك
##حباب
##وسيه
يستوجب
لجامعة
جانبها
الهدم
شعره،
##اخرين
الفقهاء،
وكتابة
عابدا
##فلونزا
بالعدد
بقصر
الباقر
مخطي
جعلتها
فرسخا
الاعلامي
لستة
حياتنا
فسالوه
ستيفن
##لاك،
لهما،
للفرد
بعام
المستفاد
بلغته
التنقيح
لسقوط
الايماء
قابلية
العتاهية
كالاست
وكذبوا
##فدع
منكن
