[PAD]
[UNK]
[CLS]
[SEP]
[MASK]
.
/
:
=
|
،
؛
؟
ء
آ
أ
ؤ
إ
ئ
ا
ب
ة
ت
ث
ج
ح
خ
د
ذ
ر
ز
س
ش
ص
ض
ط
ظ
ع
غ
ف
ق
ك
ل
م
ن
ه
و
ى
ي
##ل
##ح
##ر
##م
##ي
##د
##و
##س
##ز
##ه
##ا
##ن
##ف
##ت
##ك
##ع
##خ
##ق
##،
##ج
##أ
##ط
##غ
##ب
##ة
##ص
##ش
##ذ
##ى
##إ
##؛
##ظ
##ئ
##ض
##ء
##ث
##؟
##آ
##ؤ
ال
##ال
في
من
##ان
الم
##لى
##لا
##له
##ما
##ين
##ها
##لي
##ية
وال
##وا
أن
##را
##نا
##ير
عن
الله
##ون
##ار
##لم
بن
الأ
##هم
على
##ول
##ذا
##بي
##ات
##لك
##اب
الع
##ري
الت
##ام
الح
علي
قال
##دي
##ست
لا
بال
ما
الق
وأ
إلى
##اء
أو
وق
##من
##ور
الس
عليه
##اد
الن
##مر
كان
##عد
##ائ
##إن
مع
##حم
الش
##كر
وه
##ته
الب
##في
##سلم
الج
##وم
##رب
##يد
##حد
##أن
##بد
##عة
##يا
الر
لل
##بن
##بر
##خر
الص
##كم
الد
الإ
إن
##يم
##ود
##لة
أي
الذ
الك
##با
الف
##مع
##قد
ذلك
##وله
##رة
هذا
له
ابن
وي
لم
وت
الخ
##اف
##حمد
##لام
##ذه
ولا
##يل
##ة،
وك
##بو
تع
##وج
صلى
يق
به
##رك
##ني
عبد
وسلم
وا
##رف
وع
##بة
فق
##لف
##لو
##سم
الا
##كون
##رو
ثم
##كن
##بل
##لق
##اه
وج
يع
أبي
##حي
هو
بين
##ه،
##مة
إذا
فإن
##قي
بع
##رض
##نة
##يس
##لت
##فس
وهو
لأن
بعد
إلا
الو
قد
##قة
الذي
##فر
الث
##ديث
أنه
##تي
الط
يت
التي
##تى
##اني
##عت
##دة
قوله
##شر
##رج
##عل
##مي
غير
##صل
كما
##حت
##مل
هذه
أبو
##ضي
فيه
##وس
وم
##فا
##سول
##ذلك
وب
##هر
محمد
##سب
##جل
##وي
##حا
عند
حد
##صر
##دا
##الى
النا
وإن
وفي
وقد
##عا
ومن
##هما
##عي
##خت
كل
فقال
##نت
##لب
وقال
أم
ول
##سن
است
##غير
الز
##قت
##هل
##عم
حتى
أخ
يج
##سا
##ضا
##تاب
##سي
وإ
الآ
تعالى
رسول
فأ
عمر
##وق
حدث
إلي
شي
##به
##يت
والم
##بت
بعض
##قا
##فة
##رد
##وب
##اج
المت
##كل
##ثر
##اح
الغ
##سلام
لي
##راء
بل
عنه
يكون
ون
عام
##هد
وكان
##صح
ان
مث
##وز
##وى
##ية،
##اري
أحد
##فع
##مان
##وع
ين
##تب
##خرج
##حر
مت
##وت
ذكر
##ادة
##وف
##رس
##نى
##حة
##قل
بد
##خل
##يب
المع
أع
##اص
فيها
##ارة
يد
وما
##فت
##شت
حي
##جر
قبل
##رات
النبي
حدثنا
##دين
##يرة
فه
بها
##مام
##لاة
##وض
يقول
فلا
##رق
الناس
##ورة
كانت
##مس
##لما
##كان
مس
منه
##لاث
##لال
##لها
##اع
وس
##قول
##بع
##رأ
##جد
##بح
##ظر
##صد
فت
القر
لو
##رح
##سان
##الم
والت
##لية
المن
##زي
عد
##ذكر
بأ
الي
والأ
##شي
يم
##ين،
##ريق
أك
##حو
##رت
وأن
يا
##ها،
وح
أهل
##راد
هي
يوم
لأ
مج
بم
الأم
بأن
مال
ولم
أس
أحمد
الشي
با
##يف
##يات
##لاف
تق
##مت
##صف
سنة
##ند
نفس
##مه
الإسلام
للم
حديث
واحد
بي
##ليل
##وة
يح
أيضا
المس
##از
ولك
##وات
تح
الحديث
##خذ
##الة
##فق
كتاب
الذين
##ئة
##بار
الدين
##ده
لما
ليس
حيث
##عب
##خص
رأ
اله
وهذا
##راه
مثل
##كت
##قط
##زل
الل
كث
##كا
##وال
إس
##حق
يست
أص
##سة
##انية
روا
##وه
لت
إليه
##ناء
##ديد
وهي
##تها
##رع
البي
##طي
فال
مح
##حيح
##ماع
لأنه
##رى
##ابن
ولكن
المؤ
##وان
منها
##هم،
##ينا
رضي
##ضل
##نس
بما
ولو
الوا
##رم
بق
##بير
يس
تت
تم
أمر
مق
فقد
##مال
##اق
##ضع
##ولى
رج
##ذي
المسلم
##آن
##وية
ولي
##ره
وغير
آخر
##اط
##لاء
ثلاث
الصلاة
أما
أش
تن
قول
هنا
الإن
أق
لها
بت
والع
##قدم
##واب
أب
الض
##امة
يأ
المج
عم
##زم
لهم
مما
تأ
##كي
##لات
الاست
##خرى
##مات
فع
وص
فإ
##دم
دا
##كة
##طة
شيء
فى
يش
##تم
##وص
##عيد
كال
##دع
##لاق
##انه
بح
لكن
مست
##ائل
##طل
##جة
علم
##سر
سن
##جب
أح
##ماء
الأول
المش
العلم
رب
باب
##سل
جاء
##ميع
##باس
أف
مش
الرح
حق
فهو
أج
فا
أخبر
##بق
أد
المست
##طلق
بكر
##ولة
إذ
وأما
##دينة
##طان
##ختلف
القرآن
##رائ
المص
دون
وخ
##ضر
##ظم
##اهر
فيما
سمع
فإذا
المح
عليها
##صحاب
قت
بش
فإنه
أكثر
##يرا
رحم
الظ
##ابة
##ولي
##وح
النس
وف
##ركة
##ضاء
يز
##ريد
##رط
تج
أول
إب
##الي
قب
##طر
سي
القا
الأن
المد
بإ
##وجه
##قص
##عه
##لاد
عشر
##غي
فل
##حدث
##ذهب
يؤ
والح
##فظ
##واء
مسلم
وابن
الملك
##جه
مالك
##الح
الشيخ
قلت
الأرض
أخرج
مد
##زة
##ئا
##راهيم
##عين
الرا
والن
رجل
وجه
##قر
##ذر
منهم
تش
ات
يص
تكون
ومع
##غة
##طع
يكن
يخ
العرب
##ان،
نس
يمكن
بك
حال
##اريخ
حين
حكم
لك
يجوز
وش
إنما
##وفي
طريق
##رام
##يه
##سط
##صار
سعيد
لع
تس
##جت
##وري
الحسن
الخط
##انت
##در
الرحمن
ور
##نف
##افة
##مد
##يمة
عب
##رار
##ثل
تص
##قم
والله
##طف
صاح
الثاني
##قب
مؤ
الآخر
##لهم
بخ
ود
##بين
وعلى
الحق
السلام
عمرو
##مو
العالم
دين
عز
وإذا
الكتاب
عليهم
##ليم
المال
##ريم
والإ
فلما
##بيع
##ا،
وذلك
##نيا
وز
الإمام
اعت
##قه
##طن
##عمال
##ظهر
أرب
تحت
##هب
بالم
##ولا
أنها
##هود
##لمة
##ذن
##ئيس
تلك
##اس
الآية
خلال
##ك،
##لاح
واست
##الب
##يمان
الأمر
يعني
نص
يك
الأس
وث
##جم
إبراهيم
##يش
مص
لله
صحيح
##شرة
##الث
خط
##روف
##امل
##ي،
المنا
حم
وإنما
ترك
##اته
##بلغ
##يام
روى
##جا
أخبرنا
موس
الله،
##عر
كثير
انت
##لماء
التع
##ضة
بالت
##ائر
نفسه
فك
##بيل
سبح
الرجل
جميع
كلام
داود
ملك
لن
خال
أخرى
##سبب
الإنسان
عباس
##حدة
الفت
اسم
ست
##ينة
تك
وقت
##هن
##قيق
جز
أصحاب
##قال
##صة
##ذب
والس
##ابت
##حيى
جع
بذلك
إل
هل
##ناه
رحمه
##ضى
الحج
##بات
يف
##طا
شيئا
المؤمن
تد
الأولى
فس
يقال
المسلمين
##فه
##وك
الحكم
##جز
وليس
رقم
##سين
##وائ
وتع
##ته،
##وضع
قل
##ذك
أبا
##ثير
##خاري
فر
##دت
لق
فلم
رواه
##ومة
##عود
بر
##ضم
نحو
أخرجه
صاحب
##ماعة
##نب
##شة
وله
وقيل
الأخ
بني
وبين
##ثمان
سب
##هي
وأبو
هم
##فل
مخ
زيد
##افظ
فلي
غيره
السل
##اهد
مر
##ياس
والش
وعن
للت
##صب
إنه
##بيد
##وء
##نع
عدد
وط
وكذلك
معا
صد
وقوله
##راج
يجب
##خد
المغ
قالوا
موسى
##وط
##حاق
الدنيا
##حرم
##ريب
##علم
أت
##راب
##ألة
##راق
خلق
##رأة
##رفة
##ديم
##زا
اخت
وجل
كانوا
##لوب
##قات
البخاري
الأع
##ونه
عق
ألف
يحيى
فمن
فن
قام
هناك
##جلس
اليوم
##اش
##دى
سبحانه
مات
عائ
أخذ
##افر
قيل
##كس
والج
كذلك
الصح
أنا
##ظيم
##حل
للأ
جمع
##جي
السنة
بالأ
##انا
##مار
##ؤلاء
بالإ
##وجد
##حن
زوج
##تين
##وما
فما
بط
كذا
##ريك
##أل
والص
##وجود
يل
أه
##بيه
##اصة
##وني
##داء
##ياة
##ربي
##ائي
##صي
الجن
امر
وآ
والد
وهم
كنت
خمس
##لائ
الجز
كتب
نا
القول
##زيز
##وبة
##قع
يعت
تقدم
يعلم
##راف
##داد
والث
##هور
زي
##حمل
لمن
ثلاثة
أث
##يز
عدم
##نية
والا
##فار
عنها
##زوج
الحا
قر
##وث
العلماء
##الية
سورة
##افع
اشت
دع
خرج
والخ
##صور
ذلك،
العمل
تط
شرح
فعل
الأص
خير
##اء،
ذكره
نظ
سعد
##ورا
المدينة
بلغ
يزيد
وعد
##ون،
الان
هر
##رجع
##قيقة
##أة
##هار
لح
##فتح
##فسير
##نات
قوم
##لفظ
سمعت
##لس
##كام
موا
يغ
##ى،
معه
فكان
تخ
##باد
وان
يتم
المخ
شيخ
##تهم
رواية
المط
فج
الموا
##معنى
ثنا
##بس
التح
##راض
##د،
تف
بالله
العد
العام
المق
بج
##اعة
الثالث
والق
تست
الجم
مك
فقط
##ب،
يحت
بعضهم
##ؤال
المرأة
وجود
##يني
الكلام
النار
صلاة
احت
وذكر
##ريف
##شف
معنى
الساب
إلخ
##جار
##علق
كيف
النساء
حسن
##وسف
##يع
لإ
واحدة
نع
##راءة
##مرة
أراد
صف
أنت
ألا
مرة
##هاد
##سمى
##ارك
##نين
أعلم
رك
##غم
##يدة
يعرف
عثمان
الأش
أحدهما
##ويل
##اك
القب
إسحاق
لنا
##قدر
يط
عبيد
##حب
نعم
قتل
##راك
##عون
دي
##ليمان
الصحيح
والب
##عدة
فض
ورو
##انة
رس
الرج
##ارت
ولد
سبيل
##ارج
##اله
##وار
##ارث
التق
هؤلاء
##عام
##تمع
سلم
العق
##رسل
##راط
والك
##لوم
الأح
##كثر
بص
##افعي
##جاب
شع
الوقت
##عض
بسبب
أنهم
بيت
دار
جعل
كأن
ذات
عمل
##لد
رأس
##الف
هريرة
سواء
##كره
##امع
##اض
شاء
##هاب
ويت
##فن
بقوله
الرسول
##رش
بغير
##طقة
##فاق
##ولد
أغ
الماء
البحر
المسجد
##ابر
##كاة
الحي
يوسف
##صول
انته
##هة
##واز
وكذا
مكان
الإس
جعفر
##ريح
##ضح
البر
##ات،
بهذا
الدع
العزيز
##صدق
كم
حب
##فاء
رم
وبال
##ارس
وين
وكانت
##ليه
قط
##ضمن
صح
قائ
##جرة
##اذ
لكم
##ثبت
إي
##عة،
الولا
##ناد
##بى
مصر
أبيه
ير
الجنة
قدم
##رير
يقت
نظر
عرف
##صا
##ائع
والتي
##ناس
##وقف
المتحدة
يريد
مط
سليمان
نز
##صدر
##ورية
##هاية
أيام
وضع
وبعد
##واه
اليهود
المذك
##هاء
##فاع
##خدام
بشكل
ورد
عندما
القاضي
بغ
والذي
##فض
بلا
الثانية
##ماعيل
العم
تاريخ
##مش
##روع
##لة،
الأد
وإلا
الرب
نق
بالع
##نه
والسلام
##وقع
##بط
ممن
عنده
##صرف
##ادر
يصح
بالح
عشرة
##لوا
الات
نف
سفي
بالق
##حاديث
الحال
##طاء
##ئذ
الزوج
##انب
القي
التن
صالح
الحرب
إليها
##باع
##يته
أنس
المؤمنين
قالت
##ضافة
الفر
حول
##ق،
الإيمان
##واج
##كذا
يأتي
اقت
بس
بالن
دخل
وغ
حك
المث
عين
عبدال
بنت
##رمذي
وحد
##انون
للح
##له،
##شد
##نائ
الحد
الحك
##كاح
##ذين
جن
الرئيس
##ماد
فهذا
حس
المعت
##م،
للع
القاسم
دخ
##باب
حر
الدار
##اث
بخلاف
العربية
##شا
القرن
وجد
##ساس
شر
رأيت
ظهر
تعد
##تر
##قف
وغيره
##كار
لج
##أم
وفيه
الثلاث
##انيا
السن
##قى
##ديدة
##وجب
##ديه
قري
##بري
##ثار
وير
الروا
فح
الشافعي
##شتري
##ليد
##راس
والف
##يار
بأنه
##خدم
ونحو
أبى
إما
مدينة
##أت
شخص
قدر
شهر
##هات
##اهرة
##ير،
العبد
عائشة
وسلم،
##لوك
مغ
##بيب
يذكر
كت
##بيرة
##طق
##شار
إحد
##ذاب
اللهم
الأخرى
بالك
##بغي
المسي
##باح
تر
##ربية
وقع
الصف
بهم
##ال،
##ائدة
شرط
خلاف
عا
##ارب
##امعة
##يده
بينهما
##طلاق
##فى
لقد
النفس
يخرج
أيها
وصف
الجواب
وتعالى
أجل
أرض
خص
وض
##ونس
رد
أكبر
##واع
الأصل
خلف
##عيف
##هادة
##لح
##ائب
ولما
قاله
فد
##ما،
رجلا
منذ
##موعة
عل
##امت
القد
##فص
##كرة
كثيرا
##ئت
##كري
الفق
طلب
سم
وعبد
بشر
إد
##ثم
فوق
##شام
##يو
فان
يدل
سفيان
##شرين
##مائة
آمن
إني
البيت
الآن
إع
قا
##وير
حدثني
لكل
##قين
ففي
لفظ
الإسلامية
جم
##شاء
الباب
يصل
##أس
تز
السؤال
##منع
عليه،
انتهى
وهذه
##ارية
##غل
المعنى
##ودي
عدة
كبير
عباد
خالد
إسماعيل
##رفع
لأنها
إله
أفضل
##ارض
حاج
الدولة
##طب
إخ
قص
للإ
##رر
البق
رئيس
اث
وكل
يب
فلو
المر
عاد
الاعت
##وته
##نام
الحافظ
تب
##ظام
به،
بيع
كلا
##ثة
الشمس
##يسى
شك
##اة
إج
عما
##تك
عقد
كون
مختلف
الأمة
الحياة
لذلك
ثابت
##مير
##ظاهر
الصحابة
منهما
امرأة
كله
الانت
عليكم
مكة
##غيرة
الرز
ينت
السلطان
عض
##رجة
الحسين
فهي
##طيع
##ياه
الشع
##ودة
جماعة
##داية
عليك
المراد
جزء
##نا،
##ائد
الخطاب
ارت
موضع
التش
عرض
بمعنى
##راع
##جتماع
بمن
وأنه
وأخ
جل
##قبل
عنهم
العديد
أولا
والط
يدخل
الولايات
المسا
لان
فب
جمي
التاريخ
آل
المك
##ريقة
كفر
##سند
##اية
##بعض
الليل
حني
##حاد
##ربة
فصل
##وهم
##وضوع
بأس
تقول
أصل
بعده
##فرق
فرض
حص
##حه
أنفس
##جن
حج
اه
ابت
##هري
بقي
الشر
البيع
الأز
النص
ترج
يقوم
مسا
سل
كن
##سباب
وعند
الحاكم
##خي
ضد
كلها
##رسة
يرد
التأ
السماء
ظاهر
##ينه
مض
اللي
##ظمة
مسعود
العقد
ليست
##ونة
ثبت
##ابع
التص
القت
تغ
الحر
الإج
الشرع
توفي
##ذف
بيان
الكبير
إق
##وذ
##كية
تفسير
القوم
المسألة
المو
مم
المذكور
فأن
##ذيب
##ائه
##اتم
##رائيل
##فرد
الري
##بدأ
##قض
##آخر
##رة،
تؤ
##وعا
##زع
والمع
##قطع
المقد
فتح
مطلق
نصف
الأب
القيامة
##وها
##زب
ولهذا
##تق
الوجه
##قدير
ينا
يقع
حن
ورس
##ميز
الحم
##وين
ويقول
##لالة
##سع
الأف
الحارث
طالب
##ابل
الور
الكريم
آية
##دل
##زلة
نش
نج
##حية
مثلا
##وخ
ويع
##را،
##زمه
التج
##فعل
##بني
##صاد
وروى
خلا
مسألة
##قاد
فذكر
باسم
جدا
##واد
##دي،
المم
الموت
##يين
أربعة
نه
أمير
عيسى
القص
الأمير
سا
قلب
السيا
##يدا
وأم
##فيد
ينبغي
أط
أهم
الحاج
##ركز
##بية
الخام
فهم
عهد
له،
##بيعة
مي
يه
##وسط
عبر
##اعر
ذهب
رمض
##أتي
##كين
للا
تو
حا
##ئل
الفي
للن
رفع
##ضرب
در
النظر
نسبة
فم
بناء
الترمذي
##شارة
##راسة
##بال
خاصة
مل
زاد
##رجل
وات
الشام
وأع
##يا،
الجمعة
وأخرج
أولى
يدع
##غر
##ابه
##يق
الاقت
##ريعة
حجر
بالس
المصنف
يوجد
أعمال
انظر
##طفال
اللغة
##ونا
الطريق
ويج
المه
سبع
شهد
سلمة
##سكر
فاست
جميعا
ضعيف
السب
اس
رجال
هشام
##اره
يوما
##ليات
الرزاق
##نان
قرأ
##ائية
المز
ضرب
مقد
##فسه
البلاد
##حيث
البص
فهل
##ور،
معاوية
فص
##بارك
يشت
##ضية
يعمل
حنيفة
##لاج
##اتب
ذي
فيكون
ضمن
فقلت
##نسبة
##ناع
الاحت
جابر
لابن
ويم
كثيرة
مه
لس
صار
##ائم
العين
التك
مذهب
##ئمة
وظ
##ولية
مجلس
##لع
رأى
عنهما
##ختي
نوع
##زن
لد
وأبي
##بره
حسب
فيقول
المجتمع
الطلاق
يعد
##والي
حالة
##سد
مرت
الصد
ولذلك
##قام
والغ
ومحمد
##تبع
##فو
فليس
اختلف
أقل
##ركات
الجمع
الدم
محا
##سمة
وأنا
العباس
منت
سبق
نقل
لص
إسرائيل
##س،
عامر
أر
##اني،
##ئك
مبا
الحمد
##الت
كتابه
##الك
الصالح
##لث
رؤ
نصر
أربع
##شيء
##بقى
الهي
ليلة
##ل،
العب
##ليف
الروم
إحدى
وأرب
##ريج
##هير
الدي
لدي
منا
##مائ
دليل
الفضل
جهة
##دعى
مرض
يرى
الكتب
الشخص
##كلم
##ليا
وبه
##أنه
رمضان
العراق
مجال
أحب
مجموعة
##يمين
الزكاة
##شياء
جائ
والر
يظهر
تنا
جاز
بلاد
دفع
سبب
##لائكة
##برة
امت
##ن،
##سام
##طار
الزبير
باست
أز
فلان
##هام
##فعة
حبان
يصلي
آدم
##قاط
بوا
بعث
العامة
الكر
الأرب
##شك
تكن
##ارع
المنت
اللا
زيادة
##اي
أمام
بالنسبة
يرجع
استخدام
داخل
فرع
##دية
نت
##جاج
علينا
##قوا
##شهد
##ريط
##وحيد
عاص
أبد
##ساب
ورسوله
لهذا
أسلم
وتح
##باط
القلب
##عمل
##صال
سنن
##روي
نزل
نبي
ويد
البشر
إليهم
السي
ومنها
الخير
يجعل
بينما
وسي
##بياء
بالج
كف
العصر
أشهر
##ائق
يفعل
##ضب
##لل
##ري،
الشيطان
##جاز
##جع
##ضط
الكثير
عبدالله
كلمة
##جتمع
أثناء
بب
يعتبر
##ثال
المعروف
##قوب
قطع
ألم
مو
##روط
##ريض
الفعل
عي
##صية
مرا
سأ
يأخذ
مائة
البلد
يده
##لامة
الواحد
ضع
ويقال
معين
لغير
منع
##ظة
##موع
البقرة
للج
الإع
جد
ري
الخلق
##واف
##ديق
##ضاف
شه
الأق
##اتل
الشيء
ويست
لش
##همة
أحسن
الرجال
أعد
##لكة
الظاهر
أثر
##وسي
حرب
فيهم
بينهم
##خير
والاست
الأمور
الشرح
الدول
مز
سر
المي
وأنت
##ؤه
##لاب
يقولون
أصبح
##جلي
ورب
##ليفة
تعلم
الإسلامي
##ار،
##ريع
النف
قيس
##وبي
الرك
##نون
وثلاث
الآخرة
##لاك
##غت
يونس
للك
المعا
والنس
##لط
بهذه
البعض
وسب
صفة
عالم
ومنه
قلوب
يجد
كنا
بث
أعط
##خة
عبارة
كبيرة
القضاء
طال
روي
وصل
حصل
##لا،
عنه،
##ينية
آمنوا
الما
والز
صلا
##قتل
اليمن
لب
الشعر
الميت
الإي
الكبر
##مشق
محم
مثله
نحن
للش
##كبر
ملي
##انى
الخبر
أنزل
حرم
##دري
##مهور
حاتم
##ونها
بحيث
اللفظ
##بعث
البح
مخت
##وام
يلزم
##يران
محل
##كمة
##بيت
وجعل
العربي
قسم
##ليق
##ناك
فيه،
##ذان
##غفر
ماء
لقوله
صحي
أتى
وصح
##غا
وغيرها
النكاح
الجيش
المشرك
##ختلاف
الإخ
نشر
فأما
##خول
##نم
المف
وأحمد
##راح
##زام
يحدث
طلق
وغيرهم
##تاج
التس
طائ
نهاية
##فين
سكان
##حيط
خبر
##قصود
للد
الهند
خيرا
ترى
قصد
وحده
##جود
أست
الشمال
مدة
##سبة
##صبح
##حوال
جانب
الشرق
حض
حفظ
##طلب
بعدها
##ثبات
كق
أنواع
للس
الأمريك
##روة
ني
وو
خاص
يثبت
أعظم
##يمي
قبله
وبلغ
منطقة
##كو
البد
##حمة
##تيجة
##زق
##باء
سيد
معد
##ولها
شعب
فرق
أل
الوليد
ثقة
خمسة
الدا
حل
الطب
##كد
فضل
##ئات
أجر
##ؤمن
وبعض
الجاه
هكذا
##يبة
قلي
الأعمال
فإنها
منكم
##بيان
الحكومة
##لوه
رجع
شبه
##قيم
##جيل
##سس
جواز
السر
بكل
بالش
##ديل
وأي
المشتري
وست
##فقه
##رث
دائ
##حسان
يملك
عمران
بفتح
الرغم
معظم
حقيقة
##الا
##طية
##ئي
##افية
##سمية
الفتح
خارج
يسمع
اكت
ولكنه
بدون
##ارق
بالص
ذا
وأمر
زياد
تعت
وأخذ
##روب
بالا
سير
قلنا
عضو
فات
السابق
##وش
##ر،
يقبل
##جوم
لغ
الفرق
الترك
المحت
يمنع
##ضاع
##ونية
التط
##املة
للق
السلف
معناه
البغ
##زية
ولقد
الزي
نظام
##ختار
##نك
دور
ويكون
##وفا
الثام
فكيف
عملية
وعمر
##ياب
ساب
يحتاج
منك
ته
##ورد
الإق
ومسلم
##قعة
وراء
أحدا
##اتها
الخر
##ت،
وتم
##وبا
الجماعة
الوج
كس
بدأ
قوة
وجوب
العاص
خي
الطبر
أين
صورة
حمل
حلف
##شى
الطعام
##انع
الخلاف
##صى
أصب
وشر
##خط
الآيات
قريش
ربك
يحصل
عادة
هار
نسب
الهد
##شيخ
موجود
ينظر
منصور
##طرة
كعب
وترك
نقص
بري
الثق
الوط
##ختيار
الفقه
الذى
افت
فله
النبو
ذو
وهل
طل
أمره
##سية
إنا
##كمال
##ولوج
الجنس
##مبر
معت
منه،
شرع
##طلع
بحسب
تيم
ماجه
##عى
##نج
وهكذا
##ذى
الرس
الزهري
##لقى
طب
علا
مأ
##وفى
العمر
##لبس
علماء
جنس
##ليس
الثمن
الام
##فهوم
يؤمن
ويح
والمر
وهب
##ناب
ومنهم
كونه
مطلقا
##لكم
##طال
بالإضافة
الخص
الأمريكية
درجة
الخلا
جملة
أقول
وعليه
ماله
يحب
##عتبار
##خبر
الشرك
##وا،
##قية
##وفة
قبض
ربه
الأج
والثاني
مرف
آيات
الرابع
وعلي
الأنبياء
وخمس
##بأ
جامعة
أموال
المغرب
أمة
##ثي
يتعلق
##حص
تقوم
##ياسية
بف
##راضي
##صلاح
الشرط
بعضها
النسائي
سما
##حقق
السيد
##اتهم
بار
بالمع
المرض
برق
خر
##بي،
##عدم
الكافر
إليك
الاجتماع
عظيم
قراءة
الوز
وأخرجه
عطاء
##ئية
##ثلة
سمي
إنسان
##راز
حجة
مرو
##ول،
العباد
الطائ
دعا
عندهم
بها،
يبلغ
وتن
##طاع
الفقهاء
مب
نعيم
فترة
الناس،
الجامع
الذكر
##تان
الخاصة
الثلاثة
المسلمون
قيم
##ويه
##ظن
العظيم
والمن
جه
وجب
##ثرة
إم
وأس
##ابات
يسمى
غيرها
معرفة
يجز
أيوب
وإلى
الترج
##وبية
الكفر
##ف،
صحة
##ريكي
تاب
##لومات
##صارى
##و،
المنطقة
العقل
##عادة
زمن
السما
##رحلة
الذهب
لكنه
فقالوا
بلد
الشعب
##عث
يسم
الأحاديث
الملائكة
##ناية
مقام
##يره
##شرون
البائع
##شية
الكبرى
##كرم
عص
تمت
الست
سائر
##وبر
وتس
##يد،
##عله
العلمية
##ح،
والأرض
##حاكم
سيا
##بيا
##كب
والتع
أنفسهم
يعقوب
بغداد
النظام
يحل
##ذل
بنا
ابى
الخمس
النوع
اسمه
##وعة
##حياء
البيان
تل
السم
سنوات
##نتين
##عبة
تزوج
##احب
كقوله
شئ
##ندي
##روا
ولأن
إنها
واعت
ورواه
##ناده
##البا
حوالي
وفيها
##ظي
##عار
يو
غز
أشد
التف
عدي
الخارج
يعود
حاجة
القيام
##تا
محت
سوى
جرير
قتادة
التم
##ثناء
را
دم
##خلص
صور
قيمة
##لي،
المض
فقالت
المذهب
حقوق
فالم
وحدث
رح
الإم
شركة
الذه
خز
رأسه
نور
##عداد
لأنهم
##ذات
نافع
##فعال
والذين
ليت
حنبل
النو
الأور
حياة
وفا
اللج
الواقع
الباط
وتت
##يري
الساعة
الرواية
وأح
عبادة
المؤلف
حماد
بينه
##حقا
ابنه
بشيء
##تمام
اليد
باع
أرسل
وبر
الهم
الفا
أخي
أولئك
الواجب
الفس
مشت
حرف
##نيسة
##طلح
##صاري
يديه
##دب
يحمل
الفجر
##قيه
الأو
بات
إليه،
مولى
فعلى
##كتور
##سك
##طين
##أي
فش
يقتضي
واحدا
نقول
طوي
الأغ
##هاجر
وعدم
مقت
الشاعر
قضاء
##ماعي
##واعد
##تيب
##ديا
إذن
الها
##وائد
إمام
أطلق
القسم
##ختص
##شأ
وآله
حما
القانون
##يل،
هد
##رائي
البيه
الوض
اختلاف
الكفار
##خاص
##عن
##ضعف
##فيه
##ع،
##بوت
الولد
ها
##اده
##راسات
كأ
للناس
جاءت
##ناها
##ائمة
الصغير
زوجها
وقرأ
شيبة
للص
زمان
كي
الاسم
الثالثة
لأحد
الته
بو
سئل
المشت
وتق
صدق
تعرف
الدعوة
##راهم
التر
وأصحاب
##مسك
##أخر
المصر
تجد
##ريا
الساد
دمشق
لسان
أصاب
تعداد
##كى
##دون
ستة
مسجد
##لقي
الألف
وإس
لدى
والآخر
بلفظ
يدي
واف
للب
ثالث
خطأ
أصحابه
الحيوان
وقف
أحكام
الكه
بير
أسماء
سقط
تحقيق
الاتحاد
بالد
التفسير
##غب
##رارة
نفسها
قامت
شيخنا
الدعاء
قال،
##ورات
##صلحة
كلامه
يشترط
شعر
قولهم
ويس
إسلام
##بتد
البا
المدين
##براط
##عتين
##بيح
##ذة
الشريعة
لانه
راج
شأن
كا
##ستان
وإما
السكان
الألم
وتش
يقدر
يقرأ
بدر
طرق
المتن
##ويت
عذاب
##مين
##فيف
فيهما
##هج
##ارح
##غيير
البل
##نامج
تقع
وخرج
قي
وانت
التد
مكت
السفر
##نث
##اظ
اليمين
أحاديث
وجاء
العلوم
لهذه
واجب
نب
كأنه
بمع
##سطة
شريك
كر
شهادة
##ثله
مف
##بحث
جبل
يتع
الوك
يؤدي
أجمع
الرحم
التعليم
الغرب
المثل
##زوم
##فاظ
##الات
لاست
القدر
دينار
##زمة
انه
##ادية
##طلا
##طى
العالمية
شعبة
آله
أهله
ضر
وفى
حرام
ولاية
##صير
المقصود
وجهه
الرحيم
المجلس
##اقة
##حرير
##ركب
لهما
معمر
بالغ
أصبحت
##رفه
البريط
ومر
##ني،
فأمر
لبن
رأي
فخرج
الأحكام
سهل
الجد
ويق
الفترة
أجز
بيده
قرب
##نسا
واج
حميد
لئ
الحرام
##زال
أمور
##صيل
أبدا
عاصم
##ائن
موت
##خلف
لديها
الخاص
أدرك
حركة
مني
الحقيقة
##شاف
##رأيت
دولة
الوضوء
قصة
قيام
أرد
فأخذ
أعلى
الفل
##بض
##نسي
##ديدا
الكل
متى
وقالوا
فذكره
##فعول
أورو
##روس
##زيد
البحث
يرو
حبيب
لر
##ريمة
الوطن
شمال
المأم
لغة
حينئذ
معهم
مختلفة
خد
##طح
##زيادة
بالب
الخامسة
وكتب
الجهاد
دخلت
فيت
الجديد
##لية،
اب
لعدم
الصوم
نجد
عصر
جديد
يحرم
##ندا
عندي
عال
##راث
##عاية
أيدي
الحل
وسمع
العا
##ذج
تقدير
القراءة
الحجر
نفي
ولل
##قون
##ويا
الظهر
أدى
والسنة
السلم
##نوب
##رخ
##قاب
##ديمة
كنتم
فجاء
##مته
النعم
روح
##طه
##ريكا
تما
أوا
فقيل
##جاه
##راجع
##رعة
الجزء
##نيف
##زار
##بنى
وجوه
##بقات
##فسر
بالخ
الزمان
التجار
فعله
##شري
##لقة
موضوع
بيد
عامة
العسكر
جنا
الكف
أساس
الأئمة
الأكثر
الأمم
الذهبي
وعشرين
الموجود
حقه
المب
ويجوز
الخمر
##راة
ظهور
##روض
أكل
##لون
##صاب
واحت
##با،
سلام
ونحن
نهى
مفت
السف
##تمد
يمت
ترجمة
باعتبار
الصحي
المشركين
اللجنة
الوق
بضم
الأسر
سأل
يقل
إنك
القوات
الموص
التاس
ويمكن
التو
##منا
النهاية
عج
المادة
الأعلى
##أخذ
##وائل
##ظلم
آلاف
لكون
ثق
فيها،
ثلاثا
محد
سألت
صل
أقرب
محمدا
##صلح
اللغ
توا
يسأل
ويؤ
محمود
##يسر
##قرآن
##هارة
أولاد
أسباب
بقية
##فيذ
تعمل
مجاهد
الحس
قرية
برقم
أحدكم
فجعل
أني
إف
##بهة
صلاته
أشار
مرفوعا
الإد
ورج
التوحيد
وآخر
الحب
الشهر
وعلم
التوبة
##تهي
القيم
##ارف
المحا
##ابد
##احة
##زين
يأمر
الحالة
التى
الرد
حدود
##كمل
يطلق
##ناة
##ناعة
بداية
الموضوع
##وغ
السبب
بإذن
الترجمة
البيهقي
لكان
تنت
قانون
والبيه
أنك
ميت
إيا
##بيرا
##ساكر
معروف
وأق
الحجاج
##فسد
صرح
وهما
معاذ
واس
##خب
آن
الحدود
رسوله
##عيب
غاية
نزلت
##ثا
##كم،
الاقتصاد
ذاك
رحمة
اج
تذكر
طول
مؤمن
لأبي
##تهما
##ئه
##تمر
علما
يكره
أبر
تقديم
تعرض
##فية
والي
أذن
##باه
زعم
أظهر
اص
مركز
لف
غالبا
المختلف
كذب
##خصوص
ضعف
##لين
هذا،
فخ
أقر
الأسود
كلهم
##لها،
بان
بطن
##زو
إطلاق
فالأ
صاحبه
يعتقد
ثمان
كالم
جائز
فهذه
##فيا
##تهن
##بعة
والمت
رسم
م،
بنفسه
عوف
الحض
لين
قاد
الاس
المكان
الفصل
##يتها
ومما
القضا
يجمع
حسين
مسند
العذاب
##وضة
العائ
التاب
وأيضا
يكتب
القديم
##جمة
جامع
يأكل
عف
الشه
واله
ساعة
النهار
وعلا
بدأت
المصري
فيمن
يلي
عاما
وجدت
لبعض
سالم
امرأ
شب
##ش،
الزيادة
الحاجة
والأن
نسمة
##قيت
##ادات
##دخل
إيمان
آثار
فرد
فقت
وذ
وقول
موق
الشرعية
المحرم
##تنا
ربنا
جا
شكل
العمال
مريم
صدر
ببعض
##طاق
##صابة
الرؤ
##انية،
يحكم
والآ
##كرمة
##مييز
ثلث
وبد
##درك
جبير
ربما
##بريل
الحرم
##حول
لنفسه
المشهور
الأيام
الأمريكي
نفسي
##خال
أمه
تخرج
مجموع
##فقة
أولي
##خصص
صاد
بأمر
تعتبر
العامل
ذكرنا
شاه
قصر
##نز
##هاز
وغيرهما
دخول
علق
المرت
مشروع
جديدة
نائب
##وية،
##إنسان
##قها
##دد
##بدو
##رادة
الحجة
إعادة
الغربية
##غني
##جرد
ربي
##يك
يضمن
والل
##اند
المقت
الجميع
الأشياء
ضمان
الأدب
ظن
##افظة
نوف
ترد
يطلب
درهم
مصدر
أحي
وسط
##ياض
الوقف
بدلا
النووي
الأساس
فاس
##لاص
##سه
##ميم
قليل
اجتمع
نتيجة
الوسط
وأش
##روفة
لمع
الشهادة
وهناك
فصار
الإح
##بوع
##مامة
صنع
تكلم
عنا
يلزمه
عش
وكيف
أصول
بنو
عبي
المبا
الوح
##غط
##عتبر
##ثى
حديثه
الصاد
##ستر
يقدم
الطيب
فاط
بالر
##عاة
ثمن
##ومه
دراسة
تقي
أنبأ
المملكة
السود
عت
##وريا
عليهما
الإسلام،
النهي
الخامس
والنسائي
وأكثر
اي
تجب
أورد
##ائف
المناطق
##أجر
فأع
##ليين
##ربعة
أخبرني
يعلى
بدل
مقا
محرم
##رات،
وربما
سيف
##صرة
##ديان
وبالت
المهم
الربيع
فكل
يلت
##ثه
ربيعة
ماذا
##ولت
والمراد
##حات
##قوط
الجاهلية
الحنف
بواسطة
ظلم
وأهل
سف
التخ
صوت
معها
الحركة
الثوري
الخطيب
جريج
##سيس
##راء،
سبي
##داب
##يرة،
وقعت
هارون
للغ
الأمن
##وره
المنكر
##ريت
أقوال
إثبات
##لوق
القتل
طريقة
يشهد
ذك
##طات
ونحوه
السعود
تبين
طائفة
الاشت
##ويد
##امي
السنن
انق
بآ
ووا
##وانين
مضى
الدكتور
بحر
##عدد
وفر
الروح
ادعى
فاع
نكاح
الخد
الفكر
شديد
##اعات
مجرد
يستطيع
##حداث
##ذوف
##بته
الطبراني
زين
ومات
بهما
##ضيلة
أعل
وأف
بأنها
##وي،
أخيه
النصف
جنوب
الأه
يدعو
أعت
يسلم
بطل
##قطني
المقا
##نسية
ويحت
لط
وتأ
##ناف
يدفع
##ينات
سفر
حقا
القاهرة
عس
سبعة
ظاه
لخ
##زاب
المطلق
قلبه
##انيين
##جهة
المساجد
المقر
عروة
عندنا
تحمل
يوجب
يقصد
ينزل
سليم
المل
الجملة
##زد
##اربة
والض
##سيم
ذكرت
ملا
حضر
قالا
##كال
##وضأ
الأطفال
اليس
صي
الإله
استعمال
أريد
ملكه
الفض
##قق
##قامة
##تهاد
##ساء
الدخول
الثلث
موض
##سلمين
مكر
نها
عمله
##قاء
سه
##قطة
##فعله
الأنصاري
يزال
محر
هن
يفت
الأموال
وبن
لتح
فأجاب
جيش
##لاقات
##بيض
جبريل
البناء
يشاء
يترك
##ريس
عائلة
شا
##ثنى
##الد
بنفس
يض
الصورة
##متع
إضافة
تيمية
##اطب
ويش
يختلف
##لول
الإعلام
الشركة
##ائهم
أعضاء
##سطين
##ساعد
بالف
##دعاء
##ز،
اعتبار
##روح
وحا
يوا
طلحة
بمنزلة
تقري
تقبل
زوجته
يصلح
##واة
مستوى
المغني
الشيعة
##لزم
##لمات
##عي،
الماضي
بإس
الداخ
أسا
حام
الأعم
يومئذ
موقع
توجد
##توا
لأجل
بقدر
قليلا
##جات
شرب
الدليل
تمام
يبقى
الخروج
دول
السماوات
##احية
بز
أكت
بالل
الدين،
##هداف
إح
الحمل
العالمين
فإنهم
الثامنة
دل
##لفة
يتبع
##ىء
خلافا
الأوسط
فرا
##ريات
قتله
جما
ينفع
النصر
##يص
هما
عقب
كاف
لولا
العدد
القائل
##فرة
العهد
##يح
##جيب
مار
غريب
##خذه
##ودا
##ائها
مليون
##فال
شئت
المركز
متعلق
النبى
##خا
النور
الإبل
باطل
##قرار
قضية
##ائج
##اجر
ذر
حمزة
الإسرائي
المكت
##رجو
مباشرة
وقوع
صال
أخر
وأص
##ؤها
الى
جوا
ومس
دينه
البغدا
الرجوع
حياته
وعنه
بحق
والترمذي
القياس
تسع
طعام
المطلب
##ادل
##اهما
لام
##فذ
المذكورة
البصري
المنافق
يستحق
الوطني
رسالة
جده
الجمهور
مراد
سيما
##فيل
##ابا
الرسل
##مهورية
القلوب
منز
تعيش
السابقة
الكون
تأثير
شهاب
##امن
السياسية
مروان
##ورت
قبي
تصح
تحدث
##عيان
الدولي
اتخذ
وعدد
عني
أهلها
الحن
العشر
##هول
وكانوا
تدع
الشباب
الأكبر
##عاون
قريب
##سي،
وتوفي
المحيط
##ليك
الخال
العدو
الشارح
يمين
عرفة
##وم،
##دوا
مارس
القدرة
ثانيا
أقام
هاش
قلوبهم
المأ
حفص
اللبن
دينا
بكسر
كفروا
صدقة
زكاة
##حكم
##ظيمة
قاضي
##رابي
شمس
قضى
##برا
##بان
الصحة
الزمن
النج
##عا،
التاسع
كبيرا
##جية
أى
بتح
##طفى
كمال
النز
تقت
##قطاع
أوروبا
سبت
العن
##افت
القوة
الأثر
أبناء
القديمة
##سمي
##جمع
##علان
ومت
الغربي
أمية
##جماع
##ليب
الامام
تحريم
أطفال
واختلف
ظل
يرت
وثمان
إقامة
##غال
سوء
أمن
تبارك
أشبه
يعطي
الرم
يكفي
##حف
مقابل
##لتها
العبادة
احمد
الحنفية
ترا
##حسن
الغالب
سبحان
سؤال
وحين
##يم،
أسرة
الاجتماعية
الورقة
##ولات
المبيع
كلما
وعمل
عساكر
يولي
علمت
بالحق
عليها،
الأخيرة
أنتم
البار
الكامل
##مرت
هيئة
##افي
##لاة،
تدخل
مخال
ونا
##سسة
يرض
##وجيه
رآ
##بر،
وكيع
الشافع
صلاح
##حوا
عبده
الملا
عدا
الشريف
حزب
##عات
بنى
##حاء
فرنسا
عبيدة
معي
طرف
ابتداء
##سته
مناف
وحتى
شرك
##ث،
نقله
بمكة
الرأس
صغيرة
الزواج
تدل
الصحيحين
وبا
منها،
الخز
الحديث،
##راءات
##هى
إشارة
##ابلة
أذ
تغير
##لقاء
الجنا
##جلد
##لبية
بالمعروف
النسب
##كات
عشرين
##رسال
وفقا
نعلم
يضر
يحتمل
القبض
##عية
وفق
القتال
علمه
الجماع
اختيار
المرا
وكما
##عير
##كف
##تيبة
فقام
##ذاك
ربيع
الأنصار
الطرق
##ذور
ولده
المبارك
فضلا
اجتماع
##ذاء
##ثيل
##شيد
##ليت
العض
يستخدم
دائما
وحديث
##هما،
التهذيب
فريق
##راقي
##لوس
جواب
##وزا
##خيص
الدينية
إسناده
##سنده
إسناد
أحق
الفريق
##جارة
المعد
اشترى
القدم
الآثار
لمدة
العس
الأربعة
النخ
نهر
الوطنية
المسلمين،
اش
كشف
ثوب
للخ
نسي
كبر
الأخير
الجديدة
الخي
المعلومات
أجد
بيته
والحديث
##أله
عاما،
زال
حديثا
خليفة
##وبه
الفرد
درج
فرعون
البرو
للف
طاهر
فارس
##اهدة
##فتاء
سج
خروج
##فاف
تمر
مظ
كثر
##طعام
مايو
##ئر
##وة،
أرى
##صاص
ومعنى
يسقط
أربعين
##ويات
أصلا
أبواب
قبر
فائدة
رض
يعيش
مجتمع
##وده
##زالة
##ربا
إدارة
بسم
##حى
##فاض
##مية
والمعنى
##غار
##جوز
وروي
واد
أمريكا
##ربه
جرى
كره
المفت
قرا
سنة،
الخيار
##ونهم
برو
القيمة
الولي
إنشاء
ناحية
غالب
قومه
نك
مقص
للط
الجسم
والده
##واري
وعم
الإنجلي
الصور
رو
وأب
تظهر
سوف
بشرط
##يدي
الرهن
غيرهم
##جتماعي
غسل
وفتح
##رامج
السادس
##اشية
سنين
بول
بينها
تعلق
مهم
جاه
فار
يذهب
##راعة
فغ
##ناول
تحديد
تبع
##ريضة
الكلمة
فرج
##بارات
##ائط
الصفات
##صره
##لوغ
رفض
لحق
والصلاة
أكتوبر
وجمع
كام
النصوص
##كلة
المصرية
خلقه
##ود،
وسائل
الموضع
أخبار
وانظر
##ومية
قائمة
##خصيص
##عبير
مفهوم
إنهم
أثبت
##واص
##ضيف
كامل
##عتها
مهر
تمكن
بينة
يبين
معلوم
##صن
يقتل
##صاف
واسم
النش
##شرق
أحوال
##ريل
يضع
البط
##بيق
##ائص
الإمبراط
الصحيحة
خيار
##وراة
##ادم
الإسناد
نوح
والمش
##مي،
وفاة
كه
الغير
المتقدم
##راهة
يتكلم
شروط
محمد،
##وسع
التفا
تسمى
يرفع
الخطبة
جي
المنذر
العرش
تستخدم
حلب
##ذاهب
مرات
الطي
تصل
والبيهقي
##ضرة
الفرنسي
لحم
أنكر
خرجت
البن
البغدادي
تلف
المختلفة
الرأي
فرس
الطرف
لقي
##تبط
مسائل
##ظهار
يقطع
وبالتالي
صحيحه
أخت
النق
سماع
واشت
تأتي
المظ
نفسه،
مجمع
الطبي
##ذبح
##وكل
الهجرة
النجا
##واق
أداء
##كرر
الوهاب
فإني
بدا
##طأ
القاط
أتي
صفات
الاختلاف
##تهد
##في،
الاص
الفلسط
##خار
والمس
##ج،
قياس
عطف
مجلة
النع
الابت
أنبأنا
هام
سلطان
العليا
الوصول
سبتمبر
الربا
عاش
العلامة
خصوص
مالا
قضا
الطبري
##جال
##زه
الدولية
الأند
##جاوز
##اوى
الفرس
فكانت
المياه
ولعل
ورأ
والإن
عقبة
الثقات
الياب
ولن
##وامل
##جين
الفاس
القرية
صغير
العدل
طاعة
الفئة
الاسلام
ونسبة
عمار
##كيد
المخت
جهن
أخذه
##بادئ
##غض
##باحة
الأسماء
الرسالة
طلاق
لعب
##ساوي
الصواب
ومثل
يتأ
الصوت
تصرف
##يمون
##ركان
أحدهم
الاع
والأم
##دلال
شاهد
##عددة
واقعة
حكمه
##ستاذ
فإنما
##بوب
عط
مدرسة
##ورث
##كير
الفتوى
ووجه
الإشارة
يشير
سلس
##لاحظ
الفات
كلم
تفا
الوجود
معينة
##يزان
اثنين
##ورك
##ادة،
##يتين
##علوم
##فات
أيضا،
العلاج
##قاع
يأت
الحديد
وحم
الوصية
بابن
الأدلة
##سسات
الجانب
السعودية
العيد
خالف
امرأته
المجال
قوات
##غبة
التصرف
المصدر
نظرا
##ومات
المريض
المحر
المحدث
بالط
المعرفة
##رحمن
##رجح
رغم
نصب
اللام
الطريقة
بيوت
##ذار
قبلها
يث
وقبل
البلا
اليون
المهاجر
حذف
الطاقة
##قاق
الكنيسة
##رون
وجع
الحزب
الأنعام
##كندر
الباقي
##يمم
##ونيو
الأسباب
الجزيرة
للاست
والحاكم
##مارة
السوفي
يموت
سوا
المائدة
يجري
الاخت
والعشرون
المثال
جزءا
العدة
السبع
نصيب
وصلى
إنتاج
الرابعة
إياه
الأزواج
تبر
يكت
أحيانا
طويلة
واضح
##لبه
مول
عمر،
##فساد
##جح
سلف
وأه
يدرك
##جرى
##ئن
مكتب
جمال
الضمان
الجوز
##ديمق
السائل
##ملة
وثلاثين
لقول
القبر
الثوب
##برت
منص
كذ
بعضا
##عدا
هاشم
##زلت
المسائل
الخلف
##جزاء
يخفى
مستق
##بتدأ
ناد
وكتاب
الكتابة
اليهودية
المسيح
طالق
صرف
نسخ
ربهم
نست
الكمال
الخليفة
الدراسات
يناير
ليكون
ومد
يبق
مناط
##قتها
##احث
##قرب
السا
راب
##ياط
واسع
جر
بالث
##بيعية
فعليه
##صر،
وزاد
العسكرية
الإف
اللسان
باستخدام
قيد
مرحلة
وقتل
الاستع
وذكره
التجارة
المسيب
ربكم
أرس
##مر،
والعمل
##قبة
تتم
السياسي
##عقد
عيينة
##اغ
##رضا
الصفة
لآ
المقام
الفرض
والبا
##فسخ
##حابي
بعيد
##صحف
أصله
نساء
صن
الألب
##سون
المواد
##شرع
يعبد
الزوجة
المرء
أحدها
##رز
ذكرها
##ثنين
##عبد
##ئة،
الصدقة
##ناق
##ولين
العص
دام
##موذج
فين
العال
عطية
##صحة
الضمير
باز
الدية
الحقوق
واحد،
##ودية
كافر
ناق
##كاف
لأهل
واض
سكن
يروي
##لمي
يشبه
جان
الوكيل
يزل
ومح
الزم
شعيب
المغيرة
##قسم
معهم،
لئلا
ديسم
بمثل
تعلي
ظهرت
##سبه
كلية
الصلاة،
وحسن
المجموع
إلينا
أخرى،
الرياض
ونقل
أمرا
يضرب
##دا،
الفقيه
##مرار
جعله
##حاول
بدليل
منظمة
##ريقيا
الظالم
وصار
فأنت
##ارنة
##فعت
كثرة
##شير
##لقب
أواخر
اضط
بلغت
القطع
العشرين
المالك
##لتين
برنامج
##روق
الأصول
يفهم
عجز
##ارضة
الشعبي
وأخبر
تا
فط
وحكم
بعضه
##كنة
الرازي
كبار
تسم
##ربع
الأحزاب
وأصحابه
يصير
الشب
إش
ويك
##قبال
##يء
##اركة
أفراد
جهل
##حاجة
منكر
موج
يؤخذ
يكونوا
نوفمبر
##وفية
السابع
##فاعة
المدرسة
خل
الجامعة
شرق
تريد
##جان
الأرد
عليا
ولكنها
أمي
##كريا
التب
جهنم
بسر
الخوف
أسامة
المقدس
هلال
جال
حظ
الصيد
فعلت
ولأ
##قيقي
نوا
سطح
##خاذ
المشروع
المدة
##عها
ركعتين
الكم
الخطأ
الطويل
بكم
قدمت
الأخبار
خزيمة
##وتر
يعلمون
اليه
المدني
المتعلق
حيا
استع
الدارقطني
الواو
تض
وأول
الصل
دعوة
##لاقة
حمد
##بدل
يسب
تلق
خش
النصارى
شري
الجبل
القرآن،
نفسك
لبس
##سيا
علاقة
هلك
السين
شرف
عباده
##فور
الوضع
##مسا
الدفاع
سرا
سار
موته
##منة
أعم
##غاء
حزم
##كه
كيل
##أمل
##هدف
صوم
##ؤون
حكيم
تعالى،
ماجة
##لمان
النبات
الصديق
الأراضي
##ذيفة
الأحي
الصيام
متفق
أحدث
فالت
جزيرة
##رية
عاق
سلسلة
الفطر
##حدد
##لوي
وقل
قبول
السوق
كار
بض
##راتي
وزارة
##قلال
العادة
العملية
##رن
الظن
##ولهم
رضى
غيره،
يهود
##راحة
الأرض،
لتع
الجنوب
البشرية
ودخل
واعلم
طبقات
فلسطين
تجعل
الدور
القبلة
النية
شدة
ثقات
أض
يخالف
ألمانيا
الكعبة
قاعدة
غر
نوى
واقت
فضيلة
السج
ديسمبر
##حاب
أوائل
العائلات
وأربعون
رافع
##ئين
تقريبا
أشياء
الأمان
أئمة
##خابات
##لمه
##داة
##وه،
نار
الذا
أنحاء
وأقام
الخلي
أصحابنا
حسان
مرس
يكفر
حكومة
والوا
واخت
##براء
يونيو
دلالة
أهمية
##ولوا
ثعل
أمكن
والطبر
النحو
لات
##احل
الشرعي
##خرة
سك
النسخ
##ربت
والمست
دولا
فأخبر
بقول
وتط
##فاد
الفرج
##فلة
##ئتين
الفساد
حساب
أبيه،
أغسط
الحفاظ
نسخة
##ناث
##زاز
متن
ذه
نطاق
كنز
##ناهم
رؤية
فز
الأقل
##خف
##مة،
فاطمة
الاج
##راها
ولذا
حاد
ولت
نم
##ريدة
تضمن
بحث
العراقي
أقبل
الكذب
وبلغت
##اجت
والأربعة
عرفت
القصة
أجزاء
وفاته
مدى
يوليو
##ومي
القصاص
##طاعة
شرعا
##اوز
كتابا
##ولوجيا
الصبي
المتوفى
##ضيع
تقرير
الشرقية
ينكر
المؤمنون
العي
القمر
اد
مهما
##آء
##بون
ثمانية
وار
وليست
وأت
مواضع
الروايات
الاجتماعي
ثاني
عبدا
لماذا
مناطق
##تة
نجا
جار
جون
ضرورة
الطفل
كلاهما
الحيض
سيأتي
عكرمة
قيمته
كفارة
ناس
وأد
الشافعية
##كما
##لوان
ويحتمل
لقب
فتنة
يقضي
المرو
بعدما
السجود
ناف
والتق
كتبه
زرعة
##وس،
منس
الأشخاص
نية
خوف
أصح
الأولي
حسنة
لها،
جائزة
الراف
الجزائر
إخوان
العلاء
ومثله
القصر
##لاط
فبرا
##ذير
حرا
عتق
خان
##غرب
العش
إخراج
الحصول
##ثور
##وعي
بسي
ألفا
بالمدينة
الرئيسية
فدخل
الحديثة
وتص
##لفه
وقالت
المخط
علي،
وقام
بعدم
تغيير
الخم
النقل
السير
اتفق
انتقل
تفعل
##نابلة
الثورة
السمع
الزنا
المنهج
احتمال
##مني
تنبيه
##ضيق
الثامن
أقوى
والمؤ
##وفق
الفرنسية
أسد
الوس
##خروج
مولا
الصلح
##لوما
البلدان
فذلك
السلطة
شيء،
التوراة
##حها
نخ
النهر
الضحا
الأخلاق
يشعر
##دريس
واقع
##وجوب
الحكمة
يفيد
برد
##مم
دعاء
##زى
##تكم
البينة
تبلغ
دعوى
طا
معاني
للر
وأنشد
##نوا
البال
ادع
##ارئ
##سى
واب
موقف
##هو
وتقدم
ونص
بالاست
العلة
علة
ركب
او
##وحة
ومعه
##ريبة
وذهب
حدوث
الديمق
عكس
ويجب
##وزيع
نعمة
##بيين
المدن
ويل
درا
حاله
##زر
الجه
مسلمة
البصرة
##سف
##لاه
محدث
##حكام
ميل
تعريف
##تهى
كش
##جاد
النقد
يسير
##ضرورة
الليث
والدار
هذين
الحص
الكاتب
##ضت
الخش
التالي
مسؤ
قريبا
##عدل
##بحوث
##وبات
##راطية
الكوفي
الإش
##ونات
السع
هند
الذك
##اثولي
##راره
بالز
##ايخ
لغيره
وعاد
مصطلح
السورة
##صادي
الغسل
حلق
الباحث
التقليد
الدائمة
لأم
التالية
حاز
بذكر
داخ
##قيب
##اصب
##يسي
ثلاثين
روس
وطلب
غلب
العلمي
تماما
صحيحة
النظ
فقط،
الدهر
##ليلا
أخذت
##تي،
الكبيرة
لابد
عنك
العمرية
لإن
##هدى
الكوفة
الذات
وعندما
الوارث
سجد
عمليات
##خراج
ودفن
##ماية
نقد
أغسطس
شم
يراد
##وضح
لكي
لا،
جعلت
##جلة
مادة
حافظ
عملا
النعمان
حرج
مرد
التنا
برأ
هات
مقر
النوم
لزم
القاطنين
##رال
جيد
اتفاق
أرأيت
##مون
##لاع
##اوية
كمن
وبهذا
فيجب
العظم
##قاطعة
##رائض
##مائة،
رجب
الشارع
استغ
المدارس
تعود
فمات
والمح
يمر
وزير
##وعية
##انات
عسكر
عدل
فبراير
الوجوب
ورحمة
علوم
ملت
ابنة
لذا
واش
##تيان
ند
تطوير
وسن
بأم
مخالف
طيب
الريا
تركه
##نها
فوجد
الصغيرة
##لاس
آخره
فكرة
##ورها
العقيدة
##فضل
تنظيم
##لاوة
يخاف
تزال
حلال
تختلف
##نار
خذ
الشك
والتح
مخرج
الضر
حقيق
معركة
سوق
##تني
تي
##خبار
الخارجية
شيوخ
الباق
العرف
عمه
يبدأ
الصبح
##ماه
قولا
استطاع
##ماغ
##ائح
الهواء
##حيي
نادي
الأساسية
خار
لعم
##متها
طبع
المنصور
##واهر
##فاية
وخاصة
تتبع
##ليلة
أنش
##اه،
يمن
يقر
سقوط
والظاهر
مفر
الاتصال
القاعدة
توجه
##عان
والان
ففيه
أمثال
وخل
يعرض
المختار
الباطل
تجوز
حذيفة
المسيحية
وتد
##حاث
أنهما
مقيمة
الدر
##داق
النوا
##ظيما
طويل
##صدار
##دعوة
التحريم
لأول
منزل
التغ
##تهر
الفار
جلس
جور
صدوق
فقل
بمر
المرحلة
##براهيم
فساد
كانا
الأعراف
الثابت
##حرك
الإطلاق
وتاريخ
الأجل
قائما
##وطأ
الأسا
بعين
الأصح
##ضاح
تسمع
##واية
وجهان
سند
العسكري
كيفية
بيروت
جارية
عليهم،
حبس
##لكتر
قدرة
##جابة
فيقال
ناصر
مخط
أوله
##ستور
##يراث
##كز
بالفعل
بالي
بمجرد
تجاه
##وادث
السموات
وعب
فيلم
سين
الرضا
بحكم
البداية
مرك
نحوه
اثنتين
الريح
بذ
##شكال
تأويل
الحاضر
الموجودة
أشهد
الأعضاء
يحفظ
حالات
ركعة
##ئب
عبدالرحمن
العلم،
يصبح
الأوروبي
والحسن
##خم
الياء
خمسين
الكس
##قدام
يقف
قتال
يصدق
والمد
##ضيح
التلف
##نوان
والثالث
النبوة
##وطة
الفن
وتكون
الاش
المتأخر
مان
النها
يمس
ساق
الأفراد
المجر
##فراد
السك
##يبه
الناصر
يمينه
وإيا
##هنا
جزاء
العرض
اع
رزق
دونه
تجمع
الأستاذ
مسلما
الطلب
الشمالية
ذوي
##صوص
موص
منهج
##وسى
##ورهم
محذوف
##صم
فرغ
##رجال
الإحرام
المدينة،
المنع
بلى
يحسن
وخمسين
الصفحة
ورق
كتابة
الراه
##ورة،
##ئها
فيك
المعاني
##ردد
##وهر
أردت
يؤمنون
المسند
الذمة
صالحا
زهير
##فصل
المالية
العثمان
الوصف
خرا
الأحوال
وقدم
الإجارة
يلحق
البريطانية
الطهارة
شارك
##فير
##ئاسة
##قي،
زم
##رفض
رضا
##ازي
##بول
ويحيى
يبيع
الحدث
فأت
مهمة
ام
ملكا
##واني
الميم
الخيل
مقدار
إمكان
القادر
##قة،
وتك
تشمل
قوما
ممت
الذنوب
سببا
الرحمان
المسيحي
الصهي
وسكون
سهم
منظ
والشر
فكذلك
##جير
أبريل
##صفه
##كي،
##اليب
##البة
تميم
مثال
عمي
شار
نبينا
يبر
متعددة
لكونه
بالقرب
##يها
##ؤمنين
تأخذ
راجع
##لائل
##ئلة
يؤثر
كتبت
مقدمة
##انها
الحضر
##نساء
ولأنه
ذبح
وتخ
فكتب
ضرر
##ط،
##رشاد
قواعد
عقيل
الغيب
المدونة
##هز
وأربعين
شهاد
القبور
السلام،
##خشري
يبطل
والمنا
الوحي
##حظ
زوجة
عذر
بقاء
المفا
وأنتم
##الجة
##الته
ارتفاع
غرب
قائلا
عظم
##خدمة
##ذية
الجرح
مثلها
##حض
حاليا
الشخصية
##بة،
المرك
##نيات
ظاهرة
ووضع
##هلك
الغز
العتق
الاول
ألق
##ارم
##جري
بثلاث
الأحيان
دعم
مشي
##رتب
##بارا
المائ
عدو
الفاعل
تبعا
##غان
##حون
وهنا
##طم
##الج
البدع
##بعاد
طي
##تابعة
وسم
##بث
زكريا
##قله
الآخرين
الابن
وبذلك
بدع
ولدت
##قاضي
عربي
المثنى
الفيلم
الإجماع
أدري
ونظ
لعام
التعريف
يبدو
اليهودي
السبيل
تقل
يسار
الاقتصادية
المطر
مناس
##خلت
الحاد
نظرية
لحديث
الكث
##نيه
##قن
المتعلقة
يفرق
الكت
الالت
القرى
##همية
##ديو
الكهرب
عاب
كسب
بحديث
القل
##فاة
يبعث
بكتاب
القن
المعتمد
القضاة
تقد
اعتقاد
##ازة
آخر،
##حتها
##طانيا
القائم
وبقي
ويص
يخت
كع
كونها
عالية
مسي
الاد
القبائل
شعبان
الهداية
نح
الشعراء
التعبير
أمتي
##غداد
از
سابقا
النجوم
الرئيسي
##وفير
يشمل
تشير
القضية
نشاط
##فصيل
المفسر
تملك
محاولة
مجاز
##اب،
مناز
##لوها
فاز
عمره
لعل
العثم
أخو
##طباء
##خرا
المدعي
الأوق
حينما
غلام
##حان
الصلوات
##تيه
الأخذ
##لوع
اللو
جنب
مانع
وأصبح
وسا
عمير
الخلايا
وأنها
رجاله
##وفيق
##ظل
ضمير
الكريمة
هجر
أوصى
##صلة
كري
الليلة
الضرر
المولى
بعنوان
المسؤ
الستة
مؤلف
##فيع
##خوذ
##جور
وجل،
وصلت
##راغ
الحيوانات
الهيثم
عفان
صيام
الأذان
##ودع
فتكون
الوسطى
الحساب
صريح
المهر
##ياطين
الأربع
ابراهيم
##بتها
##كاية
أولياء
حبي
الفرع
وادي
الملوك
المجموعة
قائل
والإفتاء
الدمش
الفلك
فاعل
الصناع
الموس
اتبع
سد
الأول،
عموم
##يث
القرا
##ترنت
التراب
الجبال
جمادى
بدعة
الجار
وحدة
المطلوب
عيد
وأراد
##راكز
الحالات
جند
نفع
تحل
ليل
تولى
##قوم
فاج
المهدي
##افات
الميلاد
الهل
بصورة
مرتين
ولها
النفقة
للمت
أمرهم
يعنى
يدعي
تضم
الشاهد
لزمه
صارت
مجهول
الركوع
وارت
كأس
##ويض
وكأن
وسبعين
تأسيس
بأنهم
##بعد
وهى
البحرية
شيئا،
لست
وسائر
العلاقات
##وانب
العالمي
قائم
القدس
هز
للبحوث
يريدون
##فوظ
الحميد
الامت
جمهور
وبي
##رهان
الأحداث
المجمع
يحلف
الأبيض
عالما
العشاء
ديوان
##وسية
الداخلية
##هرة
حز
منهم،
يزعم
عيا
الأكل
مقدم
اح
إحداهما
صحيحا
الكاثولي
قرر
اجت
وظاهر
تعليم
لند
وصححه
الوث
أبوه
##يتهم
جب
ابي
يتخذ
##دين،
المستقبل
##ام،
الصي
الحلف
الهدى
لنفس
الصدر
خطاب
لعبد
ثبوت
##ديب
والعلم
##ؤهم
المؤرخ
صع
##عتهم
وسئل
النفي
الأما
الود
الأجر
##بعه
##بقاء
للز
الاه
بطريق
##قدمة
المحلية
أقسام
رش
##ائلة
الدوري
للنبي
الآتي
الإخوة
المالكية
##ينيات
غزوة
الشديد
مضم
الفع
عظيمة
الولاية
غضب
ويوم
بنحو
الدنيا،
يغفر
تشت
عوض
##فرقة
والناس
الأط
إنكار
كات
اللحم
لهم،
الزمخشري
##غى
بخط
شديدا
التجارية
##خفض
بمصر
قبيل
##اكل
اعتبر
خليل
التحقيق
##صرح
##ويم
##ريان
الظلم
الفتنة
عمن
تنفيذ
الواقعة
##عيم
##خله
الأقوال
التقدير
لث
يفر
وحر
##اعية
وأشهد
##ثلث
##يارات
ليلى
حوله
ونحوها
يعتمد
حصلت
للمسلمين
اتباع
الروض
والو
بدء
التوا
أعلن
بإن
##صبحت
ترجع
##صفات
##رامة
نرى
مشهور
الهمزة
إث
##بوه
##وردي
عندك
فرقة
##ائض
شاة
##لبة
عتبة
المنزل
غض
للإنسان
المعروفة
عددا
الحكيم
نعم،
قادر
لرسول
##اقب
##رتها
بعم
##يساب
نو
ذاته
قتيبة
##عيين
الدراسة
بتق
ألب
وبما
الأسرة
##وهن
ومج
شجرة
لجنة
المهملة
الطبيعية
لديه
##رب،
مصر،
##بائر
منصب
##ادت
فليت
وخلق
وأربع
##ماس
بور
طه
بذلك،
بمث
ونس
##ناصر
##حاوي
حيات
الاب
خطر
##زت
يدعون
الارض
فصلى
##عرض
فقوله
افتت
الملكية
منح
وعرف
##ولاد
وتست
دولار
واحدة،
الراء
##وعه
أبلغ
برا
تثبت
نصه
عشر،
##جلت
نظم
وكم
##ديس
بألف
أدنى
##فيات
ضم
يروى
##رجم
وسعيد
لكنها
يظن
الخوا
البقاء
أعطى
عديدة
##وصي
الميزان
اختار
قات
##طوف
فلذلك
السد
##شرت
والبر
##قلت
تمثل
##قيع
##اها
النون
ورث
شوال
يصف
وردت
ودع
##حقاق
كافة
صلة
تجري
التمر
##ريقية
##غو
ثانية
##شه
##فون
وحق
بلال
##ربط
نقطة
الطاعة
بأي
وكسر
المهاجرين
يمثل
خدمة
بشير
##رضه
لز
إت
##عداء
وام
##شل
الباء
قضي
##يمان،
أعداء
الفاتحة
##وفر
ضي
أعرف
الإناث
موجودة
ومؤ
كقول
فأخرج
بيننا
##وكيل
منتصف
المرسل
الجنوبية
الوزراء
وتر
لاحقا
مصلحة
تعيين
##أذن
##جملة
نفوس
الفلس
مذك
حذ
الإقرار
القصص
السنة،
لبنان
يجلس
نفقة
فهر
أوجه
القرط
أيا
نذر
رده
ملوك
يخلق
القطان
ورفع
يدعى
بوجه
وارث
القرب
وسبع
رشد
كاتب
##دعو
##حش
والدي
وضعت
أدخل
##ضاه
فسخ
تث
النفوس
جسم
##نيع
الدرد
ثياب
رآه
يجتمع
تهذيب
أسس
نظير
السياسة
##سبانيا
النه
وستين
##عرف
معنا
وصحبه
التأويل
علاج
الإسب
##ديعة
نن
نزول
عباس،
يقيم
##فف
اعلم
السيف
قبيلة
الشروط
الفرقة
المنافقين
تأخر
##ذم
الصبر
أوس
وتسعين
واسعة
وإنه
لأمر
##بنية
الطواف
بالمر
الجمال
والنهي
صناعة
سميت
ومائة
وإي
##مكن
الممت
تعبد
فأنزل
فكأن
الأحمر
الأك
##نبية
القراء
صغ
وته
##انوية
والأخ
بيعه
الرؤية
باط
شخصية
الاتفاق
ويعرف
التمييز
صفر
حري
المسمى
النحل
##ندية
فاح
تسعة
إجراء
##بالغة
قيا
كاملة
فلن
الخلافة
مخل
##عري
وتف
خصوصا
حف
ولفظ
آت
جلال
##الله
##كاته
وإني
شراء
##ظار
أهلك
الألفاظ
أمرنا
##باعه
##ائز
وإذ
##اطر
##حويل
العالية
المشي
##قلب
أبرز
الهوى
وائل
ومست
##يتان
يرون
تحتاج
المعاد
قوي
خلي
الطبقة
الهيث
تعا
قرار
سيرين
الأعمش
المسل
الثقافة
وأبا
##افا
##ارثة
تحقق
##ابي
فيس
لفت
##عوا
الشكل
الأمراء
أيديهم
ربا
##ظيف
الحرارة
شهدت
ويخ
ويتم
يبت
النسبة
صنف
##سات
مكانه
فو
يقسم
يعملون
ظاهره
للذين
فرأ
##روه
الوزير
##حدى
##ئم
بشأن
ووقع
##وكب
##سنان
العثمانية
جئت
عذ
الصلاح
##طور
حالا
يفعله
فران
درس
ويعت
مفعول
آب
ببغداد
عون
عياض
##ركه
فعند
حفظه
##ابق
حصول
البريطاني
اهت
النجم
غي
مالك،
وسيأتي
##حدة،
تفسيره
##ميت
تأخير
درجات
##روك
يتضمن
بنية
باله
الجلد
ليلا
وينبغي
هبة
كالأ
ينقص
ولق
جس
بطريقة
لاحق
البعث
حجم
حكما
##علها
ومش
دراهم
راك
السبت
أعني
الدعوى
##يلان
ترتيب
خلفه
عندها
##هورة
خطب
الحروف
ينسب
البول
وحدثنا
مؤسسة
حسنا
##مشق،
الحرية
يمكنه
عنوان
غفر
تحتوي
الحقيقي
عمارة
أوجب
##وقوف
شق
الصين
##ندق
الممكن
المنظ
المحكمة
يحم
##كتب
انتهت
القليل
لرجل
يشتري
##قيام
ومنا
##شون
القط
##سلة
##أمين
يقرب
أنفسكم
العموم
لله،
##جعل
ذنب
ذن
الارت
مسح
القرشي
باشا
لديهم
ثواب
الجمعية
فإنك
بحال
مخالفة
السحر
معرف
هدى
##ئون
ربع
ينقل
المدعى
##ساني
##ؤل
الشركات
السلاح
متر
قراء
##فهام
عنها،
انح
أجاز
الكيمي
الطالب
جذ
الكلب
لهي
بفعل
##بينة
بعيدا
يحتج
##عده
والجماعة
وشهد
الأمراض
ومالك
##وزاعي
##بيث
الواحدة
الجوه
بدين
إزالة
الحجاز
للمرأة
تتعلق
برب
المحم
تشك
الإنسانية
بالقرآن
فأرسل
##زوجها
شعره
إصلاح
العز
##رائع
##رها
قدي
يلبس
بالإن
المخلو
لدين
الجنائ
وجهين
عينه
حرمة
الخليل
والشيخ
أغلب
طهر
##بيات
##تابع
فقه
مبتدأ
وقتها
##مكان
##فوا
الإنترنت
الإصلاح
مبلغ
دفن
والقول
الأندلس
الأر
اغت
البزار
فاد
##بز
محله
الجمل
بجميع
الفقراء
مصعب
سود
اغ
أقيم
وفيما
المؤتمر
والشافعي
##يدان
اثنان
الرحمة
أفعال
حاض
ويقولون
ضعي
وامت
حامد
يرث
تلا
زائدة
فذهب
عليم
صاحبها
ولهم
يصنع
تطلق
عفي
الطبرانى
##دمي
صلات
الكفارة
ودا
ورض
هاه
ثعلبة
##قتال
والحمد
أمين
الأداء
ويأ
الجنسية
صفوان
##هاج
الورثة
##فهم
اليت
القوى
خفي
الإنتاج
قولان
قن
جرت
للث
الفتن
يهد
لعن
##عدام
التابعين
عجل
يسجد
وهؤلاء
النات
تعني
نبيه
##يلاء
لير
قاسم
علامة
البصر
النب
كريم
تحرير
##ويج
اشتراط
سبعين
والأس
الظاهرة
الأنواع
الحنفي
يحضر
##سلحة
وزوج
يشكل
بمس
اتحاد
الإمبراطورية
##ليون
الكاف
معشر
##حاح
##قا،
خاف
دائرة
وحمل
وثمانين
أجرة
الإسراء
لجميع
يحنث
المجاز
أحمد،
##ورى
##قرأ
ناج
يختص
##فة،
ناب
##عاد
تؤدي
طريقه
بريطانيا
##كث
برك
الهيثمي
أسمع
شرا
الملت
الاصل
الإصابة
##رين
أفريقيا
##شفى
وسيلة
أتم
الطلاب
الجهل
##بدال
##هولة
##شكل
بدمشق
فيجوز
الضوء
واليوم
دينهم
شبكة
##وابه
فلانا
يلق
الكلا
##حك
##غيب
وحينئذ
قار
الكافي
##فا،
قائد
##ثلا
يسمح
زالت
##قود
##بروا
نائ
الموقع
وكنت
باللغة
فالله
الصالحين
لعمر
مجد
##زوجة
تسمية
جماع
##لفت
بقيادة
##ليها
##باق
الحقيق
ينفق
الوحيد
هدي
سعود
نفر
رز
استد
الاستثناء
طبي
عود
الطبيعي
أننا
الأي
##سيط
والصواب
دية
المسح
##ناط
والنصارى
وعز
الحرة
##ربوا
التعامل
فسر
##وت،
##وست
المعلم
##ضحية
جوز
وحي
بعينه
يخص
##ليما
الوفاء
فنزل
يتنا
##يوطي
سلمان
فينب
بالناس
إيران
الوطء
قيادة
سيكون
والصحيح
للتع
فيست
أموالهم
تبقى
المصطلح
وافق
وغيره،
الغرض
أليس
##مارس
الأولى،
الكافرين
يصيب
يسي
ريا
شاعر
يهدي
##دف
الأمين
عامل
##اعته
فدل
برج
الشت
كسر
أجمعين
أهداف
العلاقة
أسر
الثمان
##تية
##وارث
المتوسط
الجنة،
##ساعدة
حيوان
وأشار
النح
##جزء
##أه
##رائب
الهدف
غس
معك
فكر
اختلفوا
الاولى
##فادة
بكون
واص
وعمرو
الصغ
تحول
الخل
ولولا
السيوطي
النقص
##طاقة
سجود
والحق
سوريا
الصوفية
نقض
انصرف
خام
أشكال
الروضة
إيجاب
حاشية
لتن
التشريع
وعثمان
ريب
تقرر
المؤمنين،
بإسناد
والحا
نتائج
سرق
معه،
الكلمات
الشرقي
هود
متع
أجاب
المستوى
لقاء
المناسب
خلافة
النار،
بلدة
الدماغ
العاصمة
##ضعفاء
اللات
ذكرناه
وجوده
بيانات
لئن
لوجود
صحيفة
فعلا
البيانات
##خصة
حكى
تتضمن
##طلاع
##مالي
بنات
شبهة
الصباح
الجوزي
كح
الأفضل
##بويه
##ليغ
ألفاظ
مصادر
##اد،
بمح
المشترك
الجراح
المسافر
الدمشقي
قاب
المتكلم
منزلة
باقي
القيس
##اريات
حملة
العفو
مور
صلوات
مصطفى
##رائم
قم
حماية
##كنى
##خاب
ثور
##طت
##خ،
##حباب
##نانير
ويز
مأم
آخرون
الخالق
أقدم
قدره
##علماء
لوا
عو
بالماء
معل
سواه
شباب
فوا
فضيل
يخبر
العشرة
قليلة
تأكل
سعيد،
غدا
والدين
نصوص
##حرص
تستطيع
صا
مصالح
المفعول
##يرل
الضحاك
المصادر
لازم
النبوية
أنشد
##ابة،
##لعاب
##يفة
الفقر
فانت
فسمع
الأفعال
##ض،
الاضط
حيان
سو
وكلام
##حين
وسنة
فرو
فاقت
والآخرة
إص
زيارة
قديم
##ائرة
سام
اتقوا
الأوروبية
بينا
العالم،
بارك
جلد
وأنهم
الفوز
ويذكر
شأنه
وللم
يشرب
الدال
معدل
الموقف
الاثنين
هان
يتحدث
##راقبة
والفر
جبال
طري
التاريخية
##خارى
إرادة
##قرير
##فاس
السنوات
يتمكن
الناحية
ويب
المكي
الافت
إليها،
##دها
وحفظ
جهاز
بتع
##هرا
سيدنا
راش
كثيرة،
##كاني
##جو
مشترك
##زايد
##وزن
عظيما
##ئس
يخلو
##تها،
صب
فتن
أحد،
وزن
##لوف
##زون
مسلم،
الثواب
##جهزة
عمرة
القوانين
بطولة
رؤوس
##اهدين
المعركة
الشجرة
الغر
##يفاء
طر
الموسي
##عيه
##جأ
ضلال
ماي
##مارات
آخرين
للي
##رجان
الإسكندر
جورج
النحا
محافظة
ديار
قرأت
بوجود
والأصل
تصدق
الحنابلة
الخدري
التقريب
الاجتهاد
فالج
السيطرة
##عتم
الهدي
وسلام
مشرو
للإمام
والعشرين
الموج
الضرب
الشرطة
بعدهم
عقل
السجن
##قصى
أمته
الجوية
الرق
##زير
زوال
الواس
قلة
لون
وجماعة
يستحب
##خفاض
المصحف
##كة،
القواعد
مواقع
أعطي
يهودي
وصاحب
فرح
تاج
التوفيق
لهن
##صه
العمرة
حصين
ميس
##صت
الحاجب
إطار
وعبارة
أعتق
والتعديل
يتبين
تزيد
الواق
الألمانية
فوال
##دال
##طئ
##لاما
العبارة
##املات
الاقتصادي
ضبط
إليكم
قطعا
حاكم
الفلسطيني
مسنده
تطور
العصور
فعلم
ذم
تشهد
اتخاذ
ونزل
تعلمون
##شم
سننه
يستعمل
##ظا
ينافي
تشكل
الشيوخ
الطبيعة
نيوي
قناة
منى
الاعتقاد
##ثاق
##قدار
ليد
بالسي
سيده
كرة
فخر
##خان
##ألك
للشيخ
قبره
##لتهم
غا
خوفا
مختصر
ودين
فحين
التابعة
تصنيف
الله؟
بالضم
##صوب
الوجوه
توحيد
المجا
##ديات
والأمر
كلمات
الثياب
تمنع
يخل
مين
##نيين
القبول
إدريس
تسبب
انتشار
##راطي
معصية
الصراع
جمعية
##فلس
الجهة
الجزاء
ولله
الربح
يسكن
الآخر،
المنبر
يعرفون
زرع
الطبية
فأقام
##دمير
أبعد
##بادي
##غيل
بسط
##اريع
روسيا
مخلوق
##ونت
استخدم
هج
وها
عيب
وإنا
اليقين
للآ
فأنا
توقف
##قبض
امتنع
أدلة
##ردة
##عتق
الخلفاء
##واك
##حوث
##ابط
عقوبة
الرشيد
الإلكتر
بالصلاة
##فقا
النشاط
قطعة
##عدى
الحول
والطبراني
الخزرج
المائة
بالو
رائ
فبعث
والجمع
الدرداء
الترا
لتكون
جدا،
وجبت
##حصاء
تحم
أتباع
أخطأ
روايات
عذا
تطبيق
البدن
مقارنة
##شرط
##لهما
عملت
فينبغي
تسليم
##شق
##شة،
للمست
نسبه
ترت
بسب
تخصيص
لاحت
الرعاية
تحصل
والفرق
ثقة،
القرار
استمر
##قيد
##ولون
##غيرات
الجهاز
بخمس
مري
##ولوجية
##بلد
وبعضهم
ينتفع
خصائص
عياش
##الي،
بالفتح
النضر
لصاحب
اصط
نجم
أشرف
الإيط
الشيب
سلك
سابق
والحكم
دورا
تارة
##وتا
النجاسة
فقتل
العلو
القس
أحداث
هاهنا
فبلغ
##ركون
##فسهم
النم
المنك
##ثمار
##نق
##ضطر
شوا
ه،
وكي
للصلاة
قاتل
مجرى
أنشأ
بالمن
الجسد
##غ،
مفا
الدارمي
مهدي
عرو
##وتي
هامش
خس
أسفل
##واكب
##ابقة
##وصية
ينتظر
الإنجليزية
المفرد
الكويت
أراضي
##ماذج
وبعث
عينا
ترجمته
##هزة
تعليق
للعمل
وحكى
رجاء
ويزيد
مائ
سافر
وجميع
تمن
##ندوق
فكأنه
فوج
مقال
##شارات
ويدل
الدابة
الراهن
مغني
كلي
##وازن
##تار
بدي
الاستدلال
ثالثا
السلوك
التحرير
##وانة
وسار
ركن
تجاوز
##طاليا
والذ
##معي
بالكسر
المأموم
##شاب
توس
##زيل
المشرق
طلوع
الخدمة
##تبطة
كب
##ثني
النت
كذلك،
النحر
أجن
العرب،
نهي
إقرار
مسج
ويعتبر
##صرا
##ولاية
##ساط
الرائ
ونصف
والمسا
الوتر
المحل
الوقوف
المقدمة
الترتيب
شهرا
##زيه
قطر
جهد
مبين
الجبار
سماه
خدي
الحق،
حجاج
بموجب
وضوء
تأليف
##حلل
والتص
##كرون
جام
الأحد
الشهود
##طيط
##فك
معروفة
يعقل
المسلمة
والاقت
##ينت
##ونك
الإك
تولي
علقمة
كلامهم
السكر
##هلاك
##نائس
الفسخ
تبطل
وإسحاق
الباري
الحرف
##طنين
مطر
تقديره
##صرون
بجامعة
وشرح
الشري
صحيح،
ويأتي
للإسلام
سان
المرضى
الموكل
الصرف
المرتهن
الصال
##فها
روايته
رضوان
معلومات
وإبراهيم
الخار
##ائزة
##اتي
إسقاط
مدين
وابت
الخميس
ساد
يقاتل
المشاركة
تأمل
فيكم
المصلحة
الاكت
العمليات
##لوة
وكثير
نشأ
##غرا
عمدا
المثال،
بصفة
معجم
الجواز
التسليم
وأج
ودعا
الجارية
الأت
المعجمة
تأوي
السام
##ص،
خراسان
لصالح
السكانية
حمله
تقتضي
معرض
##زما
المجتمعات
##تبة
شريح
##فيض
والمغني
والثانية
تشبه
الكهف
بكثير
##سبق
صيد
تناول
ويعلم
الشراء
كالت
الهبة
الاستغ
لبي
بالآ
ار
أبي،
باريس
واضحة
فول
للرجل
القاد
سلط
عقيدة
أوقات
##فعه
##حة،
رسولا
##ئنا
الزرع
مبني
##ألت
الخض
اند
قرى
##راوح
منهن
حاول
الغن
خيبر
المقال
##بها
مذه
رحل
الأخرى،
التيمم
وتج
الحلال
الزجاج
أدت
##وائف
أصغر
مؤتمر
اتفا
##ائفة
والسن
مصد
وعشرون
مدير
المذاهب
مقابلة
بانت
الصيف
فاشت
الصادق
العصب
##بوة
##رشد
جناح
ورا
الحلق
عامي
وبيان
غديان
أمامة
يغير
##خلاص
##صيب
الجنسي
يصلون
توجيه
كإ
الجب
##السي
##وتهم
وكلا
سنان
المنطق
يتعرض
الدرجة
المصالح
بقيت
##خصصة
##الة،
والات
##يان
السلط
فآ
##بك
اعتمد
##الين
المؤذن
سلوك
والجواب
رأيته
الكلية
##ياز
أولها
فأول
غن
البنك
الموافق
تعتمد
أعوذ
الشوا
هى
##رابل
اكتشاف
فسأل
حدثت
اعتقد
اسمها
سكت
الجر
القضايا
صام
وقدر
أنفق
ووق
المنش
ضوء
ورجل
##دته
يعط
التقي
تفر
مشكلة
غلط
قبائل
الني
فلك
طبيعة
وبناء
الساح
الشعبية
لندن
القصد
##يير
الإدارة
##عدت
واسمه
وملك
النسي
المحلي
عضوا
السفينة
##فاه
الاحتجاج
الفاء
المؤسسات
##ثيرا
##ورين
##واجه
فدعا
للمس
##ديمية
اللون
##ذون
توفر
طوال
الاعتبار
##قار
##عيش
ميمون
وصد
ريح
البالغ
وبها
##عظ
##ئته
الوال
يرج
ومص
تصحيح
والوجه
##ميزة
الأجرة
الغلام
الواردة
مقاطعة
##يوش
لأب
والإسلام
أفر
لمس
وظهر
الدرا
سلاح
وطن
سري
كد
تسقط
رق
##خلها
وأحسن
بقا
أركان
أماكن
تفت
وبح
تصبح
فأتى
قاض
التعليق
الموطأ
موسم
يمشي
المتحدة،
الار
بأحد
يتصور
الراوي
اللق
تفرد
التربية
لحي
##بور
الحمام
الطبيب
##جنبي
أنعم
##سانيد
سيدي
##دارة
المعجم
قلعة
##ماليك
المرف
بحلول
مقتضى
الضعفاء
##رارا
قولك
وقاص
والكتاب
العثماني
السوري
الذكور
تركت
يغلب
العقود
داره
شجر
الرأ
تاريخه
العبادات
العار
##جوا
زواج
بتلك
الهيئة
فبين
##زله
للمع
مساحة
وأغ
الشجر
المنظمة
أعين
وألف
مبدأ
مساجد
شرحه
وول
قوية
مئة
وموا
الأولين
الدلالة
الضغط
يكاد
لرب
النخل
أيد
إدراك
المعتزلة
الموصل
المزيد
##كله
فانظر
وعرض
واجبة
فرضا
يقبض
فتب
الجماعات
أسلوب
##دو
والتن
##بايع
حارثة
آسيا
ففعل
##ك؟
بالذكر
الدفع
قيمتها
وزعم
الصحية
الأفكار
ثابتة
##مره
##الفة
برامج
الجمهورية
الظروف
الغذا
إك
لا؟
حازم
##طيل
الثقة
ظاهرا
##يرات
قبضه
مجل
##وف،
الغاية
الكبائر
إغ
##دلة
بالتح
سكانها
تابع
رفعه
نبات
وثبت
##زيون
قض
وبم
أخلاق
مصنف
فضائل
العج
الوكالة
الفرائض
هاج
المعاصي
غنم
الإب
يتحقق
ابتد
يمتنع
الملك،
استط
قديما
شديدة
##راجعة
سيت
طواف
الرواة
الأولاد
موال
ويظهر
صري
والتأ
##يعاب
##رابات
دب
مرسل
وصية
##ولايات
البرنامج
المار
الأصلي
##ائنات
##ياع
بالقاهرة
مباح
لمر
الإغ
يتوقف
القرطبي
بالمس
شقيق
##قافي
قاط
رحمهم
المشركون
يحد
##لامي
المعلوم
##فيق
المحسن
الإسرائيلي
يوافق
الخوارج
والاجت
معرو
متاع
السور
السوء
ترض
المال،
حضور
التاء
الجو
الهر
##جاع
##سلطان
يعيد
الحرير
يعين
الخمسة
الصمد
##رحام
##صري
الحكومية
الفضاء
وصفه
شىء
الوقت،
يراه
بكر،
كفار
لزوم
الغنم
صدي
##قاة
الخليج
الاستعمار
وصدق
##رازي
أرج
بآيات
متأ
بالكتاب
المهمة
بترك
اللب
إجماع
ووف
الإص
إبليس
كنيسة
التعاون
الإقامة
قدامة
مكة،
##جون
وأحد
واستمر
##لادي
باق
الجليل
فنقول
الأكا
وإع
نشرت
وسواء
النجار
ممكن
سياق
الأعظم
الانتفاع
الوالد
ومنع
السند
سفيان،
وقطع
الجوهري
خم
أكان
##داخل
انطلق
والاعت
منش
مباراة
##تيت
وأطلق
الشريك
##وقي
##ادا
##وع،
والخط
وتقول
التقليدية
بمال
الحدي
##حتاج
استقر
دابة
مالي
طلقها
##ارة،
وفض
الجزية
البحرين
##حيض
أرق
شخصا
عموما
أحر
##ثرت
مسك
دليلا
محبة
جمهورية
نسأل
حروف
الوحدة
بالليل
الحلبي
أتيت
هدية
نمو
الجوا
الطبعة
سجل
الهجوم
##لهم،
الأساسي
تقسيم
الركعة
##فان
##كومة
التابع
إبراهيم،
يضم
إسحاق،
يعتق
المسجد،
##امين
دلت
المأمون
##خوان
وأمه
مند
سائ
##ماح
معبد
وصول
##احبه
المستأجر
ومعلوم
الظالمين
فيح
الأشعري
البلدة
عزل
التقدم
الوسائل
أورده
واق
##امى
غاب
بأبي
##ذري
##غون
اليوم،
النظرية
الشعوب
وابنه
الإير
الال
البيوت
##راعية
التأثير
الغاصب
الصلي
تصميم
الرفع
فوائد
سمعه
##ركوا
سيبويه
الولاء
##اهن
الفلسطينية
السهم
هنالك
الزرك
بسرعة
أجهزة
رمي
أخاه
ومائتين
##ئ،
بلوغ
المحتاج
القسمة
وضرب
البرت
لتق
مياه
استح
الغني
أكرم
لى
##ريش
السودان
نعرف
بنسبة
بالوا
##فاضة
##رهاب
##داع
قصيدة
البيضاء
إظهار
ره
الماج
الانتخابات
تصوير
دينار،
تسا
القائمة
ذكرا
العنف
روم
زينب
السياق
صحته
جميل
المنفعة
وتب
سلامة
القعدة
##فاعل
##خمة
عناصر
الشياطين
المبادئ
فمر
أكمل
والفق
##لان
##وتها
بيتا
النيل
أربعا
مرج
فوجب
الجمه
غد
##وى،
قلا
##كح
خلافه
السلطات
يدري
لفظه
##عاما
الغي
##ثمة
قرن
وولي
فقرأ
أية
##ؤية
وغيرهم،
رهن
منفعة
التل
الغاز
عمرو،
##عته
قس
يترتب
##رواح
شذ
فرجع
##صادية
##هداء
##رمى
المفهوم
الرياضي
يحتوي
حرية
سال
قولي
مكتبة
الداخل
مشرك
مها
أصدق
طرح
وضم
والإيمان
منق
##قدرة
##نائه
##جها
عار
##بتهم
أبان
معناها
حصن
##ارير
فضله
طف
اتصال
ذهبت
الغائب
المكر
الأصلية
وفد
القاتل
وإليه
##يدر
أسود
##يب،
اليدين
##عمه
وزيد
عوضا
ماتت
سياسة
مذ
الجي
والظ
مأخوذ
يكثر
فتاوى
الأعرابي
نيويورك
يتزوج
التشهد
قدمه
##ينا،
أعلام
يليق
##فقته
قضايا
بتاريخ
ورك
أقصى
ونشر
##وأ
يدا
التراث
الذنب
##ليمة
كور
الحالي
القارئ
إنكم
الثقافية
السفن
مملكة
التبر
شرعي
وأط
فأكثر
والعد
ضعفه
باتفاق
##نط
شكر
يخطب
اشترط
ويشت
##ابين
##باي
إرسال
ذرا
البروت
البراء
الموسم
مملو
الحادي
ذمة
والنساء
بتس
والمرأة
والشع
فخذ
##صوم
ومتى
عرق
مناق
##انس
أعمالهم
السادسة
والعب
##جليزية
بزيادة
الغد
##ائنا
العظيمة
أفلا
##بوك
والنهار
ورقة
وقر
##يروس
##ياسات
كراهة
الحفظ
لأي
البرلمان
المعين
فمنهم
ونت
الماض
كثير،
ولع
تركها
جرح
الرياح
##ماري
##فتها
الإحسان
الولادة
سرعة
الخدمات
##حرر
ولكنهم
ائت
إعطاء
وحصل
بئر
خلع
السلمي
قرط
##شرات
سلمة،
##يسير
العبر
يتناول
غري
الحسن،
##ارته
خلالها
أذكر
أيمان
قوا
بالبيت
مخلو
التسمية
فوالله
سور
يكذب
ثورة
##فقت
والأش
يفسد
الهلال
الهاء
##ائى
تشي
##صلي
الراجح
العربية،
ويرى
المسرح
السبعة
الإست
##ماك
سمى
وبركاته
عفيفي
##ماة
النمو
يتعين
أخذها
حرارة
##راش
الفوا
النظم
##ربين
الانتقال
تعين
الأمر،
بيني
الاز
الزيت
تؤمن
سويد
الأطباء
أطراف
بفضل
ووجد
خطبة
الموض
أباه
مقصود
##مان،
ذكروا
آخرها
الفاضل
##قاتل
##تسل
بلسان
النسخة
جعلها
مكروه
معج
يقوله
تقدر
مسمى
##وصول
إسبانيا
أنثى
العاق
يفتح
وزي
##فاوت
##لتم
مدن
فئة
##واريخ
يصوم
##واتر
ودفع
##جلترا
تميز
ويجعل
##جس
امرئ
بالدين
اليمنى
ومعناه
البه
وعق
طبقة
دنيا
جزم
لأنهما
النعمة
صبي
مخصوص
السيرة
بالحديث
وتارة
البيئة
انتقال
الشيخين
ستين
##ريته
انس
المبر
السائب
شاب
داع
الرافعي
مجموعات
تؤثر
##اري،
فأراد
لكرة
رأوا
الحقائق
جهود
دقيق
مشك
اسحاق
كفا
ميز
يعم
##دة،
##سلط
القطاع
##تيق
##ويين
رأينا
استحق
الجع
الطير
صالح،
فاسد
الأوقات
وتلك
وفت
صحت
##اخذ
الموال
وممن
والمال
الكلبي
ورجع
القاف
وخير
والمج
##حام
فينا
مدار
صفحة
سقطت
فانه
أنظر
باك
يعذب
عزيز
##اهم
الإنسان،
دقيقة
اللغات
سح
وقته
الماوردي
إست
##حيات
أعلنت
الألماني
المحد
الديمقراطية
##يسان
أفعل
##ران
قصيرة
##زة،
##قتضى
##اهل
يوح
زيد،
أظ
##لازمة
الصحف
فضرب
هرم
العوام
آمنا
التدريس
فيع
ابني
المستقيم
فنظر
اليسرى
الفتاوى
الواقف
مضي
كول
نعت
ويرجع
المبت
العناصر
التفصيل
الحضارة
صبر
##قلة
أزواج
الأردن
راشد
إماما
وأصل
خطي
والتس
قدمنا
صفوف
المرة
##صرت
جيم
##راهية
يعلمه
عرش
فرط
##زول
##ها؛
التنبيه
يؤذن
بتأ
اليم
وأصبحت
شرطا
هدا
##فعا
الضعف
بكلام
بالض
مسافة
##صروا
##فد
الاهتمام
المدنية
##طير
والدليل
سمرة
وكأنه
فاعت
موسى،
تونس
##بوعة
انا
##باطل
##دعية
##راتيجية
أصيب
بينكم
بالات
##بوا
##طعن
يصرف
##تهاء
##كيم
الحيا
يحاول
كأنها
فالإ
##قضي
جوف
مرور
الأحو
معهد
انتهاء
##تابعين
حكاه
تفصيل
المتقدمة
الفروع
نجي
العقول
الشام،
##رهن
أعطاه
دمشق،
وأنزل
يحا
الإذن
الإسلامية،
الهندية
نموذج
##باعة
أحل
الإسرائيلية
النزاع
##ريخ
##قيقا
##صرين
##رفا
رحيم
اهتمام
وزيادة
العنب
الفراء
الدراهم
خشية
شريك،
زر
الديني
لعلكم
وأل
نبه
السابعة
صيغة
أدب
غيرهما
عاج
كرا
الثانية،
##ختصاص
الهج
لآخر
لأصحاب
ستر
تركيا
##اليم
الأماكن
والمص
منعه
مرح
##كنت
الشفعة
آنذاك
المقب
البيوع
صحبة
الطبقات
##ساك
تكوين
المكتب
الرزق
ينفذ
نجاح
يأذن
العقوبة
الاح
قاص
الدالة
السلسلة
المثليين
ويغ
الموتى
بسند
ركع
الركن
الإيمان،
ينتهي
توضأ
##جموع
المطلقة
##وجين
الرسمية
وكت
والحر
لض
الأصحاب
التعا
تقدي
بمثابة
أعاد
##وات،
##خيرة
أمرت
مناسبة
الضعيف
الثاني،
راه
تعارض
لعله
قوانين
##ريه
مفس
##حيل
الحوا
أوضح
حكمة
حكاية
بالمال
بالعلم
صليت
الاشتراك
شهود
##الها
##زي،
والبد
السري
وبعدها
ومل
##وارد
مراحل
أولاده
##جبت
المخالف
##نائم
احتيا
طاقة
والأع
##بادرة
يعبر
##اليف
حرة
أحرم
فروع
##ؤوا
طيبة
##الوا
تسأل
البلاد،
الصلة
مستقلة
القرون
العوامل
مواجهة
##قاذ
تلقى
لانت
يجبر
بخير
البشري
تذهب
فمع
##وب،
##حا،
تحرم
يستطع
مكاف
النداء
الكتاب،
تتخذ
##اكم
اللاعب
طعاما
المبار
الأصغر
##فروا
وولد
الأحياء
استئ
فقهاء
العيب
الغضب
##انهم
فنا
نذكر
استأجر
ويا
ينتقل
##ائري
جريدة
العقي
الشأن
بكرة
أرادوا
ووج
البغوي
مجر
الوزن
فسلم
للمن
العدالة
##وند
الكبار
نط
الهاش
##ادلة
تبدأ
يقولوا
إحياء
وجهة
بلغني
العالي
بالمد
طويلا
بعمل
كاملا
المكاتب
الماء،
تمييز
##هادت
والمقصود
تشكيل
بغيره
##ؤاد
فحسب
بالحج
##ضرر
رجلين
هاجر
رجوع
بالتع
##علن
فالح
##يقظ
العاشر
ضغط
ووص
##مارك
##ودها
البعيد
أفكار
##زياء
النتائج
إعلان
هدف
##وائية
##شبه
سانت
##لائق
خض
##ونغ
يبعد
للعالم
الوداع
##شطة
فالذي
استن
ويدخل
##راته
هذا؟
القولين
مزيد
التصوير
فطر
الصهيونية
درهما
المديني
الفائدة
فأعط
بالرغم
فالقول
##امد
##قاش
أكره
مرسلا
المعصية
بهم،
السورية
الأنا
##وابط
##بيها
محددة
راف
أجله
الزوائد
تحتها
كمية
الزهد
الأنس
الرضاع
بالقول
##حط
البلاء
##وسة
لويس
الإخلاص
##احف
تحسين
البقر
مقاتل
الفقير
الأمانة
بعلم
##ستها
القيادة
سرية
الضلال
نام
بثمن
المحافظة
إصدار
يعطى
##فر،
للمشتري
##كشف
أعراض
ساعات
الكرام
الميتة
##ؤلؤ
عيني
ينقض
اللخ
##شاركة
##فيان
ناز
##روري
انع
##شيم
استق
الزراعة
تعذر
معن
ومث
##جبه
##شرح
لتحقيق
بهدف
الميراث
القلعة
بمدينة
محكمة
فهد
يخشى
الأسط
التعليل
مجلد
##ضعاف
سبأ
وأرسل
سفينة
وأموال
##افل
فرصة
زيدا
حرك
وينت
##كلي
القبي
الصدق
ناش
والنا
بالإسلام
البرية
##ءوس
خاط
عليهن
سيرة
سع
الضرورة
تابعة
البدل
وتعالى،
##ستاني
جعلنا
##؟؟
الروسية
ألقى
جوانب
المكلف
يلعب
الإخبار
أكون
وبدأ
##رفت
منزله
الأنفال
حلقة
بكذا
وخمسمائة
##هيل
ولعله
للحصول
##قش
##شيا
سعد،
لسانه
فحدث
للنساء
رغبة
##يرها
خاتم
##قدة
فيقولون
وخط
صغيرا
والأول
الشا
العودة
ليسوا
أكثرهم
صديق
##ينيا
المحبة
تدعو
يضل
المستحق
التصنيف
تجارة
##مائه
الإقليم
الأصنام
العناية
وقب
وحيث
##ميص
موضعه
##وان،
ولكل
عارض
يصدر
##اته،
الغزو
حيض
حفر
ماري
الوادي
بالعمل
الكشف
##خين
##ادته
التكبير
ومي
##عمد
المرج
##طيف
##ختم
بشار
للأم
المستخدم
فحينئذ
##فاءة
الفوائد
متروك
أسرع
اتجاه
##كرين
خطة
##يات،
أرجو
الصراط
العت
قدرته
لقوم
كرب
تور
همام
الحسنة
تقا
بقوة
المشايخ
الانصاري
إيطاليا
فأي
بعده،
وخص
الأولياء
جمعة
مشايخ
الجنازة
الأسواق
تضع
يسعى
##نزير
التوضيح
إياها
وأرض
استثناء
السبكي
##فيت
##كاء
تصور
صحب
فاق
الصناعية
بالله،
المها
أسقط
الرقم
##ذكار
البع
وأجاز
الأسد
برم
آنفا
الاستخ
بطلان
الرومانية
ودي
علمنا
بأرض
السعادة
##رفية
يتفق
الفنية
إقليم
الاختيار
مسئ
إثر
إدخال
رئيسا
##ذنب
الإثم
##كول
المتعة
والبيهقى
كو
الجند
بطلت
تسلم
##اهره
##لقا
أقسم
المقدم
والإمام
يؤكد
اخ
##امر
##دعي
عاز
##طلان
تفرق
فقدم
رعاية
الحروب
##ئيا
الخضر
##هنية
##قاف
وثي
فنحن
المخرج
ويخرج
باطن
##اءة
شرعية
ياء
الإجابة
نوعا
الصالحات
المول
سبيلا
سكر
مسرح
داود،
فف
ابنته
دوا
يسر
##مات،
ويأخذ
قبلك
##لاته
##قيقه
##لوهم
##اجي
يرسل
تتكون
حوا
هول
الأهلية
الأسلحة
بلغه
خدم
الديار
مآ
أخوه
العلماء،
دعوا
صدور
لمح
الشتاء
المنس
مباشر
القومية
##ظهور
المفسرين
ربط
القدير
عرب
ذنوب
المجد
بالأن
عنده،
روما
شغ
فوقع
##لى،
الحوادث
##رفعه
المفتي
وأمره
##لاحظة
السعي
جبر
سيئة
##بادل
أمثلة
البيض
الجنود
مضاف
الاحتلال
يطلع
والتش
حملت
##رائه
عربية
##نصر
صلوا
وكر
انقطع
فلق
عنكم
إثم
##ويق
تعدد
لبني
العيش
تدري
شغل
##ارا
الشهير
القائد
بأكثر
تراب
مزا
والقص
المصطفى
أعطيت
بلده
يكنى
كافرا
##انوني
تلت
العكس
##لوبة
##ضحى
##صدقة
النادي
الألباني
فسي
يشرع
الدستور
وتحت
تعطي
##كاب
مقتل
الصداق
مبارك
يهم
الغزالي
تحكم
##لز
السلامة
علامات
شو
##نيس
##قيات
استدل
الطائفة
يظ
العود
العمل،
شيخه
اللح
استعمل
عفا
الده
الاصط
الثانوية
أناس
ويط
فاص
##ينغ
الجل
المصلي
عوانة
العوا
السح
الشبهة
##قتين
##قتهم
البطن
محرما
##ملت
ورأيت
##وبة،
فسار
واجبا
##اثة
شتى
والبغ
وحدها
العبيد
##ائي،
الفنان
ونظر
الرحمن،
##ارعة
عزم
كيلوم
العظمى
##هر،
##ليط
والفضة
كثيرا،
أخاف
المتط
الحالية
لتأ
##نو
تعظيم
التقوى
المتأخرين
معروفا
توفير
بكير
الامر
رباح
المشار
فريضة
يتقدم
قاموا
الذبح
مالكا
##صيحة
##وصل
##رأس
لتلك
الأنهار
ثي
##ظف
للحديث
وظيفة
قعود
أفت
بذل
هريرة،
مسيرة
ثوبا
للمش
المالكي
الآداب
##بادر
وضعه
##غيره
وخلف
الملكي
ترب
المضاف
والسي
العوض
وجعله
المعارضة
يختار
سنت
الرش
الأعراض
الصفا
والكلام
واختلفوا
ساهم
##غيث
المتع
يومين
يجزئ
بالشام
ظالم
الجلال
تجز
باختلاف
توبة
للآخر
بوس
رغ
##عتاق
جلب
ههنا
الثقفي
دارا
##ذكير
علمية
غل
لاي
##تيات
الفارسي
شهادته
الفلاح
تصد
##ائه،
شاذ
المباح
مواد
البحوث
الكثيرة
والقرآن
العظام
فرأى
وشي
بالإجماع
ولكم
العمد
اللازمة
الصحابي
الشرف
اذهب
##دام
مبر
بحجة
رسميا
مفع
##ائشة
والبخاري
##منى
بصي
##رافية
يغسل
طرد
وحرم
##عمة
قتلوا
ذلك؟
التزام
وكثرة
##ضمام
تتأ
إض
تحليل
المشتركة
فتحت
تزوجها
الزوجين
التض
كالح
##بوس
أبيض
##قولة
محفوظ
شهيد
لمحمد
الاستقلال
وكالة
الفهم
إعداد
الآية،
آلة
وبخ
##عاع
##فتين
موقوفا
يلتفت
سياسية
##شابه
الوعد
عسكرية
##اموس
هاتين
##يفية
مقب
الدولة،
توزيع
الجنوبي
إسلامية
يتكون
لاب
##نائي
دير
##حيوان
المعارف
الاعتماد
بلي
الدست
ضيق
##شاط
##باغ
لأنك
##ليظ
يجعله
##رعى
##طيعون
شن
الاحتمال
مجالات
القريب
الليل،
يشارك
##سبون
##كاة،
وإياكم
البعد
الصالحة
شريعة
##ميه
فرب
##زاء
أمل
المما
عنهم،
تحري
##وري،
للغاية
كرم
يساعد
##وسل
ابنا
أمسك
موافقة
النفسية
صلي
تفيد
ورأى
##ديك
خات
##واح
حرمت
دراسات
الشمالي
انقطاع
##فصلة
الأوا
يتجاوز
مرتبة
عاصمة
##شع
مراعاة
السراج
طلقت
##غام
قبلكم
لكتاب
وبينه
المواقع
النذر
البعير
رمضان،
وحدثني
ويقوم
وعنده
دورة
العرق
نض
الغناء
##قوت
ثقي
فور
براءة
لك،
ميلا
نبيا
شد
الكراهة
##باك
موجب
الدجال
النض
ستي
##الع
بابا
اختصاص
داء
##خور
الأسنان
الشفاعة
الرسم
النساء،
الواقدي
القلم
الجناية
بيانه
مرة،
##بالغ
سق
خلقت
##لائك
قابل
##قيض
العلل
التفكير
متق
الدعم
المساواة
##كر،
الأمثلة
تغلب
##رأة،
خرجوا
يرضى
تنظر
يعارض
جاءه
##خدمت
ظروف
##حنون
بذا
عمان
وفرق
الأعداء
المتح
صوته
##وطات
الصحابة،
المباشر
##واط
فماذا
فجمع
باد
لفترة
رقبة
الأذى
وقفت
وعين
البلق
للعب
للمسلم
حقق
أمريكي
أعرض
التأمين
تمس
##ماعا
وقلت
العقاب
بماء
حديد
وخلا
جنبا
##برز
وتغ
الحية
السلعة
اللخمي
فريد
##بهاني
بكثرة
وسبب
القم
للمؤمنين
##فلان
أضاف
الطحاوي
لهيعة
##جيع
##الهم
مستويات
##بوته
العراقية
دفعه
الفم
وإسماعيل
تدا
دخوله
##ضحك
محتاج
##وذك
القرض
قلبي
المزني
تعبير
استمرت
الواضح
فلس
رمى
للات
##خن
العقلية
رأت
الإيجاب
فاض
نمير
##كنولوجيا
##ائعة
يتغير
##جة،
يصلى
رسل
نصيبه
الجنين
##بسوط
وأصله
ومعرفة
##قافة
البرامج
ربح
أصدر
##وزع
نفسا
##غوا
أعداد
الاف
ختم
وسليمان
تسمح
البيت،
بضع
الحجاب
والرسول
##يه،
##نيته
##ريقي
##ستير
إضاف
القوا
الجبهة
تطلب
الرقيق
يتوضأ
السماع
يكبر
أتاه
مستقب
الحنب
الأقصى
كلب
##ضور
##بقية
العجز
المشهورة
##لك،
أصابه
المشكلة
##لات،
ظهره
فضة
الفرقان
صلح
انها
خسر
##برأ
##حي،
##سلسل
يظلم
##تون
بالمعنى
المرتبة
المسلحة
نيابة
المسيحيين
رابع
ومحا
قطاع
فوضع
المعي
أخبره
لكثرة
##تبعه
جوهر
والتقدير
ليث
إجازة
إنجلترا
ولدا
فأقبل
لعلي
خالق
وأعظم
المبلغ
##وثق
##سست
##ظرة
أنني
وآخرون
أتت
وهن
الأشجار
##ويس
يمد
واللام
ممارسة
المأمور
ميم
أمراء
دق
الناظر
النبوي
بالنظر
يعانون
فانطلق
##تل
ويسمى
أستاذ
جنة
كانون
المركزية
##كا،
القسط
شركات
كالص
الموسيقى
والاجتماع
محيط
الخلع
فالع
المدرس
باعه
##دراك
الصامت
بتحديد
العطار
فتع
فارق
فإنا
الكفاية
الصحراء
المخلوقات
##ه؛
##ظائف
صدره
الآدمي
يأخذه
بجانب
نريد
رحلة
تكت
كذا،
التغيير
ويكره
التحكم
لأج
بيم
المادية
ثان
الاخ
الجهات
تقطع
##أسيس
ووصف
التطور
صادق
##دبر
جديدا
منفر
مسل
ميتا
##صلين
بأيدي
الدكت
الضي
##ثق
السكن
الوصي
فعلي
مؤمنا
ذمته
العلي
وصي
سأله
الأوزاعي
الآباء
القراءات
وموسى
العلمانية
لتش
العارفين
##فرا
##ائت
الأربعين
اشتهر
المحي
التحليل
معتقد
أساسي
حامل
##وسا
تنزل
النفسي
تبا
##دفع
ينتج
فهما
المفر
المسئ
##طبق
موجودا
برهان
الفرات
الفكرة
##متهم
يطوف
يغني
الغيبة
بمثله
مجالس
للبائع
تصف
##بيقات
فكما
احتج
فالن
الأمرين
الأسئلة
المضم
##نعة
الآخرة،
وأنكر
أفتى
##أنيث
يولد
ينصرف
الأمة،
كمثل
الوقوع
الكاثوليكية
الواسطي
جعفر،
والبي
والفت
النموذج
##قبول
إبطال
قبلهم
يرحم
العاط
أنظمة
محمول
##ليدي
باي
لذلك،
والثلاث
الطرفين
آخذ
المجاورة
مبت
البين
الحكم،
جنات
صاع
ولى
اغفر
البري
الشورى
التنفيذ
بيضاء
والرا
الأصمعي
اجعل
##شن
المحقق
##قتله
بقتل
الزوال
النبي،
أصوات
##رعان
واه
أبدا،
الدعاة
القيامة،
والسلام،
الهول
فأصبح
سمعته
غزا
يعرفه
الجنائز
##وصى
كاد
وحده،
ترفع
##فخ
الأعيان
يتصرف
تبت
المناسبة
زار
الإنكار
فري
##ايا
البلوغ
قتلت
الموارد
مقط
##وافق
سهيل
المستع
عدتها
##ائك
##ذروا
التركية
الفلسفة
عوامل
فكانوا
مساعد
##حقه
الفقهية
الانح
يوصف
فأولئك
بإحسان
##شرا
نبت
قصص
##حرق
والبحر
للأن
##فارق
##لالات
المقاومة
##ديت
##غرق
مستقيم
مؤقت
أرضا
صر
قذف
والنبي
وأظهر
##رمذى
أشخاص
كلف
بتن
فنزلت
معيلات
##رجات
##آت
كله،
الدماء
الصحاح
وخلال
فدع
للض
فأس
التكليف
إخبار
يركب
##جرح
التميمي
ورحم
مفتوحة
تراجم
##بطال
الهمد
الكلام،
النفاق
يرا
مدارس
الاعتراف
والإع
الشاة
أحا
يطالب
للزوج
وسع
مدح
البنت
##لج
##راب،
اما
##رفين
غائ
##ويلة
##ذرعي
ويحرم
توب
غاز
الكائنات
الشيخان
كناية
الفطرة
##لقت
قدير
والاحت
شيطان
السيارة
بعدي
والشي
وغيرها،
الأطراف
##جراء
ويروى
##لاء،
فجع
مضر
إيمانا
##ارى
شداد
##منات
الإعلان
##ناعي
الحربي
##خفضة
أصد
الكندي
للحق
أسط
إحصاء
أمرها
الحبشة
الدواء
والعا
يؤمر
المواضع
المانع
أطول
تردد
يكلف
ثمنه
رأيه
ومكان
ولكني
##هله
##فقات
أرباب
الإمامة
اضطر
غرض
##وائز
نقلا
المستخدمة
الفضة
المنظمات
الحلية
خروجه
##تيال
صيا
الجح
تصنع
الابتداء
##شط
وفعل
والتك
ووال
البرد
كلاما
بركة
##حلة
ساح
الوفاة
قياسا
وحسب
الكا
خبره
##يرو
الفصول
وعبيد
فلأن
يبد
معلومة
والجد
الشهيد
الرمي
##وقا
اتفاقا
##رامه
والمغرب
فيم
اليابان
طلاب
بالان
الشيوعي
##دار
فمثلا
الدقيقة
##قل،
إحسان
الجهد
محطة
سلطة
قرابة
لاعب
يتوب
الزركشي
الشم
الكعب
يتميز
معاملة
وتعتبر
يقد
القوي
عقله
##لاغ
الجما
بدار
وأبى
##ئهم
ذوات
##وجل
##نائية
مناسب
هجوم
الأيمان
ينوي
إيم
العلوي
يرغب
##وضات
مسم
##نمية
##صلت
اللم
يتولى
الحياة،
نيل
##اهيم
الشبكة
رشيد
##ابهة
العط
أنما
فالص
الانق
يحج
البخاري،
مخلد
السنين
وقبض
ونه
ميراث
زع
عائد
عهده
اعتبارا
المباراة
أفطر
أغنية
راح
سحر
العمي
الجيم
المهذب
بأع
والسيا
ونست
ونهاية
مقامه
##رف،
أكله
عظ
فيؤ
فقيه
##وراء
يسبب
##لن
النصب
الأدوية
وأعط
الحلو
الطائرة
وخصوص
يجيء
مسب
الوارد
الوجهين
##لكه
يباع
الفاح
اسماعيل
الحقيقية
الجامعات
أبن
تدور
عادت
مطلع
الصغرى
هدم
يبحث
جميعها
فعال
عات
متنوعة
الباحثين
النفط
تشرين
غيا
##ملكة
##امة،
##فيين
##وعظة
وحج
المخلوق
الخصوص
الباطن
اللقاء
للمؤ
ويبقى
الطاهر
##عدوا
##وائي
استث
يجر
##فيدة
الخارجي
يفطر
لأخ
الكرم
حاص
وعي
أمها
بوضع
الدوا
التعرض
نفذ
فالجواب
الجان
##رابلس
الكواكب
##هوة
ويعقوب
لحكم
ويدع
##وضوء
متوسط
برجل
إعلام
نارا
الشخصيات
تزوجت
ثمانين
اختبار
لتس
التنظيم
العبا
##رحل
##ندس
والرجل
دائم
الاتجاه
ملخص
##سيد
نصي
تعملون
وكره
تحويل
عيش
تحرك
والانت
الليبر
أشر
غم
##لبث
##شي،
انقضاء
##عمش
أبنا
##سا،
المنح
يرويه
بتص
بغداد،
فعلوا
وسمعت
دوري
حولها
##ومين
الكلم
##لهة
التصريح
خمسمائة
فيل
الحكام
بصر
خلايا
ولنا
ألس
مستح
الشرب
##قاليد
للقرآن
ليع
الفاسد
الجاني
نهار
##ضاعة
الجام
الحائط
اسما
العراق،
##ضاعف
##حيانا
الموافقة
تنس
مراكز
التركة
بعيدة
أرش
البئر
خت
##فرت
أحس
##صله
الخراج
##خلع
تخلف
وجن
فليست
بحد
##رابة
ينه
##خيل
##روز
##طوير
بغض
فأذن
التيمي
فتقول
كالإ
الله؛
تسب
##ارن
##كونة
رجعت
الأديان
##غن
ولئن
حاجته
حاضر
الفنون
كالن
الأزهر
الأبواب
فوض
مكث
الحيوية
جني
##موا
الأوس
جدة
النيساب
الزناد
قرآن
فاحت
##عاء
تصدر
والدعاء
الفهر
بإسناده
زادت
ومال
##ارات
واختار
##قان
والقا
الحبس
احتاج
وجده
فإما
شاع
المنازل
الفرنج
المخد
طلا
الزراعية
البريد
الصحيح،
أعماله
صراط
المؤسسة
علو
الثقافي
مشاركة
الرملي
خطوط
الشهاب
قريبة
يهت
خدمات
حصة
تقليد
المشك
مشاكل
##زيمة
اختاره
اتهم
الجلوس
العقبة
والتعليم
أسترال
إنسانا
الوالدين
##كنا
الدب
سبيله
سلا
وقصد
فقتله
بيل
أوتوا
المعلق
تجار
يدرس
الماضية
##والة
##ديين
وتؤ
الأفلام
حية
واتقوا
الكن
الفارس
فوز
مبادئ
لمسلم
مضت
النزول
##صات
فأين
فاف
الوديعة
أجرا
المظفر
اللعب
##جره
المقدسة
##فز
منتخب
ورم
يؤخر
الهذ
##فاح
##قيما
التنمية
يسبق
الفراغ
##وسطة
بالإيمان
يتطلب
القطب
دخلوا
ووز
عبدي
ويعد
وسأل
القومي
شت
الموفق
##جاعة
##لوث
جهاد
غرفة
الحاء
وأجاب
وعيسى
عابدين
##واته
الأجزاء
تراه
جسد
بحمد
ينس
فأخ
عسى
المحدثين
مسجدا
طريقا
أسهم
##ليو
وضعها
##انيون
أعيد
أكد
##ضد
تدفع
##داوة
##شين
الجوي
##وراه
التشبيه
للعلم
بإذنه
طلبه
الذاتي
##طعمة
فهرس
##ذهبت
الموت،
الحركات
أصلي
الديمقراطي
إمكانية
التث
حصر
الأجنبية
دما
الشاب
فترك
زائد
##بود
##يريا
ذكرته
الأشهر
الغذاء
الرسمي
والمسلم
##فارقة
ورغم
حاصل
مراده
يدور
##فقوا
بريدة
##شو
لابي
إقراره
وكون
المتوكل
قديمة
الاعتدال
وشرط
متنا
واتبع
مظاهر
أخذا
سعة
الكام
بعد،
##خفيف
##وفة،
صدا
ويصح
##جيء
##رسوله
أنكم
##ياذ
وبت
قرة
طبق
##سيما
بثلاثة
حنث
وور
والرج
فالوا
##بيعه
عر
مرضه
الحرب،
مقاومة
ردا
##مامه
البخارى
تحته
الفور
المهلب
لسنة
الطيور
وبقية
ورسوله،
مرارا
أليم
الترغيب
الاستش
خلقا
وجدنا
بأهل
قادرا
ساج
##يرك
إنى
تأكيد
الثمرة
بصف
يشرك
##لفات
لور
##ليله
##يرية
السعودي
دينية
##ليمي
##مرة،
الأسلوب
الهندي
وبيع
الحملة
والتابعين
استوى
مثقال
المسك
خاصا
التدريب
سمعنا
واجه
##افرين
اختلفت
التما
##رائط
##خه
##ضوا
##مويل
يذكره
##بطة
الساحل
النهائي
لذ
أذى
##رثوذك
الآتية
الند
والقمر
كفاية
الدورة
المفضل
وقسم
توفى
النتيجة
##ذكروا
##متاع
##حته
المجيد
يميل
وعملوا
##مى
##يس،
##باري
النمل
##كاثر
تتميز
##اليين
##هدي
تصلي
أعيان
عذابا
##وليد
الوعيد
والتاريخ
رأسها
يميز
والعم
لاحتمال
جمعت
وبنو
مولاه
الناقة
رخص
قادة
##طون
الأث
##وكم
##تيك
أمانة
تقدمت
بالباطل
لشيء
ريال
بالأم
مدا
انخفاض
##ظيفة
المعاملة
ظنه
##ذهيب
برسول
صباح
نذ
دبر
أنفسنا
الحادث
رفعت
##وحا
منقطع
الربع
العالمين،
##ومة،
أهلي
الإلهية
النبلاء
الأثير
لاحظ
الوحيدة
فراغ
الإل
مدخل
يحيى،
##قبه
الفكرية
وافت
لزوج
التقى
إيجاد
ولدها
التمثيل
الإنس
العثور
بهن
الراش
ينظرون
والحاصل
مؤك
##كملة
بيمينه
عنقه
رجالا
##انة،
بإي
جمل
##فصال
##جلب
محض
إليهما
ويعمل
آياته
العطف
##وصاف
التحالف
سليمان،
##ركين
##اصي
##جاح
البها
ورسول
تصريح
،و
##وطن
والكس
معلوما
الشمس،
وثلاثمائة
##جام
القض
بصيغة
الشافعي،
لواء
التقرير
##قصير
معاهدة
عرضت
##يرون
الثناء
المخزوم
ووصل
أسيد
وجهها
##قوى
استمرار
عام،
فعلها
الموضوعات
زا
المعاملات
فهؤلاء
كرد
بالطلاق
الجيل
البطولة
فوات
قبلت
نزاع
الخلاصة
الأبد
التز
الحسنى
وخال
وشبه
أيام،
سيارة
الكفالة
فقلنا
فيصل
التهاب
ازد
فشل
الوسي
معالجة
الزمر
مواطن
ظلموا
العصبية
##يط
التوجه
بخصوص
حقي
مسر
واكت
##وجي
ينب
##حوالي
##وليا
##يقية
##جنب
أصلها
معاوية،
للفق
اضطراب
وأخيرا
أبيات
أساليب
أشهب
يفضل
التركيبة
الطائف
أصابع
##ضمير
##وقة
##خاء
يسن
عقود
والتف
بعضكم
##لقه
أسأل
حادث
##ستون
بالعب
أوسع
تموت
الأذن
لفي
ومنذ
يعيشون
##دن
الذاتية
اللازم
##لاسفة
لأع
ازداد
المسافة
##زيارة
المطبوعة
والتر
وليلة
##ميات
ينطق
##بهان
يمينا
الإنفاق
تكرار
##نيت
##بل،
والجن
المجموعات
بيض
عثمان،
الكرة
##ذبه
والعياذ
##براطورية
العر
##كسر
لبث
ضل
المستدرك
بام
المنتخب
أظهرت
جيل
وأولاد
جدي
حقها
##نوع
وأمثال
ماك
طارق
فرفع
وبالم
فأبى
##مئن
البابا
الخطر
##ختياره
فهناك
جميعا،
متط
ملايين
اليونانية
##عد،
متص
لباس
##ميين
##راكي
العلا
مطالب
كلها،
معكم
طهارة
وأور
نظرة
يذبح
##نهم
مساعدة
مكس
كسرى
اليتيم
##ناكم
الأض
الشاط
انضم
محص
حلول
اقترح
وكلما
ليح
جزر
##ورته
كالع
أنى
أحياء
ودرس
لانها
زن
أقيمت
يحيي
##آة
##روضة
قصده
أمس
الشكر
##أمن
مملوك
بالآخر
السهو
النحاس
فرأيت
عمد
شعار
المشاكل
وجها
سبقت
المغربي
المرس
وبني
الأخت
خبرا
الضحى
بمائة
##بدا
حذر
الموحدة
##وقوع
ظلما
اقتصر
عثر
مستقبل
المطالبة
القانونية
غيب
البنات
واجت
ياسر
يشك
##بوط
يتصل
##سيت
اللغوي
أشرك
##قطار
يستلزم
كسائر
مرب
##واجد
##راري
ورئيس
يفصل
السابقين
جرم
والطبرانى
الأنظمة
عنق
##زان
ذلك؛
علية
واستقر
مكي
القاموس
النخعي
المنافع
تكره
جنود
##بيس
##مهيد
الإمبراطور
##غلب
##فران
يقصر
واللفظ
الأدنى
الزهري،
رسالته
الهيثمى
اللطيف
جاءهم
الأصوات
الحال،
رام
طاق
مبنى
ثلاثمائة
اشتراه
طاف
حكمها
السيارات
##ءة
الأخضر
بنيت
بتش
جيدا
بابه
المقدسي
أساسا
والمعت
بينهما،
##ؤنا
الجا
تجربة
الصوفي
##ستانت
الإرادة
##لتي
##قضت
اعتراض
تخريج
رءوس
الرومان
الصائم
يسا
البروتين
راض
سنتين
الكاملة
لوجه
السماء،
الأبحاث
واحتج
ثوبه
النباتات
الكنائس
الزائد
انتقلت
ومجاهد
السريع
##مرق
ويرد
يكشف
جين
لأس
##بسه
اتفاقية
تطلع
سيل
يقضى
مذهبه
ثمر
بحاجة
الإذا
بمد
أرسلت
##مأن
عبدة
##رتهم
وستمائة
الإسكندرية
تمسك
صدقت
مكلف
شهيدا
السدي
البزاز
وكيل
##غنى
أنصار
لوط
اللباس
##نطن
وبشر
##مانة
وأعمال
الأيمن
رغب
يقومون
أظن
وأقبل
##ورو
الأسبوع
بقصد
وظائف
خلط
##ونيا
النطاق
القذف
والحم
لهؤلاء
أعطا
التركيز
الحج،
ورجال
##ولوجي
غزة
فامت
المخالفة
والأب
بالأمر
علاقات
ومرة
الأولية
فإننا
قطعت
##وكس
##جنون
فلها
وعظم
أسلمت
شارع
والحكمة
المكتبة
قوى
الأهداف
فتأمل
الخصم
##عدون
اعترف
كيد
##رفق
للملك
ضعيفة
الرياضية
الحوض
عمال
أمهات
والمسلمين
نجس
إلها
عدن
مستقل
المطاف
والجز
##يهود
قسط
الصغار
وبعضها
التيار
الترب
##رأي
العائلة
منازل
أرسلنا
التحت
جيدة
كاذ
سياسي
المعهد
يفي
الأجسام
عبادي
ركعت
حجاب
زعيم
##اتبة
فعن
السرية
الهادي
الهاد
##واصل
تأسست
معاد
تدريب
ينام
ويف
كذبوا
النحوي
السرقة
حنين
##جى
##ظلة
الأجهزة
يزيد،
نزع
الثابتة
مئات
انف
##يمة،
بسنده
رئاسة
وبارك
العنك
السيدة
مناه
فلسط
بقد
##اهدوا
الأرثوذك
##خرف
##كتل
ربها
دامت
الكفيل
وتمت
الطول
تحصيل
جالس
إباحة
##فتاح
السدس
يورث
##نافس
أسألك
وثلاثة
##لكت
معطوف
##رسالة
العام،
أمراض
ارتفع
النبيين
واشنطن
فيا
الداخلي
وقتادة
معارض
البدعة
وأهله
##يرته
الخير،
رجلان
##حدر
رط
اذا
البيزن
فطلب
ساعد
السوفيتي
آداب
الصدقات
دينارا
كذبت
الشيباني
تربية
الدقيق
المتمر
##وبرت
لذكر
إسلامه
المرسلين
وغالبا
زائ
تساعد
دماء
ثمرة
خاض
##أنف
##ولاه
اشتد
عرضا
إجارة
##شيع
وكلاهما
هنري
يساوي
باعت
##نتهم
##وقه
بدرا
وبالله
الطيالسي
المشاهد
يفسر
سحنون
حراما
وأحب
ليعلم
للأب
الماز
وأخرى
الصلب
الإمارات
إلغاء
المحيطة
وبل
البرهان
حفصة
عينيه
إننا
الطائرات
غنى
الرجل،
فصلت
##ذكرة
الجمعة،
وتهذيب
جرا
لأنا
مشاهد
الحضرمي
طور
صالحة
قسمين
##يفور
المحافظ
##ناسبة
يصد
فأح
قصير
عبرة
إسرائيل،
عوا
قبور
المبين
خارجة
البرم
المشارك
البحر،
جو
خلت
ومق
المقابل
العاملين
حكي
##سيك
أجيب
نشأت
غروب
شهداء
انفرد
وجوههم
##كروا
حدثه
صم
##أكل
سجن
##شاه
ينادي
الزبير،
علاء
وتز
##ديقة
وشك
##صاة
يواجه
##جموعة
الريف
##بنت
العبودية
سواد
الصناعة
السرير
استقلال
المحال
إجماعا
الموصى
يقارب
جالسا
والأد
المدى
سرير
إنني
الحامل
الحلقة
الناش
وعل
##نائها
النصاب
يلقى
##رأته
تؤخذ
نفى
##حرى
ساحل
شفاء
هاد
##طيق
##صون
شبيه
للرجال
الالتزام
ممنوع
توجب
فسأله
عاقل
تعدي
إليهم،
##نتان
والدعوة
الاغت
باعتبارها
ووقف
##خرية
المتفق
##وهوب
الجنرال
حدة
عليك،
العقائد
قصاص
الزع
وأسلم
##طيه
العيون
الناتج
ينقطع
الآن،
الكيل
##رويج
مير
يجيب
لفظة
زمانه
##كيك
الشامل
صدرت
ريت
##ؤكم
يشار
اعتما
وأسر
دعوته
حملها
جعلوا
تشار
مضط
##ليث
دعواه
الظهار
يؤكل
##اهة
نصفه
رتبة
كص
احد
خيثمة
التفريق
أعجب
##ربها
مسكين
##مالك
يتعلم
العجل
الحاصل
##غية
مريض
ياب
الأنوار
الاستفهام
وقص
تهدف
حت
الذهاب
وعقد
وجز
##امه
##ستي
التجاري
جيمس
##طوا
##فعاله
وصلوا
الحوار
أخذوا
##جزات
المرأة،
تقرأ
وضعف
ردها
##خالف
الإسلامي،
يصب
طن
وأكل
بتقديم
بكت
تنتج
قمت
فأسلم
الأوراق
بقر
##ويف
والعصر
وطء
مغل
غفور
##وطء
شيخا
ملة
المباشرة
الفريضة
بعض،
لفلان
الحمار
مون
والعلماء
أبت
الثلاثاء
##كنون
يعتقدون
المتقدمين
بالإنجليزية
مهد
طاعته
متعدد
عيون
الميلادي
يسع
إقام
ينص
بمكان
إشكال
وأز
##جر،
يزول
ويلي
اقرأ
التام
ولايته
##وثيق
العامة،
نظرت
اللاتينية
لفر
##ستم
الإرهاب
##سها
اعتماد
التطوع
بالضرورة
العادل
الحشر
هرب
والنار
وثقه
فوقه
العنصر
مسن
هشيم
معالم
ينعقد
باعتباره
الحجم
عاط
تحوي
تصلح
يرم
وعطاء
يشفع
طائرة
النووية
مشتركة
تدعى
انش
الهلاك
بشدة
شامل
##مرون
بيعها
الموصلي
الأرحام
##وق،
##ليمه
يملكه
لحظة
وكس
أعقاب
##ياته
وحدات
الداعي
لتص
الصحافة
يحق
راع
لبيان
وقلة
بياض
ميزان
صلب
يري
استخدمت
بكلمة
تام
تخت
للوا
بعشرة
الإخوان
وخصوصا
ببر
الأجنبي
##اهري
لمنع
بتك
الغنى
عبدالم
تصاني
ففيها
هلاك
أحمر
مؤسس
الموق
الكافرون
معط
السحاب
ببد
##مله
سعى
##ثاله
ونعم
##راكب
إخوة
نورا
طبعة
##انين
تسجيل
الغذائية
كافية
وتسمى
مقدر
سائل
تتع
الإت
منصوب
أوتي
وطئ
الأعراب
الجزائري
وسبعمائة
طلع
الهندسة
أجريت
أخيرا
قولين
يخال
##جته
البدر
طفل
السلع
مكانا
يوضع
أسبوع
جزي
للتأ
وتولى
ده
##صار،
العزة
تحب
ميسرة
والعرب
ويقع
وتشمل
يسيرا
لحا
الحاس
رفي
##اين
##مها
العليم
بأص
شهرين
لحقوق
روبرت
منسوخ
توك
الدائم
الأزهري
لكنهم
تغي
الحرمة
اجتهاد
##سنوي
يقتصر
للعبد
خب
العنكبوت
##رجمة
وبعده
علل
مقبول
يزعمون
##ماء،
قتادة،
وعباد
ميتة
السجدة
طالب،
سط
الأقرب
العذر
الجيوش
الصنع
الصعب
##انا،
العاب
وأهم
متح
موسي
ملم
ايضا
الاستخدام
عبيدالله
بالسيف
##نتي
والكا
الغريب
##وائر
آي
المعم
أسعد
المجلة
واصل
يستوي
متابعة
##كنه
اليق
يرك
الأرج
الفريقين
يحقق
اتخذوا
نعبد
سريع
كريب
الكريم،
غني
هير
خمر
ودليل
استخدامها
المفس
المهد
وأست
والتد
##وجهة
فيهن
إذنه
هداية
##جيات
##ستين
نصا
فاجتمع
الطلبة
يستدل
الرؤيا
العذ
ويعتقد
##متين
تترك
عصره
غصب
والنظر
لحوم
##طيعوا
وأخبرنا
أخا
والعق
آلهة
والرد
##فيز
والملك
باطلا
الرسائل
وعليها
الأرواح
##ولة،
وتعد
والمق
ملح
##نياء
بالثمن
##تهم،
##رضى
الرجعة
##ثيرات
خالد،
عملها
وحضر
نجاسة
عدوا
مركب
##سير
المعز
إتمام
حلت
##نتها
الملكة
بعير
قدرا
والتب
يرزق
أرضه
##لوت
بباب
البنية
ذرة
الأذرعي
الفضائل
فلقد
الشوك
بايع
##ميلة
يتن
ولفظه
الشح
قولها
شعبة،
بكونه
مطار
كبير،
وأحيانا
يقب
وسلامه
##بتين
قادرة
توهم
بالذي
الجبر
خديجة
وثيقة
للإن
الطهر
النجاح
سببه
مليار
وصلاة
فصي
وادعى
والدارقطني
لعموم
القناة
كنانة
أصحابه،
مولده
##فته
##نادا
المنق
أهمها
فحمل
##ماته
اللذين
##وته،
العقيلي
فجر
يقم
فحكم
بردة
الجمهوري
يفعلون
##عمله
السيئة
##دارات
لأكثر
##ادين
بعدد
##امية
بخلافه
اكتشف
بوصف
الصيغة
فكذا
أوت
بفت
الفرصة
تلمي
والشافع
دريد
ويوجد
الزكاة،
يدخلون
مراتب
نال
نسبيا
ديم
العماد
كلاب
أسن
فالا
الآمر
العجب
عدى
والنفس
باطلة
ونع
معينا
الطيران
بالمق
الحف
أصبغ
##هاد،
وألا
##يمته
يمنعه
الأربعاء
صغار
الأرق
##ادها
استحقاق
الجريمة
أخص
يأتيه
صنعت
بعقد
تفصي
يوما،
اثني
مزد
دو
فسوف
أرم
للدولة
الاستعمال
##هدا
بالبر
الشق
يحول
المروزي
جير
الشهداء
رجليه
أولم
إياك
ونقله
أياما
تنفع
سيئات
جمعا
بقايا
##غور
والحال
دينكم
مؤمنين
الحرمين
طعن
تفض
السلطان،
مذاهب
##لاها
طلقة
بالموت
القلب،
##ماج
الردة
فلهذا
بطلب
عاقبة
المؤيد
الوصا
المتقين
الجوع
الزوجية
أطاع
معارضة
تصير
إمامه
الحبيب
##وهب
المعاصرة
النواب
عدمه
ووض
بيتي
موز
خمسا
تري
وقا
##ملأ
الشعور
استحباب
الإمكان
##وون
حدا
ورواية
الرجال،
والسر
محسن
آراء
##سنة
والحج
الحمراء
العروض
##بيدي
للسي
##اعون
ببيع
مبار
كاليفور
بجواز
المقط
الملي
اللاتي
أرط
يحدد
وأين
يزد
كالش
رابعا
وحب
وبالإ
تأثر
يكلم
##كاك
بالخيار
ظفر
##عياد
وخالف
صورته
مشى
رحمته
الشفيع
##اهرات
الشاذ
ضربت
بولي
لعلم
واتخذ
##قوال
تعديل
مقات
##غاني
##ضار
الوعي
رسائل
وصفت
لبيك
الألعاب
وقوة
الأنثى
##واحي
تركيب
والنهاية
ستكون
أثره
ومحل
وأك
انتخابات
الابتد
عماد
البيهقى
##عال
مفرد
المبحث
دواء
الاستئ
الإنجليزي
يتح
ضعيف،
الأشرف
يمسك
الرعد
##وكي
الرجلين
كج
يتعدى
حضرت
المحتمل
دلائل
عنصر
##وجة
للتح
مستحق
وأتى
مطلوب
يحر
والحد
العجلي
وسوف
العاقل
واجعل
حث
##ؤم
عودة
##ئاب
بصحة
وتفسير
تنتهي
قدموا
##صارا
تكتب
يحبه
رمز
كاليفورنيا
##دلس
ذراع
مسدد
جمعه
أهلا
التواصل
الأخر
##منت
وطب
التاسعة
سعي
القرآنية
التركيب
وأحكام
##سمه
لصاحبه
إياس
##ذربي
متصل
جنازة
فيش
حمدان
فالواجب
##يتي
يطعم
نماذج
فاعلم
وسفيان
##اهرا
##يتم
ثابت،
الكهربائية
واستدل
المنام
فجلس
مكتوب
التاج
يحيط
وجوبا
جلاله
فكره
##ها؟
وفاء
ينال
الخبز
أربعون
تقييد
##وسائل
##لائي
ومغني
يصرح
الإتيان
حمص
المحرمات
ألوان
طبيب
حياتهم
دونها
للمح
جري
أصناف
وظاهره
المساعدة
السوداء
وثلث
باليد
##شره
جاوز
البنوك
ناظر
شعبية
##همه
ذلكم
ملحو
نون
النمسا
##شيدي
الدواب
##وانا
ونقص
ظرف
المرتبطة
ليش
يؤيد
العقار
اجتماعية
وعادة
##وبري
والأح
تتطلب
بضعة
أراه
##ميزان
أفاد
المناخ
البت
رأيتم
النفس،
يمسح
الغنيمة
ملكت
مئ
نيته
فلت
التجارب
##يناه
الرافضة
ألي
المكتوبة
##ظفين
واختلاف
الحديبية
فأقول
آثاره
تها
##رتفع
صبا
##معون
بمش
بيوم
##لائكته
المرجع
المبالغة
وحلف
الإرث
فقول
##شتراك
##لاقي
وأربعمائة
التعلم
بمقدار
##لافا
وقامت
والملائكة
ثقافة
شاهدا
##فضيل
درهم،
يعبدون
مدع
وفع
معان
فأكل
فسد
توق
##اهية
متعلقة
أستراليا
صخر
وصنف
##ولده
قبوله
اجتمعت
بصره
البراز
محب
بشئ
مذكور
##سنا
المخطوطة
ليم
المجلد
وتقديم
شواهد
حمار
صدقه
وبو
الزرق
فليتأمل
سنا
##ادرة
فوجه
مدر
صفاته
الكوي
تلقي
حظر
الطور
محرمة
ذرية
وأعلم
الدني
لي،
فقدان
##ثوم
##عتك
فتت
صناع
التحق
ينصر
##وثان
الهاشمي
الحنبلي
تضر
مشقة
ناقة
##لتا
##ريين
إصابة
توص
جاءوا
ضربه
تلبس
الحائض
فصارت
الحما
والحسين
لقمان
##يرلندا
يعاني
توما
هناك،
الملح
وسقط
##تمرات
إيمانهم
فيصير
##اسر
تخل
##ذبين
بعدها،
ورف
قسمة
محي
وشيخ
أمريك
المجاهدين
وآل
بظ
الظنون
ميثاق
فسقط
نوم
##كشاف
ماج
والأص
دعوت
البرق
ديني
قرينة
قومي
التركي
وكثر
##رائهم
##قاية
للمرة
##مل،
ضربة
سنوات،
أمرين
الموحد
الرغبة
تزويج
الباه
الكبد
تعزيز
الثدي
وانه
بدنه
أجنبي
واح
محظ
الخطاب،
اكتسب
طرابلس
معين،
تكلف
متم
بعثه
تكر
الصعيد
وتسع
عقيد
بالكامل
تحفة
##ساسية
وقوعه
الدرس
احتجاج
##ساق
##ولياء
لقيت
نفا
الهمداني
يوق
وقوم
لغات
العمارة
أنس،
العسل
تقضي
الحجارة
واختاره
المسم
##ناء،
يتصدق
##بارته
الانسان
أطلقت
حط
حبا
##كوم
العضو
الجنب
العشرين،
للنا
الجنابة
تسليما
##تين،
الداعية
استدلال
المجتهد
مواقف
أصلح
التصديق
##ديون
##وابا
لليهود
المغصوب
والرك
الجدار
المعل
##فتي
العداوة
النفل
المنز
عرضه
القبيلة
البدي
تستعمل
##ضرات
تتراوح
##ائله
وشمال
خلاصة
المقرئ
لعدة
نقاط
##شب
الحداد
##قدين
إير
بسن
الذخيرة
شيوعا
متأخر
بقيمة
بوجوب
##ابته
للذي
التنفس
صندوق
الجذ
اطلع
وأجيب
##رضت
الديلم
بلدان
الفص
المنتجات
قالها
تمتلك
النصرانية
بارت
الإباحة
معم
بأعمال
##ذنوب
جدار
وتشديد
مريضا
ووفقا
##ائنة
ثمة
أطعم
تقتل
الجهر
ودم
بولاية
تكرر
##واضع
فقبل
##واتها
منافع
##وائم
تهد
##لام،
رجله
##لاحقة
مطلقة
مرتب
حقائق
كندا
تكونوا
الأسدي
شأنها
والحنابلة
تركته
آباء
تساوي
موارد
خاصة،
##فرغ
عشرون
متب
للان
إز
الحكومات
بخبر
ركعات
##زوا
الخس
فحم
بعبد
العجم
الفني
الأطل
##صالح
العاج
مسلمين
واجتمع
والعمرة
الخصائص
##ائية،
المعارض
سنويا
المواطنين
تعليل
يتجه
لشخص
بيعة
المضاربة
##صق
ونسب
يستطيعون
العباسي
##بداع
الإضافة
افتتاح
آر
خبير
المني
##فنون
دراسته
تذ
المتعا
ترجم
الكيميائية
يجيز
والإنسان
مقالة
مكانة
مرجع
فسب
الوسيلة
حبة
الحين
الطويلة
وبأ
يزوج
ثبتت
غزو
الأكاديمية
##رفون
رابطة
بحي
بموت
المجالات
ثماني
وجملة
للكتاب
الأغاني
تمثيل
##رادته
نهج
مضمون
##ركة،
فالق
مسلمون
تمتد
المبسوط
حائ
##ثات
التلاوة
شيبان
الطريق،
اللعبة
باستثناء
وسير
لكونها
##رفوا
##مدة
##لتان
مبنية
المنصوص
يشق
الخف
يمتلك
والمل
بالبيع
الخلال
أعرابي
المنافقون
خادم
قمة
يخاطب
البكر
خف
سعر
فأتاه
يهلك
للرسول
ولست
الاث
الاتصالات
التتار
الجزي
وعبر
##اجتهاد
والتم
محدد
أمان
يرتفع
طبقا
استخ
جريمة
سمعوا
المرور
مثلما
حركات
التربة
يتف
يذكرون
فأصاب
##اخ
شريكه
فلين
الكلاسي
دعي
##هره
ونها
##فوع
الدلائل
وتنا
الورق
والهند
العو
##مرين
##جده
الحط
##يت،
المنورة
مأمور
##فيس
ويريد
##ضه
عددهم
تعرضت
##زموا
المقري
مطرف
رائحة
نيو
يعقد
الأدبية
وقضى
يتط
المزي
الفتى
التجربة
واضحا
حادثة
كتبهم
الصريح
الأمطار
توفيت
بحم
الخزا
ويشترط
النفع
الخلية
حسن،
مثنى
##افه
##سيمات
المنقول
لدفع
تقام
المطبوع
وإقامة
والواجب
##ديها
وكفر
منطق
للحكم
السرخ
والأخلاق
قومك
فيخرج
المري
يأتون
المماليك
استي
يعتد
جندب
يناسب
الديون
وبنى
البسيط
دمه
نزيل
يذ
استعماله
بالمت
الوزارة
المقتول
ساحة
معتم
وتو
يكونون
فخرجت
الروايتين
المحق
بعب
وجودها
طلبت
لتحديد
يفس
أسرار
اللواء
طائر
الدراس
الظرف
بكار
شح
الخبيث
##كاس
والنسائى
المغناط
رقيق
النقاد
سلعة
الأنث
أري
المحار
نوفل
شريف
وابو
الأشعث
امتداد
تهي
لأسباب
##من،
##ربون
قراءته
فاخت
وتعلم
وبسبب
روحه
الأزرق
التأكيد
طاب
ملاحظة
يتي
الآلهة
ساكن
جسده
ميدان
ينقسم
سمح
شهرة
وطل
ويلزم
##غانستان
اليونان
بصد
##واي
المولود
نحر
الصنف
البكت
طبيعية
وذا
ساكنة
التسعين
وني
##يرين
مثلا،
الشبه
الصادر
عشرات
صائ
المباني
النعيم
مجه
حينها
المور
الصينية
الفلاسفة
محامد
جنسه
ذاتها
شرطه
أداة
وجزم
##رواية
##خيير
ليصبح
معدلات
ميناء
بست
بالقدر
كأنهم
بالكلية
يسمعون
مترا
يرده
تنازع
والعقل
تدمير
لأبيه
##ياف
خفت
سنين،
##ميري
نادى
القرنين
وجدوا
##فري
هو،
ظلت
باقية
الوحد
هزيمة
فظهر
بالذهب
الإض
الكربون
سنده
##ياح
أعز
تضرب
التأخير
يستمر
العزيز،
القصيدة
الهوية
شذرات
استعداد
##اصم
وتخرج
ينهى
للمر
##غرافية
##رك،
بالأس
##وافقة
فتى
##راعي
وتبعه
##رجاع
وبإ
كتبها
والأحاديث
المسلسل
الحدا
##ذبون
حسنات
شركاء
قوت
الموقوف
يجعلها
##راتها
وعلوم
وبق
تفس
يعدل
بالعين
##ؤمنون
وتوجه
أيهما
ويبدو
لمست
##راده
شاكر
اهل
السطح
بجمع
##وقية
##ائكم
##قرر
دنانير
الطف
والأولى
##وانية
ومصر
الإنساني
انتها
تارك
وبط
استقبال
التعليمية
والما
الزاهد
المشرو
نطق
وورد
المصير
السواد
والعالم
##وحى
متك
فربما
ميد
صححه
رسمية
يضاف
والسنة،
لموا
يصر
##واها
الروسي
بالاتفاق
##هم؛
مصيبة
قبله،
وأفضل
بوت
فاته
لوحة
أفلام
قنا
##امرة
القنا
النيسابوري
##وطي
المواقف
صحابي
قويا
لحاجة
تحريف
والعبد
نمط
رياض
مسعود،
والقاضي
يره
تدبير
##رافات
الصهيوني
تحر
فلان،
بالنبي
والاستغ
يعجز
##عنة
وفيهم
##اعا
مستع
فيدخل
قريش،
تذكرة
الإسبانية
وخبر
تشريع
أعمى
حدثنى
بظاهر
نسمع
ضابط
مخاط
النهضة
إيمانه
الرحلة
##اور
##رام،
زل
التقنية
نستطيع
نفوذ
الحلي
يؤتى
الصع
التخلص
سماك
##ظى
السيئات
معرفته
تصيب
المرح
##راوي
للقاضي
يعاقب
مثله،
بالتأ
سوداء
وصرح
الشيوعية
وجعلنا
القطر
خطوة
الامير
هانئ
والاجتماعية
والمجتمع
يفرض
أحم
لمالك
والشمس
##صيان
##ورا،
إناء
##اما
##ثرا
والإحسان
بحلب
##تكلم
الملائ
البدائع
بروت
مهملة
ترق
محاسن
وهشام
لعبة
وجاءت
السويد
فعاد
الفردية
تسي
خفض
منسوب
حوادث
والذكر
بالنار
##طيئة
الأخوة
بالنفس
رعي
غيرها،
##صين
المخلص
وسر
مشارك
##رائها
ونحوهما
عرضة
حنظلة
وبدأت
النطق
كالج
صراع
عرفا
تحد
وجعلت
بوض
##رى،
##وثي
لفظا
مطلقا،
تقنية
تعمد
المنهاج
يعطيه
نقلت
##دنا
وبقيت
مسروق
تقييم
العصبي
الشعر،
صائم
##قذ
فاضل
ومذهب
##دران
لاختلاف
لمش
ومضى
مسار
##شارد
دلال
ذب
كائن
##وعب
هجرة
وسعد
ثوبان
شام
فيأتي
وعظ
حوض
الدموية
كثرت
الحزن
الجهود
##جدد
اختلفا
يقتضيه
هب
بأمره
قصور
وأضاف
شؤون
##لوى
جحد
##باين
المصباح
ابو
##صارهم
المحرر
الشدة
المستقب
عرفوا
##تح
الحلم
مررت
دعاة
##جلى
المقالة
للاحت
ساف
مستشفى
الطوائف
التصميم
أشهر،
استشهد
مؤخرا
##سوا
بمق
والمغ
يديه،
##عبدوا
يبني
##غوط
##فرع
الول
بالملك
تسعى
فمتى
##فاضل
وشع
الخفي
التشريق
##ائيل
##لائه
وأو
مهران
الخطوط
اف
##درالية
جوابا
يهتم
أقدام
الحماية
قلابة
الكي
##عدات
بشهادة
الميقات
الحصر
وأقول
بطنه
نفوسهم
جاءكم
قلبك
ماض
ونصر
الوظائف
وإياك
سبل
يرب
والتج
لعلهم
هلا
##بتم
قابلة
لتب
للدين
محدودة
زيت
بنصف
المنه
أدي
والموا
##راق،
رجل،
وثم
أثار
باسمه
##ابون
الأعمى
فير
فيصح
كوم
##مده
باخت
تصديق
المبتد
قدرت
فولدت
رتب
أخته
##حمده
مختلفة،
غال
المره
علمي
أدوات
##وفاة
##شفت
لزيادة
##يسابور
شبيب
##زعة
كلثوم
وأقل
محق
الأمام
##منوا
الجماهير
المعتبر
##سال
وكنا
حقيقته
مصح
المنط
يملكون
يمارس
##حال
##اربه
##رار،
##جوج
الحوالة
أوص
بلدية
المالي
##خري
##ثاء
##معوا
وشرب
الحسين،
هيل
##انو
تقرب
الثمار
محذ
سيطرة
بالسنة
موري
الأكس
الإناء
يحي
يزداد
الخطابي
عيس
العدم
السارق
##حاطة
المنذري
العاملة
كتابي
##طلبات
أرسله
تزل
يروا
لصحة
##انيه
وصارت
الأغنية
المصريين
كيلو
يتوهم
همزة
##قصة
تكاد
##هن،
لدراسة
الشهاد
أمامه
الذاكرة
وأتم
حياتها
المبتدأ
امتناع
الخلق،
##اريا
يغتسل
والسجود
الحمض
تخصص
تفسد
الدن
الأعرج
المنافس
صريحا
لجواز
##راما
الطين
تقف
ارتباط
غياب
عائشة،
هامة
بوش
فسأ
التقييد
ندب
##ونسي
متعم
الأرضية
مردود
عجلان
التقسيم
التوجيه
وحال
عملوا
منكرا
أيما
بلغة
أصابت
رئيسية
كفى
المقات
استغلال
##ء،
المراب
والقيام
##عمون
موث
يكمل
##شعر
بإع
طلبة
كوكب
##فيها
##وكول
مخافة
فسكت
وحل
وصفاته
وأثبت
فقطع
إسماعيل،
##عدين
لجمع
أرواح
المركزي
زهرة
يتضح
بحرف
اشترك
كتلة
طيبا
التحتية
##رفة،
الاعتكاف
فارت
تقولوا
مبينا
صفية
الاعلام
رخصة
سماء
الكشاف
فالمراد
##طرت
الشئ
كالس
ويستحب
الخزرجي
الغصب
غسله
البرتغ
التغير
يوسف،
سبعون
غلاما
البوا
المحفوظ
ملائكة
والإس
تامة
طعم
##اهير
خلل
كبرى
قح
الحضور
الأزدي
شجاع
الوصل
يرق
والفضل
شاركت
##انم
يتابع
##جاهات
والصالح
المذكورين
##شوا
##عاقب
الغنائم
##تموه
الامتناع
المرش
فائ
ذهبا
وفقه
##ساطة
ولمن
الأصل،
النفا
##قلها
نوعان
تناقض
حيز
تيسر
##هانة
فيمكن
الشهوات
حالهم
الأتراك
الأنف
هنا،
##سقاء
علموا
المعنى،
##انغ
التخصيص
بهاء
الاعتراض
اللبنانية
بتحقيق
سميع
##قراره
اقتصاد
وخالد
##رارية
والماء
والأخرى
ضعيفا
الميل
ومسا
المنعم
الشبهات
واضط
أمره،
الحظ
##فرون
المعن
التفاعل
إيه
زاوية
مقاب
اليسار
قبة
الموجب
الكلاب
الأمريكية،
رحي
وليه
رؤساء
سخط
أزمة
معقل
بيانا
تواجه
كجزء
موافق
المذكور،
كين
ثابتا
محاولات
ونفس
والدارمي
يباح
السليم
نصاب
فبال
فقير
فتوى
النقود
سياس
تقلي
شئتم
كهرب
فالظاهر
أجره
##يادي
ما،
حصته
##قده
وفضل
مراجعة
مربع
ويعود
أسل
البلقيني
يعظم
زنى
##درج
أقوام
الآراء
وخلاصة
الخب
مشغ
ملتقى
القانوني
البلاغة
مره
الاستثمار
بطون
السرطان
##حلول
التصويت
للسيد
والرق
أنزلت
ذكرهم
غائب
والجهاد
دروس
أمرك
حلالا
والته
ألحق
مشهورة
العقوبات
عبدالع
يون
بالخط
ويسلم
غيرك
بدور
ودون
الفتوح
المغرب،
وليت
منده
##لقوا
دال
كراهية
والرب
مخالفا
مماثلة
عقاب
اليمن،
يوضح
الغرماء
المنكدر
وكثيرا
الزيارة
مالية
لإي
##داول
##زيين
بقطع
العبرة
أوق
الروس
وقتا
الحصين
دان
الشيرازي
واو
تخص
##بيوتر
للتن
الاحتيا
إجابة
صادقا
بقوم
تجديد
تاريخية
أوفى
الأشعة
اليهود،
الصبيان
عنهما،
فيأخذ
ببناء
##فلت
للبر
ويثبت
##واء،
ثالثة
نهارا
##هان
الجس
ينته
عصب
وراءه
محدود
##رضاع
الناب
الممثل
الركعتين
وماذا
عروض
السبي
المتوقع
ذهاب
نات
ونشأ
إفريقيا
كقولك
الطاغ
المعالي
منيع
القريبة
يجدون
معمر،
بحرية
واع
قلتم
##طفل
للعم
الإث
امرؤ
اجتمعوا
##ويه،
وإسناده
##سله
##ئوا
استولى
##باشر
بالعقد
الطائي
عندهما
وإخ
##طاعت
أمري
هذ
المعدة
قطب
عنى
الجوهر
##جاة
حائط
##نة،
##فارة
##يدية
##يف،
بيتها
ونظرا
الحادثة
فيلزم
الدخان
بالبصرة
الكلي
الأجانب
المكرمة
فقيرا
فأتي
ترتبط
##لوهية
الفاسدة
الساق
معلم
##شان
##ستان،
القديس
والمث
أذان
تاس
##زاع
تحالف
الحسنات
اختلط
المطالب
مفتاح
الإيطالي
رفاعة
أستا
يتمتع
الزور
الإنجيل
مهرجان
القاهرة،
ناص
##غات
القش
بمست
بحيرة
آتي
##صية،
الأمثال
ترجيح
السرا
طار
القود
كيس
المتاع
فأنكر
يبرأ
غيري
تدريج
لبيد
الجهمية
مرتبطة
##لاميذ
##ددة
الشقيق
الدائرة
مساء
اليمان
مطعم
تطهر
يرتبط
غياث
التقليدي
تلزمه
غسان
والسب
مقبرة
وبك
النائب
تخاف
##نادق
##آني
الحش
متحف
وبخاصة
ومط
وسكت
بالرج
الأموي
والعشاء
##ذكره
فلل
ونتيجة
متلازمة
برواية
فأمره
بيئة
بالذ
الضرائب
جح
المميز
قريشا
استجابة
صعوبة
البند
تحدد
البرب
اثنا
مشهد
خلد
##جلا
والأمير
البرج
المجنون
مخر
الأيدي
استخلف
فتم
التعرف
التحول
يوجه
##تاح
المحكم
بإمكان
رؤيا
##يلعي
الهروي
الإيطالية
الغلو
مجازا
##همال
النصيحة
وذو
الدخل
##فقود
مراقبة
أعلاه
محال
النهائية
حزام
يكف
نظره
موقوف
والقر
كذاب
وركب
اليومية
المخاط
الشركاء
الإدراك
لاعت
##طوي
المتنا
وتحقيق
جها
دعت
تلزم
واعلموا
مسلسل
العين،
فقات
##وائج
##نطينية
تعي
الأنشطة
مكافحة
##تهت
والتخ
الاعتداء
تجر
##فاك
ونب
والهي
##ونه،
محافظ
يربط
وتل
إسحق
فالك
الكبير،
سابقة
أكا
المجهول
عالي
وسمي
يقود
المتعددة
غار
بصير
القربى
صفته
محتمل
المفتوحة
##يته،
مشكل
اتصل
يبكي
##ليفه
##مائهم
##زح
##لازم
الكسب
يدك
الاختصاص
تأمر
بصري
الحمي
البوس
يساره
عسكري
فقر
الطيبة
المواز
كوريا
يقرر
العربي،
ويطلق
يحسب
إنجاز
الحارث،
الشهوة
ولب
ولح
عصبة
الصلت
التيم
##جابي
تقولون
##شكيل
رود
وكن
شرقي
يمتد
وأقر
وماله
يستقبل
تنفي
الأسفل
مميز
نأخذ
وإد
بجامع
استيفاء
تنقل
أساسية
أئ
أسي
تركيز
اصطلاح
أند
فأب
الرابطة
##ماها
الغم
خرجه
##خالفة
الجرائم
الصب
أتوا
الخيرية
جمرة
##اؤه
فقراء
المصابين
عزوجل
والمشهور
جناية
معجمة
البروتستانت
بملك
لتت
المعاصر
أكن
لمعنى
القارة
##مارية
لائ
للشي
محالة
عظام
##بيحة
وقولهم
سوار
##حايا
الأصولي
##جزة
المؤرخين
الدرر
##ضيات
##وزي
وأجمع
عدلا
ضلالة
هبيرة
وينظر
وضعفه
##واس
والخبر
##بعوث
##رغم
##نيان
الراشدين
مظهر
##فش
العاشرة
الإيرانية
يطول
توضع
القاب
##عدية
الخندق
بسهولة
خيل
شفع
طبيعي
فراس
##منه
اق
أقرأ
الأصابع
الحرام،
أضل
فجاءت
بأقل
الظهور
يلقي
وحماد
ويليام
معتبر
المبدأ
وتزوج
استقبل
بنفسه،
##ضره
التفت
للانت
لحد
الراية
##مأنينة
فظن
تفتح
المعتاد
تنتقل
ألك
لطلب
يرمي
بينهم،
الهن
##طي،
احتلال
الإرشاد
##طاي
##خلوق
لبناء
الحياء
أعض
جميلة
مجلسه
جبير،
##ماوي
الشمسية
المفصل
جماعات
نكون
منط
البراءة
برز
اجتها
آدم،
عجيب
النمط
السرخسي
مصحف
جسر
الانس
##فرج
عقائد
فاضلا
##سنى
المخدرات
##شر،
واستد
للأمة
تبوك
روت
أحو
يليه
الخشب
قوام
الاعمش
الضم
هجرية
##انك
المدائ
القائلين
##بيثة
مؤسسات
##كندرية
كخ
الحنث
اختص
والعلوم
عكا
قاس
الجرج
رف
كفي
العزم
أوصاف
يخلف
تخفيف
والقضاء
وتقع
##قلد
والقدر
ونصب
حق،
الفيديو
الحصار
وإعادة
بحضرة
تشبيه
##فاعلات
بلادهم
المولد
أجمل
##ئيات
أبحاث
##ومان
##قلين
وسكن
رأسه،
الأستر
البيعة
جوازه
الأضحية
##وجبه
##هده
مصدرا
الصيني
وصالح
خطط
مزي
الجوانب
أبيها
##ذبية
##شفيات
مشابهة
بخطه
تبدو
وعائشة
انتفاء
وكذا،
الإجازة
الفكري
والإي
لغرض
وللأ
طمع
يوصي
يطأ
حرص
إحداث
كفرا
يوفق
للو
يتحرك
##صحابة
ضخمة
والور
يهودية
أرا
الأبو
يتذكر
النجاة
##ولو
##حاس
الهجري
حضرة
##ردت
مقيد
ابا
ذئب
##ووس
ومأ
الآخرون
الباب،
لأحدهما
عظيم،
فترات
حلب،
##وني،
##ريبية
بأربعة
الطعن
كبيرة،
لمصلحة
##بتك
تقر
يرفض
تحفظ
والدها
##باحث
##ادهم
##واض
الانف
##رونات
زنا
الأذ
إلزام
بالكوفة
خاد
يسأله
افتتح
وهب،
انتشرت
الحرث
ابتدأ
والتط
توقع
صعب
##سيب
##ذرهم
الأمريكيين
أوراق
النقطة
بمت
وأخوه
والتقوى
بنك
وشارك
البيئية
التمتع
متسا
بواجب
الشؤون
أدركت
##ضارات
يفوت
الحباب
راية
##سلطة
##اتين
واث
وعدمه
فاتقوا
جندي
أكبر،
الشرائع
الأشراف
بقضاء
بلاده
حرام،
عندكم
مثلي
##رنا
محبو
أوامر
والفقه
المستمر
أحفظ
بالتس
قررت
فرص
غفلة
##الق
ويشهد
ناسا
وكذب
##جبال
أخف
الرو
واحدا،
الملابس
والباقي
الأطعمة
الملقب
##يسية
الروماني
وثاني
وأشد
لعنة
ويترك
رؤيته
الزينة
##ماله
الأصبهاني
الصفوف
التدخل
المبنى
المطلوبة
الأظهر
اخرج
##رائن
الديوان
راس
تحق
تسعين
فاطر
يأكلون
##غتسل
البحار
خواص
نظيره
الإعادة
زفر
##خى
والقياس
فظ
والسبب
حقيقي
والأف
يسافر
ورجاله
الإثبات
##لحة،
##جبة
والأرب
اليسير
المسن
النقاش
##ابرين
##ضياء
والصفات
##ضايا
المخاطب
الكاثوليك
فحص
##صرها
الناسخ
الاستقرار
تجارية
##كرمة،
##وارزم
يضره
السكري
الأمور،
وأولئك
القناع
يده،
لؤ
فقيها
وسوء
ورود
##يدها
موطن
جماعة،
مائتي
دستور
قدرها
أمروا
المصاحف
شعائر
علاق
غرم
الضفة
##جمعة
##هورا
##أني
المقص
سرعان
##لاثة
ترون
فاتبع
المحاكم
وتاب
البصرة،
##عدة،
##يناهم
المزد
ذري
##رىء
سبعا
الانتهاء
اهتما
كان،
للذكر
كذبا
##شيته
تضمنت
مارك
الغا
إمارة
فبعد
ووافقه
الغابة
سفره
##زته
ونهى
اللوا
ياقوت
وبينهم
الكسائي
عبدالعزيز
كوك
يلاحظ
##امنا
##يارا
واقد
سنه
المحسنين
اعتمادا
وتقدير
المجالس
طراز
##لامه
وجهك
وأخت
لترك
##بوق
للأطفال
صنعاء
ويصلي
مقالات
لحماية
##ساع
##خدمات
نجوم
الحبل
حاف
التصوف
الفيزي
##لتك
ينفي
المشاريع
وجابر
جميعهم
المعتقد
فؤاد
##سكي
وقات
ارجع
الخنزير
يتوجه
يدخله
كيلومتر
الرومي
وامرأة
عتاب
##تن
والبق
قوس
الكو
شعراء
أضعاف
والضمير
##برع
##جئ
أودع
السط
ومغ
ثلاثون
لصلاة
ونساء
أحيا
برفع
راحل
سلب
السلا
الأمصار
فدخلت
أذهب
الموهوب
##شروا
وانصرف
صوتا
##لاعب
وكشف
رئيسي
الفاحشة
##وعظ
##جران
وليا
شخصيات
طوله
وأولى
##قلاني
الكثافة
وعاش
وجلس
الأركان
أصدرت
أنب
التوكيل
ممثل
التاريخي
قبلة
رزقه
وترتفع
الفتاة
والسم
بصح
القاري
ثمنا
يومه
##زداد
الساحة
والشام
فنون
التردد
الشين
بوي
صومه
##اريو
رحمهما
المخاب
بالحكم
تميل
فكم
##لوية
الاقتداء
حاملا
وزين
قرون
الهات
القلق
وأصلح
##نثى
فاعله
بريد
مشروعية
حار
السرعة
لدينا
وري
وظل
##زها
بعدة
وبأن
كالك
الواجبات
باكستان
الليثي
البصري،
والقدرة
غص
الاستيلاء
تجنب
الليالي
الجاهل
ترو
تراجع
الميد
استحسان
فوقها
طائرات
ميمونة
##واجا
العمري
الرسوم
المفض
والآن
الحالف
ويبلغ
توصل
##واهم
الاحتفال
حزن
طاوس
الأمل
الذمي
يتس
أمك
وقلنا
##خام
يستغفر
المجاهد
زاده
والبن
الرقبة
التحفة
##غرافي
المسب
##بابات
تتغير
يخرجه
نجح
الإلكترونية
الطفيل
أموالكم
الرجم
الزهر
ترم
##كلف
وجوبه
التلخيص
لأنفسهم
##رادات
وأخذت
الإدارية
يفسخ
العساكر
قولنا
الألمان
كريست
وبنات
##صده
يقاتلون
دقائق
آكل
حلي
الصوف
فالش
حبيبة
تعري
شبر
غادر
الأسلم
الدرهم
##وها،
الطبع
يخطئ
العظيم،
مدي
فصح
للقضاء
واللغة
##ضان
جاهلا
فيحت
والسا
معز
يعمر
التجمع
لإس
تباع
##حلال
والمي
السكون
##سيان
##رتين
##رعات
ديفيد
الشريفة
روايتان
يطهر
الشامي
فثبت
وفهم
وعده
##حاضة
يلتزم
الجواهر
قرض
الحبوب
رضيت
الإجراءات
لمعرفة
الوثائق
سخر
الميز
يأمره
يتأتى
الدم،
كاش
ولاء
توقي
لوز
الأبيات
فلماذا
عالمية
ملف
أيوب،
حقيقية
والكل
السميع
يرجعون
الإمارة
##غراض
##ذرة
##قلون
المحب
أخرجت
تركوا
تكبيرة
سوي
كاب
مكن
فدية
شعي
والجرح
مصن
تدرك
شراب
##غف
##قدس
آمين
تلم
تند
##هيب
##راجه
كالذي
بالألف
اللعان
موعد
الموصوف
##صام
شرحبيل
ويؤخذ
تعط
لابنه
مجيء
##قطعت
الهيكل
ويكفي
الرأسم
##ارد
الرطب
والأعمال
عيسى،
بلاء
والمعرفة
حبل
أنج
##اف،
انعقد
ويضع
الخاء
##ويلات
فعرف
فون
السعيد
ومرا
فوت
##أر
فقبض
##عيفة
عذب
البركة
قريظة
طلعت
أضعف
إلقاء
بغي
القادة
الرط
هوى
##داوي
جرائم
##لسي
لمؤ
منظور
العصر،
بمشي
الربوبية
حوش
وقيام
تنقسم
وثالث
نقصان
زعموا
بحسن
ليال
##ذرون
يخدم
##حار
##ذهبي
متصلة
المنزلة
نقلها
يخرجون
الحصن
الطاق
اللحية
##يرت
إتلاف
##الس
بالتش
المحمد
المراكز
فتاة
مرز
المختص
يومنا
مشاهدة
الناتجة
قعد
##لكات
الاشتراكي
أحضر
بذاته
سبحانك
وأثنى
وكفى
خرق
العادية
بطول
والفعل
أولا،
الصدور
ولاة
المنتج
وجعلوا
أهدى
نؤ
##وظ
المتم
يجوز،
فضالة
بنص
##رائر
المشهود
والإنجيل
طرأ
والإك
كولوم
ابنها
ينشأ
وكيلا
##رتبة
لإعادة
الشراب
قدمناه
##نابة
وقعة
الجور
الصاحب
مرتفع
وتقوم
هذان
##يقن
المعادن
بعينها
فأخبره
الكهرباء
بالعدل
الجرا
التعدي
والكر
بإطلاق
صلاتهم
بعلمه
##فتهم
تحس
أذا
كك
الإسماعي
باه
مستمر
وغيرهما،
فراش
الدكتوراه
شاس
مشاريع
وولده
وزراء
شعرا
حاضرا
نصح
##وفه
الأعلام
##جيال
الجدل
أهله،
لأخيه
لوس
لخبر
عملي
بعباد
الستر
ظال
مكانها
المأخوذ
تحا
##ينو
يشغل
المستشفى
ملكية
الخبرة
فغير
الغف
فرسه
بمقتضى
سرطان
السلفية
الفهرسة
سابع
فث
الأوائل
##مار،
الجزر
##صراف
##فقين
الترجيح
تأويله
الاي
لتك
الانتخاب
زرارة
الغفور
بالرفع
الديانة
وسأ
والصبر
إطلاقه
الإكراه
ففتح
##غه
##ؤا
##تيلا
بيدي
العقب
فلابد
وكونه
مكحول
##ووا
أنيس
الزين
كميات
والدم
##بيك
##صان
فأتوا
##ثان
##لوبا
يجاب
فأد
بإجماع
أزواجه
يرجى
الإنجليز
توماس
وسل
##جعله
فركب
وفلان
الحلول
الآلاف
الرباط
مرفوع
الفز
لعلاج
##شارا
التسبيح
فنس
##ائيا
العاقلة
وأموالهم
ويحب
وفرض
فذكرت
##فار،
وشدة
فبعض
##الية،
ليبيا
تموز
حكا
سلالة
الاستحقاق
الغربية،
مولد
حمير
يشتمل
وقراءة
الطاعات
##كتة
يتمثل
مختصرا
والأنصار
##ملا
عاملا
مرش
وعلمه
الأحوص
##ولف
دالة
المودع
المجرد
وجي
الإمام،
يوحنا
مستعم
لإنتاج
##ذره
نفسها،
##ليل،
بعثت
التوحيد،
##حضار
روز
المتحف
لدعم
العورة
وأثر
الوقود
روينا
المقالات
بنفسها
قضيت
المكنون
تتحدث
المشكلات
بعرفة
يهدف
بيعا
خلقنا
##قيح
جميعه
التدبير
رقب
صداق
##لمانية
أكسيد
الأوكر
ثيابه
عورة
غف
تأك
أراك
##آنا
المضي
الفخر
يفقه
والفساد
فأحسن
تستحق
الصحيفة
كأنما
تعب
يحزن
الحافظ،
بنس
المختصر
الملة
بالذات
يقينا
##ساة
تقسم
الوهم
يستح
تتنا
زه
##وزة
اختلافا
ببط
المآ
المبد
يعز
واستخدام
الألوان
عشرة،
يجدوا
بدفع
المؤقت
##زدق
إحرامه
مبد
ولاه
بالكفر
منفردا
##غلال
وضبط
بغية
الكرسي
حروب
الخراس
فأق
تشارلز
حمام
يضيع
بالانت
تقوى
ناسيا
إطعام
ببينة
الشيعي
الأبناء
تبد
المشر
حمى
##فره
بالقضاء
##لحاد
نكل
لأننا
الحمى
فاسدا
وأض
وجاز
تحولت
ويسأل
فغضب
والمط
والرابع
صعد
الغرر
اللغوية
##هاب،
خامس
والصف
ينصب
المنصب
أفغانستان
اليابانية
##ياسة
لتصبح
الجاهلية،
غربي
ونف
أبغض
##وريوس
يجزئه
لهو
تقليل
أنوا
الساكن
التحلل
بخلق
الكوفة،
يمضي
المشهد
كليب
بالعربية
وترا
تسير
بالمح
باللسان
يؤاخذ
عقدة
فجعلت
الجانبين
##اطئ
بحفظ
أميرا
أكثر،
وصفها
ويقدم
متفرقة
أعرفه
يسوغ
عصمة
##والد
والشعر
##ييس
فقالا
وذكرت
فإنهما
##جيبة
منصور،
##مسح
وتكلم
مقيم
وطئها
الخيرات
##ظمه
السباع
سجدة
وجعلها
##افى
ومثال
##رورا
تنص
المحرمة
##قوس
##داس
معايير
السعدي
والطاعة
انقضت
وكلها
بمنى
##طة،
رجوعه
تنقص
تصرفه
والطحاوي
والأنثى
بولندا
الرضاعة
تطبي
أفسد
سره
طبيع
##زات
بالسلام
أوحى
أبطال
برئ
التعيين
للقيام
والأدب
دفعت
باللفظ
للوصول
##حيته
##وثة
مفتوح
قدما
وعدة
القاضي،
يونس،
بالقتل
غافر
##فول
تحية
ولبس
التخطيط
وذاك
الأوثان
##فاعي
عددها
الوليد،
##ادتها
##لسوف
التهديد
الرياضيات
##ئيل
المادي
عتقه
المكروه
سرد
##أمر
ويحمل
بذي
##ذ،
أمت
المعارك
مواليد
أيسر
المستعم
الحربية
مخلص
تكذيب
جف
فصا
الرئا
ومقا
##فلسفة
الكاش
بأخذ
استغفر
الأصليين
فهمه
لدرجة
##ليفة،
حرفا
زراعة
أحببت
الموصي
الثم
##شيح
أجنبية
فكأنما
قمي
أنبي
المناسك
جوار
خري
جماهير
استحب
وثلاثون
العطاء
بينك
أفيد
رهنا
وأربعة
الحلفاء
الحرج
الاخر
##قيلة
##حتهم
شيبة،
وفس
المزع
##فلحون
الشهيرة
خزا
يكونا
الأثرية
قربة
الثمر
إضافية
شاك
مهاجر
العباب
خطيب
إحرام
بالخير
لعذر
والعراق
والمعروف
موظ
طلبا
المضادة
ممد
الجهني
حفل
الخطة
##اهدا
وفيات
فرواه
الشطر
لمجرد
التخصص
يتحول
السماح
ذنبه
عجب
فظاهر
لزوجها
شمل
العزل
وعشر
مؤرخ
##ئكم
##طيفة
السمك
كرو
بدرجة
بمساعدة
يقين
والواقع
وإل
سماعه
وأث
##مارسات
سفن
سخ
أفض
الاختبار
فطلق
محرك
##قيها
استخدامه
الأغلب
وآخره
وبنت
الحنطة
عث
أسوأ
الجماعة،
ينو
يستقيم
حال،
بالأرض
شمر
أجود
لعباده
شائع
الجعد
##حرمة
أكلت
بالاعت
والترمذى
ورثة
يتهم
أسباط
##لاتها
ماد
دف
ويذهب
المخزومي
التوسع
وأنس
عمرا
للحكومة
البكري
##وعيد
رقاب
##وران
كفرهم
الحديدية
نفعا
ورثته
جلو
##هون
وبشكل
للمد
خصال
يشعرون
شف
أكم
تقارير
القادمة
##حيين
##لافة
والمه
الغار
الاستفادة
صاروا
كذبه
حاس
بأد
الاسود
حبه
ووجود
وأورد
مدريد
بلو
البادية
استش
عقبه
مناقشة
العقلاء
فوقف
اشتريت
القنوت
أساء
الثلاثين
المراحل
ويمنع
الفلسطينيين
##زوين
وأر
ودار
##هزاء
جبهة
وعيد
وظهور
##ضائع
##رضوا
##يتك
المستشر
الباقية
أمم
زمزم
قاعدا
أطيب
التسوية
تعاون
لذي
وخر
يقام
جاك
غرف
##بيا،
السامع
##حيفة
##كسون
فجاز
العقد،
قلوبنا
ادعاء
الفط
تربط
قرئ
أيامه
ملأ
بالغة
محس
أنزلنا
تلو
بالإس
المواطن
الاختلاط
بسيطة
الصناعي
باستمرار
المرتد
##ابها
##طلاقا
ارتكاب
فأشار
المملوك
حاولت
##رعه
للتجارة
الخزاعي
الأيسر
قدوم
تغطي
لهب
وقي
الحجرات
بصيرة
النسل
حكمت
للحياة
الباقون
ويدعو
بالتص
الأزمة
##ذربيجان
المصلين
أعناق
الظلمات
مختص
يوهم
المائية
ملاحظ
##مرا
فأخذه
ركوب
مضاع
الخادم
لاستخدام
التوكل
آبا
تار
##غسل
الكسر
المساكين
المقاصد
البغي
حديثة
فقدت
قوته
يطع
أنف
محلها
المستق
الأسماك
القران
##روسيا
إياهم
الماضي،
الأل
إنش
وطائفة
نواحي
الصار
الفاط
المعرض
الأساليب
عرفنا
سريعا
بأسا
وجهه،
كاست
الاشتراكية
ادخل
القوية
نقدا
ويمت
ثنائي
إرث
أحكامه
نداء
لزيد
نفقته
الإنصاف
اشتراها
آمنت
##صمة
الخصومة
والحارث
إبل
إجمالي
واتباع
السوا
البكاء
المبارك،
توج
الفاك
خزانة
البك
يمكنها
التناقض
نيسان
العارية
لوج
نؤمن
المبادرة
الأرز
أعوام
الخبر،
بمرض
ببل
بأخ
أيمانكم
بيمين
شاهين
النجاشي
##عكس
تأثيرا
والحياة
الروم،
البلدية
لقا
تجارب
لجه
لأني
لأحمد
ورسله
الفجر،
باتجاه
اتفقوا
فأخرجه
انعقاد
خالفه
تتمثل
فيروس
فقضى
##غرس
الزاني
شعوب
الورد
تفضيل
والقط
ثلاثا،
الصناعات
يحبس
المشقة
بضرب
##قاه
وطريق
ترتب
قبلي
تدريس
##قلية
##رابا
أفلح
##راعى
فصول
##كرمه
لموسى
أسف
باس
للمجتمع
الخفين
حرمه
أسابيع
دنا
غرس
##هلها
الرمل
الضرير
البجلي
ويقت
الوالي
دني
غيبة
باحت
يؤذي
التكاليف
والآثار
بدءا
للفقراء
##نتج
##ضاة
##نش
##ظها
يقابل
أرادت
المراه
النقاط
إيقاع
الإعراب
أمريكية
حكام
ضا
وقفا
تقصير
أجرى
التلفزيون
خوا
لبر
الجسر
أختها
جهات
المركب
وتبين
الزيلعي
للأمم
##لقين
يسوع
عاشوراء
الأهل
ولين
فأشبه
أسبو
فبينما
مارت
المسؤول
الأوصاف
##امس
أوقع
##جلال
الجزري
تابعه
ملابس
رسله
غائبا
فنف
##طالة
##طفال،
بوج
كالخ
مصير
بأموال
أملك
عادته
##مدي
والري
الفداء
أشجار
##وفون
وتعرف
أهون
بالقسط
تبعه
بالياء
المدخل
لواحد
##لبت
ينج
كالق
بالمش
##بولا
تشغيل
ماله،
التعزير
ويحك
نجيح
منفصلة
استقرار
سيار
إسلامي
حقهم
الفيل
##برية
نصير
قلوبكم
طلاقا
زينة
عقول
جث
روضة
أخذنا
والمروة
الملتقى
المقيم
مبكر
النهار،
الفائ
يخف
قاعد
مناقب
وصفة
ووث
##لمانيا
الخاسر
المند
رواد
أقف
توقيع
الديلمي
ادعوا
##كاه
الفيروس
أعمار
الدينار
برحم
بآية
الجارود
للميت
الاستواء
##وتين
العادات
الشيطان،
مناك
شائ
##ؤوس
الضعيفة
ونقول
وحض
رع
فيهم،
نعرفه
الشفاء
انتخاب
بعت
##ئتين،
المقرر
##حوة
الاستجابة
وخد
مصار
وعلق
##مونا
شملت
يضعف
ينبت
مستقر
التقديم
شهور
لزوجته
يدين
ادعاه
عديد
والجملة
الآلة
وبالرغم
هشام،
دفعها
يأمن
مولانا
والبحث
المدا
##بيرات
الحذر
ضده
##راثية
لماذا؟
ورده
هواه
المهنية
الغابات
الجميل
بالقوة
البالغة
أخل
والباطل
أسوة
عرفات
ارتكب
القديمة،
الأوامر
ولادة
طوا
والخوف
ارتد
رسمي
آلات
ورحل
أفاده
##جهيز
وحاشية
##جاني
الظل
عيين
##يدة،
بقرة
وثمانمائة
يزيل
##بياء،
وخلع
سادس
واسط
الاستي
أربعمائة
##باج
منهاج
تشخيص
الأخطاء
بود
دست
مبالغة
عليه؛
##ائب،
ثمنها
خارجا
رداء
شطر
كيسان
الذل
##وفان
##دينة،
تبني
##اتيح
لمثل
المنص
بأسماء
المرفوع
لأصحابه
مود
##رعها
التنزيل
##أيها
للظ
القاسم،
والمساكين
جودة
يهب
عشرا
صرفه
البشر،
للجميع
قيامه
فورا
القيد
منخفضة
المنهي
بأكم
أسئلة
الضروري
تجتمع
بسنة
البحري
والآداب
السياس
حمض
مكتوبة
مجاهد،
بإنشاء
المان
والقب
##خرون
ويغفر
والمكان
##رامية
التقارير
ريتشارد
مجز
والكافر
للقوات
المبكرة
ذراعا
نسلم
تفريق
مكاتب
بصوت
##ءا
فهنا
خالدين
القادم
المنكر،
خرجنا
وجعفر
أفي
بوز
حسا
ملكة
يفتي
ويؤيده
الشوارع
الجوارح
تولوا
مبن
##سيق
بدخول
بالتعاون
يأخذون
أغنى
ينفعه
ينتمي
للما
الإسنوي
مغفرة
والبغوي
يوقف
التنفي
##مائي
جراء
نذير
الير
العزى
##حرز
المركبات
راهويه
بآخر
سحب
##طمة
##ويز
##أب
والأصح
المجيب
مرات،
الذرية
الطراز
أشعث
الكتلة
الغلاف
##هدة
وكال
وعام
بقراءة
وثق
##وائح
توضيح
منتهى
والزبير
لضعف
النافع
##وائب
حاجي
والثالثة
اللوح
المدبر
##شهدوا
##رامات
خلقكم
بيده،
##سم،
تطورت
ويقرأ
بفر
للذ
بصحيح
لاع
النشر
بالصبر
تهديد
وسميت
فيد
السني
فانصرف
بفض
كابن
الأشكال
توسع
حش
وره
##شراف
المتحدث
تتمتع
تخالف
##صوا
والند
واليهود
##ويح
تكليف
بسا
الموسيقية
المناعة
بالنص
الذم
أسند
الظواهر
مهت
الاستمرار
المغازي
والشافعية
صوفي
عامين
عداوة
جاهل
وأقيم
إلي،
الحرص
##ستهم
الإشكال
وفل
ردي
وملائكته
والليلة
##ناه،
هادي
ولسان
يفضي
تؤكد
نائبا
دقة
مختار
##صبة
تمليك
القرآني
بأنواع
ذاه
عصا
للأول
دعاه
تنتشر
عيينة،
حمر
التزم
الشديدة
ويقيم
تعز
مايكل
الدبلوما
الزوا
تتجاوز
أشعر
اشتغل
يوفر
اتخذت
بالشرط
بالجنة
يتعامل
صاعا
علام
التعب
الطائر
انظروا
وولى
للحد
اقتراح
##تقان
##خلة
المكره
وقضية
دينه،
ابتغاء
الرشد
القتلى
طالبا
##رابه
للجيش
يؤمنوا
البلاغ
بالري
مجن
نادر
أنزله
مؤمنة
حرق
وجرى
يشتغل
فكنت
بالشيء
بطرس
أرحم
هزم
##يتا
بصلاة
والعامل
مات،
حديقة
المحظ
##ديمي
##نى،
قاعة
ملكها
الطعام،
وعليك
الجناح
القرابة
مقبولة
يخضع
عامر،
الحميدي
بره
كرامة
الجميلة
الخلائق
عزله
التمسك
فاختلف
المحص
ضمرة
المجرمين
كتابات
لنقل
حصار
والكفر
توافق
يحمله
الماس
التوسل
وزنا
الأصناف
##شات
وكف
عقدت
قاطع
بامرأة
وطال
تشتمل
فتس
والأقرب
استقل
ومعظم
ضرو
قبيصة
الرض
وأخذوا
طوائف
شهدوا
ربو
التعم
##نتم
ولدي
العصمة
السينما
الإسباني
سبا
والفي
به؛
##شيط
عرضها
وعليكم
بنحوه
##ولته
يرفعه
فلعل
قطعه
وقياس
##ندر
أمركم
الأدوات
##وسيلة
صعيد
الهدا
يخط
عرفه
الأقسام
المحتار
أتلف
جوابه
##جرا
هذه،
بالشف
الفراش
وأعطى
غنيا
مصل
ترتفع
والولد
بعرض
يبغض
حليف
خشي
##زعه
تعاني
يتق
نسبته
ظلمة
فها
##كين،
بالنهار
ميلاد
وخمسة
الآفاق
نكاحها
التقا
وصرف
إدوارد
وجوبها
##يخ
##شوف
والبيان
وقدرته
##ءوا
##معت
بدمشق،
دفعة
الماشية
الطوسي
##وفاء
تركي
حماة
تدعون
استطعت
يستر
الدنمارك
##ليان
##لمس
الكاذ
يصبر
##أثر
##همين
الباجي
والخير
##صبغ
المفاهيم
الاصطلاح
داف
الأست
السويس
زماننا
يعلق
والمدينة
تنكح
والبزار
تقويم
عمود
##جني
خمسون
مفعولا
استبدال
حنيفة،
ببيان
منف
الإحص
المعالجة
##زاة
الصفقة
المظلوم
صياغة
عقلا
عبادته
واستمرت
##لواح
الظاهرية
ثمار
اقتصادية
أظلم
تدفق
بينت
بأداء
واتفق
لسب
يتعا
وآثار
الهامة
بجه
التونسي
وقرر
جزاكم
##ئذان
لذة
الحرس
الفج
##نفل
##مرض
##حتين
##طفاء
##وسيقى
حاك
##باته
الجودة
يستجيب
بالاض
##لوه،
يتخ
وحكي
وسماه
فرانسيس
ليف
بإعادة
القمح
التاجر
يتحمل
ينزع
وحذف
لحما
أجزأه
##قدت
##بوها
بقبض
بتقدير
القصيرة
برأس
سيتم
##زلي
وأذن
##عينه
##مرقند
سيم
ويرفع
شهوة
والزكاة
والباقون
عظمة
##ورون
بمحمد
تفاصيل
لحيته
الملأ
ابيه
هتل
##نته
مسافر
حمراء
تخضع
قارب
ويسم
شعور
متعمدا
غيلان
يتب
رجح
##طعات
رجعوا
وديعة
منقط
ماتوا
تظ
##لته
للجد
##ويب
تحريمه
والولايات
أيمن
ويصل
تأي
أهلها،
مفص
##احبة
يفتقر
حزيران
يلبث
وقيد
أدع
دولية
للخط
##لوك،
ألزم
حيلة
بجوار
عروبة
الأفق
فلانة
##عارف
بئس
##رده
تدبر
والشرب
المعتق
مركزا
الفوزان
ضامن
القراض
صغر
النظرة
للدكتور
منبه
##رائق
ينفقون
رص
قبح
تقنيات
تشعر
تدعم
المأذون
الالف
##ذام
الكات
الأبصار
عازب
ذهن
بأول
فعليك
الانتشار
التخيير
##ائلته
البلد،
سورية
كيمي
القسطنطينية
الأوجه
بماله
والعين
ودخلت
جيشا
كبد
والثوري
قيس،
بطلاق
ملعب
أعمالكم
المرتفع
والكتابة
جريج،
هولندا
الضو
الزخرف
##فارسية
التعلي
البهائم
عبس
أسلموا
##راتهم
المدح
وأقره
خليج
ضخ
لتم
##سو
##جدوا
إتيان
لحظ
كسبت
وأدى
قولوا
##مائية
##سامح
أقا
ردت
الأنفس
حجارة
برس
ويه
##وله،
قتلهم
الأسرار
الأهواء
غالبية
القاضى
##ومها
##روها
بقرب
##طر،
فليح
الاند
بقولهم
بدوره
السلطنة
أتبع
الفضيلة
تدريجيا
التنفيذي
تختص
لسن
يحمد
بعثة
اعتقال
تعبر
##قيس
زوجا
وأخبرني
فيقع
الدافع
الخياط
##دركه
استطعتم
يتبعون
أنفه
عبدك
بعذاب
الأوضاع
فامتنع
##يافة
علاوة
لاقت
##حاك
##رافه
##سار
جائزا
حبسه
قرطبة
سعادة
الحمر
##لبك
##زواج
##ياكل
المفتوح
الإذاعة
صفا
النقض
مستحب
بسوء
يسمون
وخذ
##طاف
بالدعاء
##قدان
المدير
الأسهم
##راجعه
الشوكاني
غام
##عدهم
الكونية
المسع
مرث
لشدة
إزال
ميرا
الصير
ويسن
##نتاج
المتق
فلولا
القسامة
تأمين
واعتبر
أجمعوا
##كك
العافية
معلق
يوميا
وجدته
فتبين
##شخاص
المراس
##خلا
ديننا
بوقت
ممتنع
ذكرى
وصفا
##وكالة
##ضحة
البولي
##يلا
##رائية
الأشج
مردويه
دفاع
##ولان
استأذن
اليمامة
أجبر
الحسيني
بذات
وعلا،
خطوات
المجتمع،
مطالبة
اشته
خطيرة
سيرته
يحبون
##ضون
أثنى
حان
كوا
الجنيد
اختياره
##زيم
يتأخر
التكرار
بحقوق
فينظر
ويونس
حدد
الأصيل
لطيف
الاكتفاء
دافع
المتولي
للمؤمن
تتعرض
يسمعه
##نجي
##برس
بأنفسهم
الراس
يصعب
##جاسة
إجمال
مناهج
والترك
أقوم
عبيد،
تعتد
شرعه
أميال
الائت
البتة
تابعي
راحلته
وأدخل
الواجبة
والثانى
والمنت
نسم
مليكة
توسيع
جواد
##حرية
بأمور
ودر
للمنا
الواسع
حلقات
مرق
أوربا
معاص
قرآنا
بحوالي
خث
##وذا
وللح
انتشر
المهت
شيوخه
يوحى
السعر
التعديل
التلفزي
اعترض
علمهم
للبن
الوظيفة
المغفرة
تحاول
الأسب
الكوكب
للأس
ووجهه
##هادتهم
تبيع
وضمن
##صعة
المذ
يسهل
##هيار
السلفي
الوصايا
نجاحا
للمتقين
راكبا
المنطقة،
الجائزة
##سبين
ينفرد
كأنك
والطلاق
السهل
ليخرج
انض
خطورة
والإنس
يسبح
ءامن
بالتي
الآيتين
##رحه
بقلبه
ضربا
الاضطراب
الأهمية
وأمي
الخلوة
الشرعية،
نزلوا
عروة،
معهما
الفدية
عناية
متصلا
##تيش
أكابر
نسخت
تايم
تيار
جوائز
مجي
المطا
اليأس
العضوية
إخواننا
اللباب
الرخصة
والمسي
الزاوية
يستفيد
قتيل
عكسه
وأكبر
الثعل
الارتفاع
##راسان
رأسي
فحذف
خصي
بالكلام
بيته،
ربه،
الأنصاري،
رعا
وجوز
بكلية
عظيمة،
تلعب
الاستخبارات
ليوم
##فعوا
##اناة
مشاعر
العباس،
أستطيع
داعية
طين
اللقب
والحيوان
تفضل
تعم
المناوي
جنى
عزي
أوج
لوك
جحش
فيرجع
##ماش
ماه
الشاه
تقم
تطوع
##ماط
والاه
بالقياس
المخطوطات
طلحة،
المعاصرين
جمه
##يدين
##ودان
##رونا
فليراجع
فجعله
##ية؛
للنس
ساء
يفع
##كوا
تقدم،
والصح
##نائب
الشرا
##دونيس
الاطلاع
##قبله
وحقوق
طرفي
الصاب
كونهم
ساك
عصى
فولد
الرجاء
كتبا
صريحة
فأعطاه
##انته
##داها
والثق
الأغنياء
منعت
##ذاكر
البياض
الخاتم
التحديد
الصليب
تخلو
شاملة
المكار
##قياد
##ابتداء
المقبرة
العقلي
التطبيق
فأخذت
العيوب
الدعا
التخفيف
صبيا
عبارته
بالتك
العنق
##وبين
ليالي
إجراءات
غلبة
الباك
استجاب
تحسن
تعجب
اشتراك
وتطوير
بقل
##شياء،
وحديثه
شرو
معصوم
##وفرة
المضارب
##دود
المعايير
خراج
##معاء
##يتاء
بدن
عرشه
برلين
##لائم
الجحيم
الامة
الآلات
والإجماع
وسنن
لقال
##نين،
العاد
بالعد
الأمهات
##ولاده
الإلهي
الإلكتروني
الثانى
شكلت
نافع،
عبدالملك
الرصاص
وكلمة
مشتق
أردنا
الشائع
ذكره،
والسياسية
عيبا
موك
الدرجات
سنته
وبينها
أضيف
يجهر
##رائد
ضررا
الصليبية
ورحمته
اتها
لعدد
الكنز
بشرح
الجزم
##سمت
مثبت
طالما
الأندلسي
الباحثون
الهذلي
درب
وطا
##غلظ
المصرية،
##ناد،
القير
النصراني
ومخ
لعمل
بالتق
ضمنه
المضارع
الزمان،
الشروع
خطا
تخري
الكسوف
أفق
##فاعه
تنزيل
الاقتصار
آتا
##لق،
خيرا،
فروة
النماذج
المفسرون
والطب
ونسبه
مثلهم
خلاله
بريء
الاستغفار
جراح
وعض
##درون
تكفي
قاضيا
غلا
فمعنى
الأحم
الحيرة
وجنوب
ولان
##اعرة
المنثور
وصوله
الراعي
##صارى،
ذى
##خوة
##ورغ
##سيه
الموظفين
العبدي
أصحابها
مساف
وليها
##باعا
لشيخ
ايضاح
أصر
الفتيات
للعامل
##مائر
الفرنسيين
الابتدائية
ومك
وقدره
أثرا
لحفظ
للدفاع
البعثة
يبيعه
##طيعة
وجهي
تكاليف
اقتضى
الحراني
نغ
##اوي
##ؤدي
العظمة
السياسات
الشهور
الاخرى
##ماعات
جزئيا
الصاغ
الفقرة
الاتفاقية
يعا
وصحح
خير،
تهم
جاد
##دياد
##فعية
واستن
المشاعر
تركز
جود
الفلب
هوا
منفصل
##اتبه
للضرورة
الجنسين
بآياتنا
ومنت
يغضب
التهمة
الهيدر
مجنون
##در،
للتص
لظهور
للولايات
حرب،
شمالا
المختلفة،
فائد
##وقات
الألباب
تعاليم
جنسيا
وهار
اللاج
والاقتصادية
##وبته
دينك
والكذب
رواحة
تكشف
فاسدة
الأوقاف
دبليو
المخابرات
##اتم،
السيل
معلقا
المؤلفين
انب
محلية
المسلم،
الجزائرية
اكتب
نسائه
سواء،
وظن
النظريات
فيصلي
وتصرف
فالأول
السمعاني
السكوت
جبلة
بالنصب
يرجو
##هاض
##مئ
التمهيد
الكرامة
مثالا
يدفن
بمعناه
صادقين
أضرب
ويجمع
ضمنها
يثير
المفيد
##لم،
هيكل
اللذان
الإجمالي
الطلاق،
واشتغل
الهرم
النقدية
الماجشون
مسقط
المصري،
##صيلة
غريبة
الأديب
أتاني
بالواو
الفرار
##شتاين
القليلة
##ازن
مطلب
والمرسل
المفترض
المدنيين
البرازيل
أيرلندا
##ريث
تصوم
ثعلب
وباب
يعترف
خذوا
البرا
ويبين
موه
نائم
المزارع
بدر،
بحثا
بالقلب
الضحايا
ديارهم
محج
ردود
التكوين
يأتوا
العدول
إياكم
تشاء
المثلية
##جازة
رفضت
مهي
وأخر
##صفى
والرحمة
مسلك
الفرزدق
الأدبي
البدء
اخرى
اللؤلؤ
بيتك
التناس
الذئب
يشاهد
سماحة
الإمساك
المبكر
الصادرة
الاشتغال
##بخ
الراحة
ولبن
تنعقد
يراها
ورفض
##غله
بعوض
بموته
تتزوج
رضاه
##ترا
ثلاثتهم
شديدا،
تزايد
والخص
المعاهد
تكفير
الأولم
طعامه
الديلمى
خفيف
منك،
##ستا
مفسدة
كشفت
بلغنا
احترام
فمنها
الإقليمية
السنية
الدرع
واجتماع
##هرت
أعبد
##جزأ
الفقه،
القصير
الفاسق
بحثه
إليك،
ومعاوية
سكوت
ندري
##ضن
تأت
##رابطة
المحرك
##وهات
التوالي
ماريا
الشد
المستقلة
##وفيت
##ذموم
مبنيا
براء
للجمع
الفضلاء
ثامن
##درة
الإرسال
بإسلام
السابق،
كاذب
فعندما
تسل
ياأيها
##نعت
أعمل
##ازم
هتلر
بنقل
ولإ
اتجه
الزوجات
والخطيب
الجوامع
وإمام
تنشأ
يزكي
حالها
##مداد
##ولا،
القصور
لمت
##ذهان
قومهم
المنتدى
##باقي
التاريخ،
الواقع،
##قهم
##قييد
أسرى
يكفيه
جوزيف
الخلل
ثناؤه
موضوعة
وداود
إلكتر
مضل
العدوى
##قادات
شط
##بار،
مسرحية
القشيري
أرك
صحتها
القطن
وبحلول
يجاوز
أتينا
بيس
أجلها
ناه
##اليا
الزر
وزر
صيغ
دفعا
غاف
مبيع
المغربية
عادل
لشركة
والضياء
أتباعه
الخمسين
حياته،
##زمت
جاءني
صفقة
مجددا
##صها
المراجع
بنشر
مسألت
وارد
مركبة
فابت
##ضاها
الظلام
يخلص
##عيات
وكيفية
لإنشاء
فمه
مغيرة
المقابلة
إكس
فرك
لال
وقط
نيك
وحمزة
##بيته
وتض
إسرائي
وقتلوا
عطفا
بخمسة
##لظ
قدميه
##خلل
بالنا
والأحكام
بالعكس
كاس
والعديد
الإجمال
الجماعية
الأرمن
الحذاء
الرفعة
عمدة
الإعلامية
تركة
##ماثل
##جل،
وأمرهم
##مائل
##حيف
برئاسة
الوجه،
العتي
وخطب
##ظمات
الخانية
وثقات
تكثر
فرسا
مرضى
العولمة
كير
##ئية،
بعتك
تزول
المدني،
للسنة
موسيقى
##ابير
##ويش
ونش
الرزاق،
جيوش
صفين
باء
##برات
فأتيت
مغلطاي
الذهن
مجتمعات
وساق
##رسول
الثان
الشرك،
الأردنية
خا
##حرام
الصندوق
المقدار
تعبدون
وزوجته
##ادوا
##لاتين
فأجابه
يقات
يجت
الآسي
بشرا
البناني
بأف
ليقول
الأمنية
والخلاف
ابتاع
الأرثوذكسية
لفعل
الغاف
مساكن
حضارة
فاسق
تتخذوا
التكنولوجيا
مناة
##بعين
فعالية
ظنا
ذكروه
أسواق
لعبت
ستون
والبخارى
بوص
##وعين
##نائع
##قضية
فيض
استعم
##خلال
الراكب
تخفي
حلو
نخل
المساحة
لضمان
جوه
مفيدة
##قوبة
بشروط
المساقاة
آذار
أسهل
بوضوح
حائل
التوازن
فأم
والمك
الصادقين
مسؤولية
معارك
البركات
غازي
الميكاني
السابقة،
جئ
يعجب
نكرة
الدوام
الأموات
لأجله
وانتقل
بالجز
يجهل
تقريب
ذؤ
الورا
ألفا،
أدركه
بيوتهم
أسم
مطا
نبو
المحذوف
الفعل،
الخضراء
##نية،
كلوا
استهلاك
يدخلها
مؤلفات
درو
المرافق
ظه
فينت
الأحق
لاشت
كالز
وانتهى
وروح
فبقي
تعليمه
شوبري
بالنساء
للبحث
الدجاج
##رداد
وحسنه
محارب
يفارق
ذهبوا
معينة،
الحاسوب
بزي
مبتد
فأف
والملا
##شدد
النفوذ
أصابعه
المخاطر
والكسائي
شير
##خلي
##يداع
وترى
ويؤيد
طع
الطاء
والنصر
سماها
الضيف
فأصبحت
كالا
ظاهرها
لوجوب
فروى
تبادل
صحا
##تلوا
الحاوي
خلدون
طاع
أنبياء
الخول
والخروج
والقوة
يسألون
للبيع
الغريم
أصحابي
مشار
رت
للفت
يقيد
##همات
##قطاب
عجبا
تعليقا
عقيب
يكر
##رفي
وبيت
البيع،
لازمة
الصاع
##طانة
نجيح،
##وراني
النسيان
##هبان
وتمكن
النابغة
العاصي
يلحقه
للعلماء
##هدم
متفر
بدعم
زبيد
شفاعة
للسلطان
بمكة،
دائمة
بديل
قطن
منخفض
وسأله
الأعشى
الأفريقية
جوي
العارف
ولابد
خطبته
كقولهم
كانتا
تفاوت
المبرد
الأبعاد
##جزه
السوي
##غيرة،
والشراء
القيود
تقريبا،
نمر
الوراق
نسوة
تستمر
سيب
##فالات
الاغ
الميثاق
صواب
لبد
يدها
وأنواع
تخلي
تقال
عتيق
##صرة،
الناقد
المصاب
صيف
##تك،
عدوه
وخارج
منطلق
الآحاد
المستن
إمامة
غش
##يتس
بصيرا
الاستيعاب
والقسم
تقيم
##زل،
##نسية،
يؤم
والمخ
السلبية
وخرجت
فوجدت
اط
المقاطعة
حلم
##ائيات
المسكين
سيئ
أمكنه
يبيت
يحرص
##برين
##جازي
والشهادة
الجنان
عقده
قياما
قصي
ينطبق
مقدما
الثمانية
يراجع
##اتذة
الرما
خالصا
القدماء
وزيرا
واستدلوا
تضي
جاره
ساقه
##الون
أصبهان
فالمعنى
أشعار
والحساب
مخزوم
جمعها
الصافات
الدروس
فضيلته
الإطار
أصبت
##خدمه
العميل
ووقت
واللسان
الختان
انتظار
ضمانه
المدائني
##هلة
التحذير
مخطط
يبن
التغيرات
للدلالة
الفعلية
لاسيما
البش
موسكو
وطنية
الجماعي
اللفظة
أنشئت
المركبة
ءامنوا
طهور
الاق
المصلى
أرقم
الحداثة
أوغ
مسهر
حملا
وشعبة
بفعله
##ودهم
الثبات
##رتيب
والبيع
تعجيل
وبص
يأتين
أكثرها
شرطة
لامرأته
##شور
الاستمتاع
أخرجها
فرضه
قان
ونفي
أفواه
خلو
لقتال
ويحكم
سئ
الحجة،
يستحقه
فذاك
الطوا
##سيين
التقويم
فحا
التقصير
الهزيمة
اللزوم
الطيبات
آمر
وعكرمة
أوروبا،
وكله
الظلمة
تبعد
المشاركين
نر
اللهو
التصور
وعلما
والمز
وأمها
هديه
اللاحقة
الإحياء
محاربة
القضاء،
نافلة
المثلي
##خاوي
استقال
عمرها
##نبوا
##نجاء
السمن
الكثرة
##موح
##يناء
التراويح
عشية
الصانع
##وفت
المناهج
الذهبية
يحملون
الرياضة
لؤلؤ
##لاند
أحكم
التشريعية
خاطب
صنيع
بالنية
وأرس
الكري
##رافي
التأليف
بالصواب
العبادة،
##ينيين
بسببه
الأذكار
استفاد
اللبناني
عري
##عهم
المقدر
##طفه
##قاليم
نيوز
واذكر
للهجرة
ساقط
مناسك
تصانيفه
أقت
بند
فأص
##عملوا
يحتاجون
مؤكدة
لظ
وبلاد
النبيذ
كبي
يصعد
##جارات
أزيد
ضيف
##نر
بالقبض
للحاكم
أخط
الغفلة
رزين
##زلها
##قدا
بائ
والعدل
اعتبرت
##يون
أباح
مطبعة
خامسا
مونت
##فيظ
يسلك
إكمال
الحرارية
مسير
خالصة
والخلف
تشارك
الانتصار
حنبل،
الأجير
بمنع
الزيتون
والصالحين
الكبري
لكثير
منزلا
والثقافة
صفحات
وتصل
أبنائ
##لاتهم
وعالم
وإنها
النيابة
مفيد
كفره
حرملة
عارفا
سريج
صعود
##سوقي
فأحب
##متم
##وارئ
وظهرت
تحيط
زريع
كراء
يبط
لإقامة
الدراسية
الجيد
أكتب
انتصار
خارجية
وإثبات
يوص
##رموت
المحس
ذاتية
الاحتياط
##عجل
أشارت
الثوري،
##بيه،
الذب
بتف
الهدية
##فاذ
بدله
العلامات
إرشاد
وأشباه
##قته
مناص
الأخفش
العيدين
فسم
ثقيف
يظل
وجزا
قباء
##قصاء
عقدا
حسبما
مراس
##ذبهم
قطني
شرقا
والموت
داخلة
المغناطيسي
مصلح
فلسفة
تعيينه
التوقف
عدنان
منازلهم
المعبود
فدفع
للإشارة
التشغيل
المذهب،
ولماذا
شكرا
شباط
ضخم
العروس
بالدي
التعلق
إلحاق
ضياء
الفارسية
تتحرك
ومسح
ضاع
للحاجة
بتد
##براطور
بمحذوف
##طبيق
يتوقع
المستعان
سيطر
اتق
فارس،
جذور
أسير
المسؤولين
أسلحة
المتصل
أكلها
الكهربائي
الأكسجين
كهي
يرجح
##زالي
الزاي
مستند
لامت
##طفة
أضع
النقش
إيف
التأنيث
##ادير
بقت
بناه
عفو
ويطلب
يعالج
وثنا
نصفها
حتي
كفن
##طها
لازما
تفوق
البوسنة
التغي
العدوي
ببلاد
الداء
الذكاء
التمويل
الرعب
الفضائية
##به،
##جرت
والأز
بطرق
فذ
والصدقة
##برغ
المفلس
تحريك
عملهم
أهلية
والضرب
العصا
أوكر
غيرهم،
بشراء
بالمست
المصطلحات
أفعاله
سيس
الخيال
الوحدات
الإنشاء
يعلمها
الصوتية
##وريات
الحكماء
سقي
فيديو
أور
أقارب
##وءة
سألته
##ضير
شريكا
##وجا
الطابع
تدرس
هاما
بسيط
مقاصد
إخوانه
كغ
النافلة
##ضاءة
مدرس
يتقرب
##رتم
قولكم
جعلته
ثبوته
قبيح
بالرب
##فارات
وأكد
الشف
الصم
الدعوات
الكفر،
مرزوق
##اليه
المنتقى
العقل،
رين
##اهي
الإعجاز
أفرد
رصد
يوقع
##وارز
عارف
وأرج
ورش
صدام
يطلقها
وباقي
الصائ
##نفقة
##جيز
تاما
الذرة
ولادته
##لقاه
فيجعل
##اصلة
##ظرية
النكاح،
##هلا
##بيون
أبين
مصرف
بأسلوب
أصبحوا
القرارات
إثارة
ألعاب
الحث
أيلول
امرأت
جانبه
المدع
الرفق
انفص
يسمونه
الصاغاني
بالسن
والصوم
استئناف
واليا
أويس
وتظهر
يجده
##مانية
القول،
سبقه
الوجيز
جوان
الماجستير
مرآة
قدمها
خشب
غضون
فيحرم
زوجتك
##زج
##هوت
أجزأ
إخراجه
التزا
الحليم
البسي
##عاش
الضباط
يتبعه
حافظا
سات
باليمن
مماليك
والطي
التا
الجعل
وأبوه
والدته
##كرا
البطلان
##حيز
الوثي
يخافون
ويأمر
بالعم
عندهم،
للمص
بواحدة
لتقديم
##تهاب
القنوات
تبو
الروي
بطنها
مولود
الأطلسي
كز
منج
##نيها
المسماة
كالب
الأوعية
وأكرم
تحتمل
##قاض
##ماق
وفساد
##حدون
أرجح
وكبر
##ميزا
الدار،
استفهام
أسلاف
##وانع
فالأولى
المقابر
قانونية
ووجوب
وأعلن
##يتون
أصلا،
لاح
##وفين
مقعد
المفروضة
قذ
البينات
نصارى
حققت
الجنون
تثبيت
دراس
زوا
##ينة،
ويفعل
المسألة،
قميص
تاريخها
ويدفع
ويحصل
مسؤول
الانحراف
خضر
##كررة
تنسب
بالمغرب
رآها
يمكنهم
تغطية
ويكتب
برأسه
فيحتمل
صراحة
قف
##وود
##ساد
##ذاب،
والفض
التامة
ينح
يستقر
يخفف
صيانة
لخدمة
##لوبه
تنفذ
ووكي
داني
بالعيب
تعدى
زياد،
وفرنسا
جنيه
والخمس
أنفسهم،
المزا
معا،
للعلوم
الفرح
والمذهب
وسيد
بكى
##ذكور
أقدر
##ذيرا
آذان
غرة
##دامة
المكسيك
احتمل
رسوم
تجده
والضلال
فباع
سبط
قط،
المهندس
التفاوت
تلفت
##ففة
للأرض
جابر،
باطل،
الرازي،
مصري
الإخراج
العادي
تبرع
##ظير
فرقا
درست
منتجات
الظالمون
والفس
يشركون
يبلغه
سريعة
رواها
ودعم
والآية
صنا
يود
الايمان
الضبي
الظهير
للحرب
القتال،
والشرح
##غيان
والكثير
اثنتي
يوصل
نادرا
هجمات
الأنسجة
##ياج
##وبان
أثبتت
تتكلم
اغتسل
بقتله
وترج
##عاذ
يحافظ
خالدا
تراث
ظلمات
ارتفعت
عاصم،
ويشير
بروتين
معجزة
وهد
الظاهري
عينها
الهجمات
##آه
##وريين
##بينات
سلمت
ثناء
يور
بمحا
تتحقق
أعلم،
حائض
عزة
##دهور
نفيه
وقالا
المستعير
تجهي
وطرق
شفعة
والظلم
بالظ
الصخور
##شيه
##كسه
##فوظة
تفقه
مسعر
اللاعبين
سؤ
##صدقاء
اليتامى
عبارات
بالظاهر
استعادة
أولو
للحفاظ
وأتباع
ملحوظ
الحرك
بالدخول
كارل
نقيض
اليسر
يحذر
##جارة،
يطلبون
العاقبة
كاذبا
##وبى
ينكح
##ريقيا،
المتضمن
وبالأ
وتحمل
القرم
وروا
خصمه
الليبرالية
تتب
وتحدث
تفاعل
الخميني
الحوت
بالرجل
ينش
الضلالة
وغسل
تجزئ
يبنى
التعظيم
مقيما
##سب،
حده
لإع
الشائعة
تنك
المستهلك
بالقراءة
الكمبيوتر
أقبلت
بريط
##نطين
وأعت
الرئاسة
##شيش
المفروض
ألقي
ومفهوم
استنادا
يسرق
وصور
بالغا
يعذر
والاخت
أراده
مهام
والمحا
إبان
الجراحة
مباد
الاستسقاء
أغاني
وحس
اتفقا
العدوان
قيصر
يحكي
طويلة،
هاء
##البين
والذى
لحسن
خزائن
الواسعة
فحمد
##لايا
انهيار
##اليون
المحققين
ولعب
يحس
بقى
##طلعت
زوجها،
أبيك
لوال
معظمها
الخاصة،
وأقرب
نحوها
حنطة
فبد
الطهور
أشك
والحرام
##دتهم
ويستخدم
الجدد
المسرحية
الكلاسيكية
أره
ولج
يستند
حجرا
راد
التت
القاهر
##حيه
قرره
##برهان
الشخصي
جبار
خدا
العبارات
تزداد
صبرا
السكنى
الجهاد،
ويقدر
بأصحاب
أسعار
أجور
حذا
##ماتها
والفا
منصبه
ناط
##نازير
##ديقه
##متك
فسألت
تيمم
الدولا
تبعهم
الممارسة
##لئ
مجا
السفلي
التغذية
مكونة
وعليهم
خبز
ذيل
##نفذ
المسعودي
انط
الشاملة
الوثيقة
بورت
فيليب
تنزي
العنوان
##دان
المعقود
والأكثر
استثنى
الضخمة
مرتفعة
طاووس
الفزاري
جلي
موطأ
##اتحة
وقصر
السقوط
##نبلة
##سعى
أذرع
وتضم
المتوسطة
##احظ
صاحبه،
العثمانيين
البكتيريا
بالهم
يقاس
يعرفها
الفيزياء
الارتباط
ثقل
يتغ
##راهين
نظر،
المعتز
أشعة
يصلوا
إفريقية
الثقيلة
فسدت
افترض
طريف
الجليد
للمفعول
##طاكية
مملك
أضر
سرقة
##مساك
زكاته
المهي
الغروب
أينما
المتكلمين
تحيض
طالت
وقاله
##رقية
أهواء
عابد
##صي،
أوصي
##فتان
فتقدم
الواضحة
الألبوم
كرام
لونه
الرقا
المتظاهر
دمج
بالغيب
ظلال
الجود
وحمله
المرهون
ومهما
ليون
بدم
المملو
عيوب
وتبع
بعشر
العملي
لمكان
يقلل
مدرك
المعدل
محلا
والصيام
عطاء،
الأعلى،
بعضا،
للعالمين
أدعو
تلاوة
##اوف
##فلون
نوعين
لقيه
فالس
بقراء
مستمرة
فرضت
إشراف
قولهما
الغرفة
وسجد
ولأنها
زلت
فيرد
##وزون
مقرا
الشعير
الاختلافات
##غرة
##ته؛
الكائن
بعدك
العينين
غرار
التبع
السلو
الخفيف
وجواب
وإنك
تعليقه
تبنى
الفضل،
خطأ،
ضاق
كمل
والقي
إنت
الزبيدي
البرتغال
هائلة
##ءون
الابل
وأسباب
والسير
النجس
أحوج
وبينما
وطول
دوام
فرائض
إنزال
##ضاوي
تحصي
السبعين
أنفع
بالمو
الانصار
بالرد
أمية،
المتاحة
ينطلق
بمصر،
##وحش
بحا
حو
دن
تفهم
الهند،
آياتنا
ترضى
رحيما
##بارهم
الميلاد،
وهارون
##يج
##ماض
وإظهار
المتأ
المجوس
وصيته
وكمال
##قراء
أنط
ويصبح
فعالة
بحار
##قصان
تمكنت
تول
أوح
الرجز
المعبد
يدر
جاءك
الأخلاقية
ببغداد،
أدعية
عميرة
اعتراف
الكفرة
بالخروج
ولحم
بالمسلمين
أهالي
فراشه
ألو
الجهم
تسكن
أحوالهم
بولد
الفاض
بهيمة
أبطل
صهي
ونق
وبالجملة
وأقوال
حجه
لارت
يفكر
يأتيهم
كغيره
الموسيقي
أيار
تفرض
الاعلى
ورضي
##بكة
البلو
للفر
رأسا
##وريا،
لقضاء
يبصر
الكيمياء
##طو
فيقوم
العائد
بالقيمة
جديد،
فعد
##بسة
##قييم
فليقل
والفكر
##وخة
المشركين،
تكلفة
فيبقى
نصرة
الفرسان
المحدد
وهدى
ونظم
##كيين
نزار
الرياء
وعندي
##خس
##خيم
الذراع
##ضافي
كتابه،
ورزق
للبشر
##دينا
لدلالة
لنفسه،
غريبا
الأرش
الأعداد
وعاصم
يدافع
الأنبياء،
عودته
الاضطرابات
الوفيات
الانقطاع
##اتمة
أبوك
حاش
قبلنا
الحضانة
خفيفة
مندوب
جنين
الزعيم
لنا،
حماس
ونافع
راحة
يطل
التونس
البوص
ولزم
مفاهيم
بصفات
ضرار
قلم
نقط
##بش
والقبول
الحظر
قدس
يطرح
الحاكمة
مضافا
بالمسجد
بسلام
خائ
##ورن
ونظام
تفضي
ووجدت
سياسات
إلياس
للأع
النخلة
وإخراج
تلخيص
صباحا
الزائدة
##واترة
يوم،
نهائي
لحن
بالقر
الكبرى،
الجديد،
فلسطين،
ضروري
##شيات
المجته
أدخلت
تجميع
افعل
قبل،
يحارب
فاش
بلغوا
تغيرت
الهاتف
العتيق
النفر
أخشى
البير
يحاسب
هارون،
مفتي
لذاته
خمرا
##لقاب
لأمه
المشروط
صدورهم
فنه
وعبادة
شعا
صبح
لأداء
لحصول
المطهر
حصوله
موتها
##لكان
التشي
القاص
الخاط
ولرسوله
العملة
##أى
الخواص
بدقة
التكفير
ملام
##ألتين
والوق
الإبراء
يتخلف
ومز
المعالم
أمرني
الجمعيات
يضلل
##سق
وتعت
ويقتل
الرحال
##كلها
##ذوا
مؤنة
وربك
يار
الرغ
الدفن
ومقت
وعدا
صحح
##زف
##نظر
##غيت
سلمى
اللحظة
##افة،
##طاة
تطهير
الثالث،
للكافرين
بتشديد
شج
طابع
فذهبت
فهى
أسلف
يستأذن
يفقد
وذكروا
سيفه
منظومة
تذهيب
هال
أمد
انهم
كالبيع
المصرف
وقضي
##كارا
واستغفر
الفيء
حوشب
باليمين
داعي
النسبية
النحاة
دمر
وسمى
بالفر
هوية
خصم
وشرحه
قلق
نصابا
تقدمه
##ونين
رموز
منهما،
حاتم،
سقف
واستع
للشخص
ممر
الحادية
البضائع
وتذكر
اختراع
##اتا
واقف
يسيرة
الراحم
بجد
لتطوير
محطات
أسلم،
شين
##جاء
معسكر
ويلت
بقين
لنبيه
جلوس
فدا
التخلي
منظمات
يعقلون
الأرجح
البث
متقدم
بكفر
##بات،
##ظه
والروم
اليوناني
الفعال
فاجت
بينته
خلقه،
الأعمال،
الفتح،
وجمال
وإطلاق
تشابه
الإيلاء
ذل
بنظام
فتلك
هؤلاء،
للبخاري
شهري
طرفة
محيي
##جدة
واسطة
##دس
##ين؛
العيني
لمجلس
##شرطة
ويوسف
الاثير
حكومية
يأخذها
الاستعانة
الدنانير
معروف،
يختلفون
المضمون
طير
##طفان
القوم،
وخمسمائة،
اعتباره
سويس
معص
الجين
يستن
فالأمر
شاعرا
##وتو
قلبه،
التوصل
ببيت
موالي
لأخذ
الظهر،
شكا
##روحة
وإب
اعتكاف
##وكيد
أثبته
السياحة
ادعت
حذفت
##ؤه،
الأجيال
ومآ
التركم
يلم
##وضى
##ارتها
القوس
##يبات
مجمل
والعربية
أصابته
##ؤك
الرقاب
والأئمة
يريده
واي
المناصب
السماوية
لمواجهة
ينشد
امتثال
محو
تتمة
تشكي
##صيص
تتألف
أحواله
إحص
##كية،
بالكذب
طيلة
الكعبة،
نبأ
تقلب
##ائر،
إخلاص
الأغلبية
باج
الجوار
المتخصص
أجسام
للعديد
الثقافات
وافقت
ركعتي
وتذهيب
وبث
أسمائه
السيوف
يسمي
الفنانين
كط
مكا
##ومون
محكم
يغيب
##شاة
الأقارب
ويحفظ
##كافحة
المثبت
المقيد
##رشح
المكث
عربيا
التخلف
أخضر
مقدرة
الجرجاني
نحوا
التفضيل
##لت،
نفسية
انتظر
آلية
مكون
الطيار
##غوب
الصدي
##رق،
أغراض
باتباع
أحاط
الميدان
للحا
بدراسة
الفرا
المحلى
##غيبة
والشراب
المدعو
أود
##وتن
بخي
نصلي
طلاقها
والعبادة
##باعد
أشير
وتنت
يسميه
يفترض
وعزاه
##ريبي
والأق
خالية
فمثل
والفن
##برد
أخطاء
فأرس
المسلمون،
ألف،
قالوه
تتوقف
الكرب
فوصل
النقصان
لؤي
بكرا
##موما
العمود
يجعلون
نادرة
أشراف
يزاد
القلوب،
دبي
شائعة
وضح
الفحل
يتردد
الأعمش،
الترمذى
##قيف
الطاعون
حيوة
ياسين
جزاك
فصلوا
الكتب،
##وانه
حاجب
البصير
الفضيل
بدعوى
ففر
معتب
##خرق
##روية
أعج
يشكر
الشرع،
##تلاف
الخدم
بسكون
رفيع
وأثناء
بأجرة
محار
المعتصم
وتركه
تنتمي
المحددة
لحل
لربه
الألوهية
ويتبع
##يفة،
وانتهت
منتج
##ناقشة
وسام
يغت
مقطوع
السريعة
أصابهم
حربي
ويصير
وأمثاله
ميقات
الظاهر،
السفلى
قضاة
بالزنا
المعلمين
كفاءة
همد
##ضبة
الغيث
لقومه
التطبيقات
الادب
جليل
القابلة
متشاب
النضير
لغت
يعلموا
فضحك
ناقص
صاحبة
الصالح،
الخالص
والقاسم
##رافا
##افية،
##قتان
ويشمل
المنافسة
القتيل
الحيل
##سر،
علينا،
##بتدئ
بأيديهم
وقومه
يتراوح
ينصح
موحدة
رون
يلب
##ضارة
متت
المعظم
السيادة
تسميته
والكاشف
ضحايا
بأربع
##قابلة
وطلحة
العظ
يقعد
##ولي،
بسهم
العل
المعقول
فضربه
##أمله
متفاوت
للحزب
جازت
شفا
علوا
غذا
فيق
##وسيع
يدفعه
وتستخدم
وهبت
وإليك
مجته
علمتم
وتعليم
##حهم
وقيس
إعراب
مراجع
إنهاء
الخبير
##وبية،
عامة،
جلسة
باستعمال
يضمنه
أهد
روج
وذات
الوسيط
ركوع
نتاج
موجة
##وخي
##قيدة
بنتيجة
ورعا
فحسب،
شريط
والتمر
وصحيح
هدفا
يديك
راكب
التبرع
بحذف
يعترض
مؤلفاته
والالت
وأعد
معامل
فأقر
والجمهور
مختلفين
الغرب،
نابليون
جدع
##حالة
##سة،
##وتة
الحجاج،
فعم
المكا
##مارسة
يتسبب
تتوفر
كأني
الخمر،
العضلات
تلد
فلهم
الجينات
فجأة
ثبات
الحز
وأحوال
والمجر
أقبح
الجندي
الشريعة،
يخالفه
##انه،
الكفاءة
تنكر
فعمل
ألح
صهيب
##زعات
بدايات
خديج
فيقت
كالد
الخطوة
##لفا
استطاعت
المجلات
المصيبة
مظنة
المنخفضة
الكفار،
البيزنطي
##وحد
المعتمر
للشافعي
صيدا
متعة
تطلي
أنماط
مقبل
موضعا
أجي
بالعمرة
هلكت
الطاغوت
لعد
وأجر
وإصلاح
والرواية
يلو
##زعا
##هرية
##زابيث
صحف
أولادهم
##لندا
والليث
البكال
الطيال
بخل
##ريحة
صلاتي
عك
##بهم
تعجل
##انيات
بالأولى
توفيق
ليتم
كليا
الصخرة
أبويه
بمنا
مالها
عقولهم
كأبي
الباردة
غرا
المجادلة
الإمامية
والدا
لامرأة
بالشفعة
يعلن
لوصف
كتابته
المعتمدة
الأسود،
سبحانه،
تقديرا
مني،
الشعرية
الساعة،
حلية
الغام
بدورها
وحفص
اللغة،
سهوا
رقي
##ضبط
يجع
مسكن
طريقها
مكان،
##خها
وطاعة
والدر
وصفهم
النوافل
صخرة
أوحي
الكحول
يتلقى
جديدة،
تفعلوا
مكارم
الجهالة
الزنج
تنمية
اشتمل
وتوجد
وأعاد
فمعناه
الواهب
ملء
أفصح
وجيزة
وود
مازن
يتسع
نوعية
وأفتى
الظفر
للنفس
تواجد
الربيع،
فرنسا،
والمؤمنات
ارتبط
المستشرقين
وأطيعوا
عزاه
بالتن
لحمه
الملاحظ
##قيه،
اختصار
الكوفيين
##صلها
##يشة
تكبير
تعلموا
ربيعة،
خفية
والحي
التوزيع
السواك
وتلا
المنتهى
مدني
صديقه
ساع
##لقون
جهته
تمارس
##ياسي
فأطلق
والمشتري
أشكل
بغيرها
باعها
خسارة
بصدق
##حشاء
وضو
ذكوان
الشافعى
المسافرين
الملل
وأخلاق
الجعفي
والقتل
##ديده
انك
##كييف
اجتهد
السلطانية
بالدم
##غرافيا
توثيق
##فورد
ليأخذ
للمال
وبالنسبة
للاعت
مسكينا
وبالإضافة
الضابط
خوارزم
##سملة
##عودة
لرؤ
وبحث
البعيدة
اعبدوا
سهما
والهم
وقفه
الإعدام
بعمر
الطحا
الغلط
بإقامة
الجديدة،
والأموال
محقق
المرجح
النائم
استخراج
يخطر
ورؤ
تصحيحه
الأسطول
والثقافية
التسم
استحقا
وشرع
دجلة
يتد
وبسط
وخاف
مخير
الباقين
يقلب
ونجد
وفارق
والإرشاد
##حميد
أنشطة
##لوكم
الاستعداد
بالتاء
##راجح
قومه،
قليلا،
واسعا
والفقهاء
نراه
الحواري
استيقظ
##متنا
كثيرون
كرر
##كروه
الفروض
تعطيل
متعد
للمسا
نظري
التقنيات
##مائم
يشهدون
مفل
السجد
النواة
خبرة
لوضع
##ديهم
فأمسك
فللم
تفريط
ظننت
وحكمه
أحدنا
##نديين
الباهلي
##خلات
التعبد
الأخيرة،
خلفهم
وسبق
فكلما
ويضرب
النهج
الساعات
##لف،
غلبت
حاطب
##كها
شجا
والشرك
وانما
##انيا،
جرير،
نائبه
للعد
وبع
وفوق
الجامعية
الكاذب
الشهادات
##زيغ
إيراد
سيدة
الحكاية
يعادل
يشد
المنكرات
إقامته
فست
الجلالة
طلي
##حتم
ينشر
تسليمه
الاستعمارية
لانتفاء
السبق
الصبا
##موها
والاختلاف
احدى
##رنت
##قس
الزاد
مغا
تزعم
الباطلة
والسعي
اشتملت
تظلم
المهام
واليمين
عشري
مصدق
وأدرك
##ياه،
لنظام
واعتمد
فكت
فداء
الدوائر
##تيج
أخذته
الفعلي
وعشرة
##عاذة
رجلا،
الكونغرس
رياح
مشروعة
تكملة
وهاجر
التقاليد
ومائة،
المسر
تطوعا
جنوبا
تبرأ
حوار
وإحسان
نجيب
يهوديا
##ثام
الممن
وحبس
طريقين
##شاكل
الدنيوية
فقولوا
الثوار
وسبعون
المحمدية
لعمرو
##قفة
القدر،
البصريين
السحرة
بلق
عكرمة،
النك
العدو،
مرثد
ببلد
وكلم
الاصح
وسؤال
جمعوا
بمعروف
المبتاع
خاش
نخرج
المكس
أوف
وعلماء
رواة
لإثبات
تغني
والضحاك
واشتد
تقديمه
والفتح
فلعله
تمتع
اللقطة
مصنع
مروا
القضائية
نواة
##نكم
لاخت
نزوله
بالاحت
أقوالهم
الأعا
لمدينة
المتعلم
آمنة
والغرب
للتعليم
ترس
الفحم
وجهات
الوفد
الإيراني
التفرقة
حقه،
بالتوبة
التجديد
احفظ
لمرض
الحاف
الإنت
تستطع
يصح،
والزيادة
البسط
الإشارات
رهط
ديمق
المصلح
الشن
##فيك
انخفض
كثافة
عمق
اليمني
عصرنا
##حدا
دعائه
المكتوب
الشريكين
##ثر،
ليصل
##واتهم
تسوية
إجبار
عالميا
مباريات
مبلغا
##سرا
##طاول
الخيانة
نيسابور
المحلل
لقلة
القدوة
الإلزام
##وامر
ونح
التحريف
الورع
والمؤسسات
جشم
أمه،
للحج
وتحديد
##رافة
المحور
الخراساني
فاه
وقرب
الخبيثة
فجعلوا
زعماء
##طراف
تعامل
علم،
المواهب
الإشهاد
سرح
نواه
الفخذ
منهي
نعمه
أله
سينا
فارج
السخاوي
الراغب
وخروج
##يمه
الانتباه
الواحد،
موضوعات
معجمه
اليماني
تخريجه
المعطوف
##رهيب
جهالة
مئوية
أخطر
دخولها
ويسقط
مجلدات
فلينظر
سياسيا
وطعام
##ذوذ
##قدمه
محور
قتلا
مولاهم
غنية
التلم
بأحكام
أوسط
حلا
لسبب
وتعا
لأغراض
ساهمت
تاسع
##ضيه
للأمر
نزلنا
##كوك
##جي،
مرتبط
بلسانه
##عتان
والتفسير
تلحق
عاقلا
##ائرات
##روان
فتأ
وطالب
بشي
##ائها،
بدت
المقبري
جاب
نفلا
نبيهم
وقضاء
الحديثين
مقياس
ننظر
بسبع
البشرة
##صل،
بأنفس
سلمه
حكوم
مرحبا
حلة
ونور
المعماري
وحقيقة
نشرها
##شرهم
والباء
التنوع
فالخ
بالعراق
مجانا
وآتوا
تيسير
شهادتهم
نسا
##غاف
سموا
معق
والمقا
لتد
لتف
الأعصاب
والاتحاد
أفس
##قدوا
لأنفس
ينقلب
ومعهم
داعش
العابدين
أكاديمية
وثائق
المواجهة
للنظام
والبعض
بأب
##ذر،
الثلاثي
لآيات
مملوكة
غليظ
الغض
##شترط
كوفي
الخلط
##وز،
مشيرا
فادع
البزازية
اهتماما
اخر
نجران
أيديكم
وكتبه
التذكير
المؤسس
المؤمنات
والآخرة،
الأنصار،
طبية
هق
تفسيرا
بنفي
##فاعا
تنبت
اسمع
وأسماء
##ومن
والست
##ونية،
أرت
يجزي
يشترك
فرسان
فصاعدا
خزاعة
يبايع
لاحد
وعجز
مستأن
ارتك
عصام
عوف،
جبه
حجب
##تمن
##اريف
بإخراج
منعها
مناد
المستشار
نصراني
وتعظيم
نفخ
حرث
ضمت
الدبر
علمها
وآمن
يركز
##راص
##يتو
إغلاق
فافت
أبصر
أخبرت
اضطرابات
فزاد
الحريق
وينا
##روى
فسره
الدعاء،
##طالبة
الغذائي
عارية
ونحوهم
صعصعة
يقتلون
السرور
ذنبا
وأيام
النقيض
##يدات
وتأتي
عضد
##نبؤ
التصحيح
الأسلمي
المستح
الكردي
التصرفات
للاتحاد
مكسورة
الواعظ
الأميركية
والشرط
مشكلات
رقعة
مقسم
مباشرة،
ويحدث
##عمى
يومي
باختيار
##رقت
ثمود
الموصول
عجائب
السامية
توبته
باحث
والدة
الصحفي
لمجموعة
أنهى
المسلح
فشهد
##طول
السائدة
##وطنات
يضيف
يعاد
التنوير
ألست
حقل
##كوس
##سيات
الحقبة
بالأمس
تخبر
##طانية،
يظنون
كغير
هني
وأذ
وسهل
وظلم
الفرعية
القه
النمر
والحقيقة
ستا
متعلقا
الحذف
والعقاب
النسائية
ينكرون
تاء
سهام
الوظيف
اخبر
طولها
والدنيا
والكتب
التمليك
وأورده
الممارسات
الخت
سيتي
فبكى
مذهبهم
طرفا
هلم
النصح
لتخ
##ماعه
##هاي
بالجن
ويقبل
خلقها
يقدح
ذكري
كأم
أولى،
##ه؟
##ائهم،
الرقي
المثقف
أثرت
زكري
##ولادة
اهتم
حلفت
المتنبي
أعتقه
داخلا
##ئي،
ليؤ
وتعمل
يوكل
الفردوس
المماثلة
بطر
بطاقة
تربة
الجامعي
بيبرس
ممثلة
يفرغ
##كتلندا
رباط
سراج
وكلهم
شيئين
يمدح
اسط
##هاينة
وتفقه
موافقا
مساكين
عذرا
فصد
##زقه
الفناء
يقاب
فأعلم
حميد،
ثلثه
كفه
##طوم
##يلاند
وعا
خالص
بغرض
والعقد
الفلاني
التعذيب
دخلها
الاتحادية
والجامع
يدركه
كوس
لخط
معلقة
المنير
تنقضي
ملكي
الركب
الاستبراء
كالغ
بحضور
ألبوم
مشتركا
شابا
لولده
##وافر
وأحاديث
فأش
والأمن
##نبط
نظرنا
الفيض
وتخفيف
##ياك
ويكنى
استقام
الدينية،
كالف
إيقاف
بولس
والديه
للزوجة
##بورا
بمؤ
تتناول
برأي
الاصابة
تتحول
موضعها
افتراض
##بهات
وشق
كمثله
حملته
الخيط
لنفسك
الأنباري
التشخيص
تأكلوا
خلية
تحزن
ضبطه
لرفع
لرسوله
القبة
##فيلد
يعجل
الغلة
النخيل
إشارات
الحضارات
الأسرى
فتحها
جدول
ضو
المترجم
بدنة
قتله،
للتش
فيلزمه
تهمة
##ويته
ولس
بالتالي
الكيميائي
مخرمة
بالرجال
##صالات
أنزلناه
##وعود
سميث
الإحساس
النسيج
رومان
هوازن
المفقود
الساع
للتب
نعلمه
سني
الوقاية
النسك
##شهاد
معجز
##مانه
##رساله
الاستقامة
مشهورا
بروا
المقدس،
الكوفي،
البالغين
توم
عطا
نواب
وضا
الحاشية
وتجد
التمرد
ننت
##ثارة
القميص
البخت
يأثم
المحض
وشد
أذربيجان
المرق
وماء
يحرك
مخاطر
وغلب
تعدل
الصلبة
اللاجئين
الازد
الكامنة
باف
##ائس
أقصر
وينزل
تغتسل
التنفيذية
وأعطاه
يركع
والأربعون
##باطا
الأسعار
الأغذية
إفراد
قنوات
آدمي
شرور
شرعت
التكذيب
الاجتماعية،
الوراثية
الأولون
والشعير
نصفين
امام
مائتين
فأجاز
الغوث
المقارنة
يبذل
جذب
أوضاع
وتغير
بقلب
يمكننا
بالمؤمنين
الأصم
نموذ
نجحت
أخيك
بعبادة
عهدا
والاص
##ريغ
##كلين
باغ
تحقيقا
يملكها
الأرقام
عسر
موط
بالبينة
محبته
أبصارهم
تشجيع
هرقل
بفرض
الذكرى
السوفيتية
مفردا
السو
##سيون
جنبه
تظل
الإفطار
يسيطر
زنج
القذا
الكهر
ينسى
طبعا
اذكر
درع
ويضم
الخلاص
انقلاب
فالتفت
##هادتين
فالحديث
مطيع
##عيته
تمويل
##موه
الرعية
##عيض
قسمت
المسؤولية
اهتدى
المخصوص
أصوله
وصى
الربط
فشي
##عق
المكرم
السفر،
سواها
مخرجا
##طعم
والله،
واشتهر
مارتن
الصفار
عائذ
حسام
ترث
ابتلي
عاليا
##ون؟
السادة
يلتقي
يتألف
سباق
شرائع
أدخله
بإحدى
ابتدع
تحديدا
للبلاد
##هم؟
بالأول
والقلب
ويعطي
يتأثر
وارتفاع
تآ
نفق
##ذرت
معتمد
بعضنا
ونز
دورها
قارئ
نيف
الأمي
الأغراض
لكانت
أعتقد
طاهرا
وصلة
عتب
الملف
بك،
والاضط
بيتر
البغدادي،
مستقلا
مدته
الإعراض
بالقبول
المتص
قصيد
بارز
مزاحم
##أنا
بالسر
مباحا
وألحق
دكين
##فيته
##بوض
بعيرا
##قليم
اغتيال
فجل
التفرق
الجمرة
متس
أحسب
المحليين
خطرا
يذكروا
اتبعوا
باقيا
أقطار
مميزة
##خوله
أوجد
المعروفين
جيب
فجز
الضيق
واختيار
##رضة
تظن
رشيدي
وأداء
امرأتي
فشلت
أيدينا
فراجعه
يهي
##غاث
فيب
تنقطع
الضب
اتباعه
تابعا
المخطط
##ناعه
##ورج
للسلام
الإيم
الناطق
المصائب
ومعاذ
كمع
الدقة
ضرورية
بتحريم
السوفييتي
بطي
بواسط
يروه
وأرضاه
برضا
زد
##غة،
بنجاح
الداع
أتاك
أطال
ويجري
أزال
##حصيل
الستين
ورأس
بيا
قانوني
لمد
وإدارة
والخز
مشروعا
خدمته
ونعوذ
تروي
غرق
والروح
يدعم
فتا
الأحنف
شاءت
والآيات
مشيخة
أرفع
الناصري
الأحرار
السفهاء
والعدوان
##اتها،
وبذل
النازية
متزوج
كفل
وقوف
القدرية
البطر
##ضلوا
جلدة
وهرب
أسست
يدعوهم
اختلافهم
سليمة
ضباط
المسبب
والصلاح
الصنعاني
ورسم
للتق
الحيوي
للجنة
تلي
دولي
وشت
اختلاط
عاشت
حنيف
باختصار
تليها
مكرم
بكاء
جئنا
خليلا
الصغر
المؤتمرات
تخف
والمسجد
حاضت
ألسنة
##كوت
للقا
ونفع
##سل،
إيصال
راجعا
فئات
##راقة
##معه
مالكه
والأرض،
سفرا
الحنفي،
إفساد
منبر
وقدمه
المعهود
وشهر
والسؤال
##وبيخ
نسيت
آذ
أقطع
نقي
يضحك
##قالة
والعي
والبيت
المؤجر
تمثي
مشيئة
النعل
أصي
بقيد
مقار
الإنكلي
المكفول
سلطانا
الفواحش
##ياطة
سمعتم
مدة،
فهلا
##بعها
فتوضأ
##جهول
للناس،
رزقا
أنشدني
وباط
##باني
المذكر
يحجب
بالتد
أقاموا
المؤرخون
زائدا
يبيح
##ينها
##كرت
هو؟
وبكل
بالنون
ومركز
##طمأن
الأواخر
العابد
الره
##وسي،
تحمله
الاخبار
وصلاح
المستويات
مملوكا
زجاج
غفل
غطاء
وعاء
والنون
للنظر
يتكلمون
وأقاموا
##سية،
الذباب
##ضاي
الغفاري
بالبد
ومعها
وأمريكا
اليمنية
يختم
اجل
بامت
نرجو
مناصب
فنية
المؤلفة
المفاسد
بائع
السليمة
المصن
المناقب
عائلته
المميزة
العجيب
الحفر
وإزالة
تابوا
الكراء
كالث
لنشر
قسما
جهم
الذاريات
وتوجيه
أنساب
اكتساب
أدم
والهر
وجامعة
##لوبهم
محرم،
المعدنية
شعري
كيلا
وكيع،
سراح
يبدل
الحشرات
وصاح
الحمصي
نهيت
بواحد
والواو
إشك
نشأة
قطعها
اصحاب
التسع
فأدخل
وينهى
تاريخيا
الثلاثة،
بالمقارنة
الصحوة
الدائن
ويحل
##صرهم
شيكا
لوح
##ديد،
الكتابات
طلبوا
المتمردين
فيخ
##اهده
اقتصادي
قصائد
مأخوذة
خلكان
المصح
للغة
قبولها
##قالات
برؤية
ينتقض
فزعم
الحراري
القبيل
الثبوت
الطوارئ
##وطار
والقراءة
والزهري
المحاسن
الياباني
والزوج
له؛
قرارات
الحقيقة،
بون
يشر
تكذب
إرادته
حجرة
كراه
ووس
والأمة
الضالين
بوزن
أمورا
صلاها
زمانا
بمعرفة
##اعد
##ابية
بالشر
##درالي
بلادنا
صائما
فضاء
نبوة
الجاحظ
الثلج
تنتظر
المباركة
رقبته
قتيلا
الضأن
وصحة
ضياع
الندب
اندل
لتعلم
مدنية
العبد،
سارة
والخدمات
أملاك
الآخرين،
آبائهم
الناشئة
##صته
ونهب
سيدها
سألوا
القديم،
مركبات
البسيطة
قراب
##كتات
الراشد
والبصر
استر
دورات
لود
وبطل
انما
بديع
لوقوع
السبل
الثور
بحمل
##الغ
والوليد
##ارقة
تماما،
أحسنت
رطل
وقلبه
ومه
الألو
##لفها
وفصل
وافقه
داخلية
والتحقيق
نطفة
خبيث
صانع
وأصاب
ثنائية
لجعل
الشريط
يستفاد
جاءنا
##مدادات
والاقتصاد
توضح
أنث
أمينا
فكسر
##صيح
قائدا
الركوب
شبكات
يفيده
بتج
بابل
والثناء
طلبها
مكتوم
غلي
ووجب
بالرك
يتكرر
ووعد
انطلقت
الرجيم
لدخول
بنوع
بينهن
أختي
##غلبة
نجعل
يكتبون
واللا
الإعداد
الاستئناف
##ضوع
والرس
خيره
للعلاج
والمالكية
صير
##خذا
ماكس
ونحوه،
ينف
باش
القدح
السكك
سالما
للور
الخبث
##ذيبه
الشيخ،
انقلب
وأبد
الخدي
الخبراء
تقوية
الباطنية
الوضعية
ركعتين،
لخص
اللبس
التقط
##ويله
وأهلها
العرقية
المتحركة
##قوله
البدا
##سلسلة
تعظيما
لحركة
أغلبية
الدعوة،
بشر،
قصدا
هرمز
نصيبا
جرب
خلاد
والمؤمنون
اتفقت
الأجناس
الحاضرين
للعبادة
مسد
##ستق
بلالا
بالجامع
البريطانيين
نمت
القربة
الكليات
عدوان
ودل
##كسار
مكونات
اقتضاه
الديانات
زمنية
السكينة
داري
القع
##حمله
المتصلة
والتعاون
المعدن
قو
أسفار
يحتسب
نعوذ
قاف
للمسي
والحب
عالمي
للمسجد
تربي
المنظر
الهجر
يصور
بالمنا
ميزة
يوحي
ركبتيه
حجج
##سيل
بعملية
يوف
يعفو
محارم
يغطي
المخبر
يعتبرون
لوجد
الوف
الاستقبال
اللاحق
مروان،
إياه،
القعود
النهى
الإفاضة
وسد
##كاملة
الأقليات
الإداري
مشايخنا
فبدأ
القبر،
##بهت
ليك
الأمد
تحسب
المستشفيات
أجمعين،
كائنا
##وعة،
الرمة
##والدين
التسجيل
المظالم
##خش
##سطاط
يطبق
وجمعه
التفاضل
الضرورية
##دونيسيا
آثر
##برك
متكلم
فتنا
يناقض
فجاءه
بالمرأة
كبيرا،
حوائج
كنيته
##دخال
لأت
للموا
بالعبادة
ويكثر
يقيمون
القرعة
وحجة
تنته
هبط
##ندسين
يكتفي
بوب
حارث
لضرورة
##ارين
##مرأة
زمعة
ضحى
ويلاحظ
##عز
##كميل
فقمت
##انيف
عملك
قبورهم
لإدارة
ولقوله
كاه
وتتم
المنية
ذريته
وساعد
يضيق
##وقوا
##صفح
فلأ
لبيت
نسل
يطيق
المشاة
منصوص
##راتيجي
المتابعة
السائد
محركة
وجهت
إخوته
وأخبار
المزار
اللجوء
وأشهر
الصفر
##جتهم
والبعد
شرعيا
نفعه
البطل
الرها
حمزة،
الإجهاض
##بله
المستثنى
يخير
تدعي
أنشأت
إبقاء
وأصول
والنجوم
الأبرار
والغنم
##ضطرب
كعب،
الملعب
العبرية
الاستنجاء
غناء
ومدينة
إجاز
##كبرون
فيكت
##أنس
للعا
قتالا
وتشير
الدستورية
##ابس
الهجرة،
شهادات
الأوكرانية
وأوضح
خاتمة
يشأ
مشابه
الهنود
مشر
الفحص
استيعاب
معدان
سجوده
مراب
الخلو
وأنك
الفرص
القار
عائدا
فبينا
أذنت
##ستن
مترو
والإخلاص
تولد
الموجهة
والريا
وأني
المسير
والنظ
طرقه
الملائكة،
بادر
تطي
الاختي
فلأنه
الأدباء
العباد،
صديقا
##جله
الأقدام
الاعيان
المحارم
وستون
بالفاء
##صفور
المطلب،
يزرع
سهلة
العسقلاني
ككل
والاستع
إنقاذ
الهيئات
فحل
بالصحة
وأمن
الأشربة
فوقهم
وتحريم
يعامل
الاستحسان
مطبوع
مهنة
المحتملة
مانعا
تفع
والابت
تجن
معتبرة
مفاتيح
إيجابية
تمثال
بإرسال
لبون
التابعين،
جراحة
لسي
هين
عداه
بارزة
السعودية،
أكر
##حمه
وحما
العامري
معدود
خسائر
فسألته
وتث
وليام
فاكت
المسيب،
تنزيه
مشددة
الراج
ومعا
تفرقوا
واستعمال
مواط
نشره
خلقهم
وغاية
ظهرا
شعير
الجميع،
محدثا
تلام
شياطين
المجني
والسلوك
التمكن
الدمشقي،
يلا
فيحمل
##نسخ
تصغير
القدوم
مكتوبا
والمسلمون
ارفع
بنعم
بعيب
الفسق
مأمون
اندلاع
التكن
لاس
##روهم
ساعة،
المشروعة
أرشد
بلقب
ينبه
##طعنا
أرز
جهلا
إمرة
بطاعة
بنوا
القنية
الانساب
والمعاصي
المشيئة
بمدرسة
نأتي
متهم
يخرجوا
تايمز
##طروا
غانم
##وقراطية
لعائشة
##طنه
فمكث
التبشير
##شلونة
ويأكل
دابته
وتصح
الطا
ليب
واستولى
وآية
##كاره
فنادى
للمشركين
##روء
يخوض
لقوة
جدد
يتحدثون
##ثما
وأدعية
##مروا
انفصل
مسابقة
حارب
ذمي
نفل
الأسانيد
الرع
##باض
مقابر
بتم
تسجي
حضرموت
الوضوء،
وإخوان
الأضحى
الإسلاميين
مؤخر
الأكراد
الهيدروجين
الكنى
يقوى
فيه؛
ذكر،
صرحوا
التواضع
جسمه
اللواتي
شراح
نفعل
دوره
السياسيين
يكفرون
اهد
شاطئ
الزن
مجتهد
جعلهم
وأعوذ
بتقوى
المتخصصة
##هبط
واحتجوا
معقول
خطير
بشيء،
مسجده
مولاي
جناب
##صنع
الموالي
##يرى
يندب
عبادك
جلست
فام
الجاري
للطاقة
به؟
##زيف
نظريات
ينتشر
بالسجن
الجاذبية
الشقيقة
الغفار
محلة
تتفق
تمكين
خطه
انتخب
كردي
إنكاره
الأنساب
قمر
وروينا
لعملية
ظالما
جآء
فاء
##سما
##خلهم
الجغرافية
مسه
والإقامة
اجتماعي
المسار
الوافر
ستمائة
مختلفا
وعندهما
الجيش،
لحقه
حريث
##ساقط
وإش
لكلام
تطبيقات
##ثرات
العداء
مسؤولي
التونسية
الاستراتيجية
بالأعمال
البحيرة
لتحسين
لثلاث
ويفرق
صحيحة،
الأخيار
الانفصال
أولادكم
اجتهاده
سمات
##كهة
##ياتها
فيأ
فقيه،
مشهود
صلاته،
وبدون
خوان
خباب
ملائ
##اقبة
تصنيع
المسئول
##ثهم
والقد
الوحش
موضوعا
نخلة
يتقي
تخدم
لإطلاق
الخلفية
موصوف
وكتبت
##حتكم
الالتفات
بنور
بقليل
وليعلم
فرجعت
غنيمة
زرعة،
المبتدعة
الملق
##ليلها
الرئ
اشتهرت
ضاب
فورد
التلقي
أحرف
الرسول،
السنوي
##زويني
جيران
كمد
بابها
وبينهما
الفيدرالية
أزواجا
ووصفه
وتنظيم
وقرأت
لرئيس
التنافس
المراقبة
الأوطار
##ريدا
وأرى
الساج
خيانة
النيران
صاحبي
بوين
غبار
مثاله
مؤس
##جار،
عليكم،
السفيه
الإثنين
بعهد
وكانا
وطريقة
سيارات
كرها
والبقر
يرف
##لطة
##متنع
##صيته
##هارته
لقيام
المعط
بصاحب
مزارع
##المة
##زيق
واستطاع
آحاد
سبرة
##ائره
##المين
والنوا
تخفى
يتعذر
يورد
##برج
استبد
بدينه
الاستماع
جيشه
أنفقت
ثلاثة،
شركا
تضمنه
بالدعوة
المحيل
والحالة
تبديل
رقيقا
نكت
##باشرة
يدعوه
الاستشراق
يجاهد
بموا
##ويرية
وخمسون
وقرئ
ورح
الأيو
##يسا
حماد،
اين
زك
للدعوة
بحبل
مالك؟
الحجري
عبادة،
المؤلفات
وأصحابه،
لمحا
فأدرك
وسألت
وزنه
أغني
اضرب
والجمال
كونوا
أيمانهم
للقر
الغش
تكنولوجيا
نوره
جانبي
يله
المتوفي
##بع،
المخلوقين
العسر
بمناسبة
يؤد
ممكنا
مناخ
يأمرهم
ومثلها
بقرينة
بتهمة
التنصير
المثناة
المزارعة
الوسطى،
وذهبت
##هاه
والصدق
وقفة
الصمت
يتقون
ومقتضى
كتابنا
تأسس
بإثبات
ملكهم
التشبه
فأعرض
تقتلوا
جرحا
يقبله
بقط
لوي
الصواريخ
ليتني
لخلق
تتمكن
حاضرة
وأنشأ
تحقيقه
لفهم
سليم،
##نعه
التحدي
الركاب
الادعاء
فاحشة
##لاميذه
فشيئا
ثمامة
يتيمم
ومم
والتض
المنخفض
فكبر
محاكم
القطعة
الموالية
##خون
الديم
الأيرل
الفصح
بدونه
والأخذ
ربى
عقار
ونصه
##لحق
العمامة
للرك
الإضاف
تعميم
صدقوا
سؤاله
التور
وسلم؟
بالعقل
بدرهم
الجدول
ثلثي
##رباء
##سندر
منافق
بعمله
بثلث
قانع
##يدرو
الناف
قبلها،
بإجراء
الحضرية
ويضمن
لمساعدة
أخاك
أعرا
تهت
الريفية
##قراض
واللي
##بيلية
أحدا،
ولف
بنعمة
لمنا
إكراه
ساجدا
ترام
مقل
الصنا
الإصدار
الفوت
##يسة
والتنمية
الموالاة
حرس
ضيع
##حوه
تنمو
براون
وبات
ومائتين،
وحش
أخرجوا
صاحبكم
الثالثة،
تغرب
النواحي
كولومبيا
الحد،
فقامت
قوله،
تناوله
##تيبة،
بالبناء
استعمالها
اليا
القمة
وحصلت
معظمهم
العصبة
بالآية
فحدثني
والأصول
وشروط
تبليغ
حجته
بائنا
توط
تجلس
المصد
لافت
واستعمل
يفلح
ونظيره
ألبتة
##لياف
الحمير
##جهز
كلو
##نام،
رسال
بكتابة
نوبة
بالمدينة،
وطبقات
تقتضيه
##ربعين
الولاة
وحول
وحماية
##صص
الكذاب
أعمارهم
خويل
وسورة
وتحسين
##لأ
فيرى
أنكره
تنشر
ينفعهم
مصنفه
##سوم
الآش
##ياتهم
محبوب
الانتقام
واعتقاد
التفسير،
طولا
##كيل
وإنهم
##يتها،
المغا
فاعلا
واقعا
بخر
قرضا
##حدين
أبوها
عدوهم
أكدت
للمدينة
خلفا
ووهب
وعرضه
وسافر
ديون
الحملات
يقوي
فناء
قاذ
ميش
وذك
المعصوم
باشر
عمله،
حكمته
المطار
بسورة
مؤكدا
بالرجوع
دواب
راي
مخصص
التها
فإنكم
##رضاء
##دهن
يسوق
##قلا
##ثة،
الرقص
وإكمال
يقتله
سوءا
ذنوبه
##أة،
##يتام
يؤجر
تبعث
والألف
##رع،
مصيب
فاعبد
تلقاء
وفعله
تعالوا
ينك
الحجج
زوجي
الأزمنة
البلدين
مصدقا
الأرجنتين
##سمها
الاثني
والأج
التعارض
جده،
جرج
الفارق
##وجات
ورتب
قاصدا
غلة
الحيلة
الاتباع
ميكاني
جهر
مفي
وزم
حدثا
أعلمه
ويتأ
موصولة
نوبل
المحدود
وسألته
##يوم
الجائز
الغدة
والأفضل
تحط
اقتداء
عفان،
وحاصل
ألت
يعص
يتوصل
تقاتل
لتنفيذ
وخي
##عاقة
أجناس
##وكو
عوده
##ابيح
والجزاء
متجه
الجبلية
جاري
فكون
مخصصة
البرك
وسلم؛
فتأمله
بأحسن
الضاد
عشرية
مؤشر
فزع
البخل
نفسك،
##رائح
الحارثي
الزبيري
ببساطة
##وقد
الخلاء
والحافظ
##بينه
##جم،
فسجد
التقرب
بخروج
شقي
##افعة
عمره،
##فقون
وصله
بشخص
اعتمده
وأبناء
##وجيهات
والدع
القان
##ائد،
المؤكد
فراق
المئة
ولغ
الاستث
##يعاد
حرير
أثرها
بالشراء
نصيحة
نودي
يملأ
وتبقى
تتصل
ثلاثية
وشعر
مؤذن
مصاد
مخي
ملحق
توري
وهيب
للخروج
ونج
##كتبة
تخلق
صقر
##وقعة
بأسر
والنخ
وبينكم
اك
وللت
##رعوا
تطع
##رور
للماء
يقض
الغزاة
فالآ
خلفاء
##ظيما،
العراقيين
وبحسب
وتجب
##بوأ
تعطى
##از،
والخلا
قيرا
الدسوقي
الثروة
الخضوع
رطب
فسا
##ائق،
وجمهور
متوسطة
إيضاح
ألفي
رحلته
الرقمية
##قاني
كبري
التدري
وأعل
المعنية
إثما
البهيمة
بوم
أوساط
معلما
الآخذ
التوقيع
ورجح
فاشترى
حلاوة
شاء،
فيغ
وتشت
والمواد
فاختار
والقانون
الروحية
وأصلها
ويلزمه
ذوى
لقط
##امله
الزنى
بيعت
##وائده
الانفراد
رئيسة
والطريق
وامتنع
المدار
بركات
سرت
مبالغ
ويفت
##وجها
باث
أولهما
حيوانات
##دح
يكسر
لبسه
ويجاب
لأهله
بإل
غضبه
خن
لطف
العرو
البأس
استراتيجية
يقدرون
قيود
الوقائع
يزالون
حاكما
ندم
العتب
##ريمه
الوافي
التحلي
حسنة،
سبعمائة
##واصلة
بالقيام
المعني
يصيبه
يظلمون
والاستغفار
التغييرات
وقواعد
##تيقن
بمص
تفقد
تبكي
وأخذه
وعملا
وآداب
تهتم
صادر
والليل
##عبان
البيضاوي
ودور
حبان،
فحلف
الأموال،
بيروت،
باليوم
الضياء
أون
الصنائع
متعا
والدراسات
الورم
الهامش
##رج،
ولهما
المقربين
للشباب
الحضاري
##لكترونات
استحسانا
انضمت
البحت
##وفيات
وإسرائيل
ومجموعة
باطنا
المرحوم
ثانوية
##كوب
##صنة
المعينة
ردوا
جهله
لآدم
تشترط
كتم
وعامة
الاثر
مثلك
وبينك
بمنطقة
التأمل
الحموي
كارت
الغيرة
##لفون
يتوكل
##هيلي
لكم،
أحاديثه
أعي
والمأم
المنفرد
المشتبه
أساسيا
رآني
مخصوصة
إضمار
ذرو
##طباعة
التأسيس
متخصصة
##طارات
قرأها
كيان
واقتصر
الخشوع
##طهر
العينة
مائت
يجتهد
فألق
وانتشار
المحرم،
الرأسمالية
الظهيرية
##هتمام
ومض
حاصله
##على
البز
فالإنسان
خلفية
مرتين،
##كبات
فازت
أوثق
يتلو
انتقد
حقا،
البارزة
كريما
أبرزها
بأعلى
إبن
فيف
الفلا
الإحكام
وعص
##بعيد
عشره
بأس،
وتأمل
خراسان،
الغبار
المحلوف
##ونسون
الذكر،
جانبا
امرأة،
الإبل،
إخراجها
وختم
عبدالله،
مبادرة
البور
للقتال
ونسي
ينظم
تخطيط
بجائزة
ووافق
الرضى
##ودين
##باش
بتو
وضوح
بالشهادة
الساحر
ردة
والجهل
أدعيةطباعة
وصدر
الرقابة
الحسد
المعاهدة
ضعفا
لبابة
##اقات
فانته
##وهام
##ريعته
الجبل،
حبيش
أفاق
بدو
الميت،
احتياطا
المستعمرات
تحي
بالحكمة
للعرب
وتركت
قضت
بالقص
والنكاح
العملاء
فبما
اللفظ،
طهرت
الطفولة
وقبول
الزل
وتعني
القبلة،
صحية
المناسبات
بالآخرة
منذر
واز
##قتك
وصورة
والبناء
الأكبر،
وامرأ
غيبته
قود
##طاط
والسلطان
تتقون
ريحا
البروتينات
شيد
مصف
ووسائل
المودة
الجغرافي
اعتمر
لمنظمة
المحتلة
وألقى
وأرجو
يستدرك
مدبر
وقيمة
العاملي
كافيا
حكيما
وتعب
##يتنا
##رحيل
بألفاظ
توليد
الساحلية
المكسي
محدثة
راء
التواب
بالرق
مجمو
ذريعة
معذ
##فيده
للتم
النامية
القدسي
المكاف
الكثير،
وذي
والامت
بهرام
الحديثة،
وجدها
الأثرم
بحوث
ضح
والاس
##كان،
ومعت
فساده
بالأندلس
حفاظ
والجبال
التهم
للمشاركة
أرأيتم
بوجهه
رؤوسهم
زوجه
الضامن
نكح
النقشبن
الإط
##عتنا
شهر،
النوادر
كاتبا
ديل
ظواهر
أيهم
أهو
إخوانهم
شفي
ولعن
أحبه
فردا
حسنه
والمض
المعجزات
قاتلوا
طفلا
بدلالة
##اق،
بالإي
الاحتفاظ
الميكر
سيناء
##ماتة
المغول
مساو
لدن
امتدت
أرجاء
الإما
والأطفال
تحبون
نتج
بظهور
تاي
المبيت
الأفريقي
الوثنية
وكيله
سلطنة
فني
وأحل
الخطب
ودنيا
عقلي
ثقافية
وأبعد
##أته
##هاهم
بعثني
ويدعون
سكة
والعرض
سيادة
أنت؟
شكلا
سهو
محرز
الرائحة
##سوخ
##سموا
##واتيم
النجاس
العنبري
##ألهم
##رفته
##ذرية
##بدة
فالحكم
بالأش
التفاصيل
والمسألة
تبن
سلبية
يأكله
بالعذاب
المضطر
البلخي
تمنح
يتزوجها
كالآ
الزمن،
كالصلاة
بئ
الخصال
ثلاثي
التعجب
مفصل
يمنح
الراحل
سارية
##صلات
##بيهات
البارد
الموضعين
سمة
التسلسل
بالخبر
الصباغ
##قتصاد
##حوش
وصلي
التطبي
سواه،
آتينا
وصر
يمل
تعهد
وأتباعه
بستان
الجرير
بلجي
##كتشاف
##رسي
##ثمر
الحصى
لغو
والتسليم
كمر
الصابرين
##حنث
بجل
بمعدل
يستوفي
الأسير
تعتقد
الشهرة
##تابك
ليظهر
متطلبات
عقلية
جلود
ويعني
خطيئة
التعاقد
سرج
كريمة
##ديته
##ويلا
مسكر
للمريض
الأصفر
بثوب
وستمائة،
القلة
##بتنا
النسوية
بالحجارة
الراحمين
أسفر
مدل
مليح
وأفاد
مقصوده
بتب
وبالف
حجر،
المهاجرون
وانح
معدن
وقولوا
##صاله
ونوى
وحلق
والسماء
بجنا
الخرقي
بى
لبقاء
يهاجر
##هلال
يستحيل
ديانة
الشرقية،
##كفير
بدعوة
أبل
شارح
فند
أقم
توف
غرر
فندق
العك
ولدته
تعويض
يندفع
لأولي
ظهوره
##شفة
الغطاء
لنحو
يلجأ
فحصل
الشمالية،
الزواج،
لتعليم
ديوانه
وزوجها
الخولاني
إسطن
يبسط
يجعلنا
الثمانين
صاعد
بلوغه
خفف
زمي
لوق
##هيد
اللتين
سيوف
وشرف
بالسوية
الشواهد
خلوا
ريد
##ضوب
المظاهر
وعط
ذكور
##حاف
##ضعة
الإطعام
وبلا
بيديه
بقلم
فادعى
أعينهم
ظهير
##همان
مائة،
لتج
أفندي
المقدمات
صنعة
تسيطر
خرب
عرج
كسبه
الفروق
ذكرهما
عرفها
المكونات
المحاضرة
إجاب
ريش
بنيه
الزجر
فرنسي
##سكرات
قادرين
تذبح
والصحة
إذاعة
##ضيحة
المعمارية
ندبا
##ذاذ
معيار
ستار
الطيبي
##واما
##ضمون
والخي
للشيطان
##ضرت
المرد
والمجنون
يسد
فلله
الكرخي
##لبسه
تأييد
كبائر
معذور
الشفق
البني
الاصول
فتكلم
لعلك
بالمثل
كليهما
ففى
كتيبة
يضي
##مول
وأوصى
إنهما
لتغ
##دادا
##صاديا
بالقوي
يوشك
فشرب
ويقضي
بصفته
سكون
##ضاحي
والأوزاعي
##كايات
عيناه
##تقاء
والربيع
ومسجد
قرارا
ولأبي
بالمدرسة
##حمي
يستعين
تنبيها
فلذا
##جارية
المساعدات
القتل،
حربا
الأردني
الكوم
متاعا
فعل،
حرز
نبيكم
يرتكب
الشبكات
وعرفت
وطنه
واتبعوا
الكار
وسلموا
الاحاديث
أفمن
أذنيه
ادخلوا
المساجد،
اللحوم
دارت
طوعا
القزويني
للرد
##بوبة
فأوحى
التميم
الجوف
ولحق
##مام،
ودخول
والخلق
وأحضر
ماركس
الأبوين
تراض
ذها
رضع
أوجبه
الباع
الرقة
الكيفية
وترد
##صلب
وصلا
تناسب
جاهلية
الرئاسية
وأظ
##خلوا
مكية
الأزد
قدح
##شتر
التحديث
وارثه
وسلوك
رأسك
أفضل،
المبطل
النخبة
##مبراطورية
##امير
وجرح
بعدا
الغراب
لإزالة
##جعلها
##وهما
وعذاب
فالحق
مرافق
وفاز
المختصة
الخفيفة
يؤدى
الساعي
اخذ
شره
##مامات
بهد
الزاهرة
##ضا،
الحسني
الغربيين
عاقلة
يلقب
المصدق
عبدان
الزراعي
ينع
المدثر
يصاب
نستعين
الكمية
المكتبات
##كلما
##رسات
الضبط
مشاهير
والنشر
وقاتل
##زنة
##روت
تعاطي
الإبهام
سلما
شفاع
عراق
الاحكام
المنار
يذكرها
فليصل
الكرك
الفاسي
##خبين
الجسيمات
##روسية
##أتون
جميلا
وبهذه
شئون
القبيح
الرفض
ويقر
تعصي
يتيسر
فعله،
بحاله
صواريخ
وباع
##بغا
##ثلي
البديل
قدوة
##مامة،
اتحد
سراقة
مستقبلا
لزيارة
لوحظ
المسابقة
أنهار
بارد
زمنه
بالشك
الإحت
تميم،
لجأ
والبغضاء
والرجال
القفال
وسجود
بمذهب
##وديوم
الحاكم،
ذؤيب
يباشر
ويبدأ
وتمر
وجامع
اللين
المستنصر
وقتله
برشلونة
والاسم
خلافته
حضره
اعتمدت
##مهم
الدير
##ضاجع
نعمته
كرسي
الممتدة
الافتراض
المفردات
##ذاكرة
استف
بالتوحيد
ارتحل
المفاوضات
نوحا
وأربعمائة،
السياسية،
الشاهدين
##وزان
الشيء،
المفتاح
،ف
كنائس
##لخص
##غين
وأفعال
تقارب
أبقى
مستد
والحرب
البروج
فسمعت
مراك
نان
والارت
المقبل
أسنان
بجزء
سعاد
##دتها
##جئة
##تمعة
عاشر
الأندلس،
الملتزم
البكالوريوس
يتقبل
الحكومي
يبالي
إمساك
والسياسة
اليقظة
الانسحاب
قبضة
ماء،
الرموز
صداقها
إنجيل
تعقلون
فهلك
تشد
راجعون
قاتله
الموجبة
فبايع
الغزل
فالذين
ووقعت
حواشي
مفض
وقلب
وسخر
الهرب
بالحياة
خصص
مسيلمة
##كم؟
الفير
يستمع
ترتي
للجماعة
يوافقه
كلمته
ضرا
فيعلم
الفائق
لملك
وتمام
القيصر
يلزمها
بناها
الأهم
موعظة
الإقدام
##بتر
ساعدت
ويلز
تبحث
ومنطقة
فتست
##زلوا
مستن
تصب
إعادته
بائن
همه
الكافية
يعنون
مضاد
ووكيع
الارب
أعدائه
الباطل،
منظر
##ونى
وأبلغ
متما
الحجرة
نشهد
امتصاص
##تيار
نعيم،
موقعها
،وال
بظلم
منقول
وجلال
وسعى
مال،
لجماعة
سلطات
تبي
##وطنين
##ابرة
إعجاز
##هاجرين
واعتبار
انفراد
انتفى
البيزنطية
للمرء
حيدر
فتوح
وأخيه
الفلسطين
الوجد
الانش
البر،
وتأخير
قضيته
##وطا
وتسلم
قدمي
مؤجلا
والسيد
المنتظر
عميق
حياء
العلمية،
سمرقند
يجامع
عضوية
وأكثرهم
التخريج
الرأس،
دفنه
الكناية
وحكاه
الزمنية
مقعده
صاروخ
المتنوعة
القسري
الغين
للعهد
زيادته
بطعام
ثنتين
مطل
نشاء
##ظرا
تأثيرات
فسق
بقتال
تيقن
وقدمت
##ريقية،
الانتخابية
##صيد
فيقتل
الطفي
الفيلسوف
اعتقاده
مديرا
مولي
تشري
خطابا
دخله
الأصوليين
وإنشاء
وللع
فعلته
بالنكاح
متساوية
سوط
ضامنا
الندم
وتوفير
##بتان
أجري
حمده
والصلة
يلتمس
الغربي،
فريقا
شابه
##رادا
النقي
حيثما
أرباع
دماغ
صمم
##خائر
السبا
وإخلاص
محصن
تكفل
تخزين
والمعاد
الراهب
مضمومة
لوازم
عصور
مكره
الحليفة
بالسجود
أرسلان
بيوتكم
ترجعون
الأولمبية
السول،
##وموس
متبر
مجهولة
البدنية
وعمره
أظنه
ديز
وكاتب
بعدهما
نفسي،
والثواب
أجرته
فرحون
##حج
المغيرة،
والمحدث
ويتجه
فصاح
والجر
والياب
معاوضة
دعوتهم
السنوية
##خراجه
وهذان
والنبات
عديدة،
طبر
الجوائز
ابنك
القبور،
البشرية،
قبضها
يثرب
بروتوكول
إقبال
العوفي
فأغ
##ضعفين
خلقك
التطوير
العاص،
##ذت
وسجل
حملات
##كو،
لخمس
أنكروا
يرجون
السمو
الردي
الصهاينة
وإيمان
لقصد
##شاور
عادي
وحاول
##وشي
الإلحاد
والخارج
الاسلام،
أسانيد
صعبة
حادي
يأخذوا
تدخلوا
الجلسة
وعامر
مسيرته
بشهر
الاتجاهات
السبعينيات
الموجات
عيار
##شده
الماد
آخرهم
بالعديد
تنافس
الثمن،
أأ
فهرب
##وانئ
تنوع
للإيمان
جريان
خياط
لنس
##امها
ويسر
ومنعه
فسكون
ويتع
##صناع
متخصص
والنف
الحرم،
جوفه
الشاطبي
رطبا
البروتستانتية
بجر
سمو
البذر
الزه
تمشي
للتك
أنت،
خالدون
فيج
متزايد
بهامش
تفكير
الشعبي،
التكلفة
مرادا
قتالهم
أكملت
وفسر
##سبات
الزا
وفضله
##رته
الحسية
##مورا
##نجس
آلاف،
بكونها
##بيلة
العقيقة
يتصف
المتشابه
ومشي
زوجتي
سلمنا
هاشم،
فوث
والميزان
أوقف
عامدا
مقيدة
كتبنا
ديك
لبعضهم
##ذق
والرسل
##قاص
لإبراهيم
وستة
بثمان
المستمرة
علته
جلده
قرأه
وحينما
تمرد
الإشعا
الاحتجاجات
والعل
والخل
##وازي
التحقق
دينها
للأخ
واعترض
طلاقه
المظهر
بالوضع
ونوع
يسكت
بتخ
شرعا،
##يوبيا
العباسية
الستينيات
مبتدع
صقلية
الكراهية
##باكات
يجادل
##قارات
فتوجه
للمق
فوقعت
الزرقاء
المخلصين
ورائ
وأعيد
شيب
وسعة
وصنع
مخالفته
حبيب،
التحقيقات
وتفرق
وكبير
ينفسخ
لتحرير
شهدا
ترابا
هالك
##ديرات
السختي
وحيد
بمقت
التعصب
##رابعة
عادوا
مسبقا
الهادئ
وتابع
الوظي
أعمالها
آتاه
لدينه
يطيع
المكونة
إحداهن
سماعا
لنت
فأهل
فحسن
المكذبين
تذكرون
أبعاد
زور
عظيما،
كليات
##غلاق
##ثوا
الانقلاب
يرس
معار
فلقي
##ونة،
تحلل
خطايا
مطابقة
سمك
وأولاده
الصدا
الصلاتين
بيناه
للتس
##زايدة
صحراء
يردها
##ربة،
الغائط
والتجارة
تأخذه
نعمل
مضادة
نوعه
مسيحية
وضوءه
المحصنات
صاغ
عجيبة
الأجن
واذكروا
لعنه
الحاجات
المقتضي
موجبا
القطان،
أفع
##وسم
بعمرة
##وار،
حقوقهم
مسؤولا
غفورا
الهدايا
مادي
تعال
مستقيما
دونهم
خاليا
##ثارا
والمحبة
بالزيادة
فتق
مؤيد
لإصلاح
المقدام
ينافيه
##أييد
ومحاولة
توقفت
جرد
##يني،
حرمان
فخطب
فالأصل
موقفه
خشيت
##سيوم
بمبلغ
فاعتبر
فخرجوا
ونادى
لنفسي
المقطع
##فيا،
##بوح
حيي
الاستحباب
بحج
بإقرار
واتخاذ
الخصوم
الكرماني
إين
##زني
مقيدا
المصانع
إخواني
عنوة
ويختلف
ويهدي
مزرعة
مخلصا
رضاع
##ضائه
التوتر
الفوضى
##انيت
المعجزة
المجن
والمعتمد
بكلمات
بيدك
همدان
ويراد
العلماني
لنبي
صحبته
لمص
##قيته
لأحكام
وشهادة
لحزب
اكتشفت
صمت
وأصح
للدراسات
وبعضه
معانيها
ذبحه
تطل
البستان
##تيح
يزور
حضوره
بالتشديد
أسباط،
غربا
مليا
حفظها
أمواله
بوصفه
العلوم،
مرسوم
المعادلة
يطف
##بداء
الدلال
المساء
السلف،
جواهر
فأخبرته
التزويج
بإسقاط
الكعبين
الآونة
اللوم
أعدت
المفوض
الأساطير
والأخبار
الخرطوم
رابعة
تلميذه
##سرة
والتغ
قلع
طفي
النوم،
##مع،
المستعمل
التقية
بتسليم
حقيقتها
التشيع
والنور
فجئت
ومحبة
والرجوع
##نا؟
الصق
ويلك
والمرا
بأسباب
المغاربة
مضرة
والمنكر
الإفراد
لتنظيم
جزيئات
المجتهدين
أرجع
بزيارة
حمي
شوك
غداة
فاغفر
استغنى
##بت،
وشخص
والدولة
بنائه
##قسام
##خرين
والمؤمن
والتوبة
يستدعي
##نفية
الأرباح
قراءتها
شرائط
نضرة
رواته
بولاق
معانيه
رقية
فيلي
مماثل
##زية،
التعدد
والتنا
الأدب،
محمية
الطائفتين
جائز،
الإعلامي
##قاقير
والرضا
للفي
وموضع
وسبعة
انحراف
##ياحة
الدارقط
##كبروا
فطرة
مرضا
الحلواني
الكويتي
##ناطة
للفن
تكساس
ويؤدي
القزاز
للجن
الكاري
الحاجة،
##رجاء
لتوفير
أطلقه
تضمين
فيحصل
الفائز
أقرت
يصط
حاله،
فرجها
أوحينا
يتش
##تقوا
فمضى
دوق
استعار
بموضع
تبدي
يدخلوا
بالصوم
الفلسفية
كلتا
فيحتاج
المبني
الكاهن
وظيف
ويؤكد
وآخرين
وواجب
البربر
رباع
الأقطار
ولابن
فالمع
المعتبرة
ذوو
الواقعية
العشيرة
خلون
##شستر
##ئمة،
الائمة
أيق
##عم،
للمساعدة
فاضرب
الديات
فاتته
الدولية،
بلى،
وقبله
خبث
نعي
رأيا
الشمسي
سودة
البشارة
معاشر
يتك
الانبياء
##ؤس
والصد
الحاضرة
الخلافات
وأسأل
واجبات
##كانيات
##؟؟؟؟
صفي
عبق
قمع
وصيام
##ورثته
خشبة
الحميري
الرحل
الرسل،
مقصودا
أشرنا
ثوابه
والوز
معبود
متبا
##غلوا
وأسد
البطي
الإبداع
وجه،
استثمار
مجيد
والإد
وتركوا
القاطع
##رويه
شمالي
أجده
تضاف
البرازي
والعامة
البقعة
##صفهاني
لهيعة،
استئجار
الهما
للفظ
قلته
اشتكى
القلعة،
منكرة
وشرك
الأحبة
محاضرة
مدلول
الابتلاء
الثمانينيات
##ابقات
وأسس
سترة
ألفه
ويروي
##هوات
وجرت
الغنية
السيئ
فخذه
ونسأل
الازدي
وطبق
الأشاعرة
وعمله
المازني
إراد
بذنوب
عاهد
##ماكن
##حده
المقيمين
الصالحين،
وسنده
والهدى
##لكة،
الحنيف
يتلى
يترب
الأيام،
لزوال
##زاي
وجدتم
لبنان،
##راك،
ليسا
زمنا
لدع
أنباء
##بيط
للرب
اللاهوت
حرمته
ويسجد
المحاصيل
نذرت
أفاض
ضريبة
يخصص
##مارا
##حمود
والأه
تصني
عادية
أخيها
وكأنها
اللقاح
صوف
##انيها
ينجس
لأمته
لعلمه
لتعزيز
نموذجا
بجز
ثبو
أوتر
أبط
الدارين
المحتوى
بحقه
ونظير
بعموم
طهران
أؤ
والتوحيد
تكف
##صرفه
##زدلفة
متعددة،
قوائم
مروي
##كائيل
والره
الدرج
يجئ
وسطه
##كتها
وآت
المعترض
القصائد
خلص
القرافي
فافهم
##زيا
##ذذ
الأقاليم
وقرىء
النقاب
الروابط
للبي
وخش
قتلته
والكبير
سكنى
الكندية
ينفخ
##جازات
صادقة
وند
رأوه
النسائى
ويرت
المساهمة
##راتيجيات
وكسرها
أشرت
عير
منفص
أمتك
النصرة
نتحدث
البصرية
الاكتشاف
الحريري
زائدة،
##نشاق
وجزاكم
رستم
وطلق
والرم
لإجراء
خاصية
نقصت
فرده
مريم،
تقتصر
للرئيس
فانهزم
كالط
مقداره
الأوت
بالصدق
السال
يقلد
##ويع
المحراب
العمى
المشترى
فسادا
إثباته
أأن
ضب
وأجل
يومها
انتصر
المواقيت
ويحسن
الهولندية
توي
مادية
القمي
##يسون
الوريد
يتمنى
اللذة
ولكننا
رجم
رجعة
وصوم
والدفاع
خصوم
أمثالها
دوما
##روب،
بشرية
إفراز
رفيق
لرد
وتوزيع
يعقب
معها،
الوعظ
فعرض
##زامن
الجانبية
##لكية
القصار
بالدليل
خضراء
للام
الفشل
الطباع
الرابط
احتلت
خالفوا
خيف
الشامية
نصرانيا
راو
ووضعت
مزيج
فيقدم
فتجب
الانضمام
إعجاب
موجهة
قدرات
أدل
المعدات
قضاعة
ويبطل
تمي
يشرح
##انج
السلب
وسالم
بخراسان
بالأب
جنسية
القائلون
تلقت
الحيات
الفريا
تعقب
##وبرا
البيئي
خاله
تطبق
لعبده
تجرى
##حدي
لكني
##فنه
أغلق
حضرته
ذروة
كشاف
مبي
##قد،
وعلل
##جيج
لثبوت
مخلصين
سامي
قهر
فيتم
التكاثر
ومجلس
نظائر
الانتداب
الإشراف
يقبضه
##ونكم
استج
تكلموا
يكرر
استبعاد
ممكنة
المحمود
المهمات
تشغل
موسرا
وغضب
بالشعر
التلفاز
وكلامه
بأحدهما
بفع
تخلص
لظاهر
##يض
##بيبة
أوم
وضعوا
فاتحة
الإقناع
##تهيأ
تير
يقا
بأصل
بقرية
عمليا
المناق
العثمانية،
تبيين
هواء
##ليته
##خر،
الآفات
الغداة
توكل
ويشرب
سجلت
فريدة
لبا
بحجر
يحمي
جاهد
الفاع
المنظم
وفاته،
تستند
##ناعات
سببها
التفويض
وفاقا
والياء
السكيت
إعتاق
روك
المخصصة
أوان
##تبين
يعقوب،
حظه
تفتقر
المقطوع
شارب
##نعا
الممالك
والوقوف
التبيين
الاول،
لأش
يشاء،
سمحت
الصغير،
الأكابر
فحق
أيكم
##بوهم
##قطا
محفوظة
أشق
العالمية،
##طمئن
هذيل
الطبيع
تحديث
تكفر
الزوج،
الهدنة
##السيوم
البديع
ووثقه
منحت
والرف
واليه
الشجاعة
الكوا
وطرد
عياله
نهائيا
الاك
بحالة
المحجور
مفسد
الجراد
إليزابيث
أقامت
والعباس
تكمن
عباده،
محاكمة
لتعذر
##جموعات
الخاسرين
هون
##ترة
الحزام
الصعود
الصنعة
لتعلق
وخوف
ملعون
مخلوقة
المعراج
والتصرف
مصلى
للجنس
بالطبع
نيكولا
القشرة
##كتوراه
يؤول
أتاهم
القبلية
للشمس
الإقالة
ويقصد
فأخذها
يثق
تسلسل
كاز
##حنة
المخصص
##لهي
الأمري
نظمه
اليهودية،
الأهلي
##قدمت
المناه
فبأي
للصائم
بتنفيذ
ففع
يخر
أيتها
ومخت
بحقيقة
موجبة
الحديقة
حاذ
المجروح
مستخد
نفقتها
اقتضت
اكتفى
بنفسك
استقرت
أشت
##طعه
التحدث
ضربات
جذع
هاجم
زريق
والمم
##جددة
وصولا
الاغتسال
المريخ
وعهد
##نتا
والمقت
مؤنث
والدتها
المواضيع
فحفظ
المنتشرة
يرضي
سواهم
مستقرة
جدران
المخر
النوى
الجولة
الجمار
المتهم
مؤكد
إلهي
طبعت
يثاب
الأوروبيين
جولة
حفرة
##ئتها
ماز
عادات
راوي
يسألونك
التثنية
أفقه
بخت
##فح
المحكوم
نسك
الفترة،
السفير
##مرقندي
##شال
الأشياء،
يدبر
آخره،
ألفين
التنازع
التخصصات
بالديار
جلا
التسا
التقاط
الذال
ونعيم
محلي
توظيف
بخمسين
##ئف
البو
الوع
والمؤمنين
ليقوم
واستخلف
بجعل
أساطير
الموضوعة
ضال
يطي
##افح
ولايات
##وسعة
تنح
تثير
سمت
طرفه
فمش
كمس
التلبية
واثلة
الثيب
اختصارا
امتلاك
الأنثيين
بصور
أصنع
الانع
الترمذي،
منتدى
الموسوعة
مضمونة
تسمي
مودة
##فعته
بمحل
للمالك
المنسوب
الموحدين
غذاء
فيذهب
##يدز
##نسى
سيفا
ودية
زعمه
المقتدر
مؤقتة
مناج
تعكس
بلدا
سنقر
أدوار
والده،
الأحرف
النبوة،
الكهنة
تصرفات
لآل
أجازه
تين
عدي،
##سح
##جبني
متضمن
متقدمة
المشبه
ربعي
##جميل
يقتص
وظي
بزعم
تبدل
صرا
فيعتبر
والسل
البتر
تحص
الاستيفاء
وصبر
##نزه
فيثبت
ويمن
تعريض
فأعت
بالإشارة
عيال
##ديمقراطية
##رزاق
المخالفين
صوابه
##عوبة
والراء
ملكه،
أتع
ذاته،
الأدوار
##ثن
والعلاج
قتلى
وأكثرها
سمن
مفه
القعن
ويقف
استوفى
وإف
بعضهم،
##رقوا
ورغب
أصابك
المجلس،
تسميتها
سجدتين
زمام
شرار
##فقة،
لتست
حالته
للحسن
التأويلات
تجعلوا
مباحث
قحطان
أنبيائهم
انقطعت
الزوجان
الصومال
والمصنف
مؤقتا
وهبه
الطلا
يفوق
الجهال
اذ
وكرم
الأطفال،
السكة
##يلندا
##غيظ
الرباني
الخزانة
الحلقات
خفتم
مهاج
فيروز
الموجه
بالفارسية
فأك
ذكرناها
##عب،
قتلها
وتعرض
##لسون
بجير
الفرنسية،
والثلاثون
غدر
وألق
أوها
يتجر
الجمحي
صنعه
محذوف،
برت
يعكس
##دامات
الأعور
الموجة
ركعتان
اندلعت
مظلم
تنب
فملك
مطي
##ليج
وهدم
بقيمته
والنحو
##وطنة
وبدا
والتقريب
احتياجات
##غنية
##ياخ
أنتج
الحكوم
عيدا
السقف
##ادث
فتزوج
والجنة
الإيضاح
للشركة
ومرض
استطاعوا
المرب
العجوز
ليعرف
يسري
لينت
الاهت
مجهولا
تعريفه
إزاء
فسمي
كادت
ودعوة
##وين،
##ضرار
ويصف
وتصد
ودراسة
بهذا،
فصلا
كأحد
الزركلي
##يما
الشو
الرئة
الخوارز
تحذير
##كيه
المازري
للسيطرة
نلت
##ئام
##فاقه
تشبيها
الأعوام
فرضية
الشهر،
المراتب
الجسم،
الاسلامية
شبيهة
وراجع
##ملها
بالحد
الجواد
أقاربه
فكلم
الجمهور،
##ولندا
الإزار
بمفهوم
صدري
وأيوب
للثاني
سيرا
##يلاد
##ووي
أموات
فإلى
##جزئ
وضمان
الرسالة،
الشرط،
نجده
تميزت
واجتناب
خويلد
سلو
ضحك
##ينز
أبيح
##سبانية
##حادي
وسطا
تنقض
والطرق
##اريس
التين
الرقاق
جاءتهم
بالمص
رئيسيا
المحدودة
المهارات
ثانية،
بنسب
محركات
الخطط
الحيوانية
مطال
وتنفيذ
يجمعون
هندسة
هاي
وألمانيا
الجلي
فتش
فعلوه
وانضم
بسببها
توصف
اللوحة
والخلاصة
##ميل
وأبرز
المتف
وأنعم
معقدة
وفائدة
تسبيح
فحضر
والروا
وجوهكم
والباطن
ليشمل
أستاذا
كوني
##ياغة
والأو
##كتم
فليكن
أصابها
الرؤساء
تلميذ
كوين
الأبر
للوكيل
##حولات
تنافي
قلوبهم،
أموالا
##نباط
##ثلها
##جدية
مصم
مصاب
الأحبار
أطلب
أدا
##رقا
وقائع
للمعت
تجعله
فبان
الجاهلي
##خطأ
تلقوا
بنته
بالباء
ينوب
الاستسلام
أنفقوا
##خالفته
مفارقة
المكون
والشرق
تعادل
للحال
##ونسو
ثار
والام
##صفية
السياحية
الاسم،
كفيه
ولوا
يستأجر
نقش
اليمين،
عورته
فيضمن
##فسكي
##دى،
برأيه
والحرية
الدهون
تاجر
العذاب،
##كروس
##وحيده
رفقة
كوي
الحسب
والنقل
تغيب
يضطر
المبتدع
ندا
الأمعاء
بالطعام
للجز
الدواد
والمف
ونهي
بقعة
سيط
اتقى
الصحبة
يصليها
رسوله،
تشكلت
ومواضع
والشعبي
وعضو
##ضيفت
وواحد
نافذة
الفلاحين
معالج
البقا
الفئات
##سران
كيت
##درائية
القوت
فالد
المحصول
فرحا
مأجور
سويسرا
الأنباء
##قران
القصيم
الاحتراز
التمكين
حياتنا
ونستغفر
المنزلية
صبروا
هاري
الحور
القوق
الشمائل
مقاعد
أسرته
المستخدمين
طاهرة
##روش
##رامطة
قتل،
ويحتاج
واشترط
سلطانه
##بيلي
بالبينات
ودوا
شماله
##شاد
المهن
ومب
عدوى
وينتهي
ونحوها،
##يقاف
المحاولات
تتأثر
وعكسه
بالجامعة
شربه
أوهام
عليه؟
##باز
بمي
خراب
##ياها
وجواز
أفهم
أفريقيا،
الفتاح
برماوي
اقتر
يئ
بخد
الاعتصام
رأيهم
مظلمة
مهرها
متميزة
والأولاد
##اقه
والنصف
فمنع
جهز
واجب،
وابى
اربع
وخدم
المحطة
التحية
الرواية،
المتظاهرين
برض
نبى
##يعة
الغرق
لأعمال
الموجودات
واسمها
##بنة
##يلين
بتغيير
انتشارا
وطيب
##شكلة
المثنى،
ويخاف
أفرأ
إط
##ضحت
وأوجب
يغفل
أوكرانيا
غطفان
التصدق
##براني
سجدا
موجات
شات
العون
والسفر
لإمكان
التبليغ
باح
نتكلم
معاهد
الغريبة
أشركوا
حقبة
يطير
المذكورة،
##قوام
الموضحة
الوراثة
عقر
##ذرات
##واره
الخان
كلامه،
وقوعها
والمنافقين
والفاء
ويث
شيئ
ظهورها
فمد
مورد
تقصد
لزمته
آس
بله
سدا
المدافع
##ساءل
النفايات
دج
نحا
التست
يدرى
ائ
عنف
المعنيين
الأميرة
الرحيم،
الاختبارات
كآ
موجه
ندع
التذك
##ست،
القات
العليا،
اجلس
زهر
فنع
ففرق
##اتبا
وبري
أحلام
وضلال
مشتقة
بوك
ورع
أصنام
يصنف
الدبلوماسية
##راوية
التيسير
##ادف
وتتبع
##قاظ
بدائع
وسلط
للملائكة
يخبره
##موهم
التشريح
المشهورين
تملكه
المنهال
رئا
فيص
النوبة
وإقام
جنازته
بمسجد
وسعها
##عرية
ثدي
##رياء
البقاع
والأظهر
##قيقته
##صارات
وصفته
فوجده
برف
##ميس
وقيم
السجل
للغا
##يتر
بجيش
مكذ
الفلكية
أعطاها
وناد
الهام
أخبركم
##مولا
التعجيل
الأصولية
بالعبد
بالجمع
احتمالية
قصيدته
الشهري
##حل،
بالأص
ضربين
الكناني
مدرسا
المجل
عنان
الأبطال
وإجماع
وساء
يأتى
وأعلى
الألفية
وترتيب
العطش
الفراق
صدقة،
مقصورة
طيران
السمرقندي
معسرا
الكيان
النصيب
الأحيان،
فلكل
##ضج
التواتر
الآجري
أثقل
بجنس
الفقهي
فيسقط
##قائق
وبغير
##ودي،
المفكرين
ناقصة
ظله
وميزان
وعزل
يعظ
##كاي
##تموها
أفادت
لعلى
ستان
إقناع
الهمز
يكرهون
##سبير
المسور
##اشات
مجالا
مناكير
بروح
متواض
فتحة
يستثنى
جعلناه
البعض،
تتابع
جونسون
##ردن
بقبول
وخلاف
شعرها
كبرت
الجنوبية،
أورث
##رجي
بأهله
مساحتها
دوران
نافذ
ينبغى
إصاب
والراجح
الشاي
الإرها
واغت
بعتق
تمرا
وشركة
للحافظ
رجعيا
جرحه
مسافرا
شقيقة
فوه
##معا
يستغرق
##ائل،
واستخدم
##كس،
وبداية
غلو
كنف
##هت
الميس
لعظم
ذاكرة
عجوز
بخص
طغ
##شوست
المبالغ
##اجرة
للمحرم
مركزية
النباتية
بمثلها
الفاكهة
الوظيفية
تسن
سها
ضار
ويسعى
خاص،
نبذ
ظنوا
تتبعوا
صدوق،
عواقب
يتيح
الصائغ
زجر
ضيا
واليت
عليما
وحركة
بالإع
يغرم
للإع
تعترف
يستخدمون
وأستغفر
##هاجم
##امرات
للشيء
الثنائية
إحسانا
لروسيا
عنبسة
التآ
الإحاطة
ومشى
الحالتين
غرناطة
بإضافة
أخيه،
المعيشة
##ورانيوم
أطباء
مشتري
يوتر
والصحابة
##قاومة
الهز
والفوا
الآلية
تقصر
كفالة
تلفزي
بذاك
نلاحظ
الموط
ولكنا
تنظم
القائمين
شائعا
مبحث
بالإنسان
مادام
وأيد
وجوابه
وإله
المحارب
##رطب
والمناطق
أكانت
كاثولي
للقب
القرينة
عمك
الاستطاعة
وللحديث
إعدام
سليما
##ضة،
الإعت
عندئذ
قلد
التأثيرات
أعياد
شهاب،
##غناط
##يناك
الإنذار
الاستئذان
الذهب،
فافعل
العنصرية
الصاروخ
دبل
تعذيب
الناظم
ليعمل
وليد
والحجر
مالكها
القصوى
مهنا
النوعين
بذن
فكن
نحتاج
##خلو
##وابت
##رسون
وجهان،
حنيفا
الخصوصية
وسمعته
تواضع
الموصل،
قيده
##طالب
##ياق
يقولها
ومعناها
واستشهد
انتخ
للتنمية
وحديثا
وأنزلنا
##فاهم
##ثره
يشرف
بإقراره
ألسنتهم
##طس
##راة،
بالتم
وتختلف
بعضهما
##كل،
بعثنا
تواصل
فقتلوا
موصولا
عوضه
السهيلي
##نيك
والحفاظ
انتباه
فنسب
وينقص
ران
لبل
السباق
##خره
يأتيك
كالتالي
الآدميين
الهولندي
المكارم
رميت
##خنة
والبل
الذيل
يحذف
وتحديدا
وتأثير
يهتدي
والمعتزلة
المطبوعات
ثروة
لسا
لبيع
الكيس
أمسى
##صيبة
موقعا
وإلي
بسعر
فرعية
المراقب
وشهدت
الغرور
بالرياض
دليله
صوب
##قلاب
##ليح
النفقات
الجمر
أباك
رأسهم
الحالين
للحركة
التكلم
الجنس،
عذابه
##سلا
المصل
للغير
سترا
موته،
أجرهم
أولادها
عسكره
المختارة
ومحله
والمدارس
مضاعفة
رجلي
##طلقة
زوجته،
الحليب
للعين
المصارف
يزن
مصانع
للدراسة
الباطنة
يضبط
الصواب،
ظني
ويؤمن
يتجزأ
فيهما،
تحكيم
فعيل
حفظا
صلاتك
لوزارة
شيكاغو
ترسل
دهن
صورا
الممد
بنكاح
يعول
ومحب
بأش
وانطلق
المتبقية
فهزم
حكمهم
قائله
تيمور
السجدتين
برح
وأوص
تطمئن
خصوصية
كاتبه
المعتقدات
عور
##ائبة
##ودور
يفعلوا
منزلته
تأكيدا
لصح
والذهب
الجدران
##يدون
ينكره
والعجب
الهمذ
المسؤولة
تأخيره
تغييرات
الجذع
##ئتي
##بيب،
علميا
اعتداء
تفسيرها
حسبنا
بالاسم
ملو
##احا
المفيدة
والبو
أنوار
وتبلغ
يتقا
الناجمة
استواء
متقد
متوال
محصور
خلقوا
والخامس
العمدة
أذنه
مفهومه
الأحوال،
ستيفن
دمت
والحاجة
العهود
##ائث
لأه
المرزب
التطورات
وهكذا،
وحميد
مجلسا
مستعمرة
ملازم
حتما
##ديع
القدا
والأفعال
بتطوير
بحركة
أجعل
التعويض
مواضيع
وفاطمة
الجنائية
للمدعي
مجالد
##نسيق
تيس
##ذع
المبنية
القحط
للأمير
كاملة،
تسببت
رائد
سوم
والخطأ
نهض
المرض،
يطلبه
الملايين
الندوة
غربت
وأمير
ويقطع
يعفى
حديثا،
##طلبة
مواصلة
ويشبه
رعيته
الطح
##وازية
خصلة
فصالح
وشرعا
النجف
تضعيف
المتعدد
بتأسيس
مكانه،
نوعها
سرور
وقاموا
مسؤولة
فنظرت
إعل
لينا
نصل
##ونز
والميسر
يداه
منه؛
وسرعان
##دمج
نسبا
وطني
قدروا
بالسوء
زعمت
شان
##عاها
ليبر
فالغ
بالسماع
النحو،
الافتتاح
؟؟
تركنا
ديته
أرسلناك
البلاط
ذنوبكم
الجزيئات
فصر
##اة،
##أو
الرفاعي
المسألتين
الأحجار
رأيك
ألمانيا،
كبيع
##كيت
##ؤول
واليد
يعرفوا
نفهم
اكثر
بوقوع
المقداد
وبقوله
عرس
بعشرين
##عياء
فرضها
البدو
تراكم
النحويين
أرحام
ومقد
المعالج
دينهم،
تكري
نقف
سهولة
تمكنه
الأحقاف
البطاقة
الإحصاء
يسيل
المعتدل
كندة
قلما
نحمده
والوصية
للحم
الإتمام
الإنجاب
شجاعا
فناد
البوذ
مشرف
فنز
طولون
حيضها
##ثية
ينز
صدقات
نسمة،
المباد
##فسق
وبئس
استخرج
متميز
وسقوط
##وح،
الملام
المفلحون
للبد
أكذب
أسقف
أمران
المكلفين
كلفة
##ارها
تعقد
والمخط
فاتخذ
نافعا
راق
نسائهم
وشريك
##طاوي
والقصد
إحضار
دراستها
وأطعم
الحقل
تحضر
مستحقا
قطرة
إنسانية
القرشي،
##وهم،
بنون
البسملة
لوحات
بشهاد
##لسنة
بالنذر
للإي
دعاهم
المحاضرات
وحاصله
وأوروبا
المؤقتة
صان
يجلب
والعت
الطلق
استند
بدعة،
فتجد
الجزئية
البقية
فأخذوا
جيء
العلوية
صبيح
والمنع
الجري
لمذهب
##هل،
وإيتاء
باقت
##واله
لتر
تشرك
الخطوات
برجال
منته
الأظ
##قياء
عامله
لتجنب
الضالة
المدرب
الفلكي
يجتمعون
تلاميذ
##شها
بالوجه
لمكافحة
وازد
الغشاء
هناد
إيماء
يذهبون
السوفييت
مسيحي
مباركا
بزوج
بلبن
المنجم
الخطيرة
نهيه
اقر
صرت
النكرة
الثورية
النادرة
رجس
اختارت
##جرة،
الشعائر
ملجأ
يتعارض
أبوابها
الصيرفي
وحبيب
حديثي
بتر
نظاما
فأنتم
الصدمة
فالمقصود
عشيرة
يفرح
أنق
##راية
##ديف
##رتك
صلاتكم
الأسترالية
##ضيا
اعتاد
شأنهم
وثمانية
يرمون
أحت
لطيفة
##لب،
عدالة
لوجب
##رامي
##فعها
والتعبير
يحلق
رويت
ووحد
يكفيك
تسلط
##خانية
أمضى
يطيل
بغتة
الثقيل
##ينتون
وخالفه
فبر
ووسط
##فاوض
##وبون
التحكيم
رمزا
يعدون
فأخبرني
أوك
السمات
ليبين
مخاض
بمرور
التمس
بالمي
وعقب
الزيدية
##قاوة
ينحر
##قولون
اقتضاء
المعتضد
التشديد
ويعرض
بفاتحة
يسكنها
الإكثار
اطلعت
كاره
##غلا
الرهبان
أنهن
بتمام
لغيره،
والسنن
ببني
شجع
قانت
وإضافة
أحجار
تشرب
ذاتي
الحرز
طويلا،
وفتحها
شبرمة
جليلة
يوثق
##ائبين
أموت
اللع
التشابه
اسكتلندا
آثارها
المتأخرة
جبري
##صاء
وأبقى
استأ
الأمثل
المرسلة
بوصفها
يي
الجبن
الكور
الخفية
وجرير
والإعلام
حريم
وتجعل
أعان
عدت
للموت
فرغت
وانقطع
المقصد
##شارية
ترجمه
والغالب
مسئولية
##اليات
يتج
##ذبحة
يدعيه
الدراسي
العميق
يحزنون
أديب
ثنية
##فارد
الانتفاضة
التدخين
الاسدي
غفرت
والاجتماعي
وأفض
السقط
##وانات
عميد
مدلس
الاقتراع
الاغتصاب
المقاتلة
الكأس
##عيها
المعلى
للمنت
المدفوع
أغنياء
التشكي
تغلي
بوابة
مسئول
قع
##جأة
##ذبة
##ذاك،
ويصدق
الناشر
انهزم
المرابحة
إعمال
الجيدة
ترجح
مضارع
الفقهاء،
رحلات
مخطوطة
الكاشف
توض
لقطع
##نغ
القهوة
السول
##انيته
##اطة
فخاف
صغيرة،
التراجم
المفسدة
إسطنبول
الشقص
الفهري
ويعيد
واضع
المتبادر
تقص
المسبوق
وشكر
واستغ
اتب
خبيب
لنف
الغدد
انضمام
اللآ
نسألك
بالأدلة
الانتظار
كنوز
نصره
التطهير
المصرى
أستاذه
جبهته
للفعل
للخير
ولات
عده
الاقتراح
تريدون
بتأويل
ماجد
يعل
##قر،
لكما
محتملة
قصره
يتبعها
يعتم
بأحاديث
نصبه
وأشرف
الحمل،
للجدل
للورثة
وضي
##بنا
##ذفت
التوص
الحزم
للفاعل
وتميز
استعمله
##صاره
وتغيير
##ساها
الشيعية
بي،
التصانيف
ازدياد
سادسا
##بورغ
الانفجار
معتبرا
تسبق
##تابي
موقعه
والاجتهاد
الفزع
وإك
##اريين
متف
متحرك
تأريخ
الشر،
يقدمون
بالكتابة
عتي
##راضا
فألقى
الساعدي
دائر
##عك
##ذنت
وتسم
أفضى
يكرهه
المقاطعات
ناجحة
توسط
تلبية
ويقل
واخ
الزبر
##رقه
لولي
الهوائية
اثنتان
النبى،
حارة
والشكر
زوجات
والاشت
لحساب
الإسناد،
الخاص،
الثقات،
خفاء
سيدا
يوني
ونهر
الرازق
مقاطع
مخطوط
##خارف
##غاله
اللائق
##راكم
التداوي
بهز
عمران،
وشاهد
والإشارة
للتد
حرجا
بالوحي
بضرورة
نومه
وتعاون
تنال
##ولية،
المدائن
##ايير
بلفظه
تحريمها
الخلود
غايته
المرفق
والميم
أعمالا
حفظت
الإشعاع
الفقيه،
هيهات
تشويه
لعثمان
بالمسا
واستق
كاذبة
لغتان
حولا
ابنتي
فقاتل
##وليات
فلست
بالجواز
السفارة
كفت
نبوته
وملا
المستمع
تؤدى
مقدمات
منحة
العارض
السرة
تنطوي
لمعالجة
استعارة
##يازات
ريع
نعيش
فيعت
الحسي
##صلوات
تنفق
أبصار
المصورة
تخفيض
الحنفية،
الميناء
النقيب
فإنني
ضمنا
ولقي
النقب
استهلك
##جزئة
ولده،
التشري
لسوء
الموضوع،
الغالبية
ألقاه
استئصال
بعبارة
المحاربين
قصب
والوعيد
##قيين
أصولها
##كيز
كالذين
رحمك
أناسا
يعلمهم
##عبدون
السجون
ضريح
نقر
بالرم
وقصة
السواء
يتما
البيولوجية
داوود
يغادر
الشمال،
الأحكام،
القيروان
الروياني
آنية
بوق
##رازا
القرائن
وأرضا
##ورك،
##ضي،
مستهل
حلقه
طيبات
السهمي
تدين
نكا
الأزل
الحار
الفؤاد
يجرى
المحام
النسوة
إعراض
الأورام
الصوم،
قليل،
مقصودة
اجتناب
كني
والارض
##عدن
##ائده
وتضمن
الغساني
بأسانيد
يزني
يلج
فاستع
الأوسط،
خروجا
غضبا
##نبه
الأقدم
النافعة
للسكان
سيرين،
علقت
الثلثين
تعبدوا
الشحنة
السبيعي
يان
##ئدة
غيركم
##ويك
المتد
عمها
موحد
للشعب
قصرت
بالمعروف،
معمول
حله
##برة،
واط
أمنا
بالمؤ
أقواله
القدم،
ويعتمد
قحط
##رنة
الشارب
الوظيفي
جوية
الجرم
الطباعة
تنه
بالأخ
واليمن
وعملت
يكذبون
اللقي
##انز
وبغض
##نتين،
اعتقل
حكومات
الطاعة،
تهامة
للفنون
##كتين
بالآيات
اثر
مجتمعة
للجهاد
الإصلاحات
والهاء
##يران،
الخالية
الكثيرين
زيادتي
منصوبا
##رد،
وردا
يرخص
صلحا
##ظاما
غلاف
كرك
ندعو
اللورد
طريقهم
##علمون
دمياط
هرمون
ساحر
اعملوا
شدد
نقاش
أنطاكية
الدف
وتجمع
ومدى
بيقين
زيارته
نقرأ
الحدائق
فاسأل
التالي،
بدينار
وعمار
##وتك
فلا،
والقيم
إلخ،
ضعفاء
ألقاها
التناسلية
تغيرات
##ذهبه
تتواجد
إفادة
الإطلاق،
تفلحون
فروض
لوم
ندرك
المود
بالسب
القابل
شخصيا
إقرارا
فأنشد
المقترح
حقيقة،
ماكولا
ريف
مذكر
نعل
الموث
القصب
يتقيد
##واتف
يسرع
آليات
ومئة
##متعون
والدعاة
##فاعله
الصدقة،
عفوا
المأمومين
الخسارة
أسيرا
رما
العلق
المستحيل
معتمر
حياتي
بالقب
##كرة،
أعلاها
والدول
فكلوا
تذك
بالفت
القاهري
انطلاق
المعادية
فنعم
قرنا
القدس،
تجدد
عمار،
بدعاء
يشاركه
مفصلا
سارت
##ائم،
وهزم
وحيا
كرهت
وصاروا
يفعلها
ناع
معادلة
أصفر
أحزاب
والنظام
نجسا
ناجي
##جارب
نزهة
تعلمه
عصابة
الهائل
كامب
الفواكه
تفصيلا
تره
ابنتها
##وج،
المعمر
المؤثر
ودول
يضرهم
كفارا
وحمد
يوس
##زيمات
بالتف
آجر
ونائب
##كمات
##ريها
التحر
بالضرب
بصدد
التعميم
نفاق
تدارك
اعتبارها
ذبائح
استب
جنون
سمعة
المكان،
والهبة
مجموعه
فاسقا
بالرسول
ظلمه
تقريرا
ولأجل
نشاطه
وسبعمائة،
إر
عريض
الثنائي
طالق،
نفيل
نكاحه
يهدد
والأسود
متاب
##ضمار
مسلح
ومعجم
لقياس
##نات،
احتفظ
الأوساط
المعمول
العديدة
السائلة
ذهب،
الخلافة،
ثالثها
الملحق
آثم
للوز
الصريحة
الكش
الخوض
مسعدة
مستعمل
العسكرية،
ظهورهم
ليدخل
شوارع
شديد،
فيصبح
القياسي
القدرات
منعك
شربت
ويلحق
ليلة،
الروافض
هدفه
مفردة
وافر
البنا
الآبار
##اريب
يسجل
##وابق
اختبارات
الربا،
وخرجوا
حساسية
شافع
ولازم
أبق
##وائه
منتشرة
لغيرهم
##ظيمات
قاع
الندى
القرظي
والتلف
المشاهدة
جامعات
بالقاهرة،
تكمل
سحاب
لفتح
هديا
##سلخ
إحداها
الزمني
السوفياتي
تاركا
##ينية،
وأمان
انتقاد
أهمله
صلاحه
داعيا
معرب
##راهن
والحركة
أرضية
قسمان
أنشأها
دلالته
وباء
مؤجل
والشجر
الحاقة
وأعرض
##ناعية
الخلقة
تكلمت
مكروها
أنور
عني،
بالخي
ينفر
مغادرة
ينسخ
مقطع
نير
##طته
##ذته
الحصاد
السهام
##ودون
##وبوا
يسار،
والحزن
برنام
التجريبية
مباحة
والإسلامية
بالاضافة
العجاج
السامي
الدرك
واجهة
يسهم
فرش
بصرف
والطيب
صلاة،
الحدود،
مصطلحات
انفجار
وجزء
بذبح
خفاف
التنبؤ
الرشيدي
المعقدة
يستقل
يغشى
##اربها
خلفها
وتحول
العالية،
نواس
مصنفات
لرواية
##لفى
تحال
طريقته
بالخلافة
نسيان
غندر
هش
وإنكار
والمملكة
تطالب
الترفيه
وذبح
الأكوع
إكرام
الأبدان
آكد
عورات
##لوبين
ونصح
يخدع
عقوبات
الجاهلين
محتوى
المرتفعة
الأندية
##صموا
العير
التبري
النروي
بأكل
##ضر،
##نبى
الإبلاغ
نفذت
وتابعه
ذاهب
وأولي
الصافي
مؤلفه
الأسس
الأخلاقي
الجزيرة،
وبالغ
صلاتها
والأنبياء
الدعاية
ويفهم
تعالج
قلناه
فعلنا
التنوين
جدعان
حشر
وندب
ينفك
بأيام
##ناهج
الأحمر،
الحالات،
التسعة
بناته
السادات
المجردة
تساهم
سافرت
نحب
##زلهم
والثلث
##ذاة
التحويل
وأجد
وتأخر
المعاف
روايتين
مرداس
##غازي
التملك
##سهيل
استعملت
نحت
التتابع
بعذر
غيرت
يحوي
تسجد
##ذنه
والسلاح
تعرضوا
الثمانينات
السريرية
دح
الآمدي
اللعن
تجاري
##دتك
##جيله
الملتقط
والشعراء
الإيجابية
إبدال
سداد
الصن
النائ
مقرر
والإقرار
ركنا
أعمدة
عياش،
عاجز
المرجئة
والقصاص
##مج
القاذف
اتضح
ستت
فدفن
##زعوا
ويسمع
وثمانون
ينتظرون
كوب
كظهر
والزوجة
الدية،
الناج
للأشخاص
المعاوضة
واليون
جونز
العذراء
يوفي
الأثناء
بالشيخ
بالولايات
الزيادي
عداد
فالمس
وتعزيز
رسلا
عمامة
بروك
وسلامة
جامعا
مهارات
فمس
الضحك
ذاكر
ذالك
قصف
ويجلس
ومجال
الهض
المناظر
تقدمها
القيوم
وقفوا
أسطورة
محظور
الولد،
وطي
يرعى
وشمل
ركاب
واتفقوا
بقدرة
##بوين
أعلا
الضخم
خلاف،
##نزل
ماشيا
القبل
الصوديوم
الفك
الفريد
والدخول
ركوعه
والكف
الامور
ووصلت
تفسر
##خرفة
الزائر
أعرب
اقترب
كفر،
امتد
المفسدين
تحققت
ريس
فمال
##حيا
الأخص
الصرب
وكقوله
وجبل
أكس
حديثه،
تؤمنوا
عمة
لار
يمان
ونزلت
ونشرت
تسافر
اعترفت
جدير
بالهدى
فتعين
وحن
وحقق
وثابت
##لعن
لشراء
إمبراطورية
الشباب،
ناقته
كارول
الروحي
تشر
الويب
متاحة
وسعت
مقربة
والسين
مأذون
أصحهما
الحطب
البوي
وتصبح
تقابل
نصر،
بيدها
يأمركم
شعيب،
قوتها
التضحية
وهلك
##كمي
التأكد
الثقفي،
سلفا
والرأي
الطاع
الطالبين
تشركوا
لقولهم
خارجي
تصانيف
دانيال
##ويا،
يتعد
ليحيى
أشباه
الحاسب
شاءوا
والغضب
أسسها
آفة
##سلت
والريح
ويكت
الخاتمة
تقديمها
كافر،
الاجتماعي،
الأناض
##ذاعة
بتعيين
##يرا،
فرآه
تخط
نفرا
الدرب
وتفر
الاستهلاك
قائلة
والمجرور
طاغ
استس
أدرج
المقنع
احتياج
صنم
السعد
الدان
وتجاوز
لأف
بمختلف
المنتظم
فغسل
والمشركين
##ساتين
المرسوم
العنا
الحارة
تفويض
والمرت
سألني
حقيقيا
الجسدية
ترفض
ظرفا
عينة
تعنى
##ضيب
الميلا
حظا
الكلمة،
البنين
##يتد
بتمامه
مؤثر
الصادقة
الصورتين
المحمول
حلها
قهرا
والخر
الضرو
يقوموا
الأربعة،
شعبان،
التوقيت
ببعضها
##حولين
جبرائيل
رسلنا
لباب
المريد
القيسي
أخوات
##ندقة
##فقر
##ائيين
معتمدا
وبالفعل
السقي
يمشون
##ولاها
للطلاب
كيلومترا
فحكمه
الليم
والعتق
فأتم
تكريم
الرئيسة
الصفات،
مأذ
شبرا
ناقصا
تلاميذه
##زنا
الألياف
بالرأي
وتوق
سمعها
موسوعة
بالترك
خلقناكم
العدل،
موقوفة
تحدثت
يحاولون
للمسلمين،
ضئي
##لأت
##افير
بعيد،
المتدا
ليج
انفصال
أسامة،
أبوا
بالمغ
التعريض
نحوه،
صحابة
الصفدي
عجبت
توافر
شهادتهما
اعمال
خبيرا
صاب
##هارة،
والوسط
الرفي
الخيل،
الغلبة
بمدة
والإصلاح
القلبية
جدوى
هاجروا
صبيحة
التوكيد
البضع
الجفاف
يستمعون
معتد
معتدل
الرأى
يساهم
بندار
الاعمال
والعافية
يغر
للسهو
الاستغناء
أنعمت
أصدقاء
الأمامية
فيعمل
الحبر
بالوطء
أيس
مجاوز
##طاها
للتفسير
مذكورة
المستقبلية
ذهل
##جهات
الخنثى
فالحا
مستخدم
دوائر
كوسيلة
مضيق
##لزام
##فنا
والاد
الكلى
الكالسيوم
##لوفة
##لال،
لتشكيل
##انهيار
قبري
بالحجر
##باحية
أنواعا
إزالته
##غوت
المئ
##عاس
تجلى
والنفقة
ركبت
ظهرها
نقصا
للمسافر
مسندا
يجل
##سامة
وأئمة
الوقعة
ومقر
الغري
منهجه
أبالي
##اس،
الربوية
كفوا
التدليس
يتركه
بمهر
مستثنى
ستالين
##وفيتش
عسل
هت
##يرن
بهما،
اعتدى
تناز
يحط
علنا
إشعار
المعنوية
التفاعلات
إنفاق
يعلو
الآلي
##بهن
##كانة
تأول
الراب
مصباح
فأمرهم
يمينك
الساكنة
ضوابط
نفت
هاب
فيينا
تزويد
كلمه
بديلا
أعضائه
شتم
##ثلت
التمام
ماس
الإجزاء
##وعها
أعماق
واستثنى
والصغير
احتل
الفرس،
بمشيئة
##وارح
فاتفق
الفاصل
المنصور،
أقاويل
##حصل
والوث
القياسية
الصخر
واغ
وإحدى
المعير
يثني
خطيبا
أرطاة
باجت
##جبا
##ثها
وأبيه
الثل
أخوة
فأقل
بمجموع
تعددت
إخفاء
##وافذ
الإقليمي
الحجاز،
الإبادة
أجلس
قوص
##عبي
السحب
##وعات
حميم
أترك
كتبوا
وعدل
واللبن
البطالة
شقيقه
كند
##زاله
الرتبة
لوقت
والنق
لحرب
المواريث
صحفي
الكثيرون
المرتضى
الخيول
نيران
##ذنا
للخبر
##ضاض
كتابك
تستر
كسوة
كرئيس
ويقسم
أبرأ
بالتحريم
هنيئا
ذباب
للعام
##باما
##سمين
حمدا
ويرضى
أعطوا
جاهلي
الفتنة،
للشار
##كنز
المسلك
مشاة
تجرب
عبيدة،
المقدرة
وظنوا
والرعاية
رجعنا
العاقد
تراج
توازن
مذموم
نرد
##طائه
العيد،
وعروة
##حاقه
فتك
ينتمون
فيتنام
بالواجب
أسقطت
الصديق،
خبراء
أوليا
ويخت
وتفا
واضرب
أسكن
أجلا
والسدي
##صيلا
قصدت
رهنه
تتعامل
العاجز
لقتل
##معة
البشير
ومسند
أشكر
فلحق
##مدت
تفصل
هاذا
السودانية
فغلب
الغازات
انسحاب
منسوخة
بقاع
وتوقف
##وضه
لأفضل
الحكومة،
يشتد
يجزه
تقريره
يبيعها
فريدريك
حواء
سفه
كوت
بالقتال
للسر
وحف
محذور
تجيء
المدخول
والقرى
بصرى
سرب
عشت
باللام
للعقل
ضلالا
توت
جويرية
##قضاء
يتواجد
##وزه
يحصى
إساءة
يستع
محتر
لقبول
تمنى
محتاجا
إيل
رماه
الأحمد
الأبنية
الداني
لأد
الاستعارة
يصنعون
الشاطئ
الميلادي،
فيز
الرضع
والإجارة
أربعتهم
الأشع
يطمع
يفترون
تعلقت
المنذر،
الليبرالي
لقر
##شيف
ولكي
اتسع
الشعار
مضادات
الإجراء
طوبى
##يبا
المكي،
##ادون
يعينه
##عارات
المترتبة
##هد،
وسرعة
اللحن
وتدبير
فاحش
جول
التزوج
##ومغناط
والعشر
مضمونا
للكنيسة
وجمعها
الفاضلة
زكي
سفين
لولد
فروا
مبطل
ازدادت
المتعاقدين
مذكرة
##لازل
القصر،
النسا
ليقت
وغالب
المهملة،
الكاذبين
لسر
منفرد
بهؤلاء
الناصح
وظلت
اني
تمرة
حارس
وحوالي
المسالك
عمومه
يكسب
أحدهما،
وثلاثمائة،
القدمين
تأتيهم
السوق،
توال
مغم
يطعن
الحام
وجا
عنه؛
والتقدم
برزة
##ريب،
ولدك
##اذان
توجهت
القادسية
قانونا
التبعية
بجي
أتانا
اشتبه
مضمر
دائما،
واقفا
غان
##باية
استحل
ومابعد
نظمت
يخرجها
مناسبا
أنشدنا
أسب
مريد
التلاميذ
##رس،
بيضة
رمح
السوداني
لطول
ودعاء
يضح
الأليم
الألواح
النفاس
##وموا
وبنا
وإنتاج
الغازي
##كسية
البنفس
هجوما
لقل
##وعد
الموز
الدروز
الإماء
بالاشتراك
فصاروا
إتش
المعيار
اكتسبت
تعصيبا
منظم
والجل
الباش
ذكرتم
سجلات
فارسي
الفاتي
خليط
فضيلتكم
إقطاع
##وك،
ولد،
يستهز
تنطق
المشرفة
والنصب
السينمائي
فلقيه
عقال
أربابا
هممت
وطؤها
الإساءة
التصنيع
للكفار
علقه
العرش،
مديرية
البهجة
زنت
غنائم
الممر
الأئمة،
ينجح
فالث
##رابط
للأفراد
خيبر،
التربوية
##وامع
##ياطي
##افعين
##وذة
المجرور
بفترة
والإكرام
إزار
غرضه
أمتى
الأمراء،
إبراء
التعليمي
يطرد
الجمع،
الخلاف،
يارسول
ترامب
ويفتح
الاية
صاحبنا
قرص
وغنم
الشاعر،
أزل
##قطعوا
يدعوا
ترعى
##ينهم
بالمنع
للوجوب
وحزب
تأجيل
يصلي،
الخمس،
عتيبة
ملاك
وتصدق
وتقبل
الخيرة
ثمانون
تقبض
يستخرج
أبشر
قتلوه
تقدموا
نابلس
قميصه
وخت
الملوك،
الإعتاق
##وريت
بالتخفيف
بالنصر
الفرنسيون
المحافظين
تصر
لحمل
##أ،
##ودت
##قلان
مقصور
أبنائه
وقتنا
الإسراف
دخلنا
افترى
مبكرة
بذكره
والتحذير
أسطول
مصنوعة
##طش
الإفتاء
##حوص
جزئية
التحديات
الحيضة
حلفه
الكسوة
الدستوري
##حور
والبلد
##برون
وبج
استدعاء
فوجدته
فاجعل
والأثر
##وائق
توبي
الآيات،
العمران
رأيي
##جاهل
صربي
ففت
لصد
استم
المنقولة
يرونه
الليث،
أستغفر
نخبة
##ظما
بالحر
وتأخذ
##كاما
والصبيان
لإخوان
والبراء
يحملها
توكيل
للمأم
##جيرات
عهدهم
تايل
الغيظ
الكاذبة
الهمام
ميسر
وضاح
الأصدقاء
##ريس،
وألزم
##كرير
وحص
المؤنث
##وريس
التنسيق
يظهرون
ومدرسة
عثيمين
سئلت
للحر
حاجز
يرتد
والأمراء
متفقون
##اخذة
##رجيح
##رقون
##ندسة
وشراء
الحجامة
بقيام
فالاست
صامت
كوبا
##رايا
الدهن
الزنا،
ونزع
##تبى
المسلمات
عبور
بالأصل
عرفة،
ينتسب
أرسطو
معرضون
ايام
حفيد
رقيقة
اللف
وجهل
والتربية
فعلهم
داره،
حملوا
إحساس
أمثالهم
لندن،
الفتوحات
المندوب
والمرسلين
أطلع
##سكري
والوج
الولاد
والتاء
المشددة
المستث
القادي
نفاه
وأسقط
فوافق
طبيعيا
موف
بنصب
البخار
الزيات
مشروط
تسهيل
##مدد
جاؤوا
الطويل،
جامعه
بتنظيم
الفلبين
وغي
بالما
##سيف
شيعة
والساد
ركز
##وديو
المزاج
شاهدين
السكاني
##زمان
بالطاعة
عليهما،
الاوزاعي
##حتك
أدائها
##ناهية
والجار
تفكر
والقصر
لجامعة
##وميديا
الرأي،
إظها
##وعت
اللائ
الأقضية
والتل
المؤجل
الرحلات
المحبوب
##قبلها
##رخاء
تحمي
مزدلفة
ثوابا
يما
الحرا
الفوات
##ميرا
محبا
##موك
ارتباطا
للقانون
##طاليا،
المروءة
والمحافظة
سحابة
فذبح
##يري،
وأكمل
الفسي
وتوحيد
المعرفي
يقولان
مستشار
وتعود
صدقته
سالم،
موقفا
الاصبهاني
عميقة
##جراءات
التبادل
لمصر
بمجلس
محليا
والشخص
المعتادة
العشائر
##ساتشوست
يقبلها
الشطرنج
##حملها
الزحف
المتعارف
الخطايا
بالأسباب
منتظم
الخلفي
وزعموا
التبرعات
بوجوه
بالتكبير
خفا
سطر
نهب
المذي
##ينك
##جبين
مواسم
قسطنطين
أطل
مئة،
يفيض
والطعام
##قدات
متعين
اختل
الحواس
الرطوبة
إهمال
النرويج
أصالة
حجره
بالحم
وأصدق
المصنوع
المغت
التغلب
الدعاوى
تبق
ثقب
مرم
بالجر
##كمان
##تيها
الضياع
بحل
##ضرته
بالأح
أعدل
الاسناد
الطيب،
مفيدا
حادة
والصلح
الأشباه
اللغو
واسع،
حسناته
وشعب
خصومة
المباريات
لينظر
أخباره
يضاعف
##خات
المراجعة
له؟
وتلقى
فلع
والخاص
المطهرة
ميلي
لسيده
باتت
للاستخدام
دنياه
ضواحي
السفاح
هذا؛
المصنع
وزع
ستره
وليسوا
قومية
البشرى
الجدال
ثقاف
الرؤوس
السجلات
يهدم
استدلوا
الرشوة
التلفزيونية
المملوكة
القذافي
زوائد
هكت
##دوز
##ذابح
أكثره
والنسيان
شعبي
يقترح
المستقبل،
الإسبان
القابض
سرك
##ادثة
تعق
واما
ينبع
المستحب
والشهداء
بالأع
التنوخي
مرضية
منعوا
السلمي،
واصط
خيرة
ولام
فيذكر
والهد
الألقاب
##ريهم
أبيت
وزهير
تركتها
برزت
رفعها
بالدنيا
يال
وأمام
الصين،
وبحمد
للمرض
بحري
أدق
لعرض
الثمرات
مجتهدا
أثمان
لقت
##وارج
التيارات
والصبي
الكبيرة،
يكتسب
رياضة
التشريعات
متاعه
عاجزا
الثانوي
جيو
والوقف
##حمون
##يمانه
الإنجي
أخبرك
أهدي
تلقاه
القطبية
أعا
أنفذ
بأمان
يستحل
الرجس
وغرب
ساعدة
وبدلا
ومسألة
فرف
الجذور
المتب
##وفوا
##تموهن
بحب
مدعي
صاحبك
أجرت
برسالة
يراعى
المروي
بنيسابور
أصلية
أقاتل
بطبيعة
وقعوا
للدول
تجدوا
##مط
##ضييق
##فل،
مواهب
نفيا
لقيته
السكران
المراسيل
ملامح
اقل
بالبحث
الرضي
##قاس
بالعرف
##وتهن
الصبغ
وأجمعوا
وناب
فيظهر
وأظن
سعدا
نبيك
أعدائهم
يمنعون
مقدمته
بالشرع
المنف
##وسفات
لإخ
أغار
يضحي
حازم،
حيل
غرائب
الحقد
الإقبال
مسخ
السموم
الكلابي
قواته
القعنبي
##البه
الكنا
الطابق
ولزوم
يجي
الواحدي
##غارا
ورأوا
جليا
الفحول
بهي
##لفين
الأعذار
والقن
##رشيد
ترغب
خصه
الهيمنة
الاثنان
جيد،
فصدق
##يتش
يقول،
والعسكر
الشرعي،
زالوا
أضرار
التراخي
صوابا
##هارات
النديم
للطب
للفرد
فأثبت
يحشر
وفات
تصنف
الليبية
النظر،
واتهم
وللإ
##أها
للمك
الاستصناع
أدوية
العقيد
الخارج،
وابراهيم
لتبين
سقى
##ابض
بالبعث
يتفر
تقربوا
قبالة
العملات
##راعات
ميلان
طبعه
دبلوما
##صوبة
##ذرا
بتط
الصحيحة،
يرثه
المرئي
محاضرات
جهة،
نائما
ودينه
كورت
يحضره
الضح
تصلى
ويتكلم
الإفادة
يشكلون
بويع
دين،
دقيقا
وحذر
أحسنوا
سرقت
إرساله
##ألكم
منا،
المديون
الاقرار
المنفصل
يلد
والدكتور
ويتكون
القدوس
المرآة
السجستاني
الإشراك
الصليبيين
##مح
المنعقد
مكش
يحتفظ
بالنهي
المبشرين
فرارا
كفيل
سنتي
##دتين
الكردية
يطلقون
إيمانكم
المقررة
شميل
يوش
بالجد
الرص
استيلاء
الأخوات
أرضعت
##طلاحا
أرقام
شوكة
خريطة
إعت
تختار
##حدار
ويجد
##يامين
##صيبه
فحيث
العذب
##نيب
بشبهة
والخيل
الرمز
الصيفية
بمشيئته
يونا
البنيان
##هار،
كتائب
الممثلة
معدودة
شيوخنا
غابت
الكون،
##قيطي
الزب
والإش
تحتل
الأسف
برون
لجان
رياء
بالصفة
المثقفين
##ادثات
الشريان
للصح
##لونا
الغرف
المستشرق
وربيعة
مساحات
##قامة،
للتعامل
بذنب
##ضلة
المورث
الصفي
##ويلها
وإسلام
بها؛
##مت،
##بطولة
تقلد
الامتثال
صوفيا
الطبيعية،
شبع
ظهري
ورائه
العلى
لهما،
الطعم
وبكر
##اثية
هكذا،
وراءها
انقضى
رائعة
الانصاري،
اذهبوا
عشاء
غربية
بالعا
استطلاع
اتباعا
ملكوت
لفظي
أشهرها
وأهلي
تعليمية
متفاوتة
أضاء
تمهيد
جيف
شعاع
ممس
موات
##طيب
والحرص
##معن
##حوط
يأبى
فعليا
يصرفه
يخفي
يبخل
الديباج
والمنظمات
الممتنع
وداع
قضائه
تعبيره
البوذية
##لله
##ترات
الطوفان
بالتراب
وأخبره
للدنيا
الفرضية
قابلية
المبدع
وريح
##ظان
الملو
السيرا
الرف
الفتيا
##شاشة
حاشيته
ومسلم،
فردية
باري
##هامات
للنف
##وياء
للمبالغة
اللعنة
تنقيح
مساهمة
قبضته
وتسعون
يتناوله
موظفي
بائعه
تجهيز
بأشياء
ماليز
الهبوط
المشرف
المخي
التحرك
الفرن
دخلا
والطبري
المنتجة
يسمونها
الأوربية
آثارهم
الصيام،
الإسماعيلية
معتق
سمعان
مطولا
الصفراء
حاجة،
بوادي
التفريط
ألقت
يتناسب
العجمي
أظفار
خصيصا
##انوا
المبعوث
الرعا
حددت
الناس؟
بشارة
الراجز
الانب
تفوت
لسنا
خراش
بمل
##ليني
##حيرات
وحكمة
حققه
##قات،
ملزم
##غتون
خروجها
ولقب
##ذوق
وعتق
##نعيم
فاتت
الهلالي
مبط
الجيران
يقص
كلينتون
رسولنا
المعركة،
أطلقوا
المجرم
حريصا
الزرقاني
قارة
والطا
التوت
##مرها
الرخاء
تشكرون
أنتجت
##خاذه
العثمانيون
ومأجوج
الراد
##ستخدام
الخاد
وعطف
##هروا
ونك
بقرط
العدة،
##عضو
البرز
انتهاك
القعقاع
القانون،
جدل
مسبب
##لر
الغزي
والأدلة
المواشي
##شايخ
اختي
فشك
يكرم
الأضاحي
وأفعاله
للبيان
يعرج
##تابة
باختياره
المسكن
##وزاعي،
المسيحية،
يبتغون
##فاهيم
عوق
##لفي
قدومه
مستوي
لكلمة
اشتر
فشق
مكرها
سهلا
العنصري
داخله
والموضوع
والطير
رحله
والإنصاف
بالطريق
صبغ
والفقر
ضغ
##أين
وأحا
لأص
البيتين
ورغ
والإرادة
##طنها
##ويل،
الإسقاط
وإسكان
تخرجه
اجتمعا
رغبته
##ملوا
ومحدث
تكونت
اكتفاء
المفضلة
ولاسيما
ومقاتل
حقك
جزئي
لقبه
إعانة
والمعا
المهني
شئت،
فرانسيسكو
وثل
يورو
الأولوية
الانترنت
أحكامها
أمنية
لآية
سكنت
يبرز
ثقيلة
الأشجعي
البداية،
بلجيكا
مبعوث
ووه
وتخصيص
انعدام
##وكولات
الفصولين
الكوثر
علقة
##انوس
الفحشاء
أخوك
##يبس
مسبو
يستشهد
التقاء
العضد
السوفيات
الحصون
الذنوب،
ووجوه
بأكملها
عانى
العما
التسل
الرماح
ثمرات
الطقس
وسق
لقراءة
وصفات
وتمثل
ثقيل
يلعبون
عصبية
بفضله
خثيم
بحت
جوع
حتم
زب
سكين
الأعياد
وتما
وعش
ومولده
##ساهم
عدول
بخار
##ريف،
ثلثا
وحكمته
فدخلوا
المسيحيون
مخلوق،
مبينة
##لالا
##تيناه
المقرض
اقتصاديا
فأتيته
الطيالسى
الواثق
فبطل
شئ،
النسب،
واشترى
صغره
جولي
كوز
##جيد
عندي،
وتذهب
ولانه
##ئران
تبرز
فكرية
جلالة
حافة
متابع
والفنون
##مرك
أشراط
والعذاب
##وكله
ومروان
بالثاني
النهر،
القراءة،
نذره
المقاتلين
أخطأت
تذكير
وضيق
##هاجمة
العادة،
##وسين
الزهرة
بأجر
بكير،
العقيدة،
بالكثير
كونت
الأهالي
آبائه
خميس
النارية
الأميركي
يهده
وأحر
الدمام
والمفعول
فالبيع
بشعر
اختر
الآسيوية
وسوريا
أخبرهم
زيدان
تغفر
رؤبة
عنيفة
##واصم
الأوليين
شوال،
للواقع
متتالية
الطوال
##رجانات
أثارت
المقذوف
الرواتب
خيال
حلفاء
الهائلة
الاشتقاق
البناء،
وكتابه
##غافورة
شك،
يناد
يمكنك
والسلامة
حدودها
أنشده
الاندماج
أنبت
بالسا
وكشاف
بأحوال
##رادى
يسلط
أمورهم
فقتله،
يصيبهم
الملاح
التحمل
أوزار
السعة
استمع
##يناها
##أسف
الثدييات
والرو
والحمل
##ظره
فتفرق
##تيني
وذكرنا
أوامره
غريب،
روحي
لإسرائيل
أهواءهم
التميمي،
درك
زان
##سلي
منب
للوارث
وجاهدوا
المعرفية
بقص
تنطبق
لقمة
وطاعته
اختراق
جنوبي
أعمالنا
كرهه
آلاء
اذكروا
كيني
وأدب
الإقت
ومهر
وطئت
العسكريين
لثلاثة
الصباح،
وفعلا
إرها
تنام
يجزم
##بيدات
مصرية
كونغ
عصاه
المقامات
حذافة
تزا
عمت
عراقي
##فيون
الجريدة
عمير،
بطال
الفردي
عشير
تقلل
محمل
منير
التواريخ
أمثل
استماع
الزانية
يستجاب
والآخرين
كماله
الوجود،
على،
الدبابات
الخيام
الاعتقال
ورسالة
الشرق،
سواحل
ضيقة
أراضيها
طاقم
أعطاهم
والأفكار
ساكنا
أقتل
اول
##طق،
##ماهم
بنين
ماساتشوست
القف
وأمسك
##عتها،
ومكث
والإف
زوجك
إدراج
##ضطراب
موظف
افتتحت
تأويلا
التعديلات
ببي
بكمال
غيرة
بتركه
فجعلها
زعمهم
عسكريا
##ستانية
الصنم
وتدخل
أمثاله
المؤس
الإنزال
فلزم
##مارين
بشرى
التجريد
أرخ
وانتشرت
##باحثين
حسي
حليم
ويده
##فتر
للتعبير
##ائدة،
أحيانا،
لولاية
البارحة
والمشاهد
اللسان،
يخصه
جورجيا
ليحصل
أزواجهن
سول
منصة
المؤثرة
صرحت
##واهد
الحسبة
وكثرت
وإمكان
حيوية
بالتمر
بالتفصيل
شبابه
العميقة
جحر
##سترا
الدورات
المتميز
##تمين
ريال،
رأيكم
والمجلات
شاذان
المقصودة
نتبع
ووفق
##الحة
النصارى،
ويحاول
يخشون
خالفت
وتعقبه
##ضمض
للتف
يبول
الموظف
بطلانه
حشد
##جيم
بنصر
القدي
إنشا
ومنصور
المعسكر
سيء
##زاما
شعرة
يقتضى
بعينه،
للزراعة
المعلومة
حبوب
فولي
قتيبة،
بالقل
ومخرج
وإرشاد
وحث
تقضى
بحياة
الانتحار
الهندسية
يحكمون
الجنايات
صناعية
نعد
الرمال
والموعظة
فتحا
يحث
عبثا
خطابه
المبيعات
استعراض
التماثيل
كهيئة
جبة
لوف
فيه؟
##كاديمية
روابط
عمل،
المزمن
الوطنية،
أفرادها
المروذي
الفيزيائية
موكله
##ضها
النبأ
الباد
يقنع
وجهاد
##سبت
للمجلس
المؤدي
التعليم،
يعارضه
ويبعد
الخليفة،
ونال
انطلاقا
فالب
فصيام
الثلثان
صغير،
غريم
فبه
##سرت
الأفع
لدولة
وأحكم
يأمرون
المقرئ،
اللوحات
الفقر،
الدواوين
برحمته
تواتر
خضع
دموع
نقت
والافت
##ديه،
بيك
إليهن
أقلية
تجريد
مصاف
دولته
لعمري
مخطوطات
إضافي
حجا
##ين؟
المتكررة
وسعه
##رميم
يغتر
##غر،
نقصه
وبايع
الثعلبي
كيم
العبادي
وقليل
##ورس
##ياهم
##يلو
لأربع
رجب،
بحرب
برسم
##مائها
نترك
جهينة
الدوران
واهت
الأضرار
معطوفا
مجنونا
الهمة
##اميم
القري
##ويها
##ندى
يستغني
وتعلق
##راجات
ناصح
الحدوث
النفوس،
مواضعه
الغزوة
النهوض
أتبعه
##ضيت
والعفو
بالتج
صدقا
قرين
مرضاة
بزوال
المنشآت
الموات
تعاط
##حاها
##فع،
المسروق
شهرا،
الرحم،
نسيئة
خبي
قطيعة
الباز
وسجن
يسود
المشابهة
لبنا
وتتميز
ملازمة
مانشستر
فالحاصل
خما
خولة
خليف
##دق
القطار
وقدرة
مثلها،
##يبين
بأخبار
المناعي
تدمر
للدار
آلهتهم
الصالحي
##كش
والكت
##حداد
أنابيب
أثلاث
ويتوجه
الفيت
المثل،
يكتشف
المنظومة
جذيمة
والبع
واللح
لأخي
وليكن
يشكو
##كارى
تدعوا
صابر
لإنسان
##شئ
مثلت
بألس
الأسقف
برعاية
لمنطقة
المنتسبين
مأكول
المفاصل
وقائد
يتيم
المتزايد
حيضة
يحكى
إبراز
والخش
القدامى
قلبها
مزاج
ويشكل
الفاتح
وساهم
ذميا
##نيسة،
البندقية
آلام
ومنح
انج
الضحية
##انتهم
موسيقية
نعمتي
التقديرات
استدراك
الفريابي
بنقد
الاذن
وصيا
تشا
نظرهم
وعندها
ظاهر،
##واخر
##راخ
عنك،
ينطوي
##تبعون
المعسر
قصته
أنواعها
أوروبية
يمينه،
ترع
مبسوط
الكتيبة
هيئات
المستودع
والشاهد
##لسلات
ويرون
وصفنا
أزهر
نسيج
وادع
الأكاديمي
ناح
بالبن
السرد
##حموا
##روقة
أمتار
##عملها
المستوطنين
المحلة
التصدي
مناسبات
فتاب
فيقبل
أثواب
حسين،
كتا
واضح،
##خفف
المضمضة
والمسلمين،
الموعود
الحساسية
وأريد
وازداد
والأوجه
مقالا
وثياب
انتهوا
الحاجز
منفردة
بقلعة
حريق
المفع
البضاعة
##فارا
وللب
استضاف
الراتب
الراديو
وتتكون
رووا
زح
لخال
##ليس،
الطرد
فعليها
اخترت
والغرض
النبوية،
يموتون
جريح
نقم
منشأ
أقواما
الصحفيين
لحكمة
السن،
لانهم
للسائل
الخمسينيات
الأخلاق،
##سبا
والذب
المتون
ليحكم
والترهيب
والصرف
##لائد
##باحته
منعهم
أوردها
تلفزيون
استنباط
وتسعمائة
الفيروسات
علوي
بالحب
الأمير،
وشار
##ابتن
تستهدف
تاريخي
ميخ
##جاجة
بورك
دحية
شفيع
عريضة
يبارك
التغل
عامرة
المجيء
والنذور
##وريون
بسؤال
فلوريدا
لفقد
لنفسها
الشدائد
أعرابيا
بطانة
نين
القرامطة
فأصلح
عمى
فاكهة
بشع
وزار
بريرة
المساكن
العبث
وتتضمن
فرجه
يمثلون
تال
راتب
الرماد
الخطيئة
##ئا،
الإنسانية،
مخففة
صفراء
جنوده
حرصا
وثلاثين،
التفتيش
الدولي،
روبن
رياضية
وضمها
واجهت
توات
غاد
فته
يقنت
ومكر
استفتاء
تحصى
انتفاع
لنقص
والهداية
صنعوا
المرادي
فهرست
الإسكندرية،
النمساوية
لقص
والرابعة
المنبر،
##قطعه
فالف
المحركات
مدافع
وعلاوة
النظري
تقدما
فاصبر
ضروريا
تكييف
خاطر
##سلها
الحسا
السالم
##ماتهم
لسيد
والمرض
المعدوم
الاستيطان
جاع
سوريا،
عجرة
والضعف
##سانية
تحلي
العقدي
أرضى
جدته
الاختصار
الكويتية
خاتما
أبيهم
حديث،
تتسم
مشارق
والحجة
حران
حجة،
يقصدون
بيوتا
الجنوب،
وقاتلوا
قزوين
يعجبه
الأم،
وخاص
مدرب
الانصراف
القدوري
يشهدوا
يفقهون
لضرب
##غلت
وأنثى
فنقل
والجماعات
فراغه
باص
تفعله
المحيض
##ذائف
التحرر
للصحة
ويوجه
غيرنا
تقييده
الإسرائيليين
بحديثه
الكافرة
صلبه
والاح
بالباب
المنصوب
يطمئن
الإلكترون
البوصيري
مالم
يبتدئ
##بكر
##ظري
##تيانه
فالمش
صيحة
النهدي
ضحية
التسويق
أخره
للآية
بوسطن
عفيف
وخلص
وكبار
##حر،
اللحظ
تكسر
تخلى
أعطني
برقوق
ملاحظات
خازم
والتكنولوجيا
التفاسير
الصيدل
المتأخرون
شاذة
المعنوي
وعشرين،
أعناقهم
طوق
بينات
ينمو
أثينا
والخمر
ويستثنى
مختصة
خرقة
عقبة،
والفرس
غلظ
للغاية،
آمال
كوبر
نعود
ويلبس
##لفوا
رجحه
بالمكان
بالمملكة
المغضوب
حسابه
حاجات
##لاطون
قابلا
##فاحشة
شتاء
يزوجها
تأنيث
دأ
غشي
التوبة،
الآبق
فأولى
##جنيد
لبنها
الشهادة،
منقطعا
والرسالة
الأجد
##ديز
بالحرم
وتوا
صفرة
قطاعات
يناقش
جاز،
وواحدة
منزه
جهده
##فلونزا
رخ
##هاة
الداخلة
الصغائر
العاطفة
تزويجها
دوس
سادات
##راعة،
التائب
للسا
الخفاف
فترى
أدائه
##هباء
مصدا
الديك
البرمجيات
بساط
خلوة
فيشترط
اللهجة
الأنام
##بيدة
وعمرة
ونقض
الأمم،
##كتهم
أدبية
##ضمين
حسد
الشخصية،
التابوت
خائف
دورية
بالاجتهاد
يعي
مترجم
حيال
الاستهزاء
المؤمنة
نقوم
يتعبد
لعباد
تؤمنون
الرشيد،
باثنتين
رفق
##جان،
##سبورغ
##قارا
أسوار
المدفعية
والنسب
والكامل
بغسل
صورتها
قربه
السكنية
جثة
لومة
##وضيح
وحجاج
الاستدراك
ورمي
جموع
تناولت
غزوان
مظعون
فرانك
يلقون
إهلاك
بالنيات
نسوا
صفد
لجاز
مشتمل
التتارخانية
للمرتهن
صبيان
معسر
للولي
الصعبة
وسلمة
##صدير
والعناية
ذاك،
راغ
الخطأ،
صلت
فمسح
نالت
يته
##ثورة
أولية
باشت
والبلا
الصفحات
الأزمان
أطيعوا
هرت
##ائلهم
الناس؛
المستوطنات
النقدي
الجراحية
وقذف
وإعداد
ونبه
فتوفي
مستطي
انقراض
قبرص
مشركي
يراعي
بقراءتي
##زقة
والفلسفة
##امح
بقائه
والحجاز
بسقوط
جملتها
جنادة
واليقين
الإفريقي
العشاء،
الحسابات
البريطانية،
معاداة
الخسائر
التلوث
السكين
الغمام
نصت
المؤمن،
شعرت
##فاعلية
للمستخدم
دعواهم
وثمود
لسبع
أضحية
خاب
##سلات
الذكاة
وتلف
والقواعد
يعطيها
الإفك
الاجتها
مفاوضات
الواسطي،
والشيطان
العتبية
ذكاة
سرى
##ادق
ويصرف
المسودة
نورث
وعادت
##طمئ
المنظور
ألفاظه
وإعطاء
مستقبلات
حينا
يئس
استلم
ليأ
للأش
لسانك
المشهور،
طويل،
أبعث
القصف
وعما
ونفذ
يشبع
فنلندا
رددت
وأعضاء
يشتبه
طيور
يوقنون
فسبحان
طيار
يوه
لاج
وقاد
##راد،
أمر،
أحال
إبط
يلعن
مغناط
العنبر
المظاهرات
المفرط
تكرير
جاي
سلي
أنسا
الحاصلة
##عاث
المتواترة
فتصدق
فعلية
وطبع
قبضت
أوسق
تذر
فجرى
العلية
القرص
الأحماض
فانك
وأعطي
ويستمر
الفساد،
##جيريا
بالضبط
استحقاقه
البختري
تلفظ
يهن
الطب،
سمعا
يطرأ
الانتماء
مقاما
ثقات،
الاحتياجات
علاقته
بعباده
تقاليد
شنت
لفساد
الجيني
وعائ
##وسيه
##ويتها
قصرا
منتظمة
واشربوا
فطلقها
الضوئي
ضروب
كنع
##خراط
##روفا
الناقص
لإخراج
يتركوا
زنكي
فرمى
ووط
##زود
التسامح
للدم
الاستاذ
المرضية
تشتري
##سوة
العث
وإرادة
##يبة،
تأثرت
الاستعاذة
المحلية،
السياح
والعدالة
أصيبت
بليل
أنظار
##ريا،
بالقد
##قدون
فقها
فأج
الغرة
عقيل،
بالجهاد
صوره
المضاد
الغرباء
الشريف،
يتأمل
التقييم
تفي
ظنك
عانت
يوجبه
##ريز
بعكس
البرلم
الجدير
بالحق،
فارسا
يكتفى
نمير،
المسئولية
فصيلة
والهندسة
أنواعه
اتبعه
المفارقة
الأعين
وبأنه
اللصوص
مواقيت
والكفارة
بالسلاح
التكيف
تعرفه
لدا
لعين
وتمسك
##يلد
الطبا
##طياد
ورعاية
مصرا
السلبي
قضاؤه
حذو
للمادة
أجب
بوف
##خبات
##حم،
الأملاك
اتساع
نسائكم
المكية
مساويا
##سابق
والجه
##عيت
يناله
الهياكل
##تم،
كثيرين
##وما،
يخلط
##نوي
##غته
والاط
وأرد
##جد،
فنهى
التحصيل
لفوات
سؤالا
لأولئك
لتشمل
الاستشهاد
مجهول،
آخرا
بادية
يهدى
العصيان
بالتب
##بهاني،
المتغيرات
والجنوب
والقادر
مهندس
يثبتون
عاشوا
مقبلا
قرع
عادتهم
اسحق
جدال
الأجور
##راثيم
المحاسبة
ليكونوا
والتكبير
الفاطمي
جنت
كلكم
مخص
وراح
العلائي
وجيه
##كتر
بردا
التحسين
والرغبة
عصره،
يضربون
تمه
##قناع
تعاقب
وعلو
قدرتها
ومنكم
بأه
ركعة،
مضغة
الحر،
ويعبد
يوغ
ملتزم
عاطفة
تهدد
الملاحظات
أرزاق
بوال
ساه
عهود
##سهم
والمشاركة
أمارة
فاغت
اسمه،
مطلوبة
واتصل
مذهبا
والبدع
الإسماعيلي
الميكانيكية
ثغر
سعت
الحادة
##بابي
ونشاط
##يمانهم
الصحة،
##فعلن
ناقش
وولاه
##زويج
واليس
وعمه
أبوي
##فاقيات
مكعب
نجدة
البلجي
فيؤخذ
##ولدة
المعابد
محضة
المهدي،
طاهر،
نسخه
أعطيته
وظيفته
زانية
بالثلث
الفجور
يقذف
انفس
##شتم
بإزاء
لقوا
المغنى
المرتبط
لديك
اهتمامه
المرات
الجدة
بالتخ
والسما
البرلمانية
وينهون
العظيمة،
التغريب
ونستعينه
ماجه،
لاعتقاد
ارض
##افؤ
يقرون
يعهد
ومراده
المتس
والتوكل
أقرض
يشآء
برنا
ربكما
والمنسوخ
وتشكل
##يسابور،
بالمنطقة
التيمي،
والحيوانات
##ريقا
الكفن
وكلوا
##علب
استكمال
وإدراك
بمسا
والعرف
عقدها
والغسل
وتركها
مفتوحا
وطلبت
حجاج،
مبعث
هبته
##راجا
فقصد
الطمأنينة
استولت
تتسبب
يزا
وشه
كالمت
بالطريقة
تأخرت
باطنه
وتمامه
وعمارة
عنهن
وسماع
وخسر
اشتمال
فأنى
وأعراض
المهرجان
وعلينا
##سارة
##رارات
أحدثه
تأليفه
يكمن
عينات
بشرطه
فذكروا
الفيدرالي
بثقة
مختبر
المحتال
يعتقده
منافسة
منافاة
صيامه
الأمامي
المحاربي
غور
غاص
يرمى
##ئه،
##اباة
التكملة
##حمت
ابنه،
بعلبك
اليورانيوم
اللد
##وهو
تشتهر
أثم
أرضهم
الكرد
بناحية
##تاهم
كلهم،
مصدرية
حزنا
صحيحا،
مجردة
القوقاز
جبريل،
دأب
##يرهم
الدلو
##فرنج
يتخلص
المحنة
والقوانين
##راطية،
والكه
يأتيها
جدلا
أجزائه
الحضارية
##كاليف
ومصالح
بظهر
هونغ
بتصرف
والطواف
البصيرة
الإيجابي
المقترض
كارلوس
مخلوقا
للمنطقة
وتقديره
المناقشة
##بداد
فسماه
وعندهم
وعمر،
كافرة
كافرين
الإيمانية
العنان
والمأ
والمعروفة
سويا
##ك؛
##لامات
لمزيد
المستقل
مطابق
مضار
اللفظي
راجعة
مقرها
ندوة
أنشئ
للثقافة
حركته
فعليكم
دالا
طورت
##غاة
الفلوس
الناطقة
فأظهر
متساوي
وحرب
##وهين
يقترن
العملية،
عجزت
المباحث
هائ
##روسة
وبش
المعطي
والأحوال
الراحلة
مطبو
للإصلاح
##تقار
جماعية
مائدة
فالآية
لعا
موفق
الأصفهاني
##كملوا
يتحرى
استكشاف
ليلا،
محمولة
موضعين
لأمره
فوصف
الجبال،
تهب
يرشد
##طرق
##ظة،
استرجاع
تنج
بالإحسان
والصفة
يعتذر
##فصاح
الحبشي
التغابن
القنابل
نما
تعالي
وعت
استؤ
بأخرى
مشد
فرنسية
معاذا
والكفار
العمومية
أعطت
ألبرت
وعمران
جهدا
ضابطا
عوان
غراب
بالوضوء
متشابه
للتاريخ
##رافقة
شخصيته
الإيقاع
الأهواز
فرسخ
المختلط
تجاهل
وصدقه
الفاتيكان
ديف
##هملة
##ائلها
فلور
والسمع
حسرة
وسبحان
أفراده
الكتاني
فسخه
شغلت
اتهام
عوي
##حراف
أنجز
العصاة
الخلد
##بلت
الثغور
تدوين
كسرت
يديها
للفريق
ليلى،
طرحت
أحرز
##دير
متمت
##طففين
وغا
دخان
شخص،
الفاسقين
لاتفاق
بإنتاج
لتأكيد
يغتفر
##بيلا
الجذا
##يدن
كلبا
هيبة
سنجر
حقن
والشعب
والاعتبار
مضطر
الصالحون
يلزمهم
أموره
سلام،
##غلادي
التساوي
وتحقق
والمذاهب
بدراهم
لتصل
علمه،
وشكل
بلاك
تأسيسها
والثلاثة
عاف
التراجع
أولهم
وبحر
تمضي
أشع
تفريع
إيذاء
بنتا
ممثلا
والنسائي،
علماؤنا
عشائر
السجناء
تود
نحكم
##قنا
##لاك،
العزلة
والمشي
المتشاب
مقبو
ألفت
الحالة،
ويمثل
وديوان
الموقعين
ضاعت
##كروسوفت
##كينة
المقل
واللو
حسني
التأجيل
الإنترنت،
أصواتهم
##ضرم
التقد
السرح
الدما
يأجوج
سيطرت
الأقمار
جوامع
حيوانا
والثلاثين
التماس
البلوى
يتفاوت
لأولاد
مؤثرة
المنادي
لقريش
مهين
##كولات
وحملت
تفعلون
##واق،
القعدة،
أحرار
الأحول
بصنع
لغيرها
الحجر،
وبالتح
صيفي
الشنقيطي
عوام
يتوفر
والتمييز
وحسين
مهلك
حوله،
الرخ
##صرنا
الضال
##بيل،
فسكن
أمامهم
##سابا
النزعة
فرأيته
لاحقة
رمل
قضاه
هائل
##جبار
معام
الغدر
فتزوجها
الاندلس
المقبوض
مهند
ذكاء
ففعلوا
بضاعة
همة
لمصالح
العبسي
التجارة،
اوله
حدائق
وإح
والصيد
##واعظ
اللاس
وماتت
البترول
والرفع
الأرم
بالكر
##اهمات
##عارا
المعية
جعلا
القطاعات
تحسبن
آتاكم
حربية
شبل
لتقدم
والحذر
جزما
الثلث،
شاشة
##كاته،
لمحاربة
لتكوين
بربه
هاني
أنصح
السائق
للشك
##لبها
مسالك
وحياة
ودرجة
والساب
فجميع
يصفون
معطوفة
فيشمل
إضاعة
ديس
طموح
النصي
التكلف
الاربع
والخطاب
يربوع
نقيب
##أرة
##حيق
متوق
##ندب
المشكل
وقتها،
أصحابك
مزية
العمر،
وحفظه
لحر
هذة
وفقد
يكلمه
حمود
حرمها
يعودون
الهواء،
الممتاز
بادئ
عاتقه
أغير
عون،
##جنة
السداد
الصلا
الدمار
##رقى
##لاله
##نده
لعطاء
والإغ
يلبي
نزولها
ايوب
تعس
تعاد
هولاك
لتغيير
مقومات
بخارى
##طايا
اشتدت
عادتها
مولاة
الذهبي،
فزارة
ورمى
##كدة
##صة،
والتقاليد
وفريق
تصحيف
##ثمة،
فأعطى
بالمرض
المصنوعة
بولا
تليق
شؤ
فابن
بالمل
أوكس
معونة
##لبان
أخلا
##شيق
أدوا
أرباح
الصدد
التمريض
رافعا
ثور،
##ديقا
وقعد
مثيرة
اعتد
والشباب
حصان
عيادة
مرورا
واسأل
والبرد
للعباد
والجمعة
##راي
وأوائل
وتدمير
مثيل
المنفي
والأمانة
وأقوى
الجريري
##يابي
##وائها
فليأت
لحال
المرتب
حجما
أبدل
وبلغني
محدث،
الهذيل
خاضعة
الفصاحة
بإعطاء
الكورية
وترجع
وكا
بتونس
وخبره
##نعوا
ساكت
وتحليل
وأيدي
بالغسل
صرفها
الباقر
موصوفا
مؤسسي
##ليز
بالخص
##كونن
الطبق
يجزيه
والمختار
أعود
مؤلفة
والشريعة
أغلظ
حسنا،
الأقوى
نوادر
الكندي،
لذات
وشيء
##جج
والها
##وتش
ذكرنا،
##اقان
تنطلق
وصب
فكشف
لإحدى
التوافق
محفوظا
##وصف
##ماي
التليف
للولد
الإلكترونات
تجبر
أبدى
المصريون
جهنم،
يبعثون
نذكره
لقطة
##صع
يتسم
لتفسير
العميد
المهندسين
بقدرته
للمعنى
فالصحيح
فخير
مبال
العموم،
سلول
كرامات
دهر
لاجتماع
ينجو
اتصف
اختير
فوجدوا
وارثا
ألكسندر
وسلطان
حقول
سفل
وراث
##خلوها
النطفة
الكفارات
وتفصيل
كالمع
الأحلام
الحمد،
يستحقون
صدوقا
النشاطات
السلة
ولاي
##يلت
أسبابه
لقيط
الوسائط
للسيوطي
ناتج
السه
المستحاضة
انتزاع
قدمته
حسبي
##غلين
يستخدمها
فأصبحوا
##كراه
واحمد
الاكمال
فتدبر
الواف
المجمل
فعبر
بحساب
يصيح
وتعليق
##خدير
والجيش
الشاميين
معاذ،
العهد،
بليغ
أوري
حملك
تخي
التفات
لإنقاذ
قاتلهم
كهربائية
حجت
شبة
قرق
ويمر
وعظيم
وبالح
القرشى
يسعون
أدرى
##زامات
عدمها
والمعلومات
سألوه
حقوقه
وخرجه
غرين
الفاروق
تنفيذها
ماهية
مسألتنا
اطمأن
حدي
لونها
الذوق
لأهلها
يعنيه
نصرا
ترشيح
بثبوت
إصبع
السواحل
خليفة،
طيف
وأهداف
الطار
النادر
تتولى
داي
أدراك
وينسب
ويستعمل
مقاييس
الاشعث
لصاحبها
فانظروا
فواتح
المليح
نكاحا
خور
يرع
منامه
السدي،
بعلة
برئت
أتزوج
الأزمات
ينازع
المأثور
يفهمه
ذبحها
معناه،
الجوهرة
الأرثوذكس
تضيع
قين
والمو
أكف
تتطور
أحلف
والسكر
والكاف
##زبور
القصة،
الموجودين
بالفضة
للخلق
الأردن،
ملخصا
حكايات
فتف
فتخرج
تتلى
شيخهم
إيجابي
يفعل،
اتصالات
مراكش
برهن
قشت
##كيا
السمان
الرضيع
والتقى
بأقوال
يطيب
المزمل
فيتامين
حدوده
قضائية
خاطئة
كاشف
بروايته
متغير
المصرفية
##بيهقي
حاولوا
بسيف
فرويد
قسوة
بطاقات
خلفه،
توضي
التدفق
ساروا
يتخذون
تجاوزت
والمساواة
الأناجيل
##هبة
الطاهرة
##كاكين
مستحي
فاي
والثمار
ويتخذ
خالفهم
احتيج
الاضطهاد
بالبي
معدي
حدثتني
الربانية
الإفريقية
المنسوبة
براد
يول
##سنات
الحريات
للدا
##عيفه
فأعتق
وسلك
فتصير
القرء
تتقدم
تفجير
معدات
السبعينات
يكتف
داخلي
بوفاة
##ضايق
فأهلك
أقرع
علمك
والإب
مأمورا
الأسباب،
شارل
ناجية
##بايعه
بؤ
خنزير
دوم
##ثيق
البخ
##لولا
الاخير
يعزر
فتد
يستيقظ
بشهوة
وأمكن
أبرهة
الأمريكي،
##لميذ
كرات
بالعتق
وتربية
##روعة
##وقين
بكتب
تحتفظ
برحمة
بطوله
الأحسن
الاسماء
صلاحية
مستقرا
الإفراط
##رابلس،
والشيعة
إقامتها
ديزني
المضل
أوطان
الوفا
##جمية
جزية
وطرح
أتدري
والثبات
الكوفيون
الصدر،
نقضه
الاكتئاب
ليقولن
زاهر
فلبس
ويصلح
محنة
دخولهم
بعثك
يمنعها
وأقيموا
إسب
تشرع
ووع
السوائل
الايام
مقرونا
بتغير
الأنسان
اشتري
وغفر
التكامل
اللامع
عتقت
##عداوة
هاتان
طليط
وغم
ويخبر
المؤدب
قتلة
والنفاق
تطرح
ترمي
##طارد
وسبح
خزيمة،
ورقاء
الرائد
مكروهة
هداهم
وتحتوي
البلقان
أسفله
اللقيط
عاك
الصوتي
##ودية،
وتحرير
يستخلف
وصاحبه
##سرون
النسائي،
والنذر
بالمسلم
##وراة،
لإب
بالدراهم
أنكرت
يلبغا
مأذونا
شربة
##وشة
##وير،
##قيا
##جلات
والاق
##ربما
يتل
والمفا
##يبها
##كانية
بأنك
أحسبه
وفارس
لعقد
ويتصدق
ويملك
ويستدل
مليئة
سيره
المحاكمة
الكامل،
تأويلان
الشاشة
بالاضط
##الط
المرام
ماضي
الجوفية
##نيعة
##نيفة
وعلاج
الوص
الزبد
بقيم
مقصد
##اطع
عزا
لنفي
القبط
لكمال
جنابة
فأحضر
واتخذوا
جمهرة
رائع
أندري
الفرات،
يعرب
الرحيل
وددت
يكسبون
مليء
الوطني،
الاشعري
العجائب
مميزا
##طاب
##ضمان
وقود
##قاما
وحافظ
بتفسير
##ذرين
لعلة
المثالية
الاحتفالات
ويميت
مهرا
ومرت
كامل،
الأتباع
بلت
جليس
عهدة
فيمتنع
والكمال
##ودته
والأر
والعكس
الاستفتاء
##افر،
والفروع
اعتقادهم
أضيفت
زبد
نيت
ونائ
##ونج
انفسخ
متد
##ساند
بكف
لإظهار
وعندنا
ويؤثر
تضمنته
ناسخ
يعطون
شاملا
المتمثلة
فهن
أسما
والعلاقات
مدف
فرقت
بصيام
##يمياء
محرر
يقدمه
مملكته
##صاق
##املها
الحلة
##ورية،
##ائف،
الخ،
ولديه
بتوحيد
مبشر
النظامية
ذكورا
الفعالة
الدراية
ميراثه
خيمة
دس
نرجع
##الأ
والسلم
التروية
القلي
النذور
##برق
ولكنك
وفاتها
وثيق
والدواب
والباب
نقدية
حزبه
فائقة
ذهنه
بضعف
##ذة،
فيضع
أنذر
وكذ
يسرا
بإص
انتقض
تؤكل
مهدي،
ووادي
غضبان
العاطفية
فوثب
مورا
##ارية،
الفاصلة
بعناية
##يتين،
##هدت
للموكل
مستمرا
والنص
##ذكاء
شكلها
مرفوعا،
الخطيب،
فأتت
جرعة
والى
أندادا
المتك
المتجددة
تسعا
أرضي
لصناعة
يقبلون
اختلافات
الساكنين
إجار
كرس
بالذين
بالمائة
الضغوط
##كيله
أدناه
مخيم
قاموس
تطورا
وصحب
وبرع
وأصيب
فاروق
بستة
ولبنان
المراكب
الرداء
للقول
الثع
يتحكم
يمض
تقود
البيضة
##طارا
فسئل
زوجت
تزكية
لغزو
مباني
قلاوون
ونهيه
يهتدون
عقيدته
مستعملا
اخبرنا
حوائ
هيب
##جعه
الملفات
بمجموعة
عمري
المصطلق
بإسم
##لائها
وربط
مقتضاه
التسعينيات
إبعاد
وكندا
يدلس
وحرك
##وط،
احترازا
مطاب
سلع
أواسط
زميل
البولندية
الزعفر
##بقة
القروض
الويل
حدثناه
فكثير
##وائهم
حاجتك
ذاكرا
وتطور
وقضيته
دمي
شامة
كوست
بنقص
##حدها
الفاجر
##روهن
##ردها
والنوع
والبغي
بالعالم
قيما
البريطانيون
ذاق
روين
معهود
المتج
تدرج
أتدرون
السبب،
سفير
أعتقت
وأهلك
بئرا
فديك
##سعت
النقط
للمث
تأكد
العلمانيين
تدليس
للكاتب
والتحريم
بركعة
والفرنسية
منقذ
وزياد
بروس
##فينة
##فضوا
لبعد
كاملا،
الضحاك،
سدس
نيويورك،
صحبة،
مزايا
للمولى
##فقودة
بماذا
حكموا
والدواء
الرمح
بالجملة
الإقطاع
ليخ
المعرف
عميس
أدبر
يؤتيه
والحكومة
انتفاضة
بالحاء
البارز
عظمت
احتجاجا
الطقوس
الصفة،
يبلغوا
اصبح
ضالة
##قرض
##ريحا
وقوته
وتدع
وكعب
يتعمد
المنقطع
##فوعة
طالوت
مختارا
تلقائيا
الغيوب
أسبق
مذم
##الطة
الأرضي
وثانيا
يلونهم
لحضور
##برياء
مغرب
شكله
ترجي
شبهه
والتعظيم
دبره
##طنة
##ذاه
البس
وموضوع
المعرفة،
لأقل
يحظر
بقسم
الضارة
المشاهير
المصي
سعيدا
تصريف
وانته
بغلة
عاجلا
الضوئية
دوغ
##انق
المهل
بلزوم
بتخفيف
مصنوع
الحرمان
فاستغفر
زمانه،
نجاة
بالأمور
حنا
دكان
سوبر
والكرم
لهجة
وبذ
بمرا
والعنف
ركزت
وأحمد،
بالظاهرية
فجا
##ائقي
للقتل
##عيذ
ونفخ
ينضم
فالوجه
حكمه،
المخاوف
مبكرا
العلاجات
خفيفا
التضامن
طاعته،
##لمذ
الشذوذ
ويصد
##تيبات
##عمق
المعبر
##قطعة
بناؤه
زملائه
وسقطت
فسبح
المنطقي
طوافه
والاهتمام
##سابه
##ديب،
البداء
يأيها
أداه
بالنسب
تهلك
انقسام
جلسات
والوقت
الاحمر
ضاقت
يقابله
حابس
كاي
وتجوز
ينفصل
##زم،
تركب
يعدو
الهدى،
السمآء
الحيض،
التسعينات
المرشح
ترأس
الأدعية
القائلة
معجزات
للسن
وإغ
والشمال
فمنه
وروسيا
سهل،
موتا
رومانيا
والإعراض
ينهض
عصي
قفل
##كلية
فيها؛
منهجية
مقبولا
بشار،
للتج
اختيارا
معترف
كيوم
تشترك
##جلترا،
الممتحنة
الإنتاجية
امرأتك
للخدمة
وجاه
آخرين،
تنبه
مؤمنون
الصبح،
العوام،
لجد
##صبه
##ليوس
وأجهزة
المتخلف
يدير
تقوله
اعتذر
##قاله
ميكر
ميادين
متعديا
الإتلاف
بنائها
##كستان
##آئ
##ديرا
متجر
انتهى،
سمير
والمعاني
توعد
أعمالنا،
يقفون
هجرته
صعوبات
مباركة
قاسية
الرقاشي
مابين
##تباع
فيني
أسأله
الدينامي
الضيافة
للاج
الصغيرة،
##واصات
أفكاره
المات
##ريدي
##سته،
الفول
لأنني
فالرسول
جمعهم
كهيل
رشدا
هادوا
مبيعات
ينعزل
داب
نفقات
القهر
وأصدر
ولغير
والمقام
ثلاث،
تساء
مهج
لطالب
داخلها
البعثات
المخاطبين
وثالثها
وضوئه
التشريعي
##كبة
والرض
بالور
لمصدر
وترب
الثريا
كتاب،
زوجين
والخاصة
حسابات
سبق،
صلبة
تأثيره
قضاها
النجمية
كيميائية
الذبائح
تورث
سعيه
لته
مراه
يذم
##لبي
منفذ
للحمل
نعطي
حاجا
المضمر
اصطف
بزمن
الدهر،
حزمة
الأب،
##ائين
##ضيض
والمحيط
فتخ
##سان،
وشا
ورخص
والرئيس
ويحتوي
الفرج،
ورضيت
الدماغية
يرمز
مخاطبة
آم
مفصلة
##ضارب
أوقية
وتقل
يحسبون
المستند
وخاتم
وانخفاض
بالعهد
فحديث
##ونسكو
نهاه
قائلين
الموسيق
بالناس،
الصا
الدمع
##بوغ
##ذي،
ممارسات
بإف
تطير
التفكر
وسطها
الرائدة
الصليبي
أفيدونا
إرم
##ليوم
استشار
البيولوجي
بحروف
لفظها
تغسل
اصطلح
النزاعات
مقابله
لسنوات
##وذه
بالفقه
الذكري
والعش
##لائهم
بالعفو
جنسا
مقدور
بارزا
يقصده
بالثلاث
النظير
المهاجم
بصحته
الرمادي
فولت
##كنات
منصرف
أنا،
##دادي
الناقل
متنه
##رسه
والعادة
العمالة
قصبة
وأرادوا
معرفتها
تطبيقها
بصدقة
المياه،
الكوك
المناظرة
ميشي
المعاصي،
وائل،
تأخيرها
بارتفاع
أثير
ادريس
##خي،
والاز
الختم
وبينا
ونفى
أدهم
وعدهم
الفقراء،
أجرها
وحرية
بالضمان
الفاحش
منة
بالنس
للطفل
وتوكل
يستغل
شيء؟
للأعمال
مضاربة
كسرة
باردة
شبهات
طمعا
##ولم
المفسد
بالاس
##مرد
##مرية
الشفا
ومحمود
استبراء
المتزوج
وأنفسهم
انتفع
المطعم
مغفل
بيانها
درهما،
والزراعة
جهرا
يجتمعان
الإغريق
غزاة
سلاسل
الإضرار
جادة
##أتى
##جلين
مجيب
بالأز
والصور
إيط
نقابة
حكيم،
للعقد
بالسؤال
للجمهور
مسلحة
معتقدا
ختام
المحظور
طهارته
طهمان
الأفارقة
وأجرى
##عداء،
الاسمية
استلام
وأنفس
لتحقق
علمته
تجا
مختصرة
الفرضي
الانقسام
الحركية
مفلح
المزارعين
جوعا
غاض
ملق
المير
الحركة،
وقنا
السالفة
الشفع
الذبيحة
##قاها
تقبيل
يشغله
المطبعة
وضعته
تغري
السياسي،
تهديدا
وذوي
حضروا
وتصحيح
تحريما
سارق
##خية
بالعودة
القطي
الرخص
الطري
الناجم
صدرك
فحبس
وضد
أعطاك
وثانيها
ببطولة
عبار
عنترة
وتواص
يدوم
التقليل
بسام
وحدهم
البدن،
النمساوي
متقاربة
لوارث
##جمي
##رت،
تقيد
بإزالة
يخش
يصحح
##واعق
سلخ
توقيت
السابقون
الأحاديث،
مهمته
عطس
سلاما
##روات
المضاع
المضيف
##فسيرات
ومالي
متولي
الشيعة،
يحفر
تتحمل
الضوابط
المجتبى
مرصد
عبادنا
الممكنة
يجعلوا
فرقوا
المأمون،
التنازل
والوطن
عزيزا
طغي
يبادر
القمر،
وقرن
وترجم
والصين
والثمن
اقتدى
يدفعها
بالفضل
استغرق
لحاجته
والسرقة
مهن
##ونها،
يتخير
هيثم
يبصرون
المتوسط،
فصيح
تبري
الاله
المروة
متكلما
فتارة
##عبارة
يستس
أفأ
الأنماط
ومعمر
##اشع
مبتدأ،
يطأها
فنت
التقت
النثر
بعق
الطمع
بجواب
الفقيرة
البدوي
يسمعوا
وكتابة
والورع
ذرات
طقوس
هبت
مندة
##راؤه
وبمن
##طانيا،
عزت
وضربه
امرأتين
حجمها
أسمعه
كحال
صبغة
مضطرب
##طري
فيضرب
التأم
لاهل
للفرق
فأردت
والصي
أرغون
هدانا
والضراء
يضعها
للجمعية
بأفواه
زكرياء
بقب
تأم
والنعم
قلبا
التحري
بالسفر
موتي
هداه
حذرا
باريس،
تجاريا
كفيلا
آتاهم
الباعث
ريو
فوص
أقضي
والنظم
تشرف
حمص،
وآدم
يغلق
نظروا
تزد
##قيموا
نسبت
الحنظ
صفر،
الصراعات
السطحية
الخوارزمي
تظاهر
شريعته
كنه
لوقف
الأوز
##سولين
فتركه
بأربعين
اليها
وحساب
وليم
حكمنا
نشوء
المروزي،
بذله
مستحبة
وأحكامه
السلاطين
الرئوي
يحرق
وقاية
وتردد
##ذهل
ونوا
الضبع
بإصدار
الأسفار
أرضها
ينتبه
منكم،
وجنوده
الهمذاني
إرهاب
تدهور
حولهم
سائق
الحوير
المتواتر
يكون،
تتعدى
للأص
وبالعكس
يبقي
المكانة
أحدثت
بريطانية
ضلوا
قعر
السائر
ليز
أعقب
##ابتهم
للقلب
سابقا،
ببن
##جعا
##ضرع
منحه
السرق
للسل
ليو
متصرف
جعلوه
والشرف
نقلوا
إملاء
حذفه
ووزير
والوصول
الشوق
تعيد
فإنى
##فرين
بمضي
وزنها
##صباء
##فارس
بالحجاز
وتسليم
هدفها
إثباتها
السريانية
ديمقراطية
رحب
والزع
وتوفى
##وال،
عملة
الأنج
المدلول
##نبور
##جتماعية
وسيف
للشعر
ينفعك
تأثيرها
متقارب
بفل
دمرت
يناه
الميسر
يتر
##لمات،
لكنا
القبلي
قائما،
الحميدة
مزيدا
وبالتالي،
الجزائر،
بالزواج
المقريزي
إطلاقا
يبس
الينا
##فيرا
المصنعة
التفصي
وانتشر
ودخلوا
لكا
##راقه
عبدوس
وعبارته
يتاب
ليص
يستبعد
بالتقوى
الرجعية
حبست
وضوحا
للاخت
صحيحي
هارفارد
وعرضها
وكرمه
والقاعدة
زاهدا
الفخار
اليش
رافع،
الماركسية
##حصار
##حميل
برين
والجلوس
الطائفي
فيتعين
الأنابيب
##هية
بالكل
الجنات
عندنا،
أكلم
والعز
المستخرج
مخد
احتراز
احتفال
للنص
بالشكل
آنذاك،
إشبيلية
للثورة
لعنهم
بالتحريك
السلاسل
تخفيفا
السويدي
كولي
بنشاط
التلفظ
القفا
الغارات
ذكرك
تتجه
مخاوف
تستلزم
المشتري،
إنسان،
عناوين
الامتحان
سلبه
##ونا،
الرفاه
الكاتبة
##فرده
أخفى
فتصح
##والب
محط
برود
ارتداء
للدخول
البحثية
حامية
الموضع،
شاهدان
يلقاه
مجردا
المحققون
##نآ
بقضية
مرغوب
القبطية
المجرمون
نازل
نيوزيلندا
تفيض
مبس
##شفي
وأحق
السهر
فألف
الغل
والشك
والاستدلال
إخباره
بالتسليم
دراسية
الحبة
السينية
##بونات
فقرة
##لو،
بتوجيه
بشري
عبودية
جزافا
تهدي
لخوف
بالوصف
أجيال
بروسيا
عونا
الأزياء
##منون
ويكبر
أمهم
##بحار
تتش
أشجع
أبسط
لحقت
توعدون
##واميس
##حصن
لاتحاد
الشيباني،
الأسطورة
وثانيهما
إزالتها
عيلان
ماشية
القمع
قوموا
الثلاث،
مختصره
أموالهم،
نوح،
التجمعات
الاربعة
##حوذ
تتف
مستندا
وخيار
والإناث
نقلته
المحمولة
الحفريات
إحت
دلي
كمه
الظم
##ارقه
وكالات
وحصول
الهضم
إليه؛
مؤن
فسير
ويتضمن
ماليزيا
وتضع
واختص
بعرف
استرداد
بأيد
##ريدج
##قصا
المناوى
بصائر
حسبك
كفاه
لبشر
والمنطق
جاكسون
وارتفع
بربهم
شروطا
المتخصصين
فارجع
آفاق
حصد
حجي
زراعية
الجني
##ذهبن
القرية،
بالمصدر
التأبيد
يعملوا
قانونيا
منشورات
أرمينيا
غولد
فوزا
هوم
معالي
وعزم
##فسدت
وثب
للنشر
علمائنا
يليها
الكذب،
أذهان
خبيثة
زرا
كفة
بالاج
ومراكز
##وقها
عدة،
وشغل
بطرف
يهديه
واحتمال
سائلا
جنيف
##عاف
##بيله
باللون
السوم
وايت
والتعا
وليمة
دونه،
البقرة،
تعليمات
إصابات
نأكل
والبحوث
##راكا
معرضا
بعيره
تنفس
وأهله،
عجزه
للناظر
للسلطة
أيت
وعشرا
بعضها،
عاملة
بدونها
بأج
المشورة
رب،
مؤمل
نشط
جنسها
واللغات
بنفسي
صالحا،
الخارجة
فجلست
توزع
وفاق
ليوسف
والتزام
##ذيلة
كلامي
لقانون
وانفرد
بالنصف
ثوبين
المنزل،
ضيقا
حصاة
طوى
التباين
مستحيل
ورثه
تكسب
الموازية
يخرجاه
النص،
الهدم
شعره،
واقعية
والسيطرة
متقدما
تهن
ثوبي
درة
##وسلا
يدى
يسقي
والنه
الرجلان
داروين
نيوتن
متأخرة
يونايتد
ماساتشوستس
##نيمة
فيجد
البليغ
تحض
قتلتم
مدحه
عبرت
وأعجب
ضرره
موالاة
أديت
فخلع
هيد
##حله
والبه
للرحمن
##عاثات
يستحي
مسلمة،
خارجه
رزقهم
تخصيصه
فسلمت
##عمار
والاع
ويلسون
وجر
الوفاق
الفترات
اليدوية
كلمت
##فيسور
المجروحين
بزا
الأودية
يتحلل
يدريك
الهروب
وصناعة
بإظهار
##سطح
انتاج
والسلف
مرشد
العبور
أبناءهم
اجتماعيا
أتيته
يسبحون
الممتلكات
هبوط
الداري
وتشهد
##داما
استنتاج
والعزى
##ناهي
يفرقون
للإسلام،
والسياسي
التماثل
آرثر
موريس
بأموالهم
اطلاع
ووك
##جعة
الحمرة
نسق
الأساتذة
والقوم
ضربها
وأمرت
الزنادقة
ألما
##هارا
والستون
##رجوع
##فاها
أسره
كتابها
والعلة
##قدمين
وخز
فضح
الحبشة،
منزلها
وتدبر
عنقه،
اليرموك
والقتال
الحيتان
القح
والمجاز
والأعمش
تمد
الأصول،
المكتري
##فراده
إيران،
تكريما
زبر
فبق
الملاك
الفوقية
وتعيين
وعنا
وعلامة
ومنظمة
منهجا
دونك
والاختيار
ثانيا،
نشاطات
تنازعوا
المهيمن
كريس
فيزي
والبعث
القلا
أفريقية
##للنا
الستة،
حمارا
نبذة
فأعاد
تداول
بأصبهان
الكلاسيكي
##طانية
فيكره
بالحي
ويعيش
##وصوف
فتاويه
والنخعي
ميخائيل
ختان
عجي
استدعى
بحرا
المصابيح
والاستقرار
يحتاجه
خوفه
يقرءون
الائتمان
ألبس
بنج
للخص
للحيوان
الخالي
الكتابة،
تدركه
والخنزير
تطيب
المباحة
سقوطه
متأخرا
يرغبون
البرمجة
إزاره
المنصورة
النجاسات
التذكرة
وتوفر
##بولي
الثرى
ينجي
بأغ
لمنت
قلبت
سماحته
بمعصية
فخالف
صادف
الاصل،
رياضي
والستون،
بخدمة
يهل
##خبة
المحمل
العجيبة
##امسة
المنصف
أسد،
كتابتها
تكفرون
والاكت
البرون
رأيتك
فاستأذن
ضعفت
عطش
أهلكنا
يظنه
فانطلقت
النيسابوري،
ساجد
تملأ
ليا
البائن
الصحا
الخري
المعصية،
الخطابة
مؤامرة
##خطى
لرؤية
مظلوما
دولار،
العواقب
شروح
##؟،
والشيء
بالني
مثلكم
وأماكن
وادعوا
إنتاجها
التغليظ
يعطوا
توكلت
الأناضول
##طمئنان
ملفات
الشحن
يعمد
##سبوا
متدا
##مامته
بإصلاح
بالإقرار
وعدت
ببطلان
لبست
غالبا،
ثانيها
يجلد
القلاع
النازي
فأرجو
وغاب
عاجل
فرضنا
ومنهج
قسمه
التسهيل
المقتر
فأعجب
قياسه
ألقيت
صربيا
اثبت
سيمون
البذور
بعص
الناخبين
الصحفية
سلبي
ويدعى
وتنتهي
رابط
استعان
السلاح،
يتمكنوا
وأظنه
إرب
حظي
روب
زاذان
الياس
بالرواية
بشك
بالإمكان
درء
الشرطية
الوضوح
يمتاز
حياتك
بتعليم
توليه
فيحلف
المستحقين
المتصوفة
ارم
شحن
##خاله
الكوني
يحيل
##نسوة
تنشيط
المجاعة
وشم
##جاب،
بالحرب
صالحين
للإصابة
والأنعام
أعضائها
##اتهم،
وهبة
إندونيسيا
تعتق
##قافيا
والتوفيق
الأرضين
المالكي،
الجملة،
##بريالية
راعي
حفلات
فاقتتلوا
أحرق
اللمس
لائحة
جاهدوا
كارثة
المائع
الأسبق
معسكرات
لموت
الوعاة
عمته
والنبوة
ممنوعة
فصعد
باتخاذ
شاور
والجماعة،
وإدخال
بجا
لرأ
##ربول
##حد،
الفري
وتبعد
الخفا
اللذات
تستقبل
بالجهل
وأسامة
بثمنه
شغله
الزعماء
أرواحهم
بالمه
ومف
الآجر
##بهان،
متفرق
لأمير
##وهة
أقره
أتلفه
بجماعة
التنقيح
يردون
الإصرار
أضحى
جبرا
يبع
##ذان،
العرس
أوضحت
##افهة
متتابعين
اللحي
عزمت
لقرب
يغزو
بغيا
اثناء
وامرأته
المجاور
رءوسهم
الجبرية
الحفلات
لرؤيته
##شح
التجي
بالصدقة
معارف
البواب
##ومتر
ويضيف
ومراد
لأست
بطولات
تزرع
أجرتها
أدركته
سواك
الصلح،
الاستخلاف
##طرا
الموانع
وتقرير
يتلق
استسلم
تنسيق
المعتدين
سمية
عبادتهم
لغوية
تعرفون
مفرط
والدينية
غوا
##قاويل
متوجها
##جرها
##مسة
فبم
فاستجاب
التابعي
الالتهاب
أديبا
الخبائث
الكاتب،
الفسطاط
بلخ
ينصره
والتحق
بمصالح
تقاته
اشتغال
المعتدة
واتق
راغب
التفاوض
بالفعل،
##جيرمي
وأجازه
والتدبير
فحملت
والغم
متكاملة
وأنفق
نهوا
بالجيش
والزهد
تعديلا
الأعاجم
أدعى
ضاح
غيل
مده
المحصن
الليبي
أمامها
غزة،
الخارجية،
المأكول
معلوم،
طهورا
والخزرج
،وي
سوس
##جرات
فقرر
##وبها
سيست
شرطها
الركبة
نفيس
دراية
تباين
عين،
فسل
كاهن
مفارق
##وكا
أنسب
##وندي
وأكم
##يلولة
الزفاف
والقرب
مغنية
إعادتها
وأساليب
الذهلي
وتصديق
ساقها
وزوجة
وفتحت
المزعوم
##شوش
ومقدار
##ثرين
وساد
##ندن
اسمي
برؤ
والزنا
الحماسة
أندرو
فداك
دكتور
الإذ
يقظة
أبطأ
بالحسن
تمامه
جلوسا
##اتنا
##باذ
ولص
النسفي
السببية
بلده،
عصمته
ثيابا
فعا
##الجات
الجليلة
متوفرة
الانقياد
##كار،
فاتك
السكان،
يشتريه
معادن
المحافظات
يقودها
وجاهد
وبس
ولزمه
استقب
##يتار
بأح
بأعيان
فالز
أجراها
لنيل
##رابها
##حلوا
تخشى
##فاعلة
التنقل
إمامهم
يضرك
مكافأة
كصلاة
توصيل
حبر
##مالة
المتغير
أكفر
للمخ
المجز
يشته
للتخلص
الموعد
لحمها
مركبا
جذا
فرم
والراف
المسكر
مصورة
وصلنا
مهاجمة
الممثلين
بفساد
خرد
الميم،
وأبر
الباس
الزوار
مدخ
واستقبل
برية
فمنعه
الأشعار
اقتحام
الكاثوليكي
شقة
##بلها
بالابتداء
القهار
الخريف
يتوق
أبوبكر
ومتابعة
فأل
فترد
والأيام
كالمن
قومنا
تخيل
عالية،
كهذا
كسبوا
المرشحين
مازال
البقيع
يقرض
بموجبه
كالي
المستصفى
بنيان
ويتميز
خلفي
الصيغ
ترميم
فيكتوريا
بائنة
نويت
##ذفه
والطاقة
التداخل
الغليظ
فكلا
##نبية،
##ريضة،
فالمت
العاقدين
زواله
قرطاج
سعودي
مفردات
التطبيقية
##انى،
##اءه
أوجبت
فأبوا
متحدث
أسفرت
نزعه
مزينة
للسفر
يتركون
الشريفين
الطرقات
والأمراض
أخلاقية
بتأخير
##لهن
القواد
وقلوبهم
الدرقية
انصر
تحظى
الليلة،
سهمه
مبيعا
ذئ
مراكب
##صهم
ومئتين
وبار
ليبلغ
تأذن
اسمك
همز
تستقر
السنين،
عديم
قبولا
الموه
العنت
وبقاء
##صحب
حيضا
مالا،
مقادير
إذنا
للهي
##وارثه
عاين
تولية
أيديهما
دراهم،
أجنبيا
بجملة
الأيتام
##ني؟
##كون،
ومقام
##عمري
الخطية
قريبه
فقتلوه
أعتقها
حسان،
نعتقد
المقبلة
تبل
رقيب
كينغ
وويل
##ثاث
للشر
وعلة
وعقبة
ومجلة
##قاعد
بأني
الهوا
خيركم
مكونا
الشرقي،
أحرى
تساقط
تحصيله
ماؤه
الإيدز
وموت
مدرج
الإسراع
إيطاليا،
يشترون
هاون
النوازل
تلاوته
تطليقة
قدماء
##بتون
عامه
##لافه
القاعد
ويتحدث
شرحا
ابتلاء
للاهتمام
بالاقت
صوتها
يستطيعوا
فعلتم
اعتقدوا
الجويني
اسلم
تطف
##رحيم
يمكث
بشق
جنديا
القتالية
النعمان،
سبتمبر،
والحدود
النور،
وحرف
المستور
بالمشي
إيثار
اقترن
التجريبي
مرتبا
بالجماعة
الأكثرين
التبريد
أزواجهم
بالشام،
جراحية
منقطعة
أدين
فشد
الملاحظة
القوط
المتصرف
##كومات
الستينات
الأواني
لكونهم
الشكوك
الحاضر،
غصن
لورثته
موكب
يرأس
العطية
البساتين
##حيتها
الثغر
يتجلى
ومجتمع
الغلمان
تتكرر
فعسى
عرفته
##طلاعه
مقامات
شديدة،
كهذه
نشاطها
استأجره
رقة
شباك
##ثناة
ماعز
ومختلف
##وقاف
لأنهن
تنفسخ
وشعيب
التنزيه
الداخلية،
وتطبيق
قارن
غسلها
غشاء
##كثار
فيمنع
لاقى
##ردام
أقمت
والحض
والنقص
##زعج
يمنعك
شاة،
ويزعم
الحواجز
المدرسية
استقلالها
الإضافية
خالي
خوسيه
شكري
ورفعه
التلق
الخاف
فقعد
##علل
ومناق
للمرضى
وخلفه
تصوره
والجاه
وجودا
وغض
##دلسي
المملكة،
محمودا
أفعالهم
مكلفا
المقلد
##ادلون
الفندق
الوهاب،
المتصدق
مدبرا
نسج
الصوت،
للآمدي
وتجنب
يتطرق
مشغول
بالإسكندرية
فأرسلت
هور
##ولوم
يترجم
ينصرون
لتط
علمني
بسائر
الاعتذار
وأمهات
قبره،
احتمالا
وأزواج
تتيح
زمرة
والقطع
أنقص
السلالة
للرق
##ودوا
وعرفه
المدرعة
اسرائيل
مذهبنا
خارجها
أموالنا
فنزلوا
ووضعه
لحدوث
لحظات
أفواههم
رويناه
مفقود
##ظب
يترجح
خلقة
والخضوع
قطعا،
لسائر
##ضبان
رحال
لفرض
ثلثمائة
لمعاوية
للمستأجر
يرحمك
الرطبة
طباع
##عش
##سمان
ومقاب
##هرم
استأنف
القردة
تنظيف
##يزيد
امتحان
كافي
وبدل
درجته
ورضوا
يشربون
الفهرست
##ماخ
والوص
أنقذ
الشراح
ومخالفة
فاغ
عقابه
قومها
وجودهم
وبالا
اصطفى
منزله،
رفضوا
الأخبار،
الإصلاحية
الكهرومغناط
جوجل
فشر
والكم
##ذاق
التعد
معاملات
الشهادتين
الثورات
بموضوع
تصديقه
والدنانير
مغلقة
طبخ
البلغ
فردوه
الوليمة
للطبراني
مخلوقات
حمرة
غلمان
هضبة
والولي
بالصد
مؤتمرات
أباها
الجزئي
البارزين
فسمعته
القضية،
ببير
جسيم
صق
##فوف
المئات
يعض
أخي،
##جروا
والأك
##نبول
##صيله
كتمان
##طاقات
ومدح
الوحي،
المفردة
بمقبرة
صحن
لفا
لفق
يسند
فيصدق
##ومهم
أيكون
وتقر
واذا
والقضاة
[...]
