[PAD]
[UNK]
[CLS]
[SEP]
[MASK]
.
/
:
=
|
،
؛
؟
ء
ا
ب
ة
ت
ث
ج
ح
خ
د
ذ
ر
ز
س
ش
ص
ض
ط
ظ
ع
غ
ف
ق
ك
ل
م
ن
ه
و
ى
ي
##ه
##ا
##ر
##ل
##ي
##ح
##س
##ن
##،
##ت
##ك
##و
##ة
##م
##ب
##ع
##د
##ج
##ف
##ش
##غ
##؛
##ق
##ء
##ص
##ض
##ز
##؟
##ث
##ذ
##ظ
##خ
##ى
##ط
ال
##ال
##ان
في
من
##له
الم
##ما
عل
ان
الا
##ين
##لا
##ها
وال
##را
##ية
بن
##وا
##نا
عن
الله
اب
##ول
##ير
##ار
##يه
##لم
##ون
##اب
##ذا
على
##هم
قال
##يا
الع
وا
الح
##لك
##يد
لا
##ام
##ري
الت
ما
##يل
##حم
##ست
بال
##ات
وق
عليه
الق
##يم
##اء
الى
##ور
الس
##دي
الن
او
##بي
كان
عب
##كر
##مر
##من
##عد
##ته
الش
مع
وه
##اد
الب
##لى
##سلم
الف
##وم
اخ
الج
الر
##حد
##حمد
##كم
##مع
الص
##بر
##ود
فق
##رب
##في
الد
عبد
الك
اي
ابن
##عة
##لي
الخ
##رج
الذ
له
وان
هذا
##رة
##ني
ذلك
##اي
صلى
##وله
##لام
ولا
##اف
يق
لل
لم
##اس
وك
##بة
##عل
به
وت
ابي
##ذه
وي
ابو
##وج
اس
##اه
تع
##رف
فان
##رك
##قد
وع
##بل
ثم
حد
وسلم
##با
هو
##رو
##حي
فا
##ديث
وج
##نة
اذا
محمد
انه
ام
ول
يع
##كون
##مل
##وس
لان
##يس
##سول
حدث
##قة
وهو
##فر
##صل
##مة
##كن
قد
اع
##اني
بين
بع
##فس
علي
##قي
##به
فيه
بعد
##جل
##تى
الث
الط
##دا
فقال
غير
##رض
الاس
##وق
الذي
##شر
رسول
قوله
##اق
وقال
وم
يت
##لت
##يت
##لف
##هر
##حت
عمر
##سن
وب
##اع
##يب
كل
##وب
كما
##دة
##اج
##الى
##مي
##ضي
##صر
هذه
النا
##ذلك
##هل
عنه
عند
وقد
الان
الز
##وى
ومن
##اح
حدثنا
##لق
التي
##ة،
##تاب
شي
##تب
حتى
##غير
##وع
تعالى
##لة
است
يج
##يف
##وف
##وي
##لب
##وت
##يات
##ضا
وفي
احد
والم
##هما
وس
##صح
##رى
المع
ين
ون
##خل
##بع
بل
يا
##وز
##اري
الغ
##نى
وكان
بعض
##بت
واب
##فت
##ده
اق
##فع
##راء
مس
##عم
##وه
##وال
النبي
##ثر
ذكر
##كل
الاخ
##رد
##اص
يكون
احمد
وما
##ضع
##حر
مث
لي
منه
اليه
##هد
##لاة
##سم
مت
##عا
##رق
##فة
يقول
##يرة
##الة
اش
فل
##در
##مس
##سب
##تي
اج
##قل
##حا
##ظر
المت
##مه
اما
##مان
المس
بها
فت
فيها
الناس
فه
##كان
الو
##حة
##فا
يد
اد
فلا
حديث
##دين
##ورة
اله
##تها
المن
##لاث
با
اهل
الي
سب
##لها
##خت
##قا
ثنا
والا
سلم
##عي
الشي
##ه،
اك
مال
##ذكر
##ماء
##ارة
##قول
##رت
قبل
##عت
وح
عام
الاول
##رات
##ية،
اح
اص
##راه
##سان
يوم
لو
ات
الل
##بد
الام
##وة
كانت
الحديث
القر
والت
##رح
##حيح
##الم
بان
ولم
##رس
سنة
عد
روا
##نت
بد
##قت
مج
##مت
##راد
الاسلام
##زي
كتاب
##شي
##مام
##ضل
##جر
واحد
##فق
##جد
##ينا
يح
اخبر
بم
نفس
المو
##زل
##ريق
ليس
هي
##خرج
حي
##يدة
##صف
##ره
ايضا
يس
كث
لما
يم
##طي
##ماع
##مال
##از
##ادة
##طل
رضي
الدين
##يمان
بي
انا
##وان
ولك
##نس
وهذا
للم
فال
مح
تح
##عيد
##بير
##شت
##لاف
مو
##رع
بكر
امر
منها
اذ
##يمة
##قط
وف
لانه
سمع
##وية
##خذ
يست
مثل
##لال
##يلة
باب
الوا
##رم
مق
قول
اف
رج
##ند
الذين
##طا
##تم
الرحم
لها
وهي
اول
##سل
##عب
تق
##خص
يو
##كا
##وات
##حق
الصلاة
نس
قل
##راة
##لاء
الرا
بق
##سة
بما
اخر
وغير
المسلم
ثلاث
دا
ولو
فقد
##ياء
##صد
ولكن
الفت
والس
##واب
واما
لهم
##ضر
##ين،
##حو
##كت
اث
سعيد
شيء
##ذي
##راهيم
نا
كال
والع
سل
##زم
الحسن
رب
تن
الاست
##خر
##زيد
##انية
##كة
انت
البي
##جب
##يرا
لت
العلم
حيث
ولي
##بار
##سي
قلت
##يام
فهو
الرحمن
بح
وص
##بح
الشيخ
هنا
مسلم
والله
##صحاب
##وك
ابراهيم
اخبرنا
يش
عمرو
بت
القران
جاء
قت
##ها،
مما
##قدم
المج
المص
وخ
فاذا
##قه
رحم
سن
##مات
مالك
##حيى
صحيح
##سا
الاع
##فظ
مش
##طر
رجل
رق
تم
##ميع
لك
##الح
دون
فانه
المش
تت
##ليل
##حدث
تو
للا
##طان
##اهر
مست
مص
الظ
النس
##الب
##ولا
قب
##نه
والح
عليها
##نف
اه
##ذهب
##ابة
فيما
##امة
##انه
##ناء
الارض
بك
##جة
المح
شع
##طة
##سر
##كي
موس
##وح
يحيى
فى
##طع
لكن
منهم
##ظم
##دينة
فع
##ذر
##ديد
الض
وجه
انما
يص
##ريد
##لاق
اخرج
##طب
##دع
العل
المست
العب
حم
##اله
وابن
##اك
اكثر
##طلق
المق
انها
الاج
السلام
##وجه
##اريخ
لله
القا
الامام
##انا
حق
##نب
ور
عشر
يجوز
عز
##واء
##ضاء
تج
يكن
وش
حكم
##نيا
اخت
##رط
عم
##لات
صاح
##زة
وعلى
يخ
##امل
رقم
##ثمان
الكتاب
حين
عليهم
فلما
##ريم
رواه
خال
##غة
عباس
الاش
علم
##دم
##صار
##رام
يب
##عه
الملك
##غي
لع
##دل
##اسم
##ولة
##حاق
واذا
ابا
##سين
دين
##زا
الرجل
العرب
##تق
ارب
بش
##اذ
تس
الامر
داود
وقيل
يقال
ومع
##ضة
الاص
بالم
تص
بخ
##الي
روى
الاية
##ناه
هل
##جم
يك
##ثل
##ينة
##وص
##هب
##شة
##لهم
##جه
##خاري
يعني
واست
##راي
المال
##طن
اعلم
الحق
الخط
تكون
##قر
الاح
والن
را
اصحاب
الثاني
##ركة
لاب
سمعت
##رار
ود
زيد
وز
موسى
##شا
كثير
##هم،
##بيع
نص
##ضى
##طف
فس
فعل
##يهم
جع
وابو
فما
##دى
وانما
راي
يف
اسحاق
##مد
طريق
لق
##روف
وار
##ذب
حال
تش
##بلغ
البخاري
##الث
رحمه
كلام
الحج
##باب
##لاد
ترك
##دت
عق
فلم
نفسه
وذلك
شييا
##افة
تحت
والج
##لاح
تلك
##قص
والص
##ظهر
##نع
##قات
##عين
قالوا
وث
حدثني
ابيه
المومن
##ي،
##شرة
غيره
##ايل
##راب
##فه
الحكم
تك
بني
يمكن
وليس
بالا
عبيد
بذلك
##افظ
##ختلف
ملك
##اهد
الدنيا
كنت
##وء
يزيد
##يك
العالم
##ضم
هم
وعن
سبح
جميع
##عود
هر
##ريب
ضع
فك
صاحب
##صة
قيل
##قى
المسلمين
الاولى
جمع
وقوله
والش
المنا
ست
##يش
سعد
##قال
بالت
##ماعة
مات
##قيق
##راج
وله
والب
نع
اخذ
فلي
عبدال
##فل
وبين
سورة
فمن
كتب
الاد
##يادة
صد
عمل
لن
##اته
##راق
الصح
الانسان
##داد
##راف
الوق
السل
اخرجه
فكان
وكذلك
##ذك
السنة
فج
##افع
يل
##ياس
##وض
خلق
##حرم
##ونه
واس
جل
##عر
خير
المد
اخرى
##ان،
اني
##ابت
##رفة
سي
الال
بر
مر
وقت
##حل
##ولى
عا
اغ
##ملة
##يز
هريرة
الفتوى
الاب
المغ
##فتح
لب
##ماعيل
##زيز
فن
تا
مد
جز
##صب
##وبة
##مار
حسن
عثمان
كانوا
##حن
##وري
زوج
##تمع
##صور
مخ
##فار
الاخر
##افر
جعفر
##جا
##شد
فر
باس
حب
والق
##تهم
تب
الفق
كذا
##وط
سليمان
##فسير
##حدة
رواية
##فيان
##يني
##ثير
يجب
خمس
العمل
والث
انس
كذلك
##اتي
##هن
عنها
##ايي
بلغ
معا
القول
##وجد
وتع
##بات
اليوم
ذكره
واخ
قوم
##وفي
ذات
وط
##ويل
يغ
##تك
وجل
لمن
اسم
والخ
تف
قا
وهم
##ريك
الول
شرح
خرج
لنا
##امر
الجنة
##ظيم
عاي
نحو
نعم
تقدم
##ومة
##وسف
##زوج
##وها
فض
##كام
شيخ
لح
يعلم
سبحانه
والد
اط
الجمع
جعل
صلاة
سفيان
بط
راس
صح
دع
النار
الله،
##يع
عدد
##ابر
##افعي
واع
ابى
فوق
واق
##معنى
##وجود
التع
الكلام
اعت
##رجع
كيف
ثلاثة
انهم
قالت
تخ
الصحيح
##حمل
تاريخ
رك
دار
سا
##جلس
المراة
الاف
##تين
معه
اسماعيل
##ته،
صف
تد
##هار
##قيقة
هناك
##هور
بالله
الماء
اراد
بس
##هاب
بج
##ارب
للت
وذكر
خلال
العلماء
قام
الحا
القد
##ارض
##وني
انظر
##صي
##ناد
يوسف
##لمة
##مرة
##طاء
القاسم
##اة
##سبب
##ذن
قر
شاء
معنى
##ريف
ورو
##واه
##علق
صالح
##ياة
النساء
والك
##راءة
المدينة
##وسط
بيت
##ضح
##رير
##ارك
خالد
الرج
عايشة
##ذاب
الاصل
اشت
العزيز
##الف
##انة
واج
##ا،
موا
ير
##شف
بعضهم
وكانت
الحسين
##ماد
##امع
انته
ولد
مك
يحت
##ايع
الثالث
رم
عدم
ار
والف
خط
وعد
احت
##ارث
الايمان
##نية
##ماية
##جي
##الت
دخل
##يده
##ربي
ري
##وعة
مرة
##لفظ
##داء
قتل
##كره
##ثبت
##ريح
##اصة
هولاء
احدهما
وضع
يعرف
والسلام
بغير
##شام
##عام
حس
##كاة
##تل
##واز
الساب
##ياد
واحدة
##طلب
تست
بالع
##ولي
##راك
جه
از
##سط
المخ
##هاد
بص
لكم
بهذا
موضع
##مش
العق
##جز
يز
مب
نز
##فى
##واد
وجود
الما
بغ
الشافعي
وكذا
الدار
##بيب
رس
امن
نق
##ك،
البحر
بنت
##راض
بالح
فات
##هري
##لاي
يريد
##نين
وغ
ضعيف
المسجد
فار
القاضي
اض
سبيل
##رمذي
##يسى
##سند
كم
وغيره
عبدالله
بالق
##ورا
وفيه
الاز
عين
##يار
##اتم
البر
المومنين
الدع
##وار
##ونا
نظ
حا
رايت
عنده
قدم
##حب
##اجة
يعت
ممن
الجز
شر
التح
فب
مكان
سلمة
##هي
##نان
الفا
العباس
بشر
##الية
بلا
الحافظ
##ون،
##حاديث
##اره
قري
##راس
##عدة
##ونس
تط
انك
الاق
اليم
##اث
##صرف
##باع
باع
وين
عرف
اليها
قط
##ادر
سواء
وكل
طل
العام
نف
نب
##يدي
##صا
##وذ
##قع
الطب
##ناس
اللهم
##كذا
فقط
حر
حك
اصل
سم
نظر
##كثر
السوال
عشرة
##غل
الروا
العد
البل
انتهى
حج
الحمد
عليكم
ورد
بقوله
الزوج
الات
عليك
##فاء
##وث
المذك
الثانية
الرز
##وهم
يصح
بالن
##ارج
##روع
##كاح
رجلا
##انب
##ارية
لقد
مصر
ايام
فقلت
##خد
الرسول
يخرج
##هاء
ايها
نسبة
##صدق
##سمى
خلف
##الك
واخرج
الاعم
عيسى
وانه
##باح
##طق
بهم
##فاق
يذكر
##ضب
##ايب
ارض
##راط
للع
النب
وير
وصح
الخطاب
الامة
دخ
ثابت
وانا
فهذا
كله
ايا
ذلك،
العبد
تقد
يتم
قدر
وجد
الليل
البيت
وام
القيا
##رفع
هشام
##رسل
عباد
وحد
بالك
ويت
فح
للح
الباب
ترج
الحي
وقع
لكل
يه
ويقال
##هاية
##عى
##لية
قاله
كن
الوقت
الموت
##اعة
مسعود
##ذين
امراة
مل
لفظ
فصل
وعبد
##يدا
##قب
الشمس
اية
خلاف
##صول
الحد
##وجب
##وقف
##وما
ظهر
رد
مغ
الحارث
##عض
والان
القيامة
يض
اقت
##جاب
##راييل
بينهما
الحال
الحم
##واج
معاوية
يدل
وعل
##فض
وبعد
تقول
##ذيب
الاث
##رجل
##كس
الجن
##ضوع
القص
##عون
وبال
واش
##فاع
##فص
المعنى
##يذ
مط
شرط
##حه
عما
الموا
بخلاف
البق
بب
##قوب
تفسير
السب
السماء
النفس
بالس
والذي
شهر
جابر
حني
نج
الفر
##يق
##وقع
##فن
الثلاث
##ينه
بمن
وصف
قص
الصحابة
بسبب
##ويه
رفع
الكريم
لانها
الفضل
اليهود
لج
شك
القوم
حول
الصف
كلا
كثيرا
الكبير
##يث
بانه
##يح
فلان
تعد
##اهرة
حن
بمعنى
الور
قرا
عنهم
الرزاق
##سبة
##هادة
الشرع
الري
مكة
##بغي
##ياض
نه
افضل
صار
حل
خيرا
يط
##فرد
بدا
وهذه
مض
الاسلامية
##بارك
##ثال
الحرب
##غيرة
فتح
الحر
##غم
يصل
سبع
الشع
##ما،
منا
##زع
ابت
امام
##ابه
خص
جن
منهما
فد
السن
ضرب
##شاء
##ى،
المراد
العربية
نصر
ياتي
الترمذي
توفي
سنن
حاتم
البا
راى
بعده
##قطع
##ودي
##يته
##جرة
##فرق
المقد
المك
تغ
ويع
يدخل
جد
التج
شخص
اجل
##هات
الولا
يرو
##واع
فذكر
جماعة
عاد
لابن
اولا
فهي
##وخ
##طيع
ولما
##ضان
طالب
الاخرى
ارت
وانت
طب
الوجه
##اتل
تر
عامر
انفس
احب
واله
بيان
لد
##يا،
##شرين
ثقة
جمي
الار
بيع
ذهب
حجر
طلب
##ذف
فاست
##ركز
كلها
##ثة
يشت
##موع
مقد
الزبير
##قبل
الوليد
الشر
##تنا
المر
شيبة
##وته
##طقة
كفر
القب
يونس
##ير،
الشام
وات
الحك
البص
##تبار
##مهور
عي
وتعالى
##زلة
##بعض
##نات
ذي
ادم
##بيعة
المشت
##ريج
##شية
اكبر
عرض
المب
كف
##ودة
عقد
زاد
##كب
ثبت
الخام
##قين
العين
حنيفة
المسالة
مه
خل
فم
عاص
##يره
##ونة
##ربية
شعبة
رو
ليست
لذلك
وض
النج
##الا
##طه
ومحمد
##منع
اذن
جميعا
##الات
در
عندما
كون
فيقول
ظاهر
الكتب
##تبع
الكبر
ورس
يقت
والط
امير
التن
##اية
##نام
العصر
##روة
النص
وظ
##اش
اللي
##ابل
ويج
##اتب
##بيرة
##ناده
يعقوب
التق
وابي
الجواب
الحاكم
اور
الحياة
مثله
واح
##ريعة
##اعر
##يهقي
##وبا
الشيء
قيس
##راع
##ابع
فص
الاعت
فهل
وروى
##حوه
المذكور
##ليق
نصف
الجمعة
##فعل
##اير
وبه
##سك
والمع
اثر
مدينة
الزهري
يوما
اربعة
##شيء
يرد
المتحدة
##حيم
تز
##فسه
منذ
وهب
عدة
##تماع
الانت
رمضان
فهم
##نون
##زمه
فاع
واص
ليلة
##يية
احسن
التش
ويقول
فرض
عنهما
منصور
##لاب
اولى
##وام
والغ
##يين
البيع
النظر
##ولد
شه
##كرة
جزء
يقع
حماد
##ريقة
انب
يقوم
فاما
العقد
جب
كثيرة
##امعة
##ولف
حص
ويم
الصد
##خي
ينبغي
المعت
##ضية
خلا
علينا
حبان
##رر
وصل
الاك
##ق،
فلو
خبر
جدا
تل
كنا
مسالة
الدولة
عطاء
اربع
الاخرة
اعد
لس
يده
##ربة
السلطان
بالج
##انيا
##غر
اليهم
الرجال
##رجة
مخت
القرن
##خدام
##والي
ينت
##ارس
##عليم
##وين
قتادة
كت
يوجد
شهد
##ظام
##وعا
ايوب
اقل
والز
##مير
الطريق
##اوى
ولهذا
##انون
##خدم
##شيخ
كبير
مذهب
والر
مرا
سبق
##ات،
اسلم
فليس
الخير
##وير
وحدث
##قض
بعث
يرى
قطع
##لايكة
الانب
احدى
سال
الفقيه
مرت
اختلف
##فو
كتابه
دفع
##بلة
الحس
التص
والتي
الزكاة
الارب
مطلق
اين
الواحد
ومنه
##ايق
مختلف
الرييس
الفعل
المصنف
ذو
اللغة
قالا
حمل
ترى
التاريخ
الخبر
مثلا
للن
الطلاق
##لث
العم
مسند
الصالح
للس
اعمال
زياد
ماء
الامور
فيكون
واد
##كلم
ورب
##يفة
يصلي
اخبرني
##امن
##ديق
حفظ
معل
##يو
بشكل
امرا
##وضع
وعند
اسراييل
اتى
الشيطان
القلب
الانص
ينا
الدا
وجعل
ففي
جرير
حرب
نزل
منك
عليه،
المه
اهم
الكر
##هام
المز
دليل
فيهم
يعد
حميد
به،
ماية
وثلاث
##قتل
عمران
اعط
لص
##اجر
يعمل
محم
بفتح
##نم
##هير
البقرة
معين
يفعل
الاحت
##لامة
##اعي
##روج
رييس
ونحو
عض
خاصة
صلة
تعلم
عهد
لغير
##كار
واي
الشعر
##يبة
حصل
الحل
روي
ضمن
المل
الدول
الكل
ومنها
فاس
قلنا
ذا
صل
النف
يحدث
بقي
الكبرى
قبله
سبب
نافع
##قدر
وسلم،
المفت
اكت
للب
الامير
الدم
عاصم
ورسوله
هكذا
هار
##حيث
والنس
افت
##فعة
##يي
الخلق
المض
##اء،
نقل
##احة
##فقه
##د،
##وغ
##صية
سير
الهم
نحن
الفقه
زيادة
البلاد
##ادية
جاز
ويد
##زق
##طال
##لوب
يدع
كلمة
جهة
##جاج
حسب
##رة،
احدا
العراق
صفة
رجال
الاغ
يجعل
يقولون
اليك
##بره
معناه
الترك
فضل
فرق
والاخ
##واف
ارا
جاي
مرض
دي
##ظة
##اط
بناء
اخي
##ومن
دل
##ارع
بهذه
امت
##ضمن
منكم
المف
##صى
##زب
بالب
نوع
##ظاهر
##جع
##شى
كعب
تنا
##راح
##ذل
ياخذ
##روط
تكن
المث
##عمل
##تان
يرجع
بالنس
##كين
##ياتي
كس
##يه،
والاست
##ميز
##ليفة
##شار
بث
الفتح
##ريل
الروم
وغيرهم
اللفظ
##ن،
التك
للج
##فاظ
##مشق
مرو
طال
##وفة
دينار
لهذا
##بيت
##اهل
انزل
نعيم
منع
واحمد
بكل
بينهم
الاسلامي
بلاد
##ري،
##ونها
##علم
منت
##طين
وهل
العقل
المعروف
يظهر
يحب
العمر
##سام
بالص
##راسة
يجد
قلوب
الاقت
##ورية
##بعين
##ال،
##طار
##وسي
##عة،
صلا
الجد
ته
السيا
##بيان
والصلاة
البد
##وفى
##به،
##لاك
سر
##براني
ضد
سهل
##عث
هد
##ظمة
مولى
فقالت
الحب
الدي
##ليلا
الولايات
اعظم
البغ
النكاح
##ندي
لغ
ويست
فرا
سيد
محل
بعدها
##يلي
##خة
##موعة
النسايي
##له،
وحده
وعمر
##ريض
##سكر
بالش
والثاني
ولذلك
ابدا
فكيف
##نا،
##نك
##ريس
الرك
وست
نبي
نت
موت
مجلس
##ركات
##بعث
مركز
فانها
##جار
امنوا
##زاء
##باط
شريك
##ريع
الانبياء
فرع
المنت
الظاهر
بار
يسمع
يثبت
##ارف
##را،
رجع
الميت
##دان
##ايفة
عذاب
وامر
مبا
القضاء
الها
##خير
يلزم
##ايما
العباد
باسم
##ومات
##طية
السج
عدي
اشهر
بوا
دعا
للش
لش
جواز
امره
جنا
##قف
##طلع
ملي
##امت
##بيه
##ياب
الانصاري
##حمة
يبلغ
وتح
وتس
معمر
الاحاديث
##صود
اسمه
##رش
حنبل
##زن
السلف
مف
##ياه
حقيقة
##تمد
اسناده
سما
حرم
الاخت
له،
قسم
يات
ونسبة
##ختار
المشرك
##رجمة
##برة
الكثير
##قاء
##ولها
عاما
وبلغ
راسه
احكام
##افية
##مته
ينظر
اللا
اقول
خطا
سيل
##عن
الوج
ورواه
حالة
للك
##ملك
الجامع
البح
الالب
فقالوا
يقبل
##بة،
حيا
حبيب
شعيب
تيم
##يل،
الجنا
##ظن
مني
قريش
صحي
حض
##كمال
##سه
ربك
اللب
حجة
وعليه
##وش
ولقد
مدة
وخمس
##ضافة
مخل
##اني،
##س،
ومسلم
##انع
ماله
واخذ
##نج
قراءة
##بين
حرف
بام
##بط
##طاع
خمسة
ايمان
لابي
ربه
##قوله
كانه
الفرق
العامة
وبر
عندي
اوا
##روب
##ريكي
فاخ
اصاب
وغيرها
شديد
وشر
عص
عالم
يمنع
##غفر
##لكم
البشر
شبه
انبانا
##يتين
لقوله
الجنس
اصبح
##ناك
##ايف
##قوا
بالنسبة
##اده
احاديث
الجماعة
انواع
##خول
##وايد
##نو
داخل
##داية
العديد
مجل
السر
بغداد
وعلي
##قيم
##فيه
وراء
يديه
الشرح
فش
ومنهم
العظيم
اليس
البيهقي
التو
المذهب
يحل
الرحيم
المجتمع
الشخص
ذاك
##اقة
الطعام
بير
عروة
##جلي
الذى
تاب
وبعض
##ناع
باق
معت
بدر
صدر
اشد
الوز
وجب
##كية
كا
شرع
ويح
وترك
ساير
وجوب
بحيث
##كرمة
الذكر
معد
لين
امة
##ثى
فله
ورا
السم
الملايكة
الذه
##ساب
##لط
الاي
فجعل
مجاهد
##عله
الرب
الثق
جملة
واعت
يعتبر
##حاكم
##بية
##رابي
بشيء
ماجه
الخلاف
لام
ولان
##تيار
للق
##وفا
والاس
يملك
##تر
معاذ
واف
الست
ساب
لسان
الفقهاء
باست
معرفة
قلب
سوى
##عمال
##يان
الهد
الليث
العاص
لاحد
وجهه
السابق
اكل
##امنة
العمال
##طفال
بدون
اثناء
عندهم
واخرجه
##فيف
مقام
نور
يحتاج
والاع
الكفر
عبارة
الوض
الايات
نشر
ليل
راج
انبا
مز
الاط
##وحيد
العا
##فان
##يمي
الاسود
##رفه
خز
عبادة
جانب
##ذان
بالخ
##يري
جنس
السيد
##كرم
سقط
والارض
ويكون
صورة
مطلقا
##احب
موجود
هارون
صحة
غز
##ضعف
##قاط
عظيم
العربي
##ارق
الكافر
##دون
زا
ويل
##لح
اسماء
##صارى
زمان
المحت
الاسر
الكف
ولكنه
قوة
##حاد
##دية
المغرب
وقرا
##كى
##انى
يحصل
الرواية
كونه
سج
حلف
طلق
##يران
شعب
عبر
والمن
اموال
الرس
##همة
الزمان
الخد
بعضها
غيرها
الخامسة
مرف
حاج
##صلة
الجل
الاعمال
اجمع
##ريط
التفسير
قصد
بالمع
الذهب
قولهم
الفجر
مصنف
اصحابه
اهله
الفل
##عبة
##راجع
حاجة
حسين
وعنه
الاحكام
الربيع
يومن
ارد
الخص
##ور،
الدعاء
الخل
والى
اليد
انسان
فتاوى
فخ
معهم
ابنه
التا
##حيط
الشاعر
التم
##مبر
نقص
خاص
بف
علماء
##ومه
برق
الرابع
بالغ
##كتور
##اجد
روح
عظ
##ذات
##م،
القدر
السلم
##املة
ويس
##دي،
##ورد
بيده
ظل
##يلا
##نتين
باش
##قطني
الابل
التف
الثلاثة
تجد
ليت
احدكم
نهاية
نفسي
##ناها
مكت
الموس
للد
واحدا
زوجها
وسمع
سالم
المزيد
القت
##ديها
يقل
سالت
##ثرة
وهكذا
الشرط
السكان
واخبر
ادرك
قبض
اصب
##ابي
##ضرب
الهند
الفس
شعر
فجاء
والل
مجال
##درسة
##وبي
##ويد
##بيح
واصحاب
##يهما
##قيت
جبل
الاعلى
##ويا
##شرون
تبع
شيت
شهاب
الادب
حذ
##زام
الشرك
يقرا
##ذة
السما
واث
##سمية
دم
حرام
المسلمون
كبيرة
فخرج
فاخذ
الضر
الته
كلامه
سلام
بينه
##غب
اوليك
##ويت
##يها
##جاز
ونا
الشريعة
الشه
صدق
بز
الوضوء
##طى
مجموعة
الترجمة
##حقق
فالم
موضوع
محت
وو
جبير
##قاد
الذهبي
نش
زمن
سليم
ارسل
تزوج
##كمة
##بال
الاعمش
والام
الوس
يتعلق
جريج
##مين
بضم
##ثله
##واعد
ضر
بينما
عنه،
محمود
الثمن
الساعة
المشتري
حمزة
انفسهم
خارج
ربيعة
قضاء
##ايية
##عدم
##حديد
الكفار
التد
ثلاثا
الثالثة
نهى
الثامنة
المثل
حديثه
القسم
فيهما
والسنة
##لمه
عج
##طرة
##يء
الامريكي
موق
بالف
بات
الخمس
النو
فيه،
##هرس
##فعول
يسمى
متى
وجوه
##بض
يعلى
النعم
الواجب
طلحة
فقيل
##ركب
بري
مفت
صور
مشت
نقول
##مامة
تقوم
كنز
##قية
##بعة
يقدر
بنا
قيم
امري
##ارت
دمشق
شان
ارج
##ثم
للناس
الايمة
المعل
##عتين
حفص
المبارك
البعض
الاسم
الجاه
لانهم
اختلاف
يحمل
ادع
ليلا
المط
##حى
اجر
سوال
استخدام
الصغير
وفى
وصحبه
وفيها
جاءت
عوف
الشرق
بمع
المولف
وتن
##كال
يسال
طرق
البيان
معظم
واحت
##ستان
ونحن
وعشرين
##قة،
##اتها
الولد
الموضوع
##دد
فعلى
##مكن
تحقيق
وكتب
لخ
##هاجر
تعت
اساس
اسلام
الحجاج
الخلا
##راهم
الشمال
لغة
##مى
الحقيقة
وتش
شيخنا
وكيع
ذر
يدي
مقت
قرب
##يال
كقوله
وجاء
بلفظ
معروف
##مسك
الحرام
اعتق
الجمهور
السنن
الجهاد
##راز
##قران
زر
طاهر
ها
التوبة
واجب
وقف
ويق
النوع
المفتي
سكان
امه
والذين
العلوم
جر
السي
وقالوا
عت
كذب
الخمر
رض
بيد
الثوري
بدل
لهما
ومر
##سليم
دور
الجيش
##صره
##ريكية
##حية
بالد
##رون
##رحم
وعب
##خلص
##تيبة
بقية
عبيدة
التط
الدعوة
عنا
البصري
الطبراني
السفر
للص
دولا
الظهر
درجة
ستة
علما
الشرعية
المرض
الرق
##فعال
صاحبه
عال
عادة
دخلت
امور
يجز
وعدم
قيمة
ايات
الخطيب
ثالث
##تيجة
واه
الجه
##كمل
الالباني
ذك
ورج
لكنه
جديد
##صال
##مة،
##يتها
##ثه
جده
يتع
##بته
##يج
مسا
التس
الحيوان
رحمة
الاسناد
##اخر
يحرم
وذ
المنذر
ثمان
الحكومة
الاصول
الايام
##هارة
لط
سيف
##و،
صلاته
الانصار
مضى
البايع
اريد
##زوم
مريم
##رز
ترجمة
نسب
##ار،
الحجة
اليمين
##ظل
الصوم
##واح
ارس
الحن
مول
حياة
##نوب
##صير
ذكرنا
##قون
سيا
##جيل
واض
يعود
مروان
##لاج
المام
##روس
حقه
المتن
كلهم
نزلت
##يم،
##وا،
فاب
القراءة
##يد،
وفا
##صلحة
علمت
العلمية
وخرج
وقول
لكان
فعله
قصة
##ظلم
يسم
مسجد
المسيح
اصول
الوف
الاعلام
متوسط
محا
حقوق
وانشد
الرد
اخبار
والمر
الساد
والاق
##هول
صوت
العن
ويا
جبريل
##غا
جامع
##تهما
البحث
الحاج
والاح
مومن
##عار
##ملكة
##بحث
بحسب
تعرف
##طح
المدين
فانت
زعم
تذكر
فاد
النهار
##فهوم
المقصود
الاه
فقه
وربما
##ذى
غاية
##ر،
يشترط
نفسها
##بس
##خا
حينيذ
##برا
كنتم
اقر
ايد
##قدير
نظام
باي
##ادل
منه،
محمدا
خد
##لاع
##قام
##لا،
ماذا
##صاد
يكتب
ضعف
##وده
##يوم
ربنا
يلي
##طلح
ارى
##وضا
للان
شهادة
يكره
##ثلة
ويجوز
وهما
##ريت
##رتيب
الزيادة
ولل
تقع
ياكل
محرم
##ودا
اهلها
وكيف
اقرب
الحجر
الاله
اطلق
##ختص
ند
##جمة
##صلح
السف
انق
##ياسية
اقام
المشركين
##تما
الفصل
جما
بحر
باح
غريب
امية
زكر
##ايها
لاست
##اليف
المصري
الجزء
بكسر
خي
##روح
اللج
ومما
ميت
واهل
عني
##كيل
الطيب
تمت
##زية
بنفسه
تدع
##ليف
فيمن
الشعب
مصدر
الدارقطني
يجمع
وفر
اشار
بلد
منطقة
الاشياء
##اسة
يفت
العذاب
##لاه
##شهد
الصحي
كاف
كالم
عامة
اسباب
صاد
جوا
عندنا
الاجتماع
توا
سف
ظن
بسم
الخز
##ثا
طول
فامر
قلبه
التوحيد
عمار
عيينة
درهم
المهم
وتت
الدهر
هاش
المسيب
##وبية
ونحوه
يمت
الواقع
##ورات
حام
بالر
وغيرهما
تكلم
لنفسه
القيم
##نز
وجدت
##فسد
لكون
ذكرت
تلق
اقوال
شرب
جم
الخارج
جامعة
ربي
طبع
##خلف
##ب،
الوط
##يمين
لهذه
يقتضي
الراي
بالان
الامريكية
واخر
الشهر
تيمية
ثلث
اولاد
##سد
##حول
فاني
##سى
اجتمع
رسوله
بنو
غال
يوا
الاخبار
##قق
عش
جايز
اعلى
##وبه
النهاية
الخاص
علق
المطل
الوهاب
بها،
عكرمة
##ارح
فكل
نجد
النووي
فاط
##ابات
##تا
العالمين
##الته
الناس،
الضع
اعل
##عير
يقتل
المصر
قليلا
اسد
صدقة
وقل
عقبة
والاج
##سات
##سية
التهذيب
عضو
##ايلات
وتم
الخاصة
رش
عملية
الامم
التاس
لاح
التاب
##راث
بهما
بطن
تقل
كر
شا
النهي
ثوب
##سطين
الكه
وصلى
باط
##وتر
الفرنس
الهيث
##ليس
##بعون
الحرم
##ضرة
معي
الجاهلية
##روض
الغرب
##خصوص
##رارة
والمراد
ومات
زين
لدى
عليهما
فيك
##ساكر
فهذه
باطل
التى
##الفة
ترد
يوميذ
قليل
بطل
محر
الحاجة
وانظر
اسامة
اصبحت
لولا
##ىء
مجموع
##غت
##يمون
##ابا
##رحلة
المنطقة
ببعض
الوار
صنع
المحرم
واخت
استح
الصاد
##بوت
##حمر
والمت
فصار
اللغ
الفهرس
##تهن
##اهما
لبعض
باشراف
لعدم
السبب
الصحيحين
##زال
تما
حقا
فاح
انف
##غيير
اظهر
##يما
العايلات
ساق
وايضا
شاه
الاساس
تخرج
##درك
فذكره
##ثناء
واكثر
اثبات
الموضع
حديثا
القيام
##قها
##زمة
##ريمة
زكريا
للخ
الحنف
الاسرة
يشاء
ويحت
##ضت
نم
##شاف
فاص
##اتهم
المكان
##لاص
نفي
لر
تسع
اخيه
##زار
سنوات
حوالي
الالف
بمكة
##حرير
نح
اليمن
ربيع
تجب
القلوب
نكاح
##سع
بالاضافة
المغيرة
راه
##فسر
فترة
المجلس
##يسر
##تهاد
والنسايي
البلد
النظام
فغ
وجمع
بنى
القتل
الجميع
القصيدة
##رحمن
المطلب
الدكتور
الطبري
قرية
النع
الراس
بمنزلة
طايفة
المغني
بالاس
فقام
##بول
اليه،
الشريف
القايل
طرف
يلت
ينزل
اجاز
##ونية
لمع
بالط
عاق
##هج
ربما
ولاية
هاشم
##صن
##ت،
دينه
الشهادة
اثبت
##يون
##يص
##قاب
صرح
تعليق
والاف
الدليل
الوقف
انتم
التعليم
مرفوعا
باخ
ظهور
##تني
ساعة
الرابعة
##ينات
المشهور
##يمن
تقديم
ثمن
سبعة
الرازي
معها
##فعله
##زلت
ورحمة
غالب
يلزمه
يوجب
السع
الشرعي
المجموع
العلاء
يسلم
مكر
الاقل
##لبس
##صيل
يحكم
تمام
قضى
وثمان
كلما
الشعبي
برقم
الروح
وتوفي
ظلم
يدعو
علمه
##عاية
ينفع
ووا
رح
طعام
الاثر
يطلق
نوا
يعيش
فرد
سفر
والحديث
يودي
فاج
هما
نك
جا
قيام
النخ
##زاب
مرات
العدل
قامت
الاوسط
##ناعة
الفكر
سبحان
الاكثر
##واني
سمي
دولة
اصلا
##ربه
شمس
ومس
وحديث
سق
لاجل
وروي
حضر
دخول
مي
دولار
يبقى
سبي
اثار
النور
فيت
شركة
يصلح
الاور
واعلم
كثر
##نيف
قريب
الخال
##سلمين
##غني
وتق
زكاة
خليفة
انش
سوا
##درس
##زين
##احية
المبا
##اربة
##وره
اللسان
نحوه
هلال
المقت
رسالة
القياس
ناس
لديها
المكت
احوال
##افعية
الموجود
الاخوة
الحالة
##زه
ويب
##حيانا
وسط
قتله
ونس
المنكر
فام
##دادي
فرس
الربا
الخطا
##فرة
فانهم
لف
المرت
القس
##روق
##بهة
يطلب
هن
واختلف
يحتمل
نقله
يترك
##بيرا
الصواب
قصر
ملكه
مسل
الاعرابي
يشهد
تعمل
وعمل
الخامس
##صلي
تنت
صال
اشبه
بالاصل
##طات
وفق
ابواب
عمله
تبين
بالل
بيته
ني
الاحد
الثلث
الكا
يمين
فرج
##وول
مبت
يرض
##ولوج
##سلة
كبر
والار
اربعين
باج
الاموال
##راسات
##يتم
العدو
##نيسة
المرا
والمعنى
##جرد
الاما
##نامج
الجملة
##يزان
##خاص
وقعت
اتباع
الزواج
##ذاك
متفق
ويمكن
اظ
الحنفية
يرفع
انح
يزال
المصدر
سه
مم
سوء
زهير
##طفى
##دة،
##جلة
ثعل
##وليك
حركة
الاسماء
##فال
يامر
##فاف
ملا
##اعد
وعلم
##تها،
##ناة
شب
سنين
##زو
م،
##امي
##كو
وحدثنا
حجم
بقدر
الرغم
مالا
ظاه
الكامل
الواق
المعجم
طا
##ليت
مختلفة
قتيبة
القبر
##كه
القراء
##ياح
##ذوف
الورقة
والترمذي
##ادم
صب
الواو
زوجته
زال
افراد
اقبل
##تهي
النصر
شمال
يدفع
طريقة
العامل
الكمال
الاض
حدود
بالحق
واسم
فانما
القانون
باذن
حسان
##فين
##هى
الثقات
الجديد
تقبل
الكوفي
قبلها
يخل
يقدم
ادعى
##صاص
المرو
ويش
اتخذ
فانا
##فقة
##واية
ضمان
امراته
رافع
اللجنة
دول
اعلام
المذكورة
الفض
السك
موج
العدد
##ذاهب
جواب
الحدود
المنافق
##ليب
كامل
يختلف
حاز
خلقه
يث
الفاس
##مييز
يلق
الخروج
اللام
النصف
كره
تعرض
دينا
تبارك
تحمل
فايدة
كمال
##اطب
عبده
لحم
##نها
العلامة
##عاة
اسناد
فارس
طويل
##دوا
وفتح
الصورة
قومه
##ذاء
المحدث
مجرد
قلوبهم
ابل
بحق
##غض
مسايل
يذهب
وقوع
ادى
##وكل
اوله
##اخ
الرجوع
ولده
تام
سلطان
حكيم
النح
نسخ
الدخول
العرش
العهد
الجوز
الاثار
اسمع
غسل
الاشت
يعتقد
تصح
والمش
##عدل
##بدو
فاخبر
ومعنى
بنفس
##خلوق
اياه
محد
##ونهم
والض
##ع،
مهر
العشر
فبلغ
الحض
جهن
##ريبا
##اعات
زرعة
غيرهم
باد
والاد
يرت
##ني،
فيج
عصر
ركعتين
اخره
خرجت
عليا
يقطع
المتوفى
##بايل
##وكم
##وي،
القضا
تدل
الاربعة
ثانيا
احق
صلاح
##ويلة
##روفة
الاخير
##صم
والاب
يضمن
المرء
##وفيق
الرسل
الفرد
مرد
فاف
مقابل
سيما
##ريضة
##سف
وحسن
قضا
ابنا
نط
##خصص
وكانوا
مهم
##دعاء
تحريم
اى
مشروع
وهناك
اهد
عدا
وعلا
##ولاد
##ايط
##سنده
العسكر
الامن
الوجود
اقرا
وثلاثين
خزيمة
الينا
##ارم
نبينا
##متع
عفان
عاش
##جاه
عشرين
تريد
##معي
عبدالرحمن
عنك
غالبا
يزل
وقتل
الصدقة
يستحق
السايل
الخطبة
منكر
ويك
اصح
كلاهما
ترجمته
تقي
للغ
جال
##شرق
التخ
العبادة
القديم
##هنا
##ضاع
##عدا
الياء
لاهل
الاسلام،
نها
فقل
المحر
حظ
##ضايل
يقصد
يستطيع
جرى
الوال
##طعام
المختلف
بالمدينة
##ودية
##سطة
وزاد
الوطن
##خيص
نار
فز
قس
انكر
##طبي
بالمعروف
ثقات
نوح
##واري
السماوات
##طنين
القاهرة
جمهور
##دعى
##اربعة
المادة
لات
##شري
العالمية
موقع
##ايخ
##خط
طاعة
الارا
ورق
حزم
سع
يتبع
يضرب
الصحيحة
المساجد
##نوا
العيد
##عان
بذ
##زاكم
##الها
الرسالة
مناف
##ارى
البغدادي
البناء
الشباب
اشارة
هذا،
خروج
##بان
الميم
الصفات
الوح
كفروا
السود
يخفى
فيها،
اجد
ابناء
باعتبار
الوسط
##فوا
فالا
وحم
اخذه
عساكر
حما
الشركة
الملا
الصوت
النز
الصبح
##حاك
تدخل
اصله
##خصيص
##وية،
ناق
صي
نسخة
##وضة
يضع
##كم،
الكلمة
##واق
##تهد
جهنم
الثوب
الهوى
عرفة
##قطة
اقامة
والست
##جلت
بامر
##ندا
لعب
اخوان
الفترة
بو
نفسك
##غار
رسم
##سته
تمر
النسب
غدا
لاخ
واني
سماع
##ياش
خلافا
##راقي
الحمل
حسنة
الاندل
بداية
والاخر
صحيحه
نشا
##صحف
تاس
المثال
فاطمة
ابتداء
اتفاق
سكن
الجبل
واشت
##عداد
وذكره
##شب
اصحابنا
##خب
والجمع
قاد
الاكبر
المطب
الفرج
##ياسة
ذه
التب
نصب
يضر
كشف
تغير
السعود
ولعل
##ولت
الصديق
الهج
بمثل
##كاته
كذ
الانعام
الكث
##ياط
شرك
قبر
النق
هلك
##ديان
الصل
النعمان
فط
برو
اعادة
يتكلم
ولن
##ثار
حياته
اسرة
##صرة
النسخ
الذك
البن
##وه،
##فيذ
عمير
بانها
ترا
وبا
صرف
##جح
يسقط
يروى
##انها
##بيض
بكم
الحركة
عطف
##فير
منز
##راهة
البريط
المسايل
##مشقي
يموت
بعيد
##عديل
شروط
##انت
##وحة
الجانب
القتال
الاتحاد
الرياض
##نبي
اتي
##دلال
الجم
فرعون
##وفق
بارك
السابقة
الزوجة
عقيل
شرعا
الابت
بدلا
مجمع
متعد
ذكرها
عطية
بعضا
نهر
كثرة
##ده،
فاجاب
لاي
غل
يكفي
الحديد
##ولات
عاب
##تح
يدرك
الجوه
يروي
سلف
ادري
بعضه
شاهد
المعرفة
##براط
##ضيف
كاس
والعمل
المايدة
##برت
راجع
احدهم
وايا
اختيار
ومح
نفع
السير
الغالب
اشهد
الطرف
##دها
بشرط
فضلا
معلوم
##ول،
الماضي
ومثل
الطويل
الشيعة
نوف
الظن
الكاتب
بقول
##دار
يرج
وكما
الصيام
القوة
قاضي
الريح
ادخل
جهل
الكوفة
الصور
##جال
درج
##ربا
الطرق
اشترى
تحدث
اطلاق
فوا
المتقدم
فتنة
تميم
الرم
شدة
دراسة
##تاء
الجرح
##فذ
توجد
ناد
ثق
طبقات
نساء
القدرة
##فاعة
البصرة
##افظة
##اصي
اللبن
شكل
##ناية
الزم
##واة
الرش
عدل
الخيل
رجب
القبلة
حذف
كه
يسار
حذيفة
واصحابه
##حاب
بيوت
##وانين
##غال
الدمشقي
لعل
الكذب
فدخل
##سفة
التل
النوم
نسمة
الدية
##شرع
امتي
##ورث
##وون
حكمه
الاختلاف
##قطاع
ربكم
الباقي
شرف
واك
وسل
دايما
##فلة
كام
الصفة
قرات
##حوث
##ود،
المحيط
منس
##ربت
فكانت
##عتبر
انهما
الكعبة
رضى
المي
الاخيرة
ورجل
الاوز
##روي
الغربية
##غط
بدات
يتنا
هج
الخيار
للط
واط
بالز
مجتمع
خيار
انني
القمر
راب
فرنس
نصيب
امين
بينة
##غداد
صوم
بلى
المقري
##عات
احدث
الخلف
ايمة
اضافة
يبين
العص
تعداد
ومت
كافر
ووجه
##وة،
اللق
جمال
سور
فعليه
مرس
يجري
صفات
##ليين
##قديم
ذوي
##يتي
قاي
والتع
##يبه
بمصر
##ذور
الادلة
##بي،
بينها
نست
الوصية
احيانا
##اوي
ناحية
وحكم
قضية
لقول
وكتاب
##ناق
الاشع
عون
##تة
الصحة
نخ
قريبا
##رقي
##ينية
كبيرا
المهاجر
ملت
واضح
شد
##لي،
يبق
كي
يشبه
والمس
اثنين
##لاط
تعتبر
الاستاذ
ربهم
صغير
الحميد
##غبة
##شير
##جهة
وتج
##وفية
لغيره
حرج
خطب
اسال
النصارى
الاتي
الفطر
بابن
جديدة
الكس
##احل
فين
الجماع
السادس
القيمة
##عية
##دح
الجسم
غلب
والمح
الباطل
الكون
بلغت
##كرر
مجهول
يصير
##نابلة
المثنى
فيقال
واقام
##كما
سوف
نعلم
علة
##اقب
والبا
اردت
ويحتمل
واخبرنا
##ايج
##صوص
##اض
تقدير
المسي
صن
للف
##هود
للاست
المخت
الباق
اعرف
خليل
امامة
الشافعية
المقام
فاعل
##ثنى
عقب
##سيم
اسب
##راها
اشياء
المملكة
يسب
جعله
المخط
اداء
لحق
##يمم
دعوة
والصواب
باز
تفعل
القطان
##نار
بالاج
قياس
هام
##ذم
النصوص
الاصح
خالف
اعتبار
عباده
فذلك
عرق
سار
افريق
الانس
والبيهقي
##ادات
الفرس
تصرف
يفر
مسلمة
##ولوا
الحص
السمع
ادخ
##بن
طيب
##كلة
بلال
تقت
##زى
الخوف
العدة
يخالف
قانون
الصيد
##عها
بالام
جار
الوع
##يات،
الحضر
سجد
كفارة
الاسباب
الاطفال
##راء،
يفهم
الطريقة
خذ
صدوق
قدره
كتبه
##ابلة
استع
احدها
المدني
الزمن
والوا
مواضع
##هاز
##فور
سيرين
بالث
##اهدة
##بدل
اجتماع
لز
الضمير
وذهب
العض
##ذير
##مرت
الاكل
الهجرة
لست
##الهم
عياش
المبيع
بحث
القطع
الغير
مليون
نتيجة
##انيين
الكتابة
دام
القبض
بيروت
التصرف
الاشارة
يمس
القل
##وجيه
عمه
النم
مطل
##لامه
وماية
تسمى
تهذيب
طالق
وبالت
##جت
الباري
عبدا
البار
التوفيق
##وبر
##ثيل
الامان
فانك
المبت
##صاف
##سون
كتابا
ربع
القوات
ومثله
والحاكم
التاسع
##فساد
الظالم
عجز
جارية
الداخل
المسند
##ختلاف
اتبع
مناس
ماجة
##مية
##ماه
##تكم
وكم
يسير
بول
المحل
فعلت
##طاعة
حف
الاخلاق
امكن
يكفر
النون
قال،
بدليل
بنسبة
##باء
عط
الجوهري
عاما،
حرا
وابا
ناف
الفرض
##وهر
الفي
ونقل
##ناهم
العقيدة
بواسطة
وسكون
بذكر
التر
سهم
الحكمة
وقالت
النبى
الاخذ
##نبيه
اننا
استعمال
##يساب
وصححه
دعاء
المختار
الاحزاب
واربعين
المسا
والثالث
الخي
##فاعل
##طراب
مباشرة
وصار
سرا
نن
##ليك
تاثير
يعلمون
دلالة
##نهي
وتص
كلم
سك
للام
حفظه
موته
##تمام
المعا
الدر
وقبل
الصبر
فكتب
والده
ابان
ادريس
ناصر
ديوان
خوف
التقل
الاحوال
اعضاء
عذ
نايب
##الغ
السموات
ففيه
مقالات
تلف
##حوا
صغيرة
نعمة
##ح،
ليلى
سيب
##وطة
الفار
وسب
السكن
##ذبح
##عاون
##اوز
##زد
##زاز
##ينيذ
روية
النضر
##يراث
وتك
العادة
محدث
##قسم
##جاوز
##صحة
وعم
اوروبا
##وزع
##فف
ينكر
تبلغ
##ظفر
واصل
عتبة
برا
اخو
انكم
الصبي
قض
الخوا
الدينية
الملوك
##حكم
##ثق
الطهارة
حلال
للشيخ
##خرة
وسايل
##فصيل
الاجر
##حف
##تهى
الدين،
انشد
اجزاء
مثلها
اثنتين
واغ
تصل
##جية
حاله
زايدة
الغسل
وخمسين
##قاق
فصلى
المهملة
الاذان
الاجماع
وانها
الود
##صه
ضم
والحسن
فضيلة
##حاول
ووضع
بتح
والاص
شعبان
تحل
##سايل
قبول
##ايم
ببغداد
الفات
المناطق
امريكا
يوخذ
قيا
تجعل
بسر
القصة
##لفة
ويحيى
هذين
فيكم
اخراج
لاع
الحيض
وحدة
لقي
مام
برد
الرهن
##با،
يمن
##ثي
العشاء
الامريكيين
والاش
لبس
لاج
وحتى
ابنة
الدرد
الشارح
واذ
هند
وتب
يكونوا
الهدى
ركعة
##كير
دونه
##امين
##ضيع
وليست
معاني
النية
حبي
##اند
الغربي
النوا
##وادث
المقدس
##بيعي
بحديث
##قيب
اتفق
##ادث
الضمان
جنوب
##وسع
روس
علوم
المشار
اخذت
القرشي
رزق
##لاوة
##رايض
شيوخ
الوكيل
المريض
مقدمة
قايما
عتق
النبوة
بض
خصوص
##جاع
الراء
##فية
مجلة
الرح
فوجد
هيية
##؟؟
وسن
تركه
تض
قوما
وفاة
والمست
##لبية
كع
حازم
الشك
##ضيق
ليكون
محب
هات
بشير
يعبد
العلة
خر
فرغ
جيد
يمينه
وتخ
قدمت
وبهذا
والتق
حلق
حلب
اذكر
السكانية
العج
الحديث،
زي
واربع
##علها
وبركاته
السلمي
الهمزة
تعلق
ودع
القديمة
امثال
بيننا
قايل
##ركان
ضرورة
فالت
طلاق
الخليفة
الوارث
##اغ
الاجل
صحيحة
قايمة
يصف
ولانه
الفاعل
قيد
البيض
المعاني
##وم،
غر
استغ
##رضا
الزنا
##اكيد
##قرا
خار
ودخل
والمج
الحقوق
شم
الجوا
السورة
##لزم
اقوى
السيف
##ازي
عرفت
قايم
تبر
يفيد
##جو
##ايض
##في،
القصاص
خش
الاذن
حصين
##جات
##صادية
##كندر
اتيت
##علقة
التوراة
كش
انثى
مخرج
الجزيرة
##لاة،
المومنون
القصر
وتد
جزءا
وسبعين
فكذلك
يبت
تظهر
السياسية
الفريق
ريح
المصرية
##شاد
تتم
##افل
يهد
قولا
العلا
الشب
ثمانية
##حتها
السابع
نوى
تقريبا
واقت
##مي،
المطر
اللحم
المدة
خرا
ثلاثين
الجزا
فمات
باص
##زت
العبادات
بينا
المنع
النقل
اسما
شرق
جس
كبار
جيش
الكم
فيا
##ورك
عليها،
مخالف
جيت
##فاد
##وجوب
وكنت
السين
##قدام
##طت
الخليل
##ارات
##ملوك
يحفظ
استطاع
ويخ
تنبيه
يمر
صفوان
الاستع
يحسن
التجارة
المكي
##نة،
مصعب
حافظ
##حيي
وعشرون
##ضرورة
القدم
##ايح
مهما
الاسراييل
عياض
الذنوب
##وهن
البلا
طويلة
البط
يعط
عظم
يخاف
##لايل
عس
التنا
سد
التركيب
##راعة
علا
##شه
##ناف
عملا
ومج
السجود
منها،
حساب
لتح
الروايات
##عدد
حزب
##صوب
صفر
حسنا
محمد،
##ولهم
جاه
مستوى
المالك
المسلمين،
الفساد
لزم
مرتين
##ذار
بالاست
##خذه
وايل
##جلد
يراد
حامد
##ومية
النفوس
##داة
الحفاظ
معك
بمس
##كات
تجوز
انى
رضا
تعل
كب
كمن
عمارة
كانا
##فيد
العراقي
##هو
##شتري
الجامعة
وتقدم
ومعه
##ادي
منزل
الباء
الاجتماعية
واراد
جعلت
##ويات
فقتل
الدور
تسمع
وفاته
تحديد
وانتم
حجاج
##وسى
ضل
مراد
##فون
فاي
وجهان
معينة
استحق
والاربعة
##ز،
##شك
الخدري
احداهما
##مني
لماذا
ولذا
المجال
مظ
العليا
بعدما
##سلام
عجل
##خروج
يستخدم
مفهوم
افعل
الاعراف
##الله
قم
عذر
تمكن
الفرا
عقل
انشاء
بعين
ثبوت
عندك
التعريف
متعلق
##ورخ
كتبت
مضم
رغم
##فاوت
المخلوق
##ياته
مجاز
الانجلي
مخط
اوت
وستين
علاقة
##ظا
فساد
##ورهم
##قيقي
شاة
وته
قيمته
##فاض
##انية،
سياتي
##غرب
السا
رجاله
الرضا
والحمد
سبت
##ماس
يقضي
الوجوب
التراب
##داع
القرية
حقيق
جند
##بون
رفض
نية
خب
##ويم
المولى
تاج
##بها
##لمي
شري
صالحا
##كاية
علقمة
تسا
الوضع
الفراء
يشير
البلدان
بالضم
فلسطين
الشيب
ثياب
##خم
الضحاك
الجديدة
الوصول
والتح
تاتي
جان
##ورها
وعز
مخلوق
وتسعين
الجار
الليلة
##ش،
فريق
النحو
الاصمعي
##زيل
تفرد
##ايص
السوق
منهج
##جن
##عده
##رجال
والعل
المسلمة
السعودية
يعطي
فيجب
##مه،
لذا
المركز
المالكية
##مانية
الاوزاعي
الغيب
##روه
##خاذ
غلام
فاخرج
غفر
يبعث
##سكري
وحا
##فاية
##لاحظ
النبات
نقد
تاويل
مهدي
مقا
بالكسر
وقدم
ممت
##دا،
نظرا
غضب
مانع
القبور
##غى
وخل
المختلفة
##ميم
الفتاوى
منظ
الخم
خمسين
فلانا
##ياطين
والناس
##لو
والشر
شعره
يكت
##ابق
##وسا
الوحي
الاوق
الاحرام
ويو
بدعة
##يلان
احياء
زم
##وتي
مار
حز
بالفتح
##ارضة
ويوم
الاسب
##ورت
الغز
##ثور
الجر
##راته
##يدية
وتاريخ
##روك
بدين
المعد
اوس
الصلوات
وكسر
##ثلث
النهر
واليه
عه
##رات،
القيس
لابد
الهل
##وقت
بعدم
يشعر
مشهور
##صاب
شوال
والبر
غض
موقف
يعرض
الارد
البدع
سيده
الرحمان
ايدي
مادة
حيان
الجمل
الجبار
وساير
ويجب
##اذن
جزاء
واسع
مقدم
##تماعي
##شق
ولكنها
الدرداء
اذهب
##رن
قاتل
طه
للنبي
كقول
مختصر
البينة
الكت
التالية
غن
والتعديل
##رامج
قلبي
الملت
##املات
الفاضل
بكتاب
تتبع
وهى
##يبا
##بتها
الطالب
التحريم
##فسخ
##رهان
##ركه
##رتب
المنزل
ادارة
الذكور
##عقد
الواس
قاعدة
لرسول
تعريف
مسلما
يغفر
##تهر
##بروا
الستة
الجبال
دعوى
حيات
عمي
المنهج
العتق
الذمة
الحدث
الركوع
التاويل
##ضاه
مارس
##قار
القرا
كيفية
##ومنين
المطلق
الخب
##يتهم
ظهرت
يخت
حري
يصدق
##افا
وخلق
محذوف
##شم
شجرة
الشيخين
الفتنة
يلحق
ثور
الظلم
الشديد
وطلب
الشارع
الذات
سلمان
مقدار
##حك
الوطني
حاشية
##انس
العاق
معشر
لمدة
ملكا
واز
نفسه،
رجاء
الموج
##قله
المشروع
ذبح
بمر
متن
##يعة
##وابه
قواعد
##حات
الديم
الصلح
##يتان
امرهم
العرف
مدى
الاطلاق
المعلومات
القاطنين
احتمال
لكونه
القرى
اهلك
وقام
##ساير
شق
العوا
لامر
القن
##حون
السبيل
الكلب
تعالى،
قراء
يعنى
تاخذ
التمر
##دات
لعمر
سنة،
سببا
تعيش
والدار
فانزل
ايضا،
الانف
الجهل
السد
المنصور
واول
السحر
يبطل
الثابت
الالفاظ
بخط
##لها،
##مرار
##فيع
عشر،
مثال
عمن
البك
##زر
##طبق
مدرسة
##وعه
الياب
ولدت
القاري
##وردي
الاجارة
##نث
ارجو
##داق
وثمانين
مفر
##قلة
السياسي
بطريق
المهدي
عالما
تعليم
##افه
الاو
وسيل
الطلب
الصلاح
وعاد
الوصف
الثامن
جزيرة
طاع
نرى
ابوه
##ضه
##حها
تقرير
##ريبة
وسعيد
سبعين
##ونات
القادر
الصدر
##زوجها
عظيمة
جلس
الهداية
ميمون
##صبح
##تهاء
جنب
النقد
##بيين
وجماعة
##راحة
الصباح
الامبراط
والحق
##اهم
يفرق
الشعراء
ظاهرة
ادنى
بحكم
الاربع
الاقوال
الافراد
ارق
عمره
كلية
المياه
عسكر
فاعت
##يرة،
اجاب
ذنب
الصمد
##وقي
والظاهر
بدع
بقاء
وحر
مفعول
الازهري
للامام
قي
باحد
هبة
صارت
الاشعري
انصرف
##حاوي
حارث
لحديث
الوطنية
##كد
قبيل
ايديهم
العشرين
بوجه
ربا
صنف
صحيحا
##وانة
فضيل
العلمي
##الوا
اواخر
تضمن
الضل
ولت
##عداء
للز
##قم
##لحة
##وصل
والمنا
ذكرناه
المستقبل
اولياء
تاليف
نذر
النجوم
والعلم
سطح
##دال
الحنفي
انتاج
##ج،
##خوذ
بكير
غزوة
الحكيم
بثلاث
زوجة
اوايل
ضرر
سويد
##راير
القرب
اشكال
مكانه
تفر
##قايد
الاهل
يزعم
واحد،
وسياتي
يبيع
السايب
ومايتين
##ادلة
##افات
الفقر
قلا
##باير
##جارة
كانها
##سيط
راك
##اعا
هجر
الحزب
##اصب
ابيه،
##ويلا
فسمع
##رامة
سوق
الابن
الصلاة،
تشت
الارض،
##ظار
وتف
عيد
فية
المدرسة
المنبر
يحتج
الباح
##حرك
التغ
الاعراب
ونحوها
مصطلح
يوثر
لكي
لزمه
وامت
سنان
المواد
عمر،
تستخدم
##نيه
اعطى
اليون
##جان
##ولية
##بيس
التقريب
##ربوا
ركب
##صت
خان
##قاضي
القاعدة
امكان
فذهب
الميزان
امرنا
##تسل
##تابعة
الخلافة
سود
العلاج
##الج
يولي
كريم
همام
الزا
##الغة
الاصبه
الحروف
يبدا
خاف
شرا
وحكى
##همية
الطي
الهواء
التابعين
قوا
ورفع
صيام
سرق
لنفس
عايلة
##حان
مسي
الولي
يومنون
وعدد
تغيير
خلفه
بدمشق
ولها
المرسل
##ضاح
القران،
المتاخر
##حاث
##بعه
الشاهد
الاحمر
عوا
وتكون
##يفا
اقسام
تفسيره
العرض
تجمع
##بيعية
فوال
سميت
الامين
لعبد
##رفت
وبالتالي
سيبويه
والشيخ
##اكل
كاتب
عينه
##غيب
مرحلة
الجراح
اصط
اهمية
بالاع
الاقرار
##وبات
كتابة
معنا
الازهر
##فوظ
الهيثم
للمسلمين
المعجمة
تختلف
وابراهيم
الحجاز
ارتفاع
ثعلبة
عوض
العظم
جسم
ميس
يود
البزار
عموم
وحدثني
النفقة
ههنا
حكى
البشرية
عدو
اوجه
##ل،
ولولا
عرو
اسود
الطبعة
ووقع
ياس
الطفل
يصيب
وهنا
##رين
مقصود
موم
سواه
البصر
موص
##عاد
عمرة
باله
قدامة
الطاعة
المقا
اختار
المحا
لعن
اسر
الرحمة
الكنيسة
ومش
حوله
الطاقة
وفقا
يظن
مكتب
يجتمع
للمراة
حوا
##وعية
للر
صريح
مبلغ
ومالك
ويه
علي،
الناصر
درا
جمادى
تلا
التقدير
##ذري
##هاج
ترجع
الخلي
##ووا
يدعون
مايو
اطفال
باسناد
فرنسا
الاثنين
النه
##بري
##انيد
متع
فتكون
العالية
انتقل
ابلغ
ثواب
اجمعين
الباحث
توجه
ودفن
##رجم
اعني
وبالله
##شيم
جايزة
النحل
المطلوب
الحاضر
الاخرين
شريح
ولفظ
واقع
يريدون
##قلب
مطب
بعينه
وانهم
قولك
المجر
الواحدة
غيره،
ذم
الفية
الطواف
نفر
والاول
عكس
الموق
##تبط
##بيل
ديس
##بارات
ففعل
بالفعل
وسبع
شهاد
برك
برنامج
العملية
الدارمي
تعود
مطر
القرطبي
سبا
بمجرد
الدولية
تثبت
يتخذ
حدوث
الدراسات
ثان
والفت
##ضيح
اعاد
ارايت
وعثمان
اوصى
تملك
فارسل
فاش
الدولي
يحلف
تعلي
بالناس
##اه،
واشهد
مولف
تاكل
##قراط
يصبح
##خله
ورث
##طباء
الارنو
ومد
الاصحاب
##لاما
كيل
صلات
##ديب
نظم
الارنووط
البداية
النبوية
لوا
تث
كار
##ولاء
##ديك
رايته
تهد
الراوي
والعب
##ورى
الكاف
رز
قطعا
والات
ينسب
##ملت
الخش
اكتوبر
ينقص
##هورة
فرقة
##حيان
ره
تسم
##لتها
##لمان
هدى
الدال
اخرى،
سبتمبر
نزول
اليت
رات
سلسلة
حكومة
رده
تزال
تسعة
لرجل
صع
##صفات
السبع
النجم
وتست
وردت
##فات
الاعضاء
مسح
المهر
وحق
مرك
يخلق
##اجي
اثم
النفي
للرجل
خيبر
مسج
##يوطي
الجمال
صاحبها
مكتبة
العال
فلن
وارت
ويقولون
##صرح
الصالحين
معجم
معط
##ضبط
البرو
الافت
الفاتحة
##واك
الموقع
رووس
اليكم
القضاة
تحد
##نق
بقل
يحد
##كث
##اسب
الجنوب
لديه
كسر
والنهي
##فيل
##جور
التالي
##ضيه
يفعله
المجد
بابي
الكبيرة
جلال
انفسكم
وبقي
عندها
قدرة
خفي
حصول
بالمس
الصوفية
برب
يبدو
##لون
البراء
##بيك
الروض
الاناث
نبيه
يصنع
الوزير
المنافقين
##وزيع
مذك
وعمرو
##مارس
وصحبه،
المشي
ايجاب
المسمى
تبعا
##دب
ورض
مخالفة
فسر
اوجب
الفلك
##ايه
##لوا
الحول
كونها
يشرب
استط
واسحاق
صغ
##باعه
جزي
##طور
ريب
والشافعي
##شون
يقيم
العسكرية
المجاز
القوا
ومنا
فنزل
سيدنا
سقوط
##ردد
##قوم
##راتي
يجلس
ليث
##عيان
وافق
##تابع
يحم
وعندما
هز
القليل
الاصابة
الحساب
يهود
اخرون
الفروع
منى
الجزاء
مرج
الراه
اليهودية
الاوا
الكفارة
الاسراء
ليب
شاعر
تطبي
الافعال
ملوك
العز
البول
##هزة
فليت
العموم
والاخرة
الانتق
كاد
المجمع
تماما
##هرة
الغنم
الصغيرة
الدفاع
لث
فاض
الضرب
ضمير
مرسل
والفر
روايته
تات
##واضع
اعداء
الوجوه
##هما،
والاصل
كالت
##اصرة
فلذلك
##صرا
تجري
راشد
درس
ذاته
قولان
##لاقات
##ادة،
جميل
دما
المدا
الحنابلة
يعتمد
افعال
##رال
الحديثة
الاتفاق
الاراضي
دينهم
العوام
عنوان
فضايل
شانه
تولى
الاجتهاد
##وس،
##يرها
بعدهم
وجهين
لاس
##ودع
##قن
##صدر
##فهام
##بك
مان
يقف
##خلت
لها،
فكر
للسكان
والقول
السبت
بنات
المصحف
العلم،
حرمة
الفاظ
اورد
القط
فف
##هرا
بانهم
وخال
بالقران
اجراء
الالت
كح
##لوم
ميل
الثياب
واليوم
نفوس
لتع
الموطا
مذ
خطاب
دراهم
المدن
معرف
ونظ
يقسم
خدي
نفقة
الجوزي
شيب
قوي
القضية
والعشرون
##قاطعة
الفاء
فوضع
استق
##ط،
الفرع
##ريان
الهاء
واصبح
الوفاء
فيس
حالا
يقاتل
وهولاء
للانسان
وبما
الزجاج
والامر
ولهم
العلل
جي
المهاجرين
جور
الضرر
##جاة
اثنان
##عفر
ينقل
##لفه
امته
##سله
علامة
##لول
شراء
باف
اتم
الابيض
طر
والصحيح
مون
اشر
وللم
سمرة
احداث
المديني
اشرف
فنا
##خان
لهن
##خشري
وخاصة
##ديما
##خصة
مصلحة
يرون
الرواة
فعلا
غد
##فعي
جذ
##رايع
المدارس
شيء،
قاسم
##اصد
حكما
وزارة
لعم
لاول
الشروط
ثاني
قن
اعداد
##مرق
اعين
وظاهر
قار
##صفه
تسليم
فاتى
لدين
فبعث
##سبه
خطر
الحصول
##دعوة
الاحو
ابعد
الصغ
بشار
لا،
هدي
الورثة
المتب
يرث
ترتيب
وقتها
اعوذ
ظاهره
##بارا
التاء
فالج
الشرقية
يسجد
##رفض
##ونيو
شار
الصفحة
والدين
المنك
فدعا
يناير
داع
الكلا
فقوله
الاحداث
عليم
الحوا
تعبد
اخبره
الحلف
قادر
باك
العظ
وبذلك
خلافة
المفعول
اصد
فتب
للذين
الولاية
فقت
اليقين
##رنت
ليع
التعبير
بالماء
##الة،
##قصود
يختص
شديدا
وجوده
##واكب
باشا
##يارات
وضعت
ونص
ووق
##قدمة
الكريمة
اعتقد
يخبر
مذه
تضع
تال
وحمل
الغلام
نمير
الفرقة
الازدي
بمح
مصطفى
##ونك
##قلال
الارت
الاثير
شباب
##يدة،
فينا
الضعفاء
توح
الكويت
##جين
البعير
اختلفوا
المسح
فدل
وبن
##ديس
ديار
القدس
##مارة
الدست
المم
##ايز
تحقق
فالله
جناح
فرو
##ارا
وادي
لهيعة
العمرة
وزن
باستخدام
##ابها
الغر
واقعة
ايت
نو
##ف،
المحتاج
فسال
##فضة
##نيع
منزلة
اولها
واحسن
الشجرة
##ثنا
شهدت
اند
والنصارى
ويزيد
طهر
فحدث
واتق
الاحياء
المتكلم
السهم
جون
ثانية
مقر
السلطة
السيوطي
الاصبهاني
الثقفي
فيست
##اها
علاج
##عوا
الكرام
الازواج
وعرض
قرر
##يمية
الدل
فكانه
الروية
اعتقاد
قايلا
الخالق
فيع
##غان
جزاكم
الوث
وتقول
##دخل
معصية
مسك
البير
##خابات
يدعى
##ظرة
النخل
##ديعة
دية
البدن
ودا
المدعي
السلاح
##ويج
تصدق
بعن
تسمية
طلوع
ولله
##انات
##رايب
وضوء
قتال
##رية
ابريل
بالصلاة
وصاحب
انحاء
رفعه
##معة
الاشخاص
وسي
##عتم
منظمة
الفن
وها
##ماح
العباسي
واشار
افريقيا
اموالهم
الجليل
##ضحية
شجر
لاه
الامراء
##فصل
اعم
القصص
##وزن
الشجر
يستحب
وفيما
خيث
البخ
##عيم
الطاي
وتوزع
الدايمة
فسخ
يقر
مستح
وسم
للنس
مور
البقاء
نظير
خا
ديسمبر
عربي
يكاد
##لين
المعتمد
المالية
##وكيل
بصورة
كري
فوايد
##جى
##سي،
نبات
ولين
الذا
##جيب
الهي
اقيم
الموذن
سكت
نطاق
سلك
##ضار
بجميع
##يدان
##صبحت
##فيق
ابليس
عود
##فقا
صحبة
الرييسية
فانظر
جمل
فعلم
يخلو
ادراك
الاجتماعي
الجزاير
تخل
بيعه
قبيلة
وزير
اباه
البغوي
ياب
##ويض
كاملة
الواسطي
انطلق
##اهنا
يلبس
كاذ
ويروى
##وذج
محله
باه
لقب
لير
الواقعة
ساك
##ندق
لقاء
النحر
بعب
اتاه
بمت
وبعث
##جوا
الجارية
والجماعة
##زوجة
فمر
نوفمبر
عظيما
جرت
بالاح
شرحه
##شل
البنك
سابق
الدوري
سين
متعددة
الكلي
المحم
التلف
العنب
حكاه
ومست
يمكنه
قبره
##ماية،
مسنده
الثواب
الطل
غرب
منهن
اتقوا
تفت
يحر
مية
قاب
مناطق
تركت
مهمة
##لاقه
اشتراط
##نبية
قوات
اكرم
ضلال
##منى
بمث
وزعم
الحلال
القعدة
مغني
بحال
خدمة
الحلبي
المرحلة
الافضل
قلة
اخطا
مخلد
تحتاج
ودعا
فكرة
بقا
بيني
مبتدا
اربعا
الوسطى
ودين
يمشي
بنية
الربح
المرج
يعملون
وفل
الفقراء
كافة
ترب
خم
تقدمت
يستعمل
اسفل
##نانير
اليهودي
فرح
فقط،
##نبه
اغسط
الحيوانات
##جود
##اموس
سمعه
والايمان
##صوم
اجعل
##بيث
الاسكندر
يدا
موجودة
الصحاح
مشي
حمد
فاشت
تارة
العسكري
النقص
منح
##شاط
الاول،
الجلد
تعلمون
الدابة
بالليل
يشمل
طريقه
العبارة
##عال
لون
##امه
مرب
##وارث
هود
يحضر
الزناد
بفعل
القواعد
زالت
فوالله
وحفظ
وزوج
يتق
##وقة
زينب
##قود
ارادة
يقرب
المفسر
##بر،
##تناع
##ثمانية
##ادرة
##لقى
الفتن
حينما
الكلمات
المذاهب
الاصلاح
نجي
المتعلقة
اصلاح
للصلاة
المفرد
والمد
العفو
وسنة
فاقبل
العشرة
##ومي
الطبقة
سابقا
تحم
والنا
المقر
وشرح
الاستدلال
وصلت
الفايدة
نصه
الحمام
ثالثا
هشيم
##ساس
قصيدة
لازم
عوانة
التعامل
الحرف
وطي
ترض
والحكم
الروس
حدثه
صفحة
##دو
امنا
الفرنسية
اعطي
الهدي
الخلفاء
##بغ
وجبت
وقاص
فوج
الممت
الشخصية
وينبغي
الكافرين
فخذ
##فاه
الوتر
مجرى
ساد
الاولين
والطبراني
عرب
الذنب
الغضب
اخر،
اناس
الموجودة
وبي
تبقى
##يميا
فاقام
شبهة
مقار
المول
احر
##اب،
الوحد
الطير
##احبه
عينا
الالم
الكلبي
انفا
##نوي
سماه
كات
متروك
التحقيق
شكر
ينفق
يخص
الاستثناء
صلوات
جوز
اوقات
الغرض
نسبه
فنظر
هب
السياسة
حصلت
الكرم
ستر
والحر
الظل
حمله
التيمي
واسمه
زوال
##صرت
وبيان
الزمخشري
الفوايد
الثورة
والجواب
المحب
حيوان
فرجع
فينب
الجاهل
يعقل
والذ
فلك
الحضرمي
امي
##ريقا
##قدار
عليهم،
فيجوز
بدء
انكار
ويعرف
يهدي
المعلم
حارثة
بعمل
والتص
حبس
الشا
نسال
اعتبر
تعا
داء
الرشيد
بكرة
##يب،
تجاه
وحينيذ
جلد
يدعي
يونيو
والعد
المروزي
طرا
الروضة
مزيد
المسافر
فالح
فانطلق
الوطء
##طنة
وقلت
سقطت
الوظ
##ستر
ضعفه
بعنوان
##صاء
يوليو
تاريخه
رشد
مقاتل
يتبين
فضله
البعث
خلي
الحرية
مالي
برج
القصد
الظاهرة
ولع
النسبة
قطعة
سام
خام
سمعته
ودفع
بخير
##فرقة
ابيض
##ليما
الجع
وشهد
##اقه
والدي
قرى
بعيدا
##باه
##تبة
##ظهار
حروف
##جاد
المشرق
سح
تطلق
##اهدين
مري
الخارجية
الاساسية
الصهي
غنم
##بور
الصناع
المعروفة
البيوت
##ماة
فعند
وعق
معركة
رباح
شارك
##ركون
ذهبت
شرعي
تضم
جماع
يخطب
شوا
##طها
عددا
غلط
##اصيل
والرا
تصحيح
ثقة،
تامل
النها
يسكن
جوان
##قراطية
صناعة
وملك
السند
السوء
دنيا
درجات
وفض
المستدرك
خراسان
الترا
افلا
الصي
عديدة
وسيلة
##عليل
لجميع
ابني
الطيال
انعم
الترتيب
شقيق
##طاب
القاف
كلمات
قديم
ومعناه
##برانى
تتعلق
اجرة
طيبة
##ولده
التراث
##عته
##فك
فيح
ليد
اير
رضوان
المعاصي
لرب
صم
يعل
تحفة
وبها
مباح
الدراسة
فخر
##عدى
اجماع
تخصيص
شهرا
والثانية
بكون
الاقتصاد
المقدمة
وكلا
نعم،
بالقرب
صيد
ابطال
الفرايض
الصنا
الاقتصادية
##وايف
صليت
الشمالية
ويعت
التميمي
تمنع
وفت
استعمل
القايم
اغسطس
الاعتقاد
##وعي
تاخير
الغني
ازالة
وقدر
شاب
الاقامة
وزيد
لى
الدعوى
خصوصا
منق
وبعضهم
الشوا
##كاف
كيس
##ذية
العاب
الاحيان
القبول
اليدين
وابت
بشي
لبن
داره
##يناه
الانترنت
فنقول
التعليق
##عدت
لكنها
اجازة
يعتق
الاثم
مصالح
ويدل
وكثير
يدري
يتضمن
النجاسة
##اقات
##صادي
##ازة
اكون
تاخر
الناقة
##ضيا
المرف
دايرة
حالات
المدونة
تعيين
##حيض
النبلاء
##باحة
##واتر
عف
لال
الحرة
عامل
##وتهم
السري
##حش
واجبة
##رمى
##ليغ
المعتزلة
فسلم
##شديد
راينا
##واهر
##ضحى
الاستغ
##ام،
الوك
عيب
##الجة
سننه
معبد
الحقيقي
الصادق
صلي
اخاه
بوجود
##زله
##واص
البه
لفظه
المانيا
يحنث
فاق
يمتنع
العثم
تشمل
##ولوجيا
الاولياء
الصال
وعرف
##سر،
المتع
يكذب
لاصحاب
##قتال
بالبيت
الوقوف
جوف
##فها
المرك
##عمه
واو
كلامهم
##ضحك
عمليات
ياء
تزيد
ضوء
##فاضل
##وقا
الدنيا،
غاب
الجواز
استخ
##فهم
##ادثة
عمدا
##هدى
##ساء
وضم
##طانيا
ينتفع
المالكي
خوفا
##لفت
##كبر
ترت
##قيع
الاسدي
النيساب
مبين
امتنع
الكهرب
##ويين
حاليا
الماية
الخزرج
عالية
##كز
وجميع
يسر
نصوص
ادلة
اطراف
ونزل
المسيحية
فاذن
الشكل
فو
ركن
##طعن
##خلها
رشيد
احل
الاحسان
واربعون
قليلة
كسب
اغلب
فاعط
ايق
التسليم
ينتظر
صحته
مقب
لصاحب
كاب
اخرين
فينبغي
##اثر
##فارقة
ستين
الدلالة
مخال
تستطيع
امامه
اقدم
##وسل
السوفي
توضا
##امى
الهاش
##شع
جزاك
##وسة
لبنان
متاع
شجاع
بعل
الثقة
موضعه
السور
الهذ
##يوب
العت
بالحديث
##سطيني
اصيب
المجموعة
السلام،
##اسد
قبي
##عيين
المعلوم
يكنى
ويذكر
السكر
القبايل
عار
##زون
لاحت
انفق
ابرز
تابع
الانسانية
##صلت
يجزي
مرسلا
الاجزاء
زيارة
فتن
للاسلام
الاولاد
العش
بور
يكثر
نعت
الاداء
ناي
زرع
نقطة
الشياطين
تمثل
بخمس
ورك
##وطات
التمييز
قرن
ومص
يبر
معهم،
فاز
الكهف
بلغني
تحرير
سهيل
وبل
غاي
##صرون
الصرف
بعدي
معج
مجد
النت
سند
##طيب
الاصط
الهبة
##طاة
نادي
لوجود
دريد
يصلون
تنظيم
##وكب
الشرقي
ويز
جرح
اليمنى
##اديث
##اسن
يعرفون
##يفاء
الضعيف
شييا،
فبين
قرار
اسس
كور
الرفع
يغلب
والفرق
افاد
الغد
النيسابوري
باذ
##واجه
نقض
الباطن
والاسلام
واسعة
خيثمة
##كرون
##ودها
##صدقة
المزني
النخعي
##ارته
##فيض
وتر
خطي
تقرر
بالدين
متر
قديما
وجل،
الكافي
هاهنا
الصدق
بالكتاب
##عاما
##شارة
اقسم
بتلك
اخرها
لسانه
صبر
##طاقة
سيكون
ادب
تسال
##قان
ارتفع
لاق
صام
يوافق
مقال
الولاء
##خدمة
التفصيل
المعاد
البريطانية
تفصيل
ينافي
تنس
سلامة
الحفظ
الخوارج
ونصف
الاسد
طبعة
##وتها
##قصى
##رعى
فيقولون
بالمن
بيتا
تشبه
رحل
يغير
الاوروبي
لانت
الغاية
واصله
الاعظم
##صيب
محاولة
ميم
بالتح
المكر
فبراير
باقي
فضرب
القوى
رغ
اجت
عقيدة
يشتري
المامون
##ياع
##راكز
##نيين
تجاوز
قات
مرح
المدينة،
العطار
وقطع
منهم،
الجهة
الامراض
##ليها
العارف
ه،
##شات
##وفر
الحبيب
الفسخ
شاذ
##نيت
##ولو
##يسي
الزرع
والمغني
ركع
نظرية
لانهما
##وفير
بقيت
##يهقى
##لتين
الراجح
المحسن
الاداب
لفت
توك
يراه
ومتى
المعاملات
##غيث
المهل
الجزية
لهم،
الاجرة
اضط
حدثت
##ركوا
اضع
##عق
يمثل
بارض
بلسان
انتهت
المسيحي
رسولا
يتحدث
وحين
يليق
ظاهرا
والفق
الحلق
تعني
الاجابة
تبطل
صديق
المصلحة
لند
الغايب
تنفيذ
وسار
بلدة
ماتت
اكمل
العيش
الحالات
مصادر
بذلك،
##كنت
شعراء
يصوم
الاحوص
بلوغ
التجارية
##قبال
الواردة
هاني
سافر
موسسة
##مله
##والد
سعود
واطلق
بالوا
##وجل
##زما
##نيته
قطر
الفهم
يفتح
ورجع
والكتاب
مشرو
الهادي
الكباير
##وعات
الموقف
والنف
فطر
يتصور
##رفا
المفس
الكندي
جزم
الدجال
الشيوخ
بالشام
##يقظ
وخمسماية
دابة
والمراة
##فسهم
الابد
بينكم
العقول
##ايشة
امس
الوادي
##خال
التنبيه
تحصل
##كح
الرياح
معروفة
الشيباني
بياض
##عا،
##زير
عقوبة
فدع
سري
عيني
المدعى
دوا
تشهد
توحيد
السيرة
الاعراض
قضايا
هنالك
الميراث
سعيد،
الصفا
##ندية
التيمم
البلاء
دليلا
##عتهم
المصالح
يعذب
الحرير
المنتدى
نبه
القى
وصدق
سمى
##روفا
اركان
صري
##اءة
الاحتجاج
ماك
##حلل
يرب
##شرط
نجم
الرزق
الخميس
المصادر
##عاب
هامش
##همه
اللح
وسمعت
عباس،
المري
اسحق
نبت
الالكت
وخير
متق
المورخ
العثمانية
##لاقا
وثبت
##ثمار
صدي
##لايق
المشاركة
سفي
##ايك
الركعة
ماخوذ
##انهم
ذكرا
##امد
والمثبت
اللون
هاجر
لعله
الطبيعية
فيل
الماموم
قتلت
المسوول
وبح
الطلاب
الشراء
امرت
##فعه
وبلغت
الطبيب
##راجعة
ضي
البع
تقديره
الجعد
ويعلم
مشايخ
مكروه
فقرا
نام
ولكم
##غو
##اهن
الاعيان
صر
##ديع
##يسير
تعين
ونشر
وفد
##اكد
بسط
وتط
ولنا
استعم
يقبض
شديدة
يعين
الكثافة
العلاقات
واللفظ
توبة
الزهد
استدل
الاعرج
التوا
الدرا
تطوير
ورايت
سيدي
واحدة،
رمى
ناب
الطبيعي
التبر
##يمه
المحقق
اعلن
##ماغ
التقوى
طوال
الشكر
اظهار
##يهم،
ساي
##يدها
وصفه
مخصوص
اماما
النجار
ناج
وضرب
فاه
تحول
ورقة
شذ
واسماعيل
ضبط
جرا
الانواع
##فرت
مدا
وصية
كرم
مدين
بالات
وممن
##ثلا
اجز
ويتم
النعمة
##راده
القاتل
##جس
محبة
##هولة
طواف
اغفر
لجنة
والمص
وبم
لار
منص
##دلالة
المعارف
##طوا
بسند
مالك،
الطبيعة
الزرك
الفارسي
معرض
اقرار
وانك
##يفية
المصطلح
##هداء
كريب
##ورة،
الرييسي
##خلة
الداخلية
اعطاه
بترك
المشركون
يفسد
##قيقا
لعلي
كد
القرض
الحوادث
ووف
وجزاكم
والو
اخاف
والنهار
المنظ
فمنهم
##تيق
##رفعه
##مر،
تقتل
##رييس
خف
احمد،
الهلال
فوجب
وابنه
كذاب
##سلطان
شداد
دفن
طويلا
المشايخ
##ساط
واللام
اخلاق
واستدل
تاسيس
نفق
##ناصر
الظالمين
الاوقات
##ميص
فاين
معناها
المكاتب
التربية
قرة
##جمع
مبني
نسي
وثلاثماية
بالحج
##فادة
كراهة
الربع
الصين
اسمها
الممكن
تبت
قدمه
السفينة
##انيث
يقوله
##مون
المطبوعة
موال
الكاث
تسل
جنة
مقتضى
وكانه
التقي
الاندلس
بذل
ممكن
##وابط
##نايم
انط
عليهن
فاحت
بانت
يرحم
افر
فرب
استه
الاستي
السنة،
مختل
ممل
وحج
الجنسي
تركها
التشريع
مسلم،
واضحة
رحيم
##عرض
والما
الضوء
##ارة،
للمت
حاكم
الثقافة
ذمة
ازواج
كلب
الحنب
العالمي
ذرا
وتا
وتارة
غيرهما
خطبة
بطريقة
##باق
بهد
وظهر
فيلم
##جابة
الفقهية
الصبا
اتخاذ
الوالدين
##ولاية
مسدد
وكلام
اصدر
المستقيم
##قتضى
التشهد
العس
الهيثمي
يوذن
المحد
شرعية
##ابة،
احفظ
منفعة
##دعو
يترتب
عزيز
مفس
الامانة
انشا
القي
ولكني
الجمعية
##ابط
لبني
غرض
اصغر
القسمة
##مره
تشير
##شابه
وامه
المظفر
الجما
اغت
##مالي
جدي
كفار
الانتفاع
صحيفة
البرق
فاراد
ويط
الوداع
العلاقة
اهت
علمنا
احتج
اورده
باسناده
اكره
اليمان
المشترك
الاستق
الحاجب
صدره
القاموس
تسقط
عنها،
مشك
##زايد
راح
تراب
العظيمة
يتمكن
الحرارة
جبال
غم
اليسرى
##بله
الرافعي
المنام
الخمسة
الحجاب
##حيته
رحمهم
الواقدي
##باطل
راوا
عنكم
##ريش
بصفة
الشركات
موك
الارج
يشكل
الجيم
زب
اللط
جهد
الند
مصر،
الخضر
الاشعث
مساحة
الاير
وبد
للعمل
حكاية
وحيد
وسواء
##حين
منتصف
##خلي
منصب
##تابعين
لله،
الغزالي
##بيها
دلت
اكتب
والعشرين
اخذها
مسب
معان
عرش
بالعلم
ويجعل
الزوجين
هى
ومعلوم
والافتاء
##لابس
الاعداء
تحر
وامن
مشرك
فاكثر
للث
الميلاد
يطلع
حصن
الوحدات
بماء
اسيد
##وراء
توقف
لديهم
ولى
الفيلم
##رب،
ذكروا
الارث
اياها
##ريته
درهما
السماع
وانزل
استن
الملكية
##اثة
لمس
##وسيقى
تفرق
##رافي
رجلين
نعرف
المسك
البيوع
اسرع
مغل
الموفق
يتحقق
بايع
الفلا
بريدة
السام
يتوقف
خشية
تعط
بغيره
##غاء
والحا
والظ
الافكار
فهد
اعمالهم
الاعتبار
##داني
القراءات
للعب
طعاما
الريا
وقته
والنساء
##يرات
تسب
فقدم
##يثاق
صحت
صوته
شيطان
وتلك
##ووس
الصراط
##دته
الموكل
مشترك
مقل
مند
تول
الوزراء
والدليل
السابعة
وفعل
##باعة
فقلنا
السادسة
فاعلم
البحرية
تودي
والوجه
المحكمة
ايران
##عيش
وياتي
خلافه
اعرض
##صيحة
##وكة
المحلية
ومل
فمع
مدر
##رور
اختي
ولعله
نض
##وازن
المخالف
مقابلة
الضحى
##ليظ
الهيية
الحقايق
شخصية
الاولى،
حفصة
لتكون
فنزلت
اولي
الضرورة
الموصل
الجسد
الاخلاص
المناسب
مناز
اعراض
دعم
##والهم
منزله
والال
احسان
بالمر
للمع
الناحية
فول
لمحمد
زيدا
تمن
عبدة
النيل
##جبه
باتفاق
استاذ
وافت
الزوايد
##علان
نهي
المبار
الركن
مدح
الاصنام
بعلم
حكمة
تراه
شيخه
وشي
والاربعون
الفرنسي
كثافة
حملة
عارض
وبينه
طلقها
##زول
اسط
احم
مناق
قبضه
يتوضا
لتن
المتاخرين
عملت
يتزوج
حيض
الدوا
ووج
العقود
بيض
اجرا
طرح
##الين
الحاء
للمس
اعطا
بزيادة
القلم
الموتمر
وسع
السلوك
طاي
والشع
توب
المفضل
##حط
##ربين
الفقير
##قلت
##منة
وولد
يصرف
صيغة
##روية
ولكل
اجله
##قوط
##يتك
فراى
النداء
ارادوا
الصامت
مشار
فيب
كرا
الشاة
المعين
كانما
بهن
المنفعة
تناول
وقفت
النسي
##تاح
الموافق
اتينا
##خاء
##حيوان
##برد
يقولوا
مدل
حرة
الجنوبية
##حسن
يرويه
ماي
المحبة
الطبقات
البدر
بمال
السعادة
القوانين
ينقض
تعارض
خاتم
الفوز
الخلايا
##وصية
الخار
اضاف
اعمل
الانفال
##قرير
الاصلي
بالقاهرة
قيمتها
فتى
ظهره
قايد
القدير
ثابتة
بيضاء
وكر
المصاب
ينب
لعام
المعصية
كافرا
بمثله
بالاق
مساجد
الهر
النسخة
العود
للبحوث
بيانه
مبارك
العرقي
اخوة
صدقت
ويشت
لاحق
مسوول
##غه
اقصى
##ضد
تومن
يعلمه
وخص
حرك
##صرين
باللغة
سكر
التسمية
ويوجد
##خفض
لذ
شهيد
##يوش
بابا
قولي
كرب
امسك
بالذكر
سان
واجاز
غيا
السراج
جبر
##حة،
باث
##نزير
##مشق،
##لاها
ومنع
الشان
نتايج
الموتى
ينتهي
ويغ
البدل
##ثيرا
والامام
اتحاد
نجاح
##ران
##صون
##روا
##ذكار
شيبان
البين
قدمنا
النظم
الاندلسي
اكثرهم
##بتم
الامرين
كاملا
قبايل
جام
عنقه
للتع
اياس
سيرة
سلاح
حمدان
بلغه
يوكل
##ليله
يتعرض
اظن
الامامة
الفوا
المرتهن
تبا
##ستاني
تذهب
علية
والكلام
بالمال
اتت
حث
ميسرة
انقطع
العصب
للمست
##ناول
فريضة
الياس
بصي
الجنايز
الجو
الوحيد
قبلكم
عاج
استد
احمر
اخوه
السح
##نصر
البرد
##جير
الموصلي
وبارك
الوسايل
##شفى
##تباه
##رحام
يسعى
بريطانيا
##ياز
الاذى
السبعة
##عتق
##قدرة
يجيء
اصابه
##ياتهم
حضور
وغيره،
##ديت
اشترط
خبره
الشعوب
راع
##وظ
##جوم
سجلت
القولين
براس
##احف
خت
##فلان
بالاسلام
##حيف
الانتاج
الاختيار
استمر
نذكر
##يشية
الله؟
##غون
الدفع
البعد
غي
بالايمان
احتاج
ويظهر
اكان
القاد
الديار
##واي
نفسا
الداع
الاتصال
##ياف
سياق
كمثل
الطيالسي
##اد،
جاءه
مواقع
لقوم
##فروا
##كنى
والاقت
##ناب
الهدف
فضة
يلب
سواد
تمس
عفا
واين
الشهود
##ولين
بالاخ
تحرم
البقر
فماذا
جعلنا
عاز
شريك،
الشريك
السجن
لانك
الرضاع
شرطا
توجيه
##ضرا
النار،
الطايف
تحتها
اعطاء
عزل
الاكت
تاوي
برجل
الجنسية
الجنة،
بحمد
صبي
هرم
الضعف
##فتين
لمر
بسب
##راهية
الصفار
انتشار
البطن
رع
الراهن
##صروا
والقران
##افي
الايجاب
عفي
يعيد
وارث
منعه
يتناول
راف
مين
تحتوي
##اوية
##ثرت
يخشى
الحسنة
بفضل
##شكل
اللات
الماج
بنحو
رقبة
##ايرة
ومث
الوالد
##فخ
السمرق
المطلقة
مسمى
##ضوا
وللا
العمرية
خات
وبناء
##يمة،
الحدي
عبدي
وشك
يسمح
البحرين
مرتب
يهم
##خفيف
تنظر
وسليمان
##قته
هدية
الحادي
صلوا
قرط
الرعاية
عسى
مصد
سكانها
النش
شغل
لعلكم
العقوبة
المكتب
ياذن
##فاضة
ووجد
ونه
بردة
فوقع
يعطى
##تج
سبيلا
مضر
##رجان
الصحابي
عابدين
مبدا
الدراهم
التكبير
المبلغ
##ختم
لاد
ارجع
تقطع
فلق
##اما
اذى
فنحن
بكار
الاشج
بالقول
يبعد
##شرح
شىء
النذر
##برية
الفلسطيني
والمسا
اليها،
واجبا
##خاب
اذنه
ضيق
افطر
##وف،
القرار
لاحقا
مومنا
سماك
##يعاب
مشكلة
اهلي
لباس
زواج
##مو
البريطاني
سلوك
كثيرة،
##حص
يرضى
المحي
المعركة
اولاده
فرط
##ذج
طاوس
المحدثين
صدور
##ياق
جمعة
##كيم
مسروق
المومنين،
المطال
استقر
الوسطي
طبيعة
ذكرته
بشان
مكي
ميز
اوضح
اراه
خزا
يضل
بكلام
خلقت
##شيا
فاسد
##قضي
بظ
توس
والستون
ابيات
اسقاط
##طم
الدرجة
الصالحات
جعلها
الاطباء
السحاب
بكثير
الجنازة
فروع
الاخر،
الماوردي
ثعلب
تحري
الفتى
الخدمة
بحجة
للاب
الامبراطورية
وبدا
وتحت
##رادة
اكله
##كتب
##قاتل
المخزوم
رايه
لبيك
عقله
المرة
المفسرين
ارم
المتوسط
وامره
##بوا
الاخوان
الابواب
الحربي
السبكي
اماكن
والرجل
الفطرة
لكتاب
الميتة
##ويس
الكبار
بالاب
##رسة
نبيا
المظ
وصد
وحب
نصيبه
كالح
شغ
محرما
##ارعة
##فرض
##ذكير
فتع
يصلى
الغناء
##ابقة
استي
احرم
السياق
وكثرة
الزي
البيضاء
خس
وطل
الصراع
##راقبة
طاف
بضع
تتضمن
##ضرر
تي
الفلسطين
السعي
سجود
واخرون
##فرا
المباح
بذا
##نيات
ثمانين
##مامه
واختلفوا
الجزي
طف
##مول
تعذر
##فاة
##وست
العصور
امل
حملت
ونع
##تبعه
الزب
الاربعين
##اكين
والفضة
##ايعة
##شرت
وهن
فتحت
التاريخية
شتى
الدماغ
تصنع
ببل
تخريج
الحق،
غزا
ولكنهم
التحرير
##ايى
استخدم
بايات
مقيمة
ونظر
تطلب
##غيره
الوجهين
وتغ
السكنية
هاج
العايلة
يغسل
تغلب
يتح
المجيد
فاغ
الواقف
##قيف
الصلي
تعظيم
واتبع
##زيه
فجمع
بطلان
تدا
##رجيح
صادق
نارا
المكتبة
الفرات
يكبر
سحر
المقدم
اخا
##رحل
ساله
ابنته
ذنوب
##وت،
##ضير
يصدر
قلابة
وخلف
المستاجر
ثوبا
يركب
##بث
وعنده
##يفه
اسالك
السمرقندي
الوقوع
الجلال
ترفع
امرها
البلق
العيب
المصلي
##وب،
الشتاء
##انك
صحيح،
موقوفا
يلتفت
اطار
تتخذ
حماية
معه،
بالاجماع
##غام
الانق
رمي
##فيت
ازد
ذيب
مبار
تمييز
##ناط
فالقول
##صورة
يطوف
الكلية
البتة
الغاصب
للعالم
##تي،
الادمي
وابى
العالي
الشري
يضم
جمعية
سيية
##عظ
التركيبة
الطحاوي
الزيت
الشرف
فالذي
حاول
الاقصى
الاصلية
##اعه
شبكة
المنس
ويدخل
بكذا
وثقه
##يدر
فابى
##يله
ميتا
عينيه
مود
الاستخ
##اور
للحديث
الاشكال
امها
السلامة
عث
دقيق
يتعين
يعرفه
الاشراف
وزيادة
تدعو
حاجته
##ضاعة
فرفع
ماج
##قي،
انقطاع
قمت
حامل
المكلف
احد،
غيب
الجب
ليسوا
اطلع
مقبول
##ادا
واستمر
قناة
الوكالة
بالسيف
معروفا
فقهاء
دقيقة
##ينة،
اسلوب
البرنامج
الخلال
مقط
اسلامية
فاصبح
وموسى
اصلي
الهمداني
العاصمة
الصيف
المتوكل
الذبح
حرمت
##شاة
الهاشمي
شاكر
وموا
##طيط
واذكر
##سها
قبلك
تسلم
ينفذ
فالع
ابراهيم،
##لايين
قوية
النحوي
المرجع
##تباره
##رهن
مالكا
بيس
##ماري
عبدان
الاصليين
##سنا
التلخيص
لزوم
##انف
يستطع
القضايا
المصطفى
النزاع
البالغ
ظالم
تصبح
عضوا
طارق
اسقط
##ندوق
الوحدة
فرايت
##ماليك
القرون
##بهان
الثان
كلاما
يولد
مها
ويرى
للاخ
##جون
##اهية
الثناء
ورحم
باختلاف
تلت
يبكي
ويعتبر
رجعت
دعوا
##هادت
وجعله
الناظر
ومعرفة
حنين
##قتله
يعم
ولست
##بتهم
رياض
مولاه
خدم
رجوع
الجغ
والمقصود
تلقى
الاقتصادي
الصالحة
اعجب
النبوي
العيون
الكاثوليك
التام
بالكل
ينصرف
كذلك،
بيم
الانهار
##خه
وعبيد
الادارة
رغبة
يغني
بسي
##ينا،
واربعماية
وعبارة
الملتقى
نريد
نهار
فرضا
##زيون
المضاف
الطاهر
الكثيرة
وولي
ورسول
باهل
المعالي
وستماية
مقاطعة
سوريا
##وكا
السلفي
فقتله
المسل
حفر
ولدا
تنزل
الحيا
واياكم
نذ
##قاش
الرويا
النظ
جدا،
الشفعة
ايمانهم
##سنة
بالعمل
الخطابي
قدرته
المعيشية
البنوك
الحنبلي
جورج
عجلان
خلت
مطرف
##يدته
برهان
معدل
الدالة
المجلد
##صري
##الع
جهاز
الاصغر
خالق
ناقة
##ايته
حية
وجملة
##صين
الشرب
وارسل
بدرا
يرسل
الحضارة
تطلع
##شة،
فنس
سفيان،
المستوى
الزركشي
صيا
دارا
ماد
عزم
##فتها
السواد
فهما
ويخرج
شخصا
الكواكب
العظام
##لاصة
الجرا
كالع
جوهر
##لل
بالامر
الشفاعة
صغيرا
جالسا
اللغات
تطبيق
بصر
ينام
##وتا
الاردن
##اصم
وحيث
اناء
معلومات
العقاب
يذكره
##لاته
القم
الميلا
صاع
ليف
الاحتمال
##كنة
العرب،
##ماذج
الفرقان
نظرت
الاباء
الموحدة
وجهها
جالس
وصول
ارضا
عمرو،
الغن
وحدها
##رها
اللباس
للنساء
المفهوم
احا
خلع
ده
يعبر
سرعة
استحباب
ينه
شاع
الجناية
واحتج
تصنيف
العجز
والاعت
ومق
##قيقه
وراي
الوعد
##طبة
محمول
والقص
تقسيم
تبد
##طلان
سبيله
الصحف
يهت
الموص
تلم
دبر
روايات
الصنع
##سال
وليلة
لكثرة
انج
استوى
يومين
الصوفي
يتج
الارواح
داود،
تحته
قيادة
السدي
ولدها
منقطع
##نتان
الترغيب
موجب
محافظة
قدير
##ذهبت
##اريع
والشام
##ستها
والتك
مقارنة
العاشر
يذ
بلده
##بود
فسب
فالق
العناية
##اين
وانكر
ايمانا
للمسلم
بركة
كرة
والجد
خلقا
واقبل
##سباب
الاستح
المشهورة
##قتهم
ختم
وراى
المهمة
الدماء
تطور
لاخر
##وع،
##مرات
مدار
والمق
الانجليزية
بسرعة
قبلهم
##يرية
المفا
الاشتراك
لقيت
اسيا
لمح
الابتداء
الملي
السفن
##غيل
الماز
خارجة
##ماله
##تقى
مضط
هاتين
عيون
العقيلي
الانكار
وفرق
##روري
اداب
الحسنى
##صان
وشع
##طلة
##ظلة
البرية
الشوك
وضعه
الفيل
يتقدم
المواضع
الحروب
الغنى
شمر
الساح
الشورى
الاوروبية
##قدة
البريد
##دعي
السودان
جلب
جمعت
##واته
المحلي
البرت
بثمن
المنذري
واعظم
عموما
##ظي
لانا
قلعة
حاضر
بتع
لمسلم
القض
معلق
للمومنين
فحسب
فسار
##اقا
عوضا
ويسمى
كالا
السنوات
تعدد
الرمل
عمان
الحسن،
مرارا
مضي
واعط
يظ
##رازي
وتشديد
الصلة
امثلة
ثوبان
فترك
قابل
##زاحم
شفاء
باكثر
النصب
الشرطة
ميراث
مردويه
يتفق
##صر،
التقدم
يتب
المقدسي
##ث،
والتن
##غوا
يرا
المجتمعات
الولادة
الزوال
الليالي
اسحاق،
ايل
خصايص
الحميدي
الطايفة
مقامه
المتقدمة
ذراع
مسيرة
تقتضي
علامات
متب
ناز
تصلي
ثمر
يوصف
مستقيم
بصيغة
للاسر،
ادا
مضت
المنطق
عات
الشبهة
##لندا
بالذي
نقي
##اطر
والستون،
##كنا
بيانات
والقمر
الحقيق
##عدوا
يام
##شرات
سخ
حرية
الجهاز
الظروف
التث
واحب
معن
##خرف
##رقت
العالم،
نقلا
براءة
العثماني
فلت
تصد
العجلي
الغيبة
مهران
الكاذ
##خمة
البس
التشبيه
النحاس
##حدة،
وجها
برم
##اورة
اوفى
الفم
نيل
النفاق
تور
اهداف
جنات
ويص
اعتمد
فاوليك
اعطيت
وعطاء
موافقة
التامين
الة
بالو
يجعله
##تموه
تالفت
ثوبه
##ولون
الصداق
خرجوا
##براء
الامر،
جريدة
##قولة
والاحت
##وضوء
ارش
##طون
العوض
وملا
وبنو
روم
وياخذ
تشكل
##وى،
الاستعمار
رسل
وطب
روسيا
الاهتمام
تسبب
##واس
الامت
وبعدها
##هداف
##لكه
الاسلم
الحرمين
ذوات
احتيا
مرتبة
التعاون
صفوف
تدري
شريعة
اليهما
مراعاة
##وحا
##تكلم
كفا
الغزو
جف
الكراهة
##نياء
يختار
والنبي
بابه
##وضح
شهادته
يشرع
بالمعنى
وحي
العدالة
وتل
##غيرات
والاه
##ينت
##خرا
الارق
اعراب
يحسب
وحصل
##ايزة
مستق
تصف
واصبحت
##اويل
لا؟
يعارض
##ويق
اشتهر
بعير
للعل
سرية
مبر
مياه
تجارة
الاسلامية،
السيطرة
عيش
طلاب
غنى
##وصول
##ص،
##قيما
الاخرى،
بطلت
دق
الوراق
خمر
المتعة
محتاج
الجنين
الاسواق
زيد،
يجبر
##راءات
سفينة
الباه
اشتد
واهله
المبحث
##لتم
##خ،
اصوات
##ماته
تجر
فليست
يتوب
اكس
المتقدمين
الرمي
التت
##هوة
وعيسى
اخذا
فيم
مسافة
الشيخان
والبحر
##ايهم
اللم
يلقى
واتباع
##موا
العدا
الحالي
##فش
وانس
حلقة
ورم
تحب
اصلها
بدار
الساق
##طاط
بقيادة
فساله
##اهره
المال،
والتاريخ
##ربها
شبيب
##ومها
بجامعة
##ذروا
معيلات
القريب
##حقاق
والتقدير
وبالا
تحصيل
##شرا
قتلوا
##شره
بمتوسط
##يلون
##ماك
ولب
واحكام
لصالح
##غ،
ميلا
فالوا
سمعنا
الفلاح
ويرجع
مكحول
رخص
اثره
والتد
باذنه
الغاز
علل
لدي
وجز
##ومين
##نهم
الكلم
طبقة
عهده
واكل
موجودا
الطبية
والاك
##رامه
واختار
الاحم
جرم
الفضاء
##نعة
ابي،
##كملة
هدا
##خين
##وعظة
##ذبه
لظ
المستحق
ادت
##طش
صبا
صخر
كلف
والثلاث
##فضل
وحرم
##مهيد
سياسة
واظهر
فوقه
مفتوحة
زمانه
المنكدر
والعقل
ومال
ينتقل
##دنا
بحد
ساح
وبخ
##راره
سعة
للمش
##زان
الزهر
اطل
بيتي
الاسماعيل
اختصاص
رجالا
##زوق
نشرت
ميزان
بموجب
اسلمت
التعليل
السلعة
##راوح
للعلم
الانح
عامي
قذف
الحبشة
التزام
رام
##وطا
موافق
##ثاله
التاثير
كالص
الاماكن
##ريا
القوي
الديمقراطية
##جها
يلعب
الضلال
المرضى
المستع
المخرج
تصور
الغي
ويكره
رجلان
ملف
تخلف
كناية
مذهبه
##قبه
الجوهر
##صلين
التفت
علمية
نورا
الحوض
تحكم
##يناف
امان
حصر
مجالس
فقيه
اثنا
دورا
وكره
اعرابي
يتغير
الخراج
الجلوس
والرج
الالهية
الخليج
ينس
الطبرانى
بالنظر
يجر
اليق
استغفر
يفطر
تميز
القايمة
الكشف
اكد
العمد
بوضع
طلبه
ومخ
هول
والكس
باريس
توفى
##شاير
انتهاء
والبد
الديني
العقبة
الاعتدال
اوص
هوى
##طلاق
الحمار
راسها
افع
##اهة
الجماعات
اضطراب
مضاف
ايما
##وافق
توثر
قطعت
محض
ايم
يشك
فعن
التقليد
فكانوا
هوا
ياخذه
##لاحظة
ونت
سايل
وبقية
استثناء
##يدات
الرافضة
تفيد
تزوجها
عبدالم
##ليث
##كري
##فتي
##شيع
##لتهم
ونعم
الابيات
دفعه
ليا
##يلة،
##يتا
امراء
مسكين
##خصصة
##رسي
الاسنان
منفر
فيهن
عدتها
للحق
##عاير
فعلوا
يوت
##وهب
##ميزة
##وطي
النزول
الحية
##عمد
الموسسات
المسب
مستقبل
الاسي
##عي،
اختاره
طاير
وقص
فتقول
الاغاني
نجيح
ذمته
##كومة
بالعب
##وقه
السلسلة
زن
العرق
المامور
عبدالع
لشيء
تقرا
انع
حراما
وتهذيب
مولده
امرو
الشهيد
الفضة
فكما
##طاليا
والنار
زار
##رارا
للاخر
##تنب
وفقه
##طيعون
كثير،
التجار
ودي
والعرب
الفاح
اتق
سبقت
##حيل
المانع
الاناء
##واط
بصري
الالمانية
فالص
وجوههم
الانوار
الحايط
العجب
ومكان
بقوة
وسبعماية
##حلة
الهندية
اسعد
واقد
فيحت
مثقال
##رقا
##ك؟
الاشجار
حادث
المار
والمغرب
السنين
وجدنا
اهلا
تقدر
##ياتها
والرب
يهودي
تلام
تمسك
برامج
كسرى
##لهما
ركبت
منازل
الده
##ضاف
##عدام
لوجه
اللخ
بكر،
فاتاه
رجليه
الجند
##ءوس
والبغ
##دمير
ثمنه
تحرك
##اري،
جندب
الطايي
لندن
ينطق
اكن
الكفاية
ساع
خمسماية
طلقت
دماء
اعبد
زل
وامراة
##طيق
البلدة
##باك
كنيسة
التكليف
##ضور
والدعاء
نال
تموت
للزوج
وكون
حقها
##معوا
سنا
المحيطة
والاخلاق
##دن
ويبقى
نيوي
ويدع
فاقت
##وانا
ساعات
تخري
الرقيق
وسير
بتحقيق
##ظه
يشرك
يحاول
قومي
اياك
قاس
الايمان،
البيانات
##فارق
العكس
الشهاب
الظرف
وجده
صراط
مكس
يمينا
معقل
الجوية
البزاز
الازرق
معلومة
فاكل
بكثرة
يحج
الديوان
موتمر
انفسنا
العمليات
وادع
الاعتماد
مفع
انفرد
وقتادة
اصابع
فحينيذ
والسل
مرضه
##مات،
ارسال
بتاريخ
فكم
ويحرم
والتابعين
العذ
##ايله
تونس
يومر
##كرين
##رفق
والبخاري
ملخص
##دفع
تعتمد
نجا
##رفوا
للذي
الحلم
باطن
##طنطين
##راعية
اللقاء
الحصين
رفعت
الاوس
الاذر
عذابا
باحسان
##خفاض
المضم
الفضايل
دونها
البدعة
الاطراف
انجلت
##جام
المنه
يسيرا
##يقن
فضالة
وعين
ونهاية
فارق
##واريخ
سماء
برسول
رويا
الايط
##صالات
يكلف
##شين
رهن
ردا
تامر
##لقب
والرق
فهر
حولها
ليح
شيخا
سجل
عبادي
الانساب
الحراني
ويقوم
والشي
التركة
##ومنات
##ثاء
والحم
يخال
سريع
الاشرف
الزوجية
المسرح
الانفاق
المشكلة
عرضت
الانتخابات
يرم
البنات
مناسبة
قياسا
شهود
العقلية
بالطلاق
بعضكم
كلاب
##ضوعة
##ولايات
غس
التاج
بيمينه
##جموع
رابع
اثاره
صالح،
بباب
ارفع
وجهة
انسانا
##سوط
يجيب
ارحم
اكتشاف
ووصف
##شط
النمل
فوز
بقتل
المهذب
وجن
##ادت
ووص
##والة
العلوي
الني
التقى
الكلاب
ويعقوب
لتلك
الاديان
اجما
##ساك
عربية
جهاد
واسلم
##خار
والسن
يظلم
##عدون
فاقول
الوفاة
تكره
حديد
عبيدالله
الامكان
والتف
صلح
فرصة
رعاية
يسبق
السهو
سلمة،
التصريح
طريقا
والقا
##شاه
البرهان
تزوجت
مدن
وسال
التابع
امرك
المهلب
تعملون
الشهير
مشى
دخوله
الشح
##فقوا
التابعة
يشارك
##كلي
المنظمة
معكم
الحداد
كفاية
##شاب
مسرح
نوعا
سط
يباع
الارادة
مملوك
جزا
الرومي
بالباطل
ارباب
الكتاب،
التما
الجهد
يحبه
الغريب
لزوج
والمال
واجعل
موسى،
دينارا
ارسلت
الموال
##ابته
الملك،
جمعه
الدواء
باعه
اطول
موث
بسنده
صدا
اطعم
وامثال
مملكة
الشاب
المناسبة
روضة
الصغرى
فاسلم
النط
الزمر
المود
للمن
صغار
##اليب
مراده
##روها
ساج
الوزن
##روضة
منسوخ
الهروي
والعمرة
ظنه
فريد
الامثلة
النبيين
جاوز
جني
##غية
ياسر
الثمان
ركعات
##ريقي
التدريس
##اكم
##طعمة
يوج
الطرفين
وور
##البة
النقطة
النظرية
والمل
طع
صايم
لبيد
بالتع
##رفين
وجزم
سعد،
##ولوجية
افتى
##بادي
طاعته
فجلس
سلا
##ضحة
##ايير
طهارة
اباحة
تها
حدثنى
عبرة
الاحتلال
اقدام
ورجاله
المها
اختلفت
فلقد
التصوير
عاقل
مثنى
الحادث
حذر
التز
##وريا
##قافي
الاهلية
شهيدا
المني
للقران
##جاعة
غيري
السعدي
##رجو
التطبي
الحلية
اذان
اياته
تدفع
جدة
الاموي
البلوغ
والنهاية
الكسايي
حمار
الصلت
وتز
تصاني
الباس
انيس
اسهم
##رىء
نظرة
راهويه
##ويب
الاثبات
##حته
مذاهب
كالج
الجهني
##يهود
الكنا
ظفر
ياق
واكت
اليوم،
عبدالعزيز
الاسط
افيد
الحياء
والعصر
غياث
المحافظة
السييات
##حنا
الحزن
خبرا
غسان
##كي،
نزع
الحرث
صفية
يحتوي
##هة
اباح
المرسلين
وذا
##وقوف
العطف
الاسيلة
اصبع
المدنية
مستقلة
الحمى
بفت
يستلزم
ظلما
بصره
فكره
##هنية
والتب
##فري
##عبين
قصيرة
طاقة
##يرك
والخل
ففيها
##بلس
الضغط
محفوظ
للمنا
فلين
الاجسام
بطولة
التنزيل
يورث
بقد
##زة،
وحل
المنازل
اضل
صلب
عدى
الورد
المبين
ورواية
##ربون
صنعت
المسجد،
وحسب
لفظة
حنيف
الجاني
فخرجت
الكيميا
هدم
فتوى
ترجم
ضعيفة
مسن
اثني
قرابة
الفاسد
كج
ينال
##فيها
دخلوا
##جلب
ومجاهد
وبك
بمدينة
قاموا
يقصر
اليتيم
اشك
والاغ
##ظيف
كساير
الفلسطينية
والحسين
انقضاء
الحما
مجلد
مسجدا
الرملي
مختلطين
اعيان
قاص
فامت
واياك
نون
البنت
مولا
زادت
##ثوم
ظرف
حرارة
معتقد
##عاقد
الخلع
ادخال
##كتو
حكمها
دعوت
##الق
الوارد
اللطيف
نحر
تحريف
والنظر
اصدار
يدور
##دين،
بالبصرة
الجوع
واهم
مطلع
دينار،
العودة
تبدا
ضربت
اوتوا
يزول
صححه
اضطر
مهملة
##خن
للمشتري
عمد
ضب
مرزوق
الاصوات
الشعبية
الاسراييلي
##زدق
الخزاعي
##بتي
##ضعيف
وكس
وسفيان
واتقوا
##رعة
##رتهم
العبيد
حلت
##رجات
قوانين
قصده
فلهذا
لتش
خروجه
منصوب
##نيان
مستقل
مراحل
هذا؟
الايت
##نيس
التطوع
##كنه
يتجاوز
خزانة
المحق
واتى
ارك
##راجه
عمرها
كالش
اعز
طعن
##ويف
يحي
منده
الجمهورية
الفريضة
وكنا
العربية،
النشاط
وكلاهما
جنازة
واخبرني
منش
امانة
الماء،
معلوما
مواجهة
والملك
متنا
واسناده
عنق
##حرر
مراتب
معاملة
الصايم
الفز
بطنه
قران
الجهات
والاي
والمسلمين
فيش
كالس
تزل
مكة،
جزر
##وابا
اجهزة
تارك
خسر
الكن
##زيمة
الطفيل
##قيها
التحليل
غروب
الحكام
يساعد
##خلا
كذبت
ذلك؟
ملتقى
فحمل
البحوث
حبا
لاص
فاتي
امهات
محي
وثق
والرسول
مساعد
الاضافة
الواضح
الاستفهام
يرزق
##ذكرة
اقتصر
للفق
للمدينة
اياما
يرغب
##ايي،
وراجع
المضاربة
##كبوت
ونست
الانسان،
وعملوا
الداعي
عرقين
ثي
اللغوي
وكت
يحق
اقراره
شن
الزاهد
محال
توفر
##ورين
##اته،
التفريق
البخاري،
طي
##كله
الشامي
خطة
شفع
للبايع
احيا
##كروا
الهندي
الاذ
اتباعه
الوقت،
##مالك
القلعة
موقوف
اسن
جميعها
##دبر
وخالف
يطالب
الخض
ليعلم
لوط
عناصر
اراضي
ومسا
غيلان
واجه
تصوير
فالجواب
الفري
رييسا
اسلامه
العنف
جمهورية
ورجال
السكون
شبيه
منتدى
منف
يذبح
الحباب
العذر
الاصم
وسبب
كانهم
لحكم
الوصل
##ساد
سلب
ومرة
جاءهم
ملة
حضرت
الامل
الاخضر
الاسكندرية
##افرين
##اسي
ساكنة
قعود
بثلاثة
ينظرون
الموضوعات
لذكر
##ثت
##بيحة
المخالفة
##وقوع
تكتب
المبادي
بالكوفة
صباح
لتحقيق
ينقطع
العبدي
الاشهر
الصغار
لصاحبه
كقولك
##ناكم
البها
مرور
نجس
##ض،
المختصر
فلها
##ديرا
##زوا
بالض
ربها
محكمة
عدوا
ترق
حنظلة
الغنايم
وبعده
يسع
الزراعة
والمعت
##لاس
وقسم
اجيب
ظلموا
الخف
##روز
تفض
حش
اويس
مطالب
والي
خلالها
فتامل
الدعاة
الهلاك
للات
دلال
ملكت
نزاع
السلط
##ضمير
الراش
الورق
عتاب
جيم
بالذ
##ورته
قريبة
حاصل
بعم
وثلث
وطن
الجرج
يتصرف
والمسلم
بمثابة
##بيعه
قالها
يكلم
اوسع
##لهم،
لبيان
الدواب
##قاذ
الحكومية
##ارير
المخلص
قومك
رسالته
##وثر
الرجلين
##قضت
يدر
جمعا
البشري
والعق
ليم
بايد
##نبا
والحد
بحلول
##ياذ
المحكم
عصره
##رضه
تخريجه
للعبد
تركيا
##رسوله
الثقافية
السدس
##نتي
والحكمة
##يسابور
عروبة
##حقه
فهولاء
للرجال
##ريقية
فعلها
قبلت
والانثى
بالله،
##سوف
المثال،
بلي
##وليد
وعظم
امك
العناصر
كالن
والتش
النتايج
اربعون
الشق
العظمى
كنانة
نوفل
وقبض
ضربه
الحشر
ميمونة
جعلوا
العلماء،
الاستش
فسكت
قلبك
##غن
السيارة
شهداء
حكي
##انيها
الاتية
الامصار
الخر
خديجة
وقر
الجنب
##قيح
##حايا
اتجاه
العادل
رجله
وفلان
ينادي
جري
الثمرة
يخرجاه
##اربه
تصدر
ابد
موسم
لفي
تترك
تاك
الرسمية
التوضيح
##ثني
##وان،
الوعيد
وتفسير
بعيدة
ارتك
##جره
سرير
اطاع
##اديمية
العجل
واخرى
يتولى
الصحية
الشراب
تتع
بخصوص
الرو
##ادوا
الكافرون
الطول
دمه
مرفوع
رتبة
ميتة
المرتبة
الغذا
طلع
كق
الحايض
يقم
متصل
الامثال
##متين
الحجارة
التغيير
وقولهم
رحمته
تخت
حملها
##ركين
يستوي
محرمة
كيد
المخطوطة
الاذرعي
##هره
##طير
الاجنبية
وشبه
اشرك
العسل
الرعد
اراك
يرك
الحوار
غيرك
تاي
نصفه
مررت
مفرد
تدور
حنث
الهذلي
بخبر
الانش
##يت،
الاجنبي
بالموت
كفى
ومضى
النفسية
##خيرة
اعلنت
##ظف
القناع
مسهر
فالواجب
الشام،
تصير
الجنابة
##وند
اجره
وغيرهم،
السوري
مواد
##جتمع
وبشر
مقتل
المنار
##بعد
والشمس
دست
نوم
المواز
القبل
ناظر
صالحة
##وءة
##بى
ياتيه
##قصير
غلاما
يبحث
المخزومي
##وصاف
دينكم
سوار
توجب
عزوجل
قصص
زع
باطلا
للاع
يوكد
ارسلنا
تصلح
عايد
اسرار
اعماله
اتفاقا
##خبر
نزيل
فذكرت
عادت
وثلاثة
الرحمن،
والانس
فاجتمع
هلاك
الشهداء
الفارس
وعليها
اجماعا
غاز
تقليد
الابصار
ثورة
اخل
النصاب
فنه
الشهوات
ذكور
يفضل
تكر
حبل
##جعل
ينوي
متص
##شاركة
##جزات
السجدة
اباء
الماضية
دير
لاغ
قادرا
يمسح
الترب
الاقدام
اخذوا
تحليل
ويصح
يوضع
تردد
##ستير
يستدل
المعاملة
##فتاح
الاوراق
نفى
بوس
##اهدوا
القش
ورف
تكوين
المفل
والكا
##لايي
رفاعة
اتهم
ولفظه
##فد
بالبر
البروت
تكلف
الامارة
تضرب
المادية
##اناث
الصحراء
عنى
البرلمان
بمكان
يوخر
التفكير
قسمة
الاساسي
##جيء
##ريث
قدرا
دلايل
خفت
ضاق
جاهل
الخصم
فاننا
جنبا
والرد
فعال
ازداد
مدخل
##سمة
لقمان
دب
##حنون
قصاص
رابعا
##زيارة
##رابة
ثلاثماية
سبعون
ثمرة
وبيع
وبني
اسبانيا
نفذ
زلت
المتح
لاني
الطبع
الصدقات
خاط
الارحام
##راكب
وجهك
وكلما
اللخمي
الحديبية
والحج
رط
والطب
فقطع
##ينيا
##ضره
واثر
##ذون
والنب
دمشق،
وقوم
يفصل
رتب
لفلان
وفاء
المبالغة
تابعة
غني
بصف
رايتم
ووس
تعبير
##فقت
بالضرورة
دايم
الخدمات
التمثيل
حدا
طرد
وبالم
هذ
للوا
وصلاة
خمسا
وثي
وبعضها
العارفين
تذ
سنتين
يطعم
##ياسات
تربية
ارواح
التقليدية
الاستقلال
صه
##بهما
سنده
الدلايل
للملك
يسن
المجتهد
اعرفه
بالتق
والاولى
كيسان
##واله
الفراغ
##اليم
الغل
واجاب
فوجه
بذي
ممد
##قايه
القطر
الاعشى
طعم
##داخل
##رضى
##وثان
الملف
وقا
ويرد
##مم
حمص
يصد
وخط
وكف
مشاركة
يتف
مدير
بريد
الروايتين
##متاع
فهرس
بصير
##يكته
مصيبة
حوش
الحامل
مخافة
العجم
القطاع
محددة
مذكور
قان
##يايه
الخصوص
سوداء
الحركات
زهرة
الذهاب
والتس
نصا
المخاطب
ايهما
حبيبة
وضعها
حاي
دواء
ابصار
يقضى
##لافا
اعتراض
كذبوا
لتب
المعارضة
وذو
عرضا
وظيفة
مصل
العزة
استحقاق
تحسين
توج
دامت
طيبا
الخبيث
##فز
ممنوع
##ياء،
وضعف
وسعد
##وضوع
معطوف
قوى
هلا
وقلة
النعيم
الانتقال
الجنود
كثرت
لاز
مريض
رحلة
الوصي
##رويج
توخذ
الفصول
وعقد
السلطات
البجلي
##سيما
الاديب
الشبكة
##وعب
الامة،
يزعمون
حقق
الجس
امريكي
المنق
الفنون
ضمرة
ريا
والاجتماع
باليد
والحاصل
نيويورك
غفور
##غور
مليكة
وهشام
خادم
صفاته
وينت
##طهر
العوامل
فسوف
اصلح
القايد
اجتهاد
انتقال
الطهر
المتحدة،
واقل
##حام
عر
تصميم
غديان
يزد
بهم،
المغربي
الشاذ
لك،
الميل
اقيمت
اتصال
يصب
الفكرة
ليال
العليم
المقل
المرس
البيية
ركعت
مكتوب
يتصل
##ويح
زايد
المساواة
يكشف
طلبة
والحنابلة
تاكيد
ارضه
فقبل
##قا،
بماية
اصدق
الصناعية
خيل
قولها
اشراف
اشعار
صورته
ماه
بالنار
فور
بكلمة
ذرة
ونب
الموسم
##كف
بسن
##بغة
اخص
##راتيجية
ايمانكم
الفلسفة
خفيف
الانجيل
الموسيقى
العنكبوت
##اقبة
جيدا
الارهاب
زه
الثاني،
رقيق
الخاء
مقالة
انزلت
الانثى
ردها
##قتين
الحبل
يجزيه
المكتوبة
##ظلوم
##جديد
يكف
قضي
امارة
السبعين
##ريين
رغب
##غنى
والماء
##ادته
الحقيقية
لواء
الحاصل
##امله
##تناب
وبت
روحه
ذب
##فاءة
##يروس
##ليط
اعيد
##غرق
وشيخ
معهد
اللازمة
ويعمل
هدف
سيار
نجاسة
مهد
امنت
يميز
خاصا
الاربعاء
لفر
##طي،
مجر
المجهول
جسد
ووك
النجا
تبوك
السابقين
مجموعات
ولح
فصلت
##حا،
ابتدا
كول
معاد
الاعتراف
الفريقين
مرجع
العمل،
افكار
اعمى
الاتيان
لور
حصة
اضرب
الاعمى
بعثه
الضبي
وول
##فضيل
اقوام
##هلك
رمض
جحد
واستغفر
قرانا
واختاره
##ساني
دعوته
اشعث
يتعلم
المفر
كثيرا،
العاقل
فاشبه
يحيي
والملايكة
اسبوع
يدخلون
النشر
وتحقيق
جديدا
##يهن
##ندس
##شن
لاث
تكاد
السرية
عندكم
تكرار
##لج
##اتى
مسعر
قولنا
مناد
##افى
##جموعة
اصابت
مقص
والرك
حمر
لعمل
فيصل
اللازم
الحسنات
##ايكم
المنافع
بيعة
الثابتة
المخلوقات
واذن
الردة
والثق
خض
يمسك
##ذهبي
لاحتمال
لهولاء
الاغت
سعى
مدارس
الزايد
الاقرب
ووصل
ووز
يهلك
الاسيوية
توزيع
نشاط
##خيل
##جيع
الشين
##طوف
للكتاب
نطق
لاحمد
رايحة
عجب
مواطن
الاسلوب
الغنيمة
الالتزام
##وارد
##طيعوا
الحلي
فيخرج
الايمن
والاحسان
انذاك
والنفس
حلم
شام
الاسراييلية
فربما
باخت
عدمه
قسمين
قلتم
تكونوا
القطب
##لاقة
فوقها
بجواز
البلاغة
شهرين
قديمة
السرقة
##اجم
بتق
وخصوص
##رسالة
كمية
القيادة
اشتراه
تود
لحوم
يشفع
حمى
##ثوا
الساحل
الصهيونية
ضغط
بيوم
فاتبع
بدي
اشخاص
الميلادي
لذي
معارض
##انيون
النصرانية
ربط
بيدي
العمي
##يريا
صدقه
الرسم
المواقع
وتنا
باطلة
يتابع
المطالبة
فسد
وتسمى
عاصمة
الوديعة
##ونث
##رايط
كص
النساء،
سبل
تحسب
والاث
الحرمة
فراس
##شح
يزيد،
بالقدر
الطيبي
الشد
الادوية
احببت
المتقين
المنعم
فحكم
##ابهة
##بعاد
المحرمات
علمي
بالاد
الطيور
يوق
##صام
##تبى
المشتركة
والعشاء
##شوا
العدم
ينتج
حط
بحم
##اهرا
##اصله
القاب
فسي
القومية
الحبس
ايضاح
الثانية،
يفس
الحالية
عنده،
شعار
##كاثر
تتكون
همزة
حبة
##ضلال
الجزري
الانصاف
##ريري
وكثر
اتاني
العلمانية
طاب
فابت
##طيل
##رفون
الصلب
قبيصة
العقايد
الركعتين
قصير
مستع
انصار
البلاد،
البكر
يحول
##جبت
نادى
مظاهر
راسي
##كاة،
يشق
يتميز
عدن
عقود
صحابي
وورد
بغض
والدارقطني
طلبت
باغ
القرانية
الالح
بالسنة
فوات
نصح
منسوب
منيع
مختصرا
مركب
يعجب
الشدة
المحال
والعياذ
##حال
##ذنوب
تصريح
اسف
طلعت
##غتسل
البيت،
لض
مومنين
الطيبة
اراء
رفي
واسر
عشرون
وسقط
الاسلحة
##امنوا
الاضطراب
##ميته
دف
القذف
وذاك
يمنعه
##متهم
ويف
يصر
بالذهب
اصناف
##انم
يملكه
مقدر
فكانما
ونقله
جوانب
ديني
نسمع
امرين
الليثي
فيصير
الصناعة
##صايد
مناه
وكيل
بجانب
##وصى
والانصار
الخطر
الجهر
الركب
اللحية
اشعر
التصنيف
فصارت
اساليب
مباراة
رحي
والعلماء
كاين
##يمته
ذكر،
مكلف
المدح
المحرر
كلثوم
تراجم
الافارقة
تذكرة
والدعوة
ظروف
غرفة
يدرس
المقالة
##وهما
الليل،
بالاف
وصنف
بمش
وصفت
الحلقة
معجمة
فطلب
معالم
ايه
مرة،
جسده
الالماني
الفور
سياسية
المعلق
الدرر
تجار
الظهار
الرجعة
البخارى
##واها
بحسن
الاباحة
العلي
مشه
ووقف
يساوي
بعده،
والفعل
شيتم
يرق
فامره
المقاومة
السوا
اهتمام
باسمه
ومغني
لفظا
جها
شعرا
وشرط
زفر
فعلي
هريرة،
##ولاه
ببر
حقايق
##ينها
ايجاد
البركات
##تن
تسليما
عذب
تصيب
عاقبة
البعيد
اعلان
رياسة
القنا
الصبيان
بيتها
كتبهم
النمو
يره
بيعها
##واتها
بحاجة
دراسات
فاخت
الخبز
كاني
قبور
بالخيار
الظلام
واجتمع
واور
والته
اللوح
الجذ
فكذا
##زاق
##فا،
بدنه
الفتاة
واتخذ
والاحاديث
الطعن
الاصابع
قضيت
يغتسل
خوا
واختلاف
قثنا
الحظ
متابعة
والبل
فاخبره
فدخلت
قح
حزن
راحل
مكانا
##الد
اجتمعت
فسقط
والذكر
اجابة
منظور
معرفته
غايب
بلغة
فجاءت
جمرة
وتو
العمري
##امة،
لويس
##راليا
جمادي
الدستور
شح
المتفق
اعلاه
ينهى
يحيى،
اللذين
هداية
البكاء
اقليم
##حي،
يفعلون
زرارة
بقر
لابيه
قطب
##معت
امرات
سببه
الموافقة
المقتول
الخراس
الاحاد
يطول
##حدين
النطق
يدك
كله،
مباشر
ذهبا
يتعدى
ويحك
فجعلت
ودر
##اهري
والفضل
وضعفه
فاته
قولين
##طيه
اتخذوا
عنهم،
واخيرا
الابناء
يتكون
فاضل
استطيع
##ضرات
يوتى
وتعالى،
واخره
الجهمية
ادركت
لحظة
##مان،
ولايته
غسله
هبيرة
ادي
الطاع
ونصر
المسافة
##طيية
تنفع
ذلكم
محظ
وحضر
##قده
التصديق
سنت
ينصر
##رعان
العداوة
الهجوم
##حمده
تشكيل
الغذاء
المنح
الرسايل
ونحوهما
المفصل
ملايكة
الاقط
الاطلاع
واثبت
البرامج
##رمذى
##زعة
وساق
عرضه
الخول
العبودية
فمتى
النتيجة
مسلمين
##بطة
فليح
##الي،
واولاد
##معون
لوي
رمضان،
علاء
غا
##باغ
مشارك
كذا،
بتقديم
شرحبيل
جوابا
جهود
بموت
الاسلمي
صاعد
نعبد
مفتاح
تركته
حلالا
##سوا
يرجى
الكيل
الفرزدق
الزرق
فالن
##فصال
عفيفي
وطء
يتصدق
نيابة
ونف
اجارة
الشيرازي
الدايم
الجبهة
الطف
سمعوا
واعل
الغا
بالرغم
فكنت
بالياء
وماله
بالاص
ياقوت
دورة
##صوا
يساره
قراءته
والجن
##تهم،
تقرب
##ضايه
بصحة
##باين
وكن
##جليزية
وكفر
الحمصي
والتعليم
الرجاء
وصلوا
##طلبه
##مارك
##رافية
رسايل
فثبت
المطالب
ذنبه
متنوعة
يجيز
للنا
ضعيفا
الاخرة،
مره
جح
فهناك
النصيحة
##قرية
مجالات
وقوة
والاخرى
مرق
يلا
##وها،
تعطي
انجلترا
قعد
فقول
الاسرار
استشهد
فحم
وقوعه
شريف
محيط
وافر
ضربة
نصي
##جزء
##اتبة
الندى
واجيب
ايطاليا
فواد
بقصد
قريشا
توفيت
اري
والجب
##ددة
الشامل
الدني
##قليل
ودم
##كاك
استخلف
صادقا
غفلة
ويقع
##وضات
يعدل
المباشر
مالية
المدى
##ورق
وحده،
وماذا
القيامة،
فاعله
الفخر
افاق
واقول
قدموا
مطعم
وفضل
الهة
المصباح
الجود
##لس
كرد
فاحسن
لذلك،
وادعى
تلبس
مكث
وطايفة
وعظ
جيل
الازد
فاتيت
النفع
دينية
اتوا
الفزاري
المدر
بالرفع
عماد
شاهدا
تخاف
دنا
وامام
الاتجاه
الحذاء
##الون
ساعد
تعليل
يعتد
العلو
##ايغ
المقدسة
العطاء
معينا
اقف
كالب
صا
الاجازة
##لقه
سميع
المشك
وجع
وحماد
المحرمة
##صالح
الكلام،
##وصي
ينعقد
والبي
اثنى
بخلافه
##زح
مرث
فقالا
##لبن
السريع
الفلاسفة
والتقوى
المذ
جعفر،
وليت
المقال
والتم
للحصول
الثلاثاء
متعم
اوق
الدقيقة
بجمع
حقيقته
حدة
وارض
والفتوى
لاش
قوس
##معا
ويعد
الكرماني
عظام
شراب
##خور
يخاطب
حلول
واعمال
السيية
المعز
##زي،
ثبتت
رءوس
فظن
##ارها
توهم
محالة
وعليكم
يقومون
بكت
وصي
والكل
عصب
وقضى
ترون
الوهم
بتك
جيدة
؟؟
الثانوية
اهدى
الشريفة
كتابي
النفسي
والموت
مغيرة
ابيها
مريضا
يعجز
مشقة
بكونه
عصمة
##برين
منكرا
وجوز
وسجل
##اييل
المراب
تحويل
والقاضي
الدرس
واشد
بالنبي
التلاوة
بقوم
بامره
التعرض
افق
##بوته
المنورة
مجلسه
التقرير
بست
مذم
الجيل
بالكلية
العراقية
الخلاصة
السكيت
اعتك
ابدا،
املك
فمثلا
كليب
شرطه
##بتين
##ارن
الناسخ
الصحابة،
خرجنا
الموه
وشرب
طاق
والخبر
ريال
للاش
بلاء
اطيب
حاف
الفنية
##طوع
اللعب
افتتح
المقط
وقصد
الباقون
برواية
الانباري
الاضحية
جاءكم
اضعاف
البسيط
يفسر
مناك
##اهيم
##مها
الالكترون
شواهد
##قطعت
ذل
السخ
الزينة
خطوط
##ليون
##وانه
المخطوطات
##ادها
شركات
وفيهم
الشمالي
##قبض
الرومانية
اتس
العقلاء
وتعد
الانما
الموصى
حرملة
تعب
زنى
ضاع
اللحي
سبعا
الكاس
يقتضيه
##ديو
واثنى
الحكم،
يذكرون
الجنوبي
وجعلت
الروسية
خرق
ودرس
القان
اجود
##حظ
يميل
تقولون
ساكن
والرابع
وخالد
السورية
ودليل
##لى،
العروس
الترجيح
##شي،
الاهواء
##بدال
##طرت
البراز
مشهورة
ومذهب
طفل
الهول
الكفالة
والواجب
اقتصاد
##حدر
اساء
مصح
##ستم
لعلم
وصفاته
##ها؛
المان
الدخان
##نوع
العروض
##فيز
الدورة
الاية،
وعايشة
الذيب
الباحثين
بالعين
النفط
قتي
اجزا
الطين
يومه
##صات
تنازع
تامة
الرجل،
بوجوب
الغم
المغازي
عوامل
ومحل
اجمل
يصرح
##صص
والحال
شت
الشبه
الوصا
محسن
فرواه
يرمي
يحقق
ابغض
ممارسة
علموا
نوعان
نات
يويد
يرده
خبير
مامور
اعتبارا
جنسه
الملة
وسوف
وافضل
افلح
وقب
الزهري،
للسي
ونفس
قبوله
اناث
تتب
استقبل
##البا
##وطء
المحاكم
عازب
مطلقة
المولود
العاملين
افرا
بعشرة
توق
التخصيص
دعواه
بالاش
الذل
طلقة
ولمن
رضيت
مستحق
الشبهات
اخته
وتاب
نموذج
روما
##وات،
##مايل
وخبر
##لازمة
تقضي
##مساك
بعثت
وتقديم
للغاية
تسمح
##قراطي
ومب
المنقول
بخطه
والجهاد
استمرت
اجنبي
الخارجي
الفتوح
##جران
يليه
الراية
الادنى
استقل
تصحيف
##كة،
روينا
الصريح
المخد
##وطن
سره
انز
ونصب
بمق
بنيت
##يس،
ردي
فيدخل
بخل
قوت
##روى
التشريق
السلفية
الداعية
##افحة
ردود
ببيع
اخف
اليمامة
يعبدون
المكرمة
##رسال
تنتهي
لحاجة
جلاله
ويحب
اختلط
الحاس
لعموم
وثنا
تطهر
التركية
المنافقون
سيارة
ونقص
وعليك
##دران
تقولوا
الاعتكاف
الصدور
المنهاج
ترجيح
وراءه
يعظم
##ظى
الايدي
الضم
للض
وبان
رويته
نيته
ينتق
استدلال
الفنان
الطاير
احكم
فها
##سبون
المحفوظ
سريج
الاسلامي،
تكرر
وطا
فيات
فانكر
المصاحف
رحمهما
يساله
التسبيح
والجل
##لتي
وغيرها،
ذهاب
المتنا
اللاتي
##يرت
استمرار
قطاع
توفير
بنحوه
المعاصرة
عجبا
باية
ويستحب
ذرية
التاسعة
تقا
##كتوراه
##لاغ
رف
النفل
##عيته
ايمانه
##مالا
سليمان،
##تك،
تزويج
اجتمعوا
متح
بتص
وثالث
##تلوا
الاظهر
حجاب
طبيب
الرمة
فقير
جميعا،
الطلبة
بسيط
والمغ
شرقي
ساحل
سلطة
##يذان
الرطب
قاض
ماري
لسنة
خث
تاخ
تدبير
والاستغ
كانك
متسا
##رتين
الوسيلة
حوادث
المنير
يحيط
اجتها
استعماله
مسلمون
##ينيات
الشهوة
##شو
جنى
وتولى
انضم
الطايرة
يكمل
الكرة
انص
##كا،
الفكرية
العماد
رسميا
فصح
محق
زعموا
اصبغ
الصنعاني
الجنيد
اخيرا
واتم
والاوز
الجميل
مردود
ونسب
نغ
منبه
##نيها
وبنى
جنود
والثوري
وجعلنا
الورى
التصوف
##شيخة
مخالفا
##زته
الفرنج
البري
والقدر
وكالة
وهد
وامي
متعلقة
والتج
التاخير
ورع
باسا
والاز
السرا
المهد
وليا
تفتح
اللوا
الطور
تعمد
عدلا
حسنات
بصد
التنفيذ
عثر
وظل
يعمر
والعبد
وراس
اشهب
وحال
##حتين
المجاهدين
وتعتبر
يعتقدون
لتس
الصير
بالثمن
تكت
ربح
التحكم
اكر
تيسر
صوف
ووث
فظهر
ساهم
انض
للدين
المشارك
ارسله
##زموا
اعترف
الافق
##خيير
وتعلم
يزداد
يرتفع
الحياة،
الخفين
المجاورة
مشاكل
شج
ناص
الرغبة
فاصاب
##يدين
قبلي
وينظر
وتمت
الجواهر
##يادي
فاشار
##نسية
محص
اولم
تستعمل
النادي
وجمعه
والعين
مشاهد
الاجانب
فقراء
بهاء
المنصوص
الاصل،
ظال
##مايه
الافاق
والصفات
قرينة
##كوم
بالال
استاجر
عشرا
ينقسم
بالالف
وترت
سبحانك
السمعاني
##ذبين
بعقد
وانصرف
شرو
الظنون
للاول
اصحابي
الجامعات
نهج
الدولة،
الدقيق
بالنصب
سماعه
ونق
الحصر
ثابتا
##ضط
العزم
##تمون
مبينا
عاشوراء
وعندي
العر
الرسمي
صدرت
ذراعا
افي
##ناسبة
يقتصر
##فايدة
كيلوم
التطور
المصير
##اسية
وصالح
تقريب
خلاصة
ويلزم
والمث
حوشب
ذكرهم
بطون
##خدمت
##ذهيب
##رحه
##رافات
المثليين
اليابان
الزاي
فتاة
مشكل
ينبت
لذة
فيلزم
للشي
التحت
##صيح
طن
اوتي
لكرة
النقي
ثمة
فغضب
##ذكره
فث
اعناق
فعرف
تابعي
##عمة
يسمعون
غصب
تصديق
شامل
تضر
وتسع
الجي
المور
##باج
اوصاف
ونها
يباح
الكريم،
##طو
لاصحابه
الكاملة
##وسطة
البيهقى
##صيان
صفته
جير
الشافعي،
الموسسة
السيل
قاعدا
الخير،
##فر،
الجدار
رزقه
بحرف
سنه
الشعور
محامد
الجيوش
ثيابه
الغيث
مطلوب
لاحظ
استش
ورسوله،
كذبا
##بو
اسند
المشاكل
المقبري
رخصة
ونهى
لهب
القايلين
فانصرف
شعري
الكسب
والبيهقى
بقايا
البت
معاوية،
##يهة
البنا
##وزة
لكنهم
مستقب
الموارد
الضعيفة
ارقم
لغات
##كشف
ميثاق
##طايا
تغي
اعتما
شاهين
وسا
النباتات
لفترة
لاحدهما
##تد
##ذرة
السارق
##واصل
الثمار
النقود
##الس
الشفيع
وايت
##رايي
للاج
المذكورين
والمروة
المجلة
واستقر
##رورا
لاكثر
##جاجة
الثعل
الغف
العضو
اجلس
غري
##خالف
الخفي
نهارا
غص
وقاتل
##رى،
##يادات
لدفع
رداء
اتع
الموقوف
عسكرية
ساف
المتاع
لعنة
الكشاف
الكفيل
المنش
تفسد
عورة
##جدد
بالنفس
الملكي
بالاتفاق
المزي
بعدك
لكونها
بمعناه
منافع
##دره
كالق
جاءوا
صناع
بالعدل
بالشيء
قدرت
فرسه
باقية
بمنى
الكاينات
##يمها
حرفا
##وجة
##صارا
للذكر
هواه
اقوم
##لات،
##مسا
الصيغة
السيدة
بنصف
اطلب
مليار
الزبيدي
العالمين،
طور
ايمن
بتس
يسبب
مراجعة
الثنا
جو
##داوي
والموا
معلم
العقار
اصطلاح
زريع
خاد
قتادة،
وجهي
عملها
##شان
##وحى
جميلة
##مرا
لمالك
الخندق
##ءة
بتحديد
اصبت
وسمي
##شيته
بالمت
ياتون
مساعدة
##انين
وبالج
مبادي
اهتما
دنانير
##وكس
يضاف
الفص
الغابة
سعر
السوداء
وكذب
وكفى
زعيم
مخر
المشاهد
اعتم
مولانا
البركة
استر
الامبراطور
امتناع
##يارا
محتمل
يوضح
##كيك
واحيانا
فولدت
اكلت
حالهم
##هيية
العدوي
تراجع
واقامة
##ثيق
بهدف
##وثة
غش
فروة
قبلة
هرب
الانفس
##حويل
كفرا
وخلال
الفاي
##فقات
وجودها
الديون
يخلف
الاعتراض
بغداد،
والفقه
بالملك
المحار
مكن
وليه
بعدد
استطعت
حزام
بالذات
الاوثان
منتهى
بمقدار
اضعف
خرجه
خفض
الموجب
بالارض
ومنذ
يوف
صعد
##لافة
طار
ناخذ
شو
اهون
حايط
الصحيح،
لمش
وطبع
السيارات
##ريه
المرتب
زمزم
فاطر
يون
يبد
شكرا
##عادة
##صرها
شعبة،
المستعان
العراق،
اقطع
محذ
حبه
يوفق
بالخير
بشهادة
كلي
الاسفل
##لبت
مناقب
مثلي
التوجه
غف
##ومنون
بلق
ومك
فياخذ
السباع
الطوسي
امركم
الخنزير
عقاب
تابعه
يعاقب
تفس
انفه
للامر
المسيحيين
الاذكار
عرفا
ازال
جناية
بظاهر
ساء
مقبل
الماس
قاطع
شريكه
الجوان
بعد،
القربى
امراض
مجازا
يرفعه
##طمة
مشغ
الموصوف
مراكز
البرا
الطوايف
ودون
شانها
البلقيني
الاسانيد
نذير
واضع
لشيخ
خالفه
اسل
الستر
حضرة
واخوه
صريحا
##سقاء
ستكون
مقاومة
والقيام
حمير
الباهلي
##جاح
الاستعمال
تدريب
##يبات
سيت
اختلفا
ملايين
نقلت
جبلة
موز
الارشاد
تنتج
الاتراك
تدعى
##ياج
بيل
يعقد
وسلامه
العنق
محاسن
وجعفر
بوصف
##نتم
بلادهم
كراهية
الموت،
شبر
فالك
جلوس
الزور
المستخدم
وركب
الاطعمة
مبنى
الرشد
اعتماد
ويريد
وبقيت
##ديقة
اساسا
يتن
كفي
ففتح
صفا
وجوبا
والانت
يطا
الجعفي
المقابل
بالبيع
فجر
الميقات
المبسوط
يتوهم
##شروا
اخرجت
الصعيد
بطلب
فاتوا
الاخفش
حاد
##منا
والانسان
بره
##جبة
فذاك
النجاة
وتقد
##حاضة
عصبة
وصارت
خلط
شركاء
البيعة
العسقل
الاراء
نفوسهم
ضلالة
مهاجر
الرقي
وصرح
اتمام
##طيعة
المملوك
وقري
##يف،
راية
الانث
بتن
الاعداد
ملاحظة
الاستثمار
الاسماعيلي
مكانها
كلها،
السرخ
يمد
للقاضي
بضعة
ومصر
وبينهم
لاختلاف
مدع
والهم
تحية
يروا
العتي
وجابر
انشدني
يخطي
المناه
تشبيه
قاعد
الدعم
القنوت
اللفظة
##متك
لعلهم
لجواز
سحنون
##وضي
علاق
الزراعية
ثلاثون
يلم
حيز
الرجم
دعاة
امكانية
السلع
الذاتية
ملم
اودع
علو
الخلايق
والقياس
والند
منهاج
لمعنى
ونشا
وارد
الضي
تقف
معالجة
صنا
تمثيل
الدرهم
##اهدا
وعده
بفض
##ميها
الامامية
الخزرجي
ظلمة
##قهم
الحجم
اوراق
المجتبى
اتصل
بالسن
الكذاب
سلط
وسكن
التسل
بيانا
يضره
دفاع
رزين
منج
اليسير
قبح
لصحة
للامة
الحملة
معتم
مواقف
باقل
فالمراد
وقدمه
اليا
##لقت
قوام
##ابرين
زنا
لضعف
الابر
هذان
بعلمه
اصابته
المسع
ومغ
نشات
افسد
وهيب
معارضة
##يرهم
##نتهم
زاده
جوار
وتبعه
ينته
وجاءت
يكونون
ورود
##زء
##وقية
حيوة
التاكيد
##رنا
الاسبوع
والباقي
لتم
كفه
فدفع
صعب
مضمون
##جاني
ورغم
تسعين
بالرج
##فره
##مسح
فنون
ياكلون
اقبلت
##ميين
الحمر
وجدوا
صلاتهم
بنص
ومحا
سالته
دولار،
والعم
مستويات
حاس
نسلم
##ازم
الاصولي
والسلام،
ووال
يتس
للحكم
وخصوصا
المبتدا
المركزية
الثمر
قصور
##وذك
يقارب
المولد
##راما
قبيح
نخل
ينص
يفرض
المحمد
عمرا
ايامه
##علة
الجمه
الطاغ
عليك،
##ونت
العبرة
##هدف
والصبر
##رابا
نصير
وحسنه
دال
الصنف
##ابيع
يستغفر
الشافع
##مانينة
المسلحة
ازواجه
لاخيه
الجغرافي
##ظمه
يستطيعون
الشرايع
للمح
ووافقه
##واحي
وقعة
سلعة
شذرات
فسالت
فتت
يعيشون
ميات
منطق
قدما
مارك
انظمة
الثقافي
الدس
بصح
خلاد
المشرو
الممارس
التقييد
##رابه
مقيم
الفرصة
تفصي
السطح
بشدة
السماء،
الرحلة
قادة
نظره
##نادا
##فرون
الافلام
متم
للاح
التدريب
ليش
عثمان،
##وفة،
فادخل
يعطيه
للدكتور
للمر
التخلص
الشمس،
لزوجها
البرم
والاعمال
الراشدين
يبني
وولى
يدخله
قرض
ويونس
##بيا
حمراء
يفوت
تناقض
##ذره
صاعا
##اهي
الذاتي
المجيب
فقضى
خطوة
الامارات
##معه
فقيرا
##فتاء
ذنو
الوظايف
لامه
الصوف
كالك
لهو
الاتباع
الكسر
##يقية
اود
العصبية
##واجا
يناسب
كالتالي
فانهما
القشيري
مصحف
الغاء
واللسان
المراة،
تحفظ
والصف
متعل
مفا
بينك
الاستغفار
##لز
عرفوا
المنظمات
##خام
اسوا
روايتان
واقر
##دلس
##حاة
اقترح
##ايس
والجرح
ويشترط
الجرجاني
الاذا
المبر
نكون
اصابة
الراعي
موه
وعلمه
وظاهره
ينفي
مبنية
راحلته
عقدة
الحسيني
ويثبت
نعرفه
المعتمر
النجاشي
اغنية
تقييد
بالكفر
حادثة
##ودان
والصالح
بالجنة
فقيها
بعينها
بملك
الالباب
الوحيدة
باعمال
وحلف
القرنين
تكذب
المرور
##كونة
بكى
البياض
فالاول
التيار
والجملة
المطبوع
بعرفة
الخيرات
فركب
يقينا
##رته
وظايف
حلي
بقضاء
الفيز
صومه
تدرك
##فرغ
للاس
الطويلة
مشروعية
الاعادة
##راسيل
الصفوف
الديلمي
انوا
الشفاء
سخط
عملوا
فهمه
سانت
ويمنع
مرتفع
واعلموا
##لاء،
كين
حركات
الغرماء
ايسر
لحيته
صبح
الصاب
الذم
اعقاب
##لتا
خطيب
العبر
شاك
الجور
اموالكم
بنك
انتقلت
المجنون
واضحا
كبد
##راضي
اخواني
##عمون
##بتك
بلغنا
شطر
ونساء
##ديين
محفو
طرابلس
واضاف
ملح
الاهداف
##وهية
جوازه
الابحاث
سجن
قبة
##نمية
الكاثوليكية
الفاسدة
متك
نسايه
وثم
احس
الصاحب
فلعل
الادراك
النجاح
##ذام
##دهن
الاسته
قنا
##شفت
استا
##يرته
واظ
للتح
النابغة
##درون
واسال
وعبر
وجدته
##ستي
انتها
يشار
ونفع
بالعقد
وادخل
ازل
امروا
فاتقوا
عبدالملك
##اقل
جدار
نعل
##وايي
باليمن
الصعب
دان
وقراءة
للاص
##انا،
الاصطلاح
عبدك
انتظر
لصلاة
وتشمل
عثيمين
غرس
الانظمة
الجارود
وخلاصة
تعدي
القاضى
لابنه
بذاته
الحث
واخبار
ينج
انظروا
العلى
القود
التوكل
##هده
##ماها
تشي
المسم
الابار
التركي
صوتا
الخياط
عنب
البلخي
عتيق
احضر
مشتركة
بقطع
التمهيد
نقصان
عقلا
الوزارة
قف
قويا
كوفي
مكرم
الطاعات
وفس
##قيه
المصرف
كتبها
ارطاة
وعاصم
ثماني
والسجود
يجدون
ادعوا
البغي
محارب
المسن
المباشرة
##وتين
ذاه
##نته
##نسا
فغير
عندهما
تركوا
##متم
فير
الاعلان
القوس
البادية
الذهن
##كوا
التنظيم
يحمد
الليبر
##خفضة
##كر،
##صحابة
الملح
السميع
محطة
##شتراك
##يرون
وسوء
الوان
المجالس
اصر
وولده
والشعر
بغي
نجوم
##فرع
##وسيط
بالعد
##باشر
والادب
خديج
##وزي
اعترض
كالذي
الطاء
والعراق
بحفظ
السينما
ولسان
تتميز
يامن
##اعها
ممتنع
التض
بولاية
الاركان
##فقود
اغتسل
##ضايا
استيفاء
وعاش
يروه
جليل
التاجر
تلزمه
ويشهد
دينك
##زاة
يطهر
والطاعة
شط
##وفه
اصبهان
الهاد
##زيين
البدايع
فاحب
سخر
معتبر
جود
كوكب
##لة،
المغصوب
للرسول
المحسنين
اجمعوا
العورة
اميرا
لطيف
ظلال
جاءني
اظلم
ابر
خدمات
تقوى
الفاحشة
الفحل
تاويله
شارع
فلل
تاريخية
##طاف
##حيفة
زوجي
الكنايس
والنون
للميت
متعمدا
لحد
المكروه
نستطيع
الله؛
تركيب
معهما
البوا
ويصلي
جاهلا
##تين،
نسوة
الصاغ
مزد
فقر
##ركا
وطريق
تعجب
التحالف
يخرجه
المصريين
كانون
عودة
وبط
بتشديد
##تية
##هلة
فالش
محج
عجيب
##صعة
فاخذت
##امها
واشن
فراش
النقاش
وجوبه
الغفور
دراسته
##فران
بالصبر
تلزم
وثلاثون
فيو
بلدان
بالواو
اسيلة
الرضاعة
هاء
وعلق
تسعى
طرفي
لتق
فليتامل
غرة
السعودي
الحش
يور
##رعها
ويجمع
الجهم
الاخطاء
مرحبا
والدم
##وبى
الاستواء
فعليك
ابنها
##انبياء
الحال،
والمشهور
فلولا
المشقة
صنعاء
نكت
لشخص
ثالثة
الابتد
خالد،
فبينما
##يط
##خف
والليل
وتخرج
##ذرهم
الرومان
المنزلة
بحضرة
ويسلم
وعدة
بعض،
الارش
بقراءة
ديننا
بالمح
سجدة
الانصاري،
العنصر
فتا
ضعيف،
عكا
احصاء
قمي
المستخدمة
ناسا
يضيع
##ضون
يجعلها
الالهة
نبا
يشتمل
الره
الرخصة
قريظة
باجماع
جحش
دعت
وقتا
المنتخب
لانفسهم
##وفاة
طلي
##امنا
يغضب
بغية
##تقال
فقاتل
وكثيرا
يتطلب
كذبه
لمست
الكرسي
عشية
لدينا
الحضور
السامع
عايل
ورييس
##وارزم
الير
##وته،
المناسك
يديك
الفواد
احكامه
فاخذه
الخولاني
رواد
صهيب
فيصح
اهمها
حلية
وزين
فاضلا
بوش
وشدة
انتفاء
الفريابي
المره
##غانستان
الريف
والاخت
كافية
وترا
حجارة
المعدل
##وافقة
والمعرفة
خصال
غار
فافت
حار
المعدة
الامتناع
مطابق
خلل
براي
فعاد
شيوخه
حت
حوض
##ظيما
والانجيل
والضمير
والشافعية
خلايا
باربعة
يقين
وعكرمة
يخرجون
الاوقاف
واصلح
الرابط
حياتهم
دعي
فلانة
وسماه
معدان
##اعته
فصا
##اليين
الاقسام
والزبير
العاشرة
##قاليد
الحرب،
تساعد
هاد
معين،
بحلب
وحاشية
جراح
سلمى
وسكت
رقاب
اختها
واخذت
##ذرون
يراجع
اوحى
المعارض
وحكي
اداة
ميد
##ويع
توضع
##افعال
التجاري
##كنولوجيا
##بلوما
والاصح
تقام
الزبير،
يفقه
الرقم
سعي
البحار
##بيثة
بينهما،
الاقتداء
الاختلاط
##دود
المعتز
متاخ
افريقية
##واهم
الزيارة
الحين
الاجهزة
يبغض
عروض
ويطلق
النافع
باول
يضعف
##صق
افتتاح
استراليا
فتم
اخبركم
ذكوان
العنبري
السرير
الاختصاص
مرثد
يستقبل
احتجاج
تعري
يتخ
عايذ
بالكلام
العساكر
##وود
برحم
وثمانماية
واولى
النقاد
والاسم
مجلدات
والعالم
عجي
فالظاهر
تاثر
مختار
اخواننا
فدا
يسمعه
دعاه
يرجعون
بالنهار
حان
الاطل
عصا
##طنطينية
##هيل
ويترك
شمل
ميدان
بولا
فيق
ولاه
كك
للعد
يسوغ
والشرح
خن
ذلك؛
وخذ
النووية
##وسية
المتق
مفل
اختبار
ابيك
الان،
بواجب
تخص
موعد
القبيلة
باللسان
والمك
##بعوث
##نسبة
محس
هجرة
المقاصد
الفداء
التدبير
ندب
##تيان
قذ
المويد
فلماذا
اياكم
الصنايع
ديم
ايام،
بامراة
زينة
تكبيرة
##داول
مبالغة
##زعه
ثقافة
عقايد
##وضاع
فارت
##قش
يتحرك
لعذر
فاك
كخ
##راش
اكتشف
طوايف
##نجي
عرشه
تجربة
المتعد
المرب
القومي
الرجال،
##غلب
فيمكن
فتس
##اطير
##ضين
الدرع
المواقف
صاروا
تبدو
يتضح
فوجدت
ثقل
والمه
لقا
مايتي
استب
وفع
سياسي
كرام
قولوا
اكم
##اس،
اللعان
يواجه
واورد
الاسنوي
قلوبنا
فجاز
الحرص
بدت
امتداد
وباب
##اتيح
عددهم
واشنطن
##حتهم
الخشب
##خلع
##وزا
اطعام
##وبة،
الساكن
للدولة
شهوة
الجحيم
وتكلم
بالقتل
القناة
تعم
تفاوت
##كاه
نر
معاهدة
المباراة
واوليك
##طفل
السمن
السيوف
اظهرت
فيض
بقيمة
تشاء
##شده
النبي،
منفردا
ينصب
بالمش
المقدام
الجام
المساكين
جبار
يهب
##وجوه
السلا
والكر
ويامر
شوون
طبيع
الحج،
##ومة،
البناني
كرامة
الزعفر
النهى
يستر
المساعدة
الحرج
##فيك
حقي
يطع
تعديل
مخاط
فراغ
الضرير
غزة
حرص
مقسم
##ورا،
وبنت
الراكب
العمارة
للاناث
اسباط
يتجه
واستح
اياهم
الحمراء
قربة
غافر
الواجبات
اسوة
والعدل
الشخصيات
الطايرات
البوس
##اقاة
ويعتقد
##سار
الناتج
لفعل
##دري
الرقبة
احسب
ودار
والولد
وجعلوا
##ايتين
نواحي
ترم
وللح
##حتاج
##لكة
حاملا
التتار
تقسم
المدايني
##وايية
الرياسة
الملكة
بجامع
الاولية
البابا
الشوكاني
مير
وجواب
##فارة
اخضر
استث
موضوعة
انفع
الاخرون
يكر
بالهم
يتذكر
التنمية
برفع
وقلنا
وقامت
فنف
خلقنا
##تداء
بقرة
الجمعة،
بيتك
##فيين
النخلة
المسعودي
الزاني
مثلما
الربوبية
براء
##نسي
انقضت
ووع
فقبض
ولاء
طبقا
الحادثة
التوسل
بالصواب
السمك
التهاب
##فتهم
وجلس
اشتغل
حصته
فحذف
الغار
##حرق
بشران
اليهم،
يقود
ثمنا
##لك،
##اتمة
الذخيرة
نماذج
اخشى
وعيد
واستن
الجدل
وابل
التجارب
لقل
ذري
الفع
طير
الحنث
الامطار
يمدح
فشل
السرور
اصابعه
الكع
ناع
الذمي
وكونه
جواد
##حرمة
تنقص
لي،
الظهور
##كاء
واموالهم
صبرا
لجه
يعانون
##وري،
الهجري
الاسف
والقر
احرام
يستمر
الفهر
المعج
الرع
بصوت
بنفسها
الساع
البحر،
القلب،
موارد
طوله
العول
كالخ
ارادت
عنصر
##فوع
تساوي
الحكومات
اختص
ويضع
الفضيلة
المختص
السعيد
وكشف
وره
العافية
##منه
وكبر
##رتك
بالدعاء
معص
المجاهد
سريعا
ظلت
الوجيز
خارجا
ابتغاء
التانيث
نصاب
المعتبر
##لاقي
يقاتلون
يملكون
الضيف
بالتص
فرك
والخير
حمام
عام،
لمنع
يعز
مسو
##زيرا
مشاهدة
البراءة
الداء
يفضي
فلان،
الداخلي
##درج
صفين
ليالي
اغنى
شعاير
مصرف
وداود
فاقتل
وثيقة
فصول
##تيك
ابصر
الغصب
تخالف
بمست
الاكراه
##خى
اشتق
برز
الكبد
ناسيا
غرم
المعهد
رمز
والمدينة
##عنة
##فته
الزكاة،
مكانة
اللهو
ثلاثتهم
وانته
ويبلغ
##قصة
ببد
استاذن
جوابه
العاقلة
واستغ
الانام
اليونانية
وصله
خمرا
والحارث
##يرين
الادبية
التيم
الاوايل
وعدمه
الازار
يمضي
الحيوية
وحمزة
المنهال
والحرام
##طفه
نرجو
وهب،
نسا
الحجرات
محاس
لغرض
ذيل
بالنص
سفره
لاسباب
ضربا
النفس،
امم
##تدي
##هادات
المرفوع
لطلب
البكري
ورده
اليسار
الحنطة
لحظ
المضارب
##ملا
اربعماية
قطعه
جماهير
القعن
وتزوج
الحذر
بالقياس
##يكاني
منزلا
ثني
حريث
سيم
مطبعة
جين
##اسيس
فحمد
الاغنياء
ترتب
##فقين
المتنبي
طبي
طلبا
الفضيل
عصام
التخفيف
##لان
الرياء
الخاس
تنقل
##بالغة
تباع
علاقات
هامة
تلقي
باختصار
##ضلة
الجوي
الناقد
##ضن
##قرر
##رتم
ليوم
##وبين
الخيرية
النوى
جاد
خضر
##باته
يوما،
##ياك
الدينار
فدية
عقول
##افيا
انخفاض
عزة
الاوصاف
باعت
ثمار
يستقيم
##ملوا
حلة
جميعه
عاليا
لونه
قتيل
اتفاقية
##ها؟
والليلة
درو
العين،
سمح
##لتك
مخرمة
##وبته
يامره
رسله
مريد
خدا
نفعا
حسن،
اشتريت
##وق،
الاقليم
ويويده
##سيك
حقهم
##ضاوي
طرفة
الخاتم
وطال
النهضة
##وجهة
التعلم
بذات
وفهم
اثما
السرخسي
الرض
الغرر
نزلوا
امد
الاشهاد
قرون
##انيه
الخلوة
المصلين
والقط
والحب
للبخاري
اختلافا
الرياضية
اخى
دروس
تجزي
بصلاة
اره
غلا
فقمت
تشار
بدايع
روبة
ماض
ذاتها
فاعرض
مومنة
##درت
الالوان
زهر
ضرار
السق
تنفي
بالمد
الجزم
ينزع
الديلم
عرفه
تند
##اهير
المحققين
موسي
العباب
##ضاة
افض
فزاد
والباطل
ايراد
الاستحقاق
الاحنف
ذويب
سابقة
اخبرناه
التمتع
الاتق
والدر
مجه
اسراييل،
بريء
##ماثلة
منط
سراج
الخراساني
عبس
تحق
والكفر
يرجو
##نود
فيد
واليك
ابوك
المجموعات
طهور
التقسيم
مجن
يكونا
والقضاء
قدرها
اطلاقه
هنري
مساء
ورقاء
ويرفع
الفضلاء
والغل
والقدرة
بصيرة
التركيز
فادع
ثمنها
واربعة
المعتق
الفقر،
ذى
فطلق
استقبال
##زج
وتوجه
طين
ديف
فبال
غداة
يتهم
حيلة
##اذان
يجدوا
السكري
الاوجه
الثدي
##طوير
عبيد،
دموع
مخطوط
كنيته
المعتاد
##ايعه
اطلقت
##ضها
يبرا
اللحياني
نسيت
تار
منتخب
الاثرم
عدوه
رواحة
المماليك
للبر
والهند
يستح
افواه
فاصبحت
##غات
اللواء
يوصي
الالمان
ورسله
الخادم
طريف
جميعهم
بسنة
قلوبكم
غزو
المرح
روساء
لمصلحة
بجل
وسر
امرني
ضابط
للاحت
سعادة
الفاك
تخفيف
مقاب
الامام،
بشرح
النهايي
نداء
نمر
##ايش
الفراش
وذكرت
مصدرا
والسبب
##بدون
لعباده
طلاقا
تنزيل
مختص
##اخير
الصحيفة
والاجماع
ساحة
يجاوز
##اجز
تشرين
افندي
زماننا
المحافظ
المسكين
اتاك
بشرا
المبرد
لموا
العصا
##واحش
اقدر
خاض
لازمة
استولى
القصير
تبيع
والباء
ظه
الشن
باعتباره
احص
الحارث،
##ديون
##رونا
توكل
يونس،
الاكس
##ريكا
والكذب
بندار
لمعرفة
الديمقراطي
واجل
عمدة
اخذنا
فاعطاه
والعا
فمه
لزيد
اجريت
تطوع
التجربة
تنكح
بقرب
يوجه
التغير
لتص
بالحكم
والاثار
البهايم
قارب
الظلمة
##رافه
##لالات
بسهم
##باحث
والثانى
بالرب
بعبد
سنويا
يومنا
خشب
وغالبا
الانساني
دني
##وكد
هير
والمذهب
العامة،
مصاب
حرمه
بخلق
##قلين
الاغلب
جينا
لسن
الجنان
ملحو
لذاته
لثلاث
ببيان
الهرم
##رك،
##ماء،
اتلاف
فذهبت
الجوارح
ثناء
الوعي
مسر
والسنة،
ويقرا
القانونية
السكوت
انجاز
رجعوا
نضرة
التاليف
اسلامي
للما
التربة
واولا
مسافر
بلاده
تفضل
والاحكام
النض
خذوا
بمقتضى
الظلمات
ضح
بمحمد
بالعراق
فالان
وزر
مغفرة
##زها
##وقها
##امية
نمو
##روني
والبيان
تعاون
##ابد
الصهيوني
الانتهاء
لتك
الهندسة
للمتق
والشرب
بالتك
تبعه
اعوام
لول
التست
ونافع
الكهربايية
كوك
مظهر
استخدمت
باعتبارها
خراج
تسير
تسجيل
فجعله
كغ
يلتزم
حرق
التحق
خمسون
يفتي
الشم
العثور
##رعه
صرفه
اسير
الاحتفال
العسقلاني
اثرا
الصاغاني
لاعب
لوحة
العزى
##وضوح
عشرات
الطيران
اوقع
##لته
الدوام
صحب
اتاهم
كفرهم
##وفاء
تجتمع
فاسق
الصا
باخذ
وملايكته
يعلق
القاء
طعامه
فولد
الزبيري
والفساد
##جدوا
تصرفه
للتق
العام،
واوا
تحوي
يحمله
ركوب
وبخاصة
انس،
نظيره
يسبح
مربع
##راكي
تزول
يبيت
الاستفادة
بسكون
نفوذ
الشاملة
كبرى
يسافر
عملي
للفت
البطولة
راني
##خارى
##سلط
الصحافة
يشتغل
الضبع
تقويم
اسماعيل،
##اربين
المعاصر
شميل
##دعة
المقيم
المصلى
فظ
فينظر
يحا
لمجرد
والكسايي
مستمر
فظاهر
للاف
بمشي
لحما
##يتنا
ميناء
السني
المطاف
اتفقوا
قمة
نسبته
وبينها
اوج
الاحق
وجعلها
احرامه
راحة
اعمار
تاسست
بجه
##زاع
##عدين
##راعي
فليقل
الايد
شهرة
الايسر
اصحابه،
##حاف
زوجتك
قطن
بالظ
التزم
وتعليم
الزخرف
النواب
ولاة
المجرد
الخصايص
العصمة
##ضرت
اخباره
ولبس
ريت
وجاز
تقر
قوته
مضاع
اسكت
استعداد
جريمة
محدد
روت
ثابت،
الدن
انزلنا
ومسح
والثالثة
##برع
يستع
مقيد
يتوجه
ادركه
الاضط
زوجتي
بقلبه
اليماني
التبع
المرتد
حاضرا
لاعت
##يلعي
يار
فضحك
ابط
##راسان
البند
الدبر
مترا
استخدامها
المدخل
ينفعه
يفارق
العينين
الحوت
ومثال
يتك
جيمس
تضي
يظل
كلوا
عناية
رص
##سنى
وشعبة
الجريمة
##لقي
ويحمل
يدها
الين
بايدي
رواة
تكفير
كز
والمعروف
ارتد
قدميه
الامساك
للظ
المعرف
حايض
فتلك
والمجتمع
يصبر
##روجين
ويبدو
##ابن
املاء
##طبيق
مشهد
استحسان
متصلة
مطار
حليف
وترتفع
مقبرة
بالقلب
المجالات
جايزا
##ساوي
دو
طوا
الزين
تكثر
تكذيب
##رار،
طالب،
فيصلي
##؟؟؟؟
##غوط
العزل
##اهرات
غياب
الروي
وماء
بماله
وعلوم
الانكلي
الاشجعي
وكيلا
عاملا
الدايرة
تفضيل
وباس
الهيثمى
العيدين
##يمياء
حاجب
البنية
اردنا
فجل
قلم
اخيك
يخدم
مثله،
ديوانه
##برهان
اجتماعية
احي
شاي
الحواري
##قدت
الكسوف
##قاه
##ضاها
بالعربية
ازيد
##كايات
وني
##حرز
المند
القدح
سييات
قدمناه
المغفرة
بالنون
كابن
ومط
يمارس
هو،
لزيادة
يواخذ
الختان
نقلها
عصى
##قلون
وليها
الاعجاز
براسه
النموذج
يحدد
بطول
فراشه
دقايق
وباط
واسط
معمر،
معصوم
بقى
وزنا
لمثل
##نافس
##وبري
ذكروه
##طيها
المسلمون،
والخام
##در،
البخت
ادوات
##وخي
صندوق
##وجي
المتمر
ويدعو
مثلهم
لحاج
بالقوي
عداوة
بالاخر
عقيب
الهدية
دالة
الصايغ
##صفى
فسالته
الغفاري
##بش
ينفرد
اجزاه
غيبة
الشعر،
اذرع
وطيها
رياح
##اعرة
الغلو
الحاوي
راكبا
متفرقة
يقرر
ملكها
الشيوعية
بامكان
الادباء
غايبا
اضر
##احبة
واللغة
قيامه
##اجرة
ومعاوية
تصوم
الشركاء
تمتد
الخطوط
ورثة
الحسين،
خاطب
الحصن
وصفة
اعمالكم
الاستمتاع
البصري،
قياما
##يتكم
العامري
##مادي
##نفل
الطريق،
ماتوا
عرفات
التسوية
زبيد
هلم
منقط
##يمنة
يتاتى
رمل
علام
تقصير
خاصة،
ذنبا
سهما
الاحول
واتفق
##راري
الحوالة
يقابل
استيقظ
بالتاء
السليم
وتقع
تصانيفه
ناه
العيوب
نحوها
##فارسية
بذاك
الضرايب
الاسبانية
فتبين
جاك
وعي
لموسى
الانشاء
كسبت
كبير،
ضياء
لجمع
غربي
فاجابه
حاطب
الانجليزي
والخوف
روبرت
سيفه
المقالات
علمهم
بضرب
المدبر
محدود
مستحب
التسعين
طايرة
##اريات
وسبح
مجيء
اشع
جاب
استك
الجبر
الخرقي
وكلها
##يفور
السنية
يدين
السويد
صواب
##بلها
مفسدة
يسمون
يلي،
بالانجليزية
واسب
وانق
المنتجات
واكرم
صاحبي
بطنها
نادر
التعيين
وبالجملة
الاصناف
المركب
بيعا
والدارمي
##اتين
للاد
ارتكب
الواعظ
عرفنا
وترى
الماخوذ
الكتاني
غريبا
يقص
##عدهم
##سمت
توضيح
المضي
كالز
عادته
ندري
اتيان
##وران
المشر
اكابر
اسلموا
زوا
الفرح
العزيز،
وظن
يوقف
##احا
اقتل
صغر
##زايا
ويذهب
والزكاة
رفيع
الاموات
المنثور
التمسك
##وفان
زاوية
حظر
فيز
حاك
##وجا
حسنه
اللاتينية
ترضى
بينت
اجنبية
اليونان
بتقدير
##همان
ويوخذ
تجديد
نايم
موخرا
باسماء
ملء
والكافر
عزي
وفيات
عري
تنبت
والمساكين
مولد
قتلهم
فالس
لبث
زوجا
افعاله
سقي
الشطر
الحصار
التوكيل
ادعاء
اوليا
تميل
ونقول
اصحابها
قلق
وتبع
خالدين
المزد
##كهة
ورحل
فوت
بالقضاء
بسوء
المفض
الخطب
اصنع
المحتمل
جسر
جث
##رتبة
قميص
شريكة
ابين
عمال
##زالي
فانى
مولفات
رابطة
ثقيف
فاتت
فاختلف
الحيرة
يومي
للجميع
الماذ
ارشاد
غيرها،
المباني
##طرب
##فعوا
الاصيل
الرقا
رجوعه
اخرجها
يجهر
تعرضت
اخوانه
وصرف
طبق
الهات
المقدار
الحلول
##ويه،
يزيل
لاننا
باني
##واجد
بالار
تحسن
السعد
والمكان
فقدت
يلقي
فبينا
##ارسال
ورثته
عدنان
هادي
لشدة
القرابة
ضامن
عارف
وعص
والشراب
المفتوحة
حياتها
تحريمه
##صدار
راها
وارجو
##خاوي
##شيش
مفتوح
يتاخر
الميد
##وسسات
##ومل
لاجله
تستحق
وعادة
والرحمة
تولوا
يفي
##رجح
##فصلا
النبيذ
القيد
ولام
##ثمر
انعقد
استطعتم
##وذا
للضرورة
الرحل
حاولت
بالتشديد
الشديدة
المكره
##يسية
التلم
الجانبين
وابوه
مكتوبة
حبيش
جعلته
الكرب
عك
##تون
فمنها
ومرا
ساقط
وقفا
الخصومة
البرج
المحلى
شعوب
نفقته
فاقر
الامريك
مقبولة
موطا
الخلق،
ادعاه
المعاصرين
متصلا
والمز
تفريق
الارضية
الدسوقي
حده
تتغير
##يسة
##رايها
صراع
الاسهم
فوقف
يجاب
بفر
النطاق
عتقه
##جر،
##وك،
كتبا
##خاطب
فحب
اترك
مثلا،
الصادر
اجن
وعباد
والاوزاعي
الحدا
الاستخدام
مزاحم
البحت
الغذايية
العي
طبيعي
المميز
لزوجته
لرو
وبيت
منعت
لعبة
شهور
يول
يتمثل
والباقون
##ضات
تعدادي
بامور
هان
احسنت
وحذف
محيي
اضيف
##ويها
ويكفي
ونظرا
وصفا
نكاحها
التوجيه
الفيء
يسرق
قمر
المنهي
والنسايى
دفعة
افس
القير
الناشر
عقبه
ياخذون
العادات
المعم
الارثوذك
كندا
الحارثي
لليهود
ينشا
ادخلوا
هزيمة
وروح
يجهل
بحيرة
وخد
والحياة
ظننت
كقولهم
##حار
المراجع
باللفظ
بعت
محدودة
##نعت
تخصص
##رضت
المعبود
حافظا
الدمع
العاط
ويعود
احدنا
تدعون
السرعة
بقت
تنك
واتوا
هجوم
ورحمته
بتد
##قبله
للفقراء
غرف
لوق
والاجتماعية
ويقيم
بعذاب
بالقوة
الورع
مستقر
الالعاب
السهل
واعطى
فبعض
يرفض
الضاد
فرانس
حالها
النفر
زيت
الاشتغال
والحيوان
##لاتين
حجرا
الكوفيين
الملقب
المناخ
تدريس
الضلالة
لعدة
فقدان
وبدات
اكلها
لاف
فياتي
##دايا
##ضطراب
البيزن
##سلت
##شعر
تنقسم
وارى
##ضارات
مطيع
العظمة
فسره
واعد
العجاج
ازمة
درهم،
والقاسم
الفاسق
وعشر
الملل
المرق
بهز
الاستيعاب
غلبة
بديل
القعنبي
السلطان،
##كك
معز
عرضة
صدري
ووجود
ويغفر
والرواية
يدخلها
الواسع
انتخابات
يخف
يشد
الخطاب،
المالي
طالما
##بهم
حدثناه
مجنون
انزله
صحاب
الجنرال
نقاط
مسلك
محلها
المحظ
الكيميايية
كوم
تخفي
##قيقات
للسيد
بالشرط
سحب
وجرى
نزار
الحبوب
ويسال
الكرامة
العقوبات
بالسلام
بالرجل
ونح
عبادته
##جته
الكوكب
ظنا
##ذوا
قولكم
خلقكم
بانواع
##بل،
الواجبة
تشريع
##لاحقة
القاهرة،
يستدرك
الالة
سبط
وطلحة
نكل
سرد
##ضمام
حكمت
وتقوم
خطبته
كاذبا
غنيا
##غاني
بدفع
بكاء
الجزايري
والاخبار
##اقط
المفسرون
##كنون
توصل
العظيم،
سابع
خري
سلمت
يحبون
الشاميين
وظهور
وقدرته
غادر
لبي
##نساء
يشغل
النسل
##سيمات
والبزار
لحمه
##رامات
والترك
استغلال
حذا
واستع
الخفيف
##تيال
امسى
تظ
ليه
مبد
يضحك
الهيكل
مطلب
التحلل
ونسبه
##ولوجي
بوزن
الغفار
معتمر
واخذوا
داعية
جماعات
المستشر
الكثرة
بالكذب
رضاه
مطبوع
##قرة
الرفق
توف
جدع
عمود
الجماهير
وتخفيف
صداق
بحذف
ليخرج
لواحد
واشباه
الحكماء
تخلو
مسعود،
ووجهه
ردت
##طفة
ببناء
##باعا
##ريها
والواو
##وايته
طبيعية
الفدية
الدعوات
##عكس
الربوية
درب
##ذهان
بقولهم
العارية
##ورع
احتمل
الفني
الاعور
والشهادة
الاعتداء
المنتقى
اليسر
##جريد
المقب
بالنساء
رجح
والروم
التحفة
اتلف
مكارم
##ركة،
باصحاب
المشهود
يشا
الاكتفاء
لاقت
افرد
بيمين
فتوضا
غناء
دفعها
##فيا
##اييس
نقدا
لايم
الواح
##راتهم
واقيم
التعا
البروتستان
وسميت
مراجع
تخبر
هناك،
يفتقر
الراجز
البروتين
والفتح
الثلاثين
دن
##طاول
دوري
الوجد
والنه
قادرة
الاتصالات
الحالف
اللعبة
ضخمة
الشاط
الظاهرية
خباب
فيرجع
يوسف،
فحدثني
بالنا
بدن
حكام
مطلقا،
للمتقين
كالغ
تنتقل
شهدوا
زيار
##وهات
يقام
بالتد
المعنى،
عادل
الباقية
خالدا
الحرام،
فرجعت
فامتنع
النعل
##بدا
الشوق
##راقب
فبعد
الوصايا
قاضيا
##ستهم
سهام
بنس
##رباء
يتل
ذكرى
بيوتهم
ايقاع
تاما
شبع
جلود
الفكري
وعذاب
وتلا
المجرمين
ينشد
##حدون
امتنا
فاسدا
وخمسة
ماب
الصليب
والنصر
وتبين
بسببه
رواها
حماة
##قيد
##كرت
##جوز
##باعد
##نجاء
تهم
##سما
##طوي
الطبي
خالصا
الرفعة
التكرار
النسيان
باء
##الكية
الجوانب
تسي
تصغير
الوحش
رهنا
##اتلة
اكثرها
وجوبها
يوحى
وحدات
طالبا
ودخلت
العدول
اضاء
الاقتصار
والفل
بصحيح
##ءا
##اريا
بعدها،
نومن
##حداث
الغفلة
السوفيتي
التخيير
يفسخ
القلق
##دينا
الغداة
اقبح
امره،
فبقي
احاديثه
يسالون
الخيال
والصح
حبسه
تفقه
##صنات
##ويرية
##عمله
تعي
كاست
جاره
منفصل
والقلب
نحوا
مقدما
يراها
##هاض
لخبر
صحتها
##عتك
يكفيه
تعجل
تكشف
الزاد
قبلنا
الارقام
الدرجات
خامسا
اثبته
المبدا
صلاتي
نسبيا
الدراس
##روهم
##دير
وايمان
اسكن
فذ
وساله
والليث
##ويته
وتنت
مصن
عظمة
تكليف
حسبما
قابلة
مولود
فصلوا
معق
اخطاء
المتولي
التنفس
فينت
##اتحة
اشتراها
حلفت
والمخ
للتجارة
المعتقد
واحدا،
##يديو
فرقا
اوامر
الافريقي
المسلسل
ضخم
##خرون
اجرى
احرف
ويسم
بحرية
اخذته
ببينة
القطن
##ويي
بدور
المتكلمين
التواصل
##غله
بالسي
بالرجال
واستق
قومهم
منازلهم
##روان
##شاش
وامثاله
للحافظ
قباء
ومه
يشعرون
ساقه
التناقض
##ارتها
الطهور
رجل،
فبكى
##وحدة
المدل
وحذ
انتظار
فاخبرته
تجده
مفه
للمسا
ولادة
ارث
صنيع
التمويل
النات
تبكي
الافر
##بيرات
##ايا
قبله،
##يتين،
تواجه
بحي
فسم
والسم
اشته
المطلوبة
نصلي
فيقع
شاس
تتزوج
والتقريب
والقد
مولاهم
وديعة
وسلام
سنين،
جنبه
الفردوس
لحقوق
خياط
يخلص
باحت
التامة
افغانستان
ببيت
ضده
والخص
الغروب
اسرى
فشهد
التحذير
مراة
النايم
ونج
والمرسل
ويويد
الوسيط
شعبية
##راوي
التقصير
بالغة
يصعد
تقلب
الفردية
خبيث
فالاولى
تختص
المظلوم
حروب
##ولته
معيلون
الصادقين
توافق
فيحتمل
والمسي
##راتها
وتصرف
يتبعون
عايشة،
بيا
السعر
العربي،
الصب
والوع
سنته
المصيبة
اظنه
##حلول
لامت
التهد
افصح
وغسل
وامرهم
تدبر
ادم،
حقيقية
##يلية
باحكام
للسنة
##زقه
ثبوته
ولج
الظفر
احاط
وباع
##ختصاص
راسا
صعصعة
شرعه
الرباط
الخس
يدفن
درست
للقضاء
الخلية
وحديثه
##ينك
غليظ
وطول
الثبات
تعليقا
##تبس
طالت
عطفا
الفناء
##طا،
ذهبوا
##ابرة
##احات
الراغب
شيبة،
##تباس
التخريج
ميرا
يديه،
##راهين
فيجعل
الماشية
الحليم
عذرا
يبدل
فلب
##ففة
الغلط
المذكور،
##لفا
##رقل
جهم
لسل
مثبت
##تقاء
بلالا
اساسي
والطبرانى
يمتد
فلابد
تهدف
##اتبه
وقياس
لامراته
اتبعه
التفاعل
الموصي
توقع
راكب
الذب
نيسابور
##ذاكر
يقاس
##تهام
بالشف
تقاتل
والواقع
##حدد
يقدح
لاخذ
فرسان
وقدره
##لميذه
سرح
الصاع
تركي
واثبات
نافلة
شفاع
القراني
##عك
وخرجت
مالها
احوج
صعيد
النايب
قطني
الصيرفي
وثقات
المنى
وتقل
عينها
##دس
عميرة
مشتق
جانبه
وتمكن
وبسبب
المخل
##غيان
وروينا
الجناح
الايتين
ينو
اللغوية
خامس
تجنب
##جاهات
لحي
الجيد
حرام،
الاواخر
المسلم،
##ماثل
##رايق
جهات
طبعا
دوام
القريبة
نوره
يومنوا
والستين
صوابه
القميص
واللا
صبيا
مميز
التقديم
انبياء
حذفت
##ضعة
باستثناء
الجهود
التعليمية
تعبدون
المشكلات
الرغ
ينكح
يمتلك
رضع
تفل
والاداب
##حميد
وعا
الجزر
المفيد
والابت
العاصي
بانفسهم
والعلوم
##جيات
يجده
الاستر
لتت
وقالا
معلقا
ويصل
والبحث
يملا
تقم
القتلى
مناقشة
وكله
الحفر
مشابهة
بالكامل
قريش،
للذ
محافظ
والخلاف
قاط
الامور،
الردى
يسهل
يجي
والسي
جاءك
طرفه
يتحول
مقاصد
##ادير
##اربها
عفو
عزله
قاري
الاقارب
سيرته
##لنا
مدني
الازل
يقعد
وقرات
قراها
كفره
رهط
اخرجوا
واموال
مناهج
زمعة
وهار
##وقد
المضارع
فمعناه
يسيل
وكلمة
هنا،
واليهود
##ونسي
والخط
النافلة
##فلت
داب
الوالي
اعجاز
انتشرت
الطيبات
واصط
والهي
##وفيات
اسمايه
وصفها
الانتصار
ويوسف
مخزوم
##اليه
##علهم
النك
##منت
قدوم
نمط
التفضيل
##ميري
سماحة
سيوف
وضح
المعتم
يسيرة
##خرية
تواضع
ساجدا
اشجار
نصرة
مفعولا
اتب
السه
فالمعنى
تعتد
تمتلك
يستفيد
الموسوعة
بالعل
اجده
فهلا
سنوات،
حملا
حينها
صدورهم
##جزه
النصراني
فروى
ظاهرها
الكفرة
##لاحظات
غريبة
##رقه
جرد
معم
حلا
##مح
##برك
دفعا
واثلة
##درة
الحكاية
ويقت
نكرة
بالتي
الاستمرار
مسكينا
محاكم
استفهام
الميز
##يلين
الفرار
والعامل
شفاعة
المناقب
الكبير،
يلحقه
##اناة
بفعله
وادى
عيبا
المستمر
محكم
الرسوم
بالامس
اختياره
بقتله
كانتا
يبصر
صيغ
صخرة
##خها
يستن
خواص
التراويح
الصع
وبنات
لوس
والظلم
صعوبة
##زيق
كيلو
التهمة
##بيوتر
تتراوح
والخلف
بعدة
مساف
مكاتب
الديانة
فاخرجه
مشر
الابرار
النصح
تلاوة
يهتم
سياس
وفساد
الكنى
القاسم،
زمانا
مقيما
كان،
وصحيح
التحتية
مجاهد،
واسطة
منصور،
يسلك
تتنا
للمرة
المجته
والطلاق
بموته
##رهيب
افاده
باليمين
حقيقي
##هرت
بشروط
احواله
##ضايع
بصيرا
ولانها
بوت
##يلاء
اسهل
ولحم
اعان
##لظ
المعقول
مولاي
الماذون
ونتيجة
بالقراءة
خليلا
لنفسك
الشهور
التكفير
المزع
اطال
يجل
##طاي
كاليفور
وانواع
للشافعي
يتبعه
المصايب
##ييا
العتيق
يبنى
##غف
الصافات
للمومن
بالقسط
اتخذت
المتصل
##طهير
الصم
هيهات
باياتنا
##ادى
المواطنين
الخلل
فرايض
لحن
##يدهم
##فاذ
لحسن
ادعو
يقلب
البالغة
خالصة
وكال
##قارنة
الماجشون
تحيض
##نكم
عرضها
تشتمل
ديارهم
لترك
##تكف
اكبر،
##اثير
##ويلات
فعد
اعتمادا
ورزق
الملابس
اهواء
عهدا
فحل
الدروس
##حث
اعج
زد
كريمة
والراء
##فسة
ارتباط
مكسورة
صبيح
الاجير
رحيما
اشكر
والسر
وسنن
ارتكاب
شايع
ويقدم
اعلمه
##ازن
تشعر
الفراق
تلد
التعظيم
الخبرة
ترتفع
الجمحي
التين
اللوم
بكرا
المقابر
لازما
موطن
اخبرت
اثنتي
الباجي
الالات
والياء
المحس
امبراط
للترجمة
الاوامر
##مارات
##ونغ
يتغ
##ماير
تجه
يشكر
والجمهور
الالهي
الرحال
##خس
##واما
بالاول
##باقي
بقراء
##سكين
عظيم،
والدا
للارض
الزوجات
منظومة
قرطبة
غفل
كاليفورنيا
##رفيه
الدعا
الجنون
وعليهم
المودع
لقيه
عطا
لعلك
خشي
يخطر
يحز
الارسال
الطحا
##دتهم
امريكية
الباب،
وحس
دهر
بالدم
فالتفت
##شوف
يتمتع
##فتان
واجر
موظ
خفيفة
وصحح
اكمال
التعرف
الرجز
بسل
##،،
صريحة
الحيل
وقلب
العنوان
##ونيا
رسمية
ودل
حق،
لحفظ
طرفا
فقولوا
ونش
استيناف
وجمعها
الحديثين
##راة،
##تياب
اختصار
لبناء
صفحات
ماكولا
ابعث
##يافة
يعاني
بالنية
اميال
والتخ
كابي
المعادن
يوهم
انتشر
نقط
فرسا
تعلموا
نيك
الصخرة
للمفعول
الشرعية،
##رادات
##يبها
ممر
سواها
##ستين
والاعلام
اليومية
يلاحظ
بدرهم
شاعرا
##ذبهم
راسك
الساحة
##افاة
ومعظم
ابحاث
##يسا
اذنت
يوصل
##صها
فلعله
البصريين
##صبة
##ليقة
##دام
فاول
الغين
جيشا
##قيته
الزام
تتطلب
واكبر
ميا
موسس
العاملة
صادقين
بلسانه
هرمز
ليقول
اتاكم
الافريقية
امكنه
##طفان
سات
فكبر
بالقبول
فامسك
داي
الاضا
##حتم
ضمنه
يهودية
النقض
والدها
باداء
غندر
##كها
الهوية
الشيعي
بقين
ينفقون
جمعها
ادر
وسالت
وضل
الشعير
الطاعون
يرتبط
مجالد
بديع
الهما
فاسدة
للقيام
تضل
ففر
سموا
##لالا
ايوب،
نواس
المعتصم
تلخيص
حايل
المبادرة
انسا
فاذ
ركعتي
موضعا
الفه
لعايشة
غلي
البيضاوي
خطوات
لعمرو
عكسه
دجلة
يلبث
داعي
##طانة
ابطل
##ميزان
ما،
اخاك
##افلين
بسهولة
اوربا
الاستسقاء
المجوس
العادية
الرفاع
بعضنا
الاكاديمية
هلكت
وسجد
والابحاث
خبز
امنة
الحمض
الحف
والتمر
##اذى
ءامنوا
اقتضى
بالفاء
##نفذ
##كارا
فداء
المعي
لبل
معاصرة
بعرض
محقق
العميل
بالقر
##غلظ
لوجوب
بالغيب
عابد
اوح
اجتهد
مماثلة
وكتبه
وارج
كارل
تتخذوا
الحماية
القطعة
سماها
الحور
الحاشية
البلاغ
الاضحى
الثانى
والتر
بالعكس
بالاك
والسوال
الجميلة
ووكيع
المحتار
واحتجوا
ايديكم
الالكترونية
##طفاء
والغنم
وخطب
باكستان
##ماش
واشتغل
البصير
صباحا
الموهوب
مناة
الذراع
تحصي
كوس
كشاف
ثناوه
العقلي
والاط
##ماج
##وخة
وعلما
ياايها
المقبرة
الاستيلاء
ومهما
حيوية
المازني
قصي
خلدون
ويكتب
الاند
كونهم
فجاءه
##مرقند
المتعددة
علمتم
طاووس
قيصر
بدم
فزع
##ركت
الراحة
التعزير
العشرين،
المكارم
يتحمل
وتعرف
فالامر
اذنا
السواك
مامون
تغني
##لندي
عددها
بدنة
رييسية
اللباب
وفرض
فراق
الاجمال
اجلها
اتفقا
لكثير
اللاعب
ثمامة
الذرية
فاغفر
فهنا
ضررا
تحريك
والقوة
جماعة،
بسا
##التين
ينك
وكيفية
الدخل
مثالا
النقصان
عنبسة
##قلها
والاية
ستون
لبون
الانجليز
الاحتياط
سبرة
اشكل
عالي
وبنا
الشوون
لابراهيم
واعوذ
ويحكم
##جوج
الدب
يستجيب
بولد
بانك
ميقات
اليتامى
والعدوان
ضحى
والوق
اشتراك
تبعد
المدرس
##قلية
بتب
المحارم
بدخول
التحول
لاشت
خالص
ممثل
فزعم
مناسك
##شاق
قدس
##وني،
وافقه
الامهات
داخلة
وقيد
تعال
الجندي
المراه
النظرة
الدولا
واقرب
والدنيا
طرقه
استقلال
##فيظ
##حيز
بينهم،
القاهر
##فاها
اكتسب
وموضع
القسامة
صايما
##نعه
للمناطق
وكذا،
لامراة
الجرايم
مندة
الحاق
##ضاعف
عملك
واقره
واظهار
وقرب
السالك
يبيعه
فتقدم
بقبض
يغيب
بابل
فاتته
##فاني
##كندرية
اخراجه
الجريري
وسمى
مفيد
النضير
فليراجع
مضل
بحثه
المبنى
والصدقة
بعثني
واهلها
المبارك،
مروا
يخفف
الكلابي
لمكان
مصيب
عارفا
وقيس
تتحدث
اراده
ضيف
السادة
مبلغا
غام
اينما
بالنف
يعالج
احتلال
##ورون
الشروع
##سمه
الخت
##شرها
الضروري
النمط
المنية
وعدا
بعيرا
ولدي
نسخت
الحافظ،
الخمسين
ارجح
هجرية
للحاجة
متاخر
##نادق
##ذوذ
الكنز
الصق
الصيني
كوا
الصانع
الشيوعي
##سهيل
فشرب
تعجيل
يعذر
للجمع
##سو
ظلمات
كمل
##فاهم
مخرجا
الصفقة
والزيادة
واستدلوا
مجته
جاءنا
مقطوع
الاخيار
باتباع
مراقبة
##ضارة
اشهر،
تفعلوا
بالرد
عنهما،
##رضة
مجز
الموصول
المواطن
##ماوي
البكت
راسه،
محرز
##ويز
اثرها
بواحدة
يزوج
تحتمل
مليح
وسالته
بنفسه،
والصوم
الصينية
مسم
المشهد
وانب
استجاب
##عهم
نقيض
التقنية
##زلي
وسبعون
باخر
وليد
فضربه
بلب
##خيم
افلام
لتحديد
اولو
وجمهور
الاولي
دفعت
بطوله
ياسين
جوه
مصلح
القمح
العدوان
فاخبرني
اتقى
الذاكرة
وحش
القاضي،
بطي
والفاء
داف
حوار
فباع
وقضية
الغام
لدراسة
وربك
##اسير
##هادتهم
واعتبر
المعلى
والزهري
##ظري
الثرى
استجابة
نصفين
الكربون
مشيخة
يمل
القارة
مستان
والخروج
القبيح
تظلم
بلغوا
يتعامل
الطالبين
الدجى
يحبس
الرهب
اسانيد
المنتهى
حياء
بايديهم
طري
##ولان
الغراب
يبلغه
الجماعة،
وقيام
##رف،
ببلاد
فالحق
اساسية
والصالحين
المنط
وهبت
##لقين
الرابطة
الجح
بعوض
الهجر
واحدها
##قدا
##طروا
المناق
يدركه
سقى
##لاني
الغبار
اللين
بالعقل
الصناعات
للحاكم
تنزي
الزيلعي
نصفها
الاستقامة
للنفس
##نايي
##يامه
ابويه
للمص
يجوز،
التعبد
##شارد
ياتوا
فاختار
اشتك
لكني
التعدي
لمسا
البدا
الجسر
مسعدة
ضبطه
التردد
ليصبح
غلبت
سبقه
باطلاق
والشراء
##ولة،
##ستان،
فيبقى
##اقت
تسكن
بالمغرب
ندا
فيغ
وقصر
فانته
علوا
صيانة
مساكن
الحصى
خيره
الالاف
ادخله
القربة
##سامح
شيوعا
##نسيق
عيناه
ربعي
للعالمين
الروسي
اللذان
تصحيحه
جلا
التعديل
السرطان
المرتبطة
همد
##ياكل
التوسع
##ماعه
بالتوبة
##ناء،
لغتان
بوجهه
مظل
اذنيه
مثلك
ولابي
احبه
ملكة
##ماي
والخلق
نراه
المكس
بينهن
الاغنية
يعلمها
##ية؛
بتش
بكفر
فالخ
الاسماك
تتكلم
ويحفظ
تنكر
##ارد
##راجعه
وبع
تنسب
وتركه
نصارى
عيسى،
الجمرة
##شر،
للال
محبوب
##اسا
سيطرة
سالما
العمامة
بخمسة
##لكات
##فيس
لاهله
##جاسة
التعم
شعور
##خري
سيس
##دايد
يشاهد
ركبتيه
وايم
وبذل
نزلنا
ويقتل
##راجح
المثبت
السبي
اهله،
يعرفها
سوالي
##جنب
السماح
السلطنة
القديس
حرث
عسر
ادعية
حسام
##ذت
لظهور
##جيين
تدمير
التكاليف
المخدرات
الماك
الخلاء
جهالة
الاستد
سادس
موضعها
وحكمه
العاقبة
اصابهم
المولفين
سينا
وخلع
يوحنا
مكتوم
فلست
قيرا
واعادة
المغرب،
ابعاد
ولماذا
واتباعه
الاهم
الهيد
الادارية
يخافون
وكلم
وعاء
يصعب
السبيعي
##واترة
ابصارهم
##صفور
رويت
رطب
تاثيرا
يركع
راء
بحثا
سريعة
اليمن،
الجوامع
حجا
اليهود،
الرضى
الكتر
انهار
زكاته
فمعنى
والميم
##وقات
المناوي
زاهر
هزم
والفس
الموظ
يكسر
عقدت
##لكت
وبسط
بسبع
الاستقرار
##سرا
مسلسل
الكلاسي
خزاين
فلينظر
فيخ
فسدت
حجه
مطالبة
يطلقها
تضمنت
للبيع
قررت
وانح
##وحش
تدريج
يستحقه
وفوق
##شفيات
بالعمرة
الانشطة
##احظ
مستشفى
عرس
الطوا
الوراث
وطعام
يضي
مسد
للحياة
مقعد
القزاز
اخوته
وعام
فست
التصويت
الاوط
فانكم
##بلسي
تغتسل
احوالهم
كو
فانني
الخالص
تعز
فراي
يجت
فتق
فصاعدا
والكتابة
الفين
وتذكر
التصحيح
فورا
##زوين
سورية
البخل
الانقطاع
فنادى
وهارون
وقرىء
واستعمل
لسبب
وكلهم
ترتبط
ماس
والمف
##اييد
لعد
فمكث
سرعان
الخبير
ويبين
والاخذ
ايدينا
التفرق
السكينة
بروت
التاريخي
ننن
وحفص
والمي
والبعد
والفض
للموت
موسسات
اقم
المتط
واصح
الزنى
الابطال
القوية
محلا
بالاولى
جلست
السلطانية
المودة
المتوقع
رواته
العصر،
ناقص
نيس
فسمعت
خاش
جهته
وخاف
لعمري
##ضرع
نفيه
ثقيل
هذيل
ويفعل
تعزيز
المساعد
مقدمات
واجتماع
فجعلوا
بقلب
والقبول
المطهر
##ريرا
والصيام
تفاصيل
ادخلت
مجمل
##جاء
القه
بدعوى
##مرة،
والبيع
تتمة
ويدفع
الاكمال
يطلبون
##اعف
استج
تركة
شكا
يله
والامير
ملكية
الثمانية
جبه
المورخين
##قصان
وسهل
##طلوب
اشتمل
جهلا
جبير،
حجب
موحدة
يخالفه
فاضرب
##وعها
معدلات
اللزوم
استقرار
العبارات
##ليلها
##فارات
##ذيرا
المادي
خيرا،
الافاضل
حنطة
وظيف
مرتبطة
جمعوا
وحمله
عبارته
وشه
مبنيا
هني
##جني
ينتمي
وعبادة
كاذب
مراب
اسق
المعارك
اجمالي
القدرية
معجزة
الشايع
##ساة
يريده
انساب
بالاي
شاءت
##طلبات
المرتفع
##غيبة
النوافل
تجارية
الجواد
شعير
انشدنا
اشير
عاصم،
الاشربة
فاعلا
حجج
رووسهم
##صته
الميثاق
هذي
يحكي
مختلفة،
انشده
فرضه
والضحاك
نفخ
تحدد
المذكر
الخطة
القصور
بعشر
متهم
ويسن
امتك
امامهم
تعالي
المستح
بمرض
منافق
مازن
لطف
##ايية،
تمليك
وشارك
تحالف
رود
جندي
عرج
العث
الراسم
الافطار
ابقى
كتلة
الجهالة
عصرنا
بدله
##عاذة
يحاسب
طولا
ووجوب
تعدل
بطلاق
حنبل،
الايرانية
الغمام
فجيت
شاذان
قانع
بشر،
##مانه
الراحم
ومعاذ
تاء
فصد
اقصر
الاشعة
ارشد
فلير
##شارا
ووجدت
وشرحه
يثير
والاكثر
##ويش
فكلما
الوافي
##ريز
تشك
الاعمش،
نخرج
##بهت
تفهم
سرت
والوس
محبته
الظاهري
المحذوف
##او
بالعيب
الجوار
دافع
اقوالهم
##اول
والخمس
وانتهى
##رموت
##حشاء
##ابيب
وشد
الباطلة
##نازير
خصمه
وظلم
##طر،
الشمسية
باربع
استقام
السفلى
كيلا
التعب
للبل
والمب
صاحبكم
كتابته
بمعروف
الظالمون
ياتيهم
##ابس
اصوله
والحساب
يزاد
يفرغ
##اق،
مصري
يده،
ميلاد
##اسات
خزاعة
##فة،
##زني
دعايه
وهدى
عقولهم
سرى
اقتراح
العاقد
للاق
وكمال
بغيرها
##يقين
خفية
يوقع
بالبل
##طبخ
الحربية
وسبق
التمس
##قييد
وصيته
حال،
صرت
##نبط
نصابا
استثنى
##قاة
ارتفعت
القادمة
الذباب
بتف
اصحهما
الجري
الظواهر
الدنانير
والايمة
يحرك
##زمي
##افح
اسفار
الايلاء
##ووي
بجنا
عقدا
جريج،
برس
حمده
محار
صحح
تعدى
تولي
ملام
القار
اخلاص
استفاد
بلدية
##عقاع
يطرح
التستري
##جة،
تنعقد
##طرق
##شيط
وضبط
ادفع
تقال
نعمه
تنص
واعاد
فمثل
ورضي
راد
اوثق
انزال
اولا،
فهى
##قابلة
الكحول
عجايب
افترض
التفاوت
ذنوبه
منطلق
انث
والقتل
لنس
يشركون
عضد
السخاوي
بحار
المزارع
فيقوم
وشق
ليتني
الحديدية
عربيا
##انة،
المومنات
حدثتني
الوص
القدماء
خشيت
متزوج
بطال
القسطنطينية
المصلح
فترات
##لقا
يرجح
نلت
ينح
##ياطي
وتحمل
شييين
خطورة
الدموية
بالتحريك
العسر
يتعا
شاركت
المقابلة
بالقبض
محاولات
##برز
ونور
والامة
وانى
صحف
وذات
لاحكام
جلي
يحتسب
يبايع
سكون
تحولت
يسمونه
اوان
يستقر
##يلى
يعجل
المحض
والوليد
نبيكم
الفها
تغرب
تعليقه
المقار
الكناني
مذهبهم
الاعلى،
العقيقة
العصبي
مشايخنا
مملك
مدرك
حوايج
وطاعة
ارادته
مسه
فوصل
بوص
##حدا
##لمس
النحاة
قولهما
##رام،
##وثق
واشتد
بمسا
##نايه
اوسط
هشام،
فلله
##شيد
ملعون
لكانت
##ءوا
الاوطار
##وتك
الداين
المداين
الممثل
##وجر
يوميا
وامها
يته
القراض
حصار
الغريم
اثارة
المركزي
حاضت
الكري
وباقي
توسع
##سوخ
الانتخاب
البرقاني
قدح
##يض
يوس
منبر
##يرى
مساكين
جرب
التوقف
نجيب
الاستعانة
ايس
طاهرا
صرا
والبيت
##زايدة
جهر
ونفي
اخرهم
ضمانه
بهيمة
المترجم
تقيم
بسيطة
الامريكية،
نواه
الحسد
##فول
ولزم
فلهم
تقدمه
السبق
الصمت
والاقامة
هق
بناه
ينف
يحس
##رارية
##مهم
انتق
وقتلوا
برح
المستشفى
موكدة
حلاوة
##السي
محركة
تخفى
والسب
سفرا
بوقت
ضحك
##وتة
التذكير
الاخراج
الراف
سقف
مستن
##مار،
##نوية
اتانا
##صفح
بيية
نعوذ
توفيق
لرا
بنقل
الشقيق
ووفقا
والروح
وبلاد
بانفس
حديثة
وفضله
تكفي
كبيرة،
رت
##امير
للاطفال
غدر
المساقاة
الوقود
غبار
الزع
المجادلة
بالمسلمين
التصور
والاستق
نيف
##عرف
المفتوح
البدء
##زات
ولابد
ينطبق
الشيطان،
##شيح
السختي
يعترف
الالكتروني
مناكير
هيكل
##يته،
للسل
اقطار
مسار
المشرف
رقبته
روز
تبعث
##دارات
الاجراءات
الارتفاع
الصليبية
بود
وفارق
المفروضة
البينات
المسور
لايات
عبارات
عقيد
الحادية
سلالة
الاقطار
والخطيب
مفتي
واية
الدكتوراه
بالمسجد
فايد
الضياء
السابق،
الخيانة
قراه
##ليقات
ولرسوله
فسجد
مظنة
لانفس
ينسى
##فقته
زراعة
بطرس
بحب
نبيهم
الكهرباء
وتفقه
مهرجان
شريكا
##وزارة
يغت
خاتمة
امع
قلته
المحاربي
##ذبون
وغلب
واحسان
المقيد
اللبنانية
غانم
المتم
##تهاب
سني
خلفهم
الوثايق
سو
متط
يجعلون
##اهده
متحف
ابتدع
واثار
خطط
البصرة،
هض
والكثير
السبل
الزوا
والتفسير
المنصب
يحذر
واعم
##وثيق
جسمه
عامين
محدثا
##فاك
النجس
ومقت
ابايهم
اصبحوا
صمت
لنبيه
تغطي
مايتين
للوصول
طلاقها
يعلموا
ابتد
المثناة
بايمان
والاستغفار
الاساليب
ومعت
يعاد
اياتنا
والمومنات
الاولون
وبالر
وخر
لاسيما
بجوار
الباقين
يختم
بالحر
كتابنا
ريحا
والالت
واطيعوا
فيرد
اثرت
##كروه
##واء،
##صيص
قالوه
واحاديث
خلقها
تلفت
مفيدة
نخلة
بجد
تيسير
يطيق
##ينهم
وقومه
بابها
لعلاج
والاختلاف
تنقضي
ازهر
التخصص
اوحي
عيينة،
ضعفا
البرتغ
ثبات
##وايات
عبادك
الرعب
واجمع
التواضع
ووقت
الاختبار
بحبل
حضارة
دقة
المراكز
العابد
بصدق
طلا
احترام
مركبة
الامي
عنت
وذي
المخصوص
هناد
المحاسن
والذى
الفلاني
جراء
شوك
نبوة
جواهر
وقفه
بالغا
التدخل
دايمة
تبرا
اباك
هوازن
الازمة
فحا
باستمرار
القانوني
الاجمالي
الخضراء
الثبوت
صحبته
##بعها
قتلا
معلقة
فلانه
##وهام
الاضرار
السهمي
درع
الطاغوت
الزنج
دونهم
نافع،
سمت
بالخروج
الجعل
الغابات
فبايع
المخطوط
صير
##رجي
##شدد
لربه
البطلان
تنزيه
فرص
تفرقوا
بنعم
النقاط
راجعون
يعقلون
وشت
الاحرار
حميد،
خليلي
النهايية
ملابس
##املي
كشفت
بعتك
تمشي
معرب
فكن
##ورثة
اعتقه
الوليد،
الايطالي
الدقاق
فبدا
للحج
ابتلي
مصنفه
والعبادة
المفلس
##نظر
والديه
للعامل
كريما
الخا
وسورة
الفقرة
بتم
طم
الهزيمة
بمد
والسير
##اف،
غرق
اجسام
توثيق
والبصر
باحسن
##كافي
وقرر
للكافرين
الاحبار
الخيط
##خره
والضرب
الدافع
الخواص
شير
يقيد
حجته
بدرجة
عقده
والكاشف
الحلواني
المنكر،
قع
لاقامة
الحذف
المتعلق
غازي
وفسر
وبات
عجبت
دستور
ويطلب
الضالين
امتثال
غرر
##ديقه
واسماء
تظل
شره
الوظيفة
تتحقق
تبنى
تزعم
مشددة
يصلوا
لنقل
##كيه
بالتخفيف
فليصل
##حض
##مروا
يتخلف
متقدم
عداه
شفعة
امورا
يصيبه
المغناط
مكية
يسميه
وانشدني
كرس
##كسه
زاي
##ونه،
##دادا
وذكروا
مباحث
##ختصر
##ذكور
باعادة
الخشوع
يوشك
والخد
الاسباني
صديقا
يجادل
الخن
اسلاف
يال
كرر
الغيرة
جمه
وايام
بالدي
روض
المايية
##رافة
اختلاط
دينه،
اللاه
يربط
الانماطي
##وكيد
ياخذها
باثبات
بنور
عامر،
بالزنا
مفردا
جرايم
الهام
يوذ
التصميم
ونسال
مضافا
غنيمة
بنوع
موصوف
دكين
لفض
تخف
الواسعة
المعظم
مختلفين
ونحوهم
الابهام
جنيه
بلادنا
الاظ
لقومه
جناب
##غلا
##طاس
والزم
تيمم
مندوب
ثامن
القعود
##فيته
فتنا
نفسها،
حديقة
مونة
بكلية
بالما
نجح
مورخ
الرصاص
لحصول
يسوع
مقعده
والفكر
شرعيا
كوريا
المحمدية
##فرقا
تقنية
الاستن
كثيرون
مقدرة
بالاعت
اضحى
الفج
للحد
اولادهم
يان
الكونية
فاء
النمر
منفصلة
باين
وحقيقة
توقيع
فيحرم
الفيدر
يخضع
عالمية
الدنيوية
وقط
القادة
خطيية
احمل
التعلق
المعقود
##تقاد
فاجاز
##لتان
للسلطان
المسماة
##بدع
ننت
الرعية
ايتها
##شارات
سرقة
لديك
التخلف
معتب
وقاله
تنفذ
النيابة
ناصح
مستعم
التوحيد،
وكسرها
والعقاب
السكنى
وتذهيب
الايطالية
التقليدي
سمعتم
شابا
السو
جلده
الشوارع
##دمه
عيوب
مباحا
ويضرب
وزراء
هديه
القتيل
تاكلوا
وشكرا
والراي
ويتبع
الغساني
مسكن
جميلا
اللقطة
##بز
الاستنجاء
يختلفون
لنفسي
دابته
ريش
صوب
حلب،
المقدر
عروة،
باعلى
اجور
الشاطبي
تظن
وخروج
اكثر،
الالوهية
مسوولية
جشم
فسل
اسلف
الغزل
الاجري
منقول
المعاهد
ينز
مصدق
يبذل
لانتاج
الانحراف
ظله
يضيق
##غرة
الايق
فاطلق
وقلبه
جلدة
نزوله
وليعلم
تيار
خلقك
الشيوع
يدفعه
يطل
##اعت
جهله
ثلثه
اصدرت
تشا
بالاية
سارة
الاوضاع
##قيطي
نصراني
انفاق
العطش
وبق
محاربة
##هباء
قطعها
بالمست
نفعل
الاكوع
اخوك
ويكنى
يوول
منذر
تلحق
خليج
توبته
صفقة
##وازي
وبينك
##سق
عملهم
كفل
لبابة
سماعا
فالحديث
ورح
يمان
والتل
ويحصل
سارية
##ماق
الصار
التطبيق
انوار
##جهيز
القصيرة
##اتذة
زوجك
لقلة
ضعفاء
مصير
والثناء
ضيع
السلب
سفن
كهرب
الصناعي
اجبر
اطلعت
ضخ
ونظم
تتجاوز
ايرلندا
نجران
##لقوا
قصدا
المنكرات
اسنان
والعقد
كفوا
ذوا
غصن
الزمان،
##يناهم
الشهيرة
الرقاشي
جنين
والصد
##ريحة
المستن
والبغوي
زك
تطي
كاش
##وضى
الرازي،
القادم
سجوده
لبر
كسبه
ظالما
وتابع
راض
##عينه
المودب
واجد
##والدين
##ماعات
واخراج
الذال
السحرة
بتصرف
ثار
جيوش
وود
بمنا
##ريبي
صاحبة
بالكتب
البسط
خير،
لحماية
موتها
شماله
تغيرت
##ضوب
امراتي
الحط
العدوى
الجلالة
تحقيقا
سجدتين
كالد
المسير
فاذكر
والارشاد
الحلفاء
ذكرهما
جازت
وليم
طولها
الفخذ
رقيقا
خلافته
رييسي
بند
فتكلم
لنع
نفعه
##ستون
يبالي
بالقيمة
السقوط
هرقل
ويكثر
وانتقل
والانصاف
##ليفة،
،و
اذربي
يعترض
اولادكم
كميات
مولفاته
طراز
وفصل
بشراء
اضافية
كغيره
##رافا
الفواحش
ليبيا
##بنا
رقعة
للعلماء
للعم
ويصير
المرزب
##ء،
والسعي
نصيبا
تفضي
النسك
الادوات
ننس
الاهمية
##سلات
الجراد
والعت
المتشابه
والحقيقة
الحميري
بادر
لدرجة
##شبه
ويقدر
والطحاوي
حرب،
الفلسطينيين
المقبل
##قوس
##ودين
للدلالة
وجي
افك
فتحها
الزايدة
الزن
##تبوا
وجهه،
بالدليل
##لكان
ملب
العيني
الذرة
##سبت
المذم
الضان
المكتوب
الرياضي
اتجه
الرقاب
##جلى
بالجز
المشاريع
وارحم
فنعم
فخطب
زجر
مشاعر
ومحب
المواهب
##هادتين
يشر
لتد
وتشت
##شرهم
والفقهاء
##يية،
ووعد
تعظيما
بالشر
لاعادة
جوفه
الساعدي
بادي
الاسفار
قسما
همه
فجاة
حملته
رقي
الطباع
##صايم
الجمهوري
الثور
##خلال
نايبا
زبر
يقبله
بعمر
##جلوس
العوفي
ادوارد
المقرر
خطه
سلطانا
عدت
وتعظيم
بواسط
التها
مسكر
تخضع
عاقلا
##سفية
##هاه
يذكروا
وعشرة
التحريف
##رونات
الثلج
خلفا
فافعل
مملوكا
##راتين
تغطية
ثنتين
##رامية
لقضاء
لدن
والاموال
صيدا
ينقلب
ثمود
النافعة
غنية
بالاحت
الفرسان
والصل
وامان
حيي
وغيرهما،
##جدة
##زويني
نودي
الاكابر
تحمله
هالك
##اذبية
رسوم
حرس
خالية
بيديه
كتم
ندم
للزوجة
بيده،
مسير
وحجة
تطوعا
بردا
كاينا
بصفات
وقوف
رميت
المفروض
تامين
طمع
رزقا
مناسب
المصل
فحص
كيلومتر
اسابيع
حصوله
يهوديا
##انق
فاوحى
كتبنا
ابرا
السجد
الاستعداد
العقد،
الموضعين
والاعمش
##دادي،
المفاهيم
يسمي
مجتهد
وارتفاع
حفاظ
غيث
بنيه
واشتهر
الهامة
شاملة
##برون
لكلام
نجدة
النهار،
الجاهلية،
اقد
الاعل
##فعت
بالدخول
سحاب
رمح
يحارب
يستفاد
##فعلها
حتي
##اح،
اصبر
فارسي
خوارزم
المحمود
ياثم
يحجب
تلي
الروماني
برض
وابعد
مسالت
نصيحة
الضيق
للجد
ينطلق
ونز
بتقوى
يبيح
الجايزة
بعمرة
ياكله
المقداد
والرع
مشاريع
المفاسد
مكافحة
##جيز
##ذرت
سهوا
تقييم
الهمام
سرج
والهاء
موافقا
عشرة،
حفل
دمع
ابوها
الضفة
والبقر
ردوا
انبيا
البو
للحرب
يشهدون
بنوا
خاله
عمري
ويستخدم
ننظر
تجل
##وبان
تنتظر
##طاكية
وايوب
شركا
يدافع
##عبد
كالف
والنخ
لياخذ
##عاش
يحملون
المباركة
تحاول
للفر
##حاطة
الاصفه
والمالكية
والسماء
يعص
الرزاق،
منعها
البعثة
بالقد
تشد
تبني
المراحل
يمكنها
##قاض
والملا
اليما
وصور
شراح
بيروت،
القحط
مخصوصة
يحافظ
توماس
صعود
الاشر
ومز
مالم
مستدرك
والشعير
القليلة
تنقطع
اقتصادية
الدم،
##ندى
##كيين
واعلام
الافادة
المريد
اغراض
وينزل
قصرت
اضرار
##عز
جودة
ودنيا
نطفة
غضبه
والمض
افهم
التقويم
بالمراة
##وفيت
يتكلمون
وطبقات
تراث
الموالي
بالراي
انهن
ربى
فارجع
باحدى
بالاز
وسيد
والايات
لمت
سلمنا
تركيز
والاعراض
اقاموا
ومية
معاشر
حلقات
حياتي
الجوف
والمجر
علمها
واستخدام
وللت
والشرك
وزوجته
صفي
##خذة
اللقب
##وهم،
راجعا
وسطه
##بابات
الستين
امداد
ماله،
واقف
تشارلز
لوم
##طة،
يتسع
والصلاح
##اجا
فناء
وصوله
تكاليف
تبرع
الشفق
السفهاء
للي
##اسه
القرعة
الالحاد
##اتا
داخلا
انعقاد
##حلوا
باخراج
حدد
بينته
##فاوض
قرره
سالوا
افساد
حماس
الترمذى
المصابين
تحقيقه
كمثله
هبط
وظهرت
وتوجد
يحتاجون
سواله
الاستجابة
المحاس
مرتفعة
داري
واليمين
بالمق
الايضاح
ونسي
اقامته
والقى
##ميزا
ليحيى
يظنون
##يدون
الكعبين
الطراز
بصاحب
اعدا
رومان
اجتهاده
مطال
التجمع
استخدامه
سكوت
المجل
الزبر
##كاها
دخلها
تزداد
ولغ
بمنع
فيشت
عشاير
المكنون
تنتشر
ثغر
واستشهد
##دتك
الانتشار
عدوان
وشاهد
الاحبة
##ونكم
كهيل
واصول
##يسيا
فنظرت
تتحرك
واصلها
عارية
قبورهم
الصلاتين
##قلوب
##فنه
ومض
واصلاح
نمت
تشابه
واشهر
##زعات
افقه
الصدي
كراء
وشهر
المشترى
موصولا
الجاري
##برى
تقصد
تقتلوا
وعالم
اتفقت
##واتهم
الحنيف
ولادته
خضع
##ينغ
##جهول
الفاط
ابنك
الالتفات
ويمت
فخذه
انتصار
وعزاه
##ياها
فوادي
البطاقة
سراقة
بعهد
المرام
##نيك
واعطاه
خايف
المصري،
الهاتف
طوبى
منهي
شمالا
مفصل
معجمه
مستند
انزلناه
التحديد
وانتق
التعارض
باتجاه
ايهم
فسا
الرماح
للقا
اللبس
انقلب
خويل
فران
##وذن
بالرق
السهام
الشت
معقول
##ريبية
خطيرة
الموسيقية
الابتدايية
##افة،
وتظهر
كريست
##انته
الاسير
كجزء
احلام
القعقاع
الواضحة
الروم،
الاشعار
كرها
المصطلحات
##اييا
صلاها
فيهم،
للنظر
بمعرفة
والقسم
وستون
وسد
شربت
مركزا
##زيغ
توكد
اصفر
ومعها
وغاية
ورش
بالتس
والكتب
وبينهما
تطع
لهي
مسقط
يداه
بواحد
شفي
موصولة
المعرض
اهلية
خبيب
والرس
يوذي
يتقي
##ناه،
##حمله
المشروط
تفري
النقدية
روب
##انيف
خلقهم
وصلا
##ترا
تجز
وصحة
فرضت
والشعبي
فوقهم
سواهم
الباع
المتعلم
اشرت
##كميل
يقوى
بثقة
باقامة
بمحذوف
يضلل
ذريعة
##قوبة
بيناه
##مارية
##ظير
فالف
الضحايا
##خلل
واستمرت
متعة
والفروع
الرقاق
بالمومنين
الخلاص
النهدي
فعم
##صلى
##جعله
ربه،
املاك
ينشر
المنتج
جبهة
##ونى
وصلة
وذهبت
الدفن
يعفو
موخر
باخبار
##رسول
فعيل
لدلالة
##جري
وقضاء
ولحق
خراش
##راغ
وصلاح
البحري
منظر
ابيت
فاتحة
##ذاذ
كتابات
صدقوا
اليك،
##ظرا
استحب
متكلم
اليقظة
بطاعة
المجمل
##رداد
##ذيبه
خلاله
الندب
الفعال
دينها
العابدين
##بهات
وصاح
المشاعر
نسل
ينتقض
ظهرا
نيو
وعجز
يتوقع
والحافظ
ديفيد
العملة
مقصور
المراسيل
ويقبل
الوجه،
الفجر،
تجلى
المدني،
للحكومة
ضروري
نبذة
مانعا
##يذه
ياج
ويصبح
ولدته
المساحة
الفوزان
شف
كفيه
امينا
ادمي
اجبار
المشيية
المدع
انكره
##اعي،
الغوث
الهمز
قسمت
##تياره
والعرض
وصفهم
النفا
الغربية،
##رقوا
الابراء
والاخلاص
فردا
للانت
تقليل
والطي
التشبه
انجيل
##يتة
اكسيد
زريق
والبع
ملكهم
الركاب
راو
وتامل
اسواق
متفاوت
نظرنا
المظالم
فون
الحليفة
القفال
القرم
الرجيم
دخولها
##ابير
العار
وقفة
##ابى
المعصوم
تنه
بارت
الاشتراكي
حاص
بحقوق
الشهري
والبخارى
واسعا
الخبر،
اختلافهم
وبكل
يسته
التخطيط
ظني
التونسي
الفيروس
##حيين
الحواس
للبحث
##رفته
##كتة
تتعرض
قتلته
القدوة
والحاوي
وعض
تستطع
المبتدعة
استخراج
المرد
بالشك
تغيب
قاتله
امرة
المهندس
##سرة
الفط
اتبعوا
طهمان
لادم
##ويك
واسد
الشهادات
اكذب
والقراءة
نعمته
صياغة
لاداء
##اع،
وسمعته
عسكري
الشاه
معتد
توم
الحرس
اللولو
شرار
الوثي
سلمه
يوص
##رافيا
مسيح
تغل
الكوفة،
##قدوا
ليك
اهتدى
##لاتهم
ملحق
##روبة
الرياضيات
مثاله
ينكرون
نصل
##روء
##صيته
خثيم
وتركت
نادرا
##وفون
الفقه،
فمضى
سهلة
المقاتل
وشرع
المتابعة
ستماية
التعجب
نافعا
عتب
للمجتمع
الكتب،
وخمسون
البشر،
مطابقته
جويرية
بعثة
وايد
قايله
قسط
اقبال
يستحيل
نجعل
التلا
حمض
نادرة
لحل
الاذاعة
فعرض
مرضى
ترو
ذريته
##زمت
والعي
بعدا
اعلم،
وحكاه
قيس،
يتردد
##رفها
المتحف
مات،
فحسن
الراشد
تتمثل
الثمانين
طلبوا
امثالها
قراب
التفرقة
هيل
ابالي
رشيدي
خضراء
متلازمة
##صارى،
دمت
وحاج
##ايين
بانشاء
فاسال
للبشر
الهمذ
صانع
والالف
الردي
ولات
موذن
متعلقا
##قاية
وافتى
الاشباه
عبدوس
النوادر
يكتبون
تسليمه
##ثن
##يتون
احداهن
فعمل
يقتلون
الملق
سبعماية
بارد
اهلها،
فري
فانشد
الخبث
فاتيته
الشافعى
رباع
عمك
بخي
العادي
فاجعل
ايكم
انتخاب
باكم
وبينكم
يقتله
الممن
الاسرى
وطرق
بهرام
الزيتون
تجارب
تبدل
تكملة
منكب
تسميته
الطعام،
##وشي
الفروق
الي،
الفعلية
التكذيب
البعيدة
زور
##ماتها
##لاله
افراده
الاعذار
الخصال
الغش
##كرا
علقت
وجمال
انكاره
موب
##افية،
المصي
##طعنا
وحبس
الصادرة
تفسيرا
رايك
الناتجة
لنب
القلا
نظري
الطلاق،
بيوتكم
ونظيره
قهر
المدير
الفقهي
الانفراد
لاثبات
كراه
الصندوق
الواهب
المقنع
الاثرية
تشغيل
الفسق
فعندما
مشروعة
العاد
ترس
التوفي
ثلاثا،
تربط
التقا
##هاره
والخز
نوعين
بروية
الثعلبي
ليق
فافهم
##طس
حنيفة،
بالي
يضمنه
ومنت
وتحدث
المرابحة
وحف
قلع
الاستراتيجية
الموالاة
تدرس
البشير
وليل
بدينه
الزاوية
##يعاد
طلبها
البث
اخبرك
كالبيع
عقلي
مومل
الافاضة
المرافق
الفاسي
خدمته
قتيلا
شريط
##ايتها
فالب
والضياء
##وفرة
##وريوس
فاحشة
مدنية
لضرورة
مخير
والمسلمون
يوتر
والاسود
اعينهم
تمرة
لارج
##فالات
##شيت
يناقض
انفقت
الضابط
شرقا
الابا
##مامها
يستند
لخص
وترد
الجا
والعربية
##كوت
الفيديو
##قتان
سمن
ظهير
المقاطعة
واعرض
تمتع
نجيح،
بحمل
محرك
محلة
البديع
بالحاء
المناهج
تنشا
وصى
صنعة
تعطيل
##قيان
الناظم
والجهل
لبسه
تحيط
مرات،
توقي
الادبي
والخلاصة
التكوين
##سا،
الكوفي،
يارسول
يمكنهم
بالحجارة
العمدة
##ياقوت
لبيت
##طانا
اعتمر
الباطنية
##يرو
اموت
لوح
جوايز
تثبيت
المركبات
الاغراض
بعبادة
الخاتمة
تناوله
الجنسين
بالسر
الباك
للهجرة
والتاء
والاستع
لماذا؟
اعتباره
هذه،
برايه
##طفي
السيادة
للحر
##اجد،
الاعتصام
العولمة
وبث
فعلته
اعبدوا
التصرفات
ويلك
المعمر
قود
##حمود
##وريات
الفريد
مجانا
مشهورا
ابوا
تحزن
طايرات
حارب
##نين،
بريت
العراقيين
بمساعدة
القوم،
اوهام
الفتيات
فصاح
التعصب
محفوظة
لخدمة
تعاني
الضبط
حاتم،
مواليد
سامي
منصوص
##لايه
##شطة
##اهيل
وكانا
روحي
خصم
الميدان
##كلما
ورايه
المصدق
الندم
معتمد
اهتم
واورده
الحيات
السريعة
المشكل
للعرب
الخبيثة
تبعهم
واضرب
القزويني
فتوح
القبيل
القيود
##المين
التايب
الغلاف
سيدها
لحقه
والشرط
بدءا
الدنمارك
الية
##همات
باسلوب
##يثار
اكراه
وتضم
ويسر
اشتري
الكرخي
البحتري
المجتهدين
بالمنا
لوج
##جرت
الحيلة
مشرف
صدقات
الجودة
عظيمة،
يمينك
سيدة
##خالفة
الغايط
تليها
ويحل
داني
يتلو
وضوءه
بالرجوع
البان
زايدا
فيقت
الكب
اعتراف
راق
حرير
عير
للمال
المنايا
فالى
##ونين
يورد
واللب
##ايت
كالث
مبيع
عنان
##ياي
بحج
الصغر
##وز،
رايا
يكفيك
الرياضة
صيف
##ودهم
والافضل
التواب
واعتمد
الساحر
##سرت
الثريا
لتعلم
الشواهد
##نية،
القاعد
علته
المدعو
وتعت
فرده
الماجستير
الاشتراكية
القبة
الفايق
بحل
مستد
تكبير
عنوة
الالزام
بطرق
نشره
بالشفعة
##شيه
ويسقط
عجرة
##برس
ايصال
واختيار
قاف
منك،
الطيار
ينصح
##افعة
الاجناس
الكوا
بعمله
نشاء
يبسط
خيال
كراع
الرها
يوفر
يخوض
واصاب
بتحريم
التنوخي
كيان
ساقطة
للامم
وتغير
تعبر
رفضت
شرايع
وزيرا
واداء
##ادف
فصي
الغرفة
محارم
للحسن
اعدايه
موضوعات
سيفا
نذرت
دواب
بنيسابور
ولعب
المعطوف
##عارات
ياتيك
الكاين
وافقت
ندع
التحديث
حجرة
واحر
وتحريم
كولوم
بالفاظ
الوافر
المستشرقين
النخيل
يخرجوا
##ابرات
رقية
الثلاثي
باحاديث
تناز
القيسي
##يلي،
استف
الرقة
الزه
الاصفر
بدمشق،
تنام
فلسفة
وفتحها
جيران
##ومهم
القرظي
بالباء
فيقتل
##فقون
اليمني
زوايد
كغير
يتد
تربي
وفعله
##كتبة
ذوو
##طارات
وكيع،
بنفسك
وحقوق
يسوق
التفاضل
##افير
##دينة،
الابوين
وزياد
يفلح
يدعوه
خلكان
ويحدث
وابنا
مجي
الوفد
والاقتصادية
مضطرب
السماوية
وتث
المعالجة
فبان
يسد
وتسعماية
لجا
وند
الموحدين
فبما
كونوا
اوتر
يعنون
وزنه
ابكي
ماز
به؛
لقتال
مالكه
المفردات
##هارته
باعها
غرايب
##قليد
الشنقيطي
التمام
وبطل
##اكنة
وامتنع
تلب
الارمن
الثقيلة
رفيق
تابوا
فتك
بثوب
تقتضيه
خرب
المتهم
وياكل
##ميس
الحضانة
الفارسية
بالنب
وحن
القول،
الذاريات
مضمومة
لولده
وشعر
عقر
الصابرين
مقرا
ستا
والغرب
الانثيين
الاستماع
الاشاعرة
بالصحة
البييية
يفكر
##طىء
صراحة
ناتي
والنجوم
ذكره،
حكمته
المنظر
##يكاييل
شرعت
القاه
الخلط
تلعب
خيانة
واعترض
##نعا
##اجيل
##نى،
بالرياض
طهرت
بثلث
شياطين
فللم
ولكنا
ضوابط
يصاب
الازمنة
الجاحظ
ادل
رطبا
يناد
الاصبع
المضادة
سطر
##لكوا
باقيا
جاهلية
مصدقا
افاض
المنفرد
تلقاء
بطعام
بالعذاب
نستعين
##هارا
##وهة
##هر،
الضخمة
الموث
خفف
المصن
واقتصر
السول،
غذا
##اجع
النفوذ
لاستخدام
الاغتسال
رباط
##وكي
الاشارات
موضوعا
فيحمل
يغشى
خلوا
ممكنا
المدنيين
السدوسي
سودة
الصحبة
اجنب
ترث
ويليام
بجر
##مايم
وبلا
وسالم
##اسلام
دمي
التامل
استبد
مزارع
ينبه
القدوم
اليابانية
تقط
ازواجا
الحزام
ضمنها
شارح
المزارعة
##طول
للتك
ينفخ
بقلم
الركوب
قضاة
اشتكى
المطاع
الاعلامية
القنوات
اشتملت
بالحكمة
الصفر
وحلق
##كييف
الحجج
خطير
الاستحسان
النيران
كادت
واليا
##جبار
نكح
وتستخدم
الحظر
باصل
الاشتقاق
المخلوقين
##ليص
##عارا
زنج
والمومنون
المستم
مونت
المحرك
##ذته
##مايهم
توضح
كباير
##فوف
خده
صدام
لوازم
معانيه
الفضايية
ثوابه
للايمان
وبالنسبة
الخ،
ستيف
##بيبة
عدوهم
بسورة
بوضوح
الطلق
والاصول
منكرة
والسياسية
##ولا،
اعتبرت
التثنية
دخلنا
المجتمع،
سوءا
اهدي
قاعة
نموذ
ومثلها
اياد
اركب
غطاء
ورفض
موعظة
واسكان
معطوفة
##ادق
كاره
ابق
وكتبت
الرايحة
توت
##ايث
تتوقف
الاستحباب
مفاتيح
##مارا
الاستيناف
سلطانه
##ذاكرة
الابي
الزيات
المعينة
##رايية
##ومان
حلو
وحميد
افيدونا
تري
وصر
بنفي
##زايم
يتقرب
برضا
لوجد
وعامة
جيب
الشايعة
تعليمه
فوض
لبد
##زاير
حربا
ورجح
البختري
وقواعد
متس
الوفيات
فيرى
فلور
خاليا
فرحا
معدود
تقديمه
الموظفين
الوقايع
للتد
صلاتك
اجراءات
واتبعوا
عليه؛
والمحدث
محصن
الجمار
حبذا
نعلمه
واخذه
سها
##قيدة
الاستقبال
لتصبح
للشيطان
تراض
للشيء
استخرج
الاوكر
بستان
فاهل
التبرع
البسملة
##ديه
يقاب
استس
بليل
المغير
##غيظ
بنعمة
للمك
مجتمعات
##وزون
تركنا
اصابها
##عبان
افتت
شعرها
فغسل
بالعبادة
الخضوع
عفوا
مودة
بالفارسية
الاحساس
تطورت
عرفها
البارد
المضمون
الاجيال
يفقد
كلمته
المرهون
##وقوا
بيته،
الكامنة
مجيد
رمت
##اتلهم
رجم
ولقوله
ونعيم
نفل
بتمامه
المخبر
الرفاعي
قبضة
واقعا
الثوري،
الذكاء
الابعاد
برزة
وعلماء
والتحقيق
##طاها
فكلم
المدثر
##نزه
فشي
##وعد
شملت
بالفر
السط
##وعود
تقوية
مدبر
الامنية
تعالوا
ورتب
والمعاصي
رين
##خون
لامته
سيطر
يدعوهم
ضياع
##يكم
ماجد
ريتشارد
الصخور
ثنايي
المستثنى
العايد
وهذان
وعامر
قدمها
العلامات
التهديد
وسام
تتمتع
سواك
خشبة
بالاعمال
والضلال
الحريق
وثانيها
##متنع
اشق
السجستاني
القلة
الشارب
رحمك
تبديل
##خوله
وناقة
الذيل
شين
قصب
قبولها
شخصيات
سرطان
تابعا
السرى
ودراسة
والدة
الحبر
الولاة
حظه
ووثقه
رون
##ونا،
مشيية
يزرع
مكتوبا
كمع
تفريط
الوثيقة
وريح
كليا
المتضمن
التاريخ،
مسيلمة
جذب
##جرا
##وعظ
المتوفي
يكتفي
فخرجوا
مخطوطة
##خلهم
خلفاء
كبي
وخارج
الشمايل
وعملا
صهي
المعص
جاري
ولابن
##وكول
طبعت
سوط
ضرا
المكرم
البضايع
المعجزات
والترمذى
والنور
باختيار
الوب
هين
للسيوطي
خفاف
شبة
يطير
البغدادي،
الغرق
عسل
باليوم
احسبه
شهادتهم
لانتفاء
مشكلات
عطاء،
السياس
بولندا
للعبادة
فناد
بعدهما
المعالم
اشرب
المقدمات
يلتمس
سديد
ادبار
قرضا
العارض
لايج
الذهلي
ترابا
للاي
##شها
السيرا
بالطبع
بذنب
والمسجد
واوضح
حدثا
القاطع
الكاذب
##لومات
بالرك
##قاومة
وارضاه
العمى
يطي
الممل
اخطر
راوه
ماخوذة
وادعية
وتمر
ويروي
##ادن
مملوكة
العبسي
وشمال
تهب
ومف
رسمي
يدرى
ومعهم
ماجور
اكف
##حده
والعامة
انطلقت
ووهب
يجامع
بدونه
بالبينة
فرجها
##اخرة
صادر
الفحم
كفن
الفلب
##يكية
نبانا
العشيرة
الجراحة
وموس
فحلف
يتعذر
ناقته
##ياخ
التور
ونظام
مرغ
وطالب
معروف،
الكليات
واقاموا
الاقال
والتسليم
بموضع
ساعدة
جدد
الفعل،
يقوي
خطا،
الرباني
بيدك
وهرب
اجساد
اضمار
المركبة
نيسان
ديك
ففى
بقليل
وتصل
##ذرات
اخوانهم
##اتك
##وفت
البلدية
ببط
فمش
المقصد
القدوس
حفظها
والهدى
##روحة
كمس
والخامس
بالصوم
الذكرى
انشيت
القطي
فقامت
وعلا،
بالشهادة
فيروز
ولعن
والمنت
ويات
ابره
والجمال
نوحا
حكيما
؟؟؟
لدعم
فيلزمه
تبيين
للتب
حكوم
مطم
وتبقى
المتص
المساء
واخلاق
حواشي
البور
تحي
التجا
ارايتم
الحاجات
غضبا
##خدمه
الكردي
بموا
الاحلام
وجدتم
##رزاق
المولفة
واستدرك
المشروعة
##يناك
سرور
مستقلا
والريح
سبحانه،
##سطين،
الاثني
نتاج
الممد
وينهى
بمثلها
البطي
قطرة
##عاء
معايير
متشابه
##جميل
دواد
الراج
وضاح
استغنى
،وال
مماليك
##رفي
بهامش
وتابعه
كرو
ركعتان
نفير
خبرة
وختم
##ادب
تحبون
الالقاب
النظريات
الحداثة
بحوالي
للاعت
تجلس
الوفا
الاحمد
القسط
يسكت
الرمح
الاطار
العباس،
القصار
يعا
خويلد
هاب
اوجد
##نتاج
تدريجيا
فالقى
تبدي
تطهير
ولوا
ادعت
القايلون
السفيه
الماضي،
القاص
للرب
فسق
بالاخرة
الالي
##ياطة
يتوصل
كرهت
تعامل
لقال
والجار
اقتضاه
تطل
وكي
المتحدث
الاسود،
واكثرهم
صادقة
واكد
اصلا،
##ريعته
الموجبة
المكتبات
ذمي
اندل
المستق
محدثة
معانيها
بالحم
اثبتت
مشروعا
المعتمدة
عقا
قتالا
والثواب
غالبية
بزوج
تفاعل
##خوا
البسي
تقدم،
جرحا
سهو
اتش
يذكرها
الراحمين
اقب
##طفال،
لطيفة
السحب
##ايلها
##وجها
المغل
عاف
والولايات
ينق
لوك
تقديرا
باطل،
موالي
##يناء
معارك
تموز
اغلق
للدفاع
الصباغ
لاك
البهيمة
انصاف
نايبه
جلسة
شهدا
##سيا
نفسية
بحجر
المكث
وبالرغم
جوع
##ذ،
اوى
##طعات
حفظت
الهلالي
الاسعار
فليكن
اعتذر
##وابت
واظن
الكوم
ونجد
اهو
الحاضرين
سواء،
الحموي
تولد
##نابل
البستان
تقارير
استعمالها
واهد
تهت
بالشراء
بالقص
الاستبراء
وخالفه
السويس
الناطق
##قصاء
البلد،
ويجري
هولندا
يملكها
بالاندلس
باجرة
صديقه
الزل
اجابت
والطريق
غافل
حيثما
اخراجها
قو
هال
ابشر
مستمرة
##لاحا
ابقاء
اوضاع
لكما
##ذع
الموجودات
تكفر
شديدا،
العصبة
##هملة
##ريمه
عتيبة
وللب
يتوكل
وعلل
مظلم
بالتن
ذكرناها
##نبول
الكميت
والمام
يغطي
والجبال
وقبله
البوص
ثنية
تكلموا
ووافق
لرسوله
##ديرات
معدن
بالظاهر
النهج
حياته،
وعرضه
لبعضهم
ثلثي
فاشترى
##ليته
يتقون
المتخصص
الحماني
بايعه
رعيته
فته
ووصفه
يكفرون
صوا
الغزاة
العقل،
مخالفته
##ياسي
##ايبة
موجبا
تستمر
يتحدثون
##نبور
اثقل
الضخم
تدفق
الدارين
##تنام
شربه
ووجب
##حج
الربط
##وفتين
##روسيا
اذربيجان
العايل
رستم
غرا
كمر
السمس
يجتهد
المجروح
لقيته
تبي
المماثلة
##هم؛
اشرنا
كنف
لرفع
سيدا
مهت
اجناس
يسي
والاقرب
الافرنج
الموضوعة
الاتفاقية
النمس
اشارت
الامتح
النصيب
بحاله
حسبي
الراهب
وقبول
معذ
البوم
تتابع
الذهبية
كاتبا
تحا
قدوة
السليمة
المفقود
هارون،
لعدد
متف
الاماني
وصورة
ذباب
المليح
الزاهرة
المواريث
والرف
للصايم
قاصدا
بركات
تربة
تهمة
خصي
لايق
بالاه
##اييات
دارت
اشتر
بطاقة
لوقوع
التكملة
فالاصل
لولو
##طلاع
الاوت
المستعير
اثارها
##رابطة
مسجده
##قيط
اجلا
المناصب
مجلسا
الاكثرين
مخطوطات
المبيت
الاغر
يسري
الحجرة
الاقناع
يندب
طوعا
عوده
اسعار
##راب،
بسيف
نظمه
التلفزيون
السختياني
##ءون
شاطي
مرداس
الاودي
لانني
رايكم
موسيقى
##لقون
والاثر
لجعل
دولية
##ناقشة
للمشركين
##هاهم
وجنوب
باطنا
يقض
متخ
اتباعا
بخراسان
نهض
الزجر
ليصل
وثالثها
لنف
اقارب
المسيول
فطرة
فراه
ويفت
يتكرر
ورسم
ينفعهم
وسج
الجمعيات
التقرب
وابناء
يضيف
للرك
##حتي
ونعوذ
والسلطان
وتاتي
بالتوحيد
برلين
التمكن
هت
زياد،
قلما
غلظ
معذور
الدموع
يخير
للشمس
تدخلوا
تله
وقلوب
الجهال
البرازيل
تشارك
وطيب
حضره
##سس
##نط
اللحظة
لعلمه
قضاعة
توسيع
فليم
##بدوا
المبكرة
مهج
بفاتحة
المسافرين
##بيته
الثغر
##وبها
باسباب
السايلة
الاصوليين
جذور
التوازن
الصواف
بقط
شرطة
جنادة
جزييا
الصغاني
وعمار
ذاتية
المزار
التمليك
الاوعية
الحضارات
السامي
##صميم
عشت
اخبرهم
نفلا
التركم
والثقافة
للمرء
اسلحة
سعدا
الحسني
لود
##غين
##نفية
تسوية
والنقل
الشريكين
وتفرق
سمعا
المذهب،
الانبياء،
الطايفتين
##صاله
فوقعت
التشديد
اسيرا
اون
معامل
بدوره
القلوب،
مسرحية
الفروض
يعامل
فرغت
ومولده
وفاطمة
يامرهم
لمرض
بزي
للماء
ويشرب
الارتباط
فرانسيس
##بتان
معتبرة
معظمها
يفيده
خيرون
ويشير
واعلن
والبعض
##رجت
تقص
قلبه،
الشرع،
شبرمة
جدعان
كير
يطيع
يتلقى
ديون
نومه
المطار
الفا،
ولق
للتص
وجدها
سالني
امواله
كاع
كنوز
اعتقاده
كبرت
والدع
اوجبه
وتجب
تاخذه
الخطايا
اعدل
اولادها
بالزيادة
نعي
الشيء،
تلميذ
الادم
##وكالة
والصلة
وافع
##انيته
وغل
الروذب
الوه
المخلصين
بخت
ضرورية
استراتيجية
واقرا
المهاجرون
ذاهب
بنون
الساعات
الكيفية
مبتدع
فمد
كط
فيروس
المطه
قتالهم
تضمنه
المذي
ادرى
غب
السرح
ارحام
سرب
للخير
ويتع
غفرت
الاطعام
الحاف
حققت
فساده
عجوز
##ظان
يومها
المضطر
نشرها
مقصوده
القضاء،
##حاء
والرضا
فانتم
والنظ
يقدرون
بخر
انهى
فصر
##شوع
انبت
بالبد
وضمن
بالانت
تشخيص
والبغضاء
خاس
ادهم
داوود
وساء
حضرموت
وحول
فكسر
لعبت
لقوة
لدينه
همدان
فكون
بالتعاون
وتمام
قلبا
تشبيها
تاريخها
خاب
##وسيقي
طبعه
ببع
خازم
##باشرة
ونهب
بجير
بالسماع
التقارير
يعلو
شدد
##رايين
يثرب
مارت
همة
الفزع
##عرية
طبية
والربيع
مخلصا
جانبا
مطي
البذر
المقربين
احتياطا
فخل
الحطب
فادرك
افتح
بله
التواتر
غيرهم،
اللذة
اشترك
الواقع،
فيعلم
الساعي
رطل
وقولوا
العير
وتقدير
##يفة،
ييس
وتحد
تبادل
زمنا
وانتهت
##جبا
##ثان
الجايز
فاثبت
والنشر
##مز
يجاهد
##رابعة
##المة
وبشكل
##والها
والشكر
فصلا
تيقن
طبر
مدته
التزويج
لوضع
##قتك
بمذهب
تنته
منعك
مولفه
##سكي
ويدعون
بمصر،
##ديل
القديمة،
المبتدع
عريض
صاحبك
التحية
مقداره
غفورا
استدرك
بريط
الممالك
##بيون
##ليو
الباحثون
فتست
يشترك
الاختصار
وسق
الكتلة
شرور
السلبية
وتوجيه
بالمثل
وادرك
زعمت
الاستيذان
بدلالة
بنشر
الطا
يستعين
نعمل
باهله
النبا
وحمد
القدسي
بالبناء
حيضها
واستولى
خلون
الباردة
اذهبوا
بخروج
واوص
المعاص
الحسب
عياله
اكتساب
ثانيه
تنمو
بى
الخانية
يزالون
اساله
المجني
تشترط
والسنن
##واتيم
مستقيما
طريقين
فباي
ابتاع
فند
الصدا
تقصر
تمرا
فاستع
زيادته
يرع
##وموا
##خاير
انقطعت
موضعين
نزهة
عيال
طفلا
القيوم
عبادات
رايي
فضول
فاخذها
والزوج
##برج
ينجس
##ثها
تعاليم
دخله
الدبلوما
الهب
##رعات
طريقها
فحين
امثالهم
##عتان
شمالي
الحاسوب
كليهما
لحا
سمعان
يهدف
تاجر
الهمة
الفوارس
الرص
اقتداء
الكفر،
والاكرام
والصدق
اميل
السماك
صاب
فيف
وتصح
افمن
الكبرى،
مايكل
تعيينه
المصد
يقيمون
معا،
##ذوب
##لايا
يتيسر
ينع
حلقه
حمدا
لغو
اقصد
المخاطر
امثاله
المتون
##طيين
مشتركا
مناص
غيركم
وبعضه
عندهم،
تدعم
كاتبه
خارجية
الروذباري
الخفاف
##كتات
لعنه
اللتين
المستقلة
والنكاح
زوجها،
الشريعة،
جانبي
يابى
صوابا
التزا
بالمكان
انهيار
##قاها
##وريين
المزكي
##ضاد
المغربية
العملي
بمكة،
واريد
الماد
ادام
والدته
الجدد
نشهد
شوبري
منخفضة
الكوثر
##اريو
المستهلك
المعدن
والجامع
الارجح
الاصدار
التيسير
التجديد
نسك
وللحديث
بظلم
فالحكم
مبشر
الصالح،
جرحه
واحل
##كرمه
##سبين
فاجر
مطابقة
تذك
##وتو
الفهرسة
المقارنة
زوجه
شتم
النماذج
##فايه
هدبة
سيتم
سلما
بحقه
القرافي
غيبته
المرحوم
لنا،
للجنة
##دهم
للنف
تزايد
الفصح
الطوال
الابدان
غربت
البشرة
##عاها
انباء
الغرور
معاص
الصبغ
ركوع
سليمة
واثناء
وازالة
تصر
احاد
##طرون
والاخرة،
حينا
التلبية
##زمين
العبادة،
زهد
##بيخ
والسين
واعراض
بدر،
التصدق
##كوك
والره
وافاد
عاقلة
استهلاك
ظواهر
##وزير
منتجات
والمحبة
صصص
فنع
منفع
وبدون
##بيكم
جابر،
رصد
المولفات
فاث
يتيمم
ترعى
وسنده
البضاعة
جعلهم
تكلمت
شبابة
اسمعيل
##صنة
الغلة
بتسليم
الضب
##لاعه
الاسلاميين
##ثية
يتمنى
##حتك
تاسع
وضي
وجامع
استقال
المسالة،
ويلت
نشاة
النواحي
رماه
شابه
الاعين
يعلن
الجوهرى
ثدي
الامع
تجيء
للشخص
تمارس
##زل،
رموز
##حادية
ويضم
والمشتري
معينة،
المراتب
لافت
للولايات
المتصلة
النكاح،
عاهد
غاد
ذكرتم
##فاخر
اثباته
حزنا
المشاركين
##حميل
دحيم
##وفين
وغضب
هايلة
الحجة،
عجيبة
تذكرون
ينكره
الاقليمية
وحيا
مظلمة
فوجدته
ضال
الكفاءة
##رج،
المحصنات
المبطل
اجتناب
الموقعين
وبص
جموع
##طاير
انفصل
حضرته
ظلمه
بقيد
القايمين
وضب
##قيقته
التنوين
كالصلاة
اللواتي
لعا
السابقة،
فوث
فديك
وترج
تذبح
الاسبان
نصرانيا
المروءة
النحويين
واطلاق
وزوجها
نجاحا
ذها
واسل
الديات
ملكي
نفيل
للجيش
كافيا
التشريعية
بفتحتين
خيف
سداد
الادع
وفقد
الجزييات
وسلموا
الضحك
وينه
الموجر
وكلامه
##ذهبه
تنال
تفوق
المخاط
اسمعه
استاج
بالخبر
الجذع
ويراد
مورد
والخيل
قصدت
الافتاء
التمار
وسعة
والسيد
مبكر
فاعجب
حرمته
واحتساب
ابنتي
يتزوجها
وبحلول
والافعال
لقيام
حفظا
غزوان
بالصدق
تبليغ
ترجعون
الدواير
ينفك
وشرف
بذكره
جبهته
الكناية
قتلى
##هن،
##وقراط
يفيض
ويفرق
##لقاه
تتقون
والجنة
المحبوب
هيثم
منصرف
الشاهدين
اتحد
خلقه،
للقتال
العضوية
والرجال
يلزمها
الموثر
بوب
فسيل
القابلة
وانشا
نسالك
دعوتهم
الشرك،
الفرنسيين
قط،
الروساء
صفرة
رسال
الشعرية
ارجاء
التراجم
مواهب
قاتلوا
فضيلته
الكهربايي
والاكل
رايتك
تخلق
##لفون
عامدا
تره
حولا
باض
ترتي
الثقيل
جوزيف
واليد
اخلف
احلف
رياء
فحق
كاهل
المهنية
شروح
والحرب
جزى
##حاس
امساك
التشغيل
الهذيل
المخالفين
للمبالغة
واسمع
##صرهم
والمعد
امران
يشكو
مصنفات
تبحث
بقص
للعلوم
مذكر
والجزاء
جرير،
متاعا
##طباعة
مقات
يغر
خطرا
ضمت
اختراع
##يكة،
يزور
انكروا
اولهما
يرجون
وافض
##فلون
الجهاد،
واليت
اخطات
يعقب
موصول
اذار
والحالة
ذالك
صاحبه،
تايم
انفسهم،
عور
مفض
العلية
الدار،
انقلاب
ترع
غط
##كيت
اعطيته
الجماعي
التعدد
المجن
##تلر
ارضى
التدليس
وعروة
الوغى
##لافه
يثني
قرق
##ساطة
وجهت
مكا
فاتخذ
تضعيف
المفسدة
ومعا
وارثه
بشرى
الصوتية
بصور
سوي
##بني
والتوحيد
المبكر
المصرية،
##ارثة
فحصل
جدول
##داح
الصحوة
فارس،
الشجاعة
بالنكاح
وشكر
وحاصل
فضاء
المتعاقد
عقار
ببغداد،
مباركا
بقرينة
الاطلسي
كيميا
هبت
اعود
##خلية
انتفاع
والنصب
تكف
نواة
##رويه
فالغ
نحب
طلحة،
##بهن
وصدر
متعدد
##نر
##ازف
الهامش
##زدلفة
اقتضاء
اصابك
المسوولية
الخوار
الخلود
##كبرون
موف
الكافية
الظهير
اغار
ودعوة
لنفسه،
شهادات
وبالاصل
الزعفراني
حدثهم
ناجية
تهامة
مكره
حاضرة
الشخصي
كوب
تريدون
للمسجد
والثلاثون
والها
بالدعوة
والحزن
كلامي
اتيته
يظلمون
اندر
بالفت
وكشاف
##ضعفين
بمرو
غلة
وبري
والتوبة
المواقيت
الابتلاء
فيط
وازد
القراين
البوسنة
الحشرات
الهموم
حاجي
باحدهما
مغلطاي
كفت
تنبيها
للقوات
وحبيب
ادعيةطباعة
يسالونك
الروياني
ديته
ارتحل
الميس
تتناول
البيع،
للكفار
الموب
الصنعة
كتابه،
فليص
ويرضى
والعباس
واولاده
##ندقة
تقريبا،
بالنذر
الحاضرة
اراض
المجلات
موسوعة
المناعة
بافضل
##شور
فانطلقت
خفاء
يزني
##عمهم
بدو
الافات
شبل
الثيب
بيقين
محلية
الحجامة
الارز
والرقايق
البسيطة
ونصه
لعثمان
للحال
الفيض
بطر
##قس
الكيمياء
وسطا
بكف
تشرب
مسندا
الملام
##علن
ويتب
ونن
لبنا
##زلوا
للمض
فرات
الخطوة
ويلزمه
الابدال
فلذا
مغفل
يوافقه
##ذذ
الساجي
واستطاع
الفضل،
والغضب
وعمله
الهمذاني
وعهد
تكفل
هممت
الشهرة
فروخ
احسانا
الدير
##لاميذ
يحذف
فالد
نقف
يباشر
مصاد
معلما
علاوة
الابل،
ومعجم
السجدتين
اخرا
المتوسطة
اللول
عادات
ادن
الفارق
المنجم
##ذلل
##غرس
زاذان
يوم،
ولكنني
بحقيقة
للاشارة
اخوات
يتاثر
الحجري
المعترض
بوق
الحزم
يوثق
تنوع
الجاهلي
##فنا
والاظهر
نوادر
حقيقتها
اديب
##سبق
باسانيد
مخطط
حمرة
بالسجود
##علك
يقولها
التوصل
الهنود
والمنكر
يكرهه
بعضا،
هواء
مني،
موط
##باطا
المسالك
اللذات
نسيان
ريع
مخاض
والكبير
المهت
قصايد
يكرهون
جاهد
##حنة
بكلمات
غطفان
وانطلق
المعني
شقي
راوي
صفراء
الازهار
الاكثار
مفسد
يرعى
##سلها
باللام
المعلمين
بمص
سيلت
حزيران
خلص
الدراسية
همز
لدخول
مفاهيم
ايلول
وذك
الحز
واوصى
وكانها
اثنتان
بشهر
الوقاية
محرم،
العلق
السنتهم
ولكننا
حسناته
المختلفة،
لعبده
خاي
الميا
لشركة
خسارة
الاصفهاني
امرىء
يتقبل
##وبون
مصلى
علينا،
واذكروا
لوال
ركاب
تدعي
اجازه
شيوخنا
ابيح
السياحة
سجدا
الضرورية
دليله
الغدر
وقتله
صنعه
يترب
##يمي،
الدلال
وكبير
اهمله
تعريفه
##افها
الجماعية
اوحينا
انية
صرحوا
مصباح
##ثرا
لاخت
حسبنا
والمسالة
هنييا
جوي
العداء
بعثنا
ونادى
الدراوردي
قرع
اوغ
##ديات
انتفى
يردها
##وراة
ودوا
يمكننا
الجمر
وبايع
##باس
فالاق
التعذيب
مخلوقة
بالشعر
لقط
الشريط
وصنع
المستعمل
تجهيز
بوسا
ابدل
خراب
التوالي
وجرت
الاجهاض
الاحرف
بالجمع
##قايق
العرا
تتوفر
تسبيح
بنفسي
##كول
الخمر،
دمر
والرجوع
##نابة
بحضور
علم،
يطلبه
##راضا
وقيمة
القصب
ثقي
ليظهر
واحضر
ظهوره
ينبغى
الاحقاف
فمس
يعادل
##حتكم
وطنه
وستة
اللبناني
بدينار
السياسات
والمقت
وطريقة
يزن
وفقك
والحل
غرار
والشه
يثاب
##ورو
الدجاج
فوافق
الوضعية
المسوولين
##وسي،
بدراسة
واعلى
وعندهما
ويحسن
عتي
وردا
بريرة
والاجتهاد
الكيس
حمي
صبغ
بعص
كاشف
##والديه
##راقه
عمق
اعملوا
فيذهب
بعيب
مبالغ
بالجامع
##اريف
قبل،
خصلة
لباب
لانشاء
ملعب
حفرة
وعرفت
كردي
تفقد
نقصت
ويقضي
جحيفة
العون
المرش
وافعال
الرط
ابوابها
وانف
اسمي
ومقتضى
حرز
ويشبه
يحرص
ضار
وبيس
يرس
وسافر
الديلمى
ضاح
فرف
##كررة
وميزان
رايهم
القدر،
لجل
الكيان
وحما
بدقة
##باز
وسعى
واستخلف
##ظما
##وراني
##روش
مهاج
المظهر
الاحاطة
فجلست
واغت
وحز
خلفها
الصادقة
للرد
احداها
تهديد
يرشد
نصره
فامن
اشارات
جليلة
المخابرات
الاقاليم
يديها
الفتح،
بحديثه
بسلام
عزاه
تسافر
##ميل
التنفي
فسلمت
واوجب
تعميم
ومنعه
تنح
والحجة
ملجا
الانباء
ليدخل
ا،
بولي
عمى
ذاكر
الهض
##فنون
واعتقاد
ناقصة
فبد
مسموع
فكذب
اناسا
السمان
هاي
##سيل
تخلص
##رايه
##حنث
مقابر
الدورقي
طوى
استبدال
بدعوة
خطيبا
فاخر
اقاربه
شكلت
المعتبرة
المارك
زعماء
لدا
يذم
باتت
البز
لوجب
النقاب
للتفسير
صان
الداني
سترة
واخلاص
الحنظ
وصبر
حادي
متحرك
عشيرة
للعين
متفرق
تصب
تمنى
وبينما
مصف
والرو
اصحابك
ذبحه
جغ
دبي
والامن
مقيدا
الاخلاقية
اعادته
ضاب
الامدي
واقوال
الحريري
تعقلون
وشريك
فرش
فتزوج
شعي
مجهولة
وخوف
بمبلغ
البروج
الاستخبارات
بذن
تلميذه
مراك
واخيه
بالقيام
مذب
الانطا
الصفحات
سمة
والاذن
البحيرة
صلاتكم
للتش
عورته
معبود
ايماء
اكتفى
الاشراك
يلقب
اعتمده
الدرب
هو؟
الالفية
افة
ويث
اقطاع
يهتدي
وطبق
وساعد
ونوى
والانق
فملك
التصانيف
جذع
ففرق
يهي
الايم
واسراييل
اغلاق
نظاير
تطمين
قصيدته
وطنية
##ثهم
وادم
فلحق
الدمشقي،
اوف
نثر
بالوضع
وبقوله
باسلام
وضوح
تكمل
وصلي
يطعن
##موه
##غد
بالعود
الثقل
طيلة
##وافر
##جي،
المعايير
سحابة
الاوليين
##تقوا
والرسل
##يديا
وقضي
اشعة
انهاء
المقتدر
لارت
بفرض
العتاب
الاردنية
متش
##مسة
العجوز
بمل
تحط
ودخول
والبناء
##نتا
تكسر
فوجده
تمي
##ميت
الفهري
موجبة
النواة
للنب
##بتنا
يخط
عبدالرزاق
برياسة
وواجب
السوفييتي
وزهير
وثابت
بناها
طويلة،
##مل،
اعلاها
يوحي
زمنه
العجيب
كاث
هولاء،
الكمبيوتر
عسكره
يشرح
وانني
والله،
مرضا
رشدين
اكملت
واخوان
للدار
دراس
بالحد
##ومون
الضالة
المواجهة
والمنسوخ
فيحتاج
تعهد
وجواز
باصبهان
شات
والوقوف
##يروز
بالابت
فتش
يفرح
الصوري
وتحديد
تتفق
اقواله
الدلو
تتصل
والراجح
المنتظر
لعلى
بظهور
صداقها
##ديا
استثمار
نيوز
لملك
والمومنين
##دهور
وماجوج
مجيب
نازل
تشرك
الانصار،
الاكسجين
صبروا
الممر
لاية
فهزم
والميزان
مرادا
لثبوت
والشجر
بالاسم
بالشيخ
الرفض
ومجال
بيضة
الشيخ،
وددت
يصليها
الصلبة
يبارك
وبالف
اللغة،
البارحة
خفتم
ظلام
تمث
بلفظه
ويشمل
شرعا،
بروح
المفترض
مختلفا
##ساتين
قيده
العقا
تفرض
لتقديم
جهينة
ومقد
##اليون
##صدقاء
يتلى
فحسب،
##وافل
النكرة
##حيق
الانفصال
##ضمض
شرايط
الاعمال،
فسادا
شبرا
النمسا
الضامن
وري
الخوض
اقواما
نسبا
تنقض
والنبات
التغيرات
الهدايا
والعجب
##اشع
فمال
قراءتها
دفنه
مفصلا
اللاحقة
الاستفتاء
اعدت
يودى
حسا
##ياحة
انتقاد
رابط
المبتاع
##ضيحة
بالاشارة
للملايكة
زان
عيدا
مزي
وامس
معسرا
الاحتراز
الخلد
##فح
والخطا
الارباح
بفضله
ردة
سمرقند
معسكر
البطل
للخروج
المصابيح
##وجبه
وسبعة
يسرع
##ورثته
الرجس
مقصودا
مجددا
الترمذي،
غذاء
الاماء
التداوي
مقياس
##شاكل
وثان
ويسجد
حتما
##قري
معجز
والحجر
الجامعية
مجهولا
##ظمات
اعياد
بعثك
غضبان
المحدود
المسرحية
فيليب
فهرب
المنادي
لبست
الواحد،
التشيع
##قالات
الاغذية
ياخذوا
الكاشف
صاف
اهالي
المكسيك
خالفوا
يشتد
الوعظ
##مرون
للمعت
عايدا
سمك
يندفع
الغليظ
ومحبة
الجزايرية
المستنصر
وغفر
فارجو
وربيعة
دنياه
طلاقه
والهر
الداري
واحكم
اخيها
##ماخ
قلد
قلناه
بقبول
المعيشة
قرنا
##موذج
وجوابه
اعجاب
##والى
وترتيب
الناصري
اسمك
عذابه
استوفى
رابعة
الزعيم
موسرا
متقارب
يرمون
الاضاحي
وجرير
اشكو
لته
دعاني
منتج
والاتحاد
فيحصل
منسوخة
اقامت
التكلم
للدعوة
لموت
وكيله
للمسي
التنصير
جاووا
صنم
قاذ
الرضي
ارضعت
واجتناب
اظفار
مدي
المخصص
اعرابيا
مستقبلا
تركز
الطر
اقاتل
المستشار
البقية
تعلمه
شارب
منير
فسمي
##نجس
المعجزة
الواحدي
جحر
مفارقة
##ارقة
لمذهب
ويقل
الخصوم
##ذق
افترى
عقلية
يلجا
اجرهم
منخفض
بالوجه
كالان
رسمها
بنظر
للفظ
وجوهكم
ونظير
صاغ
##بيهات
الخرق
وبغير
جديد،
##رقية
المنطقة،
خولة
يعول
عامة،
لبقاء
لفقد
بولاق
غابت
الهوا
يبط
البرك
وميتين
عاجل
ووقعت
طابع
##لندية
##ذبة
خالدون
فاخذوا
موجلا
يتساء
تقنيات
مكان،
الجرمي
القرارات
##اوف
##الية،
منامه
العقدي
والمصنف
##ضمون
التبشير
امية،
جدته
السامية
عشاء
متبا
وبهذه
لخلق
سادسا
الدف
لسانك
بوج
طوق
##زعوا
مروي
باموال
الصقر
باينا
##رايح
وتعمل
نتحدث
المرادي
اهتماما
الوت
المتك
ينتشر
وتركوا
الطابع
المعروفين
فادعى
انتخب
خالي
حسد
عينيك
عكرمة،
التلفزي
التوزيع
للفعل
وترب
وجر
يعظ
كلامك
اخرجاه
لرد
##ينو
فمسح
##راية
وتفصيل
##قاوة
سكنت
لاهلها
ساحر
##ضيت
##حمي
رجعة
متنه
##عاذ
صاحبنا
الساج
الحالين
والفرس
نسايهم
والبراء
غايته
وتاخير
ولهما
فرجه
الاختلافات
جرج
شايعة
السبا
فاصل
الانتباه
الغزي
متبر
رايتها
فاذهب
والمومن
واجماع
وينقص
وواحد
بعموم
تعطى
لتخ
فعلوه
وانش
يتراوح
جنون
سكة
##غوت
افادة
والمجنون
كهيية
المثقف
صدوقا
غراب
بالادلة
الطعم
المذنب
للعلامة
ظهرها
حواء
فغلب
التلفاز
الجحد
قوايم
##غها
والرض
الدقة
##شيق
كندة
مباحة
قليلا،
##وامر
استحسانا
التنفيذي
درة
فالمع
منته
الخدم
اخبرته
مضرة
بالخلافة
السكك
واطعم
السفل
اوصي
ليعمل
الشاي
وموت
تمثال
الاكراد
##سران
اختر
وبحث
ممدود
فبه
وابقى
جعلناه
الدعاء،
حقوقهم
يثق
مخصص
حسرة
شبهات
التونس
بدعا
ستره
زعمه
تصانيف
الخاسرين
العدو،
بعذر
استواء
يمشون
حاكما
تحذير
المعري
ورعا
واجبات
العمود
باحث
انفقوا
اعطاها
يما
للبلاد
الاصولية
يرضي
الاسطول
الخفيفة
يرمى
الغطاء
وتجد
اموات
مذموم
هون
##روت
ونك
##طالبة
فاكت
نبوته
الشامية
الموحد
سهلا
سباق
يستمع
وشهادة
##صيبة
المرتضى
لقيط
تكلفة
الافك
المثلي
تمكنت
العثمانيين
المنسوب
مغم
منهما،
ذروة
الكاهن
المصارف
طاهرة
فلقيت
قسمان
الهييات
قضت
ومنصور
يرخص
مدريد
ضحايا
عراق
واسباب
الاستطاعة
الاميركية
مسيول
يستدعي
تدارك
للقرية
والتنا
بمقت
##واهي
بالحياة
قتلها
منصبه
بالوحي
##شتاين
يحلق
وانقطع
ليسا
اسلم،
للورثة
المعاف
احجار
الاستيفاء
كالط
سكنى
لحر
نظر،
انشات
##قاظ
تستر
بالجيم
فكلوا
كفارا
ممس
العذب
فقيه،
##سامة
##ذاة
رجس
تنمية
##قرن
اغا
يدخلوا
ففت
امه،
باشر
واستخ
بجزء
الديباج
المرسلة
التسلسل
بحوث
جيء
والامت
اعمالها
منزلته
وضمها
تتحول
فعالة
الاقلام
للدنيا
لقت
ولاي
مرتبط
السرة
يعدون
بصرى
المطي
وتعا
متقد
الغيظ
##وليا
##وحد
والقي
يجعلنا
برحمته
هتلر
اختل
حجر،
الهند،
والاقتصاد
مدرس
قتلوه
جبراييل
ولدك
##فاعلات
الالبوم
اباد
الحرك
ربيعة،
وقوعها
الرشوة
محظور
والطيب
الاغلبية
الادميين
ويجاب
ينظم
##رعوا
والاستن
تحص
سمعها
وسلطان
المحراب
اطلاع
مقدمته
##غاث
##مانا
ورغب
الليبرالية
بذنوب
بلوغه
الاتقان
رشا
##عجل
ومشى
اجمال
لجماعة
عصابة
المرجية
هيا
وجا
عمامة
فراجعه
انقاذ
ويضمن
والطير
##ماض
الخاف
ظنوا
تروي
حله
مقيدة
للعهد
##ريخ
معاملات
لبنها
غضون
بفل
شافع
كلكم
العشق
بيعت
لتغ
المروذي
حظا
##بات،
المثلية
تسن
واللي
##اجاة
بالتمر
تاليفه
القتال،
الاكليل
عفيف
لشي
بالشرع
وتتم
ليز
##سلسل
وصاحبه
##فارس
الاقالة
هاما
الخميني
التوفيق،
خيرة
تنشر
ليحصل
##شفة
النبت
وعت
الامد
للتن
نتكلم
البيتين
يصور
بنظام
اعانة
عليما
تقارب
يطرد
الربيع،
لعظم
البقعة
وحديثا
افضى
انقضى
##كبيرة
الاستشراق
طوي
##لاحي
الاولم
لضمان
الحاد
الحقد
العلمية،
##شاور
ينحر
الاخطل
المعتضد
##غيت
والترا
والترهيب
اغنياء
وضعوا
للجمهور
التفاصيل
قبضها
تبل
ذهل
الغيوب
والكف
المشهورين
بالطعام
شامة
تحس
انبيايهم
##سة،
اخرت
##ايها،
جزيل
ازاره
للثاني
لمنا
وتصد
فالز
المحور
والشاهد
بالعم
ويودي
فحفظ
الظهر،
والاشارة
استعمله
##حاها
توص
لقصد
الخزانة
انماط
قدروا
لسنا
والمعتزلة
جريان
انخفض
التغي
ايار
##هاجرين
##ابية
المدار
المشددة
خبث
قحطان
منب
نفرا
جزييات
فني
##اريين
المستمع
شعرة
البرلم
والطرق
ياجوج
هديا
السفلي
مفلح
لمواجهة
جريح
انطاكية
ينفسخ
الجوزاء
تجعلوا
المسلح
بشخص
فمنع
وهاجر
اوكر
كتابك
تسجد
##وثي
فامرهم
الجاهلين
مادام
نابل
احساس
والقصر
وانزلنا
الادعاء
واشترط
الرووس
علمك
##ضاض
مواز
تتبعوا
عده
الدرج
محطات
ومواضع
ففعلت
محتاجا
افا
رقيقة
الفك
اشباه
عميق
اولى،
الانسجة
الفاظه
وبالاضافة
الكي
كالاج
انتصر
وللع
الرمادي
يتصف
فتخ
الفتاح
للتعليم
مذهبنا
بالدنيا
محور
سيء
نبذ
السهيلي
فصدق
السباق
ناش
يلونهم
حاجتك
##روسية
##عد،
كلبا
بسام
متناه
مويد
والعافية
الفاجر
ونزلت
بالانسان
فالمس
جنازته
توسط
المقطوع
ملحوظ
والكرم
العهود
بالسل
وكتابه
المناسبات
رقة
ميسر
الحمير
باقرار
كيت
يقبضه
لنت
يهاجر
امال
صدقا
تناسب
القصايد
##ليوبي
##فعها
اشبيل
تخدم
بكتابة
الاستعمارية
فيص
##جهز
للجهاد
الممارسة
مبحث
والكاف
مطاع
فيثبت
##يهني
وسوال
اقناع
سليما
وسعها
المشبه
الخاصة،
وثمانون
##مارسة
لاغراض
يفعلوا
لغيرهم
الغرب،
اعناقهم
شانهم
والاخرين
وشروط
حيدر
منتق
التوس
وبحمد
والتغ
فعلنا
يغفل
خصص
اوقف
##روون
رجعنا
التنازع
قحط
امثل
يعرفوا
لفهم
وحجاج
اجداد
معاوضة
الديانات
الكثير،
يقلل
ذبايح
حقه،
نافذ
##تنبوا
الاقبال
الحمرة
والتعاون
شعاع
الحاكمة
يحصى
مماثل
مستانف
تدر
##زاه
يبول
المحدد
هوية
فتل
بالبينات
اكثره
ويعطي
وخمسماية،
طريقته
الخلقة
شجاعا
سياسيا
ترسل
ضيا
لظاهر
وزم
اللحن
القرينة
مضمر
الارثوذكسية
والجر
##مانة
رحله
ارف
##برق
تجعله
بالتراب
حيل
يستخرج
##صاير
الكفار،
حاصله
الميكاني
باستعمال
العجايب
وداع
ترحم
الجدول
هدفا
دس
مراس
تعقب
تمكين
والنحو
يفترض
فلسطين،
حماد،
بنته
البتر
عزا
قومه،
يخدع
بناته
##قدمه
باكل
##وذة
تيس
ماشيا
ينفر
النسوة
نقرا
عادوا
لامكان
الاهواز
بارسال
وخت
الفتيا
نواب
شوق
بالتم
وجيه
بغرض
المهمات
##لفى
يبس
يكتم
عودته
منزه
ثمانون
الوسا
ندبا
المحددة
عورات
الاملاك
محاضرة
لمجلس
عوف،
وتطوير
##بعاث
مباد
يقتص
الفيزياء
حديثي
التسجيل
لتف
وانعم
للجماعة
المكلفين
شفا
وقايع
##وبية،
اتسع
النصرة
##ورن
للموا
##ضرته
صلبه
ارسلان
جيشه
واحكامه
اخوتي
الثروة
##ساعد
تتالف
يرتكب
واقفا
##سوم
والميسر
عاشر
الازمان
البنين
ابايه
المسبوق
والعديد
غمر
ويده
استمع
تغلي
المفيدة
##علمون
بحا
نجده
وكاتب
شانك
انحراف
باري
##لاتها
السقاء
تنتمي
بسطام
##ضج
بغتة
سويس
كلمه
##ضيض
نبيك
موقت
##صموا
نايما
بك،
الاحجار
تشركوا
تخي
والارض،
بولس
بالطاعة
دونك
##ودوا
استنادا
اقرع
يستاذن
##نعيم
مخاطب
المعنيين
روايتين
للعقل
خلية
مصنع
تفسيرها
يعدو
تلقاه
مخلصين
قميصه
مكونة
اشراط
الساعة،
التغذية
##صاح
البكتيريا
ضامنا
الكراء
فاعتبر
جاءتهم
مصب
داعيا
ويختلف
وبالك
ظهورهم
الانقلاب
##مط
الرتبة
حنيفا
صدقته
لاصلاح
##اقم
الحالتين
كاذبة
جمة
ذهن
فتجب
والدال
قلبت
ينوب
الغازي
رووا
الايراني
تاكيدا
##تفع
مولاة
ماريا
وايتاء
اشتهرت
وتعرض
قانونية
وراح
##سلية
احسنوا
الاكفاني
لاربع
الاعدام
##كاما
وايمة
التجي
اصولها
الامال
وبالغ
يدعيه
نعيم،
مقبلا
جبة
جراحة
موثر
والهبة
والثلث
واجمعوا
نوعية
##غاف
بسعر
فسمعته
مسافرا
اسراف
النسبية
يحمي
نعد
قايدا
الحقيقة،
ومسجد
فرايته
صلت
##برغ
##وتون
وخي
والصبيان
حجره
الزرقاني
مدلول
الناصح
والجز
يغرم
دورها
##انو
والمفعول
واحوال
بظهر
زنت
غدت
بالباب
بالهدى
##اسها
سيرا
##دتها
واحفظ
الظاهر،
الف،
يتالف
ادبر
والكبر
اليوناني
بناحية
اقرت
وماية،
اعمالا
حسبك
المحاضرة
مشاهير
والنق
البقاع
فرقد
##بكة
##صوبة
##حيت
##قدمين
وتسعون
ويحتاج
اثارهم
البربر
فذكروا
المبالغ
ويسمع
واكثرها
عويم
الاء
وجرح
املا
ودينه
كساء
الاهوازي
سمات
والوج
يعن
المغاربة
ليتم
وفايدة
اطلقه
ضاقت
المتاحة
منقذ
ثوابا
فسكون
هاذا
دبليو
زمام
الخرط
##تموها
يمكنك
الكويتي
للذهبي
الضباط
دوما
والصحابة
يجرى
المعق
ملازم
ظهري
##غاله
انصح
العاجز
يشبع
لساني
المهند
لعمرك
المومل
يقولان
والشهداء
مفردة
التحدي
لولي
فزارة
تلاميذ
وتوس
اعض
تنافي
جنسيا
قطيعة
الشدايد
عمة
##ين؛
اخوكم
يستقل
اسست
فعالية
القادسية
ينسخ
تانيث
وابيه
عادية
المشركين،
المقتضي
المرجح
مسالك
اجري
الاتمام
والوعيد
بون
حقل
النرويج
والموسسات
ونوع
الخلافات
تعتقد
الحجاج،
مستانفة
ذاق
والمنع
فتامله
اقتضت
استعادة
##هاينة
الترج
وكقوله
غيرة
مطولا
وشرعا
الندوة
تشجيع
لزمته
فلقيه
وناد
##كرير
##ايرات
اقمت
مجتهدا
وسيف
كنه
السقف
يطيل
دعاهم
عاجز
طيف
##نح
وبكر
##كانة
والسياسة
ركوعه
مهرها
##داها
استعار
عامله
بالسوء
لتعذر
ببلد
ايذن
الثغور
ليخ
والاولاد
والحاجة
والقصد
ويسعى
اضي
بازاء
ونحوه،
فرمى
تقدموا
خاتما
لاطلاق
بعيره
المحلوف
##جنون
وحص
البال
تطيب
ويعني
كلتا
##انه،
كماله
والمنافقين
يكذبون
درك
الفايز
##فعية
بالعبد
المفلحون
##غرا
الملاح
##وامل
معدي
خلقوا
للمحرم
لارجو
سفه
والذهب
العضلات
المعراج
وفات
ويبطل
غدوة
##ذرا
اقضي
لتست
##جيج
ازار
غيرنا
يتش
ترجح
لازالة
وافعاله
وبحر
واتخاذ
السطر
وصوم
حبك
حكومية
الخصيب
واسمها
وسلوك
الخفية
بالايات
تجدد
الاكثرون
الابه
الثم
جلوسا
لطول
فالذين
يخبره
التجويد
الحضاري
يخفي
مدة،
التهم
##نيعة
بالنصر
مهام
يدوم
تسبق
اليهن
عصاه
والشعراء
والتصرف
وخدم
نهيه
رضاع
سالك
واكمل
يجه
وفرس
العنا
امضى
سببها
الفرضي
##باش
##طفات
افتراض
ويخاف
المسلك
مهند
واداب
الدستوايي
نحت
الراحلة
ضلالا
المظاهر
بنصب
البشارة
واستعمال
والجميع
نظيف
وجزاك
مكون
وسخر
##ودى
ينافيه
تعرفه
يتسبب
للمريض
واعجب
بجنس
اوروبا،
فلكل
السداد
##فسق
اللغو
المرفق
يخصص
اوساط
ودور
المكفول
قلبها
الرقص
والمثل
##قولون
المنافسة
لنشر
الحرارية
ويتق
بدعم
##بق
الزحف
جلالة
واتفقوا
الممتنع
اجزايه
نرد
والهد
الغريبة
فنز
صحراء
ابله
الاسقع
مناخ
##باد
الثالث،
الباطنة
ميوية
انكرت
الفيزيا
##طانية
تجميع
بيدها
تحلل
الفواكه
سفل
به؟
وبج
استحل
بايام
بمرا
تغفر
بالجواز
والمصدر
النسايى
جهز
يتبعها
يجتمعون
حبر
ليون
الامري
##تكاب
الاتحادية
والمرسلين
وتقبل
لنبي
اجتمعا
فترى
##ثة،
الغرام
مدحه
صعبة
فاقل
الانك
متت
بقعة
متضمن
الوثنية
الاجد
التخلي
سعاد
بدعاء
##ثورة
متواضع
المفتاح
للناس،
اتباعهم
ووضعت
الانتقام
فريقا
ماوه
يضحي
نتج
##ستا
يفوق
يكرر
##يها،
انتقد
حملوا
شيد
##سير
##ليان
المتف
اللجوء
السالم
يحشر
سليم،
الرحيل
لمص
يعجبه
مشيرا
انعمت
شفت
صابر
انخ
تنطق
وليكن
الفاضلة
يقتضى
جامعا
الالية
الاعتاق
السكة
الاسراف
ونصح
##اصمة
النسيج
للسايل
بعشرين
الاخرين،
واشرف
الادب،
نابليون
التكنولوجيا
مشابه
مرش
عجزت
زجاج
كاي
##طته
السكين
التابعي
الطايفي
بوقوع
زرق
اشركوا
وفاقا
خرقة
مذهبا
اوطان
ومشي
المعهود
المختل
لصح
يلد
فحكمه
##يمتها
##ميرا
ارسلناك
##اسق
##رفة،
##نتج
##طاوي
يربوع
تهي
ظنك
بمحل
اللعن
اللايق
النسفي
مظعون
الكاذبين
شربة
نوبة
تشري
الديك
ممكنة
مدلس
وطلق
مترو
الهرب
الجديد،
تضاف
تايل
والكسر
اصلية
اياه،
تثير
انتفع
مخاطر
التقط
تقضى
والنسيان
فخاف
صلاحه
صامت
الموسيقي
مستعمل
عبدالله،
يطمع
استطاعت
دحية
وجهات
الكراهية
والعذاب
للحزب
الربعي
العثيمين
وانكم
بسببها
وهبه
عشير
البزازية
صحيحة،
يجمعون
##عتها
المية
##واهد
فهلك
##عتنا
اغاني
وقفوا
ويقطع
للحفاظ
الدمياطي
للمسافر
تفصيلا
سول
والاشت
##طانية،
الثلثين
وهلك
للغة
موجة
حياتنا
مقرر
##وننا
يستحل
الفعلي
فاغت
احبار
##يناها
##طلقة
بالسوية
بالاحسان
ابلا
والسمع
واضط
استعارة
قيود
نفاق
كاحد
صبيحة
ضروب
العرس
##عدة،
وعزل
##نبوا
يبخل
##مدت
وزعموا
فورد
##سلوا
وامريكا
للاث
نيران
اصبعه
ووسايل
وبغض
الزرقي
بشعر
السواء
الزيادي
التحكيم
لزوال
يي
فحضر
وبلغني
ببير
تمضي
العباد،
شباط
##جعه
الناشية
والثقافية
نل
العط
انت؟
والخمر
نجسا
امامنا
تلقوا
مصطلحات
المحصول
رايتني
التفاسير
رخ
ووفق
التفسير،
رحلته
الوقعة
نسخه
البرتغال
تواتر
وتسلم
حقك
بخمسين
للمالك
القوت
بارز
الجلسة
والابل
تهدي
فجا
العباسية
الانتظار
جوامع
ندعو
##ضاءة
ومروان
عنترة
والوسط
الحار
وصفته
كسوة
ويقف
عنهن
مقصورة
فصالح
ذوى
كرسي
الاكرم
والفا
##رورات
##لاثة
قضيته
اعمارهم
الشجاع
والدخول
مقتض
المختارة
يقنت
عداد
رددت
##تار
وثمانية
##غة،
يقبلها
اللحوم
الكعبة،
##كسار
المبني
بوادي
ساه
##وجات
حالي
الفجور
واجت
يدعوا
الصالحي
التقاليد
المسالتين
يعتبرون
ويبدا
صيفي
والبرد
تاه
تنفق
التكلف
عظمت
شوقي
##نيب
اكاد
اخترت
بجعل
حرمان
الفرص
اموالا
فقتلوا
##حمه
وقليل
الصعود
وباي
بمسجد
الساكنة
فنسب
المعدوم
هش
ابدى
اثواب
وعدل
للجنس
الكلاسيكية
المناظرة
وولا
فليل
ظهورها
##املها
الخيرة
يحط
يكرم
بوجوه
العينة
كنايس
##غارا
جاهلي
شينا
صبيان
ضبة
ظبي
للفاعل
تاول
الجزيية
الصنم
محصور
ديانة
قربه
مقاما
واعيد
الحبة
اوها
اسفر
ياتى
فاصبر
لدع
المسبب
الدعوة،
يصح،
المتنوعة
كرهه
الزرقاء
جنت
سيك
التغل
##ايق،
فهن
تجيب
ودعم
البش
المعيار
والنظم
يهدى
##يداء
ونهر
جنوبا
##دونيسيا
متفقون
##سح
##غته
حرجا
وعمرة
يدبر
البشرى
هجمات
##الط
بتاويل
والسلوك
فداك
والانبياء
استيعاب
الاقتراح
فشلت
فايق
##ذرية
القدمين
المراقبة
والقوا
الصالحون
صلاتها
تعبدوا
يوجر
تمويل
قرارات
مذكورة
دهن
قه
نعيش
وحض
ضالة
يجلب
##ارون
والانح
##بلت
شيعة
يضرهم
حيوانات
يتيم
بلدا
بيبرس
الاعصاب
خميس
ولاجل
الحسية
النوعين
غنام
والراس
ومعناها
المكذبين
جندل
زح
ووه
ووالد
لوصف
بذبح
المطبعة
المخر
اعطوا
بالاسكندرية
يصنعون
والارادة
يكسب
موقفه
خروجا
خالفت
الموتمرات
العنزي
متاعه
الخيام
القاها
والاصابة
##رجاع
الزوجان
واعتقد
والامانة
الحنفي،
عفير
##لاند
وهدم
##وله،
المسابقة
الامداد
وغالب
لطايف
مضب
وايق
الرماد
##ويية
يامركم
تعلقت
بضاعة
قصره
والاطفال
بالتف
المشتبه
رييسهم
يسا
لنحو
قرين
بالاسباب
الهجمات
شرفا
ستي
##ويره
ابتل
بالتب
والاض
للمد
الواثق
حميم
التمكين
وسما
عشره
قوموا
وطرد
التفريط
اخط
فتوجه
زوجت
بالجامعة
الاستعارة
والفي
##ياهم
الفوضى
ولرب
وحكمة
حران
فشق
يخلط
اخفاء
المهام
حكمهم
ازاء
فصيح
للتم
الامثل
الرافضي
تكل
ثروة
وثايق
حقا،
البطر
لتعليم
بالديار
ارط
##عيذ
السفر،
مفار
ومفهوم
المنف
عدالة
يغل
للشر
ويفتح
##وسه
دولته
ناقصا
المسلمات
ارها
##ايرين
لطالب
الدهن
الالواح
والكفارة
كسرت
##رحيل
بقرية
القسري
فدخلوا
##الكم
يعرج
والساد
##واعق
مهنة
استحسن
الفرعية
##مرها
باسنا
نباتة
فاشهد
المكاتبة
جدير
البدنية
المختصة
##جبال
واشربوا
الاخيرة،
##يي،
ولاخ
فلس
المنخفضة
مستحقا
الصخر
وتتبع
ويومن
يجزم
رجلا،
مهلك
وعمره
فشييا
يطيب
كفالة
تومنوا
فاستغفر
وتجعل
يمنح
والضعف
يقنع
تصلى
احكامها
وتوفى
البالغين
حباب
المونث
والشيء
معاهد
مجاوز
المحيل
يصط
مخففة
المتبادر
تاخيره
القنية
فتاب
##وبوا
مضمونة
الفاكهة
##يني،
الموضحة
ويقصد
قعر
وتوا
امشي
السندي
لسوء
اجمعين،
وحكمته
مفعل
الاحباب
للامير
والحرية
متابع
للغير
##فعا
وغدا
الحيضة
ولازم
الغاف
متوال
افراز
وشخص
فيسقط
##بيط
فتعين
يشرف
لقولهم
التفويض
مكروها
يركز
##وارح
الثقافات
اضا
##ساع
##عمري
حضوره
الجرايد
ظرفا
سيي
والقوم
والكه
اللاهوت
وجيزة
الاعا
ويصدق
تقبض
بقيمته
نصبه
زايدة،
الانذار
النسايية
سعدان
ترمي
هيد
والكت
وفكر
احبك
امورهم
الافتتاح
المتحركة
##سموا
##وهاب
ذكرك
الاشقر
الاكاد
##رجا
بهولاء
توصف
المستخرج
موكدا
راعي
بالجر
رعا
بالمل
والمجرور
سكين
عشرية
##رامطة
صدرك
بورك
##ثلها
البنيان
##تابك
نبى
سياسات
دخان
صلحا
بالتكبير
تعذيب
قوله،
توضي
ومعمر
المقدس،
بالجد
ادوا
نسيم
##ارين
انتخ
يلج
خطابا
بالحجر
حرصا
السنوي
بالفضل
متساوية
صقر
اللاعبين
عفان،
يها
##امح
فتحة
وصيام
المشاهدة
تجرى
عاشت
يرتد
بالكتابة
والباب
بالخي
الثاء
بالحب
دلالته
##ونة،
بالثلث
الاعاجم
فابوا
ملخصا
عبثا
اعضايه
يستغني
يتركه
تسعا
ببني
ثالثها
سايلا
الغلبة
##اذل
لامره
واطلقهما
الملفات
والاقرار
ممثلة
ضن
##جده
يقرون
وعكسه
ثمرات
استل
فروض
ودعاء
القاس
اتدري
فاردت
الكرى
بشيء،
المحرم،
فسبحان
تجدوا
المصيصي
قهرا
فيعت
فيقدم
والصحة
القمي
الطباعة
موسكو
اغتيال
استطاعوا
مظلوما
ومدينة
المصانع
مساحتها
والمشركين
مميزة
##جل،
بمدرسة
##طفية
للبيهقي
تلاميذه
##اسل
##زا،
وتعقب
جديدة،
منظمات
هيب
عادي
باسقاط
استيجار
بكمال
تقبيل
خبي
قفل
والرم
باقراره
ابنتها
فالانسان
التتابع
الرباع
ونزع
اتاها
الاضطرابات
زكي
طباع
لينظر
طيبات
الاساءة
##يتها،
الغرة
بالتحريم
اثلاث
بتخفيف
منعوا
شبيهة
التكاثر
المساجد،
بدورها
التقية
للاز
البرز
نكاحه
المقامات
وتض
دمج
القضايية
وتعلق
الخطوب
وتجاوز
##لبها
المعاهدة
والسدي
عميس
يبادر
تشغل
وثب
المثنى،
نذرا
مقصودة
##خلات
مشارق
لنظام
الافهام
والغالب
انشطة
وسطها
والوصية
##راثة
التعد
##وتن
والعرف
فاسقا
العمران
والتصويب
اخفى
متا
عدوى
اضواء
نفقتها
تفلحون
فقعد
بالتفصيل
الجميع،
الروحية
اعلا
اجرته
للاتحاد
الاستهلاك
ترام
يشاركه
ومحاولة
##كيهم
البلوى
صيامه
حذافة
اوزار
##علب
اكرام
النفاس
جامعه
محذور
فانهزم
عليكم،
تحضر
نفيس
المواضيع
مبينة
يرف
يهل
متجه
الاستراتي
ازواجهن
نحتاج
ضربين
التنوير
الهدنة
لزيارة
الرداء
تحصى
ارن
الزواج،
بخد
والدراسات
الكرك
ينجو
وتصدق
تنافس
صيحة
السقي
##فعيل
ويعرض
بنايه
الاموال،
##حوش
عمها
فصاروا
وصاروا
فبات
ليج
المغضوب
وذكرنا
مهنا
للقلب
معار
الروابط
وسلامة
##رارها
معاذا
الوضوء،
جملتها
نهب
النصي
عصم
ابحث
سواه،
##يادته
بالحجاز
عوام
##قيل
فتفرق
الاجرام
بطرف
والانعام
فدفن
خوان
##عمرات
المتظاهر
اصنام
الاقليات
السايدة
فليتبوا
كبيرا،
نكر
تقابل
نقصا
الذرايع
بمجموع
الاستعاذة
##ماتة
فراجع
انور
الروافض
مباشرة،
##شميهني
تفي
لقطع
فيعمل
فيديو
المعبد
كتبوا
الارواء
بالجهل
المعدنية
طايف
وقعد
ومدح
الاعياد
المحاملي
الكوفيون
فرحون
لينا
الغصن
##ناهى
فجرى
الفلس
الغربيين
شهري
الحوير
اشتبه
المازري
مضاعفة
النشا
وحاول
والشرع
##ارقه
النسيم
والدولة
المسيب،
##وقراطية
موفق
دوره
اموره
كبشة
ايجابية
والبه
يحكى
بشك
توال
انقص
وسلمة
ادراج
يرونه
الوراثية
بمناسبة
علمته
كفاه
التبليغ
لومة
القفا
الطمع
منهجه
تحريمها
بالقتال
متوسطة
والنسب
تملكه
واليقين
فلزم
حاجا
المروي
حملك
والقانون
الرخص
وساد
اقترب
والمعتمد
ثلثا
شبابه
والفقر
عبلة
المشكاة
وينا
لمدينة
اليشك
القرء
##وح،
شرحها
##طلبة
بساط
##موك
ووهم
ذكرتها
نفسك،
حمزة،
الاندلس،
يهدم
الاداري
تفكر
بامت
المضمر
المروة
الطرا
رايتهم
الابداع
ازالته
##اثيرات
واحا
وسخ
عميد
ساكنا
تضمين
##ودد
##هدة
##طني
فيعتبر
استعان
مالكها
والنصف
بوصفه
حسنة،
المطبوعات
واظنه
وقضايا
##ايقة
ويصرف
وحصلت
تهتم
محبا
لامتي
قادرين
وطر
##ابعه
##يادا
تدعوا
رحب
نعود
النميري
##سمها
يرحمك
خلوة
بعبارة
الارجنتين
وقصة
معمول
ومسند
تطير
التسعة
الاعد
##رووا
وحاصله
قتله،
يغادر
حليم
ماهية
بالمدرسة
ياتين
ففعلوا
##كافحة
##ناطة
فبطل
الفيلسوف
تحققت
اهواءهم
##وادي
غيرت
سلفا
تتمكن
ابيهم
فعل،
اسطنبول
المحيض
نقش
غفار
##فتر
القصوى
المطهرة
رث
الشف
للنووي
مزا
والخي
ينازع
باشياء
والباطن
الحسان
بالفق
بالمنع
##وفوا
الحاقة
يعقوب،
حاذ
##نان،
الاخوات
المقص
مغرب
يضاعف
الايام،
والتجارة
صرفا
التابعين،
اشتقاق
والاحوال
بالضرب
الجرم
بعتق
هيبة
تركب
السفاح
غرضه
غزاة
علقه
والحس
بارزة
طولون
دج
عصور
اعوج
يعلمهم
كفاءة
والحمل
يعفى
والارت
معارف
عينك
شوكة
اليزيد
عوضه
البخيل
لعطاء
##بابه
وابلغ
وقدمت
وثل
متوق
اتزوج
فمنه
قنوات
تاييد
تذر
العنان
انت،
الاحص
رسلا
الاحكام،
نافذة
ساس
واتهم
ناكل
ارباع
علمني
والطا
الصريحة
وجهل
ظبيان
الجبن
الطرس
البصيرة
القطان،
الكيميايي
جدل
طس
##طرا
##فلسفة
تفعله
دورات
متاب
علقة
التحويل
##قاطه
رفعها
لسيده
الممات
وجدا
ومالي
والمجد
رجلي
يصرفه
مضارع
المورخون
عرا
التطبيقات
اغير
##ستور
وباء
يستجاب
باس،
يحزنون
كتيبة
بنكاح
فسماه
عالميا
##زابيث
الاشتر
عنف
##راهن
والهوى
الحبشي
عواقب
توجهت
##ابض
النفقات
بالتالي
##انغ
وخبره
مهلا
للخلق
يذهبون
##وابق
والصغير
صحاح
وامسك
قدمي
بكونها
سلاما
##احشة
نسبت
والنذور
معتدل
موهب
##وارج
له؛
للوجوب
وتعاون
موذ
امتدت
باطنه
لرج
بالمغ
وليسوا
العضد
المحلل
ليقوم
وعمران
تواصل
النكت
للحم
الغزال
اعتاد
حاشيته
واخرين
الجديدة،
بهجة
وابرز
المنفصل
رويناه
تقريره
ورمى
يعينه
ركنا
يزكي
جده،
ملاب
الفوات
اعور
حديثهم
ثلثماية
ووجوه
صورا
##ريزي
لقريش
الحاكم،
النسا
تعريض
استم
ينبع
يستثنى
بتخ
قبلها،
ومحله
اعطاك
##عيها
اتيتم
كالذين
مروان،
غنايم
الفوت
علميا
الاحتفاظ
بالرواية
خطبنا
لونها
الحسبة
نجحت
عهدهم
##لازل
الرخ
تعقد
وجلال
بينكما
طريقهم
النقشب
فيتم
##اجه
هداه
ويلحق
الفحص
الاستسلام
اعمالنا
الذكر،
المخطط
رسلنا
يقذف
فعلهم
القبر،
##باض
استثنا
الظباء
حبان،
الاستشهاد
تاركا
رفقة
العتب
متفر
للمولى
واخبره
الممارسات
العلوية
والشرف
وتعقبه
فضح
والطبري
الفحول
تعق
عمومه
الجياد
اذاعة
والمواد
الثلاثة،
المغناطيسي
##ليح
البيضة
لجاز
للشباب
البضع
واليمن
اكلة
وتوق
والزينة
##اعية
الضوابط
تصرفات
صدوق،
تودى
فبع
مشد
لكم،
اجرها
السمسار
والرفع
اخلاقه
كالر
والانف
التذكرة
##تمين
ساكت
قرص
الاقوام
مجتمعة
الباطل،
اان
موجه
يريب
##ردل
قبري
عزمت
ملكوت
للسهو
البديل
وشيء
اشجع
كاله
خيركم
المغنى
ساعة،
المقطع
##يتو
##طيته
المستشفيات
كعب،
بطلانه
حريم
سقت
وهزم
اقض
يتما
فجعلها
التعويض
الفنانين
القيروان
العبرية
##اءه
اوقية
##داين
تقربوا
##جدية
وخلاف
الخزاز
معيار
اسري
يناله
وخرجوا
بعملية
اولهم
العقيق
الفلق
فنية
الجزع
بمشيية
وكرم
شاءوا
احتجم
##جعلها
الرقابة
التمرد
منقطعا
يخر
ويصف
التحصيل
خاضع
ادق
ايش
ويلاحظ
المتواتر
الارقم
وتخصيص
الحديثية
عمله،
لحركة
فاستقبل
والزهد
وتحسين
مجلدين
رداءه
الامعاء
مسته
جهده
اذكروا
قتيبة،
والنخعي
باجر
يجزه
حور
بالربا
بالصدقة
شكلا
نوعه
ينتظرون
##اقان
سترا
تفكير
حذو
حريز
##ضحت
ماضي
الرقية
وسلم؟
وسعه
لكنا
والنحل
والمثاني
تبيح
شل
##كين،
المشرفة
سراح
واللح
##صفية
تسمي
عبادة،
ذنوبكم
##ريسي
القيت
بالعهد
معدودة
اعتمدت
ووسط
لاعلم
ويعيد
ومهر
الزانية
يخرجها
سرقت
عاجزا
اسفله
الموكد
نسايكم
بالحسن
امتد
الخبراء
استقرت
طغ
السنا
استحي
امراة،
عاتقه
الادعية
الايلي
##كارى
فشد
الكتابات
ودية
تدين
##جزة
ليله
فتصدق
فرارا
الجوايز
##انج
اجرت
يسرا
حابس
دقيقا
واحدى
والعفو
نقر
الدينية،
المباحث
اتمنى
##وطنات
وظنوا
اوسق
فذبح
انغ
المحكوم
مضار
انواعها
كبيع
منة
الجبل،
ككل
##اا
وقي
وانكار
##ناهج
مخيم
وفرنسا
يبيعها
الريب
العطية
الاعوام
بالغسل
الاضداد
معكوفتين
وتبلغ
سوالك
قحافة
الهولندي
احدا،
راغ
تخشى
##صيبه
ذن
##خات
فيذكر
للعلاج
خبيرا
ياف
بروتين
الشحم
##اقفة
##سم،
##اكس
خصه
شاذة
المميزة
##ماتهم
للنظام
هبته
وذوي
الجوزجاني
القبلية
القابل
والمرا
الضياع
الفاصل
الشعثاء
##وتهن
ملازمة
القري
الفحشاء
ينهض
بنصر
فقرات
فلقي
واسقط
فعليكم
امراتك
التخص
والهداية
سيناء
والنفقة
انعام
السهر
بقيام
والنص
مكات
قصرا
##اخرين
بالاجتهاد
للمام
تصني
هايل
والذب
احال
##جزية
مبطل
نما
وده
التملك
وحماية
كالمس
العاملي
اسرته
خاطر
سافرت
النقب
والسفر
ريحه
الحرز
اذنها
الرقاع
ليبين
كرز
العبد،
غربا
كيوم
##ملها
الموجهة
حبست
شبهه
فارسلت
فوالذي
والخدمات
ومقاتل
كسرة
المفسدين
كلفة
##تيها
اتدرون
عمره،
وانهما
بانق
جنوبي
موقوفة
ويهدي
نذكره
رما
العيال
انتج
المستحاضة
##شا،
شاء،
المقدرة
سارت
هواك
الرخاء
احضار
المصح
اخبارا
##حاولة
والجنوب
اطمان
ارساله
وارادة
تواجد
يصيح
تجرد
يقا
لتطوير
الايتان
بنتيجة
الناقص
موات
نفسي،
باجراء
مباريات
دهرا
الميسر
##ايلهم
نظريات
اعطني
جنابة
##ناعات
##طلت
الاوهام
##ياضة
اللعنة
وينتهي
الحديقة
بورت
كفة
اتح
حالته
الواقعية
وانفس
سلطنة
يعتذر
##اثية
بمنطقة
صلينا
باختياره
##ليج
والكامل
حلها
##بداد
##صاره
وصفنا
اوردها
##يفي
الخان
وابدا
باضافة
والغرض
السكران
انيسة
سيادة
الرازق
مبسوط
موتا
كني
فاحر
اجتماعي
اشتدت
مجلز
التنفيذية
لفق
فيصبح
ومرض
##يما،
وراءها
الجغرافية
المضمضة
انهزم
##يبس
فعسى
##وولة
الخدي
الخاطر
اكاديمية
الموخر
ميزة
بادية
المعماري
اقعد
عدول
المغول
لسبع
الخالية
##عب،
والخارج
التوقيع
وبحسب
فرم
اشبهه
الاستغناء
ضغ
التسم
وجدي
وسعت
وطاعته
فنسال
كاج
يستشهد
مواضعه
المجردة
دوي
##حالة
##قطنى
مقرونا
للخبر
يعارضه
موان
سعيدا
لقمة
نفيا
مضغة
الغرباء
المرات
مجالا
موقعه
مصدرية
فطلقها
ثوبي
جعدة
والوقف
يضبط
اغلبية
خلو
شما
نفت
##عمان
والافت
والايام
اضاع
التقنيات
##ذلان
والتعبير
والياب
##ريقه
الحقبة
البدو
ويبت
ومنكم
والدعاة
داخلية
محفوظا
الوصال
ثلاثة،
الكتابين
حبيب،
المقاتلة
مرضاة
ضمنا
اللحظ
الميلادي،
مهي
واياه
فليات
وتجمع
يوجبه
المترتبة
بطيب
بوز
##ايتهم
استراتي
تايب
##على
انفص
القمة
وحسين
الاشهل
ترجمه
الملايكة،
##لازم
وكثرت
فارقت
بالجهاد
اهمال
الكمية
الفصاحة
برع
الحام
متوا
##صباء
ينتسب
وحينما
##وين،
ابسط
التعاقد
التنوع
رشدا
يبتغون
فوثب
المتاخرة
وشمالا
##صبغ
وطني
العتيبي
عونا
الطح
السلف،
نهايي
الفتوحات
ميراثه
النوبة
الانزال
##وزه
الراتب
موقتا
صنعوا
الجامعي
لوارث
يضح
وبالح
بيك
والرعاية
يتناوله
الموجه
##حيب
زرعة،
التضحية
الحدوث
والغسل
الاكبر،
لادارة
الخنثى
##ايبه
الثوار
افات
بالامام
انواعه
بحالة
##صيلا
زيادات
احمق
العجي
والصيد
الفاروق
##سبا
بقاع
صحابة
نفهم
بويع
عدي،
##بوع
##اعون
والخطاب
التاويلات
فضيلتكم
انواعا
للعديد
الشقيقة
وشم
افريقيا،
الرهبان
فيظهر
والرابعة
##حديات
يعب
وذبح
الساكنين
ذكاة
احرى
الرجلان
عزيزا
الاصدقاء
يسود
قصته
مرافق
العملاء
اصواتهم
وابان
لفظها
الزهراني
وراج
بنب
بنجاح
الخث
فعلة
والعتق
وبدل
مختصرة
الزبرقان
بالهاء
خصومة
مناصب
عمرك
رايد
والادلة
ابنايه
بوك
البر،
نقلته
المساهمة
الرف
يحث
اغر
ارزاق
فابن
واننا
لمزيد
##رفات
فالحمد
اليمنية
والتحذير
النطفة
خداش
ومجلس
جدوى
الميلاد،
انضمت
التونسية
لاين
##كنها
خاصية
ابدال
التسا
اساءة
فتد
وغنم
سيارات
كذابا
الدرك
بمدة
يستغرق
نسيية
##اتيان
والكلب
ومركز
فيضمن
ماخذ
ادايها
بشهاد
الميكر
والطعام
التحدث
بوساطة
اخطب
الطوفان
يتعد
فتجد
والقن
سوالا
يبتدي
سيره
##تابة
انتهوا
اراني
نذره
مخص
لمجموعة
وفن
القديم،
ويفهم
الزيدية
ترغب
الاجتماعية،
المحجور
امامك
واضافة
بحرب
عبدالوهاب
والدفاع
قرارا
راتب
عهود
معتمدا
للسلام
المثلثة
تقلد
بوم
وجهاد
التعجيل
يرثه
النخبة
فانظروا
##قاع
ومايتين،
##شتم
##قبلها
المنتظم
تسر
عان
كاز
الحجازي
وثياب
##قراره
بالنهي
وتذهب
مستغ
بالثاني
غرناطة
استدراك
##عني
واللبن
المنكب
##صارهم
نفاه
مشتمل
ذرو
السجل
فعله،
لقراءة
فكانها
##ذاق
بالخل
اربابا
يلعبون
مادية
اساطير
للمشاركة
تماما،
لرواية
ايقاف
فدي
البكال
##تابه
مترجم
ببطن
صلاته،
الجدال
الاسناد،
ساهمت
اللف
فكشف
المصرى
واسته
وصلها
يقلد
##غلت
والعن
الاهلي
مركبات
الراسمالية
احلى
العلماني
بشع
لحرب
المعتدل
استاذا
زبد
شفيع
فيه؛
المقيمين
زانية
##زلهم
##ستن
للاه
برحمة
للقوم
فحيث
الاساطير
خالفهم
منصوبا
مسخ
يستس
وشراء
تمكنه
تسلط
الانطاكي
خما
الخريف
المعسر
بالقل
تملا
يتعارض
عاجلا
جوية
يايها
وقس
تاريخيا
فاعطى
التدخين
تعليقات
التطهير
معتق
والمخط
المنصوب
نبيذ
مفيدا
ريحها
ترف
واصبر
الجليد
يدعم
والسلاح
سمحت
الانصراف
التبيين
باعداد
والاثم
الحد،
وحفظه
رافعا
اتضح
المعلومة
خصوصية
ذاتي
انذر
لاحب
يدى
مجاهدا
التنافس
##رجه
المتخصصة
بانني
بالطريق
سدس
لحاجته
##كنز
##رادى
يسهم
وشعيب
تدرون
متقدمة
المستويات
##وافذ
اللفظ،
مريم،
الاسى
##حاصل
المقري،
تاويلا
والامراء
الخلفية
المضل
القف
خلقناكم
رجعيا
منكبيه
والتقى
والصفة
ادركته
الطفولة
معلى
الدرة
وضيق
للمق
خلقة
مسوولا
قمع
للوارث
##انيت
للاغ
ورغ
وقعوا
معظمهم
الصورتين
لعلة
تطبيقات
ركعتين،
عمت
والاجارة
فطاف
المامومين
الثمرات
لحمها
شهادتهما
لقتل
بشق
ارضهم
الحويرث
بحت
##وضيح
##لابي
الزبد
قبضته
موصوفا
الحلة
التحقق
الرفي
فكنا
##غلبة
العنبر
فاحضر
محذورة
المبعوث
العاش
النابلسي
##فعى
بالفضة
فاصلح
الرسول،
سفين
وثانيهما
امتى
الراس،
والمختار
وتعليق
خساير
رهب
تسجي
فرنسا،
يمنعون
دراج
غشي
قين
الجيران
وسقوط
##تيقن
العجمي
عايلته
التواريخ
وسماع
والساب
شرحا
غور
لاقل
بكتب
##رابها
بالنيات
التفات
يلقون
واتباعهم
بصدقة
التوكيد
يتخلص
شيون
يحص
والزوجة
الثالثة،
البني
بلخ
الهمم
الرموز
##صدع
اعطاني
الكاذبة
نحمده
بنسب
فقها
##يبين
تميم،
الصحفي
جزما
تمنح
لتبين
##مثل
للوكيل
وعقل
التشخيص
حقيقيا
##جعا
التزوج
##ليفه
نترك
الجنايات
تمل
النعام
لانسان
متخصص
المحارب
والنظاير
حربي
##ايعين
فاظهر
##وانية
محضا
مقصد
يلقاه
تاتيهم
والبدع
يعنيه
والحرص
اذه
##ونني
الفخار
اكدت
اقتر
ومعد
والتوفيق
##بيري
وردان
ينفعك
الجينات
اعتدى
السعة
فتحا
مقدور
برت
واعتبار
يقدمون
والاصلاح
وسيا
بماذا
العبث
خلفي
يمنعك
وفقكم
##هارة،
تقوله
الراى
النجدي
حركته
السيرافي
لمصالح
ووحد
يسكنها
كظهر
##ذوبة
مسابقة
يستمعون
اباها
الاستخارة
فاصبحوا
الخطيية
ومي
المجيء
المزمل
الكسوة
رفق
والمقام
الضال
يذهبن
اصدقاء
اضطرابات
##لم،
معتبرا
قدومه
مجرم
القاذف
حذرا
اقرارا
##رحيم
تنفس
المحتلة
قبضت
ناسخ
##سلا
##عوبة
ابدان
ماية،
الصوا
المعنوية
الرايق
جسما
بعلة
ت،
حبها
يغتر
حاض
مزية
##جلا
##ياجات
ماذ
##يلد
المعطي
بحرا
تصنيع
ويقسم
بالبعث
وتختلف
والسكون
المستحب
جمعهم
##كاملة
والكفار
اكتشفت
السموم
فالاست
سدا
##لن
المطعم
افيدوني
والحسد
يجتمعان
واصحابه،
لايت
القهر
ويجلس
ومعنا
##وذية
مزينة
يسمونها
النقيب
الجدة
سمير
##وغا
بربه
واحق
الشذوذ
مدف
عطس
ازا
نير
##رث
منفرد
##ون؟
##قييم
اكفر
زوجات
وانتشار
التفكر
والتكبير
بالمص
لقبه
زمنية
متقاربة
لتنفيذ
بالاذن
اريك
الاباح
وجاه
وفاز
والصلح
عالمي
ابطا
اللاحق
نقصه
مركبا
ونستغفر
حنا
يستحي
حققه
##راييني
تركتها
##يوبي
اللاجيين
بالواجب
اخلص
بنين
وبينا
المعاش
ابوب
اربعتهم
التوقيت
العرقية
##نيد
##خانية
الملايين
الكرا
استند
صحية
بدايات
سادة
شقه
المنب
وادارة
السعودية،
وترجم
بتغيير
الابنية
فرضها
ارسطو
شاهدين
خلة
متخصصة
سلبه
والحركة
الراحل
الاعصار
حاجتي
موقتة
مضمونا
فوجهان
صقلية
والدول
دخلا
الحوايج
ومحدث
##سابهم
اتساع
القواد
##ثره
حالية
بغلة
اعطاهم
الحنا
وتفر
وعقب
لقبول
للشركة
سوم
يطبق
الانتفاضة
الحيوانية
الجبلية
الصغاير
وعتق
موحد
##مينان
وكرمه
المعمول
مثلكم
##قلد
فعليها
تبق
تختار
يعرب
تنج
فنقل
خروجها
المعاوضة
فدعاه
وعندهم
بالوفيات
##ورغ
الوليمة
المطلب،
المتاخرون
فاكهة
##ضييق
الانجاب
الاعتذار
سميث
قاتلهم
والورع
##رطبة
يلعن
قضايه
الاذهان
وعمارة
شعرت
وعدت
امامها
ارو
ميلان
وانضم
الرسالة،
عهدي
يخصه
مبي
الباز
##رق،
بالمدينة،
الخطط
عرفته
فاحش
حمارا
تذكير
##اتها،
واستثنى
توقفت
الانجاز
بالسواد
هدانا
يلتقي
ساروا
##كلين
##يلت
تمد
نصرا
ياتيها
يري
##ديقا
معالي
اعي
##حوها
فارسا
اسقطت
جمهرة
العبادي
##برها
يقرع
ليط
وصب
وعندها
صوفيا
وقذف
ولقب
وبار
مخد
لاجتماع
صوفي
##مرد
##ودون
##افهة
مستقرة
##ظمي
ينبي
فتزوجها
بتركه
يفترون
الصواريخ
بيانها
فنهى
##حملها
وتمسك
ونبه
فتصير
والدواب
تسميتها
##لوك
والوث
وهبة
النامية
النجف
مرتين،
الخسارة
##ابقات
وباسناده
ساجد
الجين
نسج
وتنظيم
ماكول
الفيدرالية
اتهام
عرى
مطا
##فله
الصيا
اهبط
منسوبة
مقطع
وينسب
ومسالة
وعلمت
العصاة
المتواترة
الدينوري
##غازي
يمسي
يتطهر
الزهرة
انتقض
لبيع
##طره
القهار
الكوك
##ندب
الحملات
يطمين
البريطانيين
المسار
بالترك
عمليا
موقعها
فيضع
والعلاج
تتج
القابض
الاستهزاء
##كينة
التيه
ولكنك
قومنا
بلى،
رهنه
الزهرى
والغم
اصطفى
حمدون
عاين
المبنية
جذيمة
استعملت
استنباط
معونة
ويقر
يعض
ثنايية
والسكر
لضرب
يولف
المون
انسب
البوي
ومخرج
##ولادة
##قطعوا
عوق
فخير
العلاف
ولقي
يكلمه
##قبيل
تراها
سكينة
الخوارزمي
##ين؟
الاختي
طالوت
واضل
الحليب
بالوضوء
وتغيير
##عهن
التعريض
الاوربية
مفهومه
##صناع
امهم
فتركه
يلبي
تطالب
الريان
حصاة
صوتها
مخصصة
الرمال
فاتفق
ويستعمل
اقرانه
يحملها
اوما
الشخير
والدهر
وستماية،
ويلبس
مرفوعة
وتدبير
الباعث
الانج
شيكا
الهالك
وحذر
بمعدل
اعتداء
سهولة
ملفات
قبيس
مالت
بشبهة
مباركة
الغنية
فتوفي
ذكري
الكافرة
ليعرف
استاذه
عطار
فيقبل
حسنها
مغول
فهمت
الاردني
جزيية
الانقياد
ملاك
محضة
الاتجاهات
المهتدي
البطالة
##ضاره
المعافى
غزية
القطيعي
مطبوعة
ضريح
كنية
معسر
احدثه
تحذف
بيتر
يضربون
للاية
المناظر
لفظي
ملق
وعسى
تفوت
اطلاقا
فحج
والاستدلال
سنتي
وتوكل
الاحصاء
مكرها
المناقشة
##ويني
##عنا
ويوكد
فقدمت
وتركها
منزلي
فوه
ونقض
والبلا
اوامره
##عداوة
والشيطان
سارق
##راقة
استماع
وصيا
فاعاد
قانوني
لوقت
فيضرب
متج
يحضره
والصرف
نهيك
شقة
لولد
نجاة
الكار
للسر
يتجر
كثيرين
الوسوسة
فرسخ
كرامات
بضرورة
مقالا
وعندنا
يموتون
##صرنا
اختارت
يضرك
للكل
يصيبهم
##رهم
ابوال
موقعا
الموضوع،
نفا
ويصلح
للاخت
واصيب
الربانية
التذك
بالصفة
الفاحش
مال،
تميمة
التعميم
بلت
لرييس
والاسلامية
بصدد
مرم
##سلخ
حريصا
دبره
الاباط
يميني
يستوفي
المجاور
##جمية
##دف
الويل
ولمزيد
فرانك
المجرور
معها،
الطواري
كلنا
اليزابيث
وخاص
ساقها
مجردة
الحضرة
مشروط
احتجوا
بثبوت
الخيول
الساحلية
وعج
سلول
للطب
وتسليم
الماثور
يفهمه
وغض
شهر،
عتقت
فاليوم
بجيش
بجايزة
رويدا
هاشم،
والثلاثة
نان
حديثين
المحتملة
اسبابه
يبتغي
السالكين
الخرطوم
قرم
الكهر
ونفخ
داخله
الضباب
الاجوبة
حاله،
وبالق
ندرك
##ساها
جليا
اعتقت
اضحية
اختصارا
الثلثان
ثقيلة
نخبة
##وياء
##كريا
##ربري
الكاش
ويتكلم
يتامل
ويرضاه
الكسرة
المشاة
بالسين
ليلته
مشتقة
عمار،
الجان
والغناء
المزاج
لاخراج
درجته
سلبية
يظفر
وارتفع
الصغير،
حظي
ابرزها
ولاح
تعويض
حيضة
المستفيد
السياسيين
توكيل
عمته
اهاب
##راكم
استلم
تحكيم
نقوم
عوج
ماعز
العلوم،
القرشي،
القذا
وارشاد
جابرا
مارتن
تدم
الكفن
##سانه
##وط،
فقتلوه
المنظومة
##سهم
لامير
الدباغ
للقب
فالث
وشرك
وراوا
الميث
يسل
بشار،
محمودا
مايدة
##يمقراطية
الجني
الهجرة،
الجويني
والاجل
نزولها
والمعاني
رقيب
##سيس
الحصاد
وانثى
المقدمي
والاختيار
نهاييا
الكونغرس
وتضع
ومدى
المودي
فعول
حثمة
فحملت
ماكس
مكونات
الحدايق
##ذله
المغيث
الخفاء
كفيل
ماء،
رشيق
بالبحث
وحقق
لكنت
الافراط
الفلسفية
المحمول
##ثلي
الشقاء
الاجراء
بخص
شوقا
ابدع
##اسر
والسودان
وامكان
قضاوه
الدستورية
ارح
##شمي
##البه
والسند
خدع
الطحان
ناطق
الكهنة
وتاثير
يتحرى
احتياج
الامتحان
الشقص
وانشاء
فاكتب
وسرعة
فاعتق
يحرق
يوتيه
##ضرم
الذكاة
##احته
وضويه
بصفته
والمحا
واسامة
تعددت
الصالحين،
يستخلف
الاستك
حسي
بالري
التبعية
لكا
مده
##مص
منية
##بيله
##روهن
##مالها
دارهم
بالخاء
مخاطبة
##معهم
الاخنس
##وحات
مضاد
الباشا
باردة
##وضه
ناح
حديثها
تركوه
الياباني
وسبحان
نموذجا
حتم
معالج
المتس
والاوجه
جعلا
وضبطه
قفا
نرجع
الغدة
##مامته
رجا
تشكرون
لاحدى
الحان
ابوع
واقوى
ازكى
يضطر
غلاف
وقاد
وههنا
يترجح
ريبة
البلدين
وعلو
اخبارهم
المقترح
يتقيد
وفعلا
وجودا
يثبتون
ببعضها
بعباده
التنب
فانف
والتفصيل
يفعلها
العلايي
يومهم
المحنة
اعتقها
شربها
مدرسا
تلفظ
##وفها
يصنف
بطاعته
تفتقر
صرد
لفتح
للاحاديث
والشك
ثوبين
قادم
ثلاثي
بالمقارنة
يغن
لصاحبها
عودا
الجدران
##نسوة
واستب
واستقبل
والقواعد
##فعلن
يبلغوا
يراعي
لامة
بالعرف
يطبع
مقدماته
الثقفي،
لخمس
تعرفون
التجيبي
فنب
لنه
##ناهي
رييسة
المنتسبين
بيوتا
تفعلون
ضريبة
##هم؟
انتهيت
بغل
توكلت
التاكد
الرية
ادوار
الخطوات
وخلقه
والحي
للولد
مبادرة
نصر،
لهيعة،
##كية،
والالح
بغسل
باصبعه
وغن
طلقتم
يفقهون
فطال
##منوا
اسفا
##بتدا
التنزيه
لتحسين
احرق
غوا
ليزيد
للمدعي
جزاه
نعمتي
حرمها
عجزه
تسبوا
السحور
وتقديره
المحاصيل
زكرياء
موجل
معرضون
فتف
تراهم
##وبهم
افضل،
والاعتبار
افرادها
وقوته
وجامعة
##قاطع
كلامه،
اضطرب
الصهاينة
امامي
توعد
الاليم
توليد
تتعامل
بالطا
بحركة
برزت
طعمه
الانسحاب
وتاخذ
كدر
##ايد
ماذون
الخاد
اذني
المقرىء
الاذنين
تحديدا
ثقب
يوه
##كاني
الاسراع
ياتيني
اقامتها
بالامور
بعلو
بشارة
اللامع
منافاة
مفردات
وبير
مجاشع
ورخص
مضاربة
سالوه
مزرعة
قصا
المراجعة
وابطال
والصاد
دعني
بنتا
جايز،
مسالتنا
كهل
صبري
الموجات
الهيدروجين
##بيلي
الفقيه،
خراسان،
يعيب
صفاء
ذميا
المغيرة،
برف
يعهد
##شاشة
بركعة
حشر
ندى
انتباه
الغنوي
مصانع
فاروق
السايد
برجال
لتحرير
يلزمهم
والمرض
وشهدت
اروى
اوب
متتابعين
مهين
لغيرها
تاملت
اعتكاف
بصحته
المتمردين
##يلندا
##ويان
دمياط
وتشير
الحضرية
النوازل
ضيقة
الامتثال
وديوان
عاك
وكعب
فازت
المكية
والجمعة
الممتحنة
وادراك
الاعلامي
##يمات
بالوطء
بالنصف
الظهيرية
##جيد
النادرة
الابانة
##يادية
##واعظ
قومها
مكش
قصبة
اثمان
زعمهم
##صرية
والمسك
لحكمة
المرتفعة
تخفيفا
نسم
##هايم
بعدكم
رجحه
شكري
غنمه
وعشرا
الطاهرة
والموعظة
اغلظ
الاثنان
التربوية
الاونة
النقور
للعباد
الريفية
تمه
##وذي
والسلم
اهلاك
مقول
والمجاز
قارن
فالصحيح
المنة
واغفر
التسهيل
قدام
همته
قضاه
اطيعوا
الطبيع
فتخرج
تحلف
تقتصر
الزمن،
نافعة
##ريون
تعتق
للاسف
اعترفت
##كانها
##صنع
ومنك
دمها
نحل
وامد
الفشل
مفتوحا
يحكمون
تعاطي
سرك
فيكتور
الغليل
الهتهم
الحاصلة
الصفراء
مختصة
تهوى
الميت،
الحاجة،
وراسه
##خارف
##عملها
بالرسول
يبعثون
صغره
تليق
كالمع
بخارى
كتبته
والسلامة
واربعماية،
بمشييته
##ثناة
اكتفاء
الجيش،
السقط
الكشي
تعنى
اتكلم
لعلها
خلقي
الشعبي،
ونهيه
الاسفراييني
كمد
وتدع
ويخت
اسات
##وصا
موتي
التراخي
وجزء
ضباط
والخر
الكد
##رقون
النوم،
بكا
بقدرة
فلبس
نتبع
كليات
الغض
عديدة،
نوبل
المفاصل
تذهيب
##شوش
بالرم
تعصي
تعاط
ومكر
بصنع
قنت
لساير
فالمقصود
اديبا
جولة
كواكب
وجبل
ولسنا
المنقطع
نسوا
حالك
ويتل
##وهو
لبعد
ساعدت
غنما
لسر
##انيات
الاخلال
##راخ
الكور
وفارس
قتلة
الاقضية
تفيض
كلهن
ضربته
وتوزيع
دوني
وكلوا
بالغين
البارزة
الفلكية
##لهن
##يتني
##سندر
تنم
المستعمرات
تشديد
وطوها
تخطي
وامراته
فاستاذن
هاتان
جبران
الاقا
محك
محنة
مالك؟
والنسايي،
شايعا
##سلي
##قدها
عزت
صمم
مجردا
بلقب
فورك
الفتيان
المصطلق
طهران
فاقبلت
فنام
قوتها
الجاذبية
ونال
واحدتها
يبن
اخوانا
ملاحظ
##عاف
يحفر
راسهم
ويلز
شجع
مارب
الاسس
والسيف
المهيمن
الفقهاء،
هجرته
النديم
فيوخذ
وبحمده
حيال
بالنقل
مطمين
بالبحر
الحبال
شاهدان
الشافي
والكمال
والوتر
مدعي
##جيكا
جهدا
واتصل
اخوانكم
سقيم
برده
الكثيرين
نحكم
مقاطع
الموز
وايدي
والحجاز
يصحح
النجاسات
المته
ابراز
احرار
نصبت
اغض
التقاء
لمساعدة
وويل
##غاة
بينات
بمجلس
انتبه
ذهنه
لجب
##وتنا
يسقي
##ذر،
صفوة
ارضها
فتبسم
وعرضها
ازدياد
تضيع
والشريعة
العامي
عباده،
الواسطي،
فاتك
يزوجها
عليه؟
الفصيح
والتربية
##تنا،
راجعة
بقتال
تمهيد
يدريك
اكلم
امراتين
اللورد
ارباح
لحال
اطلقوا
ويعتمد
##ناني
الخمار
##راد،
صحبت
مواقيت
فحديث
خفيفا
اندلاع
اينا
##دهد
بانا
والزمان
لشراء
سهمه
انظار
##وسم
وعلة
امتلاك
التغابن
انطلقوا
ولاهل
وحركة
الوسواس
الانصارية
الصومال
الباقر
العذراء
##اتنا
اللطف
ستار
الملتقط
الحراري
الرقى
تنبه
ومصالح
والقصاص
واعداد
الطري
ينمو
وصوابه
مهل
فيمتنع
##وسسة
والعز
اعدايهم
كرك
التشي
بالحمد
الغمر
ارتب
حصى
المنص
تنف
المومنة
اساسيا
كالمت
القبلة،
حارة
نويت
##يموس
الادوار
فضلك
يحفظه
ومساحتها
خنزير
ليلي
##جاهد
##شال
##واض
بالسجن
الشعار
لعملية
اكثم
الورم
حلوا
علماينا
اليشكري
امض
صورتها
احرص
تاخرت
##جله
الرواتب
فصعد
عنديذ
يبل
ومول
اجب
مديرا
##ديح
المستد
المحاضرات
الخشني
يبع
بالسب
النعت
البلاط
##ضعفاء
بمهر
##طحاء
السوفيتية
جاع
فولى
تسلسل
حديثه،
يشاء،
والحن
اهوى
وللش
الرفيع
الصفي
للبد
النازية
حمية
خيرها
والقرب
حمران
واصدق
الشفع
وجنة
الارضين
كذاك
فشبه
لمعاوية
الصواب،
##الاة
المنخفض
والعبر
والصبي
انسى
اا
غاف
واليس
يغلق
جهرا
الحاسب
واناث
اصم
تنصب
يظهرون
##داب
ومكث
القصيم
ران
ومحمود
بشاة
وضعته
الغذايي
الرطوبة
ويصوم
بيرا
نقضه
والطواف
مقامات
احرز
اليرموك
ورفعه
التحمل
القويم
ولكي
المقبول
خادما
ينجح
الصفدي
برجله
اكانت
##وطنين
الكفارات
خلفية
واهلك
ثقافية
شراحيل
بزيارة
حيرة
لذات
المات
رسولنا
مناسبا
##وراق
الغري
اكلا
العملات
حنف
والضم
الجيدة
##يرا،
الحيوي
الهجاء
النهوض
ثانيها
خيمة
سادات
##اباة
العاج
وجنا
##رابط
المدافع
وقتنا
مواصلة
ورقم
يكتسب
الزنادقة
الموظف
مستهل
مهرا
للنشر
ونحوها،
الفلوس
المتعارف
قاع
وعما
الكروم
ذاكرا
وتدخل
مزدلفة
عارم
##عش
الذبيحة
النازل
بالحجة
والرجاء
ملاحظات
ضربها
عظيما،
استيلاء
خفة
وجاهدوا
المنجد
المستمرة
ماشية
ومراده
يشته
بالموصل
الزوج،
غروبها
سمر
تعس
وبرا
واستخدم
الاديم
مخلوقا
الطم
##شته
الاسم،
والسلف
راغب
واجازه
منحت
الموعود
##رجس
بتج
فصيام
كافرة
يامرون
مسبقا
تزويجها
فذا
منحة
الطمانينة
##وعين
##جدون
اطف
التروية
وتمامه
حدايق
المسودة
للقتل
فكثير
واسناد
ويميت
اردتم
الجمهور،
سويا
غان
كاه
السرج
الداير
اسي
المسروق
##كان،
تنقيح
شبها
جول
كوني
الدعاية
يعكس
اقبض
حكمنا
تاسس
تورث
الخاط
ونفسه
للدراسات
##ذال
وبس
بانف
وغز
عصي
##رايم
الانبار
والمحافظة
الاحوال،
الزهراء
تكمن
اعتكف
المندوب
ماهر
##اعم
##سمين
الاعانة
المستقل
والقرى
ثنى
ميش
ماهو
##ورج
الصافي
لتج
تتك
انصرفوا
عول
عيلان
##زويج
##طبع
الاقطاع
لاكت
التكن
السمر
الدخ
خذها
المكي،
الاحوذي
كحل
وشمل
تيمور
مستحبة
الرضوان
الذر
المعنية
اصالة
الشاطي
تحسبن
سيتي
اخوف
وتميز
##باها
المسكن
امتحان
مامورا
الاسماعيلية
##صلات
##ايصه
درء
وتوقف
والتوكل
الثقلين
مقالته
والسما
انتشارا
##ديني
وتعني
ارضي
الرحيم،
يتركوا
يوتي
والاجر
عقوب
عدمها
مطرد
فرقوا
اقروا
لحمل
والشرق
##قالا
وحملت
بافواه
المقصودة
مدبرا
مكروهة
تلبية
##روسة
ثلاثية
اصبحنا
اطباء
عراة
غلمان
بهمزة
باربعين
بالخلق
الفاسقين
التجريد
معجزات
##وزان
تسالني
المعافري
كنان
عمران،
الزبيب
والمقد
النبيل
تبصر
فحذ
فوضعت
جدران
مبعث
والبرهان
الغلمان
الحديثة،
وماتت
لاجراء
ماجستير
ب،
اللاي
##همين
فالاف
بشرية
مناط
استدلوا
##نتها
الثل
وسه
الاثري
تغسل
لنفسها
الدعاوى
##نزل
وعمه
اموالنا
الجليلة
السوفييت
جيو
واللق
يصفون
السديس
وتحول
تكرير
اعماق
##راءى
بالمصدر
واشترى
الحصون
الدواوين
غريم
فبا
الادغام
زدت
عطش
فراسخ
شحم
مضيق
##طالب
لتعلق
تادي
وذم
شبكات
البوصيري
للرا
فاجلس
درر
نبهان
تومنون
يوقنون
المجروحين
لفا
##عنه
التلاميذ
تعجز
المستحيل
فعلتم
مواضعها
الجريدة
علان
والزع
الثر
مستثنى
التحري
ويستثنى
بمعصية
فماتت
والمدارس
جيتم
##لفات
اللصوص
راضيا
مجنونا
العثمان
البقيع
الذوق
اسماع
المواشي
صرفها
وصدقه
الكلى
افاء
والبغي
مختارا
الافتراض
تالله
تاكد
عراقي
الطرد
واختلفت
وحط
##عبية
واديا
ثانوية
##رايهم
##اتله
دوران
لعباد
عريضة
وبصره
بعضهم،
واعرف
الحقل
النادر
ذكاء
والنفاس
بالصف
الفال
يتخير
##صحك
فمما
بالتقوى
تشق
فليفعل
مرشد
الابق
تمامه
سعيه
وتصبح
اديت
حوى
وضر
##كته
اداه
تحديث
ومسلم،
واهلي
كافرين
عوان
فيتب
بنقد
##هلال
بتهمة
وخاتم
المحليين
البهجة
انجز
وعزم
تخطيط
والرحم
يطلقون
مراع
##بحي
##طعم
اقلام
خصوم
الانفجار
احسانه
شقيقة
فلكم
انصر
اسنى
بتر
عقيدته
الاتلاف
للمعنى
يراعى
طرب
العيس
متطلبات
##يامين
الضرع
زيارته
الطحاوى
كالاب
فراغه
بالخط
زاهدا
بنار
فاقسم
نسيج
لامور
فخالف
واجب،
الشريفين
كولومبيا
قزعة
مبعوث
##واره
الكشميهني
ضعفت
##وما،
واهت
طمعا
##كانه
يقصدون
الزمنية
تبرز
وعقبة
ارواحهم
الموات
##ودته
رحمتك
ومعي
السابقون
محتملة
واضطراب
تشر
الراد
وبداية
انسانية
باصحابه
ابراء
القبور،
المنتشرة
طوافه
المساعدات
برسالة
صدى
يستيقظ
الخطيرة
الاحسن
وغرب
ثقاف
الملتزم
المحققون
##ييات
والوص
وفاق
بالتش
يقوموا
للاستاذ
الاوكرانية
الساخ
تنق
تفصل
نورث
التسع
توات
شاني
ميث
يتفرقا
الناف
موشر
وادب
##خالفته
منزلت
واوج
##ميراث
مستور
الاسمية
كلت
والضل
باسرها
تطعم
ترجي
تغضب
زالوا
يرحمه
اعجمي
##ميمة
والمشي
العاص،
القتل،
للناظر
الجليس
الصارم
متميز
اوليايه
مواليه
عاتكة
الوسطى،
كورة
احتيج
لكمال
وامير
ارسلني
الرشيدي
طهارته
##جعة
##ضة،
العشب
واتي
##والم
اخره،
بشرطه
لمصر
##دايه
المنصف
مغربها
نهانا
عادتهم
لسيد
ضروريا
الاوروبيين
##اليل
##التهم
حياتك
واتخذوا
اسره
##قاما
دعواهم
ونفى
##ذرين
##زاما
والثبات
فضربت
شخصيا
اعتبارها
دانيال
لاعمال
اصطف
اتيا
اللع
هاربا
خيط
تجريد
العميق
تفا
حقة
الزراعي
##رسه
وامكن
القبط
قبيحا
يتجزا
للطاقة
اسنادا
اقاويل
فضلها
وبرع
فسمى
وحصول
الضح
##يك،
فصبر
اثباتها
الشرعي،
مظفر
بالعتق
والعناية
الاحناف
مرسوم
طهورا
##ثر،
الموانع
وسجود
يمحو
الخطية
وقاموا
الاحمق
وذل
بالاث
فبادر
يمنعها
وناب
##وشة
##شفه
والكم
وليام
وحياة
لتر
ورجعت
عياش،
الجسيمات
الكماة
مصارف
كتمان
والرسالة
حدوده
عادتها
الموقت
بالكثير
واترك
قربت
لاخوان
يخالط
تشرع
الماهية
ابوم
للقول
بالاشتراك
##صمة
ويكت
متميزة
رايعة
مرضية
لاقى
##ضا،
المنون
تتاثر
والرغبة
مخلص
مسيحية
حريق
شريعته
واطال
الدروز
اتقا
وروضة
تطه
ولايات
وسلم؛
ولزوم
وذهاب
نكاحا
ياك
اديم
وحرب
جزع
جعلوه
احترا
الاقرع
كتايب
والرياض
منعهم
حذفه
وعباس
الانكليز
##لاهم
والقت
الكوفى
وعلامة
##وقين
استلام
بعضهما
المحاربين
خطابه
يدلس
حاجز
والحذر
بالجملة
محمولة
جنسية
والافكار
يعش
##غلوا
المذكورة،
التلفظ
التساوي
فسبح
مشغول
تعالج
وعف
وندب
يبدي
نظمت
لخل
استقب
تحج
والسف
والخضوع
##وديوم
الايقاع
القشرة
ولط
محلي
##طففين
تكبر
قلوبهم،
ديز
والاضطراب
اتصف
بجواب
الكفين
##براطورية
المفاوضات
غزل
بالشي
##مارها
مقاعد
بقراءتي
ثك
وعطف
نظاما
تهلك
طيور
بياء
خلاق
التضعيف
مصورة
لبشر
اسكتلندا
##وبه،
زيدان
ستق
غاص
وروا
لقوا
ربكما
لخط
يفتر
قسوة
فوجدوا
مسطح
بالسوال
السنوية
الحلقات
يلبسه
وثمود
تين
نسق
فقهية
بقايه
تباعد
شغلت
لايع
##مرين
##وتم
وثمن
يغزو
قرنه
وصفات
والمنطق
##خاذه
اضاعة
بضعف
تطبق
الاقدار
الجموع
وتوحيد
المعالج
##طيعه
عبدالحميد
ممنوعة
شرها
الفجار
عدوك
زميل
هاجروا
انام
##كتهم
يبالغ
وضمان
بايعت
المقبوض
متبع
يقظة
بالتج
الرمز
السلاسل
المتعاقدين
العصيان
الشعاير
##ذهل
##بديل
فروج
احتلت
الاكتشاف
##ريما
التثبت
وجه،
اغسل
##وبيته
فوصف
وانبانا
خايفا
ريد
بحروف
وارثا
اعتد
المعتادة
نفيسة
موالاة
النرسي
المعادلة
والتط
جزية
لسعد
يعتقده
والعلة
الانتخابية
##الحة
ومقام
ويتجه
المكسي
قابوس
المقلد
##وينا
واكمال
اعجز
بلح
وعلينا
الخصوصية
فوضعه
ضيقا
الذبايح
تفسر
ابرد
الحشا
ماخ
الجواري
وليمة
استوت
يسلط
وطرح
##كارم
لاجلها
المعدات
القهوة
وللك
فاستح
حلفه
التابوت
ارقام
زواله
المريخ
اللمس
وغي
##غمت
##خرفة
البشرية،
اسبق
يلف
انقض
امالي
اقرض
يستاجر
نصبا
محاضرات
المسيطير
مذكرة
##فني
الاقران
اللبيب
الراح
حسابه
يابس
ناجي
المبدع
ابها
للفايدة
اتخذه
تتلى
بشهوة
المقترض
مابين
الحنظلي
رحمها
خرجا
اصطلح
##طنها
مدافع
والفطر
تزد
المايتين
يعصم
اصوم
يهجر
مضادة
بالدراهم
ولغير
##وبيخ
ودعوا
بديلا
النقيض
الخاطب
وحرف
احج
موكد
حمدي
ندوة
عصبية
جرجان
زمرة
سلخ
لابى
مواضيع
يحتمله
فاحكم
وسقطت
اتبعت
امبراطورية
موجهة
علوي
للرحمن
تشويه
##مده
##فيون
وتحقق
فليد
والتشديد
فعرفت
فجميع
ازواجهم
##زز
معرضا
تنظم
النبوة،
ليقولن
هتك
##صرة،
##ذوق
المورث
الاكمل
وموال
الاملاء
فالحاصل
فريدة
بالحقيقة
ثيابا
اصيبت
حجي
المقرض
نحاس
يسبحون
##وتى
##ولدة
للطبراني
طايل
عصفور
ادناه
بحاج
فويل
##ته؛
تخير
بالنسب
سدرة
دالا
##بريد
##ونسون
يحدثه
الرقمية
خسف
نظروا
الثمن،
تعترف
ووفاته
خضوع
##صع
الميمون
تعادل
المنقولة
والتقدم
شهوته
يشهدوا
انشاها
هداهم
رفيقا
وانبا
وبانه
يهده
الليث،
باخرى
مفسر
فقصد
وحدي
يخشون
والفوا
جنسا
اجمعت
غربية
فصب
انفصال
المعنوي
مصم
الحرم،
سمعة
الاصرار
ودول
قرني
ويتصدق
حاجات
النعاس
عذرة
تحصيله
حقبة
الكثيرون
العكب
##منون
##وسين
الاخص
قاطبة
نزه
يراك
يشغله
تسيل
تسهيل
السجون
انفذ
وتصحيح
التغييرات
بوين
والدكتور
##وار،
التحقيقات
ويتخذ
والاسته
تناس
محمل
والرفق
وتلقى
ويعيش
##تابعات
باظهار
البصرية
##ادون
##معن
وتقر
والقيم
رمزا
مبس
للشك
بالاجازة
اعرب
بالحجاب
يعملوا
ماوى
اوك
المدخول
مغت
ابتلاء
بفتحها
الاشياء،
اثبتوا
اعمدة
فاولى
فتارة
وصحب
خبزا
ورايته
عناء
الاودية
##وفهم
ينفصل
المسكر
بكيت
وثوب
منتشرة
النظير
تسيطر
لسب
المصنفات
اتنا
الربا،
يقابله
سحيم
الشقاق
موثرة
بنيان
الشر،
غرو
للبي
فانتهى
يعمد
الانه
الاقوى
نهاه
اليابس
متكيا
##قنا
يومكم
واعطا
للتف
الايمانية
يعدم
والضراء
التغريب
بالكر
الناشي
للتاكيد
بالكلمة
رياضة
المحظور
بنوه
اسقف
واكم
الانضمام
قدمته
حلل
##طري
واخرها
باطراف
وطلبت
الموجل
ليشمل
مايل
ونوا
بالسلاح
لفوات
غسلها
ومجموعة
وبركات
المدلول
اراها
موليا
خبا
ميكاني
ونون
والاصحاب
##دتين
الباقلاني
يحسبون
وولاه
##كم؟
والتنمية
بغيا
التماثيل
##ليمات
الانز
ونخ
بصاير
الشمسي
المريي
بطانة
الترق
ولاب
استطع
##ظره
امامته
وظلت
تاخيرها
ترفض
##قدون
تزكية
مفضل
يعطون
حذاء
فندق
##فورد
المديون
العروق
ذبحها
معرفتها
الممتدة
اتيناهم
حمامة
##الفه
منشا
النسايي،
يفنى
البدوي
##قيموا
مرع
الوراثة
خفيه
زلة
اقتحم
وتنفيذ
تحدثت
الطيرة
يستب
##لال،
سلطات
مستب
الملحق
الذهب،
جملا
براون
استطلاع
مشركي
بيه
فشر
واختص
اعيش
الزر
والحلم
صوره
##زعت
##خبين
عني،
وكبار
الاسقاط
متزوجة
يمض
سلع
الداخلة
اراكم
مساويا
فيسب
##ابوا
والعزى
عاطفة
##فضوا
ببساطة
عضوية
بالهمز
فوك
السول
##اداة
##ياتنا
متكلما
##عيني
التطوير
فاخبرهم
سنام
##الطة
ماوها
وتلق
باشت
برماوي
تفويض
السادات
داعش
##شلونة
لفساد
المذب
##ينى
وقرن
بحير
بتفسير
الالوسي
للحركة
ضمنت
التكلفة
الحواشي
بليغ
ضارب
ولغيره
خبرها
لعنهم
وبيانه
يقصده
طغي
لصد
وكانما
والفنون
##ضبان
الفلكي
حراء
البليغ
تعقل
اختيارا
حسبت
شارل
زمي
العجلة
السالفة
وتعود
عدوكم
دواير
عبيده
تطليقة
اقتدى
القرامطة
معصيته
الاقراء
الاربعة،
الشطرنج
ولص
الظه
الاجتها
بالعفو
نضلة
غازيا
للواقع
بتنفيذ
فعا
مية،
لقرب
والخنزير
يهديه
##زاين
مخطي
والفهم
بالفي
##فسار
المصنع
وثانيا
قسمه
باحوال
فعلمت
لرويته
المراس
يهوى
تراني
المفكرين
البخار
يتفاوت
وبغ
وبمن
فتر
تقدمها
بالمعروف،
فكتبت
ليعقوب
تايمز
##زيا
القاهري
لمق
##دامات
مخنف
قسطنطين
تنسى
شافعي
القرد
ممارس
واخوته
فيهما،
وبول
فتدبر
وزع
##عينوا
يغدو
فالمش
نالت
##ثاق
وافى
الشفا
مقرن
يبقي
بخيل
وذكرها
تستند
بالضمان
اضم
العزلة
تعكس
اعلموا
فكري
نزعه
وازداد
قابلا
القيسر
البهاء
ضربات
العنصرية
وتحرير
##غلين
طيء
لخير
تخيل
حزبه
شغله
مريضة
يسره
رحمكم
صبغة
ورضيت
ليقتل
متمت
الموك
##جبين
تجرب
وعظيم
بالذنب
وقاتلوا
ملامح
المهدى
واليها
عقدها
وعملت
يعطوا
وحث
يعودون
المباحة
للزم
وشذرات
والقوانين
الفلاحين
##اليات
واتوب
يبرح
السرد
اودية
فقص
##عيض
الحرمان
حقوقه
وشبهه
قفاه
هادوا
##علت
عدالته
تنب
ثر
كاح
الايادي
مادي
استبعاد
بي،
لتاكيد
والنذر
واتاه
وضربه
التصغير
والتعظيم
صدع
القباب
اتحاف
مقاييس
حملات
فرضية
فرضنا
للشريعة
جوده
شاق
غلامه
لانس
الثقات،
##ثيرات
اجنحة
واقيموا
المذموم
##لاعب
ارضية
شكوى
تخصيصه
الارم
للشرع
يمكث
الاصبغ
والشيعة
للوضوء
بالتسليم
والبصرة
نهيت
لغيره،
الخواطر
روع
فرجة
اندونيسيا
##اتر
##كونن
##انيق
المزدلفة
##ارهم
الغافلين
اللالي
الارزاق
الذنوب،
نعليه
تراج
بالفقه
العقرب
والنبوة
يعجبني
بالابتداء
الترفيه
##اي،
المستشرق
احتفظ
جذعة
قشر
السوط
الدان
وقدرة
المتدا
والنظام
##يزيا
وامته
بقدرته
فاشتد
نفذت
جمر
ليحكم
تنزع
للاقت
زوجته،
مضطر
تلقت
يشبهه
كنع
تعاقب
##جددة
بابك
والقادر
بسيفه
السفير
بالزواج
سكران
محاكمة
الماكول
ابرهة
المتصوفة
##يلاد
الحطاب
مازال
ابوي
راهم
بروايته
يهجو
اسنانه
ومنطقة
احتل
العميد
الخليلي
الشحنة
بالولايات
اوجبت
اسجد
##ساعة
ويخل
وطاف
السكوني
##وندي
بالنع
البداء
وكلت
##داهم
انفسها
مومنون
وخلص
استشار
ربوي
بالاحاديث
اللوحة
##طارا
صدقة،
كلمت
المقررة
قعدت
الكام
الختم
تطرح
خوفه
العواقب
والخاص
فضلت
يشتبه
ورسالة
يتقا
الفتنة،
امتلا
للدراسة
استحقاقه
يسق
تدركه
للكافر
افواههم
الاستدراك
##زود
فيسلم
والمجموع
بدونها
موته،
بصرف
العقب
جدال
المبشرين
محمية
امتصاص
وفتحت
##نحة
التحرز
بالضبط
والصور
الركاز
سباع
عيار
##غمة
نسمة،
محرر
الرسل،
تصدقت
دوس
يقطر
التصريف
بالذين
##لالها
وارزق
##راق،
معدوم
رسوله،
مقبولا
وامنوا
قيراط
سامع
قواد
ورت
ايذاء
الضيافة
اثلاثا
وتصلي
بقوا
##ناديل
اسالكم
وزا
##ريحا
يسعون
تحريما
بوصفها
متعين
الاعمار
الغربي،
حارس
الزيادات
والثمار
تراكم
يبرز
##ضطرار
المراكب
الجذا
روحا
وواحدة
الارجاء
دينهم،
بطونهم
الافلاك
يفتتح
يكتفى
لوجهه
السلاطين
متفاوتة
لوحظ
لعين
انكشف
خاتمه
هاجم
لفضيلة
خاقان
##غره
##ظايف
الحطيية
احلت
اذل
كالمن
تتف
وزار
غريب،
لثلاثة
تشتري
قاموس
السلمي،
وثلثماية
رعي
لمنظمة
والدتها
التشابه
عبث
وانفق
اجوبة
##زهة
الخبايث
التخصصي
تطا
وبكى
اجعله
فترد
ينادى
وتصديق
الغزوة
الزركلي
اصابتهم
تنازعوا
##ذبا
الرباب
وانفسهم
##ركشي
والسحر
امنتم
ويرون
واللحم
عطفه
يعطيها
حمود
##اذب
نخاف
بالهند
الاحمر،
ثور،
طيران
كمه
قطعي
لبنان،
يهتدون
وينهون
صغارا
حديثا،
الاف،
ذبيحة
يذل
ناول
القادي
الخطابة
زيادتي
بامان
واعتق
وتمثل
طرحت
الخرشي
يتعمد
للاكل
##صارات
للكلام
ظفرت
يحوي
الاعلام،
بهت
ليوسف
رايع
##وكان
وتما
ويحر
الاسماع
كحديث
فاقتلوه
يطف
المخصصة
وافعل
معام
حكموا
الالسنة
تقييده
يشربون
ببي
المعبر
والبس
الرواية،
وحرك
المرعى
مسام
راضية
##صاها
قبلهما
الايجاز
بذلت
تميزت
والسرقة
العذري
##باذ
امارات
حصان
خريطة
نلاحظ
وخيار
سيرين،
الصوم،
يشفي
والصبح
اذكره
الاثمان
وعيون
بتعليم
المشابهة
والحفاظ
يرثي
بهذا،
الملعب
يستخدمون
الروحي
وطاوس
البروتينات
المستملي
الارادات
##اتون
النبل
##يسون
يحزن
عقال
لنفي
معيشة
غلبه
طبخ
تقديمها
المحدودة
شاف
العديدة
الفاتح
منفردة
لقى
مليء
ضرره
صادف
احدثت
السياسية،
ديل
لجر
ماهي
فاجلد
##رتان
اللقيط
جنسها
ونعمة
القداح
##عماله
حكومات
الصدمة
مراكش
وفاته،
والعكس
عهدة
ازدادت
بخيبر
راته
قيما
يفرد
##عقاد
ينصره
##حادي
والمعا
استحالة
يحاولون
الاواني
##سكرات
التوبة،
التغلبي
##ذيلة
النذور
امست
فتنت
وبالعكس
ورجاء
اللسان،
يفرقون
اتريد
الحجام
يجعلوا
بالاخبار
تعاونوا
قليل،
بالاخذ
يطرق
تخرجه
الدراية
##وظف
فتاويه
شيم
المرع
اخيه،
وتاخر
يتطرق
اياي
ببدر
الشرطية
خارجي
##صبه
##يريز
نسير
وطهر
ختام
لاظهار
ياوي
المتد
بدعة،
بقلة
تملي
المغت
جنوده
مفقود
##نا؟
وكنيته
المتطوع
والتوزيع
وخسر
المنابر
الضبعي
المكسورة
سايق
شامي
وخش
يزيدون
وعبدالله
برقان
المجرمون
وطبعاتها
نكن
بالدر
السراب
لحية
موجات
عذره
حيوانا
المربع
المفارقة
والقطع
الجلي
والعسل
بالكفار
رفعا
للصواب
وذريته
قمنا
الدواد
وانتشرت
افعالهم
بساير
طرس
الريش
ووصلت
موقفا
المفردة
المخرمي
فاقد
##وارها
مفصلة
سالم،
بادنى
باذان
الشيعية
وارفع
تدليس
مرارة
الايجار
فزوج
والمطب
تناولت
حضروا
ابناءهم
تاكلون
مستحيل
ضاعت
وبرة
لبنى
بالقصر
فرقت
محتر
يليها
وارادته
سدد
فحرم
نهيتكم
واعتذر
بعيني
تقريرا
اليمين،
وربع
النفيلي
رضوا
فيكتب
سهمان
خارجه
ميادين
##وذه
الجنات
##باة
والشدة
نظرهم
يسمعوا
وباطنا
الحسي
وبام
فتية
والسعادة
رايناه
تكسب
حبيبي
##زمان
والعدد
احذر
اعتاق
بسقوط
سالنا
خطايا
مقتضاه
##ماكن
والور
##من،
والتحريم
ابصرت
##وزراء
##ازى
المكونات
جدلا
فوايده
دبل
يسند
##ه؛
انفسخ
اسنده
خبيثة
المضاجع
معيط
بالطايف
حجاج،
اشبيلية
فالام
افل
الشرقية،
يامرنا
تحمي
ادايه
##رايك
اغني
لاتفاق
خليط
##يوبيا
الميداني
والتلف
روابط
مجوس
تجاري
##ينيين
للشعر
اعتقادهم
نضر
##هال
والحفظ
نقلوا
يسلمون
معادن
لنقص
زوجين
حنش
الشمالية،
ظلمت
رغبته
المحسوس
##ذبت
الحارة
اعتقل
باعيان
للحاج
العذاب،
تلاوته
افادت
الحماسة
المخاطبين
صواريخ
بالحرم
##رجون
##ثلج
صلاحية
منار
الايمة،
##راكا
القيء
وانتشر
المفوض
شوارع
##قلان
وحافظ
الهدم
بذله
الاطلاق،
عقابه
عبدالك
بالحرب
يشترى
الطويل،
ورضوا
ريف
قدرات
المحلة
واعطاء
تخزين
الجزار
مختصره
اصابوا
هيت
تعيد
والعشر
##جهالة
ذاته،
جوانبه
ووالله
انصف
يمنعني
متعديا
بطة
الدمام
وجحد
المتخلف
##ضمين
الدهر،
بحثت
بفساد
لاط
تعاد
لانقطاع
ومراد
يقترن
فاسمع
##سابه
متغير
للعقد
يردون
الشهر،
فردوه
نكتب
المنزلية
وفسره
ثانية،
العزي
ونهي
تكبيرات
تطرق
سعدي
يختلط
البروتستانتية
اوهايو
ابوبكر
يترجم
يكسبون
امنية
الجسم،
نقت
##رضوا
فعلية
لسعيد
متعددة،
سيه
طابت
لاولاد
وقتيبة
يسلب
موظف
يلوح
يردد
سابور
تثنية
بعباد
مرار
نوق
الذاهب
للعام
وتضمن
عدله
تبسم
واحياء
للشعب
العتاهية
منقطعة
عويمر
يجتنب
يخش
بالمسلم
مشتملة
ماجه،
الدام
ويصد
##لفين
ونفذ
الشرط،
بالولد
حججت
فنزلوا
الراي،
يعده
لتفسير
حبب
استيصال
ومخالفة
ملكه،
تاجيل
اتها
اسامة،
الشعراني
شديد،
والترمذي،
وهجر
نواقض
##ابون
دخولهم
الخشبة
معتقدا
الصابر
لحزب
كفر،
فرضي
موتة
سفك
صنعته
ابداء
الحلب
فالبيع
فمنعه
فاتبعه
العاطفة
الرياسية
يبصرون
والقاف
يقبلون
والاجتماعي
عيادة
واطاع
الفيات
فتحه
حضير
مستل
ايديهما
وقولي
الشهادتين
للرييس
اطرافه
الحميدة
وصلنا
بالاسناد
ظلمهم
جزيي
اقيموا
الوريد
جنح
نصرانية
ذاكرة
اكتسبت
زعمتم
والابصار
الاخلاق،
الصليبيين
وجمل
بعدت
اولوا
##شاها
يفد
حوت
والده،
ونقد
تقدما
بضمتين
المكونة
وتطبي
القدوري
تكنولوجيا
اشهرها
والتعريف
القوافي
الايتام
يسيطر
والمذاهب
فالناس
صاحبا
المجلس،
والاثبات
تالف
جاهدوا
##ابح
يتيما
سلس
لقلت
اغضب
نبين
باقت
الخمور
اعددت
تذكرت
تعرضوا
انعك
حكايات
رست
سلي
الغرف
اعطيك
سويسرا
##باري
للبا
##صرفه
المعتدين
يستحقون
الموالية
##وليته
واطراف
وعادت
والاناث
الشراح
الكرامات
ادبية
انتسب
حاصلة
حدودها
يتخذون
##وايهم
القطار
وامرت
##ويتها
العتمة
والثلاثين
اشتمال
وفيهما
ابياتا
شيعا
##سبير
##وكله
انكسر
والزنا
الاصول،
كهذا
وفتنة
##ثات
الخالي
رواياته
بصاحبه
##جزاء
صني
##نغ
السيي
المعول
فحول
حللت
نطقت
الركبان
مته
انجلي
##ردت
تنطبق
واستد
كرهوا
غيظ
ومنح
واحده
احتراز
الحكومي
##وبا،
انشدك
فيشترط
حلفاء
ويكبر
##روبا
والمغيرة
وفار
ببعضه
صياد
الوطي
واخطا
ارهاب
العدل،
الطالع
خالط
صفح
الشباب،
##حيوانات
وبحمدك
معني
ومقدار
بالاغ
##راجا
مجموعه
بعلبك
مستعمرة
##زلها
اندي
والظفر
التوص
##وهي
حيضا
والنجم
مدارج
بلغته
فبم
وارادوا
والجلوس
الفهارس
ثيبا
بالصد
قبرا
التنور
والمجلات
الكويتية
##ظمت
المنصورة
##وصوف
المقدور
تلو
اللفظي
##وقيع
تضيق
عتيك
وياء
ولمع
المحطة
عابدا
النفوس،
النحو،
اهلكنا
وجنوده
تكييف
حى
اندادا
##والب
اجمالا
بالقاف
تحميل
##يبان
تتقدم
بزوال
صوتي
لربك
بوضوء
طغى
غرام
وراه
والذهبي
##باخ
يظنه
وموق
فكلا
واتفاق
وتتكون
خالة
لقطة
اثاب
لكلمة
##راسه
المثاني
ياتينا
بالرحمة
النباتية
وحرمة
حيد
طفيل
##فرك
الميعاد
وقاية
الصر
##حيان،
يعلي
حريص
دبرها
وقلوبهم
الساري
ويفر
يستحسن
تفريع
ويتكون
مكرر
قتلتم
هدر
عشري
وصدقة
ويض
##كلوا
باسلامه
الحلو
فكرية
مشرق
استدعاء
بدراهم
النظر،
والروا
مرتبا
جوادا
الايجابية
مكرمة
المعير
المتكبر
فتعلم
وفروع
عاشور
والهمزة
ابنية
وانقطاع
الذهبي،
متاخرا
فاغتسل
الغرايب
يدخر
تستلزم
بالطريقة
ذراعيه
##مور
بالروح
اومن
##فيفة
ومحت
بموسى
بصريح
النبوية،
يطرا
توافر
ويخالف
،ف
التوتر
والاوسط
عبادنا
والفاعل
القمار
روك
الاعطاء
صاروخ
اعدها
وازواج
المطالع
مفاعل
عامرة
الجبان
والشارح
يسالني
شاهده
بالبركة
غربة
وكاد
الهوايية
وحشي
وتجوز
البيزنطية
##هدي
الجولة
وانفرد
الانظار
تعلقه
السامري
يتساءلون
وبلال
المصرفية
جادة
##ضته
##ودت
وللق
ولزمه
بحري
مكانه،
قراته
الباغ
##حيص
مصرا
برود
واجرى
الجلود
ماركس
المملوكة
قزوين
نبع
والطلب
القوق
الصحيحة،
وعدهم
ابتلى
الوجهان
##حله
##حصل
الصولي
والموض
وسرعان
اللحد
والعام
نشاطه
هندسة
عظمته
دماءهم
الانكليزية
ملاء
الحري
ينعم
القرص
جعلني
لكونهم
عراك
الميناء
الغيم
ليبلغ
اللحى
قايلة
وامهات
##بج
انذا
اذكار
لعرض
المحاولات
تاذن
الكسل
##علج
يسقى
بقسم
التحيات
خلاص
مراكب
برسم
ويوثر
والحديد
الجفاف
يتر
احزاب
يستوجب
الاستث
وهكذا،
الفرس،
واراه
النقط
الجادة
ولاسيما
الزفاف
سندا
##رافضة
لاحدهم
المحتسب
عفراء
المرزبان
الكندية
بعود
وردها
بالاقرار
المعتقدات
مستدركه
##راين
التسامح
يقرض
يجود
رييسيا
الموسس
المهملة،
انصرفت
دولي
النقا
وجزاء
المصورة
والنوم
والفخر
فطن
ييسر
بالوس
معقدة
الدمار
الاسكن
الغربة
##والا
لحقت
والاخوة
المفرط
،،
السايق
الرفيق
اكثروا
شعيب،
الموقتة
بكلامه
الذلة
ويسب
وميكاييل
وسياسة
متغ
القردة
عشق
الكتف
رماح
الحافر
الكسندر
للولي
ولقا
والتزام
مرضت
التغليظ
نقدر
##زف
وصم
امنين
الحكوم
يهدد
دراستها
وادعوا
مقادير
اثقال
بسماع
التشريح
ينبني
موثرا
مملكته
##طعة
بالوجوب
الاخرس
متعب
بمختلف
محذوف،
ادراكه
على،
القح
##روطه
تعلو
مرجح
قرابته
غضا
انبه
فعبر
مجلدا
الصيام،
شمول
الدورات
الامير،
توثي
وروايته
بخار
واسالك
اقتصادي
نحوه،
المقتر
والحدود
مغيث
##وحي
الحت
عبودية
العليا،
ويعظم
واحسب
وشره
واحتمال
يعذبهم
ومجاز
المقادير
الثعلب
وزينب
ديد
دلف
ظهار
غيل
برنام
وبالفعل
بالظن
يسجل
نسخا
المحصن
يخيل
الاغريق
التميمي،
والسادس
عنزة
معنيين
المعارج
لحساب
البنفس
الطاعة،
الدراسي
وهج
حداد
يعتكف
متوجها
تخلي
اشرطة
وامثالها
اعاده
وكانهم
متصرف
ببطلان
السبابة
بالجماعة
ضلوا
الاستغاثة
لتنظيم
التقت
بالخص
الجماد
الرضع
يحيا
للمولف
اعده
مستعملا
خيلا
العف
التقد
سنجر
تجس
الابعد
اضيفت
والكنى
يتيح
فتذكر
فالاح
##اكلة
ومنهج
والوقت
اوهم
الفيت
ومكة
والبحوث
ذهب،
الانتماء
المعتدة
انطلاق
يبكيك
##يران،
الحجب
توعدون
ورثه
##لايها
الفاسقون
الجانبية
السواحل
جاير
نوب
##نني
##قلا
الكتيبة
ايثار
يعمله
علت
يجبه
ونرى
اذبح
ريي
##سطوا
بالنقد
اعتقال
الخطيب،
##غفار
لتقدم
نهوا
الازهرية
لسليمان
علانية
والقتال
لاوليك
وتدل
ملزم
الداودي
بالاستق
المجرم
حوي
المكون
للبيان
وتوفير
والنوع
والشباب
##وطنة
بالحس
المرض،
حازم،
فبت
##نوت
الحرا
النثر
مسيرته
مستم
تكساس
كاخ
خافت
شرابا
تلمسان
الظهيرة
تضعف
##حدار
وعرفه
المعمارية
الحميم
فاستجاب
والاخوات
يجدها
المساكن
القيسراني
فيوم
للقر
اشياخ
تحبس
النقدي
خزي
نقا
##زعون
قتل،
قميصا
فامنوا
العنت
التماس
الغشاء
فلاح
موكل
##رطبي
كحال
عبدالكريم
لاخي
منه؛
الضماير
وتاويل
##قيتها
ويتوجه
وخرجه
الرمية
قياسه
الصيدلاني
متقدما
خفا
##كنات
##بب
الام،
##متعون
##صيها
الرما
للفرد
##طيك
الاعز
توظيف
تاثيرات
ركز
مفرو
شهاب،
بركاته
تظلمون
يجدد
اهدنا
تمرد
اعرضوا
النزع
له؟
وكث
##تيح
يدير
تحرفت
النسوية
##رايطي
صدرا
القسمين
موصوفة
الكلمة،
واسند
اتصلت
تصريف
اخذتم
بجاه
مهموز
##ثقافة
ملات
الجباب
يكونان
علماونا
ذكورا
وفرقة
بمرور
يطاها
وهات
فقده
وكافر
بالصالح
يهر
بمصالح
##ريب،
##باتها
الاعتناء
الحسابات
ويستدل
فالتمس
صلبة
اليات
الخيل،
يتفكرون
زخرف
وبقى
والسداد
تكريم
اقسمت
اندلعت
والملوك
ابواه
والمشت
ادلك
للمعل
قتلنا
الصدفي
الموجة
قانونا
شتاء
المحمل
اخلق
ويحاول
يعطف
بحياة
التطورات
اسباط،
طويلا،
بذهب
تير
ويوجه
وجوها
تنطلق
##سيين
وصايا
واثنان
بالوصف
وكونوا
جثة
نقاش
المكا
اسا
محركات
##قصا
الالياف
مشتر
الاوساط
خثعم
بارج
المستور
يعلمنا
مطلوبة
##ورانيوم
الاولمبية
ودلالة
والذل
المجامع
والثمن
الشاعر،
مسيحي
وسبعماية،
الطلقة
واشر
##باية
يسار،
والعجز
بحساب
كاملة،
##واصوا
ويزعم
يغتفر
ولمسلم
بالمملكة
لنيل
وطرا
مواسم
يشترون
سفيه
كورت
##صبا
السلك
ومصدر
والجماعات
زنجويه
كوين
ايط
ابوح
وعنا
لقياس
نعمان
مختصا
يضعها
الطرقات
فيبطل
قرد
السوي
الاولوية
وشفاء
كفرت
عاصيا
رحلات
فردها
نكتة
برون
ودخلوا
احتياجات
بالعديد
قصف
يقدمه
ونذكر
شكله
التفتيش
عنك،
فالاية
مستو
الاسدي،
##رقى
##كاكين
عاشق
المختلط
معطوفا
مشركا
الخارجة
التضخم
##ضمان
وتنه
واسرع
اعتزل
الاميركي
بالشرك
الهايل
تقيد
سوالات
القطعي
مقصورا
الجذور
ومناق
التحسين
مسيولية
الراب
بجماعة
فضع
شعبي
والنقص
##نعوا
عبيدة،
نوعها
فخلع
الكش
الموثرة
والدنانير
اقتص
بادلة
صرحت
وامثالهم
ضيعة
كهم
مراه
مزايا
لاشك
لتوفير
الظاء
فعظم
الاشهب
مخبر
وحدهم
توزع
البقل
اقص
هموم
وامرنا
العاجل
الحاجز
ماش
الصعبة
##رقاق
##دى،
بالكف
المرضية
والفلسفة
البكالوريوس
الرضيع
اعقب
يتلف
الناقل
مثناة
يسكر
للتس
مبط
الامامي
##يازات
قصاصا
البروتستانت
تطيق
كدت
امرهما
لحج
##قبلة
مرتد
مسجدي
مقطوعة
الاخطار
المستفاد
حاشا
الرشاد
بالامكان
##ينين
سلوا
تجبر
وثاب
سقم
للطلاب
بستة
اعالي
المنفي
تنصح
وخلفه
حملنا
القلبية
الاحتجاجات
تعبيره
العشاير
ورعاية
تروا
##جارة،
الحنفية،
التبرعات
مراق
##ونية،
الغراء
المتصدق
##قطعة
الاجساد
دارك
التشري
يزالوا
ويشكل
المنسوبة
الثنايية
للمساعدة
##وايه
السوسي
البصاير
بعيد،
##ازا
صحبه
فينزل
جاريا
الشكوى
اطرافها
الزعفران
خضرة
نقيب
الاطفال،
##الباني
تساء
سمية
تزرع
الطيب،
اعادتها
حولهم
دوق
##نفس
الفاتي
استكمل
قبالة
يغض
اسطورة
فركع
حشد
##حاك،
وفص
كثيره
مزاج
بوف
فيء
تنهى
ورجحه
انقراض
سوادة
ونسخ
الناطقة
لانهن
المستدل
فالمت
الخطا،
يكتف
والاهتمام
صافي
اعيا
##جيرات
امتلات
الاختبارات
الصيانة
الشوارب
بالوفاء
مثلت
يقول،
وضعا
والمشاهد
صغيرة،
شروطا
الحمال
للبنك
المضروب
حركتها
الفلبين
##مرك
نبيل
النظامية
موكله
فعب
علاه
ولديه
نجسة
المنتديات
الشهرية
##راثيم
ليكونوا
للمسلمين،
وزل
وتربية
بعلي
وحيدا
عدلت
المخاض
ويستغفر
عميقة
الهولندية
مطع
لاصل
اسكر
جاهدا
كمش
الخنا
الثنية
نقبل
المنتصر
والملح
افتتحت
فاطال
ولبن
يتحلل
وصولا
والجيم
##وليكي
الركبة
##عالب
وترجع
##ملة،
انتهاك
واجلس
ليذهب
يستلم
اختك
برشلونة
##رارهم
لحافظ
ونشرت
الصاروخ
فرفعت
##لهل
##يلته
بالقدرة
لمومن
وتلف
تعقيب
##حيرات
والنعمة
الصفرة
فامرني
ثبوتها
بقدره
العوالي
##داعي
الجمع،
كادوا
هدايا
طورا
نضع
نهد
الاحيان،
ماضيا
وسلك
وجدتها
البقرة،
وزوجة
العجيبة
##سارة
البطين
ينتبه
##درايية
هذا؛
للغا
ولهذه
الرييسة
نبيها
الرقايق
##حور
منكن
الدبري
مقربة
الملاحظات
انفقه
الكحل
الخري
الزحام
راحت
عقوبات
والخميس
العزيمة
حولي
##قعة
##ونته
يقله
الغنا
وحوا
يسخر
طريقان
نمير،
سبيلهم
ذنوبهم
السرايا
والانقياد
##ترات
اسك
الانتحار
ويستمر
بفناء
مساو
الايدز
صبرة
انابيب
مجهول،
وكنتم
والتدبير
اذهان
ليصلي
اصعب
##واتف
تدمر
والفوايد
ووضعه
وتدبر
اباءنا
##وروا
المستر
حفيد
تصدى
هاه
المظلم
اجورهم
بمضي
مثلنا
يقتدي
الممنوع
##نجة
الدباء
مكانك
مغف
حلوان
لشريك
ندخل
ويكشف
المنطقي
جوعا
##ذاه
الموعد
اذانهم
الواف
الريبة
باموالهم
فيتعين
باصلاح
خريم
##خش
##ماره
##احه
##جا،
يغوث
بوابة
ذنبك
جفن
انقل
والطعن
##مانيا
اتل
الاشد
ثيابها
الموصل،
ماهان
الصابوني
المحظورات
رفعة
والمسل
مستمرا
وشركة
نعمت
##واميس
وتسعة
مرسلة
مملوءة
##ماهم
وبش
ودعوى
وطف
##طاني
المتج
المتقون
الولد،
مفتر
كافر،
مونث
فسالوه
باهلها
مجييه
بلبن
والورق
العفة
قدماء
الاجناد
بشماله
والشخص
مرادهم
الاراك
##كوني
الاسكت
##حاضر
وشا
##فلس
اتيك
الايتمان
ككتاب
بعق
وزكريا
تركتم
المكان،
مشييته
الاضطرار
المفضلة
الحيتان
##درها
اعلمك
بالسواك
وانتفع
بالدار
سواحل
بربهم
والضعيف
داير
حسابا
لقيتم
اجابته
المهلبي
ليات
مهدى
هكت
##هيد
الروع
الاميرة
اختصر
همذان
وروية
وحدك
المنذر،
انقسام
السوداني
الشبكات
المرسوم
روج
مصدا
تصوره
متعا
الدولية،
عسير
بعكس
ينصرون
والعادة
