[PAD]
[UNK]
[CLS]
[SEP]
[MASK]
.
/
:
=
|
،
؛
؟
ء
آ
أ
ؤ
إ
ئ
ا
ب
ة
ت
ث
ج
ح
خ
د
ذ
ر
ز
س
ش
ص
ض
ط
ظ
ع
غ
ف
ق
ك
ل
م
ن
ه
و
ى
ي
##ا
##ب
##ه
##و
##ن
##ق
##ل
##ي
##م
##ث
##س
##ء
##،
##ف
##ظ
##أ
##د
##ة
##ت
##ط
##ع
##ئ
##ى
##ر
##ك
##ذ
##ز
##ج
##ض
##ش
##خ
##إ
##غ
##ح
##ص
##؛
##؟
##آ
##ؤ
ال
##ال
في
من
##ان
##له
الم
##لا
##لى
##ما
##ين
##لي
##ها
##نا
وال
##وا
##ية
##را
أن
بن
عن
الله
##ير
##لم
##ار
##ون
##هم
##بي
##ول
الأ
##ذا
على
قال
##اب
##لك
الع
علي
##ري
الح
##ات
##ام
الت
##دي
##ست
لا
بال
وق
ما
وأ
##اء
الق
##حم
أو
إلى
عليه
##مر
الس
##ور
الن
##من
##اد
كان
##عد
##كر
##إن
##بد
##ائ
##ته
مع
وه
##في
الش
##يد
##بر
##بن
الج
##وم
##حد
الر
##أن
##سلم
##با
##خر
أي
##عة
##كم
##ني
الص
##رب
##يل
##يم
##بو
لل
##وله
##حمد
##مع
فق
##ود
الد
إن
ابن
الك
الإ
الذ
له
ذلك
الف
الب
هذا
لم
##رة
##يا
وك
يق
الخ
عبد
ولا
##اف
##بة
وي
صلى
##لة
به
وت
##لام
##ذه
تع
أبي
##وج
وع
وا
##رك
##رف
ثم
##لف
##بل
##لق
##اه
##لو
##مة
##نة
وج
##كون
الا
##قد
##حي
يع
##رو
وسلم
##لت
حد
إذا
أبو
هو
##سم
##كن
وهو
فإن
##ديث
قوله
بين
##فر
##قي
بع
لأن
##يس
إلا
قد
##فس
محمد
##قة
##رض
الث
بعد
فيه
الو
أنه
##تى
حدث
##سول
##اني
##رج
##دة
##به
غير
##عت
##عل
##صل
##شر
الط
الذي
##وس
##تي
فقال
يت
##مي
ان
وم
وقال
##ضي
##حت
كما
##جل
##حا
##ذلك
##مل
##هر
##عي
##هما
##فا
أخ
##سن
وفي
رسول
وإن
عند
هذه
عمر
##الى
وقد
النا
التي
##ة،
##صر
ومن
##وي
##عا
وب
فأ
كل
##هل
أم
##دا
##ه،
الز
##خت
##سب
حتى
##غير
##عم
حدثنا
ول
يج
تعالى
##بت
##وق
شي
##ضا
إلي
##يت
الآ
وإ
است
##تاب
##قت
عنه
##فة
##اج
ون
وكان
ين
والم
##خرج
##لب
##صح
##اح
##مان
بل
##رد
##سي
بعض
##وب
##قا
ذكر
الغ
##ثر
يكون
##راء
##وز
##نى
##وى
##كل
##فع
##سا
مت
أحد
##هد
مث
لي
##وت
##اري
##بع
أع
النبي
المت
##خل
##وع
##ده
##يب
##حر
##فت
وما
##سلام
##در
##قل
##وف
##ادة
يقول
منه
مس
##جر
عام
##وض
##شت
المع
فيها
##دين
##مس
فه
##كان
وس
بها
##حة
فلا
##لاة
##لاث
##اص
##يرة
##قول
الناس
##ورة
يا
فت
##لما
##رأ
##ظر
##لها
##ارة
قبل
##دم
المن
##رق
كانت
##مام
لو
وأن
##كت
##اع
##ذكر
مال
أحمد
##حو
##رت
حي
يد
##سان
##شي
وح
بأ
أهل
##رات
سلم
حديث
##بح
والأ
يوم
##رس
##زي
بد
##لال
##ية،
##سر
سنة
##مت
الي
القر
والت
إس
##راد
ولم
لأ
##الم
مج
بم
##لاف
الشي
##راه
##رح
##ريق
##از
الحديث
هي
واحد
##صف
##ليل
##يف
روا
##مه
أس
بي
نفس
بأن
##قط
أيضا
يح
رأ
##جد
أك
المس
##تها
يم
##لية
##قر
ليس
##خذ
لما
##وه
ثنا
##ئة
الأم
##نت
وهذا
إليه
للم
##حيح
أص
##زل
##وة
##سة
##حق
##بار
با
كتاب
##ابن
##ينا
كث
رضي
الدين
##يات
##فق
منها
لأنه
##وال
##ماع
البي
ولك
اله
الل
##بير
يست
فال
##الة
مثل
##طي
##خص
##ضل
ولو
مح
رج
##ضر
الإسلام
##كا
تح
##وات
##ند
وهي
قول
الوا
فا
الذين
أخبر
##عيد
##صد
تق
أمر
بما
##رى
المؤ
##وان
##تم
##باس
##ناء
##رم
لها
يس
ثلاث
##ولى
آخر
##ين،
نس
##ذي
##لاء
ولي
وغير
سمع
##انية
##طل
بق
##عب
لت
حيث
الصلاة
أش
أب
أما
##نس
لهم
##ضع
بكر
عد
كال
##زم
ولكن
##رع
وص
يأ
فإ
##واب
##كة
##ديد
فع
مق
##امة
شيء
والع
##آن
##مال
##وية
دا
تن
الرحم
##انه
##كي
##اق
فقد
هنا
##ماء
المسلم
بت
باب
تم
##اهر
تأ
تت
##ها،
أح
المج
إب
عم
##قدم
القا
علم
##رط
قت
فهو
يش
##جب
رب
##صحاب
وأما
أق
مما
أف
قلت
بح
##لات
المص
##ميع
##راهيم
##جة
أج
##لط
##وص
##تب
يز
الأول
سعيد
فإذا
الاست
أد
##ائل
دون
الض
جاء
الإن
##لاق
حق
##دينة
##طلق
وخ
مست
مالك
##طر
إذ
فيما
مسلم
المش
##بق
##خرى
الحسن
مش
العلم
##ذر
فى
الظ
سن
الرا
وابن
لكن
عمرو
النس
##عه
فإنه
الرحمن
عليها
##حدث
##ولا
##مات
رجل
عشر
##هم،
رحم
القرآن
##ختلف
والله
##دع
أخرج
الأن
##ابة
##يرا
##وجه
وف
المح
##وح
##ظم
وجه
##عين
فل
بك
##ريد
المست
##فظ
والح
حم
أكثر
قب
##سل
##قص
##ذهب
##ره
يص
##الح
##وفي
منهم
نا
##حيى
##رائ
##ئا
##ضاء
##يه
إنما
إبراهيم
##طع
##زة
الأرض
الشيخ
##نه
يكن
أول
بش
ات
الملك
أخبرنا
تج
بإ
##سط
##بلغ
يؤ
فلما
لك
يخ
##واء
##ولة
حين
وقيل
قل
صاح
سي
ور
بخ
صحيح
مص
##ولي
الخط
يجوز
وش
حال
##جه
##غي
##نف
عز
##غة
##جم
ومع
تس
وث
##صار
لع
##بين
السلام
##ناه
عب
##الي
##وط
بالم
##لهم
يعني
أنا
حكم
عباس
الآخر
##قه
موس
عليهم
يحيى
الثاني
تص
وإذا
##ركة
يقال
##رام
جع
الآية
دين
والن
##نيا
تكون
##افة
##يلة
العرب
##بيع
خال
داود
وان
المال
أرب
وز
##حاق
الكتاب
##قال
تش
##رار
الأس
أبا
##سين
ود
##ريم
##هب
الرجل
روى
##جت
وعلى
##قب
طريق
##يمة
##طف
##ثل
##بيد
واست
مؤ
نص
##الث
##وري
رواه
تحت
##ذن
##ليم
##قم
##ظهر
وذلك
خط
الحق
##يمان
##لاد
الان
##ضى
أصحاب
وإنما
اعت
##وضع
##جا
كلام
والإ
##عر
زيد
يمكن
موسى
البر
نفسه
ملك
##الب
##شرة
الأمر
##خاري
##شة
اسم
##طن
الإمام
فلم
أنها
ترك
المد
لله
##ضم
وقوله
##اريخ
غيره
فس
##ابت
كثير
معا
مد
##ثمان
جميع
##ائر
##روف
شيئا
##ينة
فما
تلك
قالوا
##ذب
##اته
##عمال
بذلك
بالت
التع
##يام
فك
والس
##لاح
##مد
##ضة
بني
##هود
الحج
وأبو
المؤمن
##فه
##بط
إل
العالم
##اهد
وليس
الحكم
##بيل
قيل
##نع
##ان،
نحو
##امل
البخاري
سمعت
أت
ست
سبح
##يش
فلي
##طا
هل
رحمه
مات
##جز
##ذك
أخرجه
صاحب
وله
##بات
وقت
يف
##حدة
##صة
الأع
وكذلك
##هن
##عود
لن
جز
##دت
الفت
فر
مخ
##وك
هم
يك
لق
المنا
وبين
تك
##لماء
##ماعة
الدنيا
والش
##فتح
##علم
وط
إنه
كذا
##ونه
مر
خلق
وعن
##انا
بر
سب
##صب
جمع
عائ
عق
##فل
##وء
هر
##ريب
كانوا
والث
يزيد
المسلمين
فمن
سورة
صد
بلغ
##افظ
##ئيس
والج
أخرى
الأولى
##وائ
إسحاق
فن
##ائي
##قيق
##حرم
المغ
##اط
ألف
##وما
##نب
##ك،
تد
حدثني
##ألة
##راج
السنة
الإنسان
رقم
##زا
كنت
أخذ
امر
كذلك
يجب
##ثير
##أل
عدد
##افر
الأص
الأخ
انت
عا
عبيد
سعد
##ياس
أه
##رفة
##جي
##حل
##قات
ذكره
##رأة
اخت
بط
##دى
##تين
##وجد
##راب
أعلم
خلال
##فار
وتع
##اس
##سبب
تقدم
للت
##راق
يل
##ؤلاء
خمس
وآ
رواية
##مار
زي
##حن
##شد
##سه
##ليمان
والص
##لوب
بالأ
##بيه
##ومة
خرج
فج
للأ
##لائ
##مو
##صي
البا
##افع
##وبة
اليوم
##معنى
##صور
##داد
أبيه
وهم
وكانت
فض
##رجع
وجل
##زيز
قوم
يعلم
القول
والخ
ثلاثة
عثمان
سبحانه
##ثبت
الله،
والا
عنها
##داء
زوج
شع
##وجود
##وني
لمن
جل
خير
هريرة
فعل
جعفر
فوق
فكان
##هي
##لفظ
حسن
اشت
قام
الصح
##ظيم
معه
عدم
##اك
فان
##أة
يغ
نعم
##هور
##ديم
##حمل
##افعي
قر
##ريك
##وسف
المدينة
الجنة
بالإ
##تهم
##جلس
سليمان
##قيقة
والد
الحا
دع
حب
وذكر
الكلام
##هار
##زوج
##ا،
النار
تخ
هناك
##حب
نع
كتب
سفي
الماء
##ته،
معنى
شرح
##فسير
الجم
أنت
المخ
كأن
##اله
رك
##طة
##راف
ورو
الجز
بعضهم
أحدهما
##ورا
##ارث
##لمة
##مرة
يعت
صلاة
انته
بالله
##سنا
##ماعيل
الثالث
دخل
شيخ
أراد
##يني
بج
لنا
##عون
يحت
إلخ
المط
##ابر
##قع
يوسف
ولد
النساء
##ويل
##كس
##اعة
##يز
شاء
##ربي
ألا
صف
لح
وجود
المق
العد
والق
##يع
##واز
##ياة
وعد
دار
قتل
العلماء
واحدة
قالت
##كام
وكذا
##كره
كيف
##طان
نسبة
##واه
##هاب
الجن
##باد
أنس
##راءة
##فى
##سبة
##هاد
سفيان
##اصة
المرأة
بغير
احت
تف
مرة
العمل
تط
الصحيح
##رسل
##عام
##انة
الساب
يط
والب
يعرف
##سمى
الرج
##طاء
هؤلاء
وبال
نظ
##ريف
صالح
##ولد
بيت
عبدال
##ريح
القاضي
بص
##فاء
##كثر
جعل
الأش
##كتب
قط
التح
##راض
##علق
صح
##ماد
تست
موا
##ريا
##ليه
##نية
##تق
عل
##راك
شرط
العزيز
##وسط
والك
##وار
عائشة
##تك
السلط
##وث
الشافعي
##الية
##ي،
بقوله
بهذا
القب
يقت
وأخرج
خالد
رم
##جار
وغيره
عنده
فقط
##كاة
مط
##جاب
##هة
##يته
##امع
رس
لكم
نز
##ون،
##صرف
رأيت
قدم
يتم
سواء
##شا
المؤمنين
الدار
سبيل
بغ
أنهم
العق
##الف
المسجد
حا
##ليد
##ؤال
يصح
يريد
عشرة
المذك
##جرة
لإ
##باع
العام
##ضح
وغ
إسماعيل
##بيب
القاسم
التق
##ئذ
مكان
##ارك
بلا
كم
##يار
البد
وفيه
##رمذي
انتهى
##عيف
بنت
##شام
##يدة
##خد
##ائع
##شف
بالع
عرف
أغ
ير
أبى
##عدة
عمل
وين
##فاق
بخلاف
بالح
حر
عين
وإلا
ممن
نظر
أيام
قاله
##كذا
##يده
القي
قا
##نات
البحر
أصل
بالن
ذلك،
##ارج
ويت
##بى
حك
##حاديث
##صا
الحي
##كاح
أث
قائ
##بري
الثانية
##راط
ذات
الوقت
العبد
الموا
##لس
ورد
الإيمان
إليها
الحسين
نق
##يسى
##هاية
##نين
##ارت
الدع
##ضمن
##هري
بالق
##ناس
والف
##وجب
##صدق
يأتي
##لد
لان
قري
##اتم
مصر
مغ
##رير
بس
##لوا
##شق
مك
##ونس
موضع
##باح
الحال
##عض
دخ
##أم
##ديه
##تمع
فد
وضع
##ائدة
يخرج
المعت
بشر
##خبر
إني
ونحو
##بس
بينهما
##صول
الرسول
##ذاب
خلاف
وجد
قدر
رجلا
##مائة
##اذ
اللهم
الحد
إي
##باب
الأصل
بهم
يذكر
##فض
لفظ
بالك
##ذين
جم
##فن
فهذا
حني
وير
الروا
لكل
ظاهر
##رش
كله
وقع
بسبب
##هاء
فح
ظهر
الزوج
##ارس
اقت
نف
##اره
الثلاث
##لوم
خلف
وحد
الأح
##وقف
سلمة
العم
دم
##فص
الولا
##يث
##شتري
اه
تاريخ
##اية
##ادر
سم
##روع
##ئت
التن
##ارب
ثابت
والذي
إما
للع
##رفع
##هادة
إحد
كت
##ائب
المعنى
الأد
يب
الباب
اليهود
##طقة
وبعد
انظر
أرض
الفر
##ضرب
جن
رد
قص
فصل
وعبد
شر
##مير
والسلام
لقد
##قف
منهما
##انب
فقلت
المث
البيت
اث
بمعنى
##لوك
عاما
##نائ
##غم
لج
##ثة
للح
بمن
##ى،
الحافظ
عليك
وكل
عيسى
الخام
شخص
##ديدة
##لح
##فاع
مسعود
##وته
##قطع
شهر
##ظاهر
الحرب
تعد
##وقع
دي
عما
##ارض
##امت
##ارية
المسي
وصف
##تر
مكة
الشمس
آية
بأنه
##اة
تقول
##اهرة
خص
ويقال
عباد
##قين
يدل
حاج
الصف
##طب
امرأة
النفس
الليل
##ضافة
بعده
الحارث
فلو
تب
المتحدة
هشام
##قى
##طلاق
ضعيف
##خدم
ففي
ولما
##حه
إله
أيها
المراد
اللي
الخطاب
الات
لأنها
##ذف
السماء
##شاء
حول
حج
##ورية
##طق
##منع
حنيفة
##بغي
عليكم
##وهم
آمن
##أت
##سك
الدم
##شرين
الأمة
عنهم
الأز
القد
##زلة
##واج
الصحابة
##ساب
وهذه
البق
##قبل
##راس
##وها
مدينة
##ات،
يصل
جماعة
حص
تز
القوم
كلا
##فرد
بيع
##فرق
الرز
##غيرة
فأن
معاوية
##غل
العباس
##بني
عاد
تر
##أس
شك
##بال
##عة،
##خي
للإ
##قدر
أفضل
##نام
##سند
يدخل
الوجه
الحك
كثيرا
حن
##انيا
##رجل
##لث
##ليق
إسنا
الجواب
##خدام
القيامة
الحر
##ينه
##زمه
##بيرة
إخ
الفق
بيان
طل
عندما
##ودي
الشع
وتعالى
فتح
##واع
تفسير
توفي
كون
##قدير
جابر
##شية
##ائه
نصف
##ضية
بشكل
در
فهي
إد
الأخرى
##ياه
العربية
##واد
حاتم
ارت
##زع
يرد
اس
البيع
ابت
البص
##شار
ثبت
كلها
فم
قرأ
كفر
##فعل
أجل
فذكر
لذلك
والتي
المذكور
##رجمة
عقد
فص
أكبر
الاعت
ثقة
إج
مرت
##بعض
##هات
العين
ضرب
تغ
مطلق
الآن
الترمذي
عرض
وروى
##ثار
أمير
أر
إع
العقد
##انون
وأنه
نه
##آخر
والط
فاست
##ساس
آل
##ذيب
جمي
سبع
الحاكم
بقي
الرئيس
##كار
القت
أط
عدة
##فسه
الموت
أولا
المر
فرض
رفع
السن
##قوب
##وير
##بارك
الحم
##اء،
##أتي
##اث
عامر
##كرة
##ربية
##ب،
ذهب
##ونا
##وذ
أولى
ليست
كن
يقع
##راع
ويج
المقد
اجت
##ودة
فب
##شهد
عي
وبه
مثله
##ابع
طالب
فلان
##لالة
مض
القرن
جزء
زاد
##الك
يوما
السؤال
منذ
##ابل
أنفس
وض
مسألة
الفضل
مم
المو
عبدالله
المسألة
أربعة
فيقول
##ونة
الزبير
##امعة
##غر
خبر
النص
يه
##ضان
ها
##جن
ولهذا
خلا
##بعة
الإج
##سع
ذي
السلطان
التأ
نج
##ائد
الشرع
الدولة
##بيعة
##طيع
جميعا
وأم
الجمعة
والمع
##رائيل
بأس
الور
##رجة
نصر
ورس
##سد
وأع
##ئل
الثام
كبير
مختلف
##وعا
عنهما
المصنف
القص
حجر
الأب
##وخ
الحياة
يونس
للس
شهد
##قام
ينا
##ظام
##يو
الإس
بفتح
وأنا
ينت
يوجد
ويقول
يقوم
##اعر
فيكون
##شيء
يرو
آدم
الوليد
مه
رئيس
صار
ضمن
##قض
وسلم،
طلب
##سباب
رأى
الشام
عض
الكبير
المز
بالس
ويع
الحاج
لابن
##بية
##ريقة
عاص
ونسبة
الشيء
المك
##يدا
##وضوع
تؤ
عهد
يدع
##يق
ليلة
قيس
وات
##هير
##ائم
##ريج
ولق
الترك
الرزاق
التص
يشت
مقد
ومحمد
رجال
الإسلامية
الطريق
را
فهم
##نان
##ال،
##شارة
مل
أحب
ينبغي
رأس
الصد
سبق
وأبي
يده
والغ
##هام
أربع
##دية
مذهب
##ثم
##حاد
وعند
اختلف
النظر
##اتب
كثيرة
##ربة
مخت
جاز
الما
الولايات
##ئمة
عليه،
##لائكة
بعث
مثلا
##ابه
##روة
##أنه
للن
العمر
فليس
الجمع
##يمين
رؤ
للا
##فو
جدا
الطلاق
الخبر
##لع
##ربعة
##حية
##بة،
##وين
ومنه
نبي
أسلم
##كين
##زن
مائة
##لة،
أحسن
##فيد
##ضب
##كلم
##جاج
سأ
وبلغ
اللغة
الخير
والر
##بقى
##بدأ
الكريم
##اتل
منا
وثلاث
سا
وصح
حبان
قبله
##وام
دليل
رمضان
أز
به،
##قاد
الفعل
##قامة
##ختي
##ميز
تو
قطع
التاريخ
نزل
الأمير
##موع
##عيب
فأما
كف
بناء
علينا
##ظمة
##شك
الزهري
فهل
يصلي
الواحد
التج
حسب
لص
جهة
##ق،
يعمل
##خير
##حيث
إليهم
قلنا
##ريعة
كنا
##ظن
طال
الأف
الأسر
##فعة
ضد
باسم
خاصة
معناه
زياد
بالج
يعد
الكتب
الخلق
##بأ
يرى
قتادة
يرجع
المم
بب
حماد
لغير
عطاء
أبد
##لل
وحدث
ماء
الكر
الفي
أعمال
##سام
إحدى
جرير
##باط
##شياء
روي
##سكر
##كية
ومنها
##ئك
##دل
الدي
زيادة
الى
فيهم
الانت
العديد
الزكاة
يفعل
##موعة
##ؤه
التش
صفة
الحمد
ضر
##ربع
التك
منصور
يعقوب
##ناع
جائ
##نم
##بعث
لس
##برة
##حيم
ترى
والثاني
إسرائيل
##بياء
سبب
القلب
##عمل
الآخرة
##والي
الرك
##يبة
الصالح
ويم
##انت
امت
البقرة
لدي
انه
كتابه
##ديق
شه
الشر
##مهور
أقل
نش
هكذا
الروم
الاحت
##له،
فرع
وسب
مرض
نقل
نوع
أتى
اللفظ
مرا
معين
أعط
##جع
والنس
##غا
يظهر
البلاد
أل
##صية
يقولون
لد
##زب
وهب
المه
##دعى
##غت
لب
العائ
##ذان
البن
دفع
##ليف
##الا
##ارع
يجعل
الظاهر
##حقق
الشرط
##نا،
ضع
حميد
بالنس
##يين
##لامة
##مائ
الأمور
أيوب
السيا
عمران
منع
صلا
شعبة
##يك
ورسوله
تنا
ويد
يأخذ
##صاد
##قتل
##د،
منك
بينهم
الاقت
يثبت
الشرح
السب
##واف
الرجال
تكن
الشعر
محم
بث
بهذه
يحدث
##ريكي
والز
أهم
تعلم
بلاد
##خة
بعدها
##جاز
##رة،
البلد
جد
الأق
ولذلك
العب
ملي
درا
##لاك
##يح
##بيت
يلزم
##ركز
هار
حرب
رجع
##را،
##ليفة
ويست
وجعل
الخامسة
يبلغ
##طار
حالة
أثر
دينار
كلمة
حرم
طلق
##زق
الشيطان
##ريض
##ظة
ذا
النكاح
نحن
##دي،
##الت
##شى
الأر
##جود
##لاج
نت
لهذا
المعروف
العصر
أشهر
إنا
القضاء
##غفر
##ضط
كعب
بوا
##قرار
##ويه
منت
##مة،
وغيرهم
##ارق
##ونها
ألم
##ضاف
العراق
اليمن
##سناد
مدة
يجد
محل
بالا
خيرا
النف
مز
##ثال
##روط
##ثبات
الميت
قلوب
##قاط
##شم
##ليات
##ليلا
محا
##ائية
##داية
##لوه
أنزل
##وحيد
فضل
منكم
له،
خمسة
##بيان
مبا
سر
وأمر
ورب
نافع
##ير،
##باء
##دري
وتح
##راح
وأحمد
وست
##ائفة
نعيم
بالص
الام
المشرك
##يضا
حقيقة
عبارة
الثامنة
فرق
السكان
##طفال
وحده
الهم
سير
للج
جواز
##ريع
الفتح
أعد
الشرك
والاست
مرو
##ختلاف
##وفة
كق
فقالت
##ليا
##ائق
يسمع
النسائي
ورواه
عاصم
##حث
وأص
أخبرني
حل
وصل
الاجت
أمره
وأخرجه
يعتبر
##يمي
آمنوا
مجلس
##ياب
##ولية
##يا،
##ثى
##خول
وأخ
عبر
لش
وعمر
##قصود
##س،
ذو
يقبل
سيد
لقوله
أحدا
قسم
أعظم
فات
أجر
للك
بري
##كبر
أين
المشتري
سنن
يمنع
##صال
البغ
العامة
الوج
بالنسبة
##انى
ربه
حصل
##اي
##فقه
حفظ
##يادة
##حوال
فكيف
##قوا
الخر
صحي
##ختار
اللا
الجاه
الكثير
بالش
فقالوا
شبه
##عث
##نون
قريش
الإع
فله
وأخذ
حجة
مولى
شعيب
وقرأ
فإنها
##قيم
عص
إسناده
للش
المف
##ظي
##ارف
يملك
ربك
شيبة
وجوب
عالم
##جلي
ماله
إليك
##لاب
##وفا
الكبر
باست
ومسلم
المعا
##زام
##صاري
حلف
معد
##حسان
المجتمع
بحيث
##ديل
##احة
حمل
بكل
##ؤمن
مطلقا
داخل
أصبح
ينظر
رأسه
مجال
وغيرها
وخمس
للب
الشخص
##لكم
احمد
##شرون
الذى
البشر
##ما،
##بره
كونه
##براني
وعلي
أست
بنا
ومنهم
أمام
الطعام
##حيط
جنا
عدي
سمي
##طلع
##ناك
خر
##انع
يجز
مو
لغ
وشر
##عى
##وسي
الثق
##ري،
الإخ
وبعض
وترك
اسمه
معت
ته
التس
##لكة
السي
سما
مي
ويكون
الفا
الثمن
##وفى
الفرق
حس
##ذى
قبض
دولا
كس
وراء
##ولها
سائر
##خط
متوسط
وهل
وجب
مقام
##ليس
دمشق
##يره
الجماعة
الملائكة
الخلاف
بضم
##وش
يحصل
معهم
##تان
مجموعة
نقص
السابق
##كمة
##قية
##وعة
##وبا
##ذل
السم
حبيب
وعليه
ولقد
##كى
أثناء
##ن،
قصد
##نج
نهاية
شئ
##اني،
نب
يحتاج
صدر
لانه
جملة
##يران
مأ
الأمريكي
##درسة
صورة
##كمال
يحب
العاص
المنت
##همة
##وبي
جنس
والمر
جانب
##جيل
افت
مجاهد
موجود
##فيف
##لقى
قالا
أنواع
بدر
السيد
أقول
يديه
##شيخ
استخدام
وآله
##ائف
##طية
##سمية
الثلاثة
الأنبياء
عندهم
حنبل
جه
##ور،
سهل
بشيء
بينما
ابنه
##تا
يحل
مسا
سكان
الرابع
الهد
##ختيار
حرف
السلف
##عدم
البعض
##حسن
ماجه
قولهم
خاص
الولد
##روب
الست
العقل
##ورد
كأنه
##قيه
وو
##ينية
الكافر
غيرها
كبيرة
بغداد
للد
الذه
ساب
ولكنه
##ريط
الإسلامي
بعضها
السر
الذكر
قراءة
##افية
##حتمل
غز
المغرب
دولار
للق
معمر
##عن
واعت
أمة
اب
##ضاع
قوة
البائع
الأعمال
الرواية
يؤمن
وتس
##بيح
النبو
الخص
##طلب
اليد
الجيش
بدون
مرف
العربي
##كد
##رفه
##عله
الفقه
الآيات
برق
سلط
الدا
ولأن
قيم
##رابي
##رث
##صى
##اده
عظيم
##قاق
##عبة
نشر
أصحابه
##سية
عبادة
كر
الهند
اكت
##جوم
دعا
صحة
أشد
وسي
وجهه
بينه
الألف
##لبي
آيات
##ضعف
فخرج
##ثرة
تاب
يقتضي
الكفر
معرفة
ترج
##صارى
حض
أموال
العباد
مني
يقدر
خز
##اتها
البيه
الأج
كلامه
وفى
خارج
حاجة
دائ
أصب
وأس
##املة
تزوج
باع
والأرض
الدول
بالمع
شرع
وهكذا
فيهما
سوى
##قون
##كب
كقوله
##طال
والمن
##فعال
واحدا
ذكرنا
##دب
زمان
##كرم
الخمس
##تاج
المض
##احب
وتن
الشمال
##فيه
##فعول
ويح
عادة
أصاب
##ئات
شعب
وأصحاب
القدر
تعت
أنبأ
التط
نور
سقط
##نتين
##بوت
لسان
وفيها
##ذات
##عتين
يتعلق
التم
الوض
##فهوم
فأمر
وعنه
العائلات
الشاعر
العظيم
وبر
وتم
عنه،
الإي
إنها
معاذ
##ئي
الجامع
عبي
فعلى
تيم
قضاء
أقر
بيده
##ياط
الأحاديث
الرس
وإلى
##ثله
الفجر
الته
والتع
يدي
الذهب
علا
##طرة
شريك
الشرق
كا
##ختص
زمن
##اجد
الضر
##قعة
معظم
مشت
الفس
ويل
الثالثة
واف
الوط
المذهب
وأنت
##صير
إنسان
عروة
الخلا
يسمى
يسم
خي
ليت
فأخذ
##عتبار
الوز
جبل
##مسك
بار
راج
المسلمون
عندي
أهله
مب
صدق
الواجب
الجنس
هارون
فيه،
كأ
بدأ
##زوم
الفقهاء
الساعة
##تيجة
وخرج
تقر
##راز
فقيل
##حاكم
منطقة
شعر
يقرأ
فجاء
##ريكية
والآخر
أرسل
درجة
##حص
البيان
صاحبه
اليمين
##بتد
بف
ستة
حسين
##ثناء
مقت
##ناب
لهما
السما
العا
بلد
ثلاثا
##ندي
قيمة
دور
أحاديث
يحمل
##حياء
##حمة
المثل
المتن
بلفظ
أنفسهم
أسماء
القسم
اختلاف
وعشرين
##هاجر
ذك
##أي
إم
لئ
وبن
##ركب
واج
##كرمة
الكف
##دد
لأنهم
علماء
أرد
الذهبي
ويجوز
إمام
الكفار
##ثلة
للص
أبدا
ذاك
سألت
##أخر
المرض
الدعاء
وقالوا
أدرك
نقول
تقوم
لأحد
##اتهم
##خلص
النو
روح
الحكومة
النوع
صور
عف
اص
وأرب
لكنه
وإما
خطأ
الربيع
سلام
عذاب
فالم
سئل
##جمة
يو
##دون
عضو
##لا،
زوجها
وقف
شيخنا
##بعه
فجعل
##رأيت
التف
جبير
وفا
بحسب
علق
والذين
حقه
##ناها
وسمع
ني
##ظلم
لر
يعود
إنك
بكسر
الاسم
##ثي
النعم
أولئك
الوضوء
##عمش
السلم
##عادة
عيا
المسا
أجمع
الساد
القيام
أخي
الكبرى
للناس
فش
يشترط
##اظ
##مته
النهاية
جاءت
##طى
##ونية
نظام
لأبي
تقع
بمع
فخ
فيت
قلب
وتت
الحيوان
حرام
نهى
الصغير
نفي
سأل
##لي،
الحقيقة
سالم
دخلت
الرحيم
##قة،
##بريل
تل
##بيا
بالغ
##زار
أني
بات
بالب
##كو
المؤلف
حينئذ
مكت
وجاء
##ذة
الزمان
المنذر
##بته
##طاع
الجنا
المرت
صل
##زيد
السفر
تقدير
طب
##بض
فعله
الوك
##وائد
##ديا
##شأ
صلاته
##طه
وجوه
المشت
##شير
حديثه
لديها
##م،
ويس
أحدكم
ومر
إذن
أكل
بالخ
لغة
##مبر
الأنصاري
سليم
##قاب
الظهر
شهادة
بالد
##ارح
المحت
الأسود
التر
الحجاج
عملية
حضر
أطلق
والسنة
المي
تمت
ثالث
وكتب
قرب
##صلاح
تعليق
متى
زك
شهاب
درهم
##البا
##نث
الها
سج
الخاص
البصري
نفسي
واجب
عوف
بنفسه
ثمان
الخمر
أحكام
الجهاد
المنطقة
عت
##ماعية
وقول
##ويت
موت
جامعة
ولل
##قطني
لكون
المأم
أجز
##غني
##مامة
عج
نزلت
##مين
شأن
الحجر
عبيدة
##زية
طلحة
الخارج
##سات
##صره
عال
مفت
##ائن
المهم
بقية
يتع
##دخل
امرأ
ربيعة
التفسير
##لبس
حوالي
##صيل
##ل،
##زال
الريا
وعدم
ابى
الحرام
مف
##راضي
الصوم
لكان
وهما
المقصود
##فسر
حياة
ظن
فقت
##ئية
واحت
ثلث
وآخر
الطب
بير
##وغ
ونحن
##تيب
الموص
##زيادة
منه،
##ستان
مضى
الإبل
##ركات
الثوري
كلهم
يقل
##به،
البيهقي
غاية
اج
محت
الوس
طرق
الأعلى
نفسها
##وا،
وفر
بالر
##منا
مرات
كي
الحب
مسجد
سيا
المدين
##ولوج
##واعد
##عار
حمزة
يحرم
##صلحة
##هول
الشعب
##تهما
جريج
معروف
وتق
يمت
الإم
الأئمة
فيمن
##وضة
##ئه
مريم
##يسر
##لول
ولاية
##خلف
العن
جبريل
أمه
التوبة
أيدي
##ناد
تعرف
آله
محمود
بالإضافة
العذاب
يكره
وذ
كنتم
ورج
##تمام
الرغم
النهار
كذب
قيام
##تنا
يسأل
ويق
الخاصة
لنفسه
الأحكام
وانت
لبن
لعدم
القراءة
ذر
##فسد
قصة
##راجع
أشار
المشركين
أنك
##رارة
الأمريكية
حقوق
حجم
والنسائي
##لون
الزيادة
بدل
##رادة
##هارة
وتش
حفص
##قيت
فأع
فصار
المصر
الفصل
ري
مؤمن
##وبر
العلوم
طا
يأكل
يأمر
##سطة
##ياسية
إسلام
##صاب
وغيرهما
إيا
نسب
والمراد
##ويد
يلزمه
بان
زر
محمدا
أمور
##خا
زعم
الواقع
الشريعة
السف
ويؤ
الدرا
##ساكر
##باه
وإس
ميت
##بان
أولاد
##طلح
ترجمة
بمنزلة
##طلا
##ديدا
أقرب
فترة
##رحلة
المجلس
##ومه
وظ
ربي
##طح
عندنا
الرد
الكه
##زمة
##تهن
الرابعة
##نوب
وعلم
##أخذ
بيد
بنو
##ت،
##ويا
العلمية
##صلح
##عداد
الناس،
##ىء
الحجة
قرية
بها،
##لومات
##غب
عنا
شركة
##حمر
يكتب
##و،
##كمل
##قرآن
النظام
الدعوة
##ائمة
##تيبة
موق
لاست
عليهما
تحقيق
جده
ملكه
ربنا
##عتق
تجد
##ماعي
##كتور
يجمع
المقر
الشهادة
ضعف
صرح
أعلى
##راة
##درك
آلاف
معي
جائز
سنوات
شري
طول
الشهر
بهما
مصدر
ونحوه
الوق
يعلى
النهي
وصلى
ومات
##نيسة
##ورات
موض
الحرم
كالم
عامة
##روي
المجموع
اجتمع
فالأ
مروان
والأن
السبب
فاع
تذكر
هد
واله
المبارك
##تهي
جامع
##ليين
والي
تكلم
اللج
الترجمة
##روض
##وافق
باعتبار
فرد
علما
صوت
برقم
حام
يضر
أظهر
موضوع
##ثا
يوجب
##ادية
الطيب
فذكره
##قاء
##فاظ
والست
ساعة
الجزء
بحر
قامت
بطل
##حى
##وضأ
رحمة
شئت
يومئذ
حما
الهيث
الفض
صاد
جا
أهلها
أمية
سيف
يعيش
الجد
ظهور
وأنشد
أذن
غريب
##بحث
لهذه
يؤدي
##غيير
قلبه
سف
قليلا
مرفوعا
بأمر
##لقة
##رحم
##ناف
لين
فهذه
وأهل
##بهة
المحرم
أذ
واس
الأكثر
ترد
##حرير
أصبحت
##خصوص
يرت
التى
والبيه
لدى
رأي
تجب
##عير
رسوله
الطبراني
ضمان
الحاجة
مسند
##بقات
الرؤ
البل
##زه
المكان
فاس
عني
##اهما
قليل
الجمهور
فأخبر
شاه
إليه،
المشهور
الجاهلية
الري
المقت
##حول
##خاص
الليث
التو
##رائي
صنع
##لوق
الأور
##برا
قتله
##يتها
التاب
وكيع
وأخبر
الصحي
الأغ
##اجر
##قطة
نكاح
##ناة
وروي
وجدت
ثمن
طائفة
بمكة
وأيضا
##لقي
التوحيد
ببعض
الوقف
##قرا
##ذوف
فبلغ
وربما
##كف
##نيف
المصري
##ابد
##با،
والمت
##ثنى
النووي
##خال
تسع
تخرج
القياس
يطلق
##ضرة
القانون
أولي
##ثه
##وزا
لبعض
مختلفة
الثلث
بنى
القدي
يحتمل
##روس
وأش
صدقة
سبعة
يضمن
##ريمة
الموجود
القتل
والل
##الات
##شري
حركة
أخيه
وكيف
باطل
واختلف
ينزل
أسباب
يحكم
##روح
الأصول
الأشياء
زين
##شاف
##راسات
وتوفي
الجميع
##يص
إيمان
الرب
ومما
##سى
تمام
المغني
إف
##جرد
أسرة
فكل
الصاد
ظلم
الأنصار
يشهد
##طنين
وأكثر
اللغ
يسلم
##ريس
سبي
لط
آن
##واح
الألم
فرا
إثبات
أسر
لام
هاشم
الخطيب
سه
لولا
الأيام
السنن
شرب
##فعله
تعداد
الغرب
محر
عيينة
عقبة
أبر
والمعنى
الاتحاد
##دة،
##ار،
جوا
##صرة
##تمد
يقدم
##بوع
الشه
التاس
##قوط
شمال
##عاية
البحث
##ليلة
طاهر
الأمم
الإسناد
الخامس
والآ
يلت
تعمل
العسكر
بو
وأح
يلي
كاف
مكر
الجملة
بآ
أوا
المطلب
إطلاق
##وبه
حدود
النصف
##فيا
الاس
المب
القائل
الحن
ويمكن
ونا
دخول
شا
حقا
الحالة
##خذه
والض
##وائل
معها
أريد
تقديم
الأسرة
الامام
طعام
التعليم
##تهاد
يشاء
##يل،
##نامج
##مييز
##أجر
الذك
خد
دولة
فقام
وثمان
نجد
بز
ترا
وسط
الفل
وقعت
العالمين
متعلق
##وبية
أدى
تما
وجمع
##ناث
##شيد
##ناعة
##زلت
وأق
##لاص
رسم
بطن
النخ
##بيرا
يصلح
فغ
غالبا
هما
لف
وفتح
ذكرت
##رخ
القضا
ادعى
الإح
اللام
ماذا
##لفت
##براط
الدليل
ربما
والحديث
##زد
##وره
##ؤها
##ادات
لمع
##ئر
يبقى
دل
العامل
أخر
##زو
##صبح
ثوب
صي
علمت
##درس
المسيب
##لين
المحا
شديد
يفت
محرم
##ساء
قضى
##اربة
##صابة
قصر
الروح
الأدب
سفر
الواو
التد
أقوال
تنت
##نسا
رآ
قبلها
##ندا
##أله
عمار
##جاه
التهذيب
يقر
##سنده
##سمة
الحدود
تعرض
لخ
دينه
فأت
أصول
الشرعية
وتأ
وبد
يمين
عمله
##ضت
المطلق
ومعنى
الأعمش
مجموع
خلافا
تبين
##زين
الإد
أشبه
غر
التجار
القيم
الموضع
قبي
الدخول
أسد
وأف
المكت
الرجوع
الطي
إسناد
تقبل
الفترة
والترمذي
قريب
##امي
وأج
أصلا
يدعو
يترك
حديثا
مجل
بقدر
البو
وحديث
##اطب
أرى
اليس
العالمية
##طمة
ومس
نسمة
يأت
##يدي
علمه
##فرة
رح
والإن
الطبري
جما
##فقة
المادة
المغيرة
الدارقطني
الموضوع
المذكورة
##فيل
##ائهم
##ريت
##قها
الخروج
لأجل
عاما،
سنين
مقابل
أتي
يعتقد
هن
##بي،
قاد
##ع،
العدو
##روفة
كمال
أقام
الوطن
يدفع
أورد
يختلف
محد
بالف
##ذج
الخال
أنتم
##جماع
النجا
مهر
يطلب
##هج
البريط
عكرمة
##فين
وحا
##رجو
التخ
##قطاع
وقوع
##صم
المصدر
الطا
##عيان
##ليت
تصح
##دوا
العدد
كثر
الصورة
ينفع
انق
النور
الفرد
استعمال
جواب
واد
يستحق
القلوب
الرأس
فإنهم
##حيانا
دينا
تقي
نوف
##عتبر
صال
أربعين
يزال
أورو
##ودا
أنبأنا
البناء
فإني
الاشت
اللبن
للغ
وكانوا
بنسبة
سبحان
##واري
المنافق
فار
إح
##خاب
الحنف
قومه
##فال
المنكر
أى
أفراد
اعتبار
##ائها
العهد
##خيص
مقص
الرسل
##فيذ
الحس
##فذ
عطف
##ويلة
الكل
فارس
المختلف
ابتداء
##خب
قال،
نط
واسم
فرج
##صن
أحق
الأه
عبده
طرف
##واجه
##يء
قلوبهم
مقا
##ليك
##احية
عرفة
##دعاء
ولده
##نسي
مالا
##ظيمة
##لعة
خلقه
الوهاب
##بنى
نقله
نها
##سلمين
يرض
بيته
عشرين
الميم
السك
تحمل
##ابا
مخال
الجديد
يسقط
كلما
الوسط
##بيض
بنفس
مجرد
كره
القاهرة
##خصيص
##متع
الحمل
##عاة
شمس
الخيار
وانظر
بشرط
جديدة
بالحق
وعلا
الإله
أساس
السكانية
اشترى
طريقة
النع
##حوا
النسب
زال
المأ
المبا
المل
الرم
الحركة
##ستر
##ني،
##ئتين
رو
زكاة
أسامة
##لية،
غسل
ملا
##ول،
القبر
العشر
##خصص
يقتل
الصواب
##نز
جر
القديم
جديد
تحريم
الرازي
الأمريكيين
تبارك
يزل
الياء
بحق
##افت
##هنا
##ليب
بدلا
الصحيحين
##بدو
تدع
اتخذ
تعلق
اللجنة
##ذاك
تقت
كفروا
قاضي
##لفة
العرش
##ائط
الكث
القوات
يقصد
كبر
##صاف
##وزع
بداية
سوء
قي
الثقات
##سيم
ربيع
خليفة
##حكم
الأموال
##واة
الشارح
بالمدينة
##يري
##طعام
المبيع
حكيم
##امن
الكامل
وثلاثين
وحدثنا
رض
##لتها
أمن
##عية
كذ
شب
##راث
لحم
##دادي
النصر
نبينا
##لمات
هلال
ابي
##ارى
الدر
##ولت
يقطع
نك
##داب
وحم
أصله
غالب
خرجت
اش
اليه
القبض
فأجاب
الثوب
بسم
مهم
الكوفي
مركز
الاقتصاد
تعتبر
زوجته
##راهة
وذكره
جرى
فيها،
القتال
##زاب
##وده
امرأته
الخز
هذا،
يكفي
لقي
إياه
##ونهم
غيرهم
##ينات
فإنما
##لسلة
وهناك
بينة
مليون
##ح،
عساكر
العمال
زهير
المحيط
نعلم
السود
فائدة
العبادة
مشروع
ثعل
العلاء
##ولاد
##قاع
الشعبي
##جارة
الشركة
أمري
ثانيا
##الد
##وكل
##ذاء
جهن
السماوات
بدأت
وبا
الوح
ميم
القدرة
مناف
عدا
إشارة
نوح
وحين
##تمر
الوجود
متفق
الأثر
نصب
يرفع
الحض
##واية
إعادة
##جوز
سيما
أصحابنا
ووا
المقا
##وفيق
##فاف
اع
القيمة
حسان
الدية
##سمي
يعطي
##افظة
بالل
قانون
شكل
##كم،
نائب
##طأ
واشت
##طفى
##لاط
الفكر
رافع
الأخير
##غار
أبواب
##ربه
خروج
##حابي
الصفات
خيار
##تالي
فرعون
طالق
الهي
منز
وقل
##سته
الكا
شاهد
جيش
##بتدأ
أخذه
بتح
الصحة
قدره
##اند
مول
##جال
العيد
كسر
عش
مقر
نهر
تدخل
حذف
بأنها
وأب
نحوه
ركعتين
الشريف
##وراة
##قبة
الصدقة
##غض
##ديان
الرهن
أثبت
شرك
معلوم
ومت
آخره
الدهر
##سيس
سكن
النز
تلق
أخبار
الصفة
صلاح
الخي
أصح
عصر
##لزم
الشيعة
##اعات
الرأي
الغالب
تغير
الباقي
وعمل
حياته
##ريضة
الفقيه
والأربعة
##اض
##فعت
جاه
الماضي
الأربعة
هلك
##حف
تمر
منكر
##راقي
##جتمع
بعضه
م،
بواسطة
الأحد
##ذيفة
##روق
او
رسالة
##غال
زكريا
##ضيف
##ريات
نسخ
ووجه
متعد
أوله
##انها
أنكر
بعيد
توجد
##شرق
##يمم
النج
##بوب
المملكة
##عدا
وزاد
يذهب
الأساس
حكمه
##جرى
ويحتمل
وسكون
الضمير
##يتين
##لمه
أقبل
وحدة
##باحة
وكما
يصير
##عات
قبر
الحنفية
مرد
##سف
الفاس
الخد
المعد
الاسلام
قرا
يستطيع
ام
##حوث
يخفى
##ر،
ورأ
استح
لحق
##ناول
وجع
سماع
مظ
تيمية
الشافع
والبيهقي
يبين
ذوي
##كات
قياس
يتكلم
العدل
عقب
التركيب
أسا
وعم
فكانت
النسخ
يضع
يتبع
ومثل
##حاك
يروي
##هاز
جهنم
الغربية
##ظهار
صحيحه
يبق
ظل
العدة
فعلت
الدكتور
جال
يث
المساجد
بالمعروف
ناحية
وحسن
وار
##ذبح
إقامة
##اوى
النبى
الأسماء
وأصحابه
حسنة
أكت
##هى
الصيد
##وريا
سوا
وأت
والمش
إنهم
##ورث
اللسان
اختيار
السكن
عليا
القوة
##نك
تدل
الصور
الاع
حاز
بدم
بمثل
##ابلة
موقع
السادس
بإذن
الكلمة
السعود
حسنا
الربا
الكمال
تحدث
بدا
الوصية
##ذور
قضية
##ادم
السابقة
نتيجة
خالف
ثقات
للخ
الملا
الاول
##تهد
درج
##غط
الأكبر
بالث
##رتب
تقري
الأمن
##انيين
عطية
الغير
القطع
فعليه
يض
صرف
أحدها
منص
كشف
المناطق
لئلا
يموت
دراسة
طلاق
##انية،
وأه
الأوسط
##كيد
إضافة
الضمان
بدليل
ذكرها
صن
##رحمن
فقل
الكوفة
تميم
الصوت
فين
مؤس
الآثار
كامل
##صاص
بعضا
آثار
إلينا
##ناية
##ائرة
##لوس
كه
المظ
الطويل
الوكيل
المائدة
##كرر
مار
يضرب
أبناء
نصيب
لغيره
##علن
المهملة
فرس
قتيبة
فز
الأو
القاطنين
والثالث
كبيرا
فضلا
##ملة
فدخل
البط
طاعة
##تني
النعمان
يدرك
بالط
الجبل
خزيمة
##كال
##دلال
الراء
البار
المحدث
##وانين
البصرة
اثنين
##سون
##ساعد
مسائل
للف
وقتل
صوم
##فاعة
##واق
##ذاهب
##نسية
الجوز
والده
العض
أمي
وعشرون
##مرت
##عها
المرو
فط
##أمل
والبا
الطرق
جعله
ذه
حساب
رضى
الجسم
نفسك
لاح
##ساوي
##رسال
القبلة
##فسخ
ربكم
أحدهم
الشباب
أحوال
البغدادي
##مارة
##وية،
أجد
الإسلام،
صفات
والحاكم
##رجح
الأطفال
جنوب
المعرفة
##قسم
الطرف
وصحبه
المرا
يجري
##لتين
وظاهر
علة
وصار
الكعبة
سؤال
نوا
الاختلاف
الفرض
التصرف
كافر
##زالة
ثق
سلف
##كه
المتقدم
شدة
زرعة
منس
خش
التاسع
مولا
الصديق
تأثير
دول
##علوم
بابن
نار
المهاجر
##ئن
بيوت
يشبه
أرس
الأخيرة
##صحف
أنثى
لآ
فأنت
ولن
تصرف
العر
##عان
فاطمة
لتح
##ادل
الأعرابي
جهل
الابت
للط
بينها
الراف
الورقة
كثرة
##عقد
الجديدة
ربهم
##حاب
الفرج
لأهل
##سطين
##جزاء
تأتي
الأنعام
اللق
المفت
حرا
##فرض
صغيرة
السبع
أعضاء
الصحيحة
المالك
شم
ماجة
نسي
موته
الإعلام
##جات
عنك
##يزان
الصبح
نسخة
##طوط
ولأ
##رضا
الفريق
##اهدة
نساء
عفان
القمر
المقام
القراء
##بدل
ناد
عبدا
القرية
##وزاعي
ولعل
تبلغ
القصاص
##وي،
الزمن
دائما
المسيح
##فساد
والمس
ناق
حظ
سرا
##ثنين
عتق
والصلاة
الكتابة
الهجرة
الاص
الصبي
##لبية
الكون
مباشرة
##ذار
شرعا
حيا
عجز
الظن
##ورت
ابراهيم
##فية
تبر
ويش
##إنسان
نوى
وقالت
مجمع
السائل
##ش،
هام
سبت
فيقال
المدني
تسمى
العلامة
فكذلك
قدي
الخلف
##لاقات
السير
عرق
ومثله
ألفا
المرء
بكم
صغير
المحر
السين
الداخ
##قرب
الرسالة
مجهول
عشر،
العادة
وفق
##ولات
تريد
##ثيل
يكت
تفا
لقول
الخيل
عمير
##ناق
التفا
النون
عاش
##بيعي
##سيا
الخطبة
يؤخذ
بلغت
النوم
الفرس
قيمته
البيض
وقبل
مفهوم
##واص
##هدى
مواضع
##وجيه
الذكور
##داة
العلة
الحضر
المركز
الجوه
أمرا
##بطة
ودخل
بمصر
شروط
##تكم
فذلك
حلب
المدة
القدم
حذيفة
يعبد
اد
القديمة
##غبة
##ناهم
##لفه
صدوق
يولي
##ز،
الهمزة
##جان
فاج
وحكم
ركب
##احل
بسر
أداء
##ائج
قيد
أحدث
بالي
الحديد
الكذب
أمكن
يستخدم
القصر
جمال
بقول
النية
هيئة
شرف
##كاف
حزم
فتنة
زائدة
ومح
قائمة
يسب
بلى
التوفيق
أعم
دلالة
السموات
قضا
##يبه
عباده
وأقام
مارس
وجهان
##طبي
##مهورية
##كندر
##زر
الطريقة
##حاء
##صحة
مستوى
الصل
##راء،
##اما
الريح
سار
الخوف
##ؤوط
برد
جارية
##خرة
الفات
كلاهما
عقيل
##ولوا
مرس
##يها
وفاة
طويل
مجتمع
##سناده
يسار
ونس
##كما
الجه
##هداف
السج
##فلة
تظهر
أض
والأم
وكتاب
المسائل
الدين،
الغربي
##تها،
##علان
المريض
حاله
ونقل
فريق
الاج
##عتها
يفهم
السا
واعلم
النصارى
كام
الإف
الفطر
الخليفة
##ئب
كفارة
الظالم
##ميم
كلم
##لاه
قدمت
لعب
##جح
سك
سجد
سيأتي
المختار
الأخبار
##قبال
ثاني
##زى
الوطني
مسلمة
الوارث
##جية
##عاون
##زاز
لزم
عاق
أحيانا
وكسر
المصرية
ثمانية
وحتى
نخ
##طاعة
الإشارة
##معي
مثلها
خل
قبول
موج
الإسرائي
الوجوب
سهم
##ادث
الولي
الأرن
واخت
فالت
##جمع
بول
الجانب
##راعة
ليكون
المقدس
##عوا
المولى
يعلمون
المخت
عط
قريبا
والجمع
السياسية
##نار
تمكن
خصوص
الخطأ
يمينه
وخمسين
##جاوز
##نهي
الأسباب
##بارات
تصل
##برت
##فات
##غداد
##ائص
وتقدم
عائلة
واضح
جان
النصوص
للاست
##ئين
يسير
##لمي
البينة
الأدلة
حمد
الباطل
عمه
أشياء
##وتر
خرا
التوراة
النش
الزم
السجود
النق
عبدالرحمن
دام
الكس
الغسل
والعمل
الستة
##راها
برو
برأ
التجارة
جيد
ففيه
ادع
الأرنؤوط
يتأ
يخالف
##سي،
الدولي
العتق
جعلت
ضرورة
##شرع
جار
##نها
الحيض
خذ
عدل
فمات
وبهذا
أوروبا
إنشاء
بض
المثنى
السابع
نست
وأد
يقضي
الألب
##وجوب
الزواج
ورق
أمتي
##عدد
الاخت
أدري
اثنتين
ينكر
وعدد
فوجد
##ذم
خار
كتابا
هذين
##تهى
وقر
نجا
أشهد
وأربعين
الدينية
تركه
##حاجة
فسر
##سكري
أئمة
وذهب
الباء
ومعه
##ماه
##نة،
محدث
##وفق
والحسن
##ماعات
يمن
جزءا
مضم
##وحة
##فتاء
والوا
##ولهم
ثلاثين
##ورك
حزب
##ريل
##ستاذ
أردت
الهيثم
صا
يكفر
العي
نية
لمدة
ليل
فرغ
ابو
راب
الاجتماعية
##كير
تفعل
تبع
الحميد
مجلة
ليلى
يشير
العليا
الزوجة
واقت
فرنسا
يكونوا
واب
دونه
سوف
##ئها
##فاض
مايو
العلو
وفاته
طويلة
ركعة
##فاد
واسع
##فور
الأند
عرفت
##حتها
رفض
##خبار
وأول
السمع
الحديث،
مراد
توا
لتع
وسن
وتص
وفقا
##كلة
الشرعي
##شقي
خوف
##بول
القصة
قائما
تجعل
##جين
أخو
تعيش
ناف
ومائة
نعمة
##اوز
الصيام
##براهيم
##وطأ
سيده
يراد
الفساد
فكتب
الحكمة
بذكر
تنبيه
##بها
##ارضة
الصلح
عليها،
منها،
الشيخين
##جهة
وليست
##غاء
الكم
غل
إدارة
تتم
المعلومات
##فف
فئة
لات
الزنا
##يراث
للسكان
##براء
##ومية
دعاء
ابنة
##وفية
##غرب
هند
باز
محذوف
##ركان
عذر
##وسع
الوصول
تستخدم
ريا
اضط
بلال
##قتها
الأصح
أكتوبر
الغر
الدور
أقوى
الشك
المؤمنون
يبطل
##ميت
مخرج
عتبة
##وادث
##ويات
وام
أنهما
##رائض
دعوة
##لاة،
تحديد
##قليم
##ارم
الأمان
##ربت
الوطنية
الجزيرة
غلام
بالز
اتفق
الخش
تعلي
هات
الذمة
السورة
ورحمة
تسم
المعي
الياب
يفيد
##خله
المختلفة
##خروج
نظرا
##مني
##اهرا
موص
رؤية
رزق
الأحزاب
العص
المسند
##ضيق
##بتها
أمريكا
إش
##لوغ
النهر
العشاء
النبوة
##عدل
##ضرورة
البلا
##وة،
##جيب
عون
الغني
محمد،
فضيلة
سنة،
دعوى
كتبه
رجاله
##في،
الإنجلي
يصف
كانا
##ائح
كفا
الحص
اللحم
والمست
حلال
المنع
الرح
احد
خم
سطح
التب
الروايات
##يساب
معينة
مخل
قوما
العراقي
المياه
الفتوى
سيرين
ولت
ولأنه
الفار
أخذت
لكونه
الجوهري
وسبعين
واض
المسلمين،
أطفال
كع
حلق
##خلت
المؤس
والمح
والظاهر
اي
##راحة
##ذير
##قيب
جري
ظهرت
##ف،
المشار
أجزاء
سبتمبر
بحديث
##ج،
رجب
السوق
النبات
المنصور
بعدما
صحيحة
الحدث
معاني
يخاف
نذر
كمن
ساق
##لاوة
فساد
##ايخ
طيب
استع
والان
##هما،
تض
الجبال
##ومات
قولا
الفاعل
فيك
قائم
مدرسة
وسائل
##قيقي
النقل
##سيط
ومد
##عا،
المجال
##آء
يظن
ألق
##نيه
طبقات
الفلسط
##بث
##اصب
شاة
##وهر
فيجب
لبس
فصلى
المطر
##رات،
للر
##اش
كبار
لزمه
##تيه
وعاد
ورجل
يمس
ويحيى
الاستع
خمسين
##بون
وقام
أنشد
مخالف
جب
ونص
إخوان
الخم
عملا
وتخ
##وامل
المثال
تسمع
يمر
##يلان
فاعل
##حكام
الحقوق
لست
بشير
والتق
بدمشق
##وسى
لأم
##بويه
الجرح
تلف
##ابي
جي
بالاست
وصححه
##ود،
##جلة
راجع
الأولي
عمي
الإمبراط
##رامج
إخراج
الليلة
ببغداد
مرتين
حافظ
##تيان
يصدق
مسلما
مفر
الدمشقي
منزل
بأم
التحريم
المعاني
النوا
##شه
مجاز
زم
##لاحظ
اليون
يلحق
وتوزع
ممت
##حات
الإناث
نفسه،
الوصف
يهود
##فضل
السع
مشي
العرف
الكاتب
##ظيما
الشافعية
وستين
##خراج
##خاذ
ولذا
الكنيسة
يوني
##لائل
الذات
فلق
شيوخ
الحفاظ
بعدم
الود
مقدار
عظم
بعين
الرضا
##لاس
العلاج
تجوز
##قن
الإجماع
الوضع
##هان
##لها،
بالفتح
ودع
##حان
قائل
##قله
##ضيع
ملت
##لوان
##ورهم
الضحاك
##حيي
تضمن
النضر
ولدت
بطريق
السعودية
يحسن
الهدى
الفرنسي
##وردي
الملوك
احتمال
##لمان
##لوع
كيل
بدين
يناير
##تهر
ودفن
##فيع
الأعراف
الأجل
وسائر
يحفظ
جزاء
##ابق
الصبر
أيضا،
إحداهما
الناصر
لعبد
##طم
الدولية
الارض
العلا
وتسعين
##واهر
##داق
##ازي
بمر
##مرار
أرأيت
نح
الطهارة
ذكرناه
##وم،
الاش
النحو
##ؤون
التمر
كش
بالضم
يبعث
البال
مناز
##قلة
الطاقة
##كاية
عياض
##ارنة
يشعر
قتال
المعجمة
الخلي
يقيم
##ثور
وبالتالي
##قدام
ملكا
الشارع
ريح
##حها
##خم
خان
عمارة
الدرد
بحث
التقدير
كلية
رغم
أواخر
فليت
إنتاج
قاعدة
وسم
المتأخر
ويجب
##ولين
وائل
انا
النفي
يحا
بيروت
##منة
##سمبر
والعشرون
الركوع
بينا
ثبوت
يعرض
سلطان
العشرين
المدرسة
##بيعية
يفرق
بالكسر
ديوان
والمؤ
##عري
تقد
##يعة
السيف
##شرط
الهوى
سد
بقاء
عدو
صالحا
حامد
##فصل
صفوان
##ورها
بذ
ولكنها
##لاع
ذن
ذبح
يبر
جائزة
بثلاث
وقدم
الأرد
وبالله
الفقر
شعبان
الشب
حدوث
المتوفى
لعم
مفعول
بمجرد
##صوص
##الها
الشاهد
الثابت
##وعه
يلق
##حرك
أمثال
المائ
المشروع
طبع
##فصيل
ناصر
أوائل
##تهاء
متن
اعلم
ديسمبر
عسكر
مصعب
##الته
الخدري
##هرة
ووق
بحكم
مرحلة
المكي
##حون
ظاهرة
سل
كقول
نم
##يرة،
##خوذ
وأنتم
##ازة
الإش
جزيرة
مادة
عالما
المتعلق
الثامن
اليهودية
البلدان
حرج
السوفي
القرشي
وعز
الأخلاق
العال
الجامعة
شرق
نقد
##راسة
ويص
الذنوب
أمرهم
المواد
ند
حصين
##ؤمنين
##موذج
##ادة،
مناط
عندك
##ضاه
الغز
تتبع
انتقل
##بادئ
تقريبا
اح
##ياطين
الحل
##فير
لقب
عمر،
يسر
ثور
واش
صارت
وأربع
تأويل
##توا
وهى
##مية
الراه
واقعة
##البة
يعنى
##وعي
علاقة
أبوه
حز
##بالغة
##فوظ
##لوها
نوفمبر
مشهور
ويك
شهاد
غض
بيننا
للنبي
قار
وأراد
##حك
##ريبة
##مي،
يبيع
سوق
##ردد
##دا،
##اوية
لرسول
عياش
مهما
##فاة
لعل
##واني
حبي
باط
رضا
مكتب
وسيأتي
##ئة،
##ومي
كنز
الديم
الإحرام
المهر
الاصل
والناس
استغ
توجه
##قاضي
مثال
المفسر
القن
والدار
الأحوال
شجرة
أخت
شديدا
القطان
أنش
العسكرية
وإني
الصلوات
السياسي
التراب
الدراسات
وإيا
الأقل
باستخدام
##غى
لذا
ضمير
##طوف
السبيل
الإطلاق
##رجال
##دها
فأخرج
##بيين
النفقة
المهدي
يخت
القبور
وحكى
##رجم
الحزب
القيس
سببا
الحكيم
يحلف
وحق
##دريس
##حاح
العرض
متع
ويوم
واقع
أسمع
كار
##ئم
العملية
##نابلة
وكم
مكانه
##ؤهم
الجار
فأنزل
##ريقيا
##روك
تبعا
جند
الكلي
كتبت
اجتماع
الأذان
##جور
سبعين
النفوس
الأخذ
ونحوها
أوس
يقف
الطلب
كسب
تحل
وثمانين
قولان
الفئة
وخل
##زيل
##جملة
برنامج
بالفعل
حف
بمت
##وابه
الوحي
مقدم
والتح
واحد،
تقل
##هز
والبر
فكأن
##خرا
حازم
وكأن
تفرد
يؤثر
سقوط
##عده
النجوم
الشعراء
سلسلة
الاد
##شكال
ضم
المدعي
اتبع
فلانا
الابن
##عيه
الإجارة
صريح
رآه
قضي
فلسطين
يروى
وإنه
العظم
فانه
##وضح
منظمة
النظ
أعرف
يؤمنون
الآتي
مقدمة
الروض
السد
##فهام
ونظ
##سر،
تختلف
وتكون
غزوة
وسعيد
##قرأ
عوض
بألف
الأزواج
تغيير
عجل
الجنوب
##قاطعة
طر
الطفل
##خف
يهد
##بارا
فتكون
وبقي
شعره
##يتان
لث
عمن
حكومة
الباري
شق
تعريف
حيان
قوات
المنهج
ثياب
يفر
بوجه
أغسط
وعب
أعتق
البشرية
النقد
##ظل
نفع
المجر
لماذا
فرأ
سميت
از
بكتاب
##يبا
يغفر
وتك
غلب
التغ
القرب
وتد
الأكل
عموم
أدخل
والمنا
عمره
عظيمة
##جاد
عاب
الاب
##برانى
والشافعي
يونيو
رده
القادر
جمادى
الوحد
الخليل
التنا
مرك
اعتقاد
مدى
الهل
عينه
مانع
الفرا
وخلق
صحيحا
وسئل
أوصى
تأخذ
المعتمد
أخرى،
الحاضر
الذا
الأربع
##متها
بنحو
علقمة
حذ
الفتنة
والصواب
ولفظ
غضب
تا
##هو
الهواء
استخدم
يبدأ
عربي
كونها
ضرر
بعينه
##بوه
الصلاة،
تعود
صيام
كيفية
##حيان
##جري
علوم
الصغيرة
هجر
##نوا
الكلب
القضاة
مذك
##قراط
##وبات
##ودع
الدال
أبلغ
##الله
المشي
موقف
فرقة
يوليو
أهلك
##هلك
جمهور
لكي
يزعم
الأراضي
القرا
ووضع
ومالك
غدا
مبتدأ
خطاب
وضرب
##ذري
وزارة
قدرة
##خابات
جون
ولها
الإقرار
القرى
انصرف
##ائض
##صلة
##عتهم
القط
الصدر
الأوق
حجاج
وأي
التقليد
##تابعة
الصلاح
حري
##ثني
##رشاد
الغيب
##ويم
الكاف
قات
الجلد
ناس
وطلب
يحد
تثبت
ليلا
ترت
##مارس
المسمى
دراهم
تجمع
ألمانيا
##قوم
##ركه
##اها
##رامة
##يد،
##ائلة
الزجاج
التأويل
قم
طه
الطاعة
##ضه
تعالى،
الجر
الشرقية
الأحمر
الهداية
جلس
سلمان
زوجة
أولياء
يجتمع
شوال
التعريف
ومائتين
الفراء
ووقع
يحضر
الدفاع
البك
تزال
مهدي
الأجر
##ذية
لابد
القرآن،
اتفاق
اللو
وهنا
غفر
الحساب
أعطى
غيره،
معشر
أدنى
لعمر
وأبا
خلفه
ظاهره
فاح
##جير
الكبيرة
##ويلا
##وكيل
نظير
الخوا
القائم
فبرا
حالا
تسعة
الفرع
تقرير
الواس
كب
فنزل
والعلم
الحروف
##جلد
فقوله
بدعة
فلذلك
مان
الأرض،
اذا
يحتج
##يتهم
المنبر
لحديث
أهمية
تملك
##تة
الموقع
ملوك
##ارثة
##ؤل
##خشري
المفا
الأك
جنب
وكنت
سيبويه
راك
ورث
يخلق
تطبي
وجهين
النم
الشديد
##فرقة
كالأ
##صرح
الكفارة
وحر
ورفع
الجزائر
##زت
##كث
القاعدة
ههنا
##طئ
ربع
بيعه
##غرا
معك
##روه
أنحاء
أوجه
الأزهري
وبي
##وصل
##همية
عيد
الدرداء
##وزيع
ترجع
لز
قبيل
##حاوي
البح
##وهن
الظلم
البزار
صع
##ضيح
الواحدة
نطاق
التابعين
الصي
رجاء
الكت
الصفحة
إمكان
فاد
برا
علي،
مصطلح
العموم
آت
فأرسل
##ساط
المرسل
ثعلبة
##بيث
##باعه
##قلال
بدع
كتابة
يتخذ
نفقة
البصر
المطلوب
لنفس
قطعا
فذهب
الرئيسية
الحديثة
كري
الأستاذ
قن
اختار
فاز
مغني
##تح
##ولوجيا
##بز
الطواف
##سيف
المجاز
فسمع
فإنك
القار
التالي
يصبح
استطاع
للتع
أيديهم
أوجب
إدريس
وأربعون
ربا
مناس
منظ
الوزير
بخط
ينقص
لرجل
فسخ
تعبد
غلط
ميمون
##شون
الولاية
##صفات
##بك
التقريب
لإن
جس
عس
يريدون
التاء
قراء
صفر
وسبع
##دمي
حكى
خيبر
تجري
الامت
الرحمان
##رون
قرأت
بالناس
ذاته
المدن
خليل
يدعون
الأشخاص
##رز
حوله
الفاء
الضرب
الرشيد
##أذن
النحل
مسح
فبعث
##ماغ
أغسطس
وأنها
شار
اتباع
تولى
##ئلة
الفلك
##راتي
##دح
جئت
يحنث
التلف
##سها
ينسب
##أه
##افا
##مائة،
صنف
سواه
وارت
حقيق
الخلافة
الضرر
يبت
والحمد
الجمال
معهم،
##ديعة
##وه،
والصحيح
تهذيب
الروضة
وزير
وإذ
لأمر
داخ
تشت
فوال
مسي
البداية
إجراء
##جابة
يختص
الشيب
##ساك
وبعث
أقسام
عذ
أمرنا
##حباب
الأعضاء
والأرب
##ونات
مناطق
وعرف
الاولى
العالية
مسؤ
ويقولون
متر
الالت
قرر
العلمي
قيا
هز
محله
ويخ
الفرنسية
نفر
وجوده
بره
قواعد
عمرة
للمسلمين
##ماية
التعبير
##هورة
أبان
تأخر
تي
حكما
##بروا
كات
ودا
الميزان
تماما
جور
##بينة
نادي
##الج
المنافقين
الحصول
معنا
الثورة
سين
العقيدة
الدست
روس
الاجتماعي
##اثولي
وارث
قوي
الألفاظ
الفن
للز
سنان
العش
##اقب
المفعول
يقسم
الأقوال
جسم
وامت
أبيه،
الدوري
نرى
صب
فبراير
قادر
ويب
##قراره
##قدمة
مأم
##ديب
##عي،
مسج
الحلف
تفسيره
##عداء
التالية
والقول
دية
الفاتحة
أعت
لا،
صلة
يفعله
صغ
تأخير
السائب
شيء،
يشرب
السلطة
المهاجرين
الاتصال
نن
القليل
المدونة
فضيل
سود
أمامة
النجم
يجلس
ميل
أعني
عديدة
ذنب
خفي
النح
الجبار
الجنسي
##صدر
نظم
الجمل
سويد
وصلت
غس
حصول
شرا
القدس
فيس
وسا
الحجاز
وعندما
الرحمة
برك
السلمي
##وانة
لها،
##قيع
يمكنه
##فراد
كاتب
ومنا
وبذلك
اثنان
الأط
##وعية
الغنم
لئن
المنزل
الآخرين
ولولا
لأول
الكثافة
ارتفاع
خلي
##فهم
عندها
طهر
شارك
##رال
نزول
##صرا
الاه
##رضه
##اعته
بأنهم
علامة
يشمل
الكلبي
يسجد
وحمل
يحم
أجاب
لعن
صاحبها
وادي
خاف
##طور
المدارس
ثواب
الصباح
هدى
ثقة،
أجاز
##قلب
بسط
##عيين
متعددة
##لاما
##رجان
الحنفي
تحقق
##فارقة
معرف
والدي
تث
وتاريخ
منهج
السحر
رش
النها
آب
##صدار
بعم
وحينئذ
قاسم
اليهودي
##مم
##ائز
الوطء
تلا
يبدو
##زوجها
##صادي
##يفاء
وعثمان
ميس
الار
##صفه
أنفسكم
الوسطى
##شيم
##ماس
وزن
اغت
وتر
مطر
الأصمعي
يدعى
ثانية
للذين
حرمة
صلات
فلن
بجميع
وعمرو
وهؤلاء
كريم
وضعت
الرؤية
الزمخشري
الموس
الثياب
مؤلف
##ويج
##لان
##حاث
الاستثناء
وبما
##غان
بالمر
بالقرب
##واصل
وفيما
قبيلة
##هرا
بتق
الربح
##نط
المالكية
الباحث
##فوا
وتج
ولهم
##افات
والنهي
يصنع
معركة
التحقيق
ورض
الواق
وجماعة
المالية
العز
##رتها
الدائمة
##شبه
المتكلم
##راده
وبلغت
##ضعفاء
عمليات
رؤوس
الدابة
السبت
حكاه
فيست
الواقعة
##بعاد
الخارجية
بإسناد
وردت
الزي
القضية
فخر
الصمد
العسكري
فعلم
وأصبح
اشتراط
هبة
الهاء
##فك
مخالفة
##ألت
البقاء
خلافة
الوجوه
أفعال
##قتال
رز
##سنان
المجمع
الجارية
الفرقة
ويأ
##وصي
أتم
المرك
##اجت
تجاه
بفعل
آخرون
وتست
بمح
خطر
الجهل
شهدت
حصلت
الاجتماع
يشتري
ضبط
وينبغي
فدل
البخ
##ليها
الجراح
هاه
فكرة
بمث
عليم
تعيين
اختلفوا
##ترنت
فاقت
المسيحية
منزلة
##قود
شراء
باله
النقص
الأفراد
المستقبل
##غاني
##ألك
##عيم
ضعي
##ادت
تطوير
نصه
فيلم
النه
والمد
الأفعال
إث
وقتها
حفظه
##ئس
جذ
تضم
الأبيض
جلال
المرحلة
قائلا
غرب
التل
الموجودة
عرو
شريح
الكب
##نانير
وشهد
##عبد
##علها
فسأل
منى
حاليا
ترجمته
بمس
ره
الشمالية
السلاح
الدعوى
الأوزاعي
يستحب
اليت
##فون
##لهما
فهر
##ساني
بالقرآن
سكت
##وزن
##طباء
الشجرة
##اموس
الفيلم
خطب
##اليب
بعن
أبريل
يرث
##صبحت
يعتمد
القصص
تأكل
الشروط
يصيب
ساك
بسب
قولك
فدعا
لديه
##بنية
نبيه
الأساسية
##ورى
بكير
أليس
مصلحة
فقط،
##ظيفة
تطلق
الورثة
تشمل
نو
حالات
وأشار
فأقام
فكأنه
يخلو
قلا
الوحدات
سرق
وخاصة
وته
##خصة
##صه
المسح
البدن
ضي
جوز
##كز
القبائل
يخبر
الغلام
بأي
البروت
##وكب
ينقل
أعطي
تنظيم
الفع
رشد
##وسية
##ئاسة
##وارث
لازم
مذه
##بيات
والشيخ
فيم
رأيته
##اه،
وكلام
فيكم
شاعر
العشرة
فرو
سابقا
بالماء
البعث
عينا
##غيب
##لكتر
هان
##جوا
فقتل
##نيع
الكريمة
الوفاء
##الجة
الشجر
يرون
فيجوز
يدعي
ألفاظ
أموالهم
##ظار
##حاس
والأصل
وألف
فينب
وأشهد
الحول
الحيوانات
##قبض
جرت
بعدهم
لير
مهمة
خراسان
المنك
##خان
العفو
ومج
أجرة
استد
الصالحين
نسبه
##عرف
تصدق
##رفض
مرسل
للإنسان
فأنا
أجمعين
بحال
فقدم
##ريقية
سجود
##اتي
كح
البدع
ويعرف
الممت
تاج
##هاج
عليهم،
واص
نفوس
ففعل
بنية
##واك
النخل
حاشية
ذم
والدين
الأرب
##تابع
##وقوف
اغ
يتضمن
موجودة
يهدي
فأتى
إت
مبلغ
النحر
والنصارى
شبهة
##شرت
وللم
بكون
بيا
وملك
العلم،
أمته
تعليم
الطائ
##ضيا
##تي،
روايته
الفسخ
المخلو
كثافة
باشا
البغوي
وجبت
الفقراء
المعاد
الرياض
بإن
شجر
المعروفة
مستح
اعتبر
يعملون
العثمان
هدي
المدعى
إرادة
زوال
ومؤ
البول
ونزل
##قيام
القاف
الأوروبي
ديار
مجرى
ومست
##يسي
صحبة
أعداء
للث
##ضار
عالية
الأي
وحيد
ومش
##ربوا
منح
لعام
الإخوة
بقر
أتيت
كاملة
يمتنع
اليقين
والفر
أمين
هود
##فقا
ترتيب
##سبه
الاجتهاد
المسيحي
تسمية
مسنده
رفعه
امتنع
##عتم
ريب
وزعم
##نق
عقل
المتعلقة
المحم
##ويض
فقه
يخص
أعلن
إيجاب
الحرة
لهن
الموطأ
##باق
العرقي
راشد
دينهم
البراء
##شل
فعلا
فانت
مختصر
نائ
الأشعري
المدينة،
مختلط
العمرة
تارة
التعليق
قبره
##ادي
العوام
والثانية
الأمراء
##ندق
الثواب
فرجع
##ليما
##بيك
مخلوق
الرئيسي
عود
الراوي
كافة
أقيم
المحل
وافق
##بادي
##ولون
الأما
خدي
الغرض
يلبس
والأربعون
##وس،
اهت
حمله
وإسحاق
الشري
المجموعة
قاتل
الشخصية
##زيه
وإبراهيم
مقاتل
فعند
تقرر
دعم
واليوم
كأس
التمييز
##خدمة
الخالق
والآخرة
تقديره
المعتزلة
عددا
داع
البريطانية
وسار
##لوة
انح
المخطوط
العثم
الهدي
فاشت
بارك
معل
الوتر
الأداء
فالله
بصورة
نمير
يخل
##عظ
ويروى
المحي
طريقه
طري
لوا
نظرية
الصناع
كلامهم
ورا
ومعناه
زالت
##صت
بدء
والأخ
كأنها
بالصلاة
ناج
##نبية
درس
##يارات
##غو
لوجود
والحا
إليكم
##فيات
الأحيان
##مون
نهي
غاب
الاقتصادية
الكلا
جميل
الكهرب
الصهي
##لقاء
السهم
##يتم
برج
تخصيص
النجاسة
##اهدين
صلوات
الطالب
##ولده
##عدى
قاب
قرى
والشر
والفرق
##ضحية
ينفق
المائة
الأحداث
الكافرين
##ئته
وتقول
قبو
السلام،
درجات
سام
فالج
لدين
البعير
##ذنه
عظيما
فرح
يسي
وضوء
الاتفاق
الحالات
الجواز
وحدثني
عذا
الإسراء
بور
والأول
سجلت
لجميع
الجزاء
الطبقة
ينافي
وضم
خدمة
عيب
عكس
داره
حيوان
نعم،
تعا
##حتاج
بنات
##بوة
المصحف
سمرة
يستعمل
الحرف
أبعد
والذ
المسافر
##نيات
##يلاء
سع
الحرية
الدارمي
النسبة
##ناصر
المسؤ
لفظه
للنس
أخطأ
برب
##كله
الكفا
الجوزي
##قلت
منهن
وتف
شهرا
غد
وحي
يعقل
الحلبي
والحق
فمر
للمرأة
وصاحب
يسكن
للي
والأس
##شديد
فتن
والتعديل
طلوع
العمرية
شأنه
والجواب
فحدث
##طانيا
للرجل
ناب
لكنها
همام
##صوب
القبول
سيدنا
لند
##وفر
##لوف
أسفل
##وفير
سماه
##لج
##جاع
معبد
##تبة
فوج
بعنوان
##دته
##بقاء
خام
الوسطي
##وقت
غي
بخمس
##تيت
الفلس
تتعلق
الشا
واسمه
##عرض
اسحاق
##خفض
صناعة
تأمل
سننه
##بوا
إزالة
وزوج
نقطة
##رائع
الاثنين
والأمر
##طط
المؤذن
الرافعي
الظاهرة
أحر
فآ
##جلت
انتهت
يتنا
سلك
##ورة،
تعلمون
تشير
وأحسن
وجل،
الملت
أشرف
آخر،
موضعه
المديني
وقدر
الشراء
والستون
الزرع
ويزيد
تنفيذ
والطبراني
##واكب
الغد
فنظر
التيمم
مائ
حينما
يقرب
الشرقي
تأسيس
مئة
##ذون
معصية
أسود
مري
العلاقات
عامل
يعتق
رق
يمشي
لون
بالليل
الرق
انطلق
##دعوة
ورجع
##ادثة
حارثة
وإنا
شريك،
الشت
الموكل
##راهم
البحرية
العالمي
الجسد
الكاثولي
بلدة
يتصور
غنم
تشهد
العبارة
بأحد
المشرق
تحتاج
##ركون
عمدا
الإصابة
وحفظ
المؤرخ
وقاص
تبطل
المرتهن
الأمين
والحكم
فينبغي
سمعه
إبليس
تمثل
الخلايا
فوالله
المعلم
##عدام
##فعه
##فاس
وبعضهم
الجنائ
ذرا
الميلاد
ضلال
محاولة
واسعة
ايضا
##راكز
##اكل
للصلاة
لقاء
أعين
الأول،
مساحة
أعوذ
ودين
ولنا
القصد
##زوجة
صام
جناح
قطعة
شيئا،
ياء
هاهنا
المعاصي
##احبه
ودعا
##وقي
##مالي
الثقفي
خدم
الضعفاء
ولله
الهبة
##ضرا
لصاحب
لبنان
قلة
##ليغ
المحلية
##قدار
شديدة
خصوصا
صيد
ويتم
منصب
زرع
منهم،
مقيمة
مسك
اتقوا
يحر
نجي
##بور
سابق
السكنية
ينتفع
الداخلية
السري
##شمي
الطبيعية
آخرين
القس
التركيبة
يتبين
الطبيعي
الجزية
الحقيقي
ونصف
التسليم
##زير
تمنع
باقي
الخلفاء
##رن
زينب
اخ
ليث
##يوطي
بتع
وكلا
نقض
الحاجب
التجارية
المفرد
أجن
لهيعة
بأبي
##حتمال
أفر
أولها
حبس
خوفا
بعيدا
يمثل
فانظر
##قراطية
القسمة
ظاهرا
##عدت
بالتح
هج
الجع
أخبره
ليد
وتب
الترتيب
فقرأ
يقاتل
##قصى
مصطفى
تصحيح
##وست
وكي
أباه
الحلال
لرب
سال
وها
##زما
مبين
قديم
الوث
ويذكر
##رائب
جبال
وجميع
ركن
علاج
##حش
والإفتاء
##وضا
##ديو
السيوطي
تقتضي
اصط
تبقى
##مره
##ونك
وبها
ستين
جلد
إنكار
##باي
الصوفية
معجم
الوقوف
الشكل
الدراسة
##حلل
السياسة
##مكان
والجماعة
لجنة
الجهة
فبين
الامر
الثمان
وبرك
##ولاية
الوزراء
أنظر
منتصف
الترا
المأمون
الأولين
مخلد
يعط
الكرم
##واضع
##سانيد
إصلاح
وفض
الدنيا،
الرواة
يهودي
مصر،
للشيخ
تمن
تركت
##ندية
غني
ويدل
لاحقا
قرار
##يدان
ترب
غا
الحمام
##حويل
يشكل
العنب
الملكية
##ماح
فينا
تسليم
متاع
وأصل
بالوا
الحلق
وتط
##واهد
الرفع
وسنة
##دال
##ظيف
الأندلس
للإمام
الغائب
لهم،
البيوت
ينتظر
الراهن
بسي
##فلس
الطير
الصرف
مالي
بالمس
سري
##بهاني
الكهف
##كندرية
الباطن
المعلوم
##فسهم
دائرة
بذلك،
وابت
المعيشية
##بر،
##لتم
والحر
رائ
ويأتي
الرائ
العارف
ألب
أكرم
الكافي
عقوبة
أربعا
الاستدلال
قبضه
##زله
قلبي
##رها
فسلم
##غون
تعين
الافت
للبحوث
يكاد
يقبض
دابة
المشترك
فلك
وكثير
##زون
##خلها
مور
البنك
بالآ
##وائف
##ليظ
##اطر
قليلة
##أنيث
وأنهم
الحرارة
وشرح
بشار
طائ
خلافه
إقرار
نشاط
لى
يخطب
النبوية
الفرائض
شقيق
##يان
معروفة
##أمين
##علماء
##لوما
القاتل
##ئون
بالمن
حروف
فحين
مبني
لفت
القوى
واجبة
فكر
تاريخه
الممكن
آث
الأصليين
نبات
الشهود
راه
فخذ
##ادا
يدا
يتمكن
مقتضى
شباب
تفر
مذ
##ابقة
اتحاد
الأفضل
##سبق
##جس
##انوية
##فيق
ويعت
تشك
بالإن
##بلد
جوان
وعق
الجنوبية
وعبارة
بقيت
##واس
قطر
##جنبي
التقي
كلمات
##لطان
الأحو
أرق
متروك
باق
الثقافة
الواسطي
عنوان
يدري
ويز
إجماع
الجيم
##قرير
يرج
فوجب
مدين
المكر
تحم
لاحق
عيني
رسولا
فأول
أصد
##وتي
تحصل
##وصية
وسلام
دف
بكرة
مقال
الغاية
واحدة،
الأنواع
حاكم
##فاه
أخاه
##قاة
أغلب
ويعلم
بوجود
##سبانيا
مشرو
للمع
المحد
##مر،
فضله
##طت
المسل
السكر
تعني
جام
بيني
##لائك
فاسد
مشترك
المنظ
تحرير
##جعل
الإك
##ابط
##صرون
أعلام
بالبيت
##جزء
توقف
هامش
للأسر،
##صيب
أفعل
##امر
والستون،
الخميس
##هدف
يكنى
فنقول
السوء
الدلالة
##عاما
##ام،
الكلمات
فانطلق
هاجر
ترض
كيس
رضوان
مؤسسة
بدي
عوانة
والوجه
##كي،
المأموم
##جو
المرف
وبيان
ابتد
##رمى
بئر
الخزرج
كراهة
المزني
سافر
المسر
##وتهم
##صدقة
أقدم
جوف
صحته
تابع
جهد
قدامة
الإقامة
##شاب
##تن
الخار
الصين
##حين
##واتر
الشياطين
##ناط
مصالح
ورك
يعرفون
أصدر
النب
##طلاع
القعدة
السجن
سمى
النجار
تزيد
##شكل
##السي
مصنف
##كرون
بالدين
وسواء
غن
الإسب
تحول
شخصية
الحضرمي
فران
اليدين
وإليه
فطر
بتلك
كإ
لزوم
السفينة
الاخ
##اريات
لتن
بلغني
رحل
##لتهم
المروزي
الارت
السنة،
استط
لأنهما
ماتت
الأسا
وثبت
##بدال
والرا
الركعة
أنفق
ويوجد
العائلة
الصادق
وأط
كد
للآ
سكانها
وظهر
ويا
وقطع
خيث
فيقولون
يصلون
##ضطر
الإصلاح
وسيلة
ذهبت
صلي
ساد
مفا
قصيدة
##كح
الخوارج
الذنب
والو
أبرز
التيمي
##شفى
##ثنا
العج
##عمه
مأخوذ
الفتن
القرطبي
##ئنا
يغلب
الضوء
عر
بترك
لديهم
فضرب
المحكمة
طلقها
إسقاط
تألفت
سيكون
سقطت
الهيثمي
يتحدث
بخير
ضعفه
أطراف
الجمعية
الكبائر
وعرض
قولي
الموج
وأغ
ائت
##كنت
يغير
##قار
القاموس
الحنابلة
العثمانية
الولاء
معيلات
الشيوخ
بشأن
وصية
يتوقف
شرحه
مرسلا
##فاقا
صري
مقابلة
إنكم
جرح
##ثلا
ثالثا
والظ
الكيمي
نجم
وأحد
##ؤاد
الحدي
الدفع
أنعم
إدراك
تفت
تسقط
الغاصب
يحق
الحرير
والتص
بمتوسط
درهما
وفد
ذكرا
دليلا
وزيد
الإنسانية
رمي
زيارة
قديما
الأمراض
قيمتها
والعشرين
الموصل
جزم
##ذكره
روايات
وصفه
واجت
مخصوص
##صرت
الوادي
##ؤوا
حدثت
مباح
المصلحة
الكويت
عباس،
صليت
اللات
##صوم
رباح
الناقة
فيح
##امى
##ؤلؤ
##وطن
##ريش
لحي
أرج
يتحقق
##تار
##بتهم
##لفي
بطريقة
بصفة
##لبة
الزرك
الخمسة
حصن
الاضط
والتن
##فادة
واق
والمغني
##فيض
فأعط
##روفا
أنشأ
المحسن
النعمة
استن
قائد
المشركون
السادسة
حدثه
سند
اللب
##ادته
##تيق
يوافق
كفار
الإق
عملت
بيتا
مالك،
بالحج
##فان
وبركاته
دفن
##وتا
يفسد
الموقف
الفتاوى
أيمان
تشبه
ومعلوم
##قضي
وممن
ابني
فوا
القواعد
هشيم
بالكتاب
عفي
أننا
نشأ
##تية
نصوص
منفعة
معج
بمال
مكروه
المهل
تحتوي
يراه
طواف
ومص
غيرهما
يكثر
العبادات
أظ
أيد
وولي
وأخبرنا
الصال
الماوردي
بلسان
يكذب
البريطاني
بغيره
وأصله
زيدا
النات
حملة
##ميص
رغ
قرن
فيع
الصغ
الشريك
اسمها
فنا
العقي
فاعت
باللغة
سائ
سيدي
الاعتقاد
وبم
فول
اللون
المصادر
صحيفة
النسي
لأب
مملو
##يعاب
##قاتل
اليمنى
أفلا
المنفعة
شاب
آخرها
المصطلح
توضأ
##شط
##ركوا
تسأل
تستطيع
سلامة
التشهد
ستر
##جأ
اعتقد
مرج
شكر
يليق
تتضمن
##يرها
لسانه
كلي
وتارة
الأثير
##هداء
لبني
أبيض
المعين
يصوم
السابعة
##بايع
ومتى
هنالك
قدمه
حيات
المكاتب
الغي
شاذ
نعت
##فيان
فضائل
وإي
الشركات
##فها
للمست
يعم
الغضب
بلوغ
بالقاهرة
##ائنا
والإيمان
المؤتمر
الناحية
بيانات
الحوادث
بزيادة
أتباع
إيران
تؤدي
الأجرة
##عتي
القولين
سهيل
مصادر
فأقبل
أصغر
##دار
الاحتجاج
##ليون
الجنسية
##تسل
توس
سمعته
الهيئة
الاعتبار
الإب
##ثلث
معرض
##وتها
والنهار
صبر
السور
المقدمة
بقا
الجماع
طوال
حيض
##سلحة
قدمنا
واللام
##جبه
مين
الاكت
##رفعه
قض
صيغة
يعيد
أوقات
##باغ
##بهان
##عمى
البه
القاد
قوا
وصدق
الطبرانى
ذمة
الإنتاج
مرح
الصفا
العيب
معدل
بانت
يقوله
أدلة
مقصود
استمر
خبره
الفوز
منزله
رجلين
عنها،
توحيد
##صلي
مقاطعة
الدماغ
##نيين
بصي
##بودية
##اهن
تأليف
الحاء
اتخاذ
تجاوز
المذاهب
##فرا
##الين
##اد،
أمرت
لله،
بينكم
الصدق
##ردة
يعذب
النحوي
رأينا
##رابل
##صري
الوكالة
العت
يعين
الثقة
النيل
##لائق
بالحديث
وفت
فنزلت
يتعرض
فمنهم
##هلاك
اذهب
فالقول
وابنه
وقته
الصحاح
باتفاق
سح
##ساعدة
##اهم
الدراهم
الهر
استحق
##املات
للمت
الوالد
بآيات
ورأيت
التميمي
الوحيد
الطلاب
##وازن
خطي
##دلة
الواقدي
أعطاه
ومنع
##رحام
##دعو
الصيف
سعود
الإنترنت
قس
والكتاب
##ثرت
الطبيب
الحفظ
ولع
##رب،
بالذكر
مسمى
##رائم
ضوء
الخدمة
الظالمين
وأمه
تركها
الانتفاع
غري
معناها
المتوسط
##فتين
بكلام
التفصيل
صحت
الاز
عزل
ناز
##ضحى
##بوك
يسمح
##وحى
التشريع
وإع
##يقظ
الميراث
##فقت
##قدرة
المتع
المقب
##بوعة
الإست
##رفا
أحمد،
آنفا
فالح
يرب
العاق
المناسب
مشرك
فري
الجي
المعركة
##طيل
شرطا
سو
الركن
منق
أخذها
والتأ
التعامل
الهذ
عار
دريد
فأراد
شبكة
المقال
يتناول
خس
والدليل
إك
يفتح
##بادر
العقول
فمع
محبة
المستأجر
##دف
الإمبراطورية
ممكن
بسند
موال
سلاح
##طيط
لتكون
لعله
السام
##بيها
##ماة
أكمل
الطبعة
حرك
##ائى
والمرأة
الوال
##الفة
جدي
يتعين
أكره
الدرجة
ويشت
صدي
تحد
بريطانيا
##ارا
الأعظم
##عتاق
اليسرى
التنبيه
مجد
للمس
الجوا
نصيبه
##ؤية
حرة
المؤمنين،
شهود
خصائص
عرش
##قيقا
الواقف
واستمر
تفصيل
##برد
اليم
يؤذن
الإحسان
الفارسي
هى
##تاح
السند
أخلاق
طعاما
العاصمة
##نائه
##راقبة
ثابتة
الهدف
استقر
##دفع
تصنيف
ووف
##انات
##ضد
فأكثر
الزناد
مسلم،
الشرطة
معن
الشفعة
العلاقة
وغيره،
أورده
حكاية
إظهار
تناول
##اءة
وأقر
ذكروا
أشكال
##ورين
الطبيعة
الشاة
التقوى
انها
ويظهر
أفريقيا
##لوي
الجليل
##رعى
التسمية
مواقع
محافظة
الرياح
##لندا
كرا
امرئ
الزهد
قبائل
أحل
صبي
##فروا
بأرض
ولى
يعلمه
ويعتبر
تعذر
##بسوط
فرضا
الفاضل
أسس
خلع
الفلسطيني
##قوت
##ضحك
ويجعل
طويلا
وكت
##فاعل
العقود
الأوقات
##طعن
##اهل
##ديات
##ريته
اما
الموض
الأصنام
والشع
احتج
الإذن
وإخ
رحمهم
توبة
الأسد
قرط
الرزق
##شيا
المجا
المصالح
الضعيف
رحيم
تولي
##عته
يصرف
فو
قلعة
نتائج
منعه
##زايد
العود
فتاوى
رأوا
البحرين
##يثاق
##خفيف
اشترط
الدجال
بلغه
النخعي
أعمالهم
##وسيقى
بالو
##سنة
الغزالي
مجر
طيبة
البلاء
متأ
أحرم
وكأنه
لأصحاب
فأي
حضور
ودفع
رمى
والنساء
البئر
##حيض
سوريا
المار
معه،
تسا
وثلاثمائة
##بله
الموحدة
##اب،
ماي
يقولوا
##داع
قيادة
يرويه
مضي
وولد
العطار
هرم
إياها
الهلال
العقوبة
الخضر
##اخذ
عظ
##فرت
##رية
وأنزل
##دو
##زول
##ائشة
وأطلق
السبعة
##ماليك
بمثله
المجد
التحرير
قناة
ولعله
الأت
بالشام
##طاقة
مشار
الال
مخلو
##قتضى
##حدة،
اللح
الأولى،
أهداف
##عو
الجناية
البيانات
البقر
الآسي
كرة
أرادوا
##فد
قاص
##يوش
بالمال
##مارات
وبينه
وقلت
##يم،
أخوه
##جون
إماما
الوجهين
عضوا
المحتاج
المستوى
اعتمد
شذ
بقيادة
الجنة،
والخط
حماية
صوته
القوانين
للإسلام
أزواج
واجبا
مختلطين
النار،
النيساب
بيانه
##الوا
##عيش
والات
وخص
أخاف
وأمره
ووجد
والاعت
##ثيرا
مكتبة
عاج
مقارنة
المشاركة
المسلمة
انقطع
عزيز
كافرا
ألقى
##خه
علمنا
المقرئ
الواردة
ووص
##بود
بكذا
##بتم
##ونت
استئ
##غيث
البالغ
شد
بالعلم
السدي
القرار
والإسلام
##فتها
العظيمة
آمنا
##ائزة
##ثمار
##غوا
##عبادة
الطائف
##رفت
##برية
##ذرعي
جورج
##افل
تقدي
أتاه
انس
ينقض
يضم
مزيد
##نيته
بطولة
والأع
عوضا
يأذن
تحر
ووج
خطبة
الكلية
ينفذ
فرط
عنكم
جعلها
##نائم
فارق
وثلث
##وأ
ظهره
##واريخ
##فاوت
تؤمن
##انهم
ومث
وخير
نسأل
فسار
رجوع
السيرة
سياق
##بعد
##لحق
موقوفا
يتزوج
كثيرة،
##غفار
##علنت
عرقين
##كنة
##ليمة
المحيطة
عارض
الجو
سعيد،
شىء
الفقير
##ضرر
الموافق
الوداع
##مائه
##صروا
##تابعين
الأصحاب
##ينيات
الإثم
البلدة
فوائد
للعمل
لمر
وخمسمائة
الساح
الني
فوضع
بعدي
##ريه
تأوي
بطلان
##باري
البيوع
خشية
مند
المحبة
التاريخية
##حط
بكثير
أجله
دقيقة
عليهن
##داخل
يلب
وطل
أقصى
##شارات
جمعية
التعليل
##فلان
الراجح
الميتة
أكون
##ياع
مفس
موجب
الصا
نعرف
تحتها
وسمعت
النداء
فاص
شداد
نبت
النشاط
نام
هدية
المضاف
ورقة
وزي
الأصلي
الله؟
بطلت
وتلك
والتس
توجيه
فهد
العصور
بموجب
##رازي
تطور
الموتى
البطن
##طلان
ويغ
المفهوم
عنقه
يبعد
حكمة
##باطل
فرأى
واضحة
تسبب
تفرق
##ختصاص
كلب
تقدر
الأولاد
ه،
##ذنب
ينتهي
##ابة،
أقسم
##رسة
تشكل
أصيب
السنوات
الألمانية
الحادي
والاقت
مصد
##ياز
هدا
أحد،
جعلنا
فجع
لمس
روسيا
##حصاء
عفا
النيسابوري
##اكم
رقبة
##غيل
##يسير
تمييز
##ثق
تعارض
السراج
الاختيار
المحلي
كرم
إليها،
الصراط
صدره
اهل
يدر
##بوته
يجبر
نيوي
الأوروبية
السياق
التلخيص
التكبير
المعجم
##ندوق
##خفاض
مساجد
يطلع
تحرم
وأجاز
فوقع
والكلام
##نائس
جهاز
##كنى
الضرورة
بالات
فأبى
المعصية
ثوبا
بالتع
يجيء
كالح
العالي
الطحاوي
الولادة
واختلفوا
الخض
البدل
صفحة
أولاده
فرب
لعلي
سور
##قيد
الفروع
بإسناده
دلت
##جهزة
##دعي
ولكل
مبدأ
عقيدة
##نو
##قتله
فضة
محمول
دورا
الجنازة
شخصا
الصراع
السلوك
##راجعة
أكثرهم
##نصر
##ليط
الجب
حملت
##راوح
سان
وكر
##واط
##اريع
المستقيم
فجمع
##ختم
##لعاب
المرة
الجوية
بماء
أحداث
مها
قرة
مجلد
##كشف
الاقتصادي
الإنجليزية
##راهية
فدع
البيضاء
الداخل
أعرابي
السبكي
عاز
المبت
جنة
##طاليا
البلق
دارا
ميز
السيطرة
المستحق
##نزير
مشايخ
بتأ
استأجر
الاف
للمشتري
##بغ
الرعاية
جمعة
والنا
ابنا
أراضي
النظم
المرضى
أكان
##ديك
الجهاز
أفت
##فاضة
تطبيق
سلوك
##حدى
إص
صر
والعد
##حقاق
مناق
##ليله
الجلال
الرأ
للمدينة
القلم
أذكر
خيثمة
المتأخرين
فقلنا
الهمد
والقر
وأرض
داء
سكر
وخلف
##شة،
بقل
الطبية
العوض
مستق
وتشديد
##جها
##لوهم
##هادت
##غيرات
التبر
روم
الأنفال
المطلقة
والمص
النزاع
شغ
شرعي
الشيباني
وصول
لقوم
##وند
قوية
أعطيت
تذهب
صلوا
الشأن
وأسر
##ماذج
الربو
السماع
الإلكتر
العصب
المعارف
اسماعيل
كذلك،
قدرته
والمقصود
العالم،
شهادته
##ستاني
##جى
بالض
قبلكم
بعلم
الصامت
##فقته
فقتله
الزيت
يعطى
فإنا
أماكن
##ايا
صدقت
طرح
لمحمد
الكندي
أمس
العلل
##قا،
رأت
هدم
##ميزة
استعمل
أعاد
عك
والبد
المتقدمة
##وراء
التابعة
نبيا
وزيادة
النذر
جدا،
وشي
فتع
تصبح
##سس
أدب
باريس
شيخه
حاول
الخل
معلومات
الآخر،
فروع
يتوضأ
طي
محرما
متق
وحصل
بحلول
فالإ
تام
الحالي
يترتب
الرضاع
جاءه
##روا
بتس
إطار
أسقط
العرب،
مضر
الفرات
##غام
مالكا
لصالح
التربية
غزا
بثمن
صديق
خاتم
طف
المزيد
##ائك
الديار
الابتداء
ويرجع
الموفق
##قيف
موسم
وعنده
أمسك
تدري
العيش
صحيح،
أسيد
المكلف
الضلال
بيم
كنيسة
الإخبار
##قان
لأج
أصابه
كالت
لعلكم
ميتا
منش
الفائدة
طبيعة
بريدة
وأرسل
غيا
ينصرف
بعمل
مقامه
##غيره
الحقائق
الإيط
##ولوجية
##عمد
بصيغة
أركان
عامي
شهيد
مدير
بالإجماع
##ودها
مردويه
##مامه
##لامي
ويدخل
##الهم
بالقول
مآ
الوحدة
##ديت
السفن
##بهما
البين
تصوير
يغسل
تقطع
الحربي
سبيلا
الأولياء
وبناء
راح
العمليات
يلتفت
فريضة
انتشار
ويخرج
القضايا
كور
##تون
محفوظ
ويط
##خمة
##وسة
الهاد
مولاه
ذمته
العثماني
بفضل
مدح
ابنته
##خ،
بسرعة
واحتج
صغيرا
يصلى
##رهاب
##ارعة
الأزدي
العمد
المنظمة
أرجو
المخالف
النت
المصلي
التقدم
##هزة
ولدا
مشك
البعيد
أتت
القارئ
فاف
يهم
دعوا
مشكلة
تزوجها
ونظر
وحج
الطبقات
##سطنط
الأمانة
سأله
عمان
فاض
أوضح
##روري
لندن
كرب
لآخر
والفضة
##دمير
خات
فلأن
الذبح
طلقت
الآدمي
##ماك
##رائه
ومي
الصحابي
مفع
مبارك
محتاج
خض
يطوف
وفرق
الدالة
بالأن
إثم
##يير
حرمت
##خصصة
بجامعة
يرحم
ظالم
غم
العاشر
الأنس
مسافة
والقص
السلامة
الحسنة
لاب
يومين
##ماعا
صاع
الكراهة
فأح
تتخذ
##جموع
##ماري
الحق،
يكبر
سرعة
جبر
مياه
فأذن
بذا
إست
والتقدير
كناية
الشرف
مسدد
الإص
توفى
مؤتمر
وسليمان
##احف
##شع
المظفر
خلقت
مفتوحة
##برأ
يتقدم
المتوكل
الصداق
الضعف
الوزن
الاح
نفسا
بيضاء
كالص
والمج
يسعى
##ذكار
للآخر
وأموال
وسع
الإدارة
الانصاري
حفصة
تبا
##لقا
معروفا
سيئة
السعادة
السودان
##ديمية
الشتاء
الخراج
الكرام
خرجوا
وأنكر
المشايخ
##ميه
نشرت
إعطاء
##غ،
عمرها
إغ
الغناء
القلعة
دما
مؤمنا
زواج
يغني
##وسا
للمنا
يخشى
وجعله
الماج
حفر
استثناء
##الة،
حث
تسلم
تعتمد
تجز
المفسرين
ولكنهم
أحمر
خلط
أدت
المأمور
##فيت
البعد
الأفكار
مزا
يعبر
سجل
أعرض
وحيث
باعه
تحري
##لقب
التأثير
##طيف
##زاء
##وارد
براءة
العدالة
الموسم
عبدي
الإخلاص
راف
الأمرين
لكثرة
##فارق
لوق
نض
تقسيم
برجل
##هلي
الكبار
ضيق
اللغات
##صر،
##الع
##فة،
النصب
##ربين
وبعدها
يعرفه
##فخ
عموما
شغل
تمس
والكس
والقرآن
ينتقل
##حيوان
إبطال
يرضى
##امه
أفطر
الصالحات
وإسماعيل
##ضعاف
المتعة
كاملا
إرسال
وكثرة
الزركشي
مقط
##يلون
التشبيه
تقا
باختلاف
المجتمعات
مقب
##خن
##راءات
##ص،
##امين
وحدها
##ذكير
الانتقال
كريب
##ظهور
وعين
يرسل
##دين،
واللفظ
الشبهة
احتيا
عقله
يضل
وإد
##فا،
مملكة
بأع
##ويق
المخزوم
سفينة
أرباب
تعظيم
##غية
وآخرون
الأصلية
وقفت
انقطاع
مسيرة
الفضاء
##قي،
سيرة
السعي
لاي
فعلي
##شرح
فحينئذ
عبدة
الإير
البرنامج
والأش
الخطابي
نبه
سواد
باك
المالكي
القائمة
قتلت
استوى
تعدد
شيبان
##يرات
خالق
##وثق
بلده
تراب
قبلهم
يعارض
ثمانين
عزم
ويكره
أسرع
الحقيق
الناظر
وهن
للبائع
كمثل
فالذي
ميلا
اكتشاف
قبلك
اجعل
يصدر
الجماعات
الظروف
##؟؟
موجودا
الأذى
صدور
قتلوا
##غه
مضاف
الشعبية
للعالم
وبنو
انع
وحرم
ويرى
سرية
المخرج
العجز
الشفاعة
الهج
فف
##منى
الطائفة
الموال
حديد
شن
النقطة
ويأخذ
الفطرة
##شرات
النسخة
كاد
دفعه
##وت،
فتحت
أسلوب
حاجته
إحياء
الفم
##وكم
المنذري
لمح
ولدها
إجازة
المانع
##يدر
القدير
##ائنات
السح
خمسمائة
##قتين
بذل
ليسوا
يوصف
الاحتمال
فهما
فقهاء
##ظرة
لانها
يجزئ
##صله
العظام
أهلي
المري
##ادلة
الإغ
اند
##نتان
تلقى
بهن
الأزهر
بتاريخ
وضعه
##شره
الجمهورية
##قاش
تضع
تغلب
##عمة
يركب
الحجاب
##صيحة
حنث
ذكور
حاضر
المباح
بأكثر
##لكه
طبقة
ميسرة
الشيخان
انتقال
الزوال
تنظر
والثلاث
##حيات
سق
##كول
ويسمى
وصد
فنحن
اسما
تؤثر
##ران
بحجة
وموسى
الضحى
##جبت
الأكا
ولكم
الخليج
فرفع
حلقة
صادق
ورأى
الأصغر
اللخ
بالإسلام
##كسر
عدتها
اختصاص
صلح
استدل
أكله
يولد
الحائط
صحب
الفهم
اغفر
رهن
مدار
تدعو
##كومة
منفر
##وف،
وفعل
##رامه
بدرا
حرية
يأخذه
آخذ
تونس
المسك
تراه
الغاز
بيض
المهمة
دقيق
لأي
الحيا
الهجوم
##شابه
المواضع
الغزو
الأسدي
هاتين
للنساء
العبيد
##بدا
البرية
##غرافي
المؤسسات
##طيه
رجعت
المرج
جمهورية
منقطع
بردة
اتفاقا
##ك؟
تميز
الترج
الملك،
الخلع
الرقيق
دخوله
قذف
ذنوب
##سخ
الأطباء
الاشتراك
المضم
والاجت
##صرين
##ارته
ثمنه
##حاول
علية
##زيون
الفوائد
الوقوع
فرأيت
ودي
##قافي
لتق
مكس
آسيا
##شين
مدر
الصلة
التراث
واه
المثال،
السوري
يختار
بركة
ثمر
لتأ
##لاته
فترك
الوسائل
الزوائد
ونه
حمدان
الربع
بابا
التابع
الوعد
فيؤ
رغبة
آثاره
نارا
##قتهم
##ابين
وكره
بلي
##وصى
نمو
##ضاح
الآسيوية
##ينة،
التث
مدن
المقدم
تشي
تنزل
وأعط
تجارة
السواد
الأخرى،
الضغط
وعبيد
أمرها
المنس
الحبشة
ذكرته
وبل
بكار
رشيد
الأعيان
الجاني
جيم
للمؤمنين
تقدمت
بأيدي
الفاسد
##جيء
صفوف
أية
أرضا
الشكر
يلعب
الألباني
غرض
الصلي
##قيقه
الغذا
بمدينة
النظرية
التعاون
الصحف
أناس
والبخاري
يمينا
سبأ
وسأل
الكفاية
المشهورة
وخال
##راعية
برامج
برم
دوا
يتغير
النض
الأصبهاني
مباراة
رسل
قابل
وتغ
ولكني
##بادل
آلة
جمل
الإجابة
تحته
##ستها
اتصال
مضت
الانتخابات
##ءوس
##ولايات
بابه
##حام
الأوا
##ط،
الصحية
##رحل
الشعوب
##لقت
النط
فأين
يستطع
غديان
المجيد
الأحياء
يجعله
تخري
وأظهر
بالمعنى
وعطاء
ربح
##واشي
الفرقان
بكر،
الظرف
##جره
الأنهار
والإمام
مكة،
تصور
اليمان
لأنك
القرون
وجن
##شن
وليلة
حية
##معوا
وقتادة
جالسا
##ملت
ميراث
تصميم
نقي
قدير
للحديث
علو
إخبار
وجها
كلاما
عسى
##كنا
##شرا
المال،
أبي،
الأفارقة
الوقت،
للأم
يتفق
الإسرائيلي
يذكره
الأردن
أظن
سياسة
العقاب
فكانوا
الرياضي
رأيه
مرتبة
قضايا
بالان
إبراهيم،
المفضل
##ضاعة
يحتوي
السلعة
بيمينه
الغيبة
بالعمل
القم
حرارة
وينت
بالنظر
عهده
الاستعمار
والرجل
السحاب
وقص
##قبول
أضاف
##وجل
أمها
يؤمر
وأقبل
خلقا
بقتل
ترفع
رابع
##سبون
##وصول
والقمر
عينيه
سبيله
حنين
موافقة
برهان
##متين
والبغ
عات
جوهر
الحكومية
الشرب
##ذهبت
بدار
دبر
##حة،
وأصبحت
مراده
##ليث
##واته
الكثيرة
أبيات
##قيما
ثان
فكما
المصطفى
##بادرة
##اهية
بياض
الأساسي
انتهاء
خارجة
قصيرة
يجر
أمل
طرد
مكي
##شطة
فالع
البع
والمسا
لا؟
##هله
ختم
##ودية
##حداث
لأنا
الغا
اليوم،
الفضة
##ضمير
مطرف
لانت
التقليدية
الفلاح
فوض
التصوير
أسلمت
العقبة
بضع
جنات
الأعداء
##دبر
فأصبح
بسنده
وجده
مبت
العنف
حاص
ساعات
يظلم
طاقة
حامل
جالس
دق
العلي
ذوات
وانما
##نعة
##ظلة
القبي
مستقيم
التكليف
معلومة
المحقق
سماك
نيويورك
##ارير
الرمي
الجند
##طيعون
وقبض
فإما
شو
مهملة
##قدة
قياسا
باد
التعا
سفيان،
التوضيح
المول
الطاهر
##وضوء
ينه
للمن
##حيل
الأعراض
##ذبه
بقوة
فيا
الحمي
شتى
##كيم
التطبي
##كنه
##ؤم
جني
والنبي
##بوس
مسروق
طلبه
أفتى
وأبى
إقراره
##اعية
العقيلي
##لوبة
##بطال
طلا
هاج
##لازمة
انقضاء
سحر
فسأله
الحية
دينار،
ناقة
كسائر
والفت
وصي
أرش
##خلع
إدخال
مناسبة
الصالحة
يهت
##حنون
ثوبه
رجلان
وعيسى
حادث
##امد
ونت
فعلوا
العس
##باك
ظنه
اشتهر
الاستخ
ووصف
إثر
وأعظم
##عبين
مقبول
وانه
المتحدة،
ورحم
تبت
##ريان
يحج
عمرو،
خروجه
لذ
مرارا
##بيعه
##باعة
تضر
عناصر
الاصط
بصر
بعير
تصنع
##همه
يباع
إليهما
أعراض
المسجد،
الدماء
فتقول
##عدوا
المفتي
الفلسطينية
أبن
تلت
العرق
زيد،
كثير،
مرضه
لمسلم
##جليزية
الأماكن
أجهزة
المرجع
##بالغ
الحرمين
يفطر
العطف
الأعرج
الكشف
المخطوطة
##برز
الهاشمي
الأسنان
الأعراب
أصلها
العكس
##كرين
تحرك
البرت
الحبس
يستلزم
وحضر
العناية
المطبوعة
الطائي
للمش
يشارك
دنيا
فقيه
الاهتمام
والقا
بالإيمان
السلطات
بحمد
أسألك
القوي
دير
البرلمان
الأبواب
المهذب
المبادئ
النمو
التزام
الزوجين
##صادية
ذكر،
الإنكار
تخلف
لبيك
##لقه
القريب
الثقافية
الجوع
يتوب
جزر
شبيب
##خار
الأربعين
##عاع
عاقل
لشيء
##كري
أحا
أمراء
مستقلة
علامات
أنى
تور
##قش
الأيمان
ومعرفة
مثقال
##ضور
##ئهم
إحسان
فأولئك
مولده
##ض،
الهندية
شريعة
رفعت
الحادث
فلهذا
لاحتمال
إسحاق،
التدريس
طارق
الإيجاب
المنش
مراعاة
أنني
جريدة
##فران
رعاية
##تكلم
الثمرة
تدا
بشئ
متم
طاف
##اتبة
##اليف
الموصلي
قصده
القطاع
##ابات
ويعقوب
انفرد
المنقول
##خاء
الإمامة
الأسواق
فليست
الشهاب
الوصي
فحسب
ثورة
أخذا
فسي
والعا
بكثرة
ويبقى
العناصر
##ذروا
مملوك
ورسول
أصوات
ولئن
بمثابة
وسجل
أراه
##رين
تحكم
السلسلة
غائ
وحب
##خيرة
##يروس
الكواكب
##صون
ربط
باي
زا
محكمة
الحضارة
ويحرم
واختار
أصلي
##جلترا
النفاق
فامت
الشهيد
الشهير
ارتفع
والمغرب
مذهبه
إق
##زة،
##ائت
##ضوا
كالع
ومجاهد
وغيرهم،
فماذا
بالسيف
الحروب
##رابات
الحوض
أسن
يكلف
نيل
الأذن
فالص
دست
المبار
كالن
العقلية
الجنائز
نوعا
تطلب
قلابة
البلوغ
كفاية
منصوب
الجنين
##مرق
ينام
معطوف
الحسن،
المناسبة
تردد
الخدمات
كلف
الثناء
اللم
##ائري
مكاف
توب
احتاج
نصفه
اللخمي
الآداب
الجما
وسبب
##موا
الحلو
سمعنا
تابعة
المها
أعلنت
الهمداني
منسوخ
لض
بأهل
مراحل
أجرا
أشر
الأذرعي
حقها
فوقه
وجهة
كالإ
زمانه
وثقه
الأمر،
فوجه
الإقليم
الطيالسي
دخلوا
ليع
إياس
المحدثين
وأجاب
وتحت
##وصاف
البزاز
دمشق،
##لهم،
مهران
تنس
تعملون
أمثلة
##فصلة
الرملي
مرور
فالجواب
بإذنه
بصري
توفر
خاط
اشتد
حاصل
يؤخر
وجهها
أنكم
الزراعة
القرض
وشرط
مقتل
الحمار
هذا؟
##تيك
متص
رخص
إيمانا
استق
المنطق
##ياسات
دينارا
والفق
الحلية
الكن
والحم
خلت
##سلسل
الحسنى
هانئ
والرج
##هدي
وأر
ظرف
حدثنى
باطن
##كلي
عرب
كاذ
##روضة
##بيدي
##هوة
يتن
##مهيد
لتلك
نقلا
##وسل
المدنية
اهتمام
بحد
نهار
الباط
نون
يشرع
إسبانيا
خسر
##جموعة
ويصح
المعارضة
شرعية
##نائي
تزوجت
المخلوقات
حجاب
العوا
ممنوع
قصاص
النبلاء
هول
##لطة
ثعلب
جمعت
قاموا
أصابع
بثلاثة
ينوي
رأسها
مسرح
تركيا
##مله
##حايا
##بقية
سعة
##ينا،
الديني
المهلب
##ماله
الماز
وطئ
الصائم
ونشر
التصريح
شاع
وبدأ
مجموعات
الشورى
الإرادة
الديمقراطية
عمد
التز
وإياكم
##وجين
الخزا
بالأمر
الشم
بباب
الاستفهام
خلالها
##نيت
##رهن
نجاح
نريد
ماري
ورم
##ثاله
##فعاله
المرتبة
الجلوس
##حلة
قعود
يبد
ويقوم
نفذ
##ضمار
والبحر
ثي
خمر
كول
##ضاعف
##اليم
برسول
تفيد
زادت
الأهلية
لكتاب
الشام،
مسئ
داود،
حصة
الكلم
وترت
ساكنة
للزوج
وسر
أطول
خت
الألماني
الاعتماد
قطعت
##وعظة
والتك
اللغوي
تصد
##غرق
يتصرف
الأشعث
تطلع
تبدأ
أخا
##ولاه
منده
##لاحظة
معهد
صخر
الجعد
وجوههم
مسكين
##انس
عائد
يرا
المثليين
الطرفين
قبلت
##لاسفة
ساح
متنا
عذابا
النزول
نموذج
مير
كسرى
يسبق
ومال
##قاف
البيئة
واتبع
العربية،
اختلفت
##نيس
##يب،
اشتراه
##غنى
الوفاة
يشرك
وشبه
خبرا
جميعها
وستمائة
##راته
التطوع
معلوما
رط
الشوا
المحافظة
جهود
عجلان
انف
لأخ
صراط
##زان
طهارة
نظرت
##ينيا
الجهات
##قضت
عربية
لقيت
الأشرف
##ختياره
تصف
أرط
قوانين
القائد
فالن
##قوى
رئيسا
رجالا
تخريجه
رجليه
المخلوق
##يناه
بالذي
مبر
والشي
##يفية
##وائي
وور
فور
مسر
الصنع
الغنى
ضل
والجد
##قاذ
استحقاق
الطيبي
وخر
ظلما
الحنب
تكت
للحق
بعضكم
العجلي
المنازل
العوامل
الضي
السدس
والرسول
الثاني،
##رائط
##وقا
##فاءة
اقرأ
وبخ
الجنود
##شاركة
##صلين
البرق
##رجات
السهو
##داوة
##كملة
##دام
وثي
##طيق
جرم
مسب
##طين
##حا،
مسجدا
عبادي
جنبا
موسى،
يشك
معكم
تحسين
عيش
والعرب
منازل
الرقم
##رأته
الأجزاء
الهلاك
ينطق
##أمن
##عدون
لحكم
##شو
##عاء
##شاط
يبكي
الزع
##ورته
خطة
وجدنا
مدا
الرسمية
##أنف
مجالس
والنار
طريقا
غنى
##ستم
##واجب
يؤكل
أذى
المواز
إباحة
ومضى
والحاصل
##آت
للعلم
##أكل
نذكر
مواجهة
شهيدا
حراما
محض
قرابة
بالطلاق
مسن
##ظف
نجيح
القراءات
ودم
الطول
لفلان
ووال
فأس
##شيدي
البدر
وقسم
اقتصر
سبقت
لكرة
##جته
##قصير
ار
جهاد
الزائد
سلمة،
تكوين
بوس
صدا
فلها
كلاب
##يه،
##ثو
##وابط
##ءة
##جاعة
البشري
حولها
يخال
يلقى
##ظائف
الأسط
إناث
مستحق
إصدار
نورا
بالآخر
تعبير
وبح
لوجه
هدف
ينقطع
بمائة
الكتاب،
المعلق
كيلوم
##متهم
وافت
مسم
##ارة،
فاحت
الوعيد
فجلس
##لاها
##لز
##آة
حكي
الأقصى
##صاة
بقد
فأسلم
العيون
فأكل
لوط
##وقه
ينب
مذكور
عفيفي
##زياء
تصلي
صالح،
وأربعمائة
لابي
وكون
الدواء
طاوس
بام
تكره
##منات
انما
وكلاهما
أبت
وظيفة
يورث
هلاك
إقليم
الثانية،
فخرجت
والبيهقى
عبدالم
##راتيجية
غياث
العظمى
##زاري
##وائية
مكث
##رابة
مقدر
والإع
النحاس
بايع
يزول
المساواة
الند
المقري
اضطر
محددة
شت
نجس
##جنون
معتقد
يطالب
يؤكد
عادت
فعلها
##ناكم
توجب
فرصة
الخارجي
##متاع
الانسان
الإنسان،
فعال
حدا
البرهان
##رأس
الماء،
قولها
لفي
الفاح
زار
##ؤكم
دائم
الآباء
##اصم
ظفر
##افرين
النمل
يتجاوز
الأنا
##لادي
لفظة
حقق
تتأ
الانح
عرضت
التصنيف
ثوبان
يسن
دونها
##طهر
##ئيا
##رابلس
اختاره
الإسلامية،
النصاب
السنين
##خلاص
العارفين
طبق
الصحراء
ينادي
الفور
الزمر
الصوفي
القذف
##اته،
وأسلم
الأجسام
العلوي
جندب
طاعته
الخصم
الوراق
فاجتمع
النتائج
أياما
البخارى
##تيات
العودة
وأمثال
والدعاء
##ذكروا
فيهن
الأطراف
##انوني
إنى
للأن
حكمها
ومكان
كو
العذ
الرسم
صم
تسب
وتؤ
أمريكي
سانت
قريبة
ووصل
##غن
إعلام
زن
فأتاه
##رطان
فحمل
عوا
نفى
تموت
الإسرائيلية
##فش
القوا
##زوق
لويس
##وات،
كمية
بأص
آياته
##قبه
تأكيد
البرد
أعيان
ومرة
اليتيم
الأبد
تحصيل
##فقوا
البها
عبيدالله
الكسائي
##سنات
إجماعا
رام
##لن
الأحوص
يقصر
فكذا
والتابعين
يزد
الأشجار
ومحا
ففيها
بصره
الخلال
غيب
الأشهر
فتى
محال
إنسانا
وعظم
مستقب
شيخا
إسلامه
للعبد
ينظرون
##قيات
تشكيل
إيم
##مانة
جاوز
##شب
ضغط
المبلغ
التقى
بخلافه
##سوا
أوتوا
إيطاليا
المقدسي
##هنية
تصاني
أعطا
المطالبة
##بتين
راع
لتحقيق
الأرواح
اللازمة
##قراطي
يتولى
ليعلم
نيابة
##ركين
عدمه
اخرج
يقضى
##ذرت
الوارد
وثلاثة
محيط
للمسلم
##روز
فتأمل
وخلا
وطن
العمي
##ياح
الإيمان،
الواضح
ثلاثمائة
الخصوص
بصف
بإحسان
المنكدر
وخالف
ضربت
قادرا
الروسية
أربعون
وحسب
شفاء
##رفق
التركة
##والة
الاستش
للذي
المنام
إضاف
حمار
وعملوا
يذبح
##جرح
جمعه
حذر
##تبع
الوديعة
القيادة
معقل
الأوس
ضربه
صائم
أوفى
ورواية
نزع
بيوم
أليم
بفت
مباشر
بالبصرة
علل
غاز
بيتي
صنعت
خب
يفي
##ويس
الدواب
المشتركة
أجيب
##ملأ
ينعقد
المستدرك
وقولهم
ولايته
##طات
لباس
الفتى
حقي
مؤك
وبعده
وعي
##راكب
وأهله
اعتبارا
تخريج
مواد
الجهد
النبوي
##ضرار
الشق
النادي
يسيرا
معم
البلاد،
أمانة
آنذاك
المفر
بتحديد
شائ
قومي
سؤ
عبرة
وبيع
##حرر
مشى
يوا
بخبر
صغار
خمسا
المجهول
حملها
فهؤلاء
وبني
أسأل
ربها
فيصير
مطلع
للملك
التام
والسر
بالموت
تتكون
الرجلين
سعد،
ظلموا
ملح
للات
أنما
##قرية
الحميدي
الحرمة
##كروا
استحباب
الرؤيا
فأشبه
ونعم
محص
الاستقلال
الحرث
الإلهية
التحليل
الحالية
##يط
##صلت
الأنوار
الطهر
الإنس
والنف
قمت
عنق
السجدة
##خرف
##وان،
يرك
##اصي
يساعد
والملك
تقليد
صدقه
ويرد
تمسك
الكفالة
المتح
والعصر
كرد
الرومانية
جعلوا
وتز
الهادي
أعجب
لأع
بهم،
الصهيونية
إعلان
وأز
ذئب
الجبهة
تصير
تؤخذ
دماء
يسع
##ونغ
قصص
المبين
تحليل
الترغيب
ركعات
الصناعية
##ؤنا
سرير
الثانوية
جمعا
الأمثلة
##خين
كنانة
ذراع
##مارك
##طوع
فالا
ملخص
السورية
##جلب
##ساق
يكلم
عرضا
التغيير
الصغار
قرآن
نزاع
جدة
البحوث
اللقاء
يملكه
الحجارة
والمال
للغاية
وطء
البيهقى
حصر
##فري
ردها
كص
الفارس
اتجاه
وبالم
##ادها
السكون
وكلما
##طبق
واصل
أمان
##رارا
الصغرى
توهم
زفر
##زيمة
الرجعة
النبيين
الظهار
بالأم
بظاهر
أرسلت
وخط
عدى
ليح
باطلا
الإناء
وسبعمائة
مدخل
يفصل
##رسوله
عنده،
الفقهية
غروب
بعده،
أطعم
##رفين
يرغب
الحلي
التأمين
الصدقات
دولار،
ميتة
##شاه
يقم
رسميا
كذبت
لحا
يتميز
##يسابور
##عتك
والمعت
وبقية
##قطار
أثره
أستاذ
كذبوا
الفصول
##سنوي
فكره
##رأي
يتكون
##وطء
الغنيمة
البلقيني
فقبل
##وب،
##تقى
المنافع
يفضل
أشرك
اعتراض
لصاحبه
بالباطل
الجان
الاعتدال
السرقة
يري
##لزام
##ادوا
واكت
أرسلنا
ياب
##وليد
بعيدة
تحب
الده
رجله
أور
إسحق
جديدا
رتبة
##ابته
إلها
يستوي
##جيع
##دن
شمر
جنازة
يدور
لحوم
واتقوا
أحياء
تها
جلب
الأث
وأحب
فبال
أصدق
لبيان
الفريضة
المرسلين
الأسلحة
تلو
نحر
##وهب
الحاصل
روما
##يات،
توزيع
الإضافة
الفنية
لبيد
##طعمة
عاصمة
الدوا
والتش
بالله،
الوالدين
بطنه
بالخيار
واجتمع
وامرأة
أعيد
القومية
اخبر
سنتين
رحلة
الحديبية
خف
البري
المسئ
##هدا
ثمرة
المحال
##ليمه
للحصول
وتعالى،
##جام
وعقد
##جاح
بمكان
ولفظه
ذلك؟
معاملة
##ظه
التعرض
معجمة
الشين
وسفيان
الحامل
##ديس
الأخت
الحركات
أيا
المنه
العجل
##وى،
والحكمة
دلال
ساج
##ظا
بالرغم
فنه
وأكل
وكالة
كالش
كثيرا،
أسهم
بالكوفة
##غور
بوضع
##تل
وظن
استمرت
فعن
##رمذى
أنفسنا
عيون
المدر
الدستور
الشفيع
إياك
شبيه
##لى،
##مها
والمسلم
ردا
يساوي
الجل
المخالفة
##رفوا
يحي
فضالة
أحم
##وليا
فقر
أشهب
الموافقة
مخر
البريد
##ينغ
ركعت
العاقل
حلت
وفاء
علمية
وأين
جاءهم
الملكي
##اعون
المضاربة
دراسات
نوفل
للض
اللازم
إذنه
ملة
##رافية
الأيمن
##فقات
يوضع
ارتك
بالرفع
صباح
التما
حضرت
ووز
الموصى
##مى
الفنان
##فاح
دعواه
الصفار
رمض
فحكم
الردة
ضعيفة
##نتي
قومك
الباقون
ونهاية
الفلسفة
ببد
فسكت
##وحا
فحم
تصدر
للقرآن
أسعد
الفراغ
سماء
##خور
تدور
غسان
إسلامية
وقوم
ياسر
وأعلم
دب
صحابي
شيطان
##نهم
الهروي
المستخدم
قديمة
العجم
بتن
##الي،
لواء
##فز
المبالغة
تأمر
طائر
المستع
##فيدة
##مالك
الماضية
مكحول
حنظلة
العذر
##وائز
الروايتين
فسد
رأيتم
التفريق
فلت
وقا
لك،
##فصال
دورة
شهداء
الخاء
تدفع
الكفيل
##غلب
الموق
زع
الصلت
مليار
##ائه،
والسي
كقولك
ركع
الحكام
الفريقين
الداعي
أهلا
قدرت
عدن
##كا،
##ادهم
##حدر
يرم
##يرون
أبنا
نجاسة
توفير
وكس
وبت
النفسية
##سمه
أطاع
بالثمن
جسد
سريع
ونقله
فصارت
وكيل
فسقط
بعشرة
رحمته
شف
الاحتلال
والدارقطني
منسوب
يمسح
الآمر
وشك
البنات
لبث
ساهم
إقام
الجغرافي
المعاملة
حت
طلع
والحال
زائ
ستي
سببه
دمه
دني
##مات،
##شيع
مجه
##ابهة
الدقيقة
الرحمن،
خطوط
خديجة
توك
عابدين
محب
أخذوا
وعليها
صورته
الشمالي
اللباس
المسافة
عصره
العجب
والتف
وذا
##وثان
أمهات
التنزيل
##ميري
فقول
##مان،
معارض
##خالف
البدعة
إناء
الأسئلة
أرضه
وعل
##اهدوا
طبعة
تصريح
مؤقت
وقصد
##انيون
ووقف
وجملة
مستقل
يأتيه
البكر
ولست
مررت
مضط
الهندي
مكلف
وضعها
الاعتراف
والعقل
يحيي
الجرج
العلمانية
الانق
مستقبل
##لهة
إجارة
مذاهب
والأنثى
العلماء،
##ربها
يجيب
بهدف
يميز
فأتي
صفاته
##صات
الموسيقى
واو
الاستئ
يطعم
وبشر
المباشر
##ثوم
العسل
الخلاصة
التمثيل
##جوج
##حال
مثنى
وأولاد
مسل
قولين
يتعدى
والرك
##عمله
الجهني
عدوا
محي
همزة
العدم
لذلك،
##اهة
كج
والجز
بدنه
طعن
قطاع
متصل
التفكير
رف
الخبيث
غرفة
##لتي
الفضائل
##وقة
##رضى
الجنوبي
حمص
أعماله
تقتل
والأب
عشرون
واستقر
المجاورة
اللطيف
##ينت
بكونه
##سست
الشهداء
الخبز
هب
فاخت
الحشر
تصلح
بيعها
يزعمون
فيخرج
##طوا
السيارة
العليم
كأنهم
والنظر
ينتج
بجانب
##خيير
الكافرون
صفية
##ددة
وتعتبر
النساء،
الرعد
ازداد
يمنعه
يتصل
أوتي
إعداد
##يمته
##كة،
والحج
المشكلة
الفنون
##ؤس
لأس
الإنفاق
يشفع
الفكرة
العنك
سياسية
كيد
الشاب
سبعون
الحبيب
ومحل
شرطه
ونحوهما
بعثه
فوات
##ريقي
عنى
والحد
الليل،
تكرار
العمل،
الامير
ده
أصلح
الآتية
التنفيذ
الأديان
دعوت
المرأ
الأموي
غلاما
##مهوري
##طلبه
والحسين
للأب
فصلت
وأجيب
##ضمام
لتس
المتقدمين
##سلمي
فأصاب
للرجال
ويعمل
الوصل
الكيل
باطلة
غيري
##ها؛
بالياء
تجار
أوسع
##هره
وسقط
خاصا
الجنابة
قدرا
##وهوب
وأتى
جنسه
مفرد
الهول
مساعد
فجر
المرس
##فتاح
التأخير
فالق
ملكت
والمق
جف
##ياذ
دينكم
##يني،
غفور
##تيال
الأصوات
باليد
وإسناده
وقلة
شهرين
الأجنبي
مرة،
ذرة
فاعلم
رفاعة
الجا
بالضرورة
عنهم،
جرا
ظروف
ومل
##رادته
الحزن
موقوف
بكت
الحصين
الخزاعي
والملائكة
العراقية
قسمة
##وابا
تسمح
اثني
امتناع
سائل
##زدق
قصير
صبا
التحت
فليتأمل
وأك
##اهري
يرزق
رقيق
فأقول
المواقع
يهلك
حبا
سعى
الأخر
الأنثى
لور
سنا
البيت،
يحبه
تقرأ
الأخضر
سحنون
بيعة
الحلقة
العنكبوت
وصلاة
بسن
التض
##ذكرة
قالها
المكتوبة
الجنب
وقوعه
وكثر
لزوج
ازد
يصد
يمسك
وأخرى
مجالات
المقتول
طلقة
بالعين
الزاهد
ماك
##ريدة
مريض
المحكم
البخاري،
ناظر
القطب
نعبد
وبعضها
والرابع
وصنف
والاحت
##أسيس
بحم
##شوا
أقيمت
كفى
الدعم
الشراب
الدلائل
وتسمى
عسكرية
يستدل
المني
##جزات
وضعف
أخص
##مأن
##مكن
##رعان
ألحق
الموضوعات
العبا
مكتوب
الآية،
الحراني
ابا
حائ
هريرة،
العط
وبإ
رمضان،
لفر
الشح
إنجلترا
المسيحيين
##ثاء
دلائل
##قوال
المعم
الحقيقية
قوى
##افه
شعار
الدولة،
تعليل
##طيعوا
##كاثر
الأدوية
للإناث
ماج
تكلف
وتولى
المغربي
لفترة
##بنت
ومغني
تزل
امرؤ
أشخاص
وعباد
التركية
آداب
يدخلون
فسب
رسالته
مرزوق
يشق
واما
بصير
قلتم
الراش
علاء
بكلمة
وخبر
يبحث
الاغت
يستن
بعبد
كانون
الثلاثاء
##دلس
الفرنج
##ائنة
وبط
الأشج
الدكت
##لائي
فوز
الدعاة
يكشف
غصب
واح
وآخره
##انيه
أنيس
أمرك
الصلب
المنح
أسط
الأزرق
خا
كذاب
التخصيص
طار
يتابع
##نائها
##دارة
الصحابة،
الرمل
والعم
وخصوص
واليه
وأعمال
مشاركة
الشيوعي
والشمس
##ندس
والبي
##رسالة
نال
السكيت
##ستير
صالحة
حبة
ورف
التقرير
التحكم
##ارن
مستويات
شريكه
النفسي
اف
الشئ
فريد
النفل
##قافة
فرواه
أصبغ
العزة
للفق
مكانا
##سيما
كأنما
المخزومي
تعطي
يذ
بالبر
كذا،
يتصدق
##جراء
الأرحام
الإعلان
بخصوص
معينا
##راري
مركب
الخف
وتفسير
وادعى
الكاثوليكية
اجتهاد
المحار
وأور
النموذج
ودرس
صلب
ويف
##كنولوجيا
السابقين
##زها
الخا
اضطراب
محاسن
##كوم
لقمان
العبودية
##وضات
روحه
نظرة
نوم
##وسطة
التصديق
الطيور
##تموه
كالج
الثابتة
بالنار
والماء
المشك
##ناعي
البنت
تكر
شجاع
وفلان
معرفته
بالنصب
المادية
##كاة،
سوداء
السريع
حلول
##لكت
وسير
الموارد
الورق
##ليدي
الرافضة
لهؤلاء
بعقد
الكائنات
وبارك
##وون
ممارسة
التطور
بست
الاستعمال
مخافة
فلقد
وني
الأجنبية
فهرس
المتقين
وسعد
إشكال
##فر،
يرده
المعز
الأنف
اختلفا
تراجم
##لائكته
سوار
دامت
فيش
بنيت
ويعد
رءوس
الغرماء
##عال
معط
##حي،
استث
الجذ
أيهما
تحفة
الدائم
وشيخ
مدارس
مراتب
بأمره
اليق
والنهاية
أصناف
طن
والما
الغذاء
وأست
واقد
واجعل
اليابان
المقدسة
بإي
اجتمعت
بالبيع
##لات،
الشدة
طلاب
##زوا
يفسر
جعفر،
حدة
المسلحة
##واها
الملي
تضرب
معان
الإمكان
الزهر
##ائله
وجوبا
والتر
انضم
نصا
والسيا
نزيل
روينا
أرا
الكام
دعوته
العادل
##طرت
##اطئ
وتنا
المنصوص
والعبد
غيرك
عقود
ونست
تترك
المجيب
مشاهد
إمامه
##خيل
المركزية
تفض
وصلوا
الأبيات
جماع
وبنى
ويستحب
مؤمنين
ذب
الأقرب
شاهدا
سنت
مربع
ضربة
##بوط
والعياذ
كالس
والعشاء
والرد
قرينة
بزي
الذهاب
فيل
ينال
سيل
شئتم
إخوة
##لاغ
لسنة
خفت
عوامل
الشامل
##كاك
الليثي
أبدا،
المباراة
وخلال
##وانا
مقالة
ميزان
الإباحة
المتفق
نادى
تحويل
باعت
يقتضيه
الحداد
يفعلون
شاكر
يوق
تخل
تكرر
ودليل
##زموا
هلا
هداية
الكلام،
نيته
##حوالي
كثرت
لتش
##حته
المفس
مخطوط
دعي
مطالب
قسمين
يصر
أنظمة
الانتق
الجهر
ويقع
العبدي
مظاهر
وكنا
##بتك
دواء
رفي
البرامج
الحائض
كالتالي
السعدي
وجز
واستدل
التاسعة
بصحة
معاد
قدموا
واتخذ
سمعوا
أرواح
المقاومة
الجام
##معون
الساحل
قبور
##ولياء
والسلام،
متعلقة
جوانب
السرير
المجتهد
اتخذوا
ببيع
بالقدر
الإسكندرية
##طير
اللذين
جنود
وفع
قولنا
فدخلت
##غاثة
أعز
مواطن
##نائية
البسيط
شركات
ميمونة
وظاهره
##مئن
سيار
متح
تزويج
تخت
الصبيان
تكتب
سنده
بتك
ودر
##قوله
الآخرة،
واختاره
اختبار
بتقديم
وذو
##امية
واختلاف
##اجتهاد
##عنة
للتأ
جسده
العقائد
لفظا
الفص
فنس
فلين
بإس
وجعلت
إنني
بالكلية
##رائهم
##ويف
ونع
الهذلي
##دراك
تكونوا
##وني،
فارت
فقطع
##ذنوب
##واجد
تركته
أرم
يحول
بنصف
بخطه
لعموم
اصحاب
##يادي
هجوم
الفهر
##ياته
كتابي
يتح
أوص
يصب
المقط
الفلاسفة
الطائرة
الطفيل
خيل
ونقص
المخد
فأخبره
يساره
يؤتى
جيدا
##يرية
عندهما
##سا،
أنصار
يعتد
##يرو
##ائكم
هبيرة
وعظ
والعق
العاب
الإتيان
كله،
الركعتين
يسا
أغنية
هذ
الموجب
بجواز
متنوعة
يزوج
أعمى
والأولى
الشوك
الأسبوع
تذ
العماد
ببر
##ملكة
ومذهب
عبدالع
كيسان
وحده،
##خفضة
القصيدة
فسأ
##ظنه
الخطر
الأعلام
التاج
الممارس
الحبل
بالملك
##مده
مبنى
عثر
##اهيم
بالألف
إتمام
وانصرف
ولان
تقييد
##سرين
عاقبة
محالة
النعيم
##واحي
المبحث
والتاريخ
فيدخل
ورجال
بموت
فيلزم
والنفس
أسترال
فأمره
جوابا
الجوهر
الصناعة
ذلكم
المستخدمة
وبأ
أجنبي
##صق
ساحل
أنزلت
الشاذ
ثبتت
فيصل
العروض
الأمة،
وغيرها،
الحباب
رحمهما
والخبر
الغريب
الصيغة
يره
يتعلم
والجن
شرحبيل
إير
اطلع
الحكم،
متابعة
ببل
الحاس
قاط
التوجه
يصرح
قلبك
وهشام
القيامة،
مناسب
الجهمية
لجواز
ليم
##زعة
أحو
والمسلمين
صححه
سلا
وكف
تنازع
##بارته
##ريين
محطة
##ستي
بالذهب
معالم
الموحد
##زي،
بيدي
الاعمش
الشامي
النفط
المعاملات
الذاتي
خادم
سعي
لكونها
فصح
ويحت
##لتان
وبك
وآل
ويلزم
شواهد
فظهر
الشبكة
الحياء
مأمور
##سره
الأسلوب
جحد
الفزاري
دنانير
##ثوذك
المقالة
##ماته
مبار
طبي
مجازا
أساسي
غائب
زل
ومسا
##حرى
خرجه
الأدنى
ولح
##ارات
ممد
قاض
وابو
العداوة
وركب
وتعلم
بغض
مطلقة
##لفات
الحما
يجيز
صفته
والسن
للان
وفيهم
استشهد
أكد
يرتفع
مختصرا
أجره
ليال
باقية
##ورو
طلبت
أولم
التقييد
والعمرة
فمثلا
والقاضي
السرا
يعانون
هرب
متك
تفصي
فراس
والتعليم
والمل
الكلاب
##هارا
انش
نوعان
آلهة
الحلم
الكاملة
محرمة
##ميين
##فضيل
الديوان
بيل
المحق
إحصاء
##نوع
حوش
اللعب
تنفع
يسبب
كلثوم
##وراه
طعم
فاته
والانت
لمالك
والعلماء
##ذبون
آي
##قطعت
سلطة
المنظمات
مشقة
فذكرت
غيلان
بغداد،
السرية
المهد
##حبس
رائحة
يطول
الرسمي
الأربعاء
الملح
حقيقته
##كنون
مسلمين
ويحك
عرضه
ذرية
الجيل
الجامعات
يعبدون
عتاب
نطق
يفس
يعدل
##نوي
مسير
##قاليد
فمتى
دوري
وول
فجعلت
استعماله
بولاية
عماد
بتص
ديني
العساكر
فأد
محسن
زهرة
فظاهر
الفوا
حط
النبي،
يدرس
يتف
حبيبة
##رىء
الموقوف
يشار
##قاية
وصفت
حبل
##يريا
المغصوب
فتوى
##طيئة
الرطب
الإت
##لوى
التحالف
ووض
الفقر،
##بلوما
الخراس
أفكار
يخاطب
وشع
ريال
ومق
الاتجاه
يحيط
ثابتا
ينقسم
سيارة
##ذربي
##لافا
مجلسه
بقصد
فاضل
ضمرة
مترا
##نمية
جيل
وبو
##اري،
وقضى
وكفر
بتحقيق
فربما
##غوت
السارق
واجه
استمرار
يقومون
تري
طيبا
أويس
الوصا
النطق
##وائم
وتبعه
صيا
الحمى
المكتبة
ملائكة
ترجيح
فاعله
##وكس
سجن
المذكورين
بشهادة
العقلاء
##وجي
قراءته
نسلم
يحاول
جيدة
المكتب
طاق
التلاوة
والأص
تتميز
ويشترط
المعل
إيجاد
ذهبا
وحلف
الليالي
تدعى
فظن
عندكم
القاضى
##ذبين
بمش
لعلم
مطابق
زنى
وتمت
مراكز
الثمار
المشاهد
لحاجة
زرارة
شامل
##قولة
الزراعية
وشرب
منتخب
قبيصة
ذراعا
مهد
ونصب
فولدت
روايتان
انتقلت
بالاتفاق
جئ
##منوا
الطور
الورد
محتمل
الأرق
القطر
يدك
المؤيد
##مرا
تامة
فأنكر
يقتصر
تارك
الكرة
النتيجة
جناية
المنتخب
##اربه
وقوة
تشرين
##ذره
محذ
يعجز
التأكيد
والثوري
السيئات
بوجوب
وولى
##ادين
الثقافي
عرفا
عروبة
التنظيم
ووس
تدبير
اتهم
يؤيد
فجاءت
شريف
المتاع
البجلي
يلي،
المعالي
العاج
مشاكل
##واقع
الحظ
لأبيه
يحيى،
##قده
تصديق
العصبية
فثبت
العقار
يذكرون
المنافقون
فسوف
وأخبرني
مرفوع
أحضر
مضمون
الجدار
جو
انك
لدفع
مردود
أكن
الشبه
سبعا
##طوير
محظ
المطبوع
الحملة
##كونة
تقضي
قعد
الليبر
##غتسل
لغات
##ظى
الأفلام
الهيثمى
مشهورة
هوى
منيع
##منت
أسبوع
الكرماني
##عيته
قريشا
الحمصي
طاب
الاعتكاف
ينصر
دينية
سريج
فقير
باسمه
##ليو
النقي
تذكرة
##دران
فتت
أري
##صارهم
تغي
اعتما
ضعيفا
##واتها
عملها
الحنث
خلايا
##منه
ونسب
ينهى
##جدد
مصيبة
لتم
وجوبه
يقارب
باليمن
صه
الجيوش
فلس
لحظة
##اور
وعائشة
##حتين
يميل
المصباح
وإياك
حمر
فعرف
مقاومة
وأحكام
##جنب
يتوهم
الطين
##حض
أساليب
طبيب
أيما
الصريح
البدي
المؤسسة
##ردت
فقالا
فث
الدورة
##خوان
بملك
صدرت
والضمير
##ابها
منافع
لاختلاف
صادقا
آمين
الأعمى
اللاتي
الزرق
الإسماعي
يسمعون
حلالا
العطاء
العراق،
أعداد
جير
فيأتي
مناه
##ومين
##سير
سيئات
بعدد
الايمان
الناب
مرجع
##سله
الحيوية
الشخصيات
مريضا
المبسوط
استدلال
ارجع
تحريف
الذاتية
معالجة
غسله
وجزم
اجتمعوا
##وقية
تقولون
ترون
##وظ
ومنذ
الأمصار
التشريق
##ديقة
نهارا
آباء
وظائف
فهناك
وجودها
العضو
عبدان
##ديها
بذي
الديلم
الحياة،
ترق
نفا
التهاب
فانصرف
الضبي
زعيم
والتد
وجهك
الجوي
نسمع
##فيها
المبتدأ
السيئة
إيمانهم
##فته
الموصوف
جمرة
طور
استخلف
يغتسل
بشدة
التدريب
قوت
لمعنى
البلاغة
وحكي
ناص
##لامه
##لتا
ساعد
الباحثين
شارع
تعدادي
##يكاني
حائط
الثدي
طفل
القض
مشتركة
البطولة
بجمع
استيفاء
##شئ
الترب
الخندق
الطلبة
فيصح
##فرغ
توفيت
الدقيق
عزوجل
المباشرة
قادة
##انين
راحل
والقياس
مخالفا
وأثبت
فقات
الشافعي،
أصابت
،و
##شي،
بطون
والسجود
وليه
السعودي
يرق
وليت
وحماد
ندب
السلع
معارضة
الالتزام
##شتراك
ساكن
صريحا
##بتة
المجاهدين
بالسنة
المجلد
المتنا
الحصر
تطهر
النهائي
القود
خدمات
##فوع
الميقات
الإرث
وتسع
مطعم
بالعقد
مئ
ينص
وجعلنا
##صارا
التفت
المعتبر
ملم
متعم
اعتماد
الصحيح،
القومي
كائن
وأخيرا
تسليما
الموت،
##صيان
شريكة
السيارات
عبدالعزيز
شح
##مويل
منكرا
والثانى
وراءه
بالمت
ورئيس
الظنون
##وبري
حقائق
عصمة
واع
تبوك
للنا
التنمية
يليه
وثم
سخط
الميل
السيدة
##اخ
مليكة
تساوي
أراك
حزن
لأكثر
بمقدار
الحنبلي
أحفظ
##نته
توق
بالنبي
حصته
الإخوان
خبير
##عباد
تهي
قبوله
##جلا
البرم
الفكرية
الشريفة
فكم
البت
رؤيا
وأقل
مطلوب
الله؛
الدني
المصير
ونصر
أمرين
اعترف
بطلب
الأرج
الطبي
تستعمل
والأنصار
الشهوات
بحرف
يفرض
أوت
وتهذيب
لذكر
للحكم
قنا
##افى
وفضل
الوحيدة
فيأخذ
علموا
لاحظ
ياقوت
تقولوا
شاهين
فرسه
##يتي
يكف
وصرح
شعرا
ملايين
والمغ
بوصف
وورد
قتي
##لوت
محبو
بلغة
وترتفع
المدائ
فالمراد
غفلة
السوداء
الحرب،
العثور
##يقية
آتي
عدلا
تتع
انهم
##حاطة
وبالإ
استقبل
فشل
##شيري
##سقاء
للتح
وخالد
لكنهم
والذكر
شراب
يتجه
أظهرت
رخصة
##فيز
إلغاء
جلاله
##صالح
وماله
تنتهي
ذكرهم
##جران
وصفاته
رابعا
زائد
يعيشون
يضاف
وعبر
##قلاني
المقابل
اختلط
مساعدة
لضعف
رتب
##سال
المنهاج
وبقيت
المجنون
تعمد
والتم
غص
الحجم
والفضل
والأخرى
أفاد
الديمقراطي
أقرأ
محق
##شفة
بقايا
ذهاب
الكنائس
انتفاء
##فاضل
##يضاح
تعدي
مخاط
والأد
الغف
وسلامه
سط
والسب
يسأله
##نطن
##انم
اليونانية
الرغبة
يعمر
##زح
##خارى
بالذ
##انيات
بحسن
خفيف
ميثاق
##وطة
تلمي
وكن
غزة
##هيل
فالواجب
بقيمة
أقوام
ورغم
والنسائى
تفسد
الثمر
##وائج
مدع
المحفوظ
أرسله
##قدين
بعد،
المحرمات
تربية
المره
استخ
وسمي
الذمي
الإعراب
السرخ
##أب
اللعان
يأتون
ولمن
النباتات
يعظم
##وفة،
##حمده
##يقن
خفض
المنعم
تقرب
طرابلس
رضيت
العمري
##فيين
النفع
الأنظمة
الرومان
إبل
جبلة
أضل
مسعر
وسكن
تنتج
ففتح
أخته
وصارت
جوازه
متأخر
##ائيل
المتمر
البيعة
##وجة
يبني
##باشر
العاملين
نواحي
إمكانية
وأو
مقيم
مسلمون
##قذ
##رفون
##انا،
لأحدهما
حالهم
تشبيه
##راتب
##غلال
اثنا
الإجازة
الدرس
انخفاض
جاءوا
##لك،
فوقها
وضعفه
يعتقدون
قثنا
دنا
فاضلا
أعقاب
يومه
جين
##أمر
الغصب
بأعمال
فإننا
أعي
##زته
المجموعات
معاهدة
##معت
##ميزان
يعطيه
الأوراق
المحرر
فركب
مره
##ئاب
الساق
##امس
يباح
كتبهم
أسرار
ثلاثون
بقوم
أيام،
جدار
الإرهاب
الأصابع
##شات
شركاء
راهويه
موافق
والفعل
وثلاثون
الخفي
##وثيق
تأسست
أدركت
بالواو
والكا
غرم
وحل
##يرك
استقل
الأمل
الأمثال
أمك
بالنفس
صائ
مرب
موز
بتشديد
للإن
##راكي
ونشأ
فلل
القنا
سليمان،
واشنطن
يتطلب
المدى
وتعد
عظام
مبادئ
جاءكم
فغضب
##لاء،
##رائر
بضعة
يرمي
النصرانية
الجنيد
مبنية
للمر
الرسائل
##راتها
المخلص
أنب
للقاضي
الرقبة
تدريب
حاس
الغنائم
الأولية
والأحاديث
الدخان
الناسخ
جميعا،
الصنف
معاوية،
الحال،
الشمس،
والمشهور
##بيحة
تلزمه
المزي
وتاب
رحي
طلعت
نشأت
##سيك
بمق
الفرزدق
الامتناع
##جاة
أقدام
##قلد
رسائل
فجاز
الزوجية
بحلب
المولود
أدي
أتوا
##ماها
إننا
ملأ
يحسب
أبيها
بمنا
أوصاف
الثعل
الناتج
بولي
المعارض
تجربة
أعلاه
الشهوة
الجواهر
##يتك
معلم
سبل
تجر
ومأ
شطر
##اين
عثمان،
##وفاة
وطب
ألي
فأحسن
##اليين
الفتوح
ذؤ
وطائفة
مون
بالخير
أخيرا
وتقديم
##براطورية
سميع
وسكت
مرث
البدائع
الأبحاث
لذي
##عمون
ثماني
الرش
والباقي
البكاء
##خري
البتة
الرجل،
خرجنا
بحاجة
وتو
بحي
الفخر
حمير
##صان
معيلون
ورسوله،
وأل
يخلف
سلعة
أساسا
الصع
الصعيد
الريف
حلي
الذخيرة
فائ
بهاء
بعينها
دو
الأظهر
بقطع
نبأ
##الق
ويثبت
##وجبه
الرياضية
الصاب
ثيابه
##شان
وأفضل
الدرهم
##ديون
ونف
فتم
البابا
ليش
يمد
مذم
العمارة
##ؤمنون
السطح
وتشمل
##وطي
تكاد
اختص
النطاق
الاعتراض
وجابر
##هدم
ويلي
##ماثلة
بإع
##هورا
بالتأ
##فرون
الغم
##حاضة
للمؤ
لصحة
الكسب
فطلب
##اؤه
وجاءت
معتم
وأتم
اقترح
##يلة،
قصور
##ستانت
المشاكل
##قصة
رئاسة
فلسط
بيانا
يروا
تسعين
صعد
##لالات
الإمبراطور
كفي
والقيام
كلها،
أعرفه
##يفور
##وائر
أوق
عام،
السماء،
حادثة
يعقد
المفصل
اليسير
تساعد
روضة
يتي
##خى
ومصر
يستطيعون
تصيب
والقدر
السباع
ويريد
ذنبه
المنزلة
قبة
وحال
سره
حمى
##لاقة
المشارك
فالظاهر
والإحسان
الترجيح
##ونيا
الزاي
##اعا
وأثنى
أجود
العالمين،
أمراض
بعب
انتها
##قرر
بيتها
##بعها
صومه
والدعوة
خلاصة
ترجم
ادخل
##لاثة
الشيرازي
##وبرت
دال
مشغ
نظره
القربى
##صين
الحوار
##سيد
بحضرة
إيمانه
القناة
##رضاع
الملكة
منبه
القانونية
تلم
شبر
التدبير
##لاقي
##صيح
ممتنع
ينبت
وثق
بالمد
##حيف
الحمراء
عصبة
باخت
وغالبا
وجدوا
يخرجاه
والته
قضيت
القبيلة
احتجاج
سياسي
ريت
##فرع
الإذا
##ميات
قح
كالك
يجزئه
فليح
غال
يكمل
##ؤا
وتوجه
##انيها
##أر
##رياء
##ادتها
يطأ
بالسي
وألا
الوهم
##ثرا
##لطف
هنري
والكسائي
رؤيته
المعهد
يحقق
تركيب
ثمة
##لقوا
لعنة
إصابة
ووافقه
##يناهم
تقريب
قاعدا
مزد
##غنياء
اكتسب
القرنين
بعثت
خاض
يزداد
المحب
عملوا
الديون
كذبا
حزام
يفوت
للكتاب
العاشرة
تمثيل
والجهاد
رأسي
قوس
##مائهم
##طها
بالشرط
الضم
معتبر
أهدى
تلبس
##سنى
عذب
حيز
الأرثوذك
ينفي
وعدمه
شفع
##حظ
لمنع
نقصان
##رده
سماعه
الرجم
جنى
السلفي
التيار
الصعب
الطوائف
يخدم
الزور
بمنى
يبرأ
كافية
الإمارات
المسم
الأهداف
##سطنطينية
بالقتل
وذاك
المغازي
عازب
كراهية
بقضاء
المتعا
الأعشى
صنعاء
##خالفة
القائلين
الحنطة
جميعه
تناقض
##رويج
فقيها
الكسر
##فرج
أذان
كليب
يواجه
##طيفة
تيسر
لعلهم
القاب
والسم
شام
فكنت
للسي
الوزارة
الوسيلة
هير
##فره
البركة
المطاف
يضره
التسبيح
ينته
مشكل
ديم
ونهى
ثالثة
مبينا
خرق
الطاء
الفاسدة
الكشاف
المجلة
فحذف
بضرب
رياض
الأبصار
الجاهل
استي
والطبرانى
ورود
كذبه
العروس
ونفس
المتعد
وقعة
##رائها
خاد
تخاف
نظيره
الأغاني
المناه
فأتيت
ورجاله
موسي
فقبض
وبينهم
##لسنة
الداخلي
##لائه
العنصر
##ولوجي
مئات
عددهم
تعديل
مشارك
الشعور
وضبط
أخف
##جلى
بالمق
اق
اتصل
يزيد،
اتفاقية
علاقات
جميلة
بالذات
فاطر
يأكلون
##جبال
قدمناه
يدخله
أكلت
##وانب
عشرا
آكل
أحببت
تشار
الحضور
##ربون
وصالح
يخرجه
بينهما،
زنا
ساف
وأهم
مسهر
العاقلة
يكونون
فقيرا
##بلها
مناك
اللحي
الأسفل
سعر
##جمعة
وإقامة
##ذهيب
الأخفش
عليك،
وتخرج
أطيب
جيمس
هذان
الطويلة
وعده
للرسول
يطهر
الحوالة
تابعه
بالرج
##صرها
جزي
##حقه
أمامه
##داس
##وفه
رزقه
والور
قبلي
مفتاح
##بوق
المملوك
بالشيء
السوفيتي
بعلمه
الحج،
خزا
التوكيل
استقبال
تفس
##قيها
قبلة
ذري
والصفات
وجلس
زعموا
بذاته
##لتك
##مالا
الأجهزة
وينظر
دان
مثلي
الهندسة
بعرفة
إجابة
البند
الستر
مصح
القرآنية
الطائرات
بالخط
وأقول
أشعث
وأحيانا
##رورا
##ويز
للمح
وخصوصا
الخس
يناسب
الحذاء
##فاك
##كر،
وعدة
الخير،
لخبر
جح
التركيز
وقامت
قريظة
##ث،
الاخر
الأخوة
قرآ
##الس
العزم
للسيد
وأشد
البراز
سنه
اليمامة
آراء
كفرا
ويعتقد
وأخوه
الزهري،
##مسح
بصد
يرفعه
الملة
استخدمت
##بيس
المنورة
##خلوق
اجتها
والواجب
##تهم،
غرا
الكبد
وفس
التتار
بلاء
البراءة
شأنها
فعاد
الاستحقاق
سخر
غف
##بدوا
الاستخدام
##ولة،
القران
##ريابي
قاعد
##ووس
والمروة
وسوف
الحف
المحافظ
قرئ
الراية
حرفا
المكروه
النجاشي
وطئها
الأنباري
عرفوا
وثيقة
##رجاع
نهج
حاد
المرح
كخ
البنوك
العباسي
أحيا
الفرصة
##ليمي
ابتدأ
وكذب
وولده
والجملة
يستمر
أفسد
أجريت
##جة،
فاذا
الصحافة
اللاتينية
للدين
وكفى
إليهم،
أنف
خث
والستين
بصح
الصير
فكأنما
لؤ
رمز
البحر،
البنية
تسجيل
خالفه
نفوسهم
##فتي
أذهب
ويسلم
##وافقة
عكا
##ملا
بظ
الرومي
والشافع
مائتي
التركي
والرق
تفتح
الأوثان
الخادم
حوض
الحين
جاهلا
##غوط
طائرة
مقاب
الروي
والكل
الكع
الإثبات
ويشهد
الإنجيل
##هده
حوادث
##لازم
التعلم
ستكون
سجدة
وقلنا
عمرا
الصدور
فراغ
##دركه
التجاري
افتتاح
عث
يقينا
واضط
##ضرات
شذرات
العين،
استغفر
سيت
قويا
بجامع
أرك
جاك
زيت
العبر
اعترض
اشترك
الجزائري
برفع
القنوت
الزبير،
فقراء
##بذ
يعاقب
سبحانك
صاعا
فصا
##زاع
الداعية
نقلت
التحق
حظر
##ضائه
واث
حرملة
عاشوراء
ذلك؛
وترا
أذا
نصير
روبرت
المبتد
العبرة
بأربعة
يأمره
ضابط
فنون
##يرين
قاطع
الطيران
واستن
فأتوا
الأنث
لشخص
صوتا
##طون
##جيات
لاعب
باعتباره
برواية
##صده
##روى
وجعلوا
##شعر
##خام
للذكر
##حرق
##شروا
مستع
أفي
الجزري
يوح
##زيين
البيزن
##وجهة
الشرائع
يستقبل
الطعن
اصطلاح
غار
##جبة
فالك
المرور
##مأنينة
##هانة
افتتح
وتزوج
تعب
الطبع
أتاني
النجاح
##ووا
الآن،
مولانا
خلل
يجعلها
##كاس
عصب
الجنرال
أعناق
وأنس
##ذرهم
الحادثة
تأويله
##رائن
ضعيف،
لابنه
باح
##صوا
الجمعة،
نأخذ
تقام
زمزم
وعادة
المختصر
لليهود
أطلقت
فغير
أبغض
الخفين
ابيه
طمع
##بداع
##وعب
والإنسان
الساكن
##سيان
##ساوية
صلاتهم
أجمل
تابعي
جلو
الخول
مطار
بلادهم
ناسا
##روها
كالذي
##وع،
سنويا
والرب
أفلح
الحط
فروة
##جاني
المضارب
المقص
مصحف
الجمهوري
يستغفر
باعتبارها
رقاب
والعين
أيامه
المور
فإنهما
الزيارة
تاس
##وزة
النواب
لمست
لوحة
اسمع
##يدته
عجب
الميلادي
بوق
##دنا
الأيدي
انقضت
هجرة
الوظائف
أيمن
حكا
الدرر
ومط
الأشراف
فبينما
المرأة،
##حيته
##رنا
ألوان
وعلمه
سفره
مقيد
##سهولة
أئ
##واجا
اليسار
جميعهم
المصاحف
ألو
المشهود
قطب
مبالغة
##حاة
قطعه
##سرع
##زلي
يتحرك
قبح
##ئوا
بالأس
التمتع
لحد
منفردا
أضعف
قوام
وتقدير
واسط
النووية
النجاة
النصيحة
##ومة،
##فتهم
أسف
اللواء
المعتاد
زاده
تلزم
صناع
العام،
ساقط
##صام
##كيك
بأقل
أغني
بالإنجليزية
غزو
##بوين
##اهدا
عتقه
لزيد
##جر،
وحدات
الخنزير
رداء
##لافة
##ضرت
أستراليا
عجي
مهاجر
##ادرة
والعراق
فطلق
والفقه
حاملا
##ظمه
##شيته
##جزة
التعيين
أمروا
المدح
بئس
البوا
##ذهبي
فأخذه
يخرجون
حار
##يارا
تصرفه
هاء
الرحلة
راحلته
بفض
التأنيث
عودة
استولى
الإعادة
الطائر
نصاب
والهي
بعض،
ذكروه
الإسلامي،
للمناطق
الخلائق
اكتشف
السويد
المتولي
تأثر
الخشب
##قلها
تركوا
##باين
فأب
لزيادة
فأشار
الضيف
الأض
مقبرة
يجدون
##شفت
أير
الغذائية
الآلهة
وقتا
نكت
الراعي
الحالف
الخب
استحسان
الظهور
المخاطب
قربة
وفقه
وقات
عقدة
بغي
وكونه
##كرام
##راش
الصوف
##قلين
خطوة
المسب
بنفسها
إسرائيل،
ضلالة
وأث
مواقف
ناسيا
يجاب
الإرشاد
بمشي
##مرين
الطوسي
حضرة
التسعين
واضحا
خواص
تكبيرة
المعاصرة
المماليك
الحسنات
التمهيد
وجاز
البادية
وانته
الاسود
الابتد
حبه
##نابة
موث
##ريخ
نسبيا
##يلا
عقاب
##باج
شيوعا
تخص
قدرها
للدولة
كوكب
طوله
##وارزم
##رابحة
##ياج
فقضى
وشدة
فنف
##ماوي
##ديين
ويؤخذ
بالعدل
راية
حجارة
##نثى
قبيح
فاتبع
التغير
المحتمل
أنفه
العورة
يوما،
فدية
أصحابي
تقف
والتج
##فقود
قاس
المدبر
والأصح
ودون
وتكلم
البياض
ويطلق
والعالم
والصالح
ومك
اللحية
لتص
ووث
##ابرين
المسع
يتأتى
##شكيل
توص
وللح
أزواجه
بنص
عنصر
المشرو
أهون
تدر
تخفيف
ويؤيده
الإدراك
السرخسي
والقدرة
##رفية
المبر
حياتهم
التوكل
##اهرات
الأمطار
الأصم
صاعد
عورة
##ليفه
ثمنا
وأورد
الرو
##سيب
خلاد
بالأرض
قمي
##بعين
والأح
رؤساء
ظلمة
لجه
يتعا
توما
الرفعة
أيسر
خارجا
خلد
أصحابه،
بسكون
الصفوف
الحمر
المخاط
الحصار
##باته
الذئب
##بل،
##انك
استخدامها
لذة
##اهير
##حرمة
كندا
المسلسل
ولاء
حوشب
علمي
ظال
المصريين
وثالث
المعتق
يرجعون
ملاحظة
السيل
كتبها
والهند
عرشه
الألعاب
فأقر
أفض
مكانها
طبقا
##خلة
الآخرون
تدرك
##صراف
الشركاء
والطاعة
يخطئ
بمعناه
فراش
##صابات
نكل
والدم
لهب
وثنا
آر
ويصلي
الحصن
المحسنين
أسي
الاقتداء
##سلس
القاري
بالقياس
الخصائص
##وته،
خالد،
صاروا
الاختصاص
شعبية
أداة
الجرجاني
أخرجت
لحقوق
ذاه
التقسيم
بالسلام
أوحى
فؤاد
الظل
المساكين
التخفيف
نائم
نماذج
الكريم،
استحب
التجارب
لأصحابه
حاضرا
ردي
##ئ،
وأولى
كاليفور
للترجمة
والباقون
الأحم
لطيف
فوت
برز
الساج
الزينة
اللعبة
لجمع
إز
التربة
بالتس
##حيفة
وزين
السلطان،
طالب،
المكره
أملك
يملكون
##بعوث
##ذام
المقيم
المعدة
للشي
##دارات
ويترك
رهنا
##قاقه
لمش
الجريمة
صرفه
كوفي
الوعي
سمح
الأجانب
حمراء
##كرمه
##زاق
نجوم
لترك
##ذرون
##زعه
الأيسر
الفداء
##جعله
الجانبين
بالنص
المولد
رجوعه
يفسخ
##غف
##امنا
حقهم
توضع
الالف
عقلا
وكيلا
سيم
عروض
##بعا
الأضحية
وسأ
تجديد
منطق
تعي
أتينا
التحتية
الجبر
الاعلام
المقات
درهم،
فذاك
والصبر
وطا
الطاعات
والشام
بمست
آمنت
##واض
الجعفي
##وزي
بقرة
##دعية
فلانة
جوابه
##قلون
بأسا
نؤ
التصوف
وجمعه
راس
السميع
الطيبة
##امرة
فاسدا
لي،
للعم
لاعت
##يس،
##صحابة
الكهربائية
شعبة،
العامة،
تلقي
والولد
العو
وماذا
انتخابات
بلغنا
المقبري
منط
وليا
والثالثة
صندوق
ملحو
كاليفورنيا
وأمي
المشقة
أضعاف
وجهي
بالتص
##ئكم
##دان
##غسل
وطريق
الذم
قتادة،
##راعي
للأول
كأنك
أميرا
يكونا
##مدة
الدينار
تهدف
ميد
ويقرأ
المفتوحة
واز
ومغ
أشعر
روت
##راجه
بالهم
##لوث
الخصومة
لغت
وسوء
جها
##سوس
##ياف
القلب،
وكثيرا
بالكلام
يرجى
والحنابلة
الكرسي
أموالكم
الباهلي
بالنهار
إطلاقه
شهرة
وأخذت
##ساع
##وعيد
أقف
ملكها
مبد
##لاحقة
مهرجان
ويحب
صفا
الرجال،
##ثيرات
بلاده
##وائب
لصلاة
هواه
ينصب
فقدان
حمام
العنق
أسند
##بيثة
موارد
بالكفر
واعلموا
الربوبية
ذى
##تين،
ساحة
بالكامل
عصا
غليظ
بواجب
انعقد
ينس
لحيته
المساعدة
يوصي
أنشدني
ضا
تنقص
إحرامه
بنحوه
مصدرا
حاف
##وكي
الذل
ادعاه
تنفي
##ويلات
##ازم
الجماهير
##كلف
##هادات
##بسة
أخل
للمرة
##شح
المآ
جاءني
شعراء
ويأمر
أمت
الخيرات
غائبا
##صعة
##لوبا
متصلة
التنفس
أربعمائة
باللسان
شاك
والقط
بتقدير
الإسكندر
المناخ
للتن
##وهات
دفعت
والزبير
النقاش
ودار
وبأن
وحمزة
لعدة
##لسي
وأضاف
البغي
هزيمة
كبد
مجن
يخر
وقياس
##يلعي
بالجنة
ذاتها
الغار
الأصولي
زريع
ظلت
##ذرة
الهام
وعيد
إلزام
الموهوب
##باعا
الدن
##فارسية
للميت
عبدالملك
بيعا
بوج
التجربة
ميدان
##هدة
يلقي
الحوا
التخيير
وجعفر
##قاه
يمضي
وأربعة
الرشد
يسمعه
تعط
كبير،
نكاحها
السامع
##عدين
تمتلك
جاهل
إتلاف
لغرض
لأحمد
وداود
##رافات
ثقافة
يتوجه
فأخذت
ببينة
قادرة
الشبهات
ابنها
الذهن
##حوه
تقلي
الرضاعة
##ضين
لهو
السمك
ظننت
أرقم
##لته
ورده
الشفاء
المأخوذ
##تمرات
فالأول
مقات
ميناء
##حتهم
##رعها
العدوي
الفيل
طبيعي
تحفظ
بالنون
مختار
محدد
المميز
العباب
أهمها
الاستواء
##ئيات
##شئة
وعلوم
السمن
أصبت
المرفوع
##طفل
والتقوى
والتخ
نصي
فرك
##كاء
ولاه
يوهم
تعرضت
تسعى
إياهم
رع
امتداد
هامة
عجيب
التكرار
لائ
واستد
إحرام
رسله
وأصلح
##جي،
حيوة
أخبركم
خصال
##بوها
الفاك
##قدس
بوض
التواصل
تأك
رجعوا
##ساسية
الفني
كالق
الراشدين
##اتين
عادته
##لظ
وأخت
أتلف
برئ
التسوية
##ريث
النفس،
الديلمي
ببناء
والإنجيل
المحمد
التخلص
مشهد
##حرز
البحار
يراجع
النقاد
الإمارة
والصف
الإكراه
الشما
المجالس
المنق
المعتمر
جوار
مناقب
##واي
والمث
بإجماع
ويبلغ
والمدينة
نقاط
رقب
يستح
نسوة
بالتاء
الاث
بالمح
وأموالهم
الزكاة،
تتراوح
##صها
قولوا
الجارود
يقاتلون
اللؤلؤ
الإنجليزي
ويجمع
نزلوا
هناك،
اليونان
وعاش
قدما
ينو
يأمن
##تقض
شج
وكشف
لعبة
الجحيم
المسرح
جحش
تعري
المنتجات
الأسلمي
##ويين
يحبس
بلدان
أجزأه
زبيد
يشتمل
مستمر
اكتب
الصادر
##دره
##يسان
الظلام
أفاده
خلقنا
الخزرجي
خمسون
المطالب
##وثي
نفوذ
المأذون
متعمدا
الأمام
يقين
بينك
يفتقر
كك
بأخ
الأدبية
المرتد
الإسنوي
مدرك
دعت
الصاحب
الخياط
يتذكر
فير
الخلية
##صبغ
النخلة
##راسان
أذرع
التحلل
مغيرة
شوا
ويضع
وأخر
المزد
##فقين
مكانة
ويكفي
عاملا
لأسباب
بماله
لأنفسهم
الزاني
##طبيق
حركات
وقراءة
يحزن
غافر
قمة
مختص
معين،
امام
##هلها
الرمة
رابطة
قرض
الير
يستقيم
جائزا
والأخلاق
الكو
##داوي
اللفظة
الآفاق
المواقف
بعت
يتس
دراسته
الفاحشة
أحي
##باض
بعدها،
والحارث
واتفق
القيد
الجور
الرض
##فارة
أوقع
علام
برحم
الجميل
##رتين
##ؤوس
الأركان
##عيفة
لأخيه
تباع
##وران
المباني
##فسة
حسن،
##أني
##درج
كالخ
فهمه
ألك
حياتها
##قته
وكال
فها
ويعود
الزبيدي
تحية
يفقه
فتبين
ويحمل
والقضاء
اجتماعية
والدارمي
مراجعة
الانف
بالحكم
أدر
لموسى
بعدك
فأعطاه
تبعه
أختها
ونساء
سابع
لمصلحة
القرابة
المبرد
جسر
الدائرة
صعب
عرضة
طلاقا
فامتنع
طوائف
منتهى
يقود
الكري
والمعروف
وأولئك
##داول
تقسم
والبن
خطيب
ثمنها
جريمة
يحمد
ينج
والشعر
فلولا
##روان
لأني
اللوا
صفين
##ضياء
كيلو
##ظفر
الأذ
النائب
وسماه
بمقتضى
يمتلك
الأبناء
زلت
معهما
وجدته
البهائم
وقضية
##برع
وحذف
عبدك
الأكاديمية
بمحمد
أظلم
##لائم
دينك
اط
الشيط
ثابت،
بآية
اني
والكر
الخاتم
فجعله
##حلول
كفرهم
المرتبطة
تمتد
مود
##يدية
يفضي
العصمة
##ضون
رواد
اشتريت
عجبا
الكيميائية
المدائني
الإنصاف
لوس
نخل
باللفظ
البكت
وتخفيف
ورثته
تحوي
مستقر
السكري
ادعوا
القناع
السعيد
بقرب
انظروا
الأهواء
ملف
الأهل
الشديدة
حليف
رزين
وجوبها
بآخر
يوجه
قتيل
تفريق
فدفع
الأوصاف
الفريابي
فالش
دعاه
الأغنية
الجهم
ركوب
النهضة
البرا
بحيرة
البناني
زاوية
وقفا
مجيء
الطريق،
وره
اللاعب
لواحد
يضعف
العظمة
##عدهم
تنقل
##يدها
محدود
فابت
##همال
الواجبات
القاهرة،
ورحل
عكسه
وقيام
الرخصة
متط
والنون
راكبا
نفقته
أسباط
##ذربيجان
مثلما
عتيق
قوته
كوم
متصلا
وقرئ
وحك
يؤذي
يبغض
العزى
طبيعية
النبيذ
ينزع
فاختلف
أجمعوا
مظهر
وعليكم
نذير
يوقف
##غات
يؤاخذ
العقوبات
سبط
التردد
##وثة
القوس
يروه
نادر
ويونس
فأف
الموصي
يلبث
مرق
الفحل
وعليك
لطلب
وعلق
##سيمات
الغابة
وعشر
##واهم
فسألت
نسائه
إيقاع
ملتقى
مكرم
النفا
الكلاسي
##مدي
ضربا
##لبك
اتفقوا
أيمانكم
##جلال
ولسان
اشتراها
والمعرفة
أود
يسافر
قابلة
كوك
أحكامه
يجاوز
طلبة
ساء
قارب
بطول
بفر
##ومها
يهتم
دعاة
شفا
الصحيفة
تار
كرامة
##جني
الأتراك
موط
يحدد
الحكومات
عقبه
وطال
المطا
ارتد
##لوهية
أقبلت
الأمريك
يسوغ
سوي
بلدية
طين
يوضح
العافية
##وعظ
ينفعه
آبا
للبر
وبسبب
وفهم
تكذيب
##سكين
نصح
فحا
بالعربية
ويسأل
النابغة
للضرورة
يتضح
يلم
الصبا
الخطاب،
طلبا
خدا
حينها
##كارم
وخذ
بيمين
##وبى
فأجابه
الأطل
التوجيه
شهوة
الأطعمة
معز
طرفي
نكون
بالصواب
##ماج
الحبوب
الكاذ
نمط
فاتقوا
وخمسة
تعزيز
بعباد
##نسبة
بوت
زينة
المودع
وزنا
بصلاة
استش
أرادت
##غرافية
##وعها
قتلهم
التحفة
بسنة
وتحقيق
جبار
بخلق
حبسه
وعكرمة
##رابه
الجزم
وجرى
##جاجة
مسألت
تقوى
عبس
مرثد
السليم
وبدأت
##جازة
أضرب
الراكب
قيامه
الإنساني
موري
المفض
شهدوا
عطفا
مدي
الفدية
##اقات
أصبهان
للاحت
نسبته
نستطيع
فينظر
وبينها
أصابعه
##حلال
##غانستان
تمليك
بوي
وعاصم
أساء
بالقضاء
إيه
درو
أعوام
محارب
تنقسم
مشاهدة
لعذر
الاصح
الآراء
بحفظ
يرتبط
والبيان
محلها
الخطوط
ورسله
قلوبكم
ولاة
اللوح
عمال
يهب
للمفعول
الاتصالات
وقدرته
##يرت
المناسك
محدودة
##رافه
فبقي
شرقي
حيلة
فيرجع
##تقاء
باستثناء
حش
خراج
فتس
مجز
لحما
مثله،
الحرج
ورثة
ويمنع
##صفى
الانتهاء
تتطلب
لتت
##شهدوا
سابقة
الغيث
نفعا
الصنعاني
المقدار
ولين
يستر
سلب
##فاعي
المستقب
##ويح
ويبدو
البكري
##راما
التاجر
أنس،
معلق
الامة
اخر
##جاء
الهجري
مؤخرا
الظلمة
ووجهه
لتحديد
طرأ
قصي
مماثلة
استطعت
بقلبه
هيل
معص
يحمله
والآن
التصويت
أنزلنا
أستا
موك
وأثر
المجرد
إمارة
رغب
بريء
منقط
الدوام
بكى
مرتفع
ووفقا
احتمل
الشعر،
غيبة
المواطنين
ترم
الصينية
نعرفه
كأني
ألزم
##ءا
ولبس
صداق
والإس
مؤمنة
خوا
فوقف
عقيب
حان
هاد
الجوارح
يون
الشطر
الجود
فلان،
فلعل
نقلها
سألته
##ساة
الرقا
يتهم
اختلافا
عرفه
ألسن
ونسبه
يطع
عدوه
بيتك
ماه
الطف
فيمكن
الكوي
إطعام
طع
يدين
الحكماء
##مرقند
مقبو
يفارق
سنوات،
بأد
عشرات
دالة
##وانه
سنين،
نمر
الروسي
وتقع
##رادات
##دود
الرط
##سهيل
الحيرة
الصاغاني
لبي
الحث
أوراق
##يمة،
بحرية
المسعودي
والكافر
##قهم
ليصبح
وكله
إحداث
يجدوا
##شده
مساء
خطا
العزل
العارية
الرقي
##نفل
##ونسي
الظلمات
حرمه
ارتباط
جث
وذكرت
غلا
الملقب
مستشفى
مشروعية
شمل
لوج
ذكوان
خامس
والعلوم
الهوية
المجالات
يفتي
المغناط
التقديم
والسبب
أثار
بالمش
والفساد
وسميت
الفيء
الفاسق
الشيوعية
تميل
للأمة
الرجاء
التزم
خاصة،
سريعا
ضامن
أسل
عرفات
مولد
مخلص
هو،
وصرف
الباقية
شعائر
أنبي
مالية
طعامه
تقويم
تحريمه
فأم
فضحك
الأكس
##عدات
بالتشديد
لعباده
تخصص
الجزي
لزوجها
أنوا
بالعراق
تسي
##جدوا
الصائ
رسمية
لؤلؤ
وأذن
مستحب
ودخلت
قبله،
السلفية
استئناف
كين
القريبة
منظور
والتب
المدا
الحلول
غرس
##يجاب
##امة،
ينع
##واجهة
يضيع
السمعاني
قطن
مكن
ضمنه
وللأ
لسب
ينفرد
بالصبر
فأخرجه
الفراش
باه
##ها؟
بروت
أدوات
مرحبا
يديه،
تحا
المذ
وبنت
##طوي
##ضيات
نيو
##وفان
شؤون
لسن
بأخذ
##سرى
التصميم
معدلات
رضاه
متفرقة
##وري،
أكم
فحمد
لشدة
قريش،
النقود
جواد
سخ
ويمت
تنتقل
كوس
نسخت
مقالات
الاستغفار
##شفعة
عزله
يعز
الدراس
فالمعنى
تشريع
ويرفع
مسلسل
مغفرة
المكرمة
المجاهد
##شارد
عصى
يومنا
يسبح
يجهر
تقصير
##ماما
ويذهب
مسافر
الصفقة
مفتوح
تولوا
##ذرا
تجتمع
الحجرات
تبدو
الزين
المنهي
القصير
والوق
أغنى
فيد
الاخرى
وجعلها
وديعة
المشر
تستحق
السكوت
صهيب
ضيف
##اتيح
يقابل
##ابتداء
والشرب
يلتزم
أسوة
قف
##خلا
السيوف
مؤسس
وساق
فصول
فسم
فمه
نات
منهاج
التعليمية
شاركت
غادر
الاستثمار
##قبله
القشيري
تتنا
يصبر
أسلموا
المقاصد
التيم
##شيش
التقنية
مقسم
مسار
يزيل
##عهم
عري
##رضت
##ريكا
وهيب
##ومان
رواحة
الإسبانية
عشية
النقض
قلوبنا
الكي
سهما
الغلو
وليها
والفض
دفعها
لهي
حدثناه
فتب
سلمى
العزيز،
الحمض
صراع
أوج
الغفور
متفر
بقبض
طوا
##ظالم
الألوان
للخط
وبالجملة
يمتد
الفردية
دفعة
ويه
##رحه
بصحيح
تقييم
وقرىء
##دهن
للمتق
تكليف
##صبة
أمركم
تتغير
بصيرة
شعي
##قيس
تفضيل
##لحاد
##راب،
##جئ
المركب
معدان
كهي
والزكاة
وجوز
للتجارة
عقائد
منزلا
احدى
الكوفيين
##اتبه
كالز
الأقسام
ماتوا
واللغة
##وق،
فسره
الصهيوني
ردت
ضرار
قسط
والليث
##راسيل
##قيح
قدميه
واستع
البني
وظل
صبح
بصوت
بطنها
يقام
##آني
انعقاد
تحس
مستعم
تصغير
والشهادة
مفعولا
اللحياني
جماعات
والباء
المالي
وكلها
فيحتمل
الكسوف
برأسه
الأسرار
الانس
والخير
##ئذان
زماننا
المحرمة
نغ
الأوجه
##زاة
عرفنا
والباطل
بالدعاء
المستشفى
بقولهم
وسأله
الأنفس
##ضاة
أكابر
والكفر
جندي
مطا
مشتق
ضده
وأخذوا
وحسنه
##ففة
الابل
الحماية
المحص
استأذن
كتلة
كبرى
الأرضية
العشرين،
وصفة
باء
كيلومتر
بقى
##جاسة
تدعون
العاط
##قيموا
قرآنا
تحق
تنزيل
##تقان
المختص
العصبي
إرث
غرة
والمط
##وفاء
يدها
كلوا
المغفرة
الأصل،
المذكور،
ووجود
الضرير
الخيرية
الوالي
##احات
بحذف
مثلا،
##ستين
##ائية،
والدها
سوط
ميرا
النمط
لونه
والمجتمع
والحرام
وشعبة
توقع
يوفق
##فول
الأفق
بإطلاق
تطوع
كقولهم
الرباط
##وبته
رجح
القانوني
أزمة
الملأ
خالدين
الماشية
##هزاء
لدينا
بنك
الفائ
ويقت
لتك
صعوبة
خلو
أدركه
وثمانمائة
تصحيحه
بفعله
يتق
ابتغاء
##واحش
وأقره
خري
المبدأ
مرتبط
ثبوته
كابن
حقيقي
قان
مميز
##رابا
شيوخه
وقيد
طير
##ماثل
واتباع
أمريكية
##لاميذ
##رف،
##حيز
مجنون
ليخرج
نحوها
##مهم
وزر
يغضب
وأعطى
المفسرون
##روية
غيرها،
المضي
الفط
فليراجع
لذاته
حرق
فأص
غلبة
فذهبت
نداء
محج
##طفه
##بيرات
المستمر
ربو
وباط
وظهور
أحكم
أفعاله
يمارس
وإنك
الكربون
مكتوبة
##موت
##غلظ
ضخمة
المسن
##طيعة
##جازي
فينت
الإشكال
##رتبة
أخذنا
##فلحون
اقتصاد
الأغلب
مسعود،
##ؤك
القراض
##درالية
حوا
##داها
الزر
وصفا
رئيسية
ثقل
صبيا
بوش
باس
تزول
ترتبط
الهن
الخراساني
مبن
المظلوم
برأس
القلق
يشتغل
ولدي
دقائق
يسمون
تنكح
الثلاثين
معصوم
ندري
إياكم
التمويل
##قياد
استعداد
بالعيب
الشقيق
يلحقه
بامرأة
يعلق
عداوة
وخلع
عزي
لقال
الضعيفة
قرون
يوسف،
والعب
ونتيجة
عيبا
##صمة
فرسا
بعوض
بموته
تحسن
غنيا
للفقراء
والدر
الغرر
سقي
فيقع
بالقبض
الثم
##ساطة
المنص
##هادتهم
متحف
ردود
##طو
##ستون
تاريخية
نقدا
##نعت
##فلسفة
##لندي
العصا
التحول
حسنات
فورا
تعجب
##رونا
العنبري
بسهم
والسنة،
الشد
بدور
ويدعو
يهودية
كفه
الفرار
بقراءة
##فصلا
خديج
اشتغل
العاملة
بريد
قدوم
أرحم
أمرني
وفارق
فبعد
وتبين
والمك
المتوقع
والكذب
فوجدت
يبيت
الحواري
قولهما
ينشأ
تقنية
##راعى
موضوعة
##أته
بديل
مشابهة
سبا
تراجع
حسا
##والد
الذاكرة
الإنشاء
بشرا
القتلى
المستعان
المهت
الزخرف
بالتك
خلقكم
أنج
الخفيف
##قدت
إسماعيل،
##ولو
التفاعل
مطلقا،
القسامة
أقا
يتمتع
والبزار
والليلة
ببط
آمر
رت
للقضاء
خذوا
صغر
والأدب
ويقدم
##رعه
أمره،
إفريقيا
غياب
المرش
اقتضى
الحدا
تشاء
الماجشون
الاقتصار
##رفة،
يتأخر
ومثال
كالا
بطلاق
والآثار
##رك،
الدموية
والحيوان
وقط
لمجرد
حملا
السرعة
محافظ
والعامل
غربي
والإنس
##لقين
عبيد،
خشب
جليل
بدفع
حكمت
اكثر
المعدل
الخلق،
يرجو
##وفون
المسكين
المطلوبة
تبيع
ثمار
مصن
المدخل
المركزي
خضر
يبيعه
##رارية
الفضيلة
كسبت
قياما
الاكتفاء
##مادي
الواجبة
المنثور
فاسدة
أشهر،
تخالف
أخرجها
##يافة
يتب
صبرا
طريف
وملائكته
##جابي
##نائع
مقبولة
##حار
أبيك
بسببه
مخرمة
الحرك
يدخلها
فاسق
أميال
والهم
الميد
عملي
القبط
الآحاد
الكثرة
##يت،
أسير
##نيل
وعام
أثنى
##هر،
والأقرب
تسير
عبادته
كهرب
##سار
والأمير
اللبنانية
تواجه
الأوائل
ومعاوية
المبنى
مقبل
عقول
ببيان
ضمانه
الأصيل
رجل،
ورقاء
والاجتماعية
الجهود
والأعمال
##بطت
عائشة،
بالقلب
فروى
لأجله
أضر
ذل
قاضيا
استقلال
الغفاري
تخفي
المعنى،
نكرة
لازما
والأف
ديننا
البلخي
استغلال
##وءة
البرتغ
##انغ
بقتله
المعتصم
جعلته
وصفها
أوامر
جلي
لوجوب
لازمة
صحا
بإسلام
إلقاء
وحديثه
تختص
الحسيني
لدراسة
فمعناه
هنا،
يخف
التعزير
طهور
##درت
يجت
يتخ
يكفيه
تحالف
علمهم
الاحتياط
وشارك
والإجماع
الممثل
كاذبا
جود
##ائعة
ليوم
أجرى
موظ
##سيه
بدرهم
جانبه
والمساكين
حالها
##ارد
والبخارى
السلطنة
عالي
إنش
رود
يعاني
أجنبية
الشاط
المقالات
كاب
فيجعل
##نجاء
بلو
فولد
وأبوه
ورحمته
##تلوا
يشغل
الصاع
ويسن
ترتب
الروس
النقصان
##أى
يتمثل
يأخذون
الشمسية
استأ
##كيه
##كشاف
وفل
##سرة
تدمير
حاك
المبد
قميص
تضمنت
اعتمادا
نؤمن
يصعد
مهت
افعل
ونها
بعذاب
بأموال
عبارته
وفيات
أدع
الجرا
هلم
ستون
الألباب
حجرا
##غله
الجوانب
الغريم
ومسح
حريث
##دايا
بسهولة
عزة
##ضن
##انة،
المتق
أقوم
لامرأته
ثقيف
وموا
القارة
فأق
والاسم
الخلوة
بعتك
وخرجت
حماة
##ويب
##زلها
حده
رشيدي
مرتبطة
وقب
وأدخل
الجدل
تعم
سيطرة
مكسورة
بقين
الحرص
##زالي
سياس
العتي
##فعلت
المعاصر
الدخل
مخطط
موعد
والخص
يؤمنوا
مطابقته
الره
المعادن
بأنواع
الاستيعاب
المستن
والخوف
دفعا
اختياره
##جمي
نصفها
حلة
بالعكس
جماهير
الأديب
##حدد
حلم
الملابس
##خوة
بسوء
محامد
فقدت
أفواه
خطبته
النشر
العدول
##ئيل
كاست
سيفه
##انته
##سيح
##فعوا
والقب
القع
##جزه
ونظرا
فمنها
دجلة
المصلين
يمان
قطني
بالقوة
حذفت
##ضها
القديس
مراقبة
أبوك
براء
والمكان
الحاوي
وطلحة
##نيها
التهمة
##يسا
المضارع
منعت
المتعددة
عائذ
عارف
بعدة
شائع
الضرائب
حرص
يوحى
##وخي
الاستيلاء
أمكنه
يدفن
والواو
وبنات
أعبد
اليمن،
##يخ
##فيك
مقيما
وخطب
##جاهات
لاشت
الآلة
##متم
الصافات
التعرف
فبعض
مثلهم
بإمكان
عينها
أعمالكم
حلو
تنبت
حاجب
والطلاق
الجنان
##وايته
التقا
##اريا
حافظا
فيصلي
المتط
وكبر
تأت
##طلبات
##متك
فرسان
البالغة
##رعة
##فتان
الجرائم
ومقا
وباب
الاعتداء
البروتستانت
الجيد
الأصناف
##غراض
##بيوتر
ماض
##ساعة
المصلى
الميز
الأوط
انتشرت
استفهام
الاستقرار
فراشه
الاختلاط
وخلاصة
اخبرنا
أفلام
والحياة
##عاقب
الرابطة
وصحح
##ضلة
بالجز
مصرف
##وائح
بالفاء
تصوم
النهائية
أبين
العاصي
الهرم
اذ
ندم
##باقي
استطعتم
تحيض
مزي
##طي،
الضلالة
الديانة
##ابرة
بدله
##ساد
المند
حنطة
إزال
وكلمة
الغاف
##طاعت
قومهم
الفضيل
كوريا
##شور
فتاة
تعتد
الرسوم
ببلاد
بأول
حروب
أنزله
المشهد
والجمهور
وروينا
سادس
دن
كجزء
لبناء
النسيان
أكتب
فدا
شعري
##طرق
##فاعه
##زيارة
الخبرة
تدريج
دوام
الجسر
فقمت
بود
الحوت
##رسله
لمعرفة
مساف
لإس
بخل
الدرجات
سعادة
التعدي
إنجاز
الحسين،
الحذر
الكرامة
متلازمة
وعندي
نصفين
يوحنا
ظنا
سئ
##بخ
##باحث
خزانة
الشروع
والموت
اليومية
بالغة
ليالي
توصل
يشعرون
الشيعي
جهات
##عينه
التقليدي
فجل
اليسر
يمدح
اليأس
##سكي
##حرام
كانتا
مكاتب
تعبدون
مفسدة
أسوأ
والرحمة
استجابة
المعتقد
الجناح
وتقوم
قرطبة
##يتا
##زمي
الانصار
محاولات
بدخول
القدح
مولاهم
الدرع
عمود
قررت
هجرية
الهادئ
يأتين
مدبر
جاد
##يتاء
وروح
أره
غاف
لظهور
التناقض
اعمل
هزم
##هولة
التمسك
لمثل
##قييد
والترك
أضيف
واحدا،
بغية
الكبير،
غرف
##طاف
تهد
شهور
صحتها
مختلفة،
يلاحظ
الكوكب
زوجا
ونافع
منازلهم
نحوا
##ستان،
اللزوم
مخزوم
كتبا
يخلص
##ذق
##وجا
الغفلة
اللباب
وقدره
ونفي
بجه
نفيه
##يته،
والخلاف
البصريين
حقيقية
شاس
وبيت
العادات
اتفقا
وأمرهم
المتكلمين
طالبا
للشافعي
##وحش
العينين
فبينا
الكنز
طرفة
الزيلعي
عميرة
جهته
الهيكل
بخمسة
المنط
تجنب
الوصايا
العادية
##ذاكر
والمز
يديك
واذكر
غلبت
وهار
بدن
المغرب،
مبتد
##آه
قباء
المجرمين
ضرو
الصانع
مواز
تنعقد
الجنون
ويؤيد
بالرجل
الصيني
وماء
مولود
تصانيفه
رأسه،
جاره
الاشتغال
الاصطلاح
مهي
تكثر
تقم
ويسم
وتعرف
نافلة
خمرا
بذات
خشي
الأشعة
تبد
غش
أبحاث
حكام
بكرا
##دمة
يتحول
أشعار
الفتاة
بواحدة
روز
وضمن
العربي،
الإيطالية
وأشباه
باليمين
##دير
##يمه
الزن
الواسع
اليهود،
السني
##مارية
البخت
العيوب
المؤرخين
السلو
قولكم
تدريس
ظلال
آلات
أصحهما
اسحق
اخرى
الناقد
##لاتين
تفاوت
##ضايا
المستوط
##ذبهم
للوا
الذرية
الإيطالي
الآيتين
العيدين
اليماني
أفيد
النافع
سنته
الباجي
##ضحة
##در،
فتلك
ذؤيب
##حيه
للبخاري
الأغنياء
أساسية
##ييس
النفر
مقدما
المحظ
##عاد
بيوتهم
ناه
اللهو
المتأ
لزوجته
لاقت
##لواح
بولد
##باعد
آتا
والطب
موحدة
##فلت
##رضة
الباب،
##رتيب
##ماء،
مطالبة
كفره
يسألون
الخولاني
أعمل
الجرير
الأنشطة
ويليام
ونقول
للمتقين
فاه
##همان
بسيط
##لاعب
ساقه
ينفقون
والمي
للذ
لحمه
الأوامر
قلم
الجزر
سرعان
فالس
شكرا
الاحتفال
##برهان
حذا
معمر،
مطيع
مصل
القاص
ويغفر
##قرة
وقالا
الشعير
فعد
##نادق
باج
فمعنى
لشيخ
القطن
التعم
وأكرم
المحذوف
فلماذا
المفلس
الجح
ابتاع
بأداء
يحبون
الأستر
##ستهم
القير
فتقدم
أخضر
وإنها
##سة،
الأندلسي
باكستان
ضاق
الحز
يستحقه
مسلك
كونهم
أردنا
فليقل
لاحت
بصيرا
##امتناع
بالنية
أبصر
التهديد
قبلنا
سيرته
##لكات
يسرق
بوص
نيسابور
##وتين
والفتح
##ولف
أصر
الطحا
والرواية
توافق
وجواب
المصابين
التعديل
وارد
الاختبار
البطلان
سلمت
الزبيري
##ضائع
حائض
المان
أفرد
ولادة
##مائر
إجمالي
بوزن
##ضاها
تاما
المبادرة
الظفر
هلكت
الكاثوليك
##طاط
حسبما
للجميع
##يسية
الضب
شفاعة
عنهما،
الشؤون
المقدام
بآياتنا
الساحة
يجده
اتق
تركيز
بالقسط
المقدر
الضروري
فرقا
أستطيع
واشتغل
والبيع
ترتفع
الإيرانية
##شفيات
ما،
##خرون
بيئة
وكذا،
الصادقين
##قراء
أكلها
##قصان
قيصر
##وذا
وبخاصة
الملل
عددها
حلب،
خبز
صق
وترى
يعجب
المنهال
تدبر
فحدثني
صعيد
قذ
نر
##ليان
للما
للجمع
سلالة
##لفا
محرك
أزيد
أقدر
القمح
واليهود
تفقه
##ءوا
##رته
يتبعه
مارك
فبكى
الفرح
خالدا
يبط
الختان
فلابد
اغتسل
##ليقة
##لقاه
المخدرات
عظمة
##سمت
وسنن
كغ
اعتكاف
سرد
##شدد
فسألته
##كارا
صادقين
عظيم،
جوه
##درة
العميل
يتبعون
رآها
المعقود
أفصح
لال
مضاع
والنه
نيك
ويصل
بنفسه،
صوفي
ظه
بعرض
##ائيا
ببيت
اتخذت
انض
المصاب
توج
وتصرف
##سرا
وإعادة
بالاعت
الإمساك
وقتلوا
الحارث،
مزاحم
إتيان
##ازن
لبون
أتبع
البصري،
##وقات
ضررا
##ضارات
فحص
كاذب
رفيع
##سور
##خرية
##حوة
المتم
احتلال
واحتجوا
الهات
جلود
ممثل
ففر
وأولا
القميص
الخلو
##شارا
مكافحة
فرضه
ديفيد
##اتحة
للأطفال
طراز
كنيته
رواة
##فاعلات
داخلة
ديارهم
خاطب
##ادير
لاع
يده،
والأز
ذهبوا
التامة
والمذهب
##ولته
تخلو
البلاغ
فضربه
بالقيمة
العامري
##شيح
بأمور
النائم
هرمز
والفي
##ولان
النافلة
ولزم
أبطل
توقيع
سحب
الداء
أشجار
##ذبية
وفرض
وسجد
فعليك
الحرام،
ينشد
والعدل
عاليا
يرفض
بالعد
تتزوج
راكب
والخلف
سماها
حبيش
تضي
الضاد
##زاي
الروماني
كان،
أخشى
مبنيا
تلد
عاط
لأننا
الزنج
فرجعت
الظاهرية
مصير
مدني
مناة
الوسيط
صواب
##كها
والغنم
دستور
تقط
فأصبحت
رأسا
المساقاة
فكت
##طالة
فيبقى
وغسل
بحثه
رئيسي
الفضلاء
الخمسين
المدرس
##رونات
ومرا
خصي
جزاكم
##احبة
بدت
##طفان
كز
##ذنت
بينت
وأرج
##رضوا
الأحق
##جيز
جيشا
المعقول
##راجعه
حنيف
للدكتور
الرياء
النصراني
الأوكر
الذراع
ادعاء
فهنا
جراح
المجوس
##لسوف
التت
أثبته
للقيام
بينهم،
حائل
ممر
ظاهرها
السرور
لغتان
##ورون
##نفذ
##بابات
بوقت
فترات
وصله
##شاة
وسمى
يكر
المقيد
تنك
##وكول
ذنبا
فرص
البصرة،
موضعا
نائبا
صعصعة
يقعد
عرضها
للسنة
الطهور
##قوبة
تعجيل
جماعة،
للحاجة
##جرت
الصليب
الزا
الكفرة
مؤنة
فذ
##لقاب
يتغ
المتحف
لحسن
تحدد
##عدية
اللذان
وطول
التفاوت
المرتفع
أصدرت
والضحاك
نضرة
الفج
العقلي
بأسماء
مناد
اثنتي
عارفا
##بهم
الاستي
مبسوط
السهل
وجي
وإثبات
تفضل
وأمثاله
كريست
الخطة
للعامل
يبلغه
تيمم
والقاسم
للفن
ينكح
نسيت
والنصر
وباقي
السنية
شرعه
تعليقا
آدم،
شفعة
##عاذ
جدع
داف
الرفق
الاصحاب
وصحيح
آذان
الاستسقاء
وعليهم
ضخم
الواعظ
والخمس
الهدية
داعية
ولحم
##شراف
للبن
إبن
للحد
أعمار
فحل
القسطنطينية
النعل
استقرار
درست
الحكاية
خطط
الفيديو
وحمله
مؤرخ
الأمور،
ضاع
تجارية
بقت
##نساء
النضير
المحاكم
تحولت
فافت
##سو
الثانى
لمكان
يقدح
المنصب
الوثائق
كرام
ماد
الشهور
بدنة
واسطة
ذكرى
##هبان
##شاق
##هرت
##مرة،
البيئية
أقبح
التعظيم
خصمه
الأرش
الغروب
تحتمل
##طاة
كاس
والبغوي
الأمريكية،
والصوم
يخفف
وبالت
خالصة
لحظ
مطلب
لحن
واليا
والجرح
مؤسسات
يستقر
عفو
##صحابه
يبصر
تغطي
ويحكم
المتصل
صنيع
بالأصل
##ياسة
الطاعون
القدرية
##زج
الغلط
صحح
لفعل
اللغوية
يراها
ملكة
خفيفة
##وزارة
رهط
اخذ
تعجل
الوقود
مواليد
شميل
والكتابة
##معه
المثناة
حصار
##شيط
##نفقة
ملكية
عسكري
وقيس
الرجز
##وكالة
المشترى
دروس
منفصل
التاريخي
وسبعون
أكثرها
ويكتب
خالصا
خباب
فصلوا
أسرى
بارت
واقف
المواطن
وتركه
ثناء
أسم
يبنى
##طعم
إخواننا
رص
وهب،
ومخ
##جزأ
عقدت
يبن
منفصلة
معلقا
##معاء
شعوب
نجح
الألمان
الغين
ليقول
ضياء
مستن
##طفاء
##قوس
تعز
##خلل
يسلك
الكهرباء
موالي
التقصير
الدافع
حق،
الجميلة
الاستغ
الطيبات
بالدي
بالتي
بالكذب
حرث
أحواله
تكفير
يأتوا
فأعلم
الموظ
لقيه
يطل
المكس
يلو
بالقوي
لبد
العتيق
اشتراك
استثنى
مطبعة
الأست
الدبر
جنبه
##ويه،
بالعمرة
أهد
الفناء
##راتهم
شير
والصدقة
كالب
كمل
##يون
أثرا
بالنساء
المشكلات
بالقر
الزائدة
وقضي
يسيرة
ووكي
تتخذوا
مؤكدة
وعلما
##ندب
السكنى
وأكبر
تاء
يجهل
والترمذى
وصيته
والطحاوي
الإرسال
المقبرة
##يهم
فصاعدا
أراده
العقب
فباع
وتنت
بأنفسهم
واليد
وبسط
##نبوا
بمرض
شاعرا
لبر
الخواص
وعا
أخذته
ذيل
القل
الرغ
خليلا
##ويرية
كبيرة،
سينا
عابد
وإمام
المؤقت
الملتقى
التدخل
##طلعت
لعلاج
بالقراءة
خزاعة
الحليم
##سرون
لعمرو
الأعم
شيئين
رعا
التوسل
تنزي
##صيص
ارتكب
النجس
موه
الورع
الجماعة،
ولأنها
يقيد
تقلب
وصوله
ثلثه
الاعلى
الدكتوراه
أسئلة
علمتم
وزراء
ثامن
علاق
الخلل
أسهل
سموا
التجمع
حرام،
المسؤول
التوفي
أشك
##ذهان
أشراف
جهم
والمه
بائ
##يج
الإحص
يقرر
الإدارية
ووجوب
ونش
وبالر
المراجع
الفيزي
المنتج
فون
يقات
وتل
الأوقاف
بلسانه
راء
##سعى
##رائق
مسكينا
الثمانية
فتا
##لمانية
يستجيب
حجه
عمدة
ألست
مساكن
أنبياء
قالوه
تموز
##ألتين
صاحبي
الاطلاع
##نادا
وانتهى
لحماية
والبل
جبير،
السعر
الإجمالي
زد
غريبة
أخبرت
تعدى
العظيم،
##زات
الأجير
فسدت
صدورهم
أكبر،
القادة
الصخرة
الدنانير
والشراء
الصناعات
الجعل
يتحمل
يزاد
الإلكترونية
خبيث
أرجح
كالغ
تلفت
وظلم
للبيع
##قل،
##حميد
وقاله
الأل
للمؤمن
تتحدث
والفا
بالانت
وكلم
تقليل
##أيها
المثبت
الفاط
والآية
تحريك
جازت
المحلى
يرجح
##كلها
والموا
##خلال
حديثة
أباح
تشتمل
##خلي
##راوي
ليبيا
عامين
زمعة
ترضى
ساجدا
ومعظم
حلفت
رقبته
التخطيط
فالتفت
والاه
يسوع
المقابلة
المفيد
استعم
والواقع
الراحة
التعلق
لؤي
حاطب
فأمسك
استيقظ
ليف
المشاريع
سيئ
##وريوس
شخصيات
خزائن
وكسرها
##اتا
محلا
أبطال
بحا
للحاكم
انتظر
يضحك
مضافا
مقطوع
يشاهد
بالمغرب
زراعة
##وها،
وأض
فتوضأ
يطلقها
غام
بالشفعة
الكنى
راحة
##نافس
فتأ
##الون
البركات
##حالة
القوية
لحصول
عالمية
##جدة
الميثاق
تغني
الماس
القربة
والتمر
اشته
والضرب
فرائض
عقده
الانتخاب
الحربية
طالت
فلب
##غرة
والريا
صخرة
المستعم
##صيله
والزهري
الباقين
##مائم
رياح
التست
الآلاف
والقوة
لإي
حفل
الحيل
التوسع
جمعها
الإجراءات
واعتبر
استجاب
تأثيرا
الاستمرار
موضعها
توماس
إمامة
لقتال
فيض
المكنون
نصارى
والقتل
الأخطاء
الخرقي
##خاوي
صريحة
##زمت
الأسماك
أولا،
##شوف
فاعلا
الأموات
نصلي
##عجل
القزو
بالتن
الإيلاء
العاقبة
بطرس
فزعم
المشروط
الركب
والحساب
أعتقه
بسيطة
يشد
##بهات
مازن
الحديثين
الإجمال
يخالفه
يار
يقاس
أحدنا
الأحنف
الساع
ويبين
جرائم
الزاد
شريكا
احفظ
المحققين
شوبري
الظواهر
إخراجه
##بوأ
سرح
والخروج
فجعلوا
رواها
يحس
زمانا
الملو
فأش
للحياة
فأخبرته
إضافية
ثلاثتهم
الجوامع
جاءك
طبيع
المزع
المترجم
نصابا
العصر،
يضمنه
##وحد
للأمر
وأقرب
الفكري
أمم
##ريبية
##جيال
ركعتي
والياء
##ماش
##ضاوي
##ذكور
##قدا
لنقل
اليتامى
الأمهات
معاص
بكاء
ولبن
ملابس
يوص
تنص
وشرحه
بناه
جودة
##برس
الصار
##وبين
بالزنا
بينته
مقعد
المخبر
عادل
فمكث
بشرح
##قابلة
الاضطراب
الإحياء
##لئ
وأخبار
تهم
والأوزاعي
الضفة
أيوب،
المراه
التكاليف
الرياضيات
غناء
سبقه
الشوكاني
لحفظ
طرفه
##شر،
##سبين
بلالا
التوقف
##رتم
الاستمتاع
##يف،
مملك
جلوس
قانع
يفع
فهلا
ارتفعت
المحتار
مناقشة
أضع
##وايا
لأمه
هادي
سهام
القعن
وقرأت
بالنا
الاشتراكي
صير
حاولت
لاحد
طلاقها
أدم
والبحث
##ضيه
بالتوبة
عناية
مائتين
وبحث
##قاض
##طاس
القطعة
بقراء
تشعر
##جتهم
تركة
الكذاب
##قتان
أهله،
المخطط
حتي
أحسب
##ورا،
##لحة،
ولحق
بتم
دافع
أصابته
تعاون
نقط
##راهين
البصير
زكاته
صيغ
##لاطين
بمحذوف
بالخروج
وحاشية
ملاحظ
أفغانستان
كولوم
##جرا
يعلمها
والخطيب
حفي
مشر
أودع
طائرات
وألحق
##جهيز
عيسى،
قلي
لمت
أجبر
ملء
أحوالهم
سفن
##ديقه
أسمائه
فجاءه
للجد
والشراب
الجودة
مركبة
للانت
##همات
بالغا
بدرجة
وصاح
السبعين
لإنتاج
##وقها
نزار
##أمله
يوصل
وغيرهما،
المزارع
الرأسم
ويصير
ضبطه
##وكيد
فالأولى
حديقة
صيدا
همد
بهيمة
بلغوا
الحلفاء
##كسه
الدعا
بهز
توضيح
عصام
كراء
##يلي
الشهيرة
الحرس
حلية
صفقة
يود
واشتد
تشارلز
##اليه
بعيرا
##رائد
بولندا
بأيديهم
المراكز
الوظيفة
##لحاق
##كرت
المعارك
أدخلت
والفس
المرهون
لعمل
مباد
##خذا
وقفه
بغيرها
جاب
##غيان
##شاش
يأتيهم
##وزون
السلطانية
##طلاقا
وترج
ونائ
ولإ
ءامن
المخصوص
##دينا
يشكر
لإعادة
باختصار
المستشر
الآلات
وحفص
بحار
ارتكاب
وجزا
تفاصيل
وقصر
فزاد
النيابة
##ابيح
إسلامي
##نازير
أحس
بشروط
##رامية
والأحكام
##هون
الخيال
لنفسك
أبويه
قدس
والمخ
وانتقل
وفساد
وبلاد
المنير
##مهرة
فأدخل
اسكت
اليابانية
##دمات
##بيته
الرحل
تأي
واستمرت
زوجتك
عشرة،
ويدفع
##طراف
سكوت
أقت
##صته
فيحرم
أخيك
مشاريع
مصري
مجلدات
والملا
ثقيل
##طمأن
تبني
كالبيع
لمنا
المصيبة
بالغيب
##ماط
##يداع
##رداد
استخدامه
يخافون
مجمل
يسهل
حال،
بأف
القرآني
أدعو
مشددة
أتاك
تبرع
أنفع
الحادية
جبهة
ويفعل
ويقتل
##ليفة،
وكمال
بلق
الطراز
الانقطاع
البحري
يربط
وهارون
الأشكال
الفرسان
طاووس
بالرد
يجوز،
يطلبون
##لافه
مجي
والظلم
فيرد
عدنان
تخلي
واللسان
الإنجليز
##سملة
مثالا
إرشاد
##خس
يعا
##بينات
والصح
والشافعية
بتف
أصابهم
مستأن
تخبر
يونس،
هني
شكا
عقدا
باستمرار
بالدخول
الناتجة
والكثير
صلاتي
فيقوم
##تيش
ارفع
وقرب
##ويش
ذكرهما
المناوي
انتخاب
والمرسل
وبع
انتشر
تعلموا
##يتون
بأربع
المضادة
الحديدية
ويوسف
التعبد
التقويم
السفلى
##هم؛
يجزي
محرز
الارتفاع
التبع
بالدم
وأدى
للوصول
بجوار
التحذير
##متنع
وشد
الصناعي
##غيبة
##رامات
##طاكية
لدلالة
المقرر
والشرط
بالتق
إلحاق
فشهد
يأخذها
القاهر
مسقط
دقة
##ذيرا
أدخله
الدم،
الوجيز
اللقب
ولج
القتيل
منصور،
الروم،
القصور
##روسيا
وهبت
بهرام
##لفها
##كروه
تسليمه
فداء
بخر
أوصي
الجائزة
لدعم
فعمل
فلعله
السماح
إخوانه
تقدمه
برس
##مائي
فأحب
وغر
مدريد
##فوظة
لتصبح
بالأولى
الحافظ،
حصوله
ينتمي
طاهرا
المائية
سواها
فنادى
تهديد
##بش
##ونه،
الأذكار
غريبا
السواك
كيلا
الرئا
##ئتين،
البلدية
##يبات
تعليقه
أحاط
العاد
ورزق
فكبر
واليمين
يمكنها
وأمها
##ودان
إر
بمساعدة
تجده
صيانة
تنسب
الصائغ
المادي
والروم
##سامح
ركبتيه
فقولوا
##طاول
الكوفة،
وافقه
بعشر
واستخدام
القاضي،
كأبي
الكات
##قدان
نجران
منطلق
الدعوات
سبرة
فانته
غداة
السبق
مسد
محكم
وكيفية
وجمعها
نيسان
الاغ
ثناؤه
الفردوس
##قدمه
##اصلة
تطوعا
العسقلاني
##متنا
مروا
مقاصد
وأجر
وتلا
يخطر
شعور
الظالمون
##زعا
##ائره
العدوان
##ستا
الرضى
الغداة
##قصاء
أسابيع
الزوجات
يوقع
وربك
الهامة
بإعادة
##فيته
الذب
أولو
الرحال
أحوج
أكثر،
محبته
الحارثي
##اعرة
يغيب
يجعلون
راجعا
والليل
القفال
يقلب
المجته
القصيرة
الأقارب
مناسك
الطال
الجاهلية،
الإلهي
كميات
الجوار
شعير
وعدا
موتها
ألح
أند
الوحش
عطا
مالها
أصحابها
المازني
##رسلت
انتظار
##جله
طولا
الرصاص
علوا
الشوارع
##سيق
التنفي
ومقت
التخصص
تكفي
يعذر
الغابات
قتلا
##مداد
يريده
##رقه
المقابر
وضو
وشق
درب
السقوط
الاخبار
اقتضاه
الإخراج
##ابس
الغفار
ليؤ
للحكومة
لماذا؟
يركع
الوليد،
مظنة
وقومه
بينهن
رحيما
الصيرفي
وأصلها
قاف
نفسها،
وطعام
##هلة
بنقل
العبارات
##مانه
العدوى
##صميم
أتباعه
بالأول
شجا
##حرية
والآداب
النظرة
مأمون
بسلام
ثمامة
خن
الأثرية
وسألت
يشركون
والصالحين
##ثوا
##ارئ
ولادته
وعشرة
المركبات
والذى
##حيين
مجا
الخبر،
الشافعى
أكسيد
الجمرة
##احظ
والأئمة
##هاره
معتب
مختلفين
يشر
افتت
مارت
ضروري
##مئ
والأكثر
فيب
##ميزا
بالتخفيف
الادب
عهدا
وقي
فللم
والقلب
عربيا
للفر
ثنائي
بكفر
خلفهم
ورضي
لانتفاء
القعود
شيبة،
مقدرة
بشراء
##اربها
فيقت
والزيادة
يعرفها
طالما
ألقي
تظن
المذكر
الثبات
آياتنا
فعم
ولانه
الأزمة
خفية
مبيع
الأساليب
للعلماء
المنتقى
وحبس
يستفيد
##واترة
##وفيت
##لغاء
الشاه
وأنواع
##رتهم
مرآة
يعترف
الديلمى
النسل
حمض
التوحيد،
الصباغ
وسيد
أله
رؤبة
المراحل
القزاز
القدماء
شمالا
تقيم
مؤخر
تول
أيديكم
وضح
والضياء
خطوات
يتخلف
التكفير
وحكمه
دابته
فشرب
جبه
المحض
منج
##بلدة
وسد
نصرة
فتحها
آدمي
##صلها
التفرق
صبيح
رواته
قصدا
المفروضة
محدثا
يدركه
صائما
نسا
الأعا
ونحوهم
الانتصار
##قاليم
وذكروا
يفرغ
##جبني
##فلح
##موه
وخاف
##ائي،
مصلح
النهى
الأبرار
ناقص
خلدون
عشير
##طيء
رآني
وأعلن
تسكن
ويحصل
ينح
##طروا
المستعير
صاحبكم
للدلالة
بمعروف
بندار
##بهت
رقيقا
##ياك
قطعها
عذرا
##وهما
نواه
الإمام،
الخضراء
فزع
##أنا
يعقلون
اذكر
قاعة
للفت
##فاذ
وإظهار
##قره
تكشف
كسبه
الأثرم
للكافرين
لامرأة
بسبع
جهالة
التفضيل
رين
وأني
##وانع
تنقضي
يغت
نفخ
القادمة
الجهالة
الجري
فلأنه
جمعوا
نزلنا
ظلمات
وتفقه
يرف
واستغفر
مفيد
والراء
للنفس
##جتماع
عضد
فلهم
##نكم
##تمن
أجلها
الأقر
مجته
معجزة
الفؤاد
المنتهى
متهم
رأسك
بحوالي
جوائز
كغيره
كالث
المفتوح
تفرض
##ائلته
لكثير
لعد
التونسي
القرعة
الاستفادة
صباحا
دعائه
أوح
##بدة
وعاء
يخضع
بالبينة
الرقاب
وكلهم
ومفهوم
مأمو
السكينة
خلافته
المخر
وجهه،
حاضت
وسبق
##ضارة
الاستجابة
البينات
خيره
أينما
يتقرب
امرأتي
##وبيخ
الزاوية
يوفر
ضخ
المكا
المكتوب
فادع
فلينظر
##حدا
بالمست
الهزيمة
ويتبع
مايكل
كوا
خلقها
وعبادة
الموضعين
##عتان
تشغيل
الجمحي
الفقرة
خليج
سقف
ينتقض
الضأن
عسر
لعائشة
الشأم
بالمسجد
هوازن
##غرس
##اليا
القبيح
النقاط
جراء
والقبول
##وايات
تفعلوا
مملوكا
ثنتين
مصدق
##جارات
مماليك
الحش
شملت
نخلة
عاقلا
البعثة
فاء
وفسر
##مش
##سما
##خيم
للمص
فأطلق
والألف
وعض
تشخيص
ضمنها
ريتشارد
الرعب
تنتشر
بأكم
محبوب
معايير
يعلموا
ووقت
بشي
يعجل
الضحايا
الحذف
هشام،
نزوله
##ضبط
وأصح
باعها
راجعون
مكارم
وظهرت
تتجاوز
يدفعه
التراويح
جوي
الدس
المهي
التعب
عداه
مخير
هرقل
نوره
أظنه
ويقدر
بمد
كتابته
بنفي
وهدى
لدرجة
أولادهم
والقسم
يوميا
والشعير
جلدة
فيلزمه
سراج
القليلة
تتكلم
بدمشق،
##ذوا
المملو
مندوب
خوارزم
ويقيم
الفلاني
الندب
والبقر
للعالمين
##غيت
خالص
##ظير
اللقطة
الاشتراكية
مكا
##سسات
##كوا
فيق
يسمونه
جهر
صعود
##ناعه
وأدرك
المعطوف
##بينه
النهار،
سالما
ونز
المعبود
الخالص
هديه
##وود
المجادلة
إعراب
فبد
الصم
الكبري
واذا
##قدوا
نعمه
يتعامل
الأدوات
الفيروس
##عيات
السختي
الدنمارك
الفخذ
مات،
مباحا
وطاعة
##لمانيا
##ابرات
الاثير
التحديد
مفردا
المهنية
ونق
اقتراح
##وفين
السابق،
التمليك
أحاديثه
ونح
مكتوم
الإث
حسنه
ميلاد
##وحدة
المشيئة
الشائع
الاق
##اريو
النوافل
صوابه
البسط
الركوب
تجزئ
المصائب
يصلوا
وكتبه
المعهود
جشم
يملأ
والفاء
أحسنت
مناهج
وأجل
أرت
التأليف
##اهي
ياسين
تأمين
شاءت
المعالجة
أصبحوا
نخرج
##اناة
كردي
الذال
ويكنى
الثبوت
##ماعه
بقيد
وحكاه
وضا
الهما
أوحي
##هاه
##اتمة
أشكل
ومعاذ
سيتم
##ضرع
تنفذ
##مساك
##ناه،
العائد
الجراحة
للأع
الخانية
الزنى
والمالك
فمثل
أذنت
عقولهم
الخيانة
وزوجته
العيني
بعثني
الانتشار
الغربية،
نادرا
##هلا
إلياس
لقومه
سرقة
سهوا
واشتهر
الفلسطينيين
##كهة
##لوبه
##ويته
معتمر
دفاع
##ضره
عنبسة
الإزار
المنية
تقال
##طر،
والصيام
مركزا
##حدون
نبو
مفيدة
العابد
المبكرة
##ويله
بخي
عقيد
أعلمه
##امها
ومنت
مجالد
لحقه
صحبته
البير
لكانت
داخلا
الإسماعيلي
الراحم
أهلية
##ضطرب
مشيخة
معجمه
الواهب
المرزب
وستون
وأفتى
##الية،
والروح
بعمر
تتمة
المخطوطات
ومآ
المصي
يصعب
تبكي
يحاسب
المضمون
حربي
سورية
متكلم
المدير
وغلب
لاستخدام
النحاة
لقضاء
شارح
بعثة
الخبير
جزاك
دخولها
دائمة
نبيهم
وأيام
ونظم
تقارير
ربعي
ميقات
بوجهه
رؤوسهم
##ربعين
الاستبراء
جاءنا
زنج
يأثم
الموسيقية
وبشكل
وحقيقة
مجاهد،
تلعب
فكلما
درع
##شرهم
باتجاه
بصفات
تركي
والبيت
الغبار
مسكن
أهواء
اين
تلي
منبر
##لاتها
للمجتمع
العقد،
أطال
الأرمن
ووجدت
فارج
##طعات
##جهول
بواحد
بذاك
اعتقال
الكتلة
وزيرا
العظ
فأعرض
##شخاص
##صفور
يؤم
والعقاب
ورعا
مولاي
أقطع
فوصل
##مروا
والنخ
رسمي
الاستئناف
المعظم
بالعقل
تعيينه
منخفضة
السرطان
قيرا
فيهم،
شيط
نهيت
كشفت
بإنشاء
بدءا
جيوش
فام
##اف،
يعالج
بالأمس
الكرخي
استر
حجج
توبته
إكمال
حلا
وعالم
اختصار
تلحق
طرفا
وسهل
لقلة
فاش
بابها
للأرض
تفضي
إدوارد
##ومون
ماله،
##واله
ملكهم
يحتاجون
والعبادة
ثمود
كالد
القاسم،
مضل
##وخة
وأسباب
فأجاز
مؤلفات
وذات
فهى
الزيتون
تبعد
زه
ستا
معق
للسلطان
للجيش
يشهدون
متقدم
##وفهم
بأجرة
الفهرسة
وود
##عدة،
الدولا
وأتباع
الفجر،
واستدلوا
##طيب
سلمنا
الجندي
تطورت
التقارير
الغلاف
تخضع
##مار،
استقام
بمنع
تسميته
هولندا
أرفع
##راقة
الإبراء
حدد
محس
المفروض
وتحمل
يحملون
الواسعة
التصور
النسك
##رائية
للحرب
الكرب
لربه
وتمكن
رطب
##زني
وسألته
بتد
يقتلون
عاهد
##لاتهم
المزارعة
##طول
وخمسون
تلخيص
المرافق
مسرحية
وأعت
##عيض
الندى
اتباعه
محيي
القرم
مالكه
بالمسلمين
##ائس
تزعم
والضلال
المرق
بالباء
فاكت
وأعطاه
##زقه
فأوحى
السينما
خدمته
مرضى
الثقيلة
##رزاق
المبارك،
رمل
الذرة
##دينة،
يحكي
إلي،
المعرض
أجور
الخيط
##نتاج
صحف
وخدم
الأسب
الخلط
##واء،
مغا
تؤكد
مذهبهم
داعي
ءامنوا
يور
التين
مفتي
الائت
الأنام
تنكر
والدنيا
مرات،
الطاغوت
الول
##بياء،
مشهورا
##باعية
القعنبي
أفس
بحثا
يختلفون
المسماة
مغلط
والمنت
##ترا
ولرسوله
تتعرض
المدنيين
دخلها
المفاهيم
كتابات
أحرف
وعندهما
التلفزيون
واستعمل
والاخت
##بتدئ
تيار
شهادتهم
هيكل
يحرك
الإشهاد
كيمي
القه
ومهما
وإليك
سجوده
جاري
البدء
وينزل
أنشده
##حتم
الشن
الرعية
##وسيقي
اجتهد
##ينها
##برك
ينقلب
اعتبرت
متعدد
لولده
السويس
##هن،
نائبه
ثلاثا،
عملهم
هق
المسير
##يثار
صنا
##غاث
بنس
فجئت
للأمم
تطهير
زيادته
المؤلفين
تتمثل
حزيران
وامتنع
مملوكة
موطن
##لمس
العجاج
تعليمه
السوا
معلقة
حنيفة،
##حشاء
بالمنا
تغتسل
ويضرب
خطه
مليح
ثبو
عامر،
##رسول
بالقبول
بعضنا
اعتباره
نقيض
الشيطان،
إرادته
جنين
الأسهم
حلقات
فبايع
يكسر
##موها
المطهر
تغيرت
التذكير
##صيته
##غلبة
أزال
بيده،
تقديمه
وثاني
تعدل
الماضي،
الفعلية
داري
الدبلوما
والمجر
التكوين
للقرية
تنزيه
##ساطير
آبائهم
فالخ
المستثنى
جلست
مساكين
لوال
المساحة
غازي
استفاد
بالإس
النقش
رقعة
سريعة
ففى
للحا
المتحدث
ادعت
##نوية
فيأ
أوسط
##عاذة
والبصر
فسمعت
وأعد
وأطيعوا
البخل
##ناء،
بجنا
شرقا
توقي
طولها
يطيق
##بوح
مبكر
سفرا
غرق
##وبان
بقليل
اشتمل
ستمائة
طرقه
خامسا
ضحى
يظل
ويطلب
بأنفس
منعها
نبوة
بالخبر
تعبر
ليأخذ
الاستحسان
الاستنجاء
ذنوبه
سات
فراق
##ضاءة
حجته
العمامة
ونور
تتمتع
الظاهري
ويسقط
وهرب
بكلية
للقوات
منافق
فتنا
لعبت
##طفال،
راد
الموالي
والمشتري
عرج
##زيم
فرضت
شرو
##دياد
السل
ودل
برلين
##رساله
الطعام،
صرا
بديع
سكون
شاملة
الكونية
يستفاد
للحج
يفيده
بالشك
وتظهر
لوك
عجائب
باتباع
وفتحها
نيف
مكية
تجارب
غنيمة
تدريجيا
تند
##مائية
زائدا
##شترط
وصور
يهوديا
أكا
تدفق
الحور
البشر،
##ضير
منف
مناص
تعظيما
منصوص
قلق
السوي
انط
المنكر،
##ضبة
بند
النمر
التطبيق
أشير
خطيرة
طم
مراجع
الخبث
رومان
تلاوة
يمكنهم
حاجي
فالأمر
المماثلة
أسواق
##ضلوا
المحلل
تبنى
إفريقية
##هوت
مجانا
المؤمنات
داني
غالبية
الأوضاع
##ياكل
يتوقع
محاربة
المحرك
المنتدى
ببلد
وحجة
تمتع
عقر
ياأيها
والثق
رسوم
الأحرار
##رهيب
اتها
كير
##ذاني
تنقطع
##طره
الأشجعي
القبة
وبالأ
والخز
تربط
النوى
وآمن
قدمها
عيناه
سرطان
لإع
والطي
الوثي
عبادك
رفضت
فلأ
فجز
والوس
##أنس
تحسب
فسجد
نفلا
الشرا
الدفن
سلمه
لأخذ
مخرجا
فرانسيس
طلي
لنبيه
نصراني
البش
أمد
الأواخر
ثبات
الحسد
فأدرك
تدعم
المعتز
يسميه
الرياضة
عارية
##كرا
التوالي
##ودين
وتبع
لرؤ
المعاصرين
اللبس
والعي
المتضمن
##كتة
إيراد
عيوب
ويستخدم
دكين
##حضار
##اهده
اتجه
فملك
التلفزي
المزا
المعدن
علمها
التخلف
أبنائ
ساقطة
والدا
##بيا،
الخلاء
وبالع
ملعب
واثلة
الكردي
وبحلول
تغرب
وأعوذ
##سيطة
سبعمائة
بالظاهر
##ورغ
الموصول
حواشي
ذمي
دينه،
هوا
تكاليف
مضمومة
##حمله
ولابد
ويقبل
وبطل
##ساقط
اقتصادية
##ضطراب
بثلث
##ءون
أبصارهم
مخط
نعوذ
الشريكين
وعلا،
هذه،
والعربية
فجأة
سني
أخط
آخرهم
والمؤمنات
باقيا
معتمد
##تيج
كفل
وشهر
##هارته
تخف
##ونين
وعجز
أصوله
محلة
التفرقة
البذر
والشرك
احتياطا
##مامات
تفهم
فمضى
##راثية
الحصى
تناوله
كريمة
وجمهور
تكبير
نجاحا
تظلم
دولية
كأم
وبص
والحب
حلاوة
غفل
ولب
الظهير
##ثره
تتحقق
لبسه
الإعجاز
البرازيل
##وفرة
وأعاد
لبابة
السحرة
صاحبة
التكذيب
يستند
رعي
الصادرة
##رويه
الضو
الذباب
المشاعر
متعلقا
وعزاه
جوفه
كائنا
##زواج
التا
بالتعاون
جلده
يقتله
الإسباني
العوفي
الأولون
نبيكم
##تلر
اضرب
أيدينا
بإثبات
الانفراد
بطوله
##خلهم
التور
بالرجال
مشاعر
سيدها
يستأذن
والفقهاء
وخروج
وهد
مستند
نصيبا
الأعور
مرتفعة
أفق
الأزل
تأكلوا
الثور
##اقه
الجنسين
اول
فيحمل
وسطه
العابدين
صياغة
أمسى
موافقا
المواهب
أذنيه
الحلواني
ضح
##عز
يومي
بالشراء
والشعبي
وبينهما
يثير
الاحاديث
فعيل
تفرقوا
أخاك
عيينة،
فإنكم
##عاش
يذكروا
المتنبي
اك
السبيعي
فست
والولايات
وحش
يحجب
شرطة
الابتدائية
شابا
القادم
التواضع
والعرض
ويحفظ
ولأبي
##خها
يقاب
فتكلم
الهجر
صلاها
دواب
العقيد
جنيه
بالفر
قدح
المجني
ومعهم
##دونيس
موجبا
##بتان
وبينك
لإقامة
مشايخنا
والبط
يحذر
عملك
حجب
شراح
##روء
تتحرك
والسير
وشت
طلبها
عليه؛
وإطلاق
تكذب
وإب
متعة
##لأ
خصم
أهلها،
وقرر
صديقا
وري
وفصل
وآثار
بواسط
وقلبه
هذيل
وفوق
سماعا
##رور
يتردد
##نتم
نعلمه
الأعداد
يبدل
##خوله
قتالا
احترام
تفريط
نفعه
الفارسية
السجد
كمثله
ثانيه
الشهادات
وإحسان
يهدف
##ياطي
خلقهم
التناس
وأرى
انفص
استبد
##ظره
خيرا،
التنفيذي
فائد
وتضم
بدونه
المناعة
المثلي
رزقا
بأعلى
السياس
الراجز
كثيرون
قرره
سماحة
وأهلها
جئنا
شين
##لكان
المناقب
البلد،
والاص
##مرون
##عياد
فألق
ينطلق
الواضحة
نوعين
ونظيره
تعالي
##ذيبه
وبالرغم
يقبله
تنشأ
الخت
للمالك
للحال
قيس،
سراقة
##قاني
الصدي
قتيلا
السط
الحضانة
موصوف
بنيه
خالية
يحتسب
عبارات
إنزال
ومز
متشاب
اختلافهم
##شهاد
##هلال
مسكر
يطرح
وشرع
وقضاء
حوائج
عنوة
القديمة،
قمر
##روت
الغرفة
القيود
الأزد
##هادتين
الأضحى
محركة
مقرا
##سطاط
يعترض
ساع
##كاره
أجسام
نطفة
العراقيين
الفعال
بصدق
جهلا
أوربا
الفتيات
ريحا
توسيع
تقنيات
للهجرة
يمل
الاي
##كسار
مانعا
شاذان
تبعث
صيف
قسمت
لبيت
ويشير
##راجح
فصد
##حج
والمحا
خفف
##افي
##وفت
العضوية
والوليد
وتعا
الاية
المعلى
التثنية
##تيقن
الغلة
ذريته
صوف
واستولى
##حلوا
التحديث
سيب
أسبو
##ديده
##صرهم
خلاله
بالحاء
علاوة
يتكلمون
##قرض
##غين
معرب
وصى
النقدية
كمر
ووجب
##قتك
أسفار
أختي
وإخراج
افترض
وأسماء
يختم
المركبة
##سق
كتابنا
وتحدث
أجي
##ولادة
جزئيا
المعاهد
الضابط
شوك
منذر
عدوان
سألوا
##انو
وأحاديث
ويلك
بعمرة
والاختلاف
المخاطر
مقل
##يوم
##هبط
اجتهاده
##روهم
عظيمة،
ليتني
الحظر
الفلب
مثلك
أقم
الارب
مجتهد
العلامات
تحاول
تزداد
وأحوال
ينسى
الستين
شكلت
فخرجوا
الأسانيد
خطورة
نادرة
لعدد
بنور
##رباء
للعلوم
الدروس
ذكره،
يخير
والدته
أيرلندا
##برات
ويفرق
بالحجارة
الباطلة
حسام
الحمير
حمده
الإبهام
واستخدم
وصحة
سرج
يأكله
العباس،
أحبه
فوقهم
فحلف
لآيات
##هاض
بالسر
ينف
سمعتم
##ه؛
الإمامية
حملته
بالبناء
تقديرا
الإذاعة
حياء
كراه
الفراق
الانبياء
توسع
مطال
فؤ
ينطبق
والتفسير
الهمز
كرها
أوغ
معجز
جهله
بالتحريك
##ماق
ردوا
أمتك
الإلكتروني
الاصول
وشمال
واعتمد
يله
بدوره
نسل
الزمان،
محار
ممكنا
محقق
ورح
البأس
الوص
##وتة
فأخبرني
تحيط
للور
منهي
يستحيل
إخلاص
خاش
بيته،
الأدبي
قحط
إضمار
تليها
##دامة
##ديمي
السخاوي
أنزلناه
منظومة
مغلطاي
المصرف
تجهي
وفعله
التركم
مونت
مطبوع
الثعلبي
البحت
والميم
المثلية
ويدع
قاتله
##كلما
لأهله
كغير
الثلج
الأنصاري،
اليا
إليك،
يجع
المحاسن
التبرع
بيس
تحزن
أفاق
شره
والهاء
بالعم
القدوم
##زعات
الكاذب
به؛
وأنك
الاستقبال
أنساب
إجبار
تطي
سرت
والقي
العسر
المتهم
يناقض
المصدق
رطل
الصندوق
مسه
تشابه
النخيل
إكس
بادر
##ذوذ
##لوه،
بأب
دونهم
قبورهم
تقدم،
جوزيف
المدع
ظهرا
السادة
وصفهم
مشتركا
النظريات
تزايد
لنس
ويجري
بحقوق
المقاطعة
بعهد
أسلف
وتعظيم
تفري
أجزأ
الجزائرية
تحمله
ناش
بعيب
يحافظ
التمكن
مصنفه
##معا
تعاني
الحيلة
##شتاين
اعتراف
##لاند
الأهمية
غضبه
##رافة
التصرفات
بالرك
الفوزان
وآتوا
تغطية
بالشهادة
العادي
الذكاء
ينكرون
قبولها
سؤاله
آحاد
استقال
والخامس
##أتون
الإعراض
##نظر
##ديته
موصولة
خويل
رقي
أعلم،
إقامته
فخطب
##سطنطين
شعا
وهاجر
لعلك
خلقك
لثلاث
##ضراب
وأكد
شديدا،
##بعيد
بيديه
مدته
ووعد
الهيدر
محلية
والعقد
فلله
##لندية
الوجد
الجراد
يضيق
المودة
فساده
الجريري
##نين،
للعا
قضاة
وأورده
ووافق
بالآية
الجليد
وزنه
ننظر
برضا
مائت
يحارب
بالمؤمنين
##دتهم
تستمر
وجنوب
والإي
##ريحة
النماذج
ودف
اعبدوا
باف
##وبة،
المبكر
تقتلوا
الاستخبارات
ظهير
##يناء
صفحات
موسيقى
معارك
المستح
##ذاذ
يتسع
الاستقامة
فحسن
المعايير
حضارة
##ضات
الورا
بالنكاح
والقراءة
فصاح
حرب،
منك،
صدري
ظالما
والخلق
نفعل
ورأس
بابل
مناكير
الجاري
وحقوق
بالبد
##ياطة
مجددا
التوفيق،
قع
وكانا
المصرية،
والالت
واخ
ومعها
وامرأ
حجرة
لضرورة
##كميل
وخارج
المبتاع
تاسع
سارية
لاسيما
الجواد
ملكي
الأحول
أقوالهم
الغوث
الرزاق،
حو
صانع
بحاله
تثبيت
نرجو
##رافا
##سيين
المحام
دبليو
ورفض
##رقت
اعتمده
الاك
يعفو
لطف
##لفون
نعمته
للنظر
ربه،
اكتساب
والأموال
رطبا
بجير
فاشترى
والجر
المحارم
الاتفاقية
الصليبية
والدة
بقرينة
فلسفة
اجل
الأولم
##رافي
متفاوت
خير،
الشرعية،
البعيدة
##ابية
بالسن
وخي
ركوع
سلطانا
تابوا
الأنساب
التزويج
الموظفين
الجلالة
##نيان
فقيه،
فاختار
بصاحب
فناء
أنشدنا
وذهبت
المرجح
يعاد
ويصبح
حققت
لشركة
زهر
للرك
##انيف
الغض
يستوفي
أقصر
آمنة
مخصوصة
ريش
وسورة
المنز
طاع
غانم
إجراءات
فعندما
غبار
الإثنين
الحاشية
لإبراهيم
والشرح
الصنائع
الضالين
##لوبهم
السفهاء
وأبد
الفواحش
بالعذاب
التصحيح
ثلثي
أيهم
الراغب
أبوها
المستقلة
والثناء
النوادر
الأوطار
شرائط
اللاحقة
##باشرة
والفكر
ومثلها
##زيق
الوافر
##حنث
الوجه،
الأرثوذكسية
أكر
الحفر
وتعت
بالفارسية
ولدته
نكح
يجئ
##شياء،
##صارى،
تابعا
الاستعانة
مشيئة
المغير
بأحسن
الفرنسيين
##شاد
المرد
المتابعة
الحليفة
العولمة
##كرمة،
الروياني
غنية
قود
والام
##سرح
يشترك
عسك
هال
الاستن
فرده
وتأخير
الشفق
استهلاك
واحدها
علته
موسكو
خشيت
الإفراد
غدر
##شرها
##حصيل
الرها
المعالم
قرأها
ضحك
عوده
تعطيل
تعاليم
ألفا،
الفقه،
اتبعوا
وللحديث
إحص
وتذكر
أجده
ديوانه
المسور
وأقاموا
بعمله
الباحثون
الدنيوية
ورع
##وقوا
أمينا
المصري،
الفسق
البهيمة
لأنفس
يدافع
طلبوا
واسعا
وسام
يتكرر
البرج
نجعل
جريج،
المحمدية
##راره
وهذان
وغاية
يتعذر
ماريا
كفن
##ائيات
المكث
وتغير
##رفته
ولعب
بإقامة
##بكة
أوكر
المظالم
موطأ
الساعات
معقول
للتص
آذار
أنكره
بالصحة
يعص
المغربية
يوكل
##زوين
بيناه
باستعمال
للدفاع
إفراد
رباط
##كبرون
الإقليمية
نراه
يهي
##سوم
فكسر
عسكره
عروة،
##سمها
بجد
هين
##ومن
##ثات
قسما
##تك،
المدعو
يخرجوا
مقصوده
تايم
الإلزام
فليصل
المجتمع،
قراب
##ارتها
مقعده
يشأ
الموالاة
##عق
بنوا
وبات
يملكها
بتحريم
سلع
الرقة
أغراض
أقاموا
##واما
##برق
باطنا
##برغ
الخصال
وتصل
##ابير
البستان
الذهبية
أولادكم
إلكتر
تبرأ
وأذ
وبذل
والسياسية
إيف
الاحكام
حكمته
بجل
الذاريات
ينك
والإقامة
الرائحة
##ارها
وتصح
والأمة
ذاتية
الوثيقة
برح
شفي
##يسة
##وك،
تهت
الكائن
يصيبه
وتستخدم
اختلاط
بدعوى
الحميري
والأق
##صدقاء
نتاج
وبث
فهلك
النفوذ
خطيئة
الثان
الغام
الغراب
والسعي
القابلة
يتيمم
فتأمله
بمحا
يزكي
##نر
##واتهم
إسرائي
اللاج
طريقين
تركز
نجيب
للتب
تشارك
زوجي
فالحديث
وموضع
تسلط
الفعل،
سارة
##ضافي
والتحقيق
وتطوير
الأبعاد
فظ
##لاسل
النصح
بإخراج
يضي
##ضعة
قتلته
والاقتصادية
فافهم
وصر
والديه
مشهود
التزا
مسؤول
ويلزمه
والآيات
ائ
شط
السياسات
ولس
المنفرد
والنكاح
##بيون
الترمذى
باغ
بطاعة
عير
للولايات
بمكة،
##فالات
الوفيات
وصلة
عقلي
للبشر
غيبته
##ارقة
للبحث
الخبيثة
عدوهم
الثلاثي
العنوان
##يمون
تخفى
بدر،
خارجية
الصب
بطرق
صنعة
مسؤولية
ويكثر
ومئة
خاتمة
والطريق
نافع،
سهو
كبي
الضيق
ومشي
رستم
ويحل
يتقي
ألسنة
الاستحباب
تبعهم
الأردنية
وبينكم
زجر
##ريمه
السلبية
##يناك
تتوقف
بذن
الصغر
البرقاني
الرئاسة
انتصار
أرشد
الواقع،
المتعلم
يدعوهم
كريما
أقطار
##وقد
بحبل
والسيد
سواء،
وانتهت
الجماعية
الاستيفاء
ورجح
جسمه
تدرس
ربى
مصدقا
أيلول
ولماذا
شهدا
الخلاص
طلحة،
القبيل
وخالفه
خلون
غضون
##قطاب
مثاله
ويتأ
الطلاق،
يلا
الوفد
الألو
الأمي
##حرص
مقصور
صديقه
سمن
وينا
##زف
وعامة
انفصل
أمورا
يسمي
جرج
##على
استخراج
##رابعة
غندر
##زيغ
اشتملت
لدن
الانحراف
##راغ
الكحول
يقوى
نفل
هالك
العل
الشاهدين
فأنشد
توفيق
تظ
تهمة
الميكاني
يدعوه
الزجر
ليسا
بوضوح
هتلر
السهام
##وجها
لأت
الضخمة
أخرجوا
إنكاره
يكتفي
مؤلفاته
هيهات
##تهاب
فيص
بالتد
ترث
ويأكل
تبادل
القرط
مجتمعات
سجدتين
صهي
والند
##ادف
##سيات
رون
باختيار
فنظرت
يضلل
الصخور
##صفح
الأقدام
الاعيان
المخابرات
لإنشاء
أرطاة
فيخ
##برى
برؤية
أنشئت
مسيلمة
وكتبت
بطعام
##تلاف
الأوعية
شماله
بالرجوع
فيز
منخفض
ولكنا
ألبتة
عاقلة
الحداثة
معسكر
ومقتضى
وإنهم
مستمرة
الخطب
شقي
شرعت
##وامر
ترتي
الموجودات
تحقيقا
وافقت
العصبة
يظنون
أوثق
القدوة
ابتلي
أيمانهم
بحمل
حدثا
المهندس
محو
ويعطي
وإسكان
بدينه
مطي
البيضاوي
فعالية
مفاتيح
المتوسطة
المخلوقين
##اريف
الميدان
يندب
الباك
خشبة
تربة
##نعه
##فعية
الالتفات
الجوف
الأسعار
المدني،
فنعم
الورى
##ليقات
##فعى
يبالي
الحاضرين
الألوهية
##قطعه
##جهز
المفاسد
وطنية
##مرأة
الكفاءة
##بتنا
العطش
غذا
حيي
تفسيرا
وألقى
##لام،
مسعدة
يضيف
بمعرفة
بستان
ويحدث
الأمنية
ويجاب
التشريعية
تكملة
والاس
السبل
التعجب
تبديل
ضو
لقل
والخلا
نيوز
ضعفا
فخذه
وذي
الاثر
نصرانيا
المحاربي
##عتنا
والحقيقة
أأ
بائنا
نأتي
جرد
رصد
كتم
النك
القاطع
يكتبون
سيدة
الممن
وتجب
وقتله
##ذت
الآخذ
للإشارة
كونوا
وتحريم
ننت
##كاني
##يتنا
التاريخ،
طبعا
شرائع
##سوخ
##ونى
يتد
كليا
العك
أشارت
وثقات
إثما
والمسلمون
التوازن
فأغ
بعبادة
تقاتل
وأشهر
واعترض
اللين
المؤجر
هاما
وحاصل
##ضوب
للعد
للعبادة
اتفقت
لكلام
كتبنا
التفاضل
يوافقه
ولف
##خره
##عبان
الإفطار
تمشي
والنجوم
الأحبار
الإعلامية
يبيح
تسوية
##وازي
استبدال
##درون
بالمرأة
وتمام
شباط
ملام
##غوب
الصمت
ومه
##صرة،
السفيه
الجاحظ
يعنون
الضامن
الصفر
ابنك
##يتس
جنسيا
وفضله
##مرقندي
أؤ
##وعود
##ينيين
المنطقة،
قهر
بالشر
النقاب
لتعلم
وشعر
جميلا
دبي
مأخوذة
والخر
الفروض
يوشك
الألبوم
الشائعة
والزوج
بالرق
وتأتي
معدن
فشي
بخراسان
جدد
صرحوا
وأمن
##وائده
تفاعل
قاصدا
المؤدب
بعدهما
بأحكام
فهزم
وأبعد
استحسانا
اهد
التعارض
##فلون
بشران
##وافر
متس
##رفي
والجمال
الأشربة
العملة
التكنولوجيا
ووهب
الإطار
الغزل
بائع
##نعا
المعصوم
يؤد
ايام
دمر
القلة
الهمام
اقر
حياته،
بأسر
مطابقة
تقتضيه
زور
كمع
القرظي
##طعنا
الرجيم
خبيب
يوتر
والمقا
وسافر
الساعدي
##سموا
المقنع
مرادا
ترابا
والعديد
##يعاد
نظرنا
كرر
منصبه
##كررة
سهلة
ايضاح
ونوى
والعامة
لإثبات
لعبده
ويضم
وتوجد
##شتر
المنظر
وطبق
الفرنس
الحريق
بالقص
يتلقى
المسلم،
وطرق
ندبا
الحاسوب
البضائع
انهي
بنعم
مطل
وينهى
خراش
السالك
فقامت
الأفريقية
حنبل،
معظمها
للقر
للماء
والمؤمنون
##بات،
المشاركين
##شها
لمؤ
مؤذن
المصطلحات
ووكيع
آثر
ويقر
قتالهم
السهمي
الموحدين
القضاء،
لخدمة
مفي
التسع
وأخذه
تلقاء
لخص
التمس
الكعبين
وبكل
برئاسة
##ظنون
فبدأ
نودي
الاستعداد
مكتوبا
وارثه
بنوع
##بارهم
المدائن
اللبناني
الشاملة
##طمئن
##خراجه
قرأه
الغائط
ووصفه
ادخلوا
تيسير
الباس
التغيرات
الجماعي
الصلاتين
وعص
وبق
الأجناس
طهرت
حارث
البث
وتث
والثقافة
نوحا
الباطنية
القصار
##مل،
تكلفة
##قرارا
والعدوان
بخت
خلوا
##ماتها
وقلب
الطباع
بيقين
ورؤ
فضيلته
مشروعة
وإصلاح
لغو
وضوءه
واختيار
محصن
صدقوا
التحريف
إخوته
إثارة
تيقن
قلته
انتفى
حضرموت
بفرض
نشهد
الإعدام
وانح
المدثر
احدهما
المنكرات
جذور
خائف
الراج
الرقاشي
أنسا
والسماء
فحصل
جرب
لسبب
وجمال
فكلم
واقعا
إفساد
حمي
لاخت
لوح
لتف
وآية
الساعي
تشبيها
الحجج
##اذان
وأصاب
السماوية
لنفسي
الثمانين
والكتب
بالعبادة
##يتام
ومعا
##ماض
البيع،
موصولا
##نى،
وصورة
والنوا
##نبلة
أهو
جلسة
الساحر
صراحة
##ظرا
ليصل
الدار،
إملاء
أثبتت
بأحدهما
إبان
##رام،
صرت
أوان
مدنية
يلتقي
فيقتل
##افعة
معدود
لآدم
عشري
يصاب
البوسنة
الماجستير
##شعار
ينصح
إلهي
التشغيل
##عد،
فالحكم
ولهما
لضمان
جيران
##اليون
والسؤال
لوازم
والمسجد
اهتدى
بالظ
الحجة،
الكيمياء
الكناية
الازد
ونهب
ينفسخ
وصلاح
يتوصل
والمجنون
##رطب
خلفاء
تضمنه
الحرارية
معامل
##بوهم
للقتال
والاستغفار
وتركت
المسافرين
حاصله
الدراسية
عنت
للمال
##ائر،
يلزمها
القنوات
المناصب
ابتدع
بثوب
لبقاء
بدو
لأداء
يسيل
أبل
أرجع
##وزير
اليمني
##اجد،
الغرق
يأمرهم
بخروج
راض
الركاب
المكرم
أنهى
##لبسه
##شيات
همدان
يورد
أنث
الفضائية
للمشركين
خاطر
الشرك،
الكلابي
الكهربائي
أعينهم
أذربيجان
سلما
ضب
وقيمة
خلفا
ولقوله
سمت
والكت
المحلوف
والصلاح
بلادنا
يزرع
بإحدى
وأجمع
لنع
والصد
##ورن
الموجبة
وذك
أبقى
فارس،
إنت
ديته
##وزان
أصنع
فلقي
الجائز
ويضمن
فعالة
وتعليم
الأكسجين
ثوابه
جذب
وجلال
مصيب
بيوتكم
النيران
المعينة
الخوار
فيغ
ولابن
الزيات
خبث
##ء،
ولغ
بطال
وقرا
الكراء
الولاة
##ريبي
والأج
خيانة
الأغراض
مستقلا
ركعتان
والقد
الأرجح
##خطأ
جواهر
بتقوى
وكيله
التلم
سلطانه
السفلي
لحل
نمت
##وارئ
المتص
بدلالة
وأخلاق
التلبية
إنهما
لقوة
كاه
##ظمات
الجدد
ذكرناها
##ينك
والجبال
سيس
التغي
البلو
وتفرق
##براطور
بمصر،
الطائفتين
ألفي
طوعا
اقتر
المكسيك
إبد
اسط
مسجده
البرتغال
البكتيريا
فمد
##ذ،
نظري
أزواجا
هائلة
##هاهم
يقا
الخشوع
البحيرة
ميك
##ارين
بدعم
عياله
بالأندلس
تلام
بالزيادة
أوجبه
للشيء
##زلوا
بتش
السريعة
وجدها
سودة
أنفقت
##وتن
فاغفر
تصحيف
فوقعت
للثاني
اجلس
لفض
الزعيم
فسق
##ألهم
التوزيع
شائعة
وتض
##ضاحي
والأخذ
وبينما
يبسط
المذهب،
بيدك
ملحق
بالجامع
مئوية
يتقون
يفكر
حكيما
الكويتي
وللع
ونجد
وأداء
حدثتني
فيعلم
البشرة
مبلغا
القول،
تاريخها
بالصوم
حضره
لبعضهم
لمرض
كط
لرسوله
بسورة
وختم
الاوزاعي
عزاه
مرداس
المحمود
##سم،
##خلوا
كالف
البروتين
تتناول
لعلمه
حاتم،
لود
منقول
المفقود
اليها
شركا
تولد
##حمه
فاضرب
التوصل
مقصودا
الغيرة
والخي
الامور
اعتمر
فرجها
كالصلاة
رميت
الأسير
الطيار
حرس
سمرقند
أنط
فردا
للجنة
استغنى
انطلقت
تبدل
طوبى
لرفع
المختلفة،
المفترض
مشروعا
ضمت
موسرا
يفقد
صدام
المسرحية
ألعاب
خائ
والجزاء
تعالوا
الغساني
عمك
معاوضة
التنوين
النواة
ونظام
المعص
سيفا
قائله
المكفول
وأيوب
الارتباط
والره
الأدباء
النصيب
للاعت
موضعين
##ئية،
أنهار
شرعيا
والثلاثون
والتاء
والربيع
بريط
فافعل
بطر
والهر
المقربين
قصائد
بالدليل
الباردة
الراهب
أنبا
واقتصر
اللحظة
خضراء
الناصري
فاحشة
الضياء
ضياع
##سهو
التخلي
ينفعهم
تقريبا،
القرارات
فادعى
البزازية
الممارسة
الاصابة
انخفض
فيثبت
##ليلها
##لقون
ليون
##ياتها
المذم
##فيلد
المعتمدة
ببغداد،
##الغ
فيروس
فيروز
##وتو
لنبي
خبرة
وارتفاع
نذرت
المستهلك
ضرورية
بعدا
الطابع
الغزاة
بحجر
أهالي
ذبحه
مجهولا
ضامنا
قو
التونس
يتلو
حرز
يبذل
الهاتف
تمرة
بنعمة
##باطا
يفلح
الأخيار
القوم،
الصوتية
قاتلوا
خياط
فراجعه
أيكم
تستطع
العملي
جرحا
فيرى
إحداهن
وبعضه
لاس
قبضة
وباع
بالرب
يندفع
المتظاهر
الاند
إشراف
أمثالها
كاتبا
عنان
تعال
ولعن
معتبرة
الملق
فهرب
مدل
فبان
الائمة
المناهج
##والدين
واعتقاد
الكناني
##ذفت
##ضوع
##قر،
السياحة
العقل،
بارد
القعقاع
مكره
الردي
عندهم،
ونج
قط،
الأسرى
##جعلها
النمسا
والنور
شربه
الحاف
للمبالغة
الشخصي
القزويني
برض
نشاء
##روحة
برأي
المغناطيسي
الموط
##اتذة
الزبر
السابقة،
معلما
موضوعا
سوءا
ضيع
ملعون
أسلحة
##نية،
بنون
وأنشأ
بدائع
بى
منصرف
##فقون
واستعمال
اختراع
ينافيه
بورت
العرو
##وراني
وستة
وتمر
ومولده
تشد
ويروي
الثوري،
لتقديم
لار
السيادة
أسعار
وشرف
يقدرون
المضطر
وقبول
وصلا
المستنصر
واللا
السلب
الإما
هناد
الضبط
الملف
##ضاجع
بالسجود
##زدلفة
##ياخ
وعذاب
بيبرس
لدخول
النهدي
إعتاق
السمرقندي
أفمن
التغذية
خطايا
##رياض
جانبي
##دهور
أتاهم
فصي
##وقراط
المتصلة
##زابيث
منتجات
المقتدر
لتعذر
أزل
كراع
ألفين
وتأمل
عصرنا
كلمته
نظمه
فوث
همه
عامدا
يردها
ينفخ
والمأم
فاعتبر
الإنت
البروج
البغدا
للشخص
نقصت
جويرية
ذها
غلة
لوجب
القسط
ليك
الصحبة
##جارة،
دراس
بألفاظ
فناد
أخطاء
بأل
والمعاصي
جرحه
##وهام
برأيه
بفتحتين
سحاب
وقاتل
يعادل
متزوج
والجهل
تأنيث
الربط
##كيين
قانونية
بالآخرة
الحيات
يقوي
السقط
الدير
لملك
ويراد
وسلط
حاضرة
وأنشدني
الأنسجة
الكلاسيكية
##قس
##طس
أوتر
غيرهم،
استعادة
اقتداء
والأر
الفيزياء
العبادة،
الاختلافات
##فح
الأبوين
##علل
مقداره
المهاجرون
شياطين
يتراوح
بيعت
بالمثل
يتوكل
وحلق
محارم
الانساب
المصلح
وللت
يكفرون
كارل
ووثقه
رقية
ونفع
والأمن
إبقاء
إيصال
بأسلوب
النكاح،
الفتح،
يثرب
##حدين
يجامع
انتقاد
الخميني
##لائكة،
تحي
ينبه
##هيلي
ساعدة
الرازي،
غطاء
وجدتم
##نجس
أرأيتم
يقلل
ليحيى
أملاك
والبعد
النواحي
خلكان
تحبون
وليعلم
وسمعته
يتحدثون
وسالم
##كييف
بتصرف
##تمون
واستخلف
ورائ
شربت
إكراه
تطع
حوار
وعرضه
والأظهر
فأخذها
قرضا
الثيب
نسك
مؤجلا
التشي
##جل،
المعجزات
##صص
##صاله
بالعود
الراشد
معا،
بروتين
وأوضح
رئيسهم
العشيرة
فوافق
##ثان
تنبيها
طريقها
يغطي
عرفها
وأتباعه
تمكنت
التها
رجم
أجناس
الأطلسي
صمت
فكن
وقبله
وعامر
والمض
##واتيم
##سيل
وسجود
فسكون
التواتر
وهدم
باحت
الدارين
أثرت
ومنعه
أخبرهم
وجهت
لظاهر
بمثلها
معينة،
مفصل
إثباته
والإرشاد
وطالب
تمرا
##دادا
وفرنسا
بجر
المؤلفة
رموز
التمام
التواب
ملحوظ
ليعبد
فتوح
تتوفر
##ولي،
اربع
جلا
حارب
المكارم
حظه
نستعين
شريط
الخطوة
##قيقته
الجهاد،
قضيته
المسؤولين
##هملة
صداقها
جراحة
##شيت
الأحي
زمنه
ناقته
خويلد
مخالفته
بنيسابور
##رقوا
المؤثر
ورش
لنحو
الليبرالية
كفيه
زياد،
ليتم
لخمس
الممر
##ية؛
السبي
##سمين
الضباط
ظهوره
بلوغه
قبضها
البارد
وقفة
يتزوجها
والأصول
فلحق
الهجمات
بائن
وقوف
الإفاضة
##سيون
المشددة
مهام
بمؤ
والخل
بحج
القتال،
الذكرى
فيليب
سويس
غرار
نواة
قلع
##موهم
للعرب
اللاعبين
ضرا
فضاء
وشاهد
بظلم
سقى
كرو
النهج
المعلمين
المحددة
بنشر
التسلسل
للزوجة
بموضع
جعلهم
وجم
ينشر
بالتوحيد
أفقه
جآء
معسرا
تآ
المجن
مخاض
المقارنة
التقرب
صاحبه،
بولاق
يباشر
وجوابه
يجتهد
خطأ،
الكمبيوتر
البديع
والبعض
فأك
اتحد
والجامع
التشديد
فيحصل
حولا
سليمة
الأصفر
ونادى
قضاعة
تراض
توثيق
بحضر
فلست
##لبيس
##طالبة
صادر
##هيد
##كوك
فعرض
وتابعه
وأكثرهم
بنفسك
بالقيام
يوم،
الاتباع
التستري
وترد
مقابر
أباك
##ريعته
أعدائه
حماس
كاتبه
المجتهدين
تفع
تبو
طهمان
##مارا
##اقبة
##بياض
شبة
أيار
يسكت
طويلة،
نجيح،
يوف
تنتظر
فيج
العلى
التقط
دمج
مختلفا
المقتضي
السليمة
الدوائر
فطرة
##فعته
أنفسهم،
تذكرون
المقطوع
تبي
معذور
الكفر،
التخريج
اعتقاده
اهتماما
أسانيد
استوفى
يلتمس
خيف
نلت
الموسيقي
العقيقة
اللذة
والحافظ
فعلته
فاتحة
القائلون
##ذاكرة
العار
فتست
جاهلية
##ميتة
عرس
التعذيب
وطنه
موعظة
فتق
بأصل
رأوه
عمق
المسألة،
التجديد
المظهر
يخوض
##لائمة
بالجمع
طابع
بقلم
دخله
باطل،
اليوناني
لعمري
شاطئ
الحزام
الشف
انقطعت
قلبه،
التنوخي
الحموي
إشك
يسد
أشعة
تكلموا
النسبية
الدقاق
وعلماء
الوقاية
يغرم
غضبا
لنفسه،
والغرب
مفاهيم
الصلبة
ونظير
سوري
أوجد
للحافظ
ويشمل
##اوف
##ديهم
الصق
أتع
المقصد
نظر،
العمى
ووقعت
والرس
##تمعة
فلذا
حضرته
المبطل
غرر
وحميد
تجلس
لوصف
وبالنسبة
إمرة
جيب
المواقيت
منتج
شهادات
الصابرين
أمية،
##يتو
للحسن
بقتال
تخلق
وخمسمائة،
اراد
بقلب
##رعات
لعنه
مجيد
النسائى
بشهر
عاصم،
موضوعات
##وضى
مقيدا
ودعم
ويلت
الأكوع
للتش
تطل
يقض
إجاز
شرار
وهلك
الصبغ
مخلوقة
بدقة
لجعل
رويت
والحالة
أتانا
بالأعمال
أوروبا،
##ورثته
شبرمة
بالحم
##بوض
تظل
##حوش
المهمات
المحدد
وأبلغ
يظلمون
##ينو
بمحل
المقبل
خثيم
المستمع
عجوز
##ساتين
والمسألة
فيف
والهدى
نفسية
والإخلاص
الإطعام
فأهل
##جارية
الفضل،
هدفا
استعمالها
رحمك
الأخلاقية
الراحمين
سرى
الإشارات
أصلا،
مؤنث
وزم
منكرة
ومم
##قنا
فبما
أشت
نعي
##بيلية
ينجس
##حده
الصنعة
يجاهد
استب
بثقة
هجمات
فسمي
المعبد
تفوق
الشعرية
غلظ
خازم
الرع
متعا
متاعا
تقوية
عائدا
وكلامه
غطفان
##سبي
##طوم
فألقى
إمساك
بحقه
لأولي
الأزمنة
والاستع
المحدود
الكليات
الناظم
موجبة
##ئام
فيحتاج
والتسليم
فصر
##ادن
يعلن
##رتك
رمح
جريان
المحيل
عجبت
فكون
##فاعا
الرؤساء
فرحا
ويشبه
بعضا،
عودته
قدمي
وسبعة
طلاقه
##ؤه،
بحضور
يتأثر
##هباء
والبناء
بالنذر
فأتيته
عسل
الساك
تدعي
بالاحت
يمينك
ألت
ثدي
وأسد
##ماتة
لنا،
الإقدام
فالحق
بالأب
مواط
للحفاظ
يقيمون
المحصنات
شبع
مكون
##ئان
المقداد
لزوال
إيضاح
فارسي
وتبقى
الحاكمة
خسارة
البالغين
ثنية
##قيدة
خاليا
عقار
تنتمي
الفحم
هوية
استخرج
المنار
التلق
الداع
والنظ
اسرائيل
والكاشف
زوجه
وأصول
للتق
حيضها
##ووي
##ملي
مني،
النكرة
لمجلس
انقلاب
يكفيك
الزعفر
المنافسة
التأمل
فوه
وسنده
أبط
مذهبنا
الأعلى،
لقيام
نواب
والارض
التسم
توري
نواس
الجمار
واغ
والحجة
شعرها
لوجد
##ليته
الدجاج
تحقيقه
ضحايا
ذوو
فوجده
عجرة
الندم
خاله
التنوير
أثرها
##يفة
##حهم
العثمانيين
ورتب
وضاح
##ثت
##دخال
فيديو
##رجاء
فاق
أغاني
تدخلوا
خلص
لآل
وبقوله
المرحوم
بظهور
الأنبياء،
ألف،
واتبعوا
المهام
بنظام
يؤجر
الهند،
أبرأ
الأكابر
وأرجو
مثبت
تخدم
والتقريب
مكونة
بالسب
##ودهم
أعض
بإقرار
الثقيل
الطيال
ويشرب
وطلق
أنوار
حرمته
خفاء
##ومته
محطات
ترجعون
##ذذ
وقدمه
الحجرة
العمود
الكبرى،
##دتها
هؤلاء،
التطبيقات
بالوجه
القان
المتاحة
للإيمان
تشترط
روج
مصف
ننس
ينسخ
منهما،
المباركة
زوجها،
الجهال
لتخ
الجمعيات
وبلا
متجه
تهامة
مخصص
أبيح
وسل
تأخذه
الجذع
ارحم
تروي
##كك
##غاف
يسوق
وتعمل
للصائم
آتاه
الثالث،
يذكرها
فحضر
ويدعون
يفترض
قصرت
والأفضل
قتلى
أقارب
جابر،
بالسوية
معانيه
فشق
القنية
حرير
جدعان
بجز
للخير
الاسناد
يتسبب
وحول
المدار
الاحتراز
ويقضي
##قييم
##تقوا
التشبه
##ونكم
عطاء،
##قفة
والى
للقا
فقاتل
##وسيع
ونسي
##نتا
##لم،
##ستن
وأثناء
المنجم
تركنا
بلفظه
الاضطرابات
الشمائل
وأوصى
أوهام
عشره
رضع
##المة
ليظهر
##تبى
تكف
##بنة
بناها
معانيها
يقبضه
للخروج
المعني
مؤيد
إخراجها
وضمها
دفنه
تعميم
استنادا
يحذف
وشروط
قائدا
أسنان
المبيت
الإحساس
بنتيجة
أموت
الإقالة
والمعتزلة
الحنيف
تنته
فنع
##ميس
##راضا
مترو
تتألف
المبتدعة
##ضلال
فتزوج
والجنة
القلوب،
المرابحة
ويفت
بأهله
##ضمون
المصد
القيا
أزهر
الفعلي
##بنا
الشارب
الدمع
الطوا
لتد
تمثي
بالمكان
علينا،
نهائي
فشيئا
بالرم
وطيب
كليهما
انهيار
أأن
طيلة
بالجر
تعقلون
أبالي
تجميع
الباه
البختري
سكة
يجل
##فورد
##ذع
وأحضر
سلبي
وألق
الغمام
تتقون
أدعية
تبليغ
معروف،
يسألونك
وإزالة
##كايات
البدا
الأكثرين
أنماط
كفت
وفاقا
الأغلبية
لبل
الرماح
آلية
لأمته
##غيظ
لوضع
يطف
للعهد
##ناقشة
للتعليم
يداه
رأيا
المواجهة
الحالين
الثقافات
صفي
مميزة
يطي
الاستماع
للأس
المستشرقين
##قالة
بمص
بئ
التكلم
للفعل
وبنا
وصنع
ضعفاء
أذنه
العضلات
نوبة
اللتين
زريق
وصدر
أطلب
خفاف
والرجال
بتج
والمعتمد
##نفية
العجوز
النحويين
ارتحل
##تهيأ
العير
##رقية
الأجيال
للفظ
ينكره
بدراسة
مقياس
ودخول
دخلنا
الكتب،
للمسجد
يطيع
للسلام
البكال
قتلها
فليكن
ممثلة
عورته
والرضا
وصوم
نظائر
جيشه
الفنانين
استيعاب
أعان
اشتكى
المقدمات
بفاتحة
طفلا
يستدرك
سكنى
الازدي
جاهد
الحطب
والإكرام
اليقظة
تذبح
##كين،
##خائر
الذيل
قبل،
تريدون
##باش
سواهم
صنعه
##امير
يغر
المكاتبة
##كافحة
مفض
والدع
البور
ومائة،
اليك
حفظها
خرب
##آية
##يلاند
هارون،
الوقائع
مخلصا
إغلاق
تشق
##غرافيا
ففرق
الخفيفة
تفي
مستقيما
هو؟
بالحكمة
فورد
##يما
##طة،
باش
تجن
##شاكل
أصابها
##مارسة
##نتهم
تغيب
مشيرا
الهذيل
الكامنة
كشاف
والأخبار
لتعلق
حيثما
قيده
مراك
والعباس
نهض
واليمن
لزمته
الكعبة،
لمواجهة
أكذب
بتمامه
برزة
والإنصاف
حلقه
ظله
وتشت
لقصد
سها
يغشى
إعادته
جدول
للرب
ونعيم
والمحبة
الخضوع
مجهولة
##ذته
الممد
تعامل
يثاب
والرجوع
والرم
وسعى
##طرون
معاشر
بليل
بالوضع
كهيل
بثمان
##قراض
إنهاء
الإيم
الفزع
كتابه،
واستشهد
وزوجها
ففعلت
##قلا
والمقت
عيال
الخاصة،
يدرى
خلية
سياسات
للحزب
جانبا
كرهت
جبهته
##فاقيات
المحور
فنسب
الأرز
حفاظ
جعلناه
ويسجد
ظواهر
##ثهم
أبيت
الآجري
لتطوير
المجلات
والنصب
الضرورية
ونعوذ
للتم
##ضاي
كاشف
أولهما
انتخب
ويسر
مظلم
الغطاء
المشبه
فانهزم
تنمية
مؤمل
مسندا
والسين
يصور
فشلت
محدثة
العبسي
##بوبة
الفصح
البسيطة
وجواز
قليلا،
وأقوال
المسئول
غشي
شيب
وإيمان
##طيخ
وصلي
مصنع
تربي
وتوجيه
المستعمل
شدد
أوها
أسلاف
رجعة
المعروفين
يوحي
ويبطل
طبر
السائدة
لمدينة
وشهادة
السامي
المحبوب
الانفصال
نصيحة
قانوني
وضي
رأيك
تسمي
صاب
##افية،
أسلم،
الخدم
فتعين
الظاهر،
##قسام
لافت
فاتته
أطلقه
عقال
أوم
فقتلوا
الأسطول
ظني
الإعتاق
أشق
حربا
يلقب
سباق
البطر
المنخفضة
يطير
الظهر،
بولس
اللواتي
الدسوقي
المصن
كفاءة
الأشر
##فيس
يستعين
أغلق
وأبناء
غربت
##عرية
حكومية
راوي
بنصب
فاعبد
موجة
وعرفت
السعد
فتوجه
الجديد،
استئجار
التصدق
بأحاديث
يزن
الصالح،
نشأة
نابليون
الهرب
يستدعي
بالجيم
رضاع
ونب
اللع
البربر
خلقه،
منظمات
بالطعام
الشوق
ناع
باللام
سترة
عالميا
القدر،
والصل
متحرك
لكني
أفرأ
رماه
فجا
لأحكام
اللوم
بقيمته
للعديد
الأنثيين
الملاحظ
##بيه،
##كلين
والله،
اثنتان
##باز
الصنا
يقلد
الجدول
تمارس
رابعة
والاتحاد
ذاهب
وجيزة
توم
##سلخ
جنوبا
مشكلات
بإسقاط
لأغراض
بحقيقة
ركبت
توكل
تجيء
تصا
الجامعية
كافيا
أعتقد
ملو
متقد
ليز
##ريقيا،
المزار
كبرت
الغرور
مفارقة
وأوجب
ومب
والرف
مقيدة
والشجر
كندة
المشركين،
يرجون
تمي
الشواهد
##افة،
ويتع
جديد،
وجرت
باث
##بطه
وقولوا
لخلق
السختياني
متبر
القرينة
##رار،
أولى،
نشرها
للشيطان
تخر
والمحدث
الرتبة
للخبر
وإث
المتشابه
قلناه
والسلطان
بحب
القادسية
محفوظة
اهتم
الخمر،
لثبوت
##يروز
وسطا
يقتص
تمكين
عاشت
مساو
المخلصين
أمواله
صلاتك
صنم
المسألتين
قلد
نوعية
سجدا
زعمت
##ذبة
قصيدته
القدوس
فبأي
السجستاني
ويهدي
استطاعت
وبالإضافة
توط
##زلهم
والصدق
مجلسا
أنكروا
تخلص
وعملا
بسا
مذكر
الرص
أخبرك
نجدة
ربيعة،
يعقب
بعذر
الاغتسال
ندا
##حتكم
والمؤمنين
فرغت
انقلب
بالطبع
بجزء
دهر
جنادة
##جبا
يعامل
والحجر
تجلى
##جيله
مطولا
يأتيك
جرير،
الديات
##سب،
##قاوة
المعتضد
ومحله
إجاب
وريح
فيذهب
وحن
والثواب
القيسي
عتيبة
مودة
التقاليد
للفاعل
فأعتق
##قاص
بإقراره
للتك
بالعبد
فحفظ
دورها
وانقطع
رجلا،
الجينات
ويث
الغش
لكما
نومه
ليعمل
مشرف
مضمونة
زمام
##ياتهم
تحلل
يؤدى
ورسم
المعترض
غايته
بون
ذباب
كادت
وساعد
##فعا
عدت
العدو،
الإحكام
يزالون
وواحد
جذع
إقبال
المخصص
ينفك
محور
ينتشر
التشخيص
الأعمال،
رفيق
وكبير
تسبيح
قومه،
اقتضاء
تنافي
ناجية
حاكما
لجماعة
الفيض
وجامع
وعمله
السامية
الممالك
وأحل
وانطلق
التحية
مكان،
الحجاج،
##كفير
##كراه
فتجب
##رى،
خالدون
وأخيه
وتركوا
عامة،
فيكت
ومشى
باشر
الربيع،
مظلمة
أفاض
لنظام
فمنع
عجيبة
بطاقة
الكيس
##قيته
والأعمش
للملائكة
أكاديمية
لإطلاق
تبدي
وعهد
الأمد
الواح
خطرا
البقعة
مروي
لقيته
فلسطين،
منعك
الآمدي
##قالات
وعكسه
##بعون
الاتحادية
ألبوم
غيركم
مخاطر
ويمن
والسدي
مباريات
فني
لارت
فيضمن
المتخصص
جناب
لدينه
المشروعة
سيدا
لطيفة
وتابع
ولوا
##وحيده
الفرعية
الكيفية
يتلى
والقصر
قطرة
توف
يدبر
الانتباه
حضوره
الساعة،
يكرهه
عتي
الدلو
نافعا
منسوخة
السجدتين
بركات
الجين
بلبن
المحراب
والنبات
المئة
أخطر
فاتخذ
أصابك
باليوم
للمعت
أخرجاه
لظ
##كثار
المعط
عذابه
والريح
وسعة
وفائدة
وغضب
وعزل
سعدا
##ضيت
##وتك
فيعتبر
للعب
البسملة
##تيها
ومعت
يكرهون
بالحد
الآفات
وصبر
عقلية
ثقي
دليله
الوظيف
يسري
ضيا
بمدرسة
أفندي
للشمس
والميزان
وجرح
يؤول
الثلثين
النسيج
الأرقام
##نيك
استعار
تشا
ذريعة
ضاب
واذكروا
رجلي
أدل
وآت
مضرة
الشامية
الشريعة،
الكيميائي
طبية
يدخلوا
وجهات
الغري
بالصدق
الكاهن
الإعداد
فاستع
اللغة،
غفورا
طوي
الحشرات
##ائرات
مجمو
يخبره
إيقاف
تواجد
شات
مصاد
العمدة
ألقاه
الآدميين
يارسول
الفائق
يجي
رسال
ديون
مبتدع
##حمود
بالسماع
ومدينة
علم،
صاحبك
أنشطة
زعماء
##كية،
##راية
أعلاها
المستشار
المغا
كبائر
بعموم
حقل
استواء
الإنكلي
مساحتها
ناقصة
تنقض
مدلول
الشرع،
وإسرائيل
السكك
التمرد
القضائية
لدع
نعل
والحرب
خراب
المسبب
بالخلافة
الأسود،
الأغذية
زمنا
والعت
البطل
حادي
أولادها
سبحانه،
رعيته
للمسا
اكتفى
فيسقط
الميلاد،
لعثمان
الأعمش،
اذهبوا
إشارات
يظ
الكفار،
المفردات
سياسيا
بالديار
بقط
نقر
الشجاعة
الوافي
بقص
اتقى
##وريين
مضمر
وأفاد
وجا
الثوار
أمه،
والعجب
أقرت
إيماء
نشره
أمثالهم
المنسوب
الفارق
أرباع
بنته
أوضاع
السبا
##ركة،
المعنيين
##زمين
راق
يتمنى
الدائن
الفوت
الواحد،
إظ
صبروا
الكونغرس
##ضيب
وصيام
يمكننا
وتحديد
فأخذوا
مهرها
ينبغى
ردة
أورث
##ضيحة
والمالكية
##يفة،
بكلمات
ذوى
هواء
ولازم
أسست
متبا
أثقل
سمة
##دس
فعلوه
خصلة
يأخذوا
الدرج
##ذهبه
ومئتين
والنشر
الحاضرة
الفلا
واغت
أصفر
الواثق
غزوان
مولي
##بيبة
##قيه،
اليمنية
فسادا
يركز
يهاجر
المسلمون،
التقنيات
##هاجرين
بخمسين
##برج
الإيراني
البيزنطي
حسد
ميلان
نفقتها
وبهذه
القوت
وحبيب
مشابه
للجماعة
توض
غرائب
وهبه
وتتم
بدورها
صدقات
وإله
المحكوم
أجازه
وعمار
حفرة
##ياها
تكفر
يصح،
خصص
المكاف
##ضعفين
##صيري
والأسود
أدا
بأسباب
كرسي
وفاطمة
الشهرة
التوا
يصليها
ومحبة
والبغضاء
الزه
سيطر
الحاجات
راو
ثغر
روايتين
نموذ
##باية
العارض
الضخم
وثائق
همز
تأكيدا
شجاعا
تبن
وجرير
وإف
##خش
الإصدار
تتصل
والحزن
للبلاد
الفاسي
بذكره
أنشأت
##ثن
##صع
مصلى
وشم
لعظم
نكاحه
الازهر
##ؤدي
البضع
المعماري
الكرك
وحاصله
الاستعمارية
تصانيف
الأير
شيوخنا
وحصلت
جنازته
اشتهرت
عراق
للغة
يدعيه
الديانات
وجوهكم
فغسل
تأخيره
والثقافية
بصور
##نبؤ
الغرب،
##رايا
للورثة
إنجيل
الكوفي،
صلاتكم
وعروة
وسخر
الأصوليين
لقط
##خلات
السهيلي
##ياض
الوقعة
ينحر
والتوحيد
كالط
بالشعر
المفتاح
التفاصيل
لخط
يطلبه
التمار
يتك
ينوب
ليعرف
بمذهب
يزني
الأعصاب
روض
نهيه
##وعد
سيتي
قدروا
##قطنى
للموت
##زعوا
الدقة
يقولها
مقار
المحجور
يصط
نعمل
##ونا،
حفظا
##يرى
يتصف
سميث
الحريري
ثمانون
تتحول
نفيل
وقوعها
ساهمت
حله
والابت
أوساط
الإعت
تقصر
نسبا
للنظام
وأرضاه
والأفعال
عادوا
سببها
غفرت
خوان
##سح
مرش
الهيئات
المتمردين
ينظم
عاشر
تفقد
سرور
مستحقا
المميزة
يومها
##حبته
حفظت
الأوكرانية
يتيسر
##اجرة
للمولى
كنوز
علقت
للاتحاد
##سلت
المراقبة
##ذائ
الإلحاد
##تموها
دارت
بيروت،
فوجهان
الطعم
سمعان
وطريقة
للكفار
بذنوب
##بيلة
بعتق
وكاتب
##ظرية
أحجار
المجروح
ومسجد
##صاء
بيتر
ويحسن
فإلى
الأخيرة،
الفهري
أفهم
بإرسال
##لائد
ضربين
رأيهم
##صيلا
متوسطة
بجنس
الأنصار،
سراح
الإط
وتوفى
بعشرين
يغل
##عاها
بعثنا
المعدوم
تواضع
منزلته
بالرأي
##خرين
متضمن
المسابقة
##كبروا
جاؤوا
عائلته
##دتك
أنت؟
الحسني
أوحينا
بالبينات
وسيا
##وريات
ظلمه
جبرائيل
الظهيرية
الكيان
##ميرا
الحقبة
بوب
المراتب
المراسيل
العداء
فصالح
إخوانهم
التنفيذية
ماشيا
##ائث
المعجزة
مشاهير
وثمانية
ماكولا
##ائها،
نصبه
الحرز
الباطنة
كمس
أيتها
الاستث
للجهاد
الحسب
أبوا
سمك
الجامعي
ويختلف
يزور
النسائية
##صفهاني
وأولاده
ضار
الأقطار
الشقيقة
##زيف
سمعا
بتخفيف
بكونها
مؤكدا
##عاس
يستقل
دينها
مظعون
يرمون
خفتم
كلو
حقه،
##فارس
مناخ
عريض
##حنة
تمويل
زوجتي
وشرعا
##تابي
ومساحتها
الحضارات
متناه
الخلقة
المهند
فرف
قتله،
يطبق
الأكراد
الهز
الهدايا
##ذرية
خطير
نصره
تضمين
وأوص
##انيته
التنوع
مدة،
تجعلوا
نافذ
ففت
##غلوا
والمنع
##ذاة
يحصى
مغل
فجلست
مدرس
يدعم
فالمع
وطبقات
ثلثمائة
كتيبة
##ياجات
##بتر
مصاب
مرضا
توضح
نبوته
##وشي
إخواني
بقرية
مورد
وأفعال
##سران
المتحركة
##سلسلة
ميسر
تعطى
الطلق
وبغير
فأخ
وتسعون
الفحص
المثقف
النصرة
العجيب
القدا
الكهر
##وفيات
اضطرابات
حقيقتها
يجرى
ونهي
الاستئذان
الضحك
لقولهم
عتب
قهرا
يحلق
عشرية
بالمدرسة
بكتابة
القسري
##وكة
الدلال
تذهيب
والرسل
والوقوف
##افح
والمؤمن
الخصوم
عفوا
بدينار
وافر
الألي
الصحوة
مستقبلا
ترس
##رقا
الزيادي
بك،
##شاور
ظنوا
عور
الأوت
والكبير
فحق
والثلث
أجعل
مأجور
الممتنع
بتسليم
مارتن
ويرت
والآخرة،
والمصنف
بالدعوة
يعلو
نسائهم
لعلى
والإشارة
للجنس
يهتدي
##زل،
التعجيل
فحسب،
مسافرا
ضال
نفق
بنجاح
##ستور
حيوية
المسلح
شرور
فأنتم
الاعتصام
الحماني
هديا
التعدد
وإقام
المازري
وسلموا
المعاف
تحط
أجري
مالكها
صفرة
القصائد
صلاحه
بنائه
شافع
عيدا
##ونية،
الناف
وكيع،
قوائم
يئ
لمجموعة
يستمع
قضت
##ئتي
##ضج
الشريط
والصبيان
رجعيا
##غها
السقف
##جيج
القدسي
السوفيتية
ذروة
والبو
الحسية
يمشون
##ضاض
البقية
واتفقوا
ترو
صوب
وتذهيب
وزهير
والمنكر
النوعين
الصورتين
أقاربه
بشخص
الهنود
فيقدم
معار
##لف،
استعمله
##جميل
واستح
بالحياة
فلقيه
سيوف
##ظان
كماله
لوقوع
للرد
والمؤسسات
البشارة
بالأص
فحكمه
قصب
وحمد
لجأ
الفك
##كتها
##لالا
والتوبة
الجديدة،
قنوات
فمال
##أو
العينة
الفروق
ألفه
فبطل
عوف،
الفاع
وتسلم
عشاء
فحب
##ثام
الحاد
دعوتهم
الغذائي
##كيت
التكملة
السكة
الناشئة
ورغ
أبوابها
##لاميذه
الممارسات
وجزاكم
ندع
السرة
الوعظ
فرش
لإمكان
ظهورهم
جديدة،
أسيرا
المساء
##نتج
مزارع
التفويض
يتألف
للمرء
لرد
ووط
##دمج
المؤنث
يقتضى
أبشر
المؤرخون
خطيبا
المفسدة
##ثية
أصحابك
##ريها
##حمي
الخفاف
ومخت
التبشير
##دونيسيا
الكافية
##قدمت
استج
ألسنتهم
اسلم
درك
ويعني
افتراض
لفهم
مقصورة
واسمها
شهادتهما
قارئ
الوراثية
ونزلت
عامله
المعراج
وبدون
فوجدته
فسا
نجسا
فديك
##رادا
الصعود
تتفق
عكرمة،
واليت
السيرا
البيتين
ظهرها
بدعوة
مهاج
وقواعد
أخوك
بالإشارة
تكفل
متاعه
دماغ
ظرفا
تقارب
وينقص
المعدنية
السدوسي
والسنن
التتابع
##ياه،
والصلة
جنون
الهدنة
أخيها
فريقا
البغدادي،
يكرر
##اتبا
##ائبة
تحديدا
باحث
##ئدة
الحبر
##عيها
بشهاد
ودوا
أكملت
بفع
الخطايا
##رامطة
المسؤولية
الموضحة
مفسد
##بسط
##شفي
مناج
نفير
والعتق
قلبت
وشريك
وصفته
فأمرهم
##خالفته
قصره
للام
وأقيم
القصب
مستوط
بالثاني
الهلالي
بالوحي
وكرم
والري
قدوة
##طفية
يعتبرون
الإحاطة
صاحبنا
وعمره
مبشر
كفارا
توسط
فبر
لحركة
طولون
تبيين
يعظ
##روش
ملجأ
ساحر
خولة
دمت
كنف
والتغ
يجزه
المشتبه
اغتيال
آكد
أشرت
نذكره
##ثرات
الصغاني
##تابك
المعتبرة
يتش
الراحلة
إعجاز
بارز
آتينا
للوكيل
##رحيل
بالمص
بارزة
لبنها
فسلمت
تاجر
كبيع
المؤتمرات
والنحو
فكلوا
وثمانون
الاستشراق
النقشبن
مبالغ
أمنا
ثنائية
تشري
فصلا
فدخلوا
قلما
للمحرم
المليح
ترعى
شان
بنكاح
بمقت
للأخ
وناقة
والوعيد
القحط
يتجر
فالذين
اقتضت
خلفها
فرنسا،
بقبول
قتلوه
تكلمت
صادقة
الرمح
التنازع
مذكورة
تعريفه
والتصرف
بالتالي
جهز
##كرير
الإضاف
وآداب
والخيل
صدوقا
فلكل
وأطعم
دورات
تعهد
بريرة
##فسق
ترام
كلمه
الطحاوى
فمس
الألقاب
للعين
##ندى
عمى
لانهم
مهنة
##راص
##واتا
برماوي
المغاربة
المقدس،
سمات
يثق
شبل
غلي
##غلا
ولدك
وأعلى
الشقص
الصنم
والساد
الصحفي
المنتظر
ببني
##رائح
فرآه
فانها
يفعلوا
وخبره
تشجيع
##بج
التحدي
أون
عليما
ويقطع
فأج
فلزم
خطابا
مخففة
زاذان
وساء
الأحقاف
أمثاله
فعلنا
والقصد
تجدد
خالفوا
نصل
##ذوب
الغزي
بالتمر
هدبة
بله
وأمير
يترب
شيكا
بجعل
والطيب
والإرادة
الحجري
السنوي
صدقته
فازت
العلية
##بعير
بتمام
والنقل
التسجيل
سألني
جيء
كبري
الدعاء،
بزعم
القرافي
##فعها
بغرض
قسمان
الحقيقة،
داعش
متساوية
المصابيح
حريم
فصدق
الكراهية
##رجيح
الابتلاء
يبس
بالضرب
معبود
##حتك
المتوفي
بغتة
أجرته
مضمونا
أسكن
سلطنة
سيرا
وأعيد
يتقبل
تكسر
عالمي
حقوقهم
والاقتصاد
دولي
##ريدا
مؤثر
أجرهم
خليلي
أشرنا
اعملوا
##جئة
##مرها
##ائهم،
الاعمال
فإنني
المشاة
الفاكهة
نبى
##هتمام
القيوم
زعمه
ثار
##طش
القبل
التمكين
واشترط
الوضعية
المبني
##طاها
حنيفا
أعمارهم
##رشح
تاريخيا
الأميركية
آفة
الرقص
المطار
وضوح
##هاينة
##ساها
الياباني
تدارك
سحابة
التبيين
للمريض
المؤكد
فنية
ديانة
حميد،
رحلته
تنح
والشكر
العاملي
ملخصا
وبئس
أسفر
الباشا
بجائزة
المكذبين
والصحة
##فاقه
##ويك
ركوعه
##ثلها
نقش
نوعه
رحله
فروخ
اللاجئين
لبا
##بيهات
بالطاعة
##عهن
##صالات
بمرو
بالبن
الفائز
وبالغ
انضمت
والوصية
ماكس
قصدت
أضاء
العملاء
قراءتها
إزار
الأبدان
ضباط
##غاله
الرفض
لتغ
الخلود
الاثني
والطير
مفردة
بروح
واللي
الإسلاميين
تشرب
وراجع
الثرى
والمم
##جزئ
أنفقوا
الحزم
الخدي
حجره
صلحا
##ماهم
متت
وزعموا
العرقية
أسب
هبط
##ديع
تشرك
الحراري
للعلاج
الإجهاض
يوثق
##بيلي
وحف
صان
البقا
الكتابات
المثلثة
للناس،
كهيئة
منته
السقي
يستأجر
ركاب
الزوجان
غذاء
كاره
الصواريخ
وقدمت
وند
##مانية
والسفر
ساعة،
كيت
مخصصة
الكأس
وإجماع
وانا
نفرا
نجحت
المروءة
كلتا
وضعوا
مقصودة
المحليين
يشتد
بالجواز
مروان،
أشركوا
أحلام
بسببها
ناقصا
فرحون
مباركا
آنية
المتبادر
لتج
الحيوي
المحتملة
بيضة
أفراده
نذره
الساجي
أوف
وشكر
بالمقارنة
أقتل
ككل
##أها
##صنع
##ناطة
الناشر
يأبى
ناصح
الشيخ،
##يثا
بدايات
المشاهدة
والطرق
المشهورين
تتابع
دج
الزحف
##بيري
يطرد
الثلاثة،
الأحبة
تره
يلج
توصف
فاجعل
الطوال
عمامة
أعمالها
يكذبون
بهامش
وشرك
التوقيع
الكاشف
واحمد
أثلاث
دعاهم
ابنتي
بيدها
ملازم
الزرقاء
الأقاليم
واضع
أخبرناه
ومركز
مباحث
##بيط
الأظ
##ادق
ودية
والغضب
##واصلة
التونسية
يخصص
للغير
وفاز
أنبيائهم
أرحام
##علمون
أغلبية
حسبنا
وبدا
إط
##يدات
يعول
النازية
مالك؟
دوره
تملكه
##لايا
أدهم
اقتصادي
أعدت
واعتبار
طبعت
الهامش
الواحدي
يرعى
والتعاون
المسبوق
مغفل
لسيده
الرباني
نوادر
ونصه
مركبات
حواء
نكا
##سرت
لوي
مريد
ويسعى
##فرقا
انفس
فدفن
قرارات
أعطيته
##برين
الخان
ونوع
يقولان
اتسع
ومعناها
هممت
لجاز
ظهورها
الثغر
وسؤال
الأرباح
قبلها،
كني
لمحا
جاءتهم
بعثك
يفرح
مراس
ونهر
لقيط
جريح
الجغرافية
##وز،
السفر،
اثر
شبرا
وخرجوا
واجتناب
جليلة
لصح
##كانة
فالد
يرشد
يثني
عميق
سليما
##ملها
##عك
التشيع
النوبة
الصدا
محصور
ودور
وأشرف
الخزانة
وبحسب
فرمى
الزاهرة
التصانيف
صدوق،
يتناوله
ويقف
قوله،
ثلاثي
المستويات
الشدائد
طاهرة
يفيض
##رجي
بأسانيد
وتحسين
والأرض،
البلدين
الموسوعة
الخاسرين
والجل
متعين
الحنفي،
الكميت
إيجابية
يشاركه
مخلصين
لينا
بالثلث
مكروها
استعارة
فشك
الجمر
##صاره
المؤلفات
حسناته
ذرو
روين
فيتم
نزهة
##شلونة
نائما
حمرة
المريد
##اتها،
##راهن
صحراء
عشت
وأنبأ
والسلوك
بالحجر
الإداري
صمم
العهود
ومائتين،
العباسية
الأوليين
السوفييتي
عوضه
ليدخل
فبه
والحاجة
واط
للمدعي
##قضاء
##انه،
وهزم
فتحة
وليام
أهدي
وآخرين
عاجز
##؟؟؟؟
ذهل
##طعه
مناصب
الرئ
الطوارئ
للمد
هنيئا
فئات
العبرية
التأسيس
وعلل
اليما
سمعها
أقامت
الحيضة
بالسجن
إياه،
إنقاذ
دلالته
جبة
رقيقة
ويبدأ
##وسي،
والمفعول
البدنية
الفرص
##أييد
البارحة
الجس
الرفاعي
الإيضاح
##نعيم
فالأصل
##وعة،
أنبت
للوارث
الغليظ
وحيا
فالغ
أمران
بتأويل
غرضه
العلق
وتصد
لإزالة
أغار
محتاجا
مجاوز
ممكنة
حتما
ووضعت
حيدر
فانطلقت
الهولندي
يذم
يستثنى
لغيرهم
فمسح
الخلد
رجس
تأول
الرقابة
تقصد
مصباح
المعاوضة
ارض
وأفض
وربيعة
خلقوا
بالأش
التطهير
التميم
الحنظ
الملعب
##مسا
المظاهر
حجر،
مباشرة،
ففعلوا
##ذفه
مسابقة
عمومه
تقدموا
نظريات
قيود
يحرص
تجرى
##هوات
الحمرة
للوجوب
وأنعم
حرمان
المرادي
ذبائح
مفصلا
وإش
فتك
أبصار
والاستن
شأنهم
##عدن
معذ
تصب
الرجس
بكمال
الثريا
بلدا
لطول
ويخاف
المقاتلة
آثم
مكونات
مصدرية
لنت
لعين
السمان
السباق
أكف
الانع
وطرد
أعطاها
الحواس
بتخ
والاشت
لبنا
ريع
##وامع
وأبقى
المسلك
تستر
الحالتين
جهينة
معظمهم
تحريمها
داخلية
وإدارة
العتب
السواء
البضاعة
ويلاحظ
به؟
والخدمات
يرخص
المخالفين
بوم
تنال
بالإع
البريطانيين
خسائر
معيار
إفادة
وكأنها
بالباب
وصاحبه
أكثره
المستشفيات
تناسب
المضمر
الثقل
الغرة
والغالب
الكوفيون
ومأجوج
ممس
الموجهة
والذهب
##سندر
علقه
غصن
الأبر
لإدارة
القرائن
##كاملة
الأقليات
سيارات
انقضى
يبايع
الرقاق
##مدادات
بشر،
عصابة
تنام
عفيف
##ئي،
يعفى
نسألك
والنصف
والخطأ
المرآة
تعلمه
احب
عده
##روسية
ومواضع
##درالي
ميزة
الخلفية
سيناء
الدستورية
قادرين
بذبح
##طته
أوقف
بقعة
أفضى
المناق
سكنت
بحديثه
الافتتاح
واجتماع
القيروان
تضاف
##قائق
##تبين
المنادي
عادي
الكسوة
شتم
الملام
المسار
التأويلات
مهلك
اجتمعا
تضعيف
مذموم
هت
فيعمل
بنسب
المهرجان
عصاه
بناحية
السماك
الاسدي
##فكر
الاذن
ثلثا
وصاروا
المختارة
تمنى
المكلفين
قميصه
##لولا
والتنا
بمعدل
وردا
المحاضرة
ثوابا
الميث
متوق
فخاف
والهبة
وأنزلنا
ويده
##قولون
النسوة
الاموال
تلميذه
##ذنا
##واره
وتشير
##كتات
##صيبة
أخباره
أعناقهم
شيد
بالقتال
##وموا
الدينية،
تنمو
يعرفوا
الدورقي
آبائه
بالوطء
وأيدي
أحسبه
الضبع
الاشتقاق
الكوثر
ويصدق
والعذاب
الاستطاعة
لينت
المختصة
مبي
وأظن
##لونا
يجمعون
له؛
ينز
##كتبة
##ضمض
الدعوة،
فصاروا
صقلية
سلس
يوس
والحمل
يتساء
بأكل
أقاتل
انتقد
جحيفة
ويحتاج
تعتقد
صبيحة
الشاطبي
تصر
كظهر
الطل
ومقاتل
والأه
سدا
البقاع
الخبراء
##لفى
كفوا
وإخلاص
ضمنا
##عياء
ونك
أصنام
بتو
بالتراب
ثالثها
شبكات
سطر
متوال
يجتمعون
طبعه
بالمنع
باختياره
ستره
تطبيقات
فاسقا
ترع
هون
المعاهدة
كالآ
تصنيع
بخص
صعبة
##ظما
تعريض
مفهومه
تعاطي
عمة
استس
وأعرض
تأسس
المحصول
المطلب،
جامعا
بصرى
سفه
ميش
##اريب
والأطفال
فالإنسان
عدوى
انهزم
شمالي
أعا
والمسي
المعيشة
التلفاز
قرع
لتحسين
وتأخر
الثروة
##طايا
##تكاب
مقدمات
ويسمع
##تيار
مؤن
زيادتي
جدته
يأمركم
والميسر
لزيارة
بالتم
بالحب
تنه
العبد،
عادية
##ثارا
إحسانا
زنت
هيد
المقطع
القطي
فغلب
يرمى
الرشيدي
##قلبت
##وليات
فزارة
واقفا
فانك
الجميع،
شابه
الجبن
كتابك
البوي
الايام
##عيت
فأر
وسعها
تجعله
وعدل
إجمال
محرم،
ينفر
##وائه
ونحوه،
الاختصار
آخرا
سرب
الحار
ماجد
للدعوة
مدلس
ويتجه
أعدل
لرئيس
فاسأل
الغيظ
الفوارس
الجحد
الدب
أصلية
والكسر
التقية
رهنه
##ظري
العون
الصخر
واللبن
الحضرية
تله
يستخرج
لتر
##طلقة
بلقب
##ئتها
سترا
الحدوث
للبد
بمبلغ
رجعنا
لعملية
بوجوه
لباب
مستقرة
تأييد
القري
تعقب
ذاكر
المبتدع
استقرت
وجامعة
الغلبة
حاجتك
وباء
امتدت
أضحى
والاجتهاد
التهم
الدهن
##ليل،
الورم
والرابعة
النقب
الفاجر
##بادلة
يرتكب
بعملية
وغنم
براون
الحجامة
تتمكن
الهيدروجين
كبيرا،
وحص
##وارج
ذكرتم
##اقان
##صيبه
بالسوء
وأجمعوا
تعلقت
كفالة
اللاهوت
##ظيفي
فاجت
بصفته
ذالك
##وسم
إحداها
محاكم
شبابة
منصوبا
الموضوعة
خيرة
لقا
##دق
##رازا
القديم،
الآبار
والأثر
ثلاثة،
بحالة
يغفل
والكرم
والصحابة
البديل
الذهلي
##وقراطية
##ثالا
ولات
وطؤها
شكلا
لقطع
التدري
القمي
حدثهم
تنشر
الأحجار
معمول
إقرارا
النفاس
الفوات
جزما
أموالا
التكن
وأيد
البنين
الادعاء
اللقي
الخنثى
يعارضه
وقائع
جملتها
السكين
يعرج
الغدة
حماد،
الجيش،
التنافس
فته
تخطيط
نتحدث
خرقة
عبدوس
الاقرار
الحديقة
برحمته
شهري
##ريا،
القواد
كاذبة
وبكر
ودعوة
الأرجنتين
دحية
المنخفض
بأيام
اجتماعي
وستمائة،
ويؤدي
التدليس
نوبل
الجبلية
الجلسة
حيل
##وصف
##فيظ
ركعتين،
الجاذبية
##طبة
##صنة
وحز
وثابت
##طارات
والكف
تفسيرها
القابض
عقا
للسهو
اللجوء
وتجعل
والسياسة
والنخعي
يجلب
استف
والتجارة
شعرة
صلاتها
##اتك
يقنت
أحسنوا
مبطل
أجب
القمة
##نيب
وسلم؟
لتست
دولته
الجرمي
الاجتماعية،
ممدود
##غة،
يجادل
حميم
حكمهم
الحاقة
نعيم،
وواجب
الكمية
الانتقام
العاجز
مبادرة
بالشرع
لمص
مهنا
للدنيا
وحديثا
الدف
لمذهب
يحط
بالدنيا
بمسجد
بامت
مشا
ومنصور
نقصا
التطوير
زمنية
القبر،
والمنافقين
الماد
ويصف
##وجات
العباد،
خروجا
ت،
##طري
الإماء
أترك
تلقوا
المرفق
سلو
يال
ويقل
ويلحق
صيفي
وبايع
ورائه
##بهن
بإجراء
الصيدل
تسبق
تسجد
التملك
وأكثرها
سدس
حياتي
وانضم
يتبعها
##ضيفت
والمواد
تطمئن
صلبه
يسكنها
والحرية
##ريهم
واستطاع
التعصب
##طانية،
##ونسون
تنافس
الدراوردي
يمنح
الدمشقي،
بالتكبير
السرى
بحساب
أنباء
للطاقة
يتما
المعج
تشركوا
##قطعوا
بالاسم
كأحد
نفاق
فأتم
إسطن
بمجموع
طريقته
وقفوا
##بيدة
أناسا
يخصه
بالآيات
اللحوم
الساكنين
سفل
##ذرات
##حقا
الأيو
القابل
بشبهة
المناسبات
أكدت
يستع
لنشر
##سناد،
تهتم
ساكنا
لسي
الجوائز
##دلعت
بشيء،
أجمعين،
موقوفة
##راتيجي
إعل
نان
يي
الملائكة،
كلبا
##قاظ
وتعرض
بالتحريم
الكاذبين
الأبطال
ديك
التابعي
##صموا
الاستعارة
الخفية
التحلي
تمكنه
وترتيب
بوين
مائة،
أنهن
وحما
مضاد
اللاحق
حسبي
يوفي
##داود
##وكو
ترجح
الرؤوس
ثني
شارب
السجل
ثلاثية
سيء
التنصير
عليكم،
للشباب
وأسأل
سليم،
الريفية
دهن
##صوبة
وأفعاله
وتجمع
يتقا
الضالة
فرنسي
نفيا
تكمل
ريد
للتس
الديباج
حيوانات
بفضله
صوابا
ويؤمن
الزل
صفراء
بطلانه
المرجئة
مجتهدا
والمجرور
الساكنة
تعذيب
عدالة
مستعمل
رئيسة
جحر
الآخرين،
والجنوب
اشتبه
نفاه
لتنفيذ
أرجاء
أغنياء
##رضاء
تتبعوا
فجرى
كلفة
##ائق،
أحدا،
صدقا
دنياه
محظور
تلميذ
كساء
يربوع
##خوا
الأهم
السو
يتقيد
##وبون
بمدة
الثالثة،
التبليغ
أعرابيا
سئلت
ثانوية
سلي
لسر
##ضحت
نفسك،
##ندقة
علقة
لينظر
وارحم
وعتق
وللب
بالمدينة،
بردا
فأعت
والمرا
الأحرف
عفان،
كرهه
حزنا
فرأيته
سلول
منظر
الكوم
وبحمد
فلع
حمزة،
##أة،
أوليا
##وانية
كعب،
فرجه
##مط
والاح
والراجح
ويصرف
##انيت
بمهر
الفتيا
وأستغفر
غابت
المتخصصة
الأفريقي
يديها
بحوث
أيق
بعيره
مالم
وشمل
أرضى
أساطير
يحمي
##يمتها
عمها
القاذف
الراسخ
والإقرار
قرنا
واتخاذ
؟؟
الأبه
تقبض
الكثير،
بالغسل
إراد
بزوج
حبر
نتكلم
وكقوله
والمختار
بلجي
مماثل
الإنذار
الرسول،
الجبل،
والباطن
لقت
مفسر
الميس
الخاط
يحكى
##كيله
##طا،
وأمريكا
الجاهلين
كارت
كلكم
مبط
##يلين
الطاق
السياسيين
أحت
وشخص
أرسلناك
الملتقط
عوي
انزل
##فاهم
تصني
والصفة
القدمين
الإتمام
بمفهوم
اللذات
فالحا
آثارهم
ويخبر
##تمين
تماما،
يتركه
نسيان
فعلهم
مؤشر
##فعلن
لسانك
موقعها
لتعليم
بمناسبة
جوع
كوني
الإحت
##وسعة
الإبل،
##حاها
وسق
تحص
أعطوا
نتج
النخبة
مقبلا
##ماكن
بالفت
وإلي
حران
رياء
شما
الدباغ
##كتم
يخفي
البارزة
غضبان
##سلا
التقاط
##يسون
باقت
فاما
كسوة
الهجرة،
الجرم
وسقوط
يستغرق
تغفر
##ورج
بناته
اقل
خفا
دمي
يقبلها
كالمت
بشعر
الانش
فسماه
يعدون
التسعة
اندلاع
كنائس
وسلوك
يشرف
الاستراتيجية
##تيناه
يطمع
نجده
مأذ
وأصحابه،
مشتقة
محتر
بسطام
برت
يتجزأ
والنق
مرافق
تقريره
العاقد
يرتد
حسنة،
العضد
الفواكه
قمع
للحم
فتش
خده
##شوع
اللآ
ومعجم
حاض
شائعا
ووه
متقدمة
اخترت
السكران
ظهري
فيعت
يجعلنا
##قياء
فعل،
القبلية
الهمة
واصط
صقر
المفلحون
##ديرات
المسالك
يعلمهم
المرتضى
شاهدين
تؤمنوا
طوى
لمساعدة
الطر
وندب
أعضائه
طيبات
التراخي
##حوها
والخارج
الفيدرالية
روحي
مفه
بالنصف
مباحة
أسمعه
##لأت
والياب
الوف
تكنولوجيا
أقرع
ذميا
فيمتنع
##حوص
أصولها
والقانون
كولومبيا
زان
النقيب
والتعبير
أوكرانيا
زوائد
##ثها
بالهدى
ومهر
المعق
بتهمة
والسكون
فاتفق
حملوا
فروض
السائد
ويعيد
بإزاء
حالته
المواريث
واجبات
وسطها
بالاجتهاد
وتخصيص
الغريبة
المشكاة
يلجأ
أنت،
رشدين
فوثب
سامي
يشرح
يوجبه
ويفتح
حديثي
انتقض
التجريد
الروحية
إعراض
بساط
الآش
مشد
اشتر
##غارا
الأردني
شبيهة
سارت
##سبا
وتصدق
للمأم
التابعين،
تذك
للجن
الثغور
شيعة
فذكروا
التعاقد
##ينهم
الطفي
وحماية
أتيته
بويع
السحب
الاختي
الثاء
بلخ
وددت
الحد،
الاسلامية
والشعراء
ميكاني
التحقق
الصواف
قدومه
مؤجل
عبادة،
الامراء
##ظيما،
الساحلية
أخوة
ليبين
متفقون
يطعن
مسالك
يأتى
واستثنى
اعتمدت
والنفقة
لقص
وأولي
معتق
فأقل
تفتقر
الرقمية
وتبلغ
وصفنا
الهمذاني
للمسافر
أثمان
النامية
أقواما
قربه
توجهت
توكيل
##خلو
وقعد
بمنطقة
##طىء
التفسير،
ويقصد
اللغو
العلوية
اتب
رفقة
خصه
##جأة
##ومهم
وكا
يشبع
بالنصر
تايمز
##جزي
اللاس
وأخبره
باطنه
عورات
بالمغ
والنسيان
مزرعة
سهلا
البنيان
##ويها
والسمع
وذكرنا
ترحم
رويناه
غراب
##صناع
التكاثر
تعصي
استهلك
لولي
غربا
صبيان
وسك
الإشراف
حجا
والدراسات
أرسلان
أوسق
وتعني
القصوى
اعمال
التوكيد
وازد
محذور
طريقهم
مدعي
يطيل
والكاف
يدعوا
البروتينات
وناد
##راكم
##درى
اللعن
يفوق
وغالب
##ون؟
بالعتق
المقيمين
مولاة
فرسخ
فاحش
##غد
والتنمية
بالطريق
أوهايو
صامت
اللحن
عمله،
المدفوع
والسلاح
انتصر
المسيب،
نبذ
ونسأل
المجل
##يبس
انتهوا
هاذا
وتنظيم
بوقوع
معتبرا
باص
الغدر
تعبدوا
لامت
##زمان
وقصة
##من،
##بنه
يعل
يحشر
فنز
تحضر
##يهود
الفتاح
منقطعا
أفع
الوريد
عميد
المستق
لإصلاح
عهدهم
##اخذة
##لكترونات
الطفولة
حذافة
المصيصي
وإيتاء
لأش
المكونات
الانتظار
بالصفة
وظيف
غرناطة
حظا
الموالية
اللائق
البلاط
أشباه
التعميم
الاربعة
تبحث
زبر
##ثلي
والصلح
##ائبين
يرثه
بمشيئته
للشر
ركنا
زمي
المقل
وأمان
مصنفات
مبينة
ووهم
الرف
الدرك
متواض
المعمر
الأسفار
بشرى
فأتت
أظفار
سلبية
فيه؛
##يمانهم
مضارع
الوثنية
توقفت
يما
التيسير
بالري
الصوري
صحية
خراسان،
الأشاعرة
لسوء
الحضاري
مرسوم
داعيا
بوز
يرع
صحيحة،
قبضته
لفقد
وجهل
عادات
رفعها
معتد
زرعة،
رسلنا
دأ
والوقف
بالكتابة
هبته
##البه
والحي
مجتمعة
##قبلها
ألفاظه
السفاح
الزيدية
يأجوج
افترى
وبج
فتفرق
تسعا
رأيي
##يلاد
يقص
ومقد
تبق
ترسل
ووسط
الداري
والجار
فجعلها
شاء،
طهران
تسلسل
ووع
للمك
أجلا
خلفية
بأصبهان
لولد
##يمات
##وفوا
أبكي
حبان،
المرسلة
بسيف
يها
أنفذ
فاغت
والآخرين
جامعه
التغييرات
الزعفراني
ذكاة
التبري
العقدي
بالحجاز
وضمان
خاصية
رسلا
دمياط
فرضها
ودينه
داوود
##قدمين
يصرفه
لقريش
المكسي
النفقات
وليد
ببساطة
تمنح
،وال
خاب
##نزل
##يض
التزوج
بإضافة
الحاسب
المجردة
##لفوا
لكم،
مرتين،
امتثال
نافذة
منزه
الكار
قلبها
أجزائه
قضائه
بمشيئة
تيس
والاد
أمضى
ونزع
الحيوانية
الأموال،
جاهلي
قرارا
تسميتها
ليشمل
الخوض
عمره،
والبرد
فالث
قبري
##فاعله
##سكرات
صبغ
لخال
ندعو
الأعين
فأثبت
ليأ
بجن
السرح
وتسم
وتفا
النائ
والشهداء
بالأخ
الترمذي،
الذكر،
بوصفه
الرموز
أديب
##ذاه
يعينه
حلفه
كسرت
إشعار
مسؤولا
##قطا
حسبك
الفيلسوف
عشيرة
سواك
والحركة
فاتت
وحاول
تفصيلا
بالشيخ
ومض
حقا،
تلقت
يبيعها
مديرا
آجر
جولة
كليات
ستار
لسبع
تثير
نحب
##شستر
##ارقه
ليقت
ورمى
##جمل
##غراق
##يتها،
لحرب
منعوا
امرأة،
تواصل
بدعاء
يكرم
ضلالا
أطلع
طائف
الملاح
التغل
ليقوم
للأمير
ووجوه
يحزنون
طفي
الإبداع
الخالية
ولزوم
المعنية
##ناهى
الشيء،
الاحتفاظ
مأذون
الوضوء،
للخلق
##وجيهات
بالبعث
حاجا
الإقناع
مسألتنا
إزالته
##ثناة
والأوجه
يذهبون
شوكة
بالنهي
##بورا
للفي
الرابط
##باحته
الحملات
ومرض
العجائب
##نجي
وحرك
المحرم،
المروي
معاهد
تحذير
يسهم
التكلفة
مقرر
لسنا
##تداء
إذاعة
التعريض
أساسيا
تيمور
الانقلاب
أشراط
المغول
وتعلق
مقاما
وشهدت
##رامي
الطوفان
اختصارا
شاءوا
الكهنة
المستعمرات
الجلي
للقب
##افير
فأبوا
##كانية
أدبر
مشروط
اختر
الميكر
أقواله
الندوة
ران
زب
ودعاء
فيقبل
الحقد
أرزاق
إعجاب
فرارا
ماس
وأئمة
متخصصة
سيادة
##باتها
الشاميين
بوادي
الإشراك
أطل
تقابل
المصانع
والدولة
صيحة
ينتظرون
مضاعفة
شربة
رأيتك
صلاته،
توليد
##وارح
الحسبة
##ادتهم
##يدون
##تيني
ايوب
##عاقة
استراتيجية
كالذين
والصغير
الطائفي
تقص
تنطق
مستثنى
##وديوم
##وابت
وحكمة
موصوفا
سكين
عنف
الخيام
يعجبه
أمارة
الراحل
ديز
زبد
وخت
يوش
##ألكم
##انق
##ين؛
موقفه
فلقيت
بالإنسان
يتعد
الخرطوم
السعودية،
استطاعوا
الرأسمالية
وإحدى
والعافية
مؤكد
أرضعت
أمورهم
الحبة
##امله
حمدا
تجدوا
الاربع
مضطرب
والرفع
بالحر
للمشاركة
تسافر
المحاصيل
المرابط
قضاؤه
عاف
فندق
والاق
والصبي
أثواب
يبول
مضطر
زكرياء
إقطاع
لعا
##أرة
##خبين
المروة
المديون
الأجن
وعمرة
بمي
العجي
منفرد
المذي
وبغض
وإكمال
##صيلها
اللفظ،
واضرب
##حاقه
والعفو
يشكو
اتبعه
نقصه
والمرت
عواقب
##طائه
فيظهر
غيرت
##سيوم
نسخه
الإكثار
أنعمت
نأ
بحركة
ملكوت
بالأدلة
الديك
فطلقها
تسل
الطمع
النسوية
اختارت
إحضار
مواضعه
دوما
عيار
##بابي
##رق،
رددت
والقصاص
ثروة
هاني
المصح
فرقد
برشلونة
يضرهم
وظنوا
محبا
الخطط
الجزئية
والغسل
قطيعة
وتقبل
##رقون
للشركة
أ،
وإرادة
نبيك
غنائم
فسل
##كوب
يستحل
محلي
البدو
الحاكم،
المضمضة
الطالبين
وسلم؛
نفسي،
حرجا
عاجزا
حليم
بالخي
وذبح
مكرها
مقدمته
خاتما
##كوس
والطعام
يرضي
المعادلة
تسن
تغل
فعا
##بلت
##كنها
##ضيض
##لبها
والأنبياء
النجف
نرد
الاول،
##صفية
توبي
كيان
يمنعون
أسفله
خبيرا
المنفصل
المنصوب
تحكيم
الأعوام
أستغفر
المجرور
يخلط
منامه
معدي
##لوكم
الاخير
استبعاد
لوحظ
مزاج
إعمال
قفل
##جج
منير
##انوس
الرماد
##كتشاف
المستمرة
ينازع
تلقاه
##نوت
السعة
خما
##ابض
وأحكم
بظهر
صلت
بتركه
##ذر،
المحتلة
أبعاد
اطلعت
والوسط
لعلة
##للنا
أخره
لنف
##ائده
للشار
##دمت
كالر
الاستسلام
والمشركين
نسيئة
مترجم
تقربوا
المدخول
قرين
بأس،
الرمادي
تأتيهم
فأحضر
،ف
أخوات
ويعرض
جده،
زجاج
كاز
لضرب
فيط
بجيش
لفوات
ألقاها
ووسائل
جلوسا
نيران
الخيرة
يكلمه
مرتب
آثارها
ثقافية
خصوصية
سوم
ضريبة
وربع
وحجاج
قلبا
مقدور
شبهه
تعرفه
##مدت
التراجم
غزاة
الرهبان
وأسقط
الوسطى،
يهدى
ابنتها
##يناها
المقبوض
وينتهي
خصومة
انحراف
موجه
والوج
##معن
الوع
الناقص
طالوت
شئون
تحصى
الأهلي
تميم،
ذهن
الحلة
##رفات
يتيم
##تابة
وبلغني
وكتابه
الإفك
البكالوريوس
نكر
##حوط
والنسب
كسرة
موقعا
بعلة
أتدري
تغلي
البشرى
وحكمته
##ادون
يتخير
تحديث
دخلا
يخرجها
العمران
والفرس
إكرام
تقضى
وخوف
تشغل
سواه،
ماركس
وأربعمائة،
الفلسفية
الرأى
باجت
##راخ
وأمسك
القشرة
##قاس
ولأجل
بلى،
والطا
الأضاحي
##بوغ
أطف
والرأي
الكنا
ينبع
البيضة
##عب،
فارسا
مبحث
المفيدة
تنفق
سرقت
أخطأت
بذنب
وتختلف
الزانية
الغازي
أسأله
الأنباء
المستحب
السيئ
إصبع
دائر
وأدعية
الناطق
##واتب
بتر
ساعدت
##لخص
ويلز
الاحرام
شعاع
والراف
الأساطير
بالعرف
قحطان
وطي
الزراعي
فحيث
لقتل
وألزم
##فاية
متطلبات
##وابق
اجتناب
ويؤكد
المكتبات
فسمعته
تواتر
المود
##هم؟
الاكثر
وصيا
تؤدى
إفراز
حملك
امرىء
اختل
امتد
زح
لبط
التداوي
وثب
ساكت
فشد
وضر
وكثرت
اللعنة
قوموا
دخان
المبالغ
لأص
وخلاف
معاذا
##يوبيا
##غازي
##قاقير
الاسماء
المقامات
حينا
تعقد
علمك
يطيب
قصته
فقتلوه
الدرب
ومراده
فالمس
قبضت
المطبوعات
##سهم
ويجلس
يتأمل
والدتها
##صاديا
بشرطه
يحضره
وتقديره
تخفيفا
الرئاسية
فخير
قضاه
##الفا
للولد
فتزوجها
حيضة
شهر،
ألقت
الأمعاء
الرئة
فاكهة
لرواية
مؤقتة
##موك
الحصاد
مدحه
والخمر
التحصيل
لفظي
مضادة
مسيرته
التساوي
المعطي
منحت
بالمي
وأرد
##ودت
ومجموعة
مستهل
تمرد
استعملت
حارة
هبت
يضاعف
بأشياء
##صباء
بطرف
تقلد
الافتراض
فأتا
المعير
بخارى
الاندلس
للعقل
ومنطقة
والفقر
الكتاني
متاب
الحام
الكور
##وزه
لأهلها
##جدية
دونك
باتت
المأمومين
خليف
اليهم
احتجوا
##سابق
المفوض
والغر
إليزابيث
الأدب،
منافاة
الداني
الإجزاء
عدمها
لطائف
مفيدا
بهؤلاء
يستهز
حقك
ويقسم
الزرقاني
بعبارة
حابس
غريم
الرقاع
الفجور
بالجهاد
حسرة
الأكبر،
الخاف
القبلة،
يرونه
أعمالا
فداك
##مالة
مادام
الخاتمة
المشكل
رووا
الشبكات
طوق
##زويج
الألواح
العبادي
الجسيمات
استثمار
المجمل
خلقناكم
ظنك
غدوة
أبرزها
للتأكيد
حلها
عداد
جذيمة
كمد
إبط
##كارى
محتملة
الغربيين
البروتستانتية
القوار
##وموس
الدواد
الذكاة
يعكس
##علب
استند
الغنية
والإد
بالترك
جندل
التضحية
##كم؟
الفلكية
الينا
بهد
أصي
##عبارة
يلونهم
أجلس
##وله،
الزوا
لأربع
أثم
المفاوضات
أزواجهن
الشحم
وتوقف
وبحر
السنوية
المساعدات
موقعه
التوقيت
استحقاقه
البهجة
##خون
##غلت
والبه
##جددة
اقترب
محمية
يفترون
يزوجها
يستمعون
كتبوا
وتسعمائة
ماؤه
يجزيه
لمنظمة
الألفية
أموره
إصاب
وأحا
فالمت
الميت،
ملازمة
الانسحاب
أبعث
تاي
ساه
##ثة،
عدول
عضوية
اكتفاء
لأمره
حياتنا
المريخ
غفار
##غلاق
##يمها
للقتل
يدوم
##ديد،
الأشباه
كرك
##سامة
##جده
الموجه
وعقب
وبار
##قتصاد
إليهن
يصنف
بزوال
المتعارف
إين
بمل
يهل
ولايات
المعمارية
وحساب
##رادى
المحارب
اسمك
مضاربة
عبدالله،
المتنوعة
ومروان
الأندلس،
ذنوبكم
##قرت
المصل
بالقل
##ودوا
القتل،
##ناعات
يضبط
عاتقه
بزيارة
قعر
ببعضها
وتدبير
إرساله
رفق
ماز
ومجال
##سبت
استيلاء
وسعه
اتباعا
والطبري
الثلثان
النطفة
بألسن
التحدث
أعود
ولكننا
احتراز
بسعر
مهند
##ليح
السمو
الرداء
مستد
وثياب
ماء،
وفرس
كآ
الرخاء
والمخط
والدخول
تير
ديل
##ؤول
##باذ
للإع
الفحول
تفوت
الأولمبية
نهب
أولهم
للجز
غيرنا
تمثال
العلماني
لقبه
أبدل
الاسلام،
بانه
دبره
مقطع
##زاله
وليسوا
تصرفات
فصيح
والضعف
الكفن
وحركة
للقلب
واشترى
مسيحية
عمري
ومعمر
عتقت
تركب
بفتحها
صاروخ
صنعوا
تزويجها
نحت
الرضي
غيرة
وملا
اكتشفت
شقيقة
وأكمل
فقعد
وسعت
المجيء
همة
انفسخ
عميس
أدرج
التبعية
بقدرة
##وضه
فتوفي
##شايخ
مجنونا
##ابقات
السمس
بأمان
فمنه
##بيهقي
الروافض
سمحت
بالفضل
##ثمر
وتجاوز
##لت،
الطح
راغ
يلزمهم
فراغه
وناب
##برون
بأخبار
##نعوا
فاصبر
##سية،
المبنية
الإقبال
ووحد
##اشع
يجتمعان
الامتحان
الكسرة
يهدم
مؤقتا
آلاء
مخص
بالأع
يغادر
الرأس،
وحينما
فذبح
الحديثة،
الضياع
مضغة
حركته
بطي
وشيء
وتوا
واوا
##كتوراه
جعلا
وغا
نقرأ
المفاصل
حسي
##حيت
لتبين
الانصراف
وأهلي
سافرت
##بار،
##نبى
ومسألة
مدرسا
دقيقا
بتغيير
العلمية،
بغلة
وعندنا
البصرية
بالعهد
مجموعه
أبه
فولي
فيصبح
فتركه
القيصر
ويرضى
محاضرة
صواريخ
أمثل
محضة
فعله،
فكشف
عادتها
إزاره
درة
وجبل
وإنشاء
إبراء
وللإ
الناصح
خالفت
لفظها
##وذة
##قضوا
خبي
يستغني
عبثا
مذهبا
الشمسي
تاركا
والخلاصة
برف
المرام
يصيح
البر،
الحكومي
دوران
الواقعية
الصادقة
الزمنية
بروتوكول
##شال
فيضرب
المدلول
احتلت
##بايعه
وزياد
عصور
موف
##خلوها
لأعمال
المساجد،
وليكن
تأويلا
والإجارة
الإيقاع
والخطاب
##ونة،
ومخرج
والثلاثة
فسبحان
عهود
فيذكر
القوق
للظ
البلوى
##تيانه
أفأ
تخزين
مخلوقا
أعطاهم
رشي
##مبراطورية
##ليج
أعلا
يأيها
والكفار
مأكول
##وراق
والذب
أوزار
##باكات
وترب
وخاص
النسفي
ترجمه
حجت
واللح
##ولدة
الاحمر
اليشك
والمنسوخ
بالواجب
فالاست
يان
##تيح
نقف
مهرا
للدراسات
الفقهي
وقليل
يسرع
##خانية
الأبنية
السقاء
فتصدق
اعتاد
دعاني
العلوم،
اذكروا
القف
لبست
يصنعون
الاحتجاجات
فولى
كورة
الحوير
الجولة
وضلال
##مائها
##ونز
##ولاها
المقدرة
ببطن
##رخاء
الباطل،
ميراثه
المندوب
والني
استحسن
رأيتها
الجانبية
نعد
##ريما
الطلا
حيضا
فرضية
معدودة
الموجات
يفعلها
لوم
التآ
التواريخ
لتحرير
الضرو
بالتزام
أنتج
المروذي
تسيطر
##ظالمين
وولاه
للبلدة
وسلمة
سيطرت
حكمنا
عفير
الزمن،
الصغائر
الانتخابية
والهد
الأملاك
منتدى
معتدل
عنترة
ارم
سداد
فاجر
قين
يعتم
وإضافة
بنين
التائب
فتصير
وطاعته
عظمت
حوائ
كوت
##كش
الأدوار
مقاعد
سلبه
أسقطت
المفسدين
عظيما،
وتمامه
مدبرا
أنكرت
##وكله
والغناء
امتصاص
ادريس
فهن
تنج
مغم
واتصل
الكوا
علمته
أفضل،
##اثية
يقرون
الممتدة
القفا
##وبوا
تطبق
السفير
يبتغون
الفلاحين
ضريح
أوقية
ومكث
اعترفت
ضربات
يقدمون
سلفا
جسما
أصواتهم
روك
لقمة
قصبة
والزهد
وثلثمائة
لبيع
التذك
##حملها
السائلة
ويستثنى
بضاعة
ضاح
لونها
وأبيه
تفكير
للسائل
دحيم
عوق
أنطاكية
فعلة
اعتدى
أعطني
الأعاجم
الفشل
ويكت
##لوفة
بكف
البيزنطية
دانيال
##ضاب
بالما
الصريحة
حاله،
المتأخرة
للسر
بغسل
وعمران
الجاهلي
أسرته
واي
يجزم
بالعديد
أرسطو
الشرقية،
هاشم،
الخطيئة
##وبرا
حملات
##ليمات
وتميز
مال،
أخبرته
##دتين
جموع
خيال
وادع
الرحيل
تفلحون
صابر
طهارته
##ضارب
وتفصيل
انى
علمني
سرك
صورا
كفيل
الكندية
##يبين
##جبين
أقمت
##وتهن
بثبوت
مأمورا
مادي
وإنكار
النافعة
تكساس
المواشي
غاد
بالهاء
وأحر
استعان
المعدات
محذوف،
فريدة
وإخوان
العذب
الحسي
##ولا،
والها
فقصد
وزك
لحساب
مختارا
الحرم،
الزواج،
مسبقا
نحتاج
##عوبة
بالور
البتر
##تموهن
المستحاضة
مصم
معرضون
كرامات
وتجد
محضا
ذاتي
كبشة
المعمول
##ارون
ويخت
متخصص
##دعون
البرز
جمعهم
يرحمك
فارجع
الأغر
رجحه
برئت
يبخل
لحاجته
نفت
بالمصدر
زوجك
ووفاته
التحمل
لاجتماع
المحس
تدعوا
فالحاصل
ظبيان
للحر
ويفهم
بصنع
المرئي
ذكري
مركبا
جعدة
الفوضى
سنقر
لديك
وتركها
التابوت
فاروق
كنه
لومة
الشهري
متنه
يلد
وتتبع
واليقين
ليلته
الحليب
القهر
بأجر
##فاحشة
زكي
المنى
الحضرة
وتوق
قرص
بسام
بهمزة
عادتهم
الغيوب
والاجتماع
فنهى
المغيرة،
والزوجة
بالقد
بالسين
تؤكل
إيمانكم
تقييده
سادسا
مجردة
الفصاحة
النقيض
الأخص
وجر
فأسر
كالمع
تركتها
##جار،
نقضه
مختصة
يضربون
لآية
صغره
فأظهر
ونبه
##زاحم
الصالحون
ورأوا
اللوحة
وارتفع
الثمرات
شفيع
##تز
##يلندا
حبيب،
سهولة
جوامع
الشحنة
الكاذبة
بالاج
الطبا
المؤجل
المدافع
والدواب
العجمي
العذراء
سلاما
##يبها
فتحا
الأصولية
يعدو
أحكامها
##كمات
##هاة
بالوضوء
تعويض
يتطهر
وشا
تهلك
وسلامة
بالضمان
آس
يئس
تعادل
جزية
##زايدة
الإشعا
توال
الحاصلة
والمشي
مسخ
الأمري
وثانيها
يحملها
تكرير
وقضيته
##ثيق
##غته
العطية
التوتر
##ديقا
##مسة
المسودة
مهج
مقتضاه
آلاف،
الاشعث
مسئول
جنت
قه
وراح
الأودي
الجدران
##عمري
يناله
يسلط
##طلبة
أشجع
الأعذار
يكسب
تلمسان
سويسرا
بقاع
التلو
بالكل
معالج
الآيتان
المصارف
جدير
يضطر
الحصون
##اباة
الطرد
متميزة
حالية
نزولها
##باني
الصفي
للبي
وعما
العنبر
بالفضة
رافعا
وثالثها
برجال
زانية
ولام
بالخاء
شاذة
المخصصة
##ائين
والأولاد
بالتقوى
##نبور
رأيتني
الاتجاهات
احتياج
الغل
##وانئ
المشرفة
القائمين
هاجم
فراسخ
بالجن
عنهن
سيره
الاصبهاني
بالابتداء
متزايد
أشبهه
كاثولي
العشق
وعلو
تستند
كافرين
محفوظا
خالي
البشير
الزبد
بأحوال
مخنف
البطالة
عديدة،
أغير
والمأ
والشاهد
موحد
حذو
نبأنا
لفساد
##فنا
المطي
##يتر
##ردن
وعندهم
الأيام،
وتأثير
ناسخ
المتعاقدين
الوراثة
وضيق
التحكيم
راجعة
لقبول
بصحته
ذاق
يضح
والاج
التروية
مسبو
فسئل
الجنايات
قسطنطين
الصهاينة
متكلما
وسبعمائة،
بائعه
نموذجا
ورت
##أين
فيلي
الموات
العنان
الرازق
وينسب
لحمها
##ضمي
##غنية
بنصر
باشت
لحزب
للإي
زائدة،
والتكبير
المهدى
الجني
أصبع
بشع
شبابه
وسرعة
وغي
المورث
والبلد
الآبق
ودنيا
فرقت
وداع
##راقه
##بوذ
الإحصاء
والعرف
##وطا
##ائرين
التعويض
مضار
ولقي
العاص،
المحيض
والارت
وعت
استمع
المتطوع
وقاموا
الأبو
الكاري
وتغيير
فأصلح
المطعم
الموقعين
تحققت
##نيعة
##شيه
نسائكم
وشه
الاقتراح
الخصوصية
ويعتمد
مخطوطة
طغ
بالجد
النديم
تحذف
مقرونا
المحلة
أربابا
جنابة
العنزي
الكفارات
للمعنى
تتأثر
أسقف
يثبتون
فشبه
ومحاولة
فتجد
تصلى
المساهمة
اصل
وتوفير
بعضهما
يدى
تنوع
والقوم
تفريع
للحركة
بقيام
المزاج
نازل
##ذائف
دوس
##دامات
فنقل
##جازات
تقديمها
التحقيقات
والقرى
تحسبن
وأظنه
الجدة
فأردت
فالبيع
السندي
الصغير،
ثوبين
وباي
الجوزاء
الاكتشاف
المتف
##ريقه
وشمالا
عجزت
لحمل
السلبي
أشكر
أبق
إبلا
أقضي
المغضوب
يعتذر
البصيرة
الفاصل
الأهواز
السبعينيات
دأب
##خارف
معونة
##بت،
وانتشار
مندة
التسا
النصي
كلامه،
اشتدت
مواهب
امرأتك
الأكثرون
##عداوة
جدران
##سلها
##الط
##ريقية،
والبراء
وأمكن
رئيسيا
التفات
فيتنام
فأعطى
تقتصر
يضحي
وصدقه
إزاء
اطمأن
الاستاذ
انتخ
السموم
موتا
دبل
ملاك
##قلاب
ومسند
##حادي
وراءها
سلطات
نهائيا
الخوارزمي
شجع
ينجو
المشرف
ورغب
تفكر
والمرض
خروجها
وابراهيم
أستاذا
الاستغناء
حدي
معتمدا
فتاب
البرازي
والعلاج
الإنزال
لإجراء
الخيول
يموتون
يلعبون
محذورة
ضغ
وعطف
فترى
##متعة
بالجامعة
قحافة
##جعه
اللف
الميسر
مشارق
ترمي
موتي
سابور
القطان،
يراعى
الأليم
النبأ
##ضييق
وبالح
بأش
##نسوة
أتدرون
المهملة،
لتنظيم
بضرورة
النادرة
لكنا
##طارد
الغربي،
ضاقت
زهد
البنا
أبيهم
النوم،
حذفه
توي
المؤدي
أدوار
لنفي
مكش
المحمول
المحدودة
لاهل
عمليا
##ضمين
الستينيات
اعتبارها
رائد
غاص
##امح
مادية
##ائل،
المغنى
منقذ
لحر
##اوي
##صلات
فتد
ويلبس
عزيزا
إعدام
##اهرت
##عمان
والدفاع
مريم،
##طلاحا
أوامره
بنفسي
الاختبارات
فحملت
المحاربين
عمت
والمثبت
المنايا
رمزا
قصرا
جاع
عهدة
أوك
بأصحاب
الفتوحات
بوك
جمة
حور
تقوله
##وصوف
##جمية
المعتدل
بركعة
الدواوين
متابع
والاع
والامت
فأهلك
محاكمة
الشمالية،
فيؤخذ
موجهة
وتقر
ومجلس
يسقي
وانتق
##طاوي
بشرية
الصفدي
المملوكة
##كانيات
##عارا
الآونة
أتبعه
أرضهم
##ضطرار
حصاة
سمو
يستجاب
بقائه
##ناهي
الصفراء
الشعبي،
الصالحين،
تفعله
##طباعة
بالصدقة
لتوفير
أغلظ
بالرسول
القلعة،
إعت
##هاي
الشاطئ
وتفر
##رسات
##يقاف
الإعلامي
هاجروا
وجزء
الاثنان
والشرق
ومقر
##فاها
##تبط
عبلة
الانضمام
تشر
لوقت
تجريد
الدستوائي
تميزت
للسيوطي
المحاملي
اثبت
الروابط
يلبي
الأشعار
الشعائر
لغيرها
##ائلهم
الشجاع
تأثيرات
الحلقات
##السيوم
تذر
هاب
والافت
العديدة
الرجلان
للدار
الامتثال
نفذت
أدعيةطباعة
بصدقة
الفريد
فأولى
استحل
والكفارة
الثمن،
السلف،
رخ
الجيران
فاخرج
سعيدا
والساب
كفاه
زاهر
فلبس
المكونة
##لازل
وأصدق
##فسكي
المعسر
##طياد
اشتري
وتنفيذ
والخزرج
تدين
قاع
المكون
والتط
فحج
حمارا
هندسة
رداءه
المناظرة
الأخطل
الملحق
مزيج
ضروب
وقذف
للشك
بتب
##بطا
يعقوب،
ثوبي
الردى
متسا
وأنثى
فأنى
يسمونها
فالمقصود
تخصيصه
ماهية
منحة
##كان،
يزا
تطيب
الخلافات
تمامه
##واخر
القرامطة
لأد
امرأت
##رشيد
تعترف
قابلا
ونهيه
دوق
طيران
##معة
الشخير
الرفي
للعباد
وطبع
##شاشة
سألوه
جزيئات
الزبرقان
قرق
##وين،
##زيا
وعمارة
##شتم
اقتدى
للرئيس
مرجح
الهالك
بصرف
التشريح
منعهم
عوام
##رافيل
الثنائية
الجدال
واشربوا
الهولندية
للمرتهن
مبعوث
يقذف
ويمر
داخله
خلقة
والمعاني
شقه
المصطلق
مصرا
المناظر
والدال
حبست
المطهرة
إسب
والوث
بالاس
##روب،
بعق
الآلية
ومابعد
فليأت
وتعقبه
الأزمان
الإسراف
وتحول
تهب
أدائها
تشكرون
للعقد
التفريط
منسوبة
ثقب
##حداد
للولي
تعكس
أحدثه
وسلك
زوجات
المواضيع
##يرهم
##ياهم
انفصال
فالوجه
المحطة
هاربا
بيوتا
أعطاك
##درائية
بعضهم،
أصالة
القبور،
واسأل
عدي،
فوص
الفحشاء
وتذهب
وجهاد
حقبة
بنتا
تعددت
فاستقبل
ربكما
رقة
##ثورة
البطاقة
متميز
للمساعدة
##شكلة
يلقون
إخباره
غلو
الاله
والترهيب
ورخص
القصيم
وصحب
ثقيلة
حذرا
قاتلهم
استنباط
أنواعا
تمضي
أحلف
بالدراهم
يتعارض
الصومال
فأصبحوا
##راك،
##ته؛
الشاي
##ودون
وبري
المسكن
مصانع
##سابا
مزينة
الزركلي
أقاويل
##وعت
السرج
##حيق
ونصح
وفات
ورمي
المعتادة
البحتري
ائذن
رمت
وبرع
شرعا،
تعبيره
معطوفا
نيكولا
سادات
فكف
وابى
مضيق
وأبرز
الفسطاط
لأخي
كاله
فاستغفر
فدعاه
أطباء
ويتكلم
بتنفيذ
فيضع
النميري
أفادت
إخفاء
كوين
والوص
يحفر
والسكر
لكمال
سمعة
ساروا
وارثا
ضروريا
كنية
وفاته،
مزية
جنسية
السادات
الغرباء
حقيقيا
دمع
##ضمان
أبوي
والمقام
هيبة
ومعنا
والمعا
الإساءة
الاسم،
توات
المئ
الطمأنينة
المتواتر
الخزاز
فوجدوا
للآية
##قيا
المنقطع
##كاي
##وح،
إلخ،
يظهرون
انصرفوا
##بورغ
فانظروا
يبتدئ
##جيد
ومنكم
وصلها
ووصلت
أستاذه
قدرات
للموا
ودراسة
يأتيها
مشتمل
وماتت
وعملت
أدرى
السياسية،
محمل
##شوش
التحويل
ماعز
للنف
فالب
##وائق
المنتشرة
فيشترط
والكمال
معها،
بمضي
فعبر
نصرا
وقاتلوا
مفص
##ومأ
وبينا
القرء
والشك
اشتمال
الوجهان
العيال
يفقهون
إسطنبول
نير
تعتق
##كنز
بصدد
جرجان
غان
##خنة
##امسة
الشفع
وحسين
##راتيجيات
أعتقت
أنذر
وزع
الفاضلة
والار
الحبال
##قاها
يستشهد
نوعها
البشرية،
الرسل،
الفاسقين
وعرضها
أضحية
##جعة
##ينز
وتوزيع
وجهان،
لنقص
مساويا
وسيف
المحتوى
##ضاد
##يفه
للمق
مستخد
سنتي
الحدائق
شأنك
الأوروبيين
فتاويه
##ذوق
للعام
##يابي
يشهدوا
متقارب
ساجد
فاب
مجالا
البيئي
والده،
فصعد
تناز
الداخلة
جونسون
سارق
هاري
باللع
بالنيات
يقرع
الثل
أحال
ناجي
وثمود
أهواءهم
بادية
الجذا
اعتد
فأعاد
الثمانينيات
إبدال
رث
##تباع
وكذ
أخفى
مثلكم
انتشارا
محمولة
الرسالة،
فقدمت
وضوئه
بئرا
فبات
لإنسان
##مح
والسا
##كروس
معقدة
##مامته
المجتبى
الأخوات
وقعوا
الرياسة
لتأكيد
نكاحا
وكعب
##لوبين
ولزمه
لإخوان
إهلاك
فابن
نعود
القهار
##بوله
فعليها
المنتظم
غنمه
ونفى
يستحي
تهدي
ذبحها
وفعلا
المقصودة
وثانيهما
تختار
بينات
والحجاز
برحمة
يغتر
الجزع
وحملت
يصيبهم
الماهية
بأربعين
لحكمة
والطواف
أبدى
الخسارة
موكله
وقوته
الطاع
القدوري
المزمل
دعواهم
مزدلفة
والمرسلين
نحا
ورفعه
تنظم
وطني
توظيف
لبعد
المجلس،
تركوه
يلعن
حاجز
إعانة
والغرض
وأهلك
##كبات
##لق،
##زاما
النباتية
بجا
##اليات
العرس
##ربته
##سميه
فتخ
المصورة
والكلب
لبنان،
جائز،
لتعزيز
وتضمن
اندلعت
الزهرة
##ديمقراطية
بسقوط
الشعار
الحاجة،
الصدمة
تلفزي
احتيج
مجردا
نحمده
مقامات
وأجازه
قوص
وخلص
منة
آخره،
التقاء
حريز
بلت
بوال
يورو
##فارا
##صرنا
##فتر
قتلتم
المذكورة،
آلهتهم
الصاروخ
السول،
يعهد
المتواترة
للموكل
الرشوة
ضالة
غنام
أعور
مدافع
بالإحسان
الحبشي
وواحدة
##هت
للبيان
الإفتاء
كلين
##قاويل
وسرعان
##جزئة
بالكثير
لصاحبها
متساوي
يستأ
أحرار
المصنوع
امرأتين
بالهمز
أنواعه
نقم
يبارك
وجه،
لأست
وشعيب
##واعق
المصرى
اذن
مرم
المفارقة
أنور
##ولندا
التذكرة
القهوة
بهي
##ضايق
فتخرج
وصولا
سنجر
ستان
##تقار
لإخراج
يكتسب
المائتين
تلاميذ
بنقد
قتلة
نفهم
المنزلية
العصاة
الخريف
الغلمان
بياء
نترك
ريحه
التدخين
استدراك
متقاربة
العزلة
بالعا
استدعاء
والإناث
##أسف
أجرت
##بايعون
يهن
والبق
مصاف
فصيام
شئنا
الرطوبة
##زية،
ماشية
وعمه
##ملوا
##انيا،
التكلف
خلوة
الخث
عاين
يحتمله
صحابة
وغض
سهمه
وضربه
زواله
يسيطر
فوصف
وشبهه
جلالة
##لكية
الجيدة
##روسة
ومكر
المسروق
والصيد
والاعتبار
نبيذ
ضبة
والمجاز
دمها
ضربها
الملتزم
وميك
طوافه
مملكته
أطيعوا
تذكير
صاف
موليا
نقت
يبع
الرمال
الكلى
وتأخذ
##ويع
الأسف
ينتسب
وحقق
فوالذي
الشطرنج
فيبطل
##رسي
ثمرات
يستس
بماذا
تكمن
انتفع
نعمتي
قدمته
بالنقل
ترجي
فنزلوا
رئا
الموز
يقنع
أشع
موسوعة
بجواب
لانقطاع
الإفادة
أعتقها
المتظاهرين
لقر
اشتقاق
وأعطي
ذاكرة
مكروهة
المرسوم
بهذا،
حرمها
أطلقوا
خفيفا
البخيل
كفة
ذكرك
أنشأها
الدعاوى
يقابله
نأكل
الأحمد
##يدز
##وعات
يستخلف
جعلوه
والصرف
والباب
##صارات
صورتها
تراكم
خالفهم
خميس
البخار
أدق
صيامه
خبزا
ليحصل
##يلت
أكلم
بالأسباب
زوجت
التشابه
فطاف
رشدا
##ضة،
العصيان
##ثر،
##جداد
بحل
بشارة
زيارته
أكانت
عصي
لوارث
قتل،
صلينا
نهاه
الموجة
خداش
جول
دالا
استماع
يعنيه
طيء
الزبيب
بالموصل
يشتبه
يمنعك
كيوم
الاشعري
فاقتتلوا
تلبية
وتمسك
الويل
##حاك،
النبوة،
والجمعة
انسان
كالمن
بالاضافة
الأمثل
يشاء،
كلامي
والشرف
برقوق
المحتال
المثنى،
جيو
الحقل
الرعا
فاتك
أحرى
أثلاثا
الحويرث
وتحقق
بأيد
يسود
عزا
##يامين
فكنا
المرتفعة
الدبلوماسية
كورت
##صاق
السمر
وسماع
وشركة
خبرها
بالغين
لثلاثة
مسيحي
منفردة
##ؤسسة
التخصصات
فشر
لاجل
السرط
ومالي
امتلاك
الثقات،
متعديا
وميزان
وبأنه
يؤتيه
لقراءة
التصغير
يتعبد
مجلز
صرفها
يفهمه
التجي
بالكر
##ياما
انج
وإسلام
المستخرج
جنسا
أدركته
تعرضوا
الإتلاف
بقراءتي
ثانية،
ومحدث
بالجهل
##خاذه
##نا؟
إنفاق
وعلة
ونون
والمف
الغشاء
احتجم
تفويض
المتأخرون
جهده
زوا
وحوالي
##وياء
فأرسلت
فاغ
الشهر،
خارجي
##روقة
فأث
ملكه،
##طاكي
عباده،
تثنية
الموث
وأريد
وصوابه
الانتداب
يبلغوا
خطبنا
بنوه
السالم
##نيم
أداه
قبالة
تطير
المؤقتة
بورك
برسالة
عراقي
##بكر
##جعا
اللصوص
وسبحان
وللش
##خاطر
ألقاب
وكرمه
تفسر
متف
المستحيل
وشراء
بالتف
المقذوف
التحري
الزوج،
جنوده
ندرك
يته
بالقرية
المستدل
وزار
واستقبل
##رابها
وعضو
المراكب
ولاي
##حولات
الاستعاذة
تقدمها
الدمياطي
بيانها
حلفاء
أردتم
أديبا
فتبسم
الأميرة
الباعث
لسائر
خاقان
##ظب
مؤلفه
خطابه
اعتقل
سعدان
لساني
والأمراء
حيوانا
سائلا
والإعلام
ريف
قوتها
لفتح
نحكم
وألمانيا
عليه؟
تعاد
##كاما
تجا
والسك
اختيارا
دارهم
نزعه
رأيتهم
كافرة
عجزه
التغابن
فالصحيح
إصب
غلمان
الفئات
وجاهدوا
مرضاة
بقدرته
العنصرية
السداد
المتون
##وانات
عزمت
التأثيرات
كلمت
فماتت
يبعثون
مخاطبة
اللقيط
##راوية
استلم
أتزوج
حرصا
والسلامة
##قوطة
يكتفى
عطش
فليتبوأ
يلقاه
والتحذير
لنه
وردان
بمرور
زاهدا
نقب
##حيا
وأرضا
تنفس
##دعوا
كذابا
##قابله
المبعوث
وتدخل
أعرب
نسوا
مهين
صرفا
الدهون
بربه
الأثناء
لموت
وكلوا
وتجوز
بشق
بالتش
تطليقة
بغا
الأقلام
المأكول
مرابحة
المراجعة
##سبير
الغزال
والعشر
قومنا
الصافي
يراعي
تميمة
عمته
قاموس
تراث
##وحي
##طاب
##همين
وياء
ويصلح
##كتين
##قصا
الفترة،
بالأح
فخالف
مبعث
##صبه
يسرا
والبلا
فرعية
مواصلة
قلوبهم،
الوطئ
ينعزل
لهيعة،
غمر
بدراهم
محركات
رأسهم
خلفي
هاتان
##ليني
##ذله
بالخص
المتد
لقياس
##وار،
السياحية
انقراض
والورع
نشا
ويوجه
بعلبك
وفارس
شاهدان
العنا
وتعود
ونال
المتدا
حاشيته
وغز
وهكذا،
بالبحر
يأمرون
أعمدة
المعلومة
يطأها
الزرقي
خيمة
مفارق
هكت
الأشياء،
العلائي
القلا
يعي
##ضلع
القاعد
وجودا
التنزيه
مرضية
التفكر
الكلأ
تدرون
مأذونا
كنع
لروسيا
عندئذ
##وضحه
بأنك
المسلمات
وغل
الغزوة
تؤمنون
الضيافة
فجميع
قومها
نظمت
الدولية،
آتاكم
موهب
##امرات
وجيه
فيهما،
وحذر
بحت
حفيد
##عيذ
ليزيد
##يكو
العذاب،
تفعلون
مائدة
ينهض
والتوكل
لأقل
ويميت
موجات
استئصال
فعليكم
خرد
##الحة
واللو
واختص
يتحرى
وحض
أسما
كتا
##سفان
المهارات
رائح
##ذهبن
معدوم
تشكلت
ونائب
دوي
والاز
وتما
المعنوية
##رقى
بحرا
المحنة
لقوا
خارجه
مناسبا
##ياحة
##طففين
لته
##بيله
الحارة
الكتيبة
الطباعة
المتبقية
نسبت
الكافرة
مستعمرة
بالحرم
يقصده
عقدها
##ذاق
ينفصل
##اطة
تخرجه
للناظر
الأصفهاني
وعشرا
##عملها
الأرضين
المدرب
للتفسير
وامرأته
شيكاغو
حجي
المراس
بطاعته
والخاص
ويستعمل
عبيده
شرفا
عطس
الفلكي
ستيفن
نسمة،
والنص
انتفاع
يقوموا
الأقضية
المستخدمين
##ذهل
ليبر
أكثم
فضح
##ونسو
سمير
##فاعته
الخصيب
ضيقة
وحفظه
ألبس
الغس
والاختيار
عينك
اليمين،
اصحابنا
دس
يتفاوت
زالوا
المعيار
للجدل
التتر
##كتهم
فيتعين
محمودا
قارن
عاتكة
ونستغفر
للسيطرة
##ديف
##كمان
ونفذ
قصاصا
العميق
المنة
الميناء
والضم
بشاة
شعرت
ذاكرا
##فاسد
##قاومة
لأف
بالقصر
ورسالة
بوابة
والمدارس
##شوست
الذبيحة
بأصحابه
والحفاظ
الإسقاط
ينفعك
السجون
بروك
للفنون
وإج
كالمس
اعتداء
الشرط،
المعتقدات
آذ
صرد
فيسلم
بالتسليم
فقها
تشويه
والثمن
تفصل
الأزهار
والهداية
أوليائه
مواليه
حشر
قواد
المتس
المكية
أخيه،
أسبابه
متعددة،
يعطون
والفل
يعزر
الطبيع
أخطب
وقدرة
المنفي
وقتنا
فمنعه
بالعفو
مواضعها
مستعملا
إرم
لقطة
##خرفة
ولص
تسجي
فضربت
ملق
جزئي
الذهب،
يستخدمون
احتياجات
أتلفه
##جزت
برزت
واختلفت
المحاضرات
النحو،
عريضة
##ثلت
والرسالة
الصن
أمتى
بحرب
الضال
مشاة
صدرك
بالحسن
ونحوها،
الأحلام
فرقوا
وأدب
##جرها
نتبع
تقريرا
إقناع
متفاوتة
الأرم
واخرج
ومراد
والتلف
للمنت
اقتحم
أنواعها
قياسه
هادوا
بالقب
الجفاف
يتاب
##كلوا
التأجيل
##مز
الموعود
السرد
للتد
عرفته
فحديث
استدلوا
بالجملة
القويم
القاهري
قدام
الزب
فتدبر
لإب
تين
منشأ
والسل
الرخ
واحدتها
أبطأ
بالمؤ
وصفات
يصفون
التغليظ
عاجلا
الفاحش
##حدار
مجاهدا
والعلة
الجمهور،
منزلي
مظلوما
الانفجار
حتم
الراد
##لكة،
فأست
مخد
ويتصدق
فسخه
غسلها
المنقولة
النفايات
يغتفر
خنزير
الشراح
وتصبح
جزئية
والقيم
الربوية
وحو
إساءة
هيثم
علميا
الاستهلاك
خرجا
##وازية
مكانه،
أعطاني
ثانيها
الإقت
##شيف
أدناه
##قاله
احتفظ
مواقيت
فأعجب
لصد
نرجع
بالمل
ماضي
ويكبر
أدوا
انتباه
فاستأذن
منكبيه
بفساد
عبق
الإر
بالنسب
يمنعها
باردة
ازدياد
والعز
بسائر
الأحسن
غزية
الصالحي
خادما
##افعين
وجحد
والعزى
واستبد
لقرب
##ريكه
لسيد
النهوض
تلاميذه
خضع
كوي
##فوف
##ودته
يعرب
##كس،
بصيام
يعتقده
ليا
وجدا
أخى
قصف
نعيش
##ذني
المرات
والزع
النعت
ليحكم
للتنمية
ويعبد
للقوم
##كملوا
وتلقى
الاجارة
مسطح
لأمير
فاقبل
أحص
رياضة
البولندي
بالولد
استؤ
متتابعين
المعالج
والأمانة
والتقدم
مواضيع
اسمعيل
يبادر
الليم
والمجموع
لأرجو
بي،
تخير
احتل
توعد
دراستها
النظير
حريصا
لعمرك
رحب
##فيا،
الإقطاع
وخيار
##فارد
تخي
وسقطت
مراكش
تلفظ
دواد
العث
متشابه
الباقر
##فضوا
موته،
الرحيم،
مؤمنون
زعمهم
المقتر
رغبته
فسبح
تورث
متغير
لتقدم
الخطيرة
وأقوى
تأخرت
المكسورة
أسبق
القذا
السمات
##ودور
والأحوال
التأبيد
بالاشتراك
والسرقة
معطوفة
النادر
استه
الاستهزاء
أباها
وسبح
الكفين
الصواب،
أسباط،
نما
السهر
لنفسها
بعباده
الرضع
استوت
##لبان
لبشر
برجله
والحرص
آذن
فسمى
الثنائي
الطم
بطانة
أبرهة
نحاس
وغفر
تقدما
بالوصف
تغييرات
فطال
اتضح
بالحجة
وعلمت
أوردها
حنا
الصقر
أسري
بيك
والثمار
واجب،
شربها
مركزية
الموصل،
مستأنفة
الفرنسية،
الاطلاق
يطمئن
وعادت
اكتسبت
مفلح
##ائلها
##قارات
ذاته،
يبقي
بالسلاح
أهمله
هداه
طهورا
يوقنون
السوط
عمرك
عمران،
للدراسة
سقت
التوص
معلى
الخطوات
يحكمون
أحرز
حارس
موفق
##غناط
##ريحا
يتخلص
الحكوم
مشركي
عثيمين
شوارع
الجزيئات
##ثمة
بالرياض
وههنا
تقبيل
الإبلاغ
شامة
اللائ
##روبة
يترجح
كرز
المحاولات
وبداية
الجويني
يلبسه
##سوة
أدراك
المشابهة
يضرك
بقلعة
ضن
والجه
عني،
نظاما
قسمه
العشائر
الأطفال،
استويا
فترد
##كيز
أيديهما
الملايين
استأجره
##كدة
##شية،
الكشي
##عيفه
زيدان
ولقب
حضروا
اليرموك
##راة،
##وردى
ليص
##حل،
لمعاوية
تسببت
سويا
لائم
مستور
والنذر
مهلا
والرغبة
اللفظي
اللامع
نشاطه
الأحوال،
الإل
العالمية،
##شتريه
راعي
والاستدلال
الجسم،
المهيمن
الوظيفية
للفرد
والخنزير
النجاسات
هجرته
انطلقوا
##حاف
##مرد
ولكنك
يشغله
بحري
أربعتهم
عقوبات
يقترن
اللمس
وضبطه
لاعتقاد
الهوائية
فعلية
##سل،
برده
اسكتلندا
طويلا،
ببي
عراة
لذات
مذكرة
وقنا
الجواري
أيس
مثناة
##قلان
جنسها
الاغتصاب
الأحيان،
لمصدر
الوصال
##ساكره
المسكر
والنظام
ومرت
يقصدون
نقاش
الممات
السالفة
وعزم
ليله
الرواية،
وأعجب
مسئولية
بولا
فرم
أنقص
مقالته
صدقة،
بطيب
كتائب
ضربته
يشترى
عصم
حسابه
مقابله
فنام
المؤمل
بصريح
الشرطية
فالمش
علمائنا
صادف
يطلقون
تأخيرها
العثمانية،
المهن
العقيق
معهود
معادلة
الطرس
##فاوض
مجيب
تزد
منتشرة
ناجحة
نابلس
العليا،
واتخذوا
لوزارة
##كونن
المعنوي
الشيعية
العبث
ورجعت
ورأسه
الياس
وأقيموا
الوفا
لتحقق
تدركه
والقرب
مطاب
الممتحنة
بالقاهرة،
صحاح
ظهار
##غمت
الذوق
الاخرة
ترغب
صوتها
ودخلوا
والتأخير
امير
والشيء
والأدلة
تطالب
والمنطق
قليل،
غلامه
نازع
حمران
أمشي
وعندها
جئتم
بليغ
##خر،
برسم
السابقون
وتمثل
كفيلا
كوب
الحرا
وعلامة
وخسر
##ناهج
مخطئ
انتظ
الشعثاء
سكينة
إبله
الأولوية
والإب
اسمي
وتعليق
مغرب
##واعظ
أعدائهم
التفاسير
الوليمة
كمه
##وشة
تجاري
المغت
قبلهما
مرفوعة
قبيحا
مسؤولي
فيجد
والوتر
##راجا
وتردد
والتشديد
عدالته
بحروف
اعتذر
حصان
أجرها
فوضعت
الأسترالية
السول
الخفا
ولرب
بشهوة
القولان
التطورات
رسوله،
##لاطون
الفرضية
لوحات
ورثه
تستلزم
نظروا
وخرجه
يعودون
ريبة
مبال
يدريك
مقصد
المطبعة
##جارب
يتيح
الأكرم
الكرا
وتلف
وبمن
محنة
تتلى
جهرا
المحاسبة
والمناطق
الدمام
اتصف
يتركوا
الأورام
مصطلحات
مسؤولة
التماثيل
جدوى
خوفه
تأويلان
ليقولن
##قدها
يعض
الثع
يتحلل
وظلت
احتمالية
السوفييت
غنما
بوصفها
وحصول
بروايته
دخولهم
العميد
تعرفون
السفارة
نخبة
باثنتين
باري
تراج
تعالج
الغرف
والتقى
تنقيح
يمكنك
احترازا
سلخ
يحرق
بالأمور
تسر
##نيمة
ونفسه
ونشرت
متمت
تحصيله
بتعيين
واللحم
رحلات
ألقيت
الرضوان
طغي
النسا
بينكما
انطلاق
ومقام
وبقى
أقرض
الإنجاب
إنسانية
موصول
يبرز
غروبها
فيشمل
##ديب،
وتلق
##لتنا
##جروا
تأجيل
أرخ
الركاز
والتعظيم
فارقت
درجته
الجوزجاني
اليابس
أصدقاء
دراج
لرج
الثورية
حديثهم
تأريخ
وبالفعل
الأشهل
أموالنا
القرشي،
سعيه
فخلع
فألف
متوجها
بأني
وغدا
بالرواية
لمعالجة
رحال
عشائر
ذهنه
ازدادت
بمقبرة
ضواحي
قنت
البائن
لمكافحة
وسنذكر
مستحبة
فاني
مجوس
وآدم
بتأخير
فوضعه
أصيبت
ووفق
الجنات
وعباس
لحال
مغازي
فرضي
المسؤولة
جمهرة
##لامات
تعس
اليهودية،
ببطلان
القلبية
ببدر
عاطفة
إهمال
الفوقية
الناطقة
فعول
الانتفاضة
عطفه
السحور
يأتيني
والسادس
اليشكري
إجار
العهدة
الفخار
الفرن
أخلص
اختي
الغرم
بدونها
عاجل
وضعته
المنتسبين
الدراية
الاعراب
يهتدون
جوعا
داب
مده
يبصرون
المقدور
واتهم
وأصيب
تبرز
فكأنها
والثلاثين
إقامتها
والقطع
##سبات
المتب
أصبر
تكريم
والدول
لشراء
الجنائية
حثمة
حقة
شريعته
طعمه
فإنى
ولغيره
بلزوم
راضيا
الاقتراع
حدودها
حاصلة
أحمق
بستة
تنازعوا
عقي
نلاحظ
ليب
يحفظه
فاشتد
شتاء
ظلام
##بئ
وأجرى
ويتق
أعجمي
الاستدراك
مطرد
يليها
شراحيل
يدلس
أدائه
طريقان
أعمالنا
والزرع
إثباتها
ناح
الختم
##لفين
وبصره
ذكرتها
الحاجز
مشغول
جوية
طيف
مراكب
يظنه
##سعت
وطرح
شغله
##جتها
##رجا
وبالا
لغيره،
مفتوحا
المقاطعات
ريحها
السامري
والشيطان
دوائر
فباعه
##جيم
المربع
واللع
الدان
لمزيد
حديثا،
عيادة
سؤالا
والتحريم
جثة
حريق
لامتناع
وده
##رواح
مثلت
وانفرد
متكئا
نقيب
عامرة
بأخرى
##وائها
زوجته،
مغر
حدوده
نجاة
اطلب
مميزا
مقربة
يخشون
##ذبحة
والكامل
##ذلان
اللحظ
بتأسيس
نورث
الهائل
ثيابا
متقدما
منزلت
أوري
السلاسل
للبيهقي
عدوك
أفاء
كثيرين
لإخ
شخصيا
نقلته
سدرة
شقيقه
##ذوبة
أنصح
##ويلها
بمجلس
##طفة
فلا،
خليط
المزدلفة
ببن
##حور
الدخ
الفري
متاحة
بتطوير
بغيا
تغسل
الجنس،
خياره
افتتحت
اربعة
##نبه
للغا
##صحب
##ذرين
مصنوع
المفكرين
ساقها
جدل
المترتبة
اتساع
والإبل
ويند
قائلة
الدراسي
فأخبرهم
بذله
فأقبلت
وتعاون
استرجاع
##زيمات
يمض
المحبو
جزافا
رأيكم
يعطيها
التضعيف
لعطاء
خيرها
خيركم
وبإسناده
الغلا
يغلق
والبغي
##وافذ
هدانا
وباطن
أديت
##حصل
أوجبت
النروي
##منون
للوق
وعقبة
الغنوي
متصرف
والبصرة
##ضطجع
التالي،
بطونهم
تجهيز
وأبر
الخاطر
##قيطي
انكشف
فانتهى
بالطائف
معرفتها
التحرز
فتصح
يغزو
خريطة
المشا
المقترح
بالتب
والمصدر
##متعون
اللد
ركز
والقائل
والفروع
جليا
بالقدرة
مؤثرة
أرضية
وأسامة
التبرعات
طمعا
جيف
لكا
##مول
المعبر
والعادة
بالحال
ممنوعة
نفيس
فعلتم
يعطوا
المنظومة
انفجار
والغم
##اتنا
بالوجوب
الإذ
وإياه
البنفس
الرمز
ويشكل
تبل
بالذين
الدية،
الإجراء
والرحم
واليون
##نسيق
الفرضي
كيلومترا
بائنة
##شفه
الباد
بتونس
تسهيل
خلقي
الغالبية
المفرط
المبدع
##ثاق
##عارات
فيحلف
وأوروبا
فؤادي
تليق
واخذ
وحرب
للشعب
ضوابط
قزوين
يمكث
والدعاة
##طنة
فيصدق
فتارة
تصديقه
زوجين
مباركة
وفاق
##وبه،
للرحمن
##دمه
##واتف
##قالا
بالتفصيل
أتاها
علان
كلهن
اصطلح
وأرادوا
##وهم،
تعنى
أخوف
فتحه
لتجنب
الخطية
مغول
زعمتم
المختلط
التوت
حيال
وليمة
ألفت
##وما،
المقرض
خاص،
اصطف
ورجحه
يكتم
الفاروق
الأوساط
##وفيتش
التناسلية
القياسي
إضاعة
بفل
عيلان
##رفها
ينجي
الغدد
تنصب
ودعوا
فرانسيسكو
الأعياد
وإح
تمد
تأليفه
تجرد
ودول
فصبر
امتحان
رآهم
للزراعة
وفتحت
وفسره
ارك
منية
##ست،
وأمام
معسر
للنهي
الخاد
##قدون
بالسؤال
الإصلاحات
الزنادقة
ثيبا
خور
خاس
غربية
##مرك
الإسناد،
والإصلاح
كاملة،
الإسماعيلية
المحظور
تود
غلاف
المتشاب
منه؛
اسق
مقرن
عذره
وباطنا
خفة
علوي
هيت
لمصالح
والسما
امتناعه
الأقوى
الكثيرين
الحالات،
راغب
يحدثه
الهيد
يسجل
يهدد
نضلة
وجنوده
منقطعة
ومدى
ينمو
المتكبر
بالقاف
وذم
كامب
فبن
والرض
الدعاية
نصبا
ويتخذ
أسطورة
أسنده
لفا
##قاما
##قباله
يكسبون
ذكاء
ذكورا
قربت
ضيقا
ظبي
##اريين
بالمشي
والنذور
الشر،
وأمرت
اضطرب
يابس
لورثته
مهن
فيينا
##راؤه
أنسب
الفقيه،
وجاه
بإظهار
أتاكم
قرنه
مرتبا
ويملك
الريان
الإشعاع
معتقدا
فبادر
##تف
العنت
مستدركه
صفد
اصطفى
المقرىء
التغريب
أحرق
والبدع
توكلت
##ين؟
بنقص
منهجه
أفريقيا،
##افهة
##ونيو
كرمان
وانتشرت
والإعراض
غور
##وكان
وحياة
أرضي
المرض،
المقررة
##جيرمي
الفصولين
قرم
الأصدقاء
تعق
وبس
لأفضل
فكثير
برنام
جنوبي
السجلات
أرواحهم
قتيبة،
بحضرته
تمهيد
استبراء
##وبية،
تنطوي
تخفيض
وعدت
ويرون
منتف
كرس
الخيل،
الوظيفي
يتعمد
الأماني
بشك
سهمان
بديلا
الخارجة
أنيسة
فحرم
بالفقه
يتطرق
نسخا
تخشى
كتمان
محتوى
تأكلون
مريدا
بثمنه
المحققون
زحف
هذي
والعتاق
وقولي
للقول
الفلوس
##وج،
يستيقظ
الدموع
التشري
يسبحون
##ورانيوم
سادة
الحوائج
البيولوجية
ميخ
البعض،
##حصن
علماؤنا
للواقع
وانتفع
المكان،
الطاعة،
الرخص
يحوي
لعرض
موصوفة
والاجتماعي
الاستشهاد
حكايات
وازداد
##كمي
وتوكل
واعظ
##تابه
##وحات
تطعم
جملا
وانهزم
الصوديوم
استأنف
##زيدي
والتوفيق
وخز
المؤمنة
وذكرها
ولده،
وعدهم
أسره
استحالة
عان
##فله
القياسية
بعص
انعدام
وموت
أبنائه
مقالا
اختبارات
لكونهم
وفرقة
وذوي
شديد،
##جاهل
ومدح
حدوثه
##ذلل
فيمنع
الشفا
البقيع
يتفرقا
##وبها
المحسوس
##تقام
الأحكام،
قيما
السوفياتي
وبخلاف
الروحي
رست
ويمين
الأوز
بالحمد
لمصر
##ساسة
بأعيان
##لاله
لكنت
همذان
السرايا
آتاهم
الفلبين
أوطان
وإرادته
##ساهم
فبم
شهاب،
مشيئته
النزع
أمهم
ولغير
الآذان
والعن
بخار
فليفعل
والتدبير
##لله
القلي
##روهن
طبخ
لخوف
الزمني
زميل
المخاطبين
الألياف
نين
ينجح
انتزاع
التنور
قصيرا
لجان
سكنية
أزواجهم
الأضداد
مجيئه
دهرا
شحم
فيء
التلاميذ
بحياة
حققه
بالإقرار
يعملوا
##أتى
##جف
##راكا
أندادا
الإتقان
وتوحيد
والأيام
تكبيرات
مختصا
شعبان،
مستحيل
سكران
عصبية
صوفيا
إضافي
تلع
##بلة
##انج
وإرشاد
المعرف
فعرفت
##كسية
##ناعية
وتحديدا
جنايته
يشربون
فيسأل
صوا
للزم
رسولنا
تتواجد
الأسس
لإظهار
لعنهم
بقدره
بأفواه
غط
والروي
الأودية
يعجبني
يصحح
تفيض
غيث
والبرهان
معرضا
الإضرار
الذر
انخ
أخلف
القرص
تجبر
بمعصية
يستحقون
تساقط
##يازات
حساسية
العزي
الصلا
الطاهرة
ومنك
مسلح
##ازى
##ضربن
والعام
الأندية
طيور
اختصاصه
التتمة
##ذاعة
النقط
معجزات
##فرنج
##فسدت
وبش
وبكى
يكونان
النبيل
مالت
بدلها
والتمييز
الدوران
آليات
فحبس
##زز
بأنا
يزيدون
شعبي
مواسم
سواحل
ألمانيا،
وساروا
الكلمة،
والشيعة
الزهرى
##لهن
وأطال
واجهة
وساد
الانقياد
والرعاية
الفقهاء،
القصر،
المجرمون
وأحكامه
والاب
وكافر
يتواجد
##احته
حديثها
كالمر
دينهم،
والنبوة
تعلقه
عظمته
فعلمت
تحريما
سول
عودا
البز
##وائهم
يطرأ
توعدون
بإسلامه
اطلاق
عارم
المحمل
لأولاد
مطلوبة
وذهاب
قابوس
أبنية
فوط
الدروز
عبور
المعتدة
حصون
نهوا
ذهب،
خاتمه
بايعت
فريدريك
##واكه
ونقض
مستوي
حالي
نقوم
شاهده
الإفريقي
ووك
##يران،
##علج
##يتد
ليوسف
##قطعة
مؤثرا
والدنانير
البوصيري
جونز
اخبار
فيكتب
ولد،
التأكد
الشاعر،
يختلط
عاقلته
قرابته
توت
##الطة
وأنفس
اللورد
الكتابين
التجريبية
إمبراطورية
صغيرة،
بوف
خوط
فصرف
للطب
متما
تحبس
تأذن
والنفاق
كلامك
أرضها
##ايير
واليس
ويصد
ستت
تدمر
وعبدالله
نصر،
واحترز
وولاية
وأبان
الكثيرون
الفرس،
يحاولون
بالسك
بالبحث
برؤ
ميلي
تساهم
يجبه
فعظم
بابك
والحن
##جم،
##برياء
فحذفت
والمشاهد
وطلبت
إيل
##عش
##منها
مستخدم
فكذ
وأعراض
راي
والزمان
سيرين،
ليلة،
الأمامية
واديا
الثقلين
أكفر
الراب
بالتيمم
والشخص
الرجعية
الرئيسة
الحميم
##ظيمات
الخلافة،
يشتريه
ضاعت
صبرة
##كاكين
فسكن
بسؤال
القسمين
هدفه
عتقها
##ظمي
أخلا
##ابتهم
حقيقة،
رضوا
يسره
نويت
##فينة
الشذوذ
فالآية
##ضعفه
مستقرا
##نائب
الإسراع
وتسعة
موقفا
##لماني
##بيلا
الطيرة
مدف
بنيان
شرطهما
والضراء
الثمانينات
فرجة
لحرمة
##زقة
##خاله
وعش
استلام
والتربية
فالز
الاستصناع
حكومات
حاجتي
الخرق
المأثور
لاتفاق
الجنوبية،
فكتبت
تعصيبا
لوف
الرات
فيكره
العجلة
أعاده
يشآء
والنوع
والشدة
والطلب
يجعلوا
الشمال،
عمار،
السكاني
تسبوا
مصنوعة
ضلوا
لرا
يفرد
للخص
ينش
والموعظة
بإص
لعشر
##طارا
##خبره
التنسيق
التصريف
أخبارهم
فذا
فنت
##خلد
حديثين
علنا
الاعتذار
الجمع،
المرضية
يسلمون
اللقاح
بالمرض
الأذنين
ضابطا
العلاف
البليغ
##ياغة
يحسبون
والإش
منتظمة
للكافر
السوداني
اعتقادهم
أهلكنا
رائعة
الإيجابية
فحمله
الخبائث
الذبائح
وأوج
تعقل
لكلمة
القدس،
أعطيك
##زود
منفعته
##ياق
##ويتها
ليخ
فاليوم
وخلفه
ستالين
نظرهم
هداهم
تملأ
طليط
##غمة
##ؤد
##اداة
للبا
اللطف
همته
##لائها
الثقفي،
الرأي،
بأسرها
ريس
##سبوا
تتقدم
حكموا
بصائر
صوره
والمحافظة
كارول
معالي
##وزراء
المتك
المعية
بمختلف
برون
المؤسس
##حله
للحمل
لحقت
ضربان
كرئيس
الصوم،
المفردة
وعلينا
والحدود
الملوك،
ذبيحة
عونا
يسند
##انز
معني
واحتمل
وجزاء
يميني
للمرض
بالإذن
وغاب
##ضطرابات
حزبه
فضيلتكم
الزيادات
بسيفه
المستحقين
تغيرات
قارة
##جنة
وأقم
##هدت
##فاعلة
مختصره
وثلاثمائة،
الخاص،
منزلها
حادة
حلوان
عينة
المضل
بإف
شهوته
جدال
بالخلق
تحدثت
الفجار
والإثم
يسمعوا
المنصور،
هرمون
والولي
وقاية
النعام
الناجمة
ونجا
المعسكر
حديثه،
حبذا
تزكية
ويستمر
للطلاب
العاطفة
جابرا
معنيين
##نيفة
##سانية
فعسى
##وارثه
العملات
أمامهم
وتصديق
الأرقم
مقبولا
أثير
يعطف
##فارات
الظم
لإحدى
لسعد
اصبح
والأنعام
يزالوا
حصى
معادن
بؤ
والقبض
##برها
المعادية
##صدير
يخش
ضعفت
جدلا
بالمعروف،
قانونا
مائتا
ارج
البساتين
وفيهما
بالإمام
التحرك
الصدقة،
الولد،
الترفيه
بخمسمائة
تناس
##وذه
لاه
الرما
والمملكة
مقدرا
المساكن
تراهم
الحنفية،
بالهند
إحسانه
تشرع
عصفور
فروي
##ئيم
أنفا
الكاس
الطري
بدعة،
مستندا
حمود
المفضلة
##غاة
بالولايات
وفقد
وزنها
صحفي
القطيعي
نالت
وطر
يوزن
المائع
وترجم
وأنفسهم
مغادرة
نقلوا
المنذر،
لامر
يشبهه
يخالط
التنبؤ
أودية
معصيته
وكلت
واحده
بالحقيقة
قريبه
محرر
لعباد
جذعة
أجنبيا
الأتباع
##خات
الرضيع
والشريعة
الشباب،
خائفا
المفسد
واعمل
الاخذ
بأج
فروا
وطهر
مضادات
مقاطع
لرؤيته
حى
سحيم
##شته
الصرب
وحرف
حبك
وبالن
##صاها
أقروا
حقوقه
وخلقه
تالله
خالة
المطل
وعظيم
ومكة
والموضوع
وسجن
أسوار
القدرات
ضمنت
والإسلامية
وديوان
بهما،
المعقدة
تنبه
##بقوا
والصي
للأشخاص
الحميدة
الأربعة،
صرحت
التتارخانية
والجب
التسهيل
##روعة
النازل
والعسكر
فينزل
##واصوا
السريرية
بضعف
##قيين
المتحرك
##رسه
نسق
أشكو
يؤت
البدنة
ضرره
خذها
بحدوث
دكان
لرأ
##خية
والفلسفة
الطحان
ولديه
تنفسخ
الضح
##ولية،
شرطها
بالحرب
##سكار
وبيانه
ثبوتها
##صلب
رحمتك
حركتها
حذاء
زمرة
النرويج
أتعرف
أرسلني
بعيد،
كسبوا
تلاوته
مديرية
بأدنى
لجب
يجلد
انفراد
الآلي
ينتمون
اتخذه
العامي
مفضل
مرادهم
عميقة
يعذبهم
الأمراء،
بإضمار
ويتكون
فرضنا
يساهم
وولا
وصب
وثانيا
ودلالة
كونهما
محاضرات
عصمته
انقسام
وإدراك
كصلاة
ويمتنع
أعل
بالبط
الكالسيوم
بعلي
كلنا
الغصن
بموسى
كالل
يشته
حمدي
الأخلاقي
العدل،
معيط
الشهادتين
المنعقد
##ائيين
الهدم
صلبة
الحمل،
خافت
##ويا،
##جهات
المته
##فرده
وفروع
للأص
عاصيا
نهيك
وإعطاء
##سلي
أشرب
أنتجت
الهموم
أفعالهم
آمال
##لر
والقتال
أيت
##فاؤه
تولية
صلاحها
الاستخلاف
هيب
القلع
للخدمة
وتقل
المصنع
ومعي
والدية
ارتباطا
نسيج
عذرة
أبياتا
وإسناد
كرهوا
ودعوى
العتبية
##برة،
وإمكان
المتصدق
بأجمع
أدوية
لكثر
نعطي
بجماعة
التحسين
طالق،
ويؤثر
المكتري
وحرمة
واهت
هتك
##زعون
بهجة
وتقرير
الناج
تأدي
والاول
التصنيع
نبذة
واحتمال
بالثلاث
الاشج
مهارات
##ذابح
ماؤها
للدم
وعقل
ونكاح
##اعه
وحط
والحفظ
##راق،
ظم
وتحرير
حدائق
وللا
##درية
مجاشع
##وليين
والسلف
فهرست
فرات
##هارة،
الأدعية
الصعبة
هولاك
ولسنا
الخطابة
والإثبات
لقى
تخلى
مكعب
##باحية
خيط
بزمن
الزهراني
طبيعيا
اطلق
حقن
أحدهما،
ويتوجه
##فندي
غلبه
الجسدية
بكتب
تبري
عتيك
وأسند
والمسك
مرشد
##كسرت
سمية
فأنه
يفتر
شبها
أضيفت
بوط
حافة
رما
شوقي
بعلو
أمرهما
وخاتم
نصبت
تحمي
لأجلها
غازيا
##خولها
المرعى
القطار
تجويز
للكنيسة
الموضوع،
الأوسط،
عشق
الإجت
وترجع
وعرفه
فاذهب
تأكد
الحكمين
داره،
ردته
بضمتين
المستقبلية
الخيمة
وتشهد
وعفا
الويب
الآمال
أعماق
عدلين
ناطق
رويدا
المبيعات
المرزبان
شروح
لأق
للمسي
رجعية
مسموع
السمسار
الأبي
##باما
وكبار
تعاقب
مختصرة
أقرانه
المكي،
تعجز
لأه
الهبوط
والإف
نحوه،
طرحت
متأخرا
السلاطين
يعيب
##كند
##عينوا
وتعذر
##شارته
تباعد
##شمة
والعدد
وأكم
الكوفى
ونوا
ولكي
مصرية
الموجودين
جاريا
بلجيكا
تهن
والكم
الشقاء
فالف
مقادير
رحمها
تصريف
بالأز
تبصر
غريمه
بكلامه
انتهاك
أفواههم
طباع
التفاعلات
وأنى
لمد
##وزر
وأنفق
المباريات
المجرم
ومصالح
القوقاز
هدر
والوقت
وقائد
انكسر
الضحية
تشكي
والجلوس
يهديه
والزنا
بالدار
الربعي
الفرنسيون
بفترة
صربي
كهل
##خروا
ماليز
كفر،
الهائلة
الخشبة
العالية،
ترف
نبين
النعاس
بأقوال
يمحو
تصوره
بالتج
أحدثت
تسألني
بخيبر
اشهد
تطف
يبل
للفرق
ينصرون
المخاض
قارون
ورضيت
##يرن
النتاج
المتخلف
##زا،
وينهون
التفريع
والهوى
ماجه،
رفيقا
خلاق
عبار
##ترات
بالصف
##ورك،
بأفضل
الإنجي
تصنف
تشديد
التقديرات
شكله
إعادتها
تايل
برهن
زرق
سمر
تناولت
العبور
المضروب
القدم،
وضمير
يصدقه
الانه
ومقدار
والمغيرة
وسج
يفد
عبادنا
أشهرها
فردوه
يفرقون
هجوما
التقت
الخفاء
المستند
يردون
جامعات
الفاتح
قلاوون
والرجاء
تظاهر
حظي
طس
##طرا
##بداد
##ديني
برية
والصاد
الجزيرة،
ويعظم
أئمتنا
##طرد
بالحمل
ماضيا
الكوك
ومحمود
يطاق
وللآخر
مقصورا
للمسلمين،
قميصا
مفقود
دعني
الخليلي
قسوة
بالتصغير
الصديق،
صغارا
البدوي
بالسفر
للجمهور
وذريته
العواقب
وميكائيل
وبقاء
لأعلم
##والاة
ينادى
الركبة
ويخالف
موالاة
الهجاء
الغازات
للاتباع
ابعث
وعسى
واغفر
الظباء
وانقطاع
وانتشر
لاتحاد
الإطلاق،
الثدييات
الثانوي
لعي
##ركت
يسار،
والفنون
خلاف،
السينمائي
شافعي
لاقى
بالصد
الاجل
والمقد
##وريس
التعليمي
لجع
لسليمان
سجلات
فردها
برع
##يمانه
يعتكف
إخوانكم
لأمتي
الكتف
المنظور
فاجتمعوا
الفصيح
##هرية
فأجمع
أمتار
تقيد
والثياب
##زعها
ومسلم،
الحدود،
البوذية
والهمزة
كوبا
هائ
التبادل
بالراء
الربا،
ومدرسة
تأملت
بالتخ
بساتين
يشترون
الإعطاء
الهاشم
عبيدة،
المبشرين
قزعة
##طاهم
والصورة
مظفر
الحجاز،
وموضوع
بحالها
دوني
مخف
بجان
صبغة
كوسيلة
الجذور
##خرق
وكنيته
أسسها
برود
يعده
وادعوا
ورأيته
تتعامل
المنصورة
بذهب
مطع
الرفيع
الخالي
جزى
عبدالرزاق
وثوب
مغربها
ملامح
تمه
حشد
##بب
##نآ
##زمني
والبعث
قرني
##وديو
السلمي،
لولاية
جوادا
يضعها
واثنان
سائق
ضيعة
##ينين
##داهم
لتشكيل
عقابه
الجموع
وتتكون
احسن
تلب
ملاب
##كوني
الاشياء
رأته
##ضر،
والجماعات
العقرب
وضعا
الأحمر،
##موس
التلفظ
معام
بتفسير
الضمة
حكوم
يتيقن
سباع
فخل
مهدى
##إذا
الخلفي
النابل
تكبر
قصدوا
ظلمهم
بزا
خلة
##كفر
##خبات
يقرض
أسامة،
فالحمد
أدعى
فهمت
عوج
##وضيح
##نغ
##قضى
النكت
ينضم
المنصف
ولمسلم
لتب
وغلط
##وديعة
##ضبان
تشتري
انقض
المعارج
المؤثرة
فجائز
خصما
الموانع
##يلولة
وابي
يتل
##قلبة
بتط
أصبحنا
نخاف
الجريدة
##يلو
##حاز
أبواه
للأفراد
يقترح
الحرمان
سقوطه
شغلت
##انمين
والرح
التحر
##ومغناط
القردة
نسج
والعناية
مستمرا
بالمسلم
والإج
الليث،
وأتباعهم
المعافري
جذا
##ذال
أصم
مستل
##قصاص
وزوال
انتبه
بالنقد
المنتصر
فكرية
ألما
حراء
حلوا
مفصلة
وهبة
الاكمال
أحلت
إذنا
والحذر
فنلندا
دعى
مأوى
واعتمده
الربانية
شمول
الجوهرة
يبتغي
خسف
المقلد
الجليلة
الاذان
الاسمية
وسلاح
##يراده
##صيها
##راعات
السودانية
الممتاز
ويزعم
##غافورة
عوان
قفا
الناقل
عدله
عبدالحميد
يقتلوا
المذكورات
صلاة،
أصابوا
هلاكه
رفعا
اطلاع
قانت
جزع
تخيل
والزبيب
جهدا
شئت،
ثقاف
كحال
فصب
الطار
يسعون
المنازعة
تكفرون
فضلت
اشتروا
للنص
ليكونوا
عابدا
التربوية
مقول
##هارات
الرواتب
انب
وخش
تكسب
النارية
##بادية
إدراكه
انسحاب
تصدقت
توازن
##رشد
يعمد
لأنهن
##لسلات
توضي
المرتبط
كافر،
التغلبي
رئ
نثر
يرس
يوه
والوزن
##وفها
واتق
بالجماعة
إمامته
غريب،
المباحث
الليبرالي
وبالعكس
يوشع
مراه
والسلم
النذور
يتلف
فتنت
تنطبق
لانهما
ينتفي
للطبراني
ببير
خبيثة
بالدر
##ازا
اقتص
مقاييس
إتش
مضافة
يهر
##ابهم
للسبب
ويجد
الثنية
فأوجب
إبراز
برقة
نعليه
الطيب،
ثانيهما
الرحلات
التغلب
عليهما،
للصحة
والعجز
تأم
بصوم
الدارقطنى
نهانا
مانشستر
سعت
ضارب
يونا
أوهم
##ضا،
والثبات
##لائهم
يوغ
لامه
قضاها
الرطبة
ترفض
والاف
الحشفة
وجنا
الأسقف
والجاه
التحديات
قدرنا
وتسليم
وبدل
خبراء
نقدر
##بقة
السفل
له؟
##ثرين
متولي
صحبت
مطبو
للاستخدام
ووضعه
قفاه
مئة،
والعل
وقن
ماهان
وإنتاج
بادي
فإذن
المحذور
سبيلهم
محدث،
مفرط
نبهان
##فكون
##حسب
##ماهير
على،
##سمان
استكمال
##وريت
حضير
مبكرة
وآخرها
الخشني
قابلية
الأناض
القبطية
وحث
ولكنني
يعدم
##غتون
جولي
زدت
عبودية
والرهن
##عرانة
وردها
الصفات،
تزويد
ويستغفر
المنتجة
الرافضي
##لميذ
البينونة
بنائها
جبرا
فرادى
##لاوي
وحشي
وشار
صفاء
والقن
والفطر
إيذاء
وأمهات
مليء
ويستدل
الدستوري
ووصله
الزعفران
##زهم
الأبار
الصولي
حمدون
تحتل
للأكل
شئ،
أجمعت
أمنية
مخلوقاته
بربهم
الكويتية
مخطوطات
والشرع
##سطح
الفتنة،
اشتغال
##ساتشوست
تأثيره
جيد،
توافر
##وميديا
مانعة
فتف
وحافظ
والنقص
الأسقع
بطبيعة
انتهيت
لجامعة
سفين
والثمان
بمصالح
أنفسها
المزكي
القداح
مجاوزة
والحرم
يقظة
ومخالفة
متد
المتخذ
والتض
والنقصان
علانية
بالكلمة
الانقسام
إزالتها
حولهم
رقيب
##ريس،
ينصره
الدينوري
عقوبته
المطابقة
آمنين
الإفراط
وقرن
شؤ
كيم
مابين
لاج
البواب
##حيرات
متش
تنزع
شرها
الممثلة
أجنحة
##ديرا
السوم
يعن
حددت
وتعزيز
حبها
مطاع
مجتمعين
ورضوا
والعدالة
آمد
أولية
الطب،
قتلنا
##خطى
التفتيش
وبدلا
الإكليل
جورجيا
دماءهم
نبيل
##ينية،
##قدات
يحتفظ
تطويل
إمامهم
##طمئ
اوله
ضحية
شيئان
مخاطب
أرباح
صنعته
أنشدك
ويبعد
واصبر
مفعوله
تحركت
وورث
يول
بالوفاء
الفلق
وتعين
##راءى
يستوجب
المنابر
فمما
كحديث
للمنطقة
قاطبة
##ماطي
ومجموع
والقائم
فاستجاب
الاصل،
يتخذون
سعودي
##ابى
الحافر
يقلع
يعيده
الناس؟
بأح
أصوم
بقلة
والحسد
والشمال
عياش،
لطالب
الفاسقون
الطويل،
بالإسكندرية
اللهجة
وقيده
محليا
تشتهر
المنافس
التمريض
الإبادة
المنسوبة
##زاد
الحيز
بالنع
بالظن
الفتيان
ومحبته
ونفخ
بالعالم
الاعتقال
##ادثات
أسطول
القرد
##فيون
أدبار
الجزار
##جاره
صحيحي
##وشن
المقترض
العيد،
رزقهم
تضمنته
وبيده
يشكلون
عانى
قدماء
وبان
أحزاب
وشغل
للشعر
الآيات،
المصريون
يكتف
وبرة
الأذهان
##يدن
ويفر
ونصفه
المستشرق
والنحل
الحجام
تطرح
حاجة،
وحدثناه
سالم،
العسكرية،
النبى،
آلام
سقيم
هرت
فتعلم
فاجلد
فرعا
إدراج
ينظروا
يدفعها
ذنوبهم
دلي
فضول
##اكلة
مجلدين
إرها
##ربة،
##ذهبا
الوباء
ومنح
##جيرات
الأمير،
ورجاء
المسيحيون
أرقام
شعيب،
قيراط
ظاه
لطي
##فنه
لعلها
بالإي
##رافقة
شرحا
اثناء
بناؤه
الفاتي
المقريزي
##مئنة
أحمل
##لهي
ليبلغ
##يبان
بتغير
المعاش
أثبتوا
آفاق
##آئ
فيجمع
العروق
وعائ
##بتداء
المنف
مرتدا
النظر،
بالضبط
بأكملها
ج،
##خبة
##لاهم
الأضرار
##كاها
##صار،
والشعب
وطاف
أثينا
الاعتداد
توقيت
زيادات
الخواطر
لأولئك
الجلود
تكييف
عندي،
يعصم
الطابق
يدير
يستلم
أنابيب
فكلا
أفرادها
اللسان،
ونسخ
النظري
جاهدوا
قشر
منا،
المضاجع
##امحة
فقده
البس
والعنب
##وسفات
تزرع
مفرو
أضرار
فرجعوا
الإسبان
الحماسة
التلفزيونية
خزي
عديم
الأشد
الخري
المستفاد
كثيره
نزه
فأنشأ
درء
عفراء
بالرحم
أبناءهم
كيني
مفار
##سترا
ويسب
##وسين
بتنظيم
المناقشة
رئي
شقة
##ميمة
الإضمار
ورعاية
والخضوع
مرضي
الرباعي
أقيموا
أراكم
المحافظين
لثمان
##غلة
وكونها
اللحد
تحلي
المشاهير
المحصن
والقواعد
المهني
ولأهل
وأزواج
السكوني
طبا
معارف
بعيسى
فقاموا
مشركين
دبلوما
##سون،
الميعاد
الجدي
الجاز
##ختين
ليسلم
بلغته
قطعي
والفن
موظف
خصيصا
لخروج
للطلاق
##قيهم
وبحمده
وآمنوا
علله
بالسواد
يقبلون
للفريق
وكتابة
بالمنطقة
المقاتلين
نهيتكم
هراة
المطيع
للذهبي
الاجماع
والمحرم
##جرهم
##رقب
للقانون
شاور
صلاحية
ندوة
شوال،
ويزعمون
بالروح
ولاسيما
وجائز
استفتاء
##حوذ
يأوي
كتع
يقدمه
صاغر
يهده
بالبركة
##شاني
الدجى
وحذيفة
اتصاف
وثيق
وزيره
وتتضمن
العشب
الصيفية
##هيرة
الخليفة،
الفتحة
ويمثل
يسكنون
القطبية
عويمر
أروى
افتح
سنام
فيقسم
وقود
##ادلون
##عدوم
الآجر
الهيك
بقياس
مساهمة
ويحلف
مشتملة
##حولين
استضاف
فعجب
##اهدون
يجدد
ميرك
بوفاة
استرد
يسكر
يشتهر
فضلها
مرارة
وتتميز
الرملة
منصوبة
الساقط
الأقرع
العجيبة
اى
قعدت
الإسم
بابي
صالحين
الانتحار
أقره
فقتله،
روبن
إخوانا
يعمله
التشريعات
المريسي
رءوسهم
السراويل
حبوب
الحنا
##خرت
يقله
الزنا،
ونية
مصغر
الخلاف،
السوق،
يحلفون
مملوءة
ياف
عنك،
القائلة
يتوق
عاملة
حالك
تكونت
لقاح
برص
ارتبط
يقفون
متحركة
الحمال
الكعب
بعود
##وتنا
المعول
والأك
ويدعى
يجدها
المبهم
جرعة
ووادي
فزوج
فيعود
وقلوبهم
فعليا
للشع
والتعريف
فيموت
زنكي
الإيمانية
الذلة
المتقون
مثلثة
##ذكاء
دائما،
يأتينا
وكأنهم
فويل
يقول،
##وهو
أدبية
والقادر
النظامية
وزوجة
أسنانه
ضئ
عرى
##فرين
بعكس
بعدت
##رجون
رايت
الفيت
مبهم
وتشكل
ببقاء
الأديم
وأحق
ينعم
الضمائر
اختير
الشنقيطي
نحل
##ستانية
الأنسان
المستقل
خصوم
الهمم
شاملا
راتب
##سارة
الطقس
رجب،
##جرة،
بالشرك
الخمس،
التماس
الجماد
##قبون
بنيته
مغنية
والطائف
الإقليمي
يجتنب
بأموالهم
توزع
نوق
##بغا
الوفاق
المتغير
اقترن
العرش،
شبهات
الموسر
المتعدي
والحيوانات
##أ،
بالعب
وكث
وجاهد
ينطوي
المعرفي
للمجلس
كفرح
نجسة
فيكفي
وضربت
والوضوء
السائق
النبت
الجباب
والنوم
##ؤمنوا
التوبة،
خروجهم
انصرفت
للتعامل
وطاوس
##ضاره
منفذ
الأسلم
ذكرنا،
وحقيقته
##كاديمية
أثارت
الليبية
ينتصب
الكردية
وشره
فردية
وظيفته
وويل
##حراف
معلول
كالرجل
فلسف
##عرش
يقتدي
والغزالي
وأخطأ
مشركا
التماثل
محذوفا
كواكب
##غز
الدما
الإبط
تتب
للتف
المرضعة
الاشتباه
النهر،
كعبد
فاقتلوه
أخلاقه
تتاب
كاهن
وصدقة
بالوق
الوعاء
انضمام
ليلي
المعافى
بتاء
القادي
وتأويل
القارىء
العتمة
والملح
يتيما
طرس
وقاد
##رباب
وعبارته
يمسي
هكذا،
ريم
صني
طلو
كائنة
##يرته
العتاب
الطالع
ونهارا
تنجس
##سطوا
بالمملكة
بصاحبه
الفردي
يصلي،
بالجناية
معترف
فالأقرب
الأواني
استغرق
كادوا
بعبده
تدم
بالنف
النماء
##ركها
بسماع
معيشة
المباحة
الطرقات
يبرح
عينيك
معاداة
وزينب
الحيتان
وعج
كالأن
##ريب،
يغوث
شهبة
مرضت
الهندسية
مكرر
##ئران
وجنة
بأعين
المستور
المستودع
يسمعها
الضرع
بإيجاب
تلبي
والفاعل
الانترنت
فكلمه
والشباب
أطرافه
كالمست
خيبر،
ترامب
التيارات
التسامح
وعنا
عامه
##بحار
##ذكرا
##صبية
والقضاة
يعرفونه
فصيلة
للنشر
لندن،
تباين
إضافته
فسميت
عهدي
الصر
لهما،
##اجي
المؤخر
صفوة
راضية
تراها
الأرجنت
والأفكار
تضيع
منصة
##لكها
التراجع
بالصاد
الكرامات
##بتون
##سانه
##ساند
ودام
والصور
شرطية
##غلين
أعطت
أفيدونا
[...]
