[PAD]
[UNK]
[CLS]
[SEP]
[MASK]
.
/
:
=
|
،
؛
؟
ء
آ
أ
ؤ
إ
ئ
ا
ب
ة
ت
ث
ج
ح
خ
د
ذ
ر
ز
س
ش
ص
ض
ط
ظ
ع
غ
ف
ق
ك
ل
م
ن
ه
و
ى
ي
##ض
##ي
##ك
##ا
##س
##ت
##ر
##ؤ
##ه
##ل
##ظ
##م
##ف
##و
##ص
##ة
##،
##ن
##ع
##ب
##ح
##ط
##ش
##د
##ق
##أ
##ث
##ء
##ج
##ى
##إ
##ز
##ئ
##؛
##غ
##؟
##خ
##آ
##ذ
ال
##ال
في
من
##ان
##له
الم
##لا
##لى
##ما
##ين
##لي
##ها
##نا
وال
##وا
##ية
بن
##را
أن
عن
الله
##ير
##لم
##ار
##ون
##هم
##بي
الأ
##ول
##ذا
على
قال
##اب
الع
##لك
علي
##ري
الح
##ات
##ام
الت
##دي
##ست
##حم
لا
بال
وأ
ما
وق
الق
##اء
أو
إلى
عليه
الس
##مر
##ور
الن
##من
##اد
##بد
##كر
كان
##عد
##ائ
الش
##ته
مع
وه
##إن
##في
##يد
##بر
##بن
الج
##بو
الر
##وم
##سلم
##حد
##با
##حمد
##أن
##كم
##خر
##مع
##يم
الص
##ني
##يل
أي
لل
##عة
##رب
الد
الك
##ود
فق
الإ
ابن
إن
الف
الذ
##وله
عبد
هذا
ذلك
الب
له
##لام
##يا
##رة
الخ
يق
##اف
لم
وك
ولا
وي
وت
##بة
##لة
##ذه
صلى
أبي
تع
به
وع
أبو
##وج
وا
##رف
##رك
##لف
ثم
##قد
##اه
##مة
##حي
##عل
##بل
##نة
الا
##رو
وج
##كون
##ديث
محمد
##قي
يع
##سم
هو
ول
وسلم
##قة
إذا
##كن
حد
##فر
وهو
بين
##فس
##لت
بع
فإن
##يس
إلا
##وس
قد
##اني
##رج
قوله
لأن
##رض
الث
فيه
##تى
أنه
بعد
##به
##دة
##صل
##سول
الط
##عت
##شر
غير
الذي
حدث
وم
##وق
##تي
يت
##حا
ان
##لق
فقال
##مل
##مي
وقال
##ضي
##سن
أخ
##حت
كما
##جل
##عي
هذه
##الى
##ذلك
##هر
##فا
عمر
عند
التي
##وي
وفي
وقد
##صر
النا
عنه
رسول
##هل
ومن
كل
وإن
##ة،
##عا
وب
##وب
##تاب
أم
##دا
تعالى
فأ
##خت
الز
الو
##غير
##سب
##هما
حتى
##عم
شي
##بت
الآ
##ضا
يج
إلي
##ه،
وإ
##يت
است
##فة
حدثنا
والم
##اج
بل
ون
ين
بعض
##لب
##مان
##صح
##خل
##رد
##خرج
وكان
##اح
##وى
##سي
الغ
##اري
ذكر
##راء
##سلام
##قا
##ثر
##تب
يكون
##وع
##نى
##وز
##يب
##هد
##كل
##سا
أحد
##فع
##قت
أع
لي
مت
مث
##وت
النبي
##وف
وما
المت
##قل
##حر
##ده
يقول
##فت
##در
##ادة
فل
منه
##وض
مس
أحمد
##جر
##حة
وس
فه
فيها
##دين
##ظر
الناس
##ورة
##قول
##يرة
بها
##اص
##مس
##لاة
المن
##مام
##رأ
##كان
يا
##بع
عام
المع
##شت
##وه
فلا
##لها
##لاث
وأن
فت
##رق
##دم
##ارة
##ذكر
أهل
قبل
حديث
##بح
##سان
##شي
القر
##ماء
##اع
الشي
كانت
##زي
والت
لو
سلم
وح
مال
حي
يد
والأ
بأ
##لال
##رات
إس
سنة
##رس
الحديث
##الم
##رح
بد
الي
##ية،
يوم
##راد
أس
##مت
##راه
لأ
مج
ولم
##وال
روا
##وة
أك
##از
##ريق
هي
##يف
بم
المس
##تها
##ليل
كتاب
##لاف
وص
##جد
نفس
واحد
##قر
الإسلام
##حيح
يح
رأ
بأن
##سر
##تم
##قط
ليس
أيضا
ثنا
بي
##لية
الأم
كث
##بار
وهذا
##مه
لما
يم
تح
##ئة
أص
##خذ
##ابن
الدين
للم
##فق
إليه
##زل
##طل
##سة
رضي
الل
##ضل
##وان
##ماع
##ينا
##يات
أخبر
##رت
با
ولك
##حق
##طي
منها
##بير
اله
##عيد
يست
##الة
فال
الذين
البي
##خص
الوا
مثل
##نت
مح
##كت
##ند
##كا
##ضر
بكر
المؤ
وهي
##لاء
##وات
رج
تق
سمع
قول
أمر
##رى
لأنه
فا
##باس
##آن
##وص
يس
##رم
##ذي
وغير
ولي
أما
آخر
##ولى
##رع
بما
ولو
##ناء
##ين،
لها
الرحم
أح
##ضع
##قص
المسلم
ولكن
نس
##انية
ثلاث
نا
لهم
##واب
##عب
أش
الصلاة
أب
##امة
حيث
لت
##وية
##نس
##زم
##كة
عد
أنا
والع
القا
فقد
##ديد
إب
يأ
تن
##كي
فإ
بق
هنا
شيء
دا
##انه
العلم
الحسن
كال
علم
##حو
##صد
##راهيم
##مال
المج
##اهر
##قه
بت
##سل
تأ
رب
##ائل
المص
باب
بح
##ها،
فهو
سعيد
##مات
##قدم
رحم
##ولا
عم
يش
مما
قل
قلت
##جب
##جة
##صحاب
الشيخ
أف
يز
مسلم
أج
القرآن
##صف
قت
تم
##يرا
##ميع
الرحمن
وأما
أد
الرا
الاست
جاء
الإن
تت
المش
الأول
وخ
فع
مش
الض
مق
##رط
##طر
أق
##زا
دون
##وح
##خرى
مالك
فإذا
مست
##حدث
فيما
##فظ
##دينة
إذ
عمرو
##بق
سن
والله
الظ
لكن
##عه
الأن
النس
أخبرنا
##الح
فى
عليها
##ذر
وابن
##ابة
##ظم
##وك
##حيى
##دع
##طا
والح
إبراهيم
##هم،
##ختلف
##وفي
##عين
##ريد
##لات
##ذهب
حم
بك
أخرج
##طة
المست
##طان
##لاق
وف
المح
رجل
فإنه
ور
وجه
##طلق
أكثر
##وجه
عشر
##رائ
والن
لك
منهم
السلام
يص
##ئا
مص
قب
الأرض
##زة
إنما
صحيح
تج
حق
##ره
أول
##يه
بإ
##واء
يكن
##ولة
##ضاء
##طن
يؤ
##غة
##طع
الملك
##سين
يحيى
بش
سي
صاح
##غي
الكتاب
الخط
وش
حين
##ريم
فلما
##ولي
##ثمان
##جه
##قب
عب
ومع
##صار
الآية
عز
يخ
روى
##نف
##لهم
حال
##جم
وقيل
عل
لع
خال
##بلغ
موس
##اريخ
ات
بالم
بخ
العرب
عليهم
تس
تص
عباس
##ناه
العل
##يمان
يجوز
##نيا
الآخر
دين
##يلة
أبا
يعني
##رام
##حاق
حكم
##الب
##هب
##الي
الثاني
##فه
##يمة
##ذن
تكون
يقال
وإذا
##خاري
##ثل
وان
يك
الأس
##بيد
##ركة
طريق
داود
الإمام
رواه
وعن
وأبو
ود
##قال
##بين
وعلى
المال
الحق
فك
الرجل
لله
##رار
##وري
وز
##اته
##الث
رحمه
كثير
##افة
مؤ
تش
##بيع
واست
##جت
والإ
الأمر
كلام
أرب
##طف
نص
##ليم
البر
وذلك
الان
جع
##ظهر
موسى
نفسه
##شة
##جا
##قم
أصحاب
##دى
##عر
البخاري
تحت
معا
اسم
##لاد
اعت
زيد
يمكن
وإنما
هل
##وضع
تلك
##ضى
##لاح
ترك
##روف
العالم
##مد
##ابت
##ذب
التع
أنها
##عمال
##ائر
##شرة
##يام
المؤمن
خط
فلم
##ينة
سمعت
##وط
فما
وث
شيئا
قالوا
غيره
بالت
##ضم
الحج
المد
الفت
بذلك
سبح
##ضة
فس
جميع
والس
##اهد
##بيل
الحكم
##امل
##هود
##افظ
لن
وليس
تك
وقوله
##أل
ملك
##علم
والج
قيل
##قيق
المسلمين
بني
##عود
##تين
هم
يف
##نع
فلي
الدنيا
الوق
مر
الأع
أخرجه
سب
صاحب
جمع
##ماعة
المنا
##صة
##هن
سورة
مات
الأخ
عا
وله
##لس
##بات
والش
إسحاق
##ذك
وكذلك
مد
##يش
وبين
عق
أت
##هي
السنة
##وما
##ريب
فعل
فن
##وائ
إنه
كذا
فر
##حدة
سعد
##وء
يزيد
##دت
وقت
##ألة
##ونه
##نب
فمن
وط
الأولى
أخرى
بر
##ائي
إل
خلق
هر
الأص
حدثني
والص
لق
الإنسان
##فتح
##رفة
جز
##راب
عائ
##ان،
ست
كانوا
##ثير
صد
عبيد
تد
##راج
##ليمان
المغ
رواية
أعلم
##فسير
##انا
##زيز
##ثبت
##داد
##جي
##راق
##جز
##ؤلاء
##وبة
##قات
يل
كذلك
ألف
##حن
والث
##افر
##ئيس
##حل
##صب
##رأة
بالأ
##مار
##فار
##حرم
السل
##شا
أه
البا
والا
اخت
بلغ
أخذ
انت
##افع
القول
ذكره
##وجد
##ياس
زي
خير
للت
يجب
##صي
وتع
عدد
##شد
وآ
جعفر
عثمان
رقم
##ريك
مخ
امر
سبحانه
##صور
كتب
##بيه
##فل
الصح
اليوم
تقدم
##ومة
##لائ
فض
##ظيم
##اس
عبدال
خلال
##سبب
شيخ
نحو
شرح
وهم
فج
للأ
الله،
##بس
سليمان
خمس
##مو
عنها
أبيه
##عون
##طب
شع
##معنى
يعلم
خرج
والخ
##وجود
##افعي
هناك
##تهم
حسن
##وسف
لمن
هريرة
##لفظ
قوم
الكلام
##قيقة
جعل
##جلس
##ماعيل
نع
الجمع
##ديم
عدم
دع
وجل
##داء
##حمل
ثلاثة
نعم
الحا
سفي
قر
##ويل
يغ
##وث
الجز
فكان
##لمة
##هور
##كام
##هار
الجنة
والد
وذكر
##وني
فوق
##راف
قام
معه
العلماء
دار
لنا
##ربي
زوج
##أة
فان
القاسم
بط
بالإ
وكانت
المدينة
النار
بالله
معنى
جل
تخ
##قع
اشت
##اك
##وسط
##ارك
##رجع
صف
##يز
##ته،
##هاب
أنت
الأح
يوسف
##ورا
الثالث
##ياة
##سنا
كيف
##ارث
##يني
العد
يحت
##ريف
بعضهم
كأن
والك
الماء
##راءة
##ا،
شاء
##مرة
الصحيح
##هاد
##ك،
ورو
الحسين
صلاة
##يع
##ابر
لح
##اصة
العزيز
بج
يعت
صح
##بان
وعد
##اله
رك
##زوج
أراد
##واز
النساء
صالح
ألا
تف
مك
كنت
الساب
ولد
سفيان
##شف
العمل
هؤلاء
##تهى
دخل
قتل
##طاء
المق
والق
##ريا
أنس
المرأة
##اعة
##بط
وجود
قالت
##باب
يعرف
##حاديث
##واه
خالد
الجن
رس
##فاء
##رسل
أحدهما
واحدة
مرة
##سمى
##نه
الرج
التح
موا
##كره
##طلب
الشافعي
احت
##باد
وبال
##غل
بص
الأش
##ماد
وكذا
المخ
نظ
##عام
إسماعيل
ير
بغير
##امع
##انة
تست
بس
##ريح
حا
##يدة
رأس
##ؤال
العق
##تك
بهذا
العام
##قى
##ليد
##ملة
##راض
القاضي
بيت
##ي،
عائشة
##راك
##كثر
لكم
##وار
بغ
##ضح
والب
##فى
المؤمنين
##بيب
##الية
##ون،
##ولد
رم
##ليه
وغيره
البد
سبيل
##الف
##يته
أنهم
##شام
نز
رأيت
الدار
##نية
##رمذي
الدع
انظر
فقط
تط
نسبة
تاريخ
عنده
بقوله
إلخ
ممن
##هة
يقت
بالح
##باع
##جار
##كاة
الإيمان
##ناس
قا
##جاب
##عيف
نق
##عدة
المسجد
##بأ
##كذا
سواء
يريد
##خبر
لإ
طل
مكان
كم
والف
قط
عمل
ورد
##هري
كن
بنت
عرف
##يسى
##اتم
##علق
##اق
##تمع
قدم
الحافظ
وفيه
##صرف
القب
وين
##فاق
شرط
##جرة
بالن
##كس
عشرة
الروا
البل
##اذ
##ائدة
##بري
الموا
بلا
نظر
حر
##ئذ
القي
المذك
وأخرج
أبى
بالع
بشر
ذات
يتم
حك
##راط
الثانية
##ائع
##يار
##ارج
يصح
ويت
##هاء
##باح
##ثار
##طق
بالك
##شق
##نات
##يده
التق
##سبة
إليها
عين
الرسول
الحي
قائ
##ونس
أيام
وكل
انتهى
أصل
قري
##هاية
##وها
##صا
وغ
وضع
##ادر
البحر
##تق
اللهم
مصر
##خد
ترج
أغ
##صول
فهذا
العبد
الوقت
##عض
عليكم
قاله
ذلك،
##اية
يذكر
##ديه
بالق
وعبد
وإلا
##فص
فح
##رير
##ذاب
المعت
##ذين
يأتي
##نين
مل
إني
موضع
وير
يخرج
وقع
##ارت
##فض
كله
بهم
##أم
##وقف
الأصل
##مائة
##وجب
كت
قدر
##بى
خلاف
##روع
سلمة
دخ
وحد
وجد
فد
سل
##ضمن
##كاح
لقد
الحال
بخلاف
أث
لفظ
لكل
أل
الأد
رجلا
##رش
لان
خلف
دم
والسلام
التن
الأمة
إي
رد
أيها
##طين
ثابت
للع
عيسى
نف
##حب
##ارس
##وهم
الحد
##ذيب
بينهما
وبعد
##رفع
تر
منا
ظهر
الباب
عباد
##ثم
شر
##وقع
##فن
مط
العم
ظاهر
بسبب
اقت
المعنى
إما
تفسير
##نائ
اليهود
للح
الثلاث
حني
##سند
##مير
##كار
اه
##ديدة
والذي
إحد
##ئت
##لوا
الصحابة
فقلت
عليك
البيت
##ارب
الزوج
##غم
##بال
مسعود
الفر
وض
##انب
الولا
يدل
بمعنى
حول
هشام
##اهرة
##وته
المراد
##ارض
قص
##ائب
وهذه
المسي
أرض
##طقة
المث
العباس
الصف
##بغي
##قين
النفس
جن
الأز
##هادة
بأنه
##ثة
عنهم
كثيرا
حن
##فاع
الفق
عما
الحرب
##حه
الحارث
خص
لج
##تر
بمن
اث
تقول
القد
##ساب
شهر
العربية
إله
يط
عبدالله
الخطاب
مكة
مغ
ويقال
قرأ
حاج
##صدق
##قطع
معاوية
الشمس
الدم
الكريم
شخص
##خي
##امت
ففي
اللي
##راس
##ظاهر
##وضوع
للإ
آمن
##ات،
منهما
البق
إخ
##شتري
الليل
لابن
فصل
ضعيف
شك
##شية
آية
فتح
توفي
##قوب
السماء
##ارية
دي
##فرد
سم
الات
الخام
##نام
حاتم
##خدم
الفضل
حج
تعد
المر
##واع
بعده
يصل
##شرين
##بارك
المقد
##ضافة
##قبل
##غيرة
القوم
بيان
الإسلامية
امرأة
##زلة
أفضل
##ذف
ولما
تز
يب
الشع
المتحدة
جماعة
كلا
##شاء
البص
##اة
المسألة
##انيا
##ضية
الوجه
##هات
##منع
نصر
الترمذي
الاعت
##فرق
تب
اس
##أت
القيامة
يدخل
الحك
الحر
##ى،
##واج
لأنها
الأخرى
كفر
ثقة
عندما
##جاز
فهي
وتعالى
الشرع
##بني
##مهور
طالب
عاما
الآن
##بيرة
آل
##ودي
حنيفة
أنبأ
##ساس
يرو
##رجل
##فعل
فأن
كلها
الور
##ربية
حص
##زع
حجر
##شار
المط
##أس
بيع
جمي
كون
ثبت
إد
جابر
عاد
##بعض
##ليق
مدينة
أكبر
أولا
##قدير
فذكر
خيرا
##واد
مقد
لذلك
يرد
ومحمد
##ونا
ابت
##ائه
النص
إع
أجل
الإس
فم
السن
ذهب
إسنا
##ينه
الكتب
ليست
##ياه
الجواب
##بيعة
وأنه
##امعة
المك
الكبير
##طيع
##الك
الحاكم
أنفس
##وذ
عقد
زاد
وصف
##لالة
##بعة
عرض
فص
##آخر
نه
أر
سبع
الوليد
##طلاق
##ريعة
##ضان
بالا
تغ
القرن
عي
وأبي
الزبير
##سك
وأنا
##خدام
##كرة
التأ
در
عدة
##لو
فاست
ورس
##راع
جميعا
##ودة
رفع
##اء،
وروى
أمير
##سباب
ارت
##وخ
##ئمة
##زاق
##أتي
والمع
المذكور
عامر
الحياة
##دية
منذ
مض
ضرب
الموت
##شهد
العين
جزء
##ريقة
##ابع
والتي
##اث
##وير
##انون
الرئيس
العقد
نصف
بقي
يونس
##فسه
اجت
##ريج
فهم
القت
عنهما
##زمه
البيع
الشام
يه
ها
وبه
أولى
فلان
نج
يقع
مسألة
##ائد
ويقول
##ابل
وأم
فيقول
السؤال
فرض
أط
بشكل
عاص
الدولة
##ب،
فلو
ذي
المو
مثله
ولهذا
##لح
يقوم
يوما
وأع
##رائيل
أربعة
المز
السلطان
##قض
الحم
##ئل
كبير
##وعا
ويج
بأس
##غر
ينت
##رجة
كثيرة
##فيد
طلب
الشر
##زق
خلا
##اعر
را
خبر
##ونة
##ظام
مه
القص
##قصود
##سد
##ائم
##جن
##يدا
مختلف
والط
الأب
##اره
##بية
##شيء
يوجد
حل
أحب
##ضرب
##سع
الجمعة
الخير
ويع
جدا
التص
آدم
مخت
##سط
تؤ
##قدر
##يق
##يو
النظر
##موع
ينبغي
وات
للن
مذهب
الحاج
الى
يدع
##هير
كتابه
رأى
إق
يعقوب
اللغة
##شارة
عهد
الشيء
##حيم
ينا
الطريق
الخبر
التاريخ
##شيخ
رئيس
شهد
قيس
مطلق
##روة
الحمد
##يث
وصح
الإج
الصد
سا
##تبع
فيكون
ليلة
صار
##شك
حبان
منصور
##فو
أحسن
##اتل
##قاد
##بدأ
المصنف
رجال
وعند
اختلف
رمضان
مثلا
##هام
##أنه
علينا
##ظن
بالس
##دل
##ربة
نبي
فهل
رؤ
الما
والر
ضمن
الواحد
أربع
يشت
##كلم
##لامة
بفتح
مرا
عض
سأ
سبق
الرزاق
الصالح
##وام
##لائكة
##جاج
##اتب
إج
##زن
والغ
للا
دليل
خاصة
الزهري
فليس
##وين
بعث
##يمين
##نان
خل
ومنه
مرت
الرجال
حفظ
##ابه
الثام
وجعل
زياد
##كين
##ئك
أز
شعبة
##حاد
يرى
##حث
وسلم،
##ديق
##ناع
##بغ
التج
##كية
للس
##ختي
##حوه
عليه،
##والي
ونحو
معين
أهم
##بياء
وثلاث
##لث
##ربعة
##يبة
فب
حسب
الترك
أسلم
##مائ
الأف
يده
حماد
يعمل
نزل
الولايات
##سام
به،
الفعل
وحدث
نقل
أعمال
##د،
كنا
المنت
##له،
يعد
لص
البقرة
##بقى
ضع
عطاء
##حيث
قتادة
أخي
##فعة
##خير
القلب
بناء
مائة
زيادة
فيهم
أبد
الأمور
تل
إليهم
##قام
##اط
جهة
محم
##ظمة
إحدى
التك
قلنا
##شياء
كف
التش
جاز
##عيب
بالج
ضد
الشيطان
يفعل
باسم
##عمل
المه
سير
منت
الآخرة
عمران
وهب
##ضب
##حية
الكر
ويم
ومنها
ضر
ورسوله
الاحت
هكذا
##الت
يصلي
قطع
##راسة
##ميز
##باط
الدي
##وحيد
الانت
لغير
##قتل
صفة
##قف
##قيه
تو
جرير
##ليف
فأما
انه
ترى
السيا
روي
##موعة
##ورية
الزكاة
بهذه
إسرائيل
العب
يجعل
قالا
الطلاق
##لة،
معناه
##ؤه
كلمة
يقولون
سبب
البلاد
سنن
##ربع
الخلق
اللفظ
نوع
البن
##برة
##وسي
أيوب
العمر
##ثال
##ليفة
الإسلامي
لس
ونسبة
##صاد
##نسبة
تعلم
يظهر
العراق
الأمير
##ظة
##دي،
لهذا
الاقت
حميد
##نا،
##ائق
امت
ماء
الكل
الروم
ويد
شه
نحن
##نم
##ارع
يحدث
تنا
والز
وسب
##لوم
وتح
##وغ
الأق
##بعث
الفتح
الفي
##واف
مرض
##سكر
##ذان
##فقه
أقل
الفقه
##هذيب
جائ
##غفر
##صية
أثر
أتى
منك
قبله
##رجمة
##ال،
##انت
الظاهر
##طار
الفا
الشعر
السب
وغيرهم
المل
##ويه
لد
وبلغ
##ديل
بعدها
البغ
ولذلك
هار
بينهم
بلاد
حرب
والثاني
##ريكي
نت
المف
قلوب
العصر
مرو
الرك
##جع
##بيان
##سناد
##قوا
ويست
المعروف
مجلس
##خة
يأخذ
##طه
نعيم
تكن
دفع
##غت
فرع
جد
وأحمد
##دون
محا
##ثبات
لدي
يثبت
##داية
والنس
منع
النسائي
علا
##رة،
##وفة
النف
##ملك
##الا
عاصم
العديد
##شى
##طى
##ليس
أين
المعا
فضل
##يضا
منكم
حرم
##يمي
بث
الشرط
##بيت
مز
وعمر
##ارق
صلا
أعد
وحده
والاست
شيبة
أنزل
ملي
حقيقة
الأسر
##ليلا
##را،
##ركز
السلف
إنا
وعلي
##رعة
##ائفة
الشرك
دينار
الإخ
##راح
كعب
المض
ورب
أعظم
يلزم
نافع
##ريع
طال
##وعة
##شم
فكيف
##ختلاف
##ائية
الهم
حنبل
##لاك
الكثير
##صاري
ألم
أخبرني
وست
##ونها
##مة،
محل
المجتمع
##ليات
##دعى
المشرك
آمنوا
##جود
الكبر
##دري
##ريض
يبلغ
بالص
للج
##اني،
السابق
حمل
حالة
##يين
يرجع
ذا
بوا
##ولية
جواز
##زب
أحدا
سيد
اللا
للك
##ير،
يسمع
##يح
القضاء
وأخ
قسم
أشهر
له،
ربه
##كمال
رجع
##قوله
##باء
الشرح
##يك
اليمن
##ارف
وبر
شريك
##قيم
مولى
تيم
العامة
##ناك
مبا
الإع
صحي
##روط
##ذل
عالم
بغداد
##ضط
وأمر
بالنسبة
##حسان
وأص
مدة
الجاه
فرق
بري
البشر
##كبر
##افية
##جلي
فات
السي
وصل
بكل
##ختار
##ؤمن
الأر
عدي
##عن
النبو
##مته
وغيرها
##زام
الميت
حجة
أمام
##غا
##دان
##لاب
النكاح
##يا،
أست
أمره
مجال
لب
عبر
##عث
عص
##صال
الاجت
الخر
خمسة
لش
##ليا
##حمة
##ما،
ذو
والتع
الام
ومسلم
##بة،
##ري،
إليك
العائ
ورواه
الزي
الوج
فقالت
##لكم
الذى
مخل
مو
ينظر
يقبل
##ناب
ربك
وأح
دمشق
##قاط
##وفا
##ظي
قريش
أجر
الحل
الذه
حصل
بالش
عبارة
وهل
##طفال
##ياب
للش
##خول
فقالوا
وخمس
التس
لقوله
يعتبر
وقرأ
اسمه
##شأ
شبه
الأحاديث
يجد
الخامسة
##احة
##طلع
وبعض
أقول
فإنها
احمد
ولقد
الثق
بحيث
داخل
أنواع
##وبا
أصبح
شعيب
يمنع
الفرق
##قية
العربي
##حقق
سهل
الشخص
شئ
##وفى
وجوب
أنبأنا
وأخرجه
الأنبياء
قراءة
العظيم
ومنهم
حب
وأخذ
وشر
نب
سما
##نون
السكان
##اي
خز
القل
##عى
##انع
##عة،
الفقهاء
##همة
معد
الرس
##طية
بنا
للد
يحتاج
يملك
الخلاف
وراء
حرف
##تان
المحت
##براني
الجماعة
حس
فله
كونه
مطلقا
رأسه
##ثى
##ذى
العقل
##وش
عندهم
وترك
موجود
ماله
مجاهد
##ندي
حبيب
باست
معت
خر
لغ
الرواية
صدر
الطعام
##حيط
معرفة
العاص
سمي
سائر
أحاديث
##انى
الآيات
والمر
يحب
الهد
إسناده
صورة
##لط
##اتها
##وبي
يحصل
الملائكة
نشر
##ولها
الكفر
جملة
##كمة
##س،
ويكون
السم
##سمية
الهي
ساب
ويح
##ق،
##كى
أمة
##بره
التفسير
الترجمة
مي
قوة
##ور،
##يره
مجموعة
مقام
بدون
الأمريكي
العباد
##جيل
##لقى
##صارى
جه
الثامنة
الرابع
الدول
الكافر
أثناء
##ضعف
وعليه
##ائف
بعضها
الأعمال
خاص
سقط
افت
يديه
بدر
##عله
بشيء
فجعل
جانب
الذكر
مسا
##ختيار
##مكن
ولكنه
##بيح
معهم
##نج
علماء
المشتري
وتس
شرع
عظيم
نقص
##خط
دعا
##كتور
آيات
نهاية
يحل
الرحيم
##طلا
الإق
كبيرة
قصد
##كد
##اتهم
##يران
##رابي
##فيف
البيه
الثلاثة
أشد
عبادة
##ورد
معمر
وهكذا
صحة
يؤمن
حلف
بينما
ابنه
دائ
##وائد
وسي
##ن،
الهند
وآله
##درسة
الجامع
واعت
##شرون
غيرها
الدا
##روب
غز
كأنه
لسان
وجب
قولهم
##ثرة
ماجه
##ريط
بالمع
وتن
##تا
المذهب
يجز
مرف
##سية
والمن
جنس
وعنه
الألف
##عبة
السلم
##املة
المغرب
الخص
##ضاع
سر
الذهبي
جنا
المؤلف
بضم
سوى
السيد
##قاق
قبض
زمان
معظم
للق
مني
##اده
مأ
##كرم
وأس
البعض
##صيل
الأج
الثمن
أصحابه
##رحم
##رقم
راج
كلامه
الست
وجهه
##ريكية
حاجة
حض
تاب
##رفه
##فعال
الذهب
##ذات
النج
طلق
كس
المسلمون
شعب
استخدام
##براهيم
يقل
والأرض
أموال
الشريعة
##عدم
خطأ
إنها
##قون
نور
معاذ
##مسك
سكان
ولل
عروة
##اجد
وسمع
اليد
القدر
يتعلق
مكت
نفي
لانه
المعل
التط
عبي
##فهوم
دولا
عندي
بينه
لأبي
واحدا
الشاعر
##كب
النو
##ومات
وإلى
خارج
الفس
الشمال
شيخنا
الدعاء
يقتضي
##طرة
هارون
أقر
يدي
القسم
كر
أصاب
ولأن
##ناها
بف
##تاج
فالم
##ر،
##صير
قيم
الكفار
##دب
الضر
تحقيق
حسين
##نتين
إمام
البيان
##طال
الثالثة
الكبرى
زمن
وأنت
##حياء
فخرج
##قة،
والسنة
أسماء
وفى
سألت
##شير
وفيها
يسمى
ذاك
الولد
##بوت
##ختص
سأل
##واعد
يقدر
##ئات
عنه،
##ثلة
نقول
الوض
الأنصاري
التر
##أخر
##احب
أنفسهم
واف
يقرأ
وأصحاب
الخمس
تقر
أجمع
التف
الفجر
الإي
اكت
الشرق
عيا
محت
الجيش
يسم
متوسط
أولئك
##كرمة
##اظ
خي
الحقيقة
الخل
تقوم
ليت
وبن
فيهما
السما
بيده
##تنا
##حاكم
##ذة
##رث
وأخبر
إنسان
الربيع
صدق
تعت
زك
والآخر
صل
##لبس
اختلاف
##عتبار
كقوله
أحكام
أهله
##أي
##ثله
الواجب
##راهم
روح
##تيجة
##قيت
يحمل
ويل
صور
##عتين
##بتد
عف
##دد
##فعول
الخلا
##درك
دور
عادة
أرد
فأمر
العا
الساعة
سلام
للناس
##هاجر
أرسل
درجة
فيه،
الأئمة
حديثه
فجاء
أبدا
قضاء
محمود
فعلى
بلفظ
كا
بدأ
بب
واج
البائع
الجمهور
جبل
الليث
##ظلم
للص
اص
تزوج
##بحث
حمزة
سالم
##زوم
والذين
أني
فأخذ
وعشرين
فقيل
أدرك
النوع
لأحد
الوس
الوز
وجوه
الأعم
صاحبه
عذاب
إم
##ئي
قلب
الجهاد
المي
العلمية
ظل
##زيد
الصغير
الخطيب
لكنه
جاءت
سئل
الأحكام
وإما
##خا
شعر
##قطني
##راز
##ملكة
الدعوة
العلوم
المقر
لأنهم
باع
بمع
بار
السر
قيمة
وقالوا
أعط
وقف
##عادة
مشت
##رأيت
ثالث
##بته
وجاء
البصري
لئ
المسا
جبير
لغة
المبارك
مقت
الحيوان
##ضاف
طب
البيهقي
الزمان
الجنس
الحكومة
##صلاح
وعدم
منطقة
##زاء
##لي،
##طاع
ربيعة
##راث
النعم
##ونية
بير
ستة
شهاب
طاهر
##مين
##ثناء
وفا
ترجمة
##فسر
ذك
الحجاج
عج
##غني
القيام
كأ
اج
##طلح
المرض
الموضوع
الساد
##ناية
لهما
طا
معروف
وخرج
شأن
الها
لر
الاسم
التم
##هج
نظام
بالد
الوط
الكف
##فيه
##خلف
المنذر
البحث
ثلاثا
المتن
حياة
عال
ومر
طلحة
المثل
ونحن
##بيا
##لاج
مف
##بوع
##خلص
واحت
بحسب
آله
حفص
الوضوء
نفسي
بات
وأرب
سليم
الأمريكية
##سس
##لا،
##زار
الريا
##بريل
عبيدة
##دخل
وتق
زوجها
طرق
الأسود
والل
يعود
العن
ذكرنا
عوف
سيا
حرام
ثمان
تقع
موضوع
المدين
##مامة
إسلام
نهى
مب
##قعة
الرد
##صلحة
إذن
بقية
بالغ
متى
اليمين
##تيب
واجب
##صره
جامعة
حقه
الطب
##بقات
المقصود
وآخر
ويس
قصة
##راجع
القراءة
ني
وكتب
الحرام
وتت
يتع
الحن
##دق
دخلت
المشت
التوبة
##ركب
##ماعية
##جمة
رحمة
##زال
##ديا
فش
تقدير
فعله
أحدكم
الواقع
##قاب
تجد
##تمام
واس
بكسر
مسند
يشترط
##ركات
السفر
الأعلى
عضو
##ويت
الشعب
##ستان
أكل
##قرآن
بالب
غاية
ويجوز
حينئذ
مفت
مريم
أمور
وقول
##هول
قلبه
لكان
علق
زعم
##زية
##رجو
الثوري
##عار
نزلت
قي
المهم
تمت
المنطقة
جريج
كذب
وإس
مروان
العائلات
##ويد
إنك
عملية
ورج
للب
القيم
عت
الخاص
الحجة
ظن
يسأل
الشرعية
##ائن
نفسها
التوحيد
الخمر
جامع
كلهم
قرب
جم
نسب
النهاية
شهادة
لكون
الصوم
مسجد
##ياسية
حضر
صلاته
الحب
الموص
##و،
قيام
أنك
الظهر
##منا
أيدي
كنتم
##م،
حقوق
##يسر
تعرف
بنفسه
##ورات
ضعف
##رحلة
المشركين
##وكل
بطن
الخارج
##عداد
أطلق
##ماعي
الخاصة
استح
##البا
الزيادة
موت
##رادة
##بض
بالخ
وتش
##طح
المأم
##كمل
كي
الجزء
##غب
الحجر
وهما
##حص
رأي
##وا،
الفلس
##زيادة
محمدا
مضى
وفر
منه،
مؤمن
ذر
أصب
عامة
التهذيب
##نوب
وذ
وانت
العذاب
يعلى
نش
تيمية
يمت
الفض
##صلح
لهذه
الوك
##ئية
##باه
يكتب
جبريل
حوالي
سج
فخ
##راضي
المصري
ويؤ
ومما
امرأ
الفصل
ونا
##فاظ
بالر
ربنا
تذكر
##روس
إيا
##فسد
##وضة
تكلم
الكه
##ومه
أمه
والمراد
##هارة
الناس،
بلد
يأمر
أشار
##روي
درهم
لنفسه
النهار
##تهي
يحرم
مصدر
فيمن
وغيرهما
الإبل
بدل
##رارة
وتم
أقرب
الصحي
لبن
##وافق
##ديدا
وعلم
يكره
التى
##مبر
النهي
عندنا
الغرب
فقت
##ئه
##تيبة
##تهما
وظ
##ل،
النظام
ري
##ويا
الفقيه
الإم
موق
##ت،
##روح
##حرير
##ساكر
تعليق
##شاف
##واح
الطيب
رسوله
##أخذ
أصول
حام
يجمع
كالم
فأع
##زمة
##كف
الجل
##وصف
أذن
النووي
المصر
بان
والنسائي
الدكتور
##غيير
أسباب
الطبري
السف
أعلى
##ثا
##وبه
دولار
فهذه
يأكل
فيت
وأهل
الرابعة
##ائمة
بيد
موض
الرب
لدى
والأن
وصلى
##ارح
##ابد
##بي،
بها،
بإذن
والي
السبب
الحرم
ثلث
##صاب
فاع
##الفة
ولاية
فترة
فالأ
المطل
ويحت
##صرة
##الات
جده
نجد
صاد
ويق
لعدم
وو
هد
أمية
المجلس
وقل
##رحمن
##ادية
طول
##ولوج
الأصول
##خصوص
الرؤ
##ريكا
أولي
وجدت
سنوات
لديها
##نفية
ميت
ومات
أقوال
العالمين
حما
بالإضافة
الشهر
اللغ
##وزا
السنن
لاست
اجتمع
آلاف
عليهما
غريب
والمت
وربما
آثار
##ىء
فرد
فصار
إف
والآ
بطل
الوهاب
صوت
لط
##حول
الصاد
##صى
وكيف
##ريمة
صرح
##ريس
قليلا
برقم
أولاد
قرية
بحر
##تهاد
فذكره
عني
جا
التاب
إيمان
عنا
لبعض
قليل
##راسات
شا
ببعض
جائز
الجميع
بهما
معي
##رائي
الحاجة
الجاهلية
يعيش
سيف
باعتبار
أريد
فكل
يؤدي
بأمر
##روض
المجموع
##نامج
اللج
##درس
حجم
أهلها
يومئذ
ترد
ماذا
يضر
وتوفي
##وبر
##جلد
ساعة
يلي
ظهور
الشهادة
بنو
##راة
شئت
مرفوعا
الرغم
عمار
المشهور
##تهن
وكيع
الدليل
أظهر
بمنزلة
وأنشد
دل
##يتها
المحرم
الوقف
##قبة
القائل
##نيسة
عيينة
واله
مجموع
الطبراني
صنع
##قاء
طائفة
ابى
تسع
وأش
شركة
##زه
الجملة
الجد
أصبحت
بسم
ذكرت
م،
وأيضا
##شيد
##ناعة
##لاص
قامت
الأيام
فأخبر
المغني
أعت
بمكة
##ليلة
باطل
لين
الزنا
الأور
ظلم
##حى
ونحوه
يوجب
##نيف
سف
##وضأ
الري
معل
##ضرة
حديثا
دولة
الأمم
يطلق
تمام
شاه
الفكر
غالب
الورقة
هاشم
الموجود
الشه
والض
##قها
ته
تخرج
##برا
##قطة
##بهة
فاس
إثبات
نقله
يحكم
سبي
حقا
الأدب
البلد
الأغ
القدي
وأكثر
إليه،
المكان
##شري
ربي
##سه
الإسناد
##ناف
ربما
يلزمه
زين
حركة
حدود
الأشياء
جوا
لمع
##به،
##اوى
تما
يلت
صدقة
التعليم
##ثه
ويمكن
ينزل
##جرد
الخامس
يحتمل
التاس
بنى
##امي
عقبة
الرازي
سؤال
الاسلام
##لون
محر
##سى
المحا
##با،
الشرعي
يقدم
مختلفة
##اجر
الأنصار
القياس
##ثي
##افعية
وانظر
القانون
الامام
##عير
##ناة
يشاء
الدارقطني
##جاه
##فعله
##اربة
المطلب
##ثنى
##خاص
##دوا
سه
##دة،
أخيه
##فيل
##زو
بآ
##ادات
وروي
##كو
##حمر
يشهد
سبعة
##بيرا
لولا
المقت
يسلم
رسالة
##وائل
قتله
##ربه
ملكه
##فيا
##ساء
البو
خليفة
##فقة
المرت
البغدا
الأكثر
##اهما
##داب
##عاة
القلوب
##يص
وثمان
##ار،
تجب
المصدر
آن
والحديث
##سلمين
وأق
القتل
والبيه
القس
خد
الاس
أوا
##عاية
واختلف
شديد
مكر
وتأ
تعمل
الحنفية
##ذوف
##طمة
ثمن
وحا
لف
النخ
الأعمش
هما
يقر
##تمد
أرى
الخال
دينه
أبر
وحديث
دخول
يصلح
رسم
الروح
ينفع
يدعو
أثبت
الطا
وبد
صي
معها
##زلت
وجمع
والإن
تبين
القضا
زرعة
كاف
الحالة
المنكر
##وره
##حيانا
تنت
##قامة
ورحمة
المسيب
##يل،
يبقى
##لين
ضمان
##ليين
أورد
تقديم
وقعت
شمال
وسط
لام
ابي
والمعنى
أصلا
الكمال
##أله
##صبح
لخ
مم
##طنين
الثقات
##مييز
الحس
أساس
الصواب
طريقة
##سنده
يتبع
يفت
بز
النور
العالمية
نكاح
التخ
##نسا
فرا
المغيرة
ومس
فقام
وأف
##فرة
أحوال
علما
الطي
علمه
العامل
علمت
المب
##طفى
او
الإد
وأج
القراء
##ظيمة
طعام
رآ
زكريا
الصورة
ثانيا
محرم
الألم
رح
المنافق
أذ
مرات
قبي
يترك
##يزان
##فال
يختلف
هن
سفر
وفتح
سبحان
العسكر
##خذه
##رخ
##حسن
محد
##توا
الاتحاد
##ائهم
صال
عمله
جما
تعرض
وهناك
ثوب
##ع،
أخر
وعلا
الإح
مجرد
قريب
الموضع
##صابة
جزا
العدد
##ؤها
التجار
يعتقد
النصر
بالف
أسامة
##ول،
##صاف
التد
بتح
فبلغ
##جماع
العدو
الأه
فإني
أسد
##زين
أنتم
مقا
##خصص
##صم
والست
العلامة
كثر
الشريف
المكت
الثلث
##وبية
غالبا
##عية
أدى
كمال
قضى
الحدود
اليس
##خلوق
عكرمة
المحدث
المذكورة
##شاط
قصر
استعمال
قلوبهم
##ئتين
##هى
قاد
المختلف
الدر
الكامل
بالل
##يري
##ذج
جديد
والترمذي
##دعاء
الأثر
##زاب
يدفع
عبدالرحمن
##قق
##واجه
أتي
##روفة
##ضت
الخروج
اللام
##واية
الفرد
##لفت
يضمن
يطلب
وقوع
نبينا
الإله
يزال
بقدر
فإنهم
العلاء
أشبه
سنين
قبلها
##طنية
الأسرة
ملا
##ويلة
##واري
فائدة
النصف
الحض
##بدو
مسل
الكوفي
##ندا
نك
تقبل
الفترة
بالحق
فغ
##سطة
لأجل
الواو
الدخول
فيك
وفق
ومعنى
فلس
أورو
إسناد
العرش
##ليك
المقا
يرض
المادة
تحمل
السك
تبارك
الرسل
جديدة
دينا
الوسط
الرجوع
كلما
فار
بداية
غر
##عيان
اع
جواب
النجا
القاهرة
خلقه
الأست
أربعين
##براط
الخز
فارس
اش
##قوط
##راقي
يخل
تقي
سوء
البريط
أبواب
الجوز
طرف
عبده
الاقتصاد
##ائها
الصحيحين
##ينية
بيته
##قطاع
##أجر
##طأ
النع
اليه
##وفيق
العبادة
الميم
واد
العهد
أسرة
ترجمته
مهم
غيرهم
##يدي
##ليت
مقابل
مهر
##سيم
##ليب
عصر
العشر
الذك
وكانوا
اعتبار
ادعى
الأربعة
##خاب
##ني،
تحريم
واسم
##ذاهب
يستحق
##نسي
تدع
موقع
##كات
مسائل
##ذاك
قومه
##حوا
يقصد
أقام
رض
الرأس
بحق
الرسالة
##خصيص
الجديد
##متع
##خيص
يقتل
##حابي
فرج
##ئر
##هنا
الصفات
الاع
##لسلة
الاشت
يمين
##ريت
الرأي
بنفس
الحركة
للغ
مشروع
حكيم
##احية
أخبار
##فيذ
##نث
##ونهم
##بنى
البناء
السعود
##فين
شمس
انق
هلال
##تمر
الأموال
القبر
اللسان
عشرين
##ذاء
##علن
العيد
سيما
##واة
كسر
تصح
عساكر
##صن
خلافا
##امن
إح
الشيعة
البغدادي
أمن
بالمدينة
اتخذ
إشارة
كفروا
يخفى
ربيع
كره
##طبي
كبر
الخطبة
الوجود
وثلاثين
زال
تعداد
نسمة
حسان
شرب
اللبن
رو
##ناث
مالا
أحق
جمهور
##نز
وذكره
دراسة
السود
##كم،
نسخ
القديم
##جال
يستطيع
##عان
العدل
نها
ابو
##باحة
أفراد
نسخة
##افت
##يء
زكاة
متفق
كذ
النز
ميم
السماوات
الغربية
الكا
##دلال
##ولت
يروي
شب
##فذ
مركز
زهير
حزم
عدا
الشعبي
النسخ
الجوه
التو
##عتبر
المظ
ابتداء
الأل
نوح
##حكم
يرت
الوح
صلاح
##بيض
##روق
السابقة
وبا
فيها،
##لية،
##وي،
أجد
يرفع
تعلق
##ح،
جهن
##قصد
##قرار
ووا
وحين
تدل
بدلا
هذا،
ولعل
عرفة
ولن
بدم
تقت
الجنا
الصديق
المعرفة
المرو
والصلاة
نوف
وصحبه
نعلم
##خب
المحيط
##فاف
خرجت
وعمل
لقي
حياته
الخي
ولده
الأخير
##ديان
##عات
أى
بالمعروف
القدرة
فإنما
بارك
##جتمع
خالف
##لفة
فرعون
سماع
الكلمة
القتال
مناف
إياه
يو
##اعات
يزل
جاه
قاضي
##الد
اللجنة
وزاد
ثعل
##ياط
مول
منكر
يكفي
##سته
الألب
صحيحه
الملا
##تهد
المساجد
الغالب
جرى
تدخل
لحم
كشف
حاز
##ريات
وحسن
بعيد
القوة
للف
شرك
الأحد
##راهة
النسب
##سمي
الإسلام،
الراف
معلوم
##ذيفة
أنكر
غسل
بدأت
توجد
وحم
##طعام
إنهم
الربا
##ضيف
##تكم
##وراة
الصحيحة
وكما
يسقط
طبع
##ولاد
الحمل
شاهد
حسنا
قضية
ومت
وحدثنا
يتكلم
عليا
المخط
الكث
##غط
يروى
الأساس
##وانين
##غار
يعطي
##شرق
بأنها
##بوب
الأسماء
نهر
يقطع
فقل
ام
شكل
تغير
أصله
الآثار
##ظهار
الشركة
رافع
يبين
الأو
الرم
فضلا
##افظة
الياء
خروج
وأه
المتقدم
##جوز
وعم
يضع
الباقي
مجتمع
ذكرها
غل
لتح
تبع
##تني
##شقي
الأمن
الطرق
نصب
امرأته
##جارة
الخيار
القوات
وار
مقر
##ساعد
الكوفة
الماضي
##صحف
##غال
##ائط
##ريضة
##ادل
##عدل
المسائل
إعادة
مظ
فأجاب
المائدة
تحدث
حذف
##ولات
مليون
سكن
المملكة
##حف
##ذور
يذهب
عش
الصفة
جر
##حاك
سوا
متعد
##ابا
الفرج
البصرة
خزيمة
تقري
إقامة
عاما،
النق
الثوب
والجمع
زوجته
أبناء
تعتبر
اشترى
##ارى
منز
درج
##عها
مجمع
##فعت
أصح
الجرح
هلك
قتيبة
والمش
مرد
أوله
يث
جيش
الصدقة
بمثل
القيمة
##ذبح
##اند
جهنم
للخ
نحوه
ومثل
الجم
أقبل
ورأ
##لمه
##وفية
بنسبة
بعضا
تمر
إطلاق
خا
طاعة
واشت
الدهر
بشرط
يتنا
قبر
قانون
حسنة
##بتدأ
##وزاعي
##ادم
الصحة
السادس
الشباب
الاص
##لقاء
كامل
يدرك
قال،
##ودا
##تالي
الأكبر
##وفق
النصوص
عاش
خيار
عطية
##جوم
كبيرا
الاختلاف
اختيار
##أمل
دول
##ئن
##واق
حساب
##عدا
الفاس
##هاز
آخره
أصحابنا
##ينات
##لزم
صفات
ويحتمل
ووجه
السير
##يتين
كثرة
جال
##فية
المبا
ركعتين
إضافة
المأ
##جرى
الصوت
##قصى
وأب
يض
فكانت
سلف
بعضه
نفسك
##وجيه
ناحية
الصور
الضمير
نتيجة
القبض
##كيد
##انيين
بابن
حكمه
لأهل
بينة
فز
فاطمة
إلينا
المرا
##وريا
المبيع
أخذه
##كرر
المخت
أحدهم
بكم
صن
ربكم
الإعلام
المناطق
عطف
##جات
الظن
وأصحابه
بواسطة
والصواب
رضى
الخد
العمال
##نابلة
عقب
الطرف
الأمريكيين
السمع
##فاعة
الأوسط
يبق
فين
بدا
التاسع
أئمة
الدية
عفان
##ائرة
يموت
##رسال
تميم
##ابلة
العض
المرء
##زاز
دائما
##سيس
الحديد
قرا
ثق
وقتل
از
##وية،
ترا
##قاع
طويل
بينها
الجسم
الكون
تقد
الأنعام
الصيد
كافر
##صاص
الخلف
صغير
قدره
والبيهقي
سلطان
##ورث
الشافعية
البار
وكتاب
##لتها
بمصر
المدني
الجوهري
الخطأ
المهاجر
قياس
ربهم
المحر
السكانية
صرف
نست
##ش،
ثقات
صدوق
النعمان
##كه
قدي
وحدة
والتق
يصير
كه
للط
أسا
##رضا
##رجح
عمير
تريد
##فساد
ماجة
##جازة
يجري
فدخل
الكذب
وسكون
الاصل
ذوي
أمريكا
لآ
بالط
##كير
ونس
الأخيرة
أحدها
منس
المسيح
راب
##إنسان
لحق
الطريقة
##وزع
الكعبة
بدليل
##لمي
نائب
المقام
النصارى
المفت
الأدلة
بيوت
الطويل
تسمى
الصل
الدمشقي
يفر
والبا
منص
خش
الغربي
هام
لئلا
##ائج
واضح
يشبه
الإف
##ناق
الجديدة
والمس
جهل
جعله
الاج
الباطل
شدة
النبى
##هداف
علة
القطع
نوا
##تها،
مباشرة
ولأ
الزمن
والعمل
فتنة
عنك
##مارة
الاول
التفا
يفهم
الشارح
السبع
مولا
##نسية
##واني
المهملة
تأتي
يضرب
طبقات
الأعرابي
فعليه
دلالة
فط
ويك
عباده
أحيانا
تهذيب
##جمع
ويش
لغيره
##خال
الأطفال
قريبا
حيا
العدة
##وده
الهجرة
الغير
##قسم
السكن
##كال
##انية،
الابت
مفهوم
أض
واعلم
كتبه
##غبة
صغيرة
نسي
القبلة
##بدل
مواضع
والحاكم
التوفيق
ونقل
نار
يأت
نساء
صوم
##راء،
أمي
جنوب
شرعا
##سف
بالث
القمر
##حاب
##بيعي
بحث
عقيل
ملت
حفظه
تفا
فرس
الرهن
تأثير
بقول
الوصية
الجبل
لبس
الجه
##كلة
أمرا
##يمم
نصيب
فسر
اثنين
البلا
ناصر
تبر
التل
أرس
الحميد
فالت
الأخبار
تصرف
##مرت
##واص
التصرف
يعبد
الفرض
والثالث
##جية
##كما
##طات
لاح
ناد
رجب
ومائة
جمال
حذيفة
الظالم
يخالف
والده
والأم
##ذار
##ايخ
##اهدة
الدين،
##طاق
أخو
حظ
قضا
طالق
وصار
##ساوي
الأسباب
لات
الضمان
السج
المسند
##يساب
السائل
الكتابة
الحضر
القديمة
المختار
أدري
##ثنين
##وحة
يسب
##جح
مجهول
الخوف
ببغ
##لبية
##انها
قرأت
##داة
##وسع
##سيا
وحتى
الفات
كام
المقدس
النوم
##عاون
ومح
دعوة
##خرة
##يها
##لاقات
بسر
السياسية
مجلة
##هدى
##زالة
القصة
الصبح
بلغت
السموات
فيقال
أعضاء
##شرع
بالاصل
موته
لقول
القطان
فاج
وحكم
الإشارة
أحدث
##طاعة
الداخ
عط
مستوى
كتابا
##سي،
ابراهيم
فأنت
هيئة
محدث
##بارات
##صحة
يعلمون
سرا
##ولوا
##جاوز
##لفه
##فلة
شرف
باز
الوكيل
##ناهم
وقبل
التركيب
والحسن
وذهب
##قلة
ذه
##عتها
##سون
##فور
##فات
فذلك
يسار
واض
تبلغ
##ائص
##سسة
##ذم
النون
كلاهما
شم
أعم
##ز،
##زى
##علان
##احل
##وطأ
##ضه
##ثيل
مسلمة
عبدا
##حاجة
##راعة
العلة
يسير
قائمة
بلى
ويحيى
زائدة
بيروت
##اما
وخمسين
أكت
ينكر
والأربعة
يستخدم
مخط
##فاد
الصيام
الدينية
الفطر
##حان
##لاه
أداء
فضيلة
الفرس
وأت
الأند
يؤخذ
وفاة
##اركة
الفريق
##لتين
العر
##عقد
##زر
الجانب
##كاف
ومثله
##قبال
وظاهر
وسائل
انته
إخوان
معاني
موج
الروايات
قبول
والوا
يكفر
شروط
##جزاء
شيوخ
بالي
حاله
الخيل
##قرب
##ذير
قس
الهيثم
مرس
##بول
وتص
الإسرائي
##سناده
خصوص
الحكمة
سوف
وقالت
جيد
##ئين
بذكر
##حكام
أمكن
وبهذا
ألفا
##ربت
فكذلك
تظهر
ليكون
قدمت
##عبد
علوم
##ورت
سيأتي
يفيد
لعل
مطل
##معي
الخليفة
السا
##ئب
الراء
النية
##جان
ضرورة
##وهر
اب
سار
أشياء
كلم
ودخل
هذين
ركب
القصاص
##؟؟
##حاء
تصل
العادة
##كندر
الأحزاب
واخت
السابع
لعب
##علقة
##طم
##نار
نخ
أردت
وأربعين
الحص
الاخت
وبرك
##ويات
##نك
برد
##ستر
الريح
بحديث
النبات
أوروبا
اثنتين
عون
ببغداد
الصبي
بض
##فسخ
وعشرون
برأ
السين
الكس
الخش
تفعل
العي
يكونوا
النبوة
##هو
##ماعات
المركز
##ارئ
الحديث،
للشيخ
سبت
أمتي
وليست
العراقي
ادع
اد
قيد
المؤمنون
المسلمين،
عجز
عاب
##ورك
ففيه
كبار
المثنى
خرا
الاخ
صا
##قن
تجعل
دعاء
##وادث
بدمشق
المريض
الفار
نعمة
الزواج
للاست
المالك
دام
##عدد
القدم
الهمزة
##وطة
التوراة
خذ
وكسر
جزءا
##جيب
القرشي
##لول
جارية
بلال
تعلي
اتفق
أنثى
المدة
المصرية
مقدمة
##لاحظ
السعودية
##راها
عمه
طويلة
عرق
##غرب
##يبه
##في،
عمي
يتأ
جان
نن
فأت
##سكري
حلب
السورة
##قيب
السجود
مثلها
والتعديل
الزم
##ماه
##فف
توا
فعلت
ثاني
رزق
العقيدة
سك
النقل
الحفاظ
التعريف
راجع
التجارة
خار
حاد
القرية
وأقام
تض
تمكن
الباري
كتبت
موص
وسن
المتوفى
الفساد
##جهة
المجال
##اوز
تركه
احد
القصر
اعلم
مراد
حزب
معينة
##رتب
##دح
##وجوب
البيض
تتم
خوف
##لائل
والان
الرح
تنبيه
الفتوى
وأول
وفاته
##ميم
##نة،
ثمانية
هات
##قيقي
##لل
عدل
ولذا
الاجتماعية
ناف
##حاح
يمن
نوى
أجزاء
وأبا
##برت
القاطنين
سجد
الجزيرة
عرفت
السع
المخلوق
##وسى
الجامعة
الدولي
لزم
فرنسا
ثلاثين
نجا
يراد
واب
أقوى
عتبة
فوجد
ورق
المختلفة
حرا
الإجماع
بول
الكاتب
السلمي
تحديد
##ضيع
سيرين
وسبعين
##ركان
الوصول
جار
الأحوال
وأخبرنا
الوطني
##فتاء
عتق
فريق
##حتها
##ومية
الرحمان
##قتها
يشير
وقر
ليلى
عليها،
##فصيل
الوجوب
الأمان
##ائح
رؤية
وتاريخ
الشك
مهما
وصححه
كفارة
يحفظ
يولي
دونه
##بوه
العليا
##ضرورة
##ارم
حافظ
تلق
فرغ
البلدان
ريا
فلسطين
حامد
قيمته
##لاوة
وأد
يقضي
واسع
مخلوق
المعد
سهم
المنهج
صحيحة
منهج
المتأخر
محمد،
فمات
مخالف
والمست
أشهد
الولي
لماذا
مارس
يظن
وبركاته
والمح
وجهان
الوارث
##ديمق
ليل
##وتر
##ارضة
انا
مجاز
قائما
الشب
وتقدم
الإنجلي
##رات،
البط
الاستع
##ازي
##رامج
##ضيق
والتح
##عري
وإيا
المعلومات
منها،
نح
برو
عشر،
ودع
مار
المعاني
الذكور
الغر
الدور
مخرج
فيكم
قائل
##بث
عياض
الكم
إنشاء
##شكال
واقت
الستة
##وة،
وتخ
مضم
ومعه
رفض
##غاء
الغسل
الزوجة
الباء
يمينه
##قله
##راحة
##صوص
##ؤون
يحسن
لتع
عذر
تسم
##علها
هند
قولا
متن
##عوا
الهدى
بالضم
بو
الملوك
رغم
طيب
##خله
غض
##مني
##فضل
##لاط
تأويل
اضط
الملت
##دها
المولى
##تح
أنهما
##اطب
##وم،
اح
اي
الحيض
##خروج
فساد
قوما
المكي
##الله
للر
ركعة
الدرد
فكتب
يصف
##واهر
وام
##خم
المالكية
##ظيما
الصبر
المثال
الجبال
خم
تعيش
كفا
بأم
بشير
العص
قاعدة
الود
مادة
##اهرا
##ج،
واقع
تستخدم
##ولهم
وستين
لست
##فاض
##لاة،
##شه
اخ
##يراث
حلق
أمثال
غلام
إدارة
حلال
##رائض
ورجل
النحو
أخذت
بالز
الأعراف
جلس
البينة
##بادئ
يخاف
العشاء
مصعب
النوا
لذا
الحقوق
المطر
لمدة
##ؤوط
##راره
طلاق
معك
الياب
النضر
الأولي
##فير
لعبد
##بيين
نية
المفسر
##ظل
الأستاذ
##حاول
الوطنية
يشعر
الأخلاق
سيده
نقد
##لاس
##ورهم
##كاية
ظهرت
كمن
عملا
ديوان
##هرة
##تهر
##مرار
بالكسر
المنع
جري
شعبان
##وامل
منظ
السوق
##تة
##خاذ
الإخوة
##نيه
العلمي
محذوف
وتسعين
الخلي
عظم
##حيي
قائم
العلا
مفر
صالحا
الطالب
بعدم
##تيه
##عا،
دعوى
ممل
الذات
استع
كلية
##حات
علاقة
سطح
##براء
بسي
والمؤ
يمر
##فوظ
##قدام
ابنة
الذمة
التأويل
##وعي
العشرين
##ريل
##جلة
اللحم
لكونه
والأخ
نظرا
الضحاك
##وضح
ممت
المطلق
بالفتح
تسمع
المشروع
##الته
النهر
الوضع
خمسين
##خلت
التحريم
يمس
إخراج
مشهور
##جين
##هلك
التنا
يكت
بالاست
أنشد
يرج
الصلح
الكت
##سسات
##يلان
المياه
الغز
كانا
##تيان
الشارع
صفوان
الهوى
نفسه،
الخم
الفاعل
مدرسة
وتك
الشيخين
حاشية
الرضا
موقف
##مي،
الذنوب
النفوس
##وردي
ولكنها
فاعل
ظاهرة
##ود،
مرتين
سنة،
والظاهر
##هان
##بون
كش
##حاث
##لها،
وأربع
حازم
عائلة
إش
تعريف
الوصف
عياش
فصلى
جعلت
##بويه
الطهارة
##اض
الوحي
الثابت
بدين
فيجب
المنصور
النقد
العتق
##ثور
##ؤمنين
لأم
وكم
##بها
بعدما
##يعة
وسائر
عمارة
##نها
السبيل
فئة
لابد
الأصح
##ياطين
بمر
##زيل
وأنتم
##جري
مرحلة
مصطلح
##هما،
وعدد
يبعث
وقام
الليلة
تقريبا
رضا
أعرف
تتبع
الأرن
الحدث
النفي
وكأن
المعي
##ارنة
##منة
لكي
عدو
##ادة،
يعرض
التقدير
بدعة
بعين
الطلب
ولأنه
وفقا
اق
يصدق
وسعيد
يقف
حبس
مايو
يبطل
الارض
جزاء
حيان
السياسي
##ورها
مقدار
ذن
جي
جب
##بالغة
عندك
##قته
نذر
مناز
رجاله
الحكيم
الفاضل
وخل
القادر
احتمال
أرأيت
النب
منزل
الثامن
حرج
ويص
بطريق
ونص
الكنيسة
سد
اليون
الدولية
بخط
البال
وهى
قواعد
عالما
بكتاب
الاش
الفرنسي
البشرية
##غض
خليل
وجماعة
متعلق
وسيأتي
تضمن
الدراسات
مختصر
وائل
طه
العرف
القبور
التب
يهود
##همية
المهدي
قتال
يسر
##آء
برنامج
شاة
##بيعية
يلحق
وثمانين
نفع
أواخر
الأخذ
الأرنؤوط
الفرا
واش
سببا
الخدري
ريح
الباحث
##ئلة
يقيم
المواد
سبتمبر
أوائل
ووق
أعلام
تجوز
فقه
إنتاج
وته
أهمية
الفراء
مثال
وخلق
##ويم
مكتب
##لمان
بينا
اعتقاد
بيننا
##وعه
حبي
العال
##تهاء
##وقي
وهنا
أيضا،
يفرق
##ف،
والشر
الفتنة
التراب
قراء
وعاد
جزيرة
السيف
##حرك
عربي
حصين
مسلما
ويجب
ذبح
الواس
الأجل
أكتوبر
مدى
##ولين
أمرهم
##سانيد
بحكم
الغيب
##ثلث
المقرئ
القن
أسمع
##رجال
بذ
وإني
عظيمة
النح
التمر
النظ
##جاد
يخت
##ريبة
وقدم
صيام
ثبوت
شجرة
المدرسة
كع
أدخل
ولدت
##ريقيا
الجبار
##غاني
استغ
##تابعة
وبالتالي
يهد
للنبي
##رشاد
الهل
مهدي
ومائتين
##بعه
المعجمة
والحمد
ووقع
العلاج
ملكا
اذا
##زت
##حون
##فصل
بمجرد
يدعون
الأوق
##فيع
الناصر
صنف
كيفية
الإش
##قلال
التقريب
أطفال
يبر
الطاقة
##يرة،
##جملة
الأرد
ثور
الأزهري
بدع
لعم
والناس
يزعم
الظلم
الإمبراط
إحداهما
والعلم
سلسلة
مقدم
تغيير
صارت
بقاء
العملية
تفرد
##راطية
القاعدة
##مية
##وابه
الصلوات
##دا،
والبر
ذكرناه
الركوع
عمن
تلف
##قاضي
التابعين
يغفر
##اصب
ند
ويوم
##ضاه
وتد
##حك
اتبع
شديدا
لقب
عمره
مقصود
##ؤهم
##قوم
الفقر
وبالله
أبوه
ودفن
تفر
المجر
##ئة،
الخوا
غفر
يحتج
##ؤل
لرسول
سلمان
يؤمنون
عموم
##خوذ
للسكان
تقل
سبعين
##فاة
الشعراء
حدوث
الاد
الشاهد
وأي
##أذن
بثلاث
##ئها
والشيخ
##خراج
يلق
وسم
##وه،
تختلف
طر
والمنا
##موذج
المائ
السوفي
كيل
سوق
التغ
##دريس
##البة
حف
أخت
أولياء
خان
هبة
##روك
غزوة
صحيحا
البداية
ضمير
جند
مؤلف
عمر،
##ئم
كسب
الأقل
حز
الأقوال
عسكر
يعنى
##بائر
العرض
وحكى
حري
العسكرية
والدار
صريح
ونظ
الإطلاق
الهواء
تفسيره
##ردد
الأجر
مفعول
الشديد
لزمه
مكانه
يبدأ
فأخرج
##بتها
فكأن
عجل
علقمة
##وبات
جمادى
الصلاح
##طت
##ضيح
إدريس
توجه
عكس
##خرا
القرآن،
ولت
##عده
اليهودية
القيس
الأذان
القائم
الخليل
أنش
الحساب
##نساء
ونحوها
الحاضر
الجار
رآه
واحد،
##عيه
وتكون
الدرداء
كقول
رجاء
تطبي
حجاج
وعز
أوس
##مارس
##ضعفاء
##جور
الديمق
جائزة
اجتماع
يبيع
تعالى،
القرى
فليت
##داق
##رامة
وإنه
مرك
حارث
البدع
##متها
انتقل
حكى
اتباع
##يبا
عوض
تأخذ
##ذري
##عتهم
فأنزل
##اوية
شعره
مانع
فلانا
حكومة
الطاعة
المرسل
الهداية
##قاطعة
الزجاج
الموقع
##طوف
##بيات
##عداء
الراوي
حذ
الحنفي
الجنوب
##لاع
خطاب
الميزان
##ونيو
يؤثر
ووضع
##حدد
غلب
التقليد
الكبيرة
الإناث
لحديث
الصدر
فتكون
أدنى
تحل
هجر
##صلة
بوجه
الألفاظ
وأراد
المجاز
نرى
شهاد
الصوفية
للمسلمين
الأكل
الحزب
العظم
المطلوب
ههنا
البك
تثبت
القرب
شرق
قدرة
يناير
فرأ
القرا
الراه
شوال
##ويلا
##ومي
##عي،
السد
الحروف
يريدون
الطفل
ومالك
عيد
##طلة
بالفعل
وحر
أهلك
##وهن
##ثني
مسؤ
##ديب
كتابة
أخرى،
كونها
##باعه
الحديثة
بعينه
الرحمة
##يتهم
إنكار
قضي
صلة
المحل
##صرح
تجمع
##فهام
ضم
المدن
##يتان
تقرير
الصي
##اها
فاح
فانه
والنهي
الاب
تبعا
حقيق
##حيان
سقوط
مناس
مكتبة
الرياض
ولفظ
ألق
وعل
تماما
التالية
##روه
ورفع
وبقي
الصغيرة
الأرض،
والفر
فسأل
ثياب
الشيب
غدا
ومد
علي،
الالت
الموس
والعشرون
##سمبر
##صفات
##وزيع
الخلافة
ميمون
##خشري
استخدم
يجتمع
كار
غن
الأربع
المفا
الأك
الإجارة
فقتل
الذا
وطلب
أسل
ناس
معشر
الدفاع
فسمع
عديدة
تا
النحل
المنافقين
فلن
التحقيق
العالية
##رجم
الألباني
الكلب
اتفاق
استطاع
المجمع
أبلغ
لث
سميت
##راتي
##بيث
لعمر
والعل
تزال
##خابات
##ماس
##نوان
الطواف
الإحرام
حوله
##هورة
فذهب
التالي
##ائلة
تعود
الصلاة،
العموم
رده
الأراضي
البح
ربا
##بوعة
جس
وعثمان
##حها
قبيل
##ائض
##ركه
منظمة
البزار
وعندما
المنبر
وتوزع
لنفس
عينه
مذك
##وصل
يبت
قم
يحضر
يخلق
##ذية
القضاة
ذاته
##بك
غيره،
الشرقية
الآخرين
فرقة
الفلك
ضرر
شري
الكاف
النفقة
وزارة
الأمين
ضبط
##بروا
أمرنا
القضية
يصبح
يتخذ
جور
ولها
أوجه
الواحدة
##عرف
معجم
أبان
ديسمبر
نم
الطبعة
لأمر
##حاوي
أقسام
قولان
ففعل
معنا
تعبد
##جابة
الرئيسية
أجمعين
وسئل
تملك
درا
المهر
##وانة
جون
خلفه
##فهم
واقعة
المسمى
الدال
انصرف
##جاع
الصمد
وأنها
##ساني
##بارا
أيديهم
والشافعي
بره
أجز
مخالفة
الحاد
##رون
للز
الأوزاعي
وأل
الابن
روايته
أعطى
إمكان
فهر
فقوله
آت
كنز
ودا
التعبير
الحصول
سواه
الآتي
ظاهره
##نوا
برك
البصر
بحال
وعمرو
صفر
الحنابلة
باستخدام
##ودع
##شون
بألف
فوال
السلطة
جسم
##كتب
أبيه،
الروض
هدى
الدوري
وتست
وبي
شق
قوات
مان
##وسا
نظم
مبتدأ
يحلف
ليلا
##اش
##طور
نوفمبر
مناطق
الجوزي
تجري
أجاز
النبوية
ثعلبة
الفتاوى
والقول
المعتمد
فإنك
تسعة
الضرر
حالا
وجهين
وخاصة
قوي
الاه
ذنب
سنان
الجهل
##عال
الكلي
ينسب
##شيم
##رفت
الواق
##وعية
بكير
##يد،
فضيل
أوصى
أليس
وارت
##سات
تعا
عس
وبذلك
الفئة
النجوم
اختار
وسا
##عاب
بأنهم
داخ
ينقص
نزول
فنزل
نبيه
لز
وتر
جئت
كريم
الأط
##فون
##اليب
بالناس
يبدو
حصول
ألمانيا
ضعي
جنب
تشت
وعب
نفر
##فوا
##قدمة
فاد
سيبويه
##صادي
السائب
ينقل
أعني
آخرون
##طيني
الجمل
المحتاج
قرر
وردت
الوزير
المشي
الولاية
لإن
الأعضاء
فنا
الفن
المرحلة
بالقرآن
الصالحين
وحق
نظير
##افا
تولى
وتج
##ورى
يفعله
فأرسل
زوجة
الجزاء
الصفحة
##كث
##ظار
قات
ويخ
أنحاء
##صدار
مغني
قيا
كري
جلال
أتم
يلبس
المدارس
وهؤلاء
كالأ
فلذلك
أنفسكم
قاسم
##تبط
الفرع
تجاه
قطعا
المهاجرين
أعداء
النه
ولولا
النم
العلل
##ساط
السحر
دراهم
تأخر
##غان
شار
هز
##قلب
مأم
القدس
تلا
راك
أوجب
وكنت
وإبراهيم
فأنا
ويقولون
بيا
##دعوة
##ماية
الامت
وحدثني
الرواة
العز
الضرب
وإذ
وألف
الأسل
لعن
##ميت
مهمة
المديني
ورض
##مرق
القليل
متعددة
##جير
ميس
وأشهد
بمت
كاتب
مصطفى
قولك
أسر
ورث
قدامة
##عته
الرؤية
الأزواج
ربع
ساق
خيبر
وامت
بتق
الأصمعي
الحجاز
سويد
ملوك
##اجت
صع
عمرة
وحمل
الفاتحة
##وتي
##وس،
وجوده
خفي
##رائع
فكرة
##بز
الجمال
صغ
أجاب
الجزائر
النجم
##صدر
القرطبي
والصحيح
ألفاظ
قادر
للإمام
معرف
##ألك
##رال
##سر،
الرشيد
يجلس
يصنع
الإقرار
الفاء
مصلحة
مسي
علامة
وزير
متع
حكما
قائلا
خلي
شيء،
##افات
الوحد
خلافة
عذ
قن
أمامة
الاتصال
لرجل
##بهاني
الوجوه
صاحبها
ذم
الموق
الأشعري
المالية
يختص
اللق
لها،
بإسناد
مسج
عندها
مسح
الكريمة
##فراد
##ربوا
الاجتهاد
##سطس
الفرنسية
ومنا
للذين
وأصبح
الاجتماعي
##الج
يونيو
الدست
##نيع
فبعث
بعدهم
وصلت
##غيب
الاز
مبين
##فك
##ألت
العلم،
دينهم
وبما
المنزل
##عيم
بأي
لئن
الدارمي
عرو
الجراح
المتكلم
الواقعة
##حمله
اختلفوا
ارتفاع
مجل
ولهم
##ماغ
##شمي
مشي
لديه
الجر
يوليو
##غرا
شريح
مطر
الصباح
##ساك
تث
##دمي
اليهودي
بالمر
##اتي
همام
##خصة
الشروط
القصص
يرون
منزلة
ترتيب
مذه
##ديعة
المنك
سين
أفعال
مرسل
والنصارى
إجراء
##حاس
وضعت
الضعفاء
الكفارة
فاز
خطر
العسكري
ثواب
##وكيل
المسل
##لاما
المدعي
ثانية
شرا
السبت
##صرا
بعنوان
الطبقة
##رفض
التلف
التاء
فالله
##شرت
الحيوانات
المستقبل
الوسطى
الاولى
رؤوس
نفوس
والدين
الشا
الأشخاص
نفقة
##بعاد
الثورة
الزمخشري
محله
الخالق
قار
يصيب
عليم
وبعث
##طينية
الموطأ
درس
المفعول
هدي
سود
إث
##يوطي
البغوي
الأبيض
يشمل
صلات
تسمية
رش
##رضه
بصورة
الموجودة
##ليما
يقسم
##أه
فعلا
والدي
الأفعال
راشد
##عفر
بيعه
##واصل
تحقق
حرمة
فدل
##عظ
المصحف
##وصي
##ائز
##ونات
##طباء
بعم
كاملة
ريب
برا
لدين
وزن
قاتل
##برانى
##بحوث
تحتاج
##صبحت
عقل
لأول
الخارجية
وفيما
بجميع
للإنسان
رأيته
موجودة
سابقا
السيوطي
لا،
الخطا
فيس
تأخير
##راده
ضي
سيدنا
الدائمة
اغت
الصهي
حينما
ويأ
معركة
تأكل
بمس
للتع
كات
أخطأ
المعاد
اليقين
روس
##طوا
الأفراد
خاف
الوفاء
يعتمد
يدعى
وكلام
شأنه
القط
##هاج
يمكنه
الحلف
طريقه
كافة
##قود
الار
المم
الحلبي
فيست
والمد
##ئس
والآخرة
صحبة
الأحمر
##قتال
البقاء
الطائ
هان
تقدمت
المعتزلة
فبرا
وسبع
فكأنه
رز
والجماعة
السلاح
الشمالية
العوام
الصناع
##هرا
يسجد
##ليها
عنوان
أمين
اثنان
شارك
زم
الثياب
الشجرة
النها
اشتراط
حكاه
ومؤ
الغنم
فعلم
خطب
##ترنت
يخص
وإسحاق
الاجتماع
غضب
##يارات
بمث
الفرقة
واليوم
##اثولي
نصه
دية
يهدي
##ولوجيا
##دال
البخ
واص
وحينئذ
بفعل
فرو
يشرب
##عيين
جميل
أشرف
العش
آب
يخبر
البراء
وتف
الأساسية
منى
ويزيد
##قيام
##اعية
الإسراء
والجواب
الكلا
##زيه
التراث
فسخ
العبارة
يعملون
فقط،
غس
إليكم
##اعته
شراء
تي
ثقة،
##بادي
بمح
يخلو
اليت
##مم
##واك
##صه
##ئاسة
النقص
##دار
عمليات
ديار
ومست
المسؤ
تاج
##زوجها
طهر
حصلت
##ط،
المرك
إبليس
ميل
الروضة
وقتها
جوز
##ادت
##عتق
هود
ومش
باله
جذ
وارث
المتعلقة
المدونة
##بعد
قلا
بالقرب
##باق
البدن
##اه،
وللم
ولله
فتن
إرادة
##جوا
الثواب
البعث
##لكتر
وأشار
انح
##مائة،
فخر
الربح
وزعم
##ضحية
##بنية
الشخصية
ثالثا
أموالهم
اهت
النبلاء
تضم
تشمل
تعليم
طري
الغلام
الكافرين
لازم
الجارية
مسنده
فدعا
بسب
بإن
مصنف
عددا
##عتم
الأحداث
##وفر
##رجان
عليهم،
لير
المسح
##طانيا
مئة
خدمة
الهاء
النسبة
مبلغ
نمير
##وزن
الظاهرة
سكت
##ويض
وادي
أغسطس
فعند
ويعرف
ضلال
##شبه
نطاق
رشد
صناعة
عظيما
##سبه
##بوة
##كز
الجلد
الكهرب
##طنة
أمته
باشا
##غى
الاقتصادية
تارة
ووص
لاي
أرجو
والأمر
القواعد
المعروفة
شهدت
قبيلة
الممت
##اموس
والحق
أعطي
وشهد
متر
##وكب
اتقوا
خام
وسنة
وحفظ
##ظيفة
يشتري
حاليا
##سنان
يستحب
رفعه
##ربعين
أتيت
وأربعون
المجموعة
الكلبي
ومج
وحي
حالات
هاه
الاستدلال
مقص
العثمان
بدء
##الجة
المحم
نسبه
العشرة
##ضيا
يدعي
حمد
##خان
##واهد
والحكم
##ويج
العفو
معهم،
فينب
الحرية
##بيك
خراسان
الجليل
تطوير
حمله
بكون
الشجر
الاستثناء
##ريقية
بالسي
##ضار
كح
وفض
أبعد
##فارقة
##طلاع
##نانير
##اهدين
##ئون
فقدم
بالماء
تعيين
الكلمات
اغ
شبهة
صفحة
يتضمن
قبره
##دته
مستح
درجات
طلوع
وافق
التعليق
ساك
المسيحية
والتص
نجي
الصحاح
وينبغي
شجر
الخلفاء
النحر
السند
والأصل
وإنا
تعلمون
سلك
ونصف
سجود
عالية
الثقفي
لوا
##فادة
##يفاء
القبائل
##جلت
الدابة
الفقراء
يتبين
##شل
ودين
السهم
تصحيح
فبراير
يستعمل
فرح
تصدق
الأوروبي
تاريخه
##رها
خدي
نادي
الواسطي
بالصلاة
قلة
مقاتل
جرت
منح
تنظيم
تأمل
عينا
##وطات
بقر
##ابق
وها
##فاس
##فرقة
وأحسن
##عرض
سرق
شاعر
فكر
أذكر
سقطت
لهن
##طلاح
##منى
فحدث
الأي
فأتى
الاتفاق
الأما
المعاصي
أعلن
##بور
##ركون
تتعلق
السياسة
الكرام
الجنسي
مجرى
صلوات
لقاء
##نق
وبيان
الغرض
بالتح
نظرية
يحنث
يعقل
##يتم
يسي
فانت
زالت
الدعوى
##صت
المذاهب
##وارث
تخصيص
##خف
##وسية
بنية
##فقا
أننا
الدراسة
إت
سماه
##فيات
المعلم
العثم
الحرف
الوطء
يرث
لجميع
الهدي
لكنها
غرب
##لومات
الحقيقي
حيوان
سمعه
الفتن
##يسي
بعيدا
نو
##بوا
للمرأة
يمتنع
##ئته
شرحه
قرى
##بدال
تطلق
غلط
تمثل
أقيم
والذ
اعتبر
سام
والثانية
فأقام
نهي
المحي
وتقول
يكاد
عذا
أعين
##نبية
سابق
دائرة
والأول
للرجل
رضوان
محاولة
مخال
مجلد
عود
وملك
ناج
##وانب
مخلد
المنتدى
الحول
زوال
النخل
القبول
فيجوز
العمرة
المؤذن
يحر
##خدمة
المروزي
المقدمة
##قلا
القاف
##يدان
##كله
فالج
جزاك
نقطة
##عدى
##راكز
للي
التمييز
##قبض
فوج
للث
مقال
البروت
الرئيسي
وشرح
فرجع
##واكب
وكثير
البعير
واق
وصاحب
البريطانية
كلامهم
##ربط
ينفق
أفر
كأنها
معصية
الكثافة
وقاص
تحرير
##ليغ
يقاتل
الشرقي
القصد
##عاد
نصوص
سننه
أنظر
ونزل
الجواز
##واضع
يمثل
واسعة
وسيلة
ويروى
أسفل
##ربعون
الحرة
معبد
الكفا
واسمه
الرائ
إيجاب
فوالله
الخزرج
مسك
نعم،
البنك
تأليف
فمر
وجبت
الحلال
الدلالة
لهيعة
بأبي
ايضا
غاب
برج
الأحيان
لند
##قلت
قبو
الجنائ
فضائل
بالآ
المفرد
##تابع
التميمي
جهد
والأس
##يان
خصوصا
لون
##تي،
المسيحي
فبين
##مكان
العالمي
ويز
المدينة،
أحر
الدنيا،
##ندق
والمغني
##طاقة
##لهما
##ناصر
منهن
والحا
الفل
طبعة
مصالح
##جأ
السلام،
سمرة
وإي
امتنع
يسكن
أعتق
##شاب
فآ
وبعضهم
ناب
وبلغت
ومعناه
الوتر
المسافر
كلمات
آخر،
فانظر
عامل
الوقوف
الصادق
##قار
##شديد
وضوء
قليلة
هج
##وفير
قاب
أباه
نائ
الكرم
المسلمة
الاعتقاد
##رائب
التجارية
المرف
فوائد
الحالات
الإنسانية
البول
وجل،
##فسهم
##ناد
نبات
يمشي
وعرف
##تبة
وكلا
فقرأ
##واتر
ه،
الوث
والتن
والفرق
ترجع
أعوذ
##فيق
روايات
الأندلس
بالليل
تقرر
##اكل
فنظر
##ولده
لبنان
أدلة
الورثة
لوجود
##قصة
##شرط
ينافي
إصلاح
دعم
والمثبت
شباب
العلاقات
##فعه
أولها
الأمراء
##ورة،
الإست
غي
أبريل
المشرق
الامر
التعامل
فاشت
الثقة
أسس
المالكي
الشت
سند
بور
إجماع
##قدار
##ضوا
أجرة
المعلوم
فنقول
للصلاة
الأداء
قديم
عيب
##احبه
مشرو
##رن
المائة
ويذكر
يقرب
مصادر
الطبيعي
موضعه
وسلام
تنفيذ
شديدة
##مالي
بأحد
وقدر
عقيدة
ستين
لفظه
##قيع
أسود
استقر
القوى
##نيات
اسحاق
مؤسسة
##تيت
شكر
شهرا
صام
وضم
ودعا
##أمين
الأولين
غنم
جناح
حارثة
انطلق
تقتضي
فيلم
داره
الطل
##ديات
##زون
وجميع
تعني
الاثنين
بالحديث
الطبيعية
الصرف
مري
##وائف
زينب
ومص
يتصور
قطعة
وتط
الإصابة
المنظ
##امر
غد
##واط
الكهف
بنات
إزالة
فتب
فينا
الإك
المصطلح
قرار
##وقت
باقي
##يلاء
الإصلاح
تشهد
تبقى
رائ
مائ
ليث
صيد
صلي
##صرون
السري
تركت
##بقاء
أغلب
البيوت
والحر
وابت
ليد
الكافي
مور
##غو
خوفا
المؤرخ
ينتفع
وسار
العقي
منهم،
العنب
وزوج
وأنهم
الترتيب
التسليم
ويدل
##وتهم
##ام،
شيئا،
جبال
ويتم
المشاركة
النجاسة
الخض
##لائك
ويعت
فينبغي
آخرين
راه
لهم،
الموقف
الوحدات
فأول
الكبائر
تقديره
المدعى
الداخلية
الشكل
ويعلم
لى
النجار
الفيلم
وإخ
ضعفه
الوال
الثقافة
الرق
بالمس
تابع
##فاه
إض
سعود
##كرون
فلك
خيث
أكرم
ورا
##هولة
العبادات
الرفع
فطر
قديما
يتحدث
المصادر
سيكون
عوانة
فضله
والطبراني
النيساب
الغد
مساحة
طيبة
مباح
##ادي
الفسخ
بشار
بخمس
نسأل
ظاهرا
بتع
رق
توحيد
انتهت
##حش
الخوارج
##ردة
قلبي
يعرفون
الحفظ
##مره
المصلحة
##وقة
تمنع
##زير
الأول،
وبها
جدي
أرج
هامش
##جعل
بلدة
##ؤاد
الشيوخ
##خفض
أخبره
##زما
عمدا
فتاوى
##قرير
أبرز
الفرائض
رباح
الكويت
لصاحب
ينتظر
الفوائد
الثمان
##املات
##حتمال
المحسن
المأمون
الفهم
والو
العارف
متروك
تأسيس
يوافق
غا
ورجع
تستطيع
##واس
معروفة
##تن
بالكتاب
تشير
##لان
ساد
الجهة
بخير
المحقق
أقدم
##ونك
ويا
خدم
##بر،
يهودي
ذرا
منتصف
الجزية
يشكل
بكرة
رسولا
بتلك
كأس
يدري
المقال
وأصل
الشياطين
##زله
جلد
##نائم
يدا
لفت
استط
ترت
ركن
المكر
السوء
تبا
كب
ضوء
كيس
##كندرية
الغني
الغاية
الجع
قطر
##صوب
معج
الحرارة
عيني
##عدت
استد
سلامة
بالمن
##فيان
كثافة
##ثلا
تحصل
شاذ
بوجود
المحلية
الحضرمي
زرع
والإيمان
وحيد
ترض
##صوم
العج
البحرية
التنبيه
رحل
وزيد
##ظيف
##زوجة
متاع
بالدين
الطير
بلغني
التيمي
الزرع
التشريع
##دلة
الكاثولي
الاح
النيسابوري
##يثمي
##ولون
##ذون
هاهنا
دليلا
##حتاج
الفائدة
المطبوعة
العرقي
يكنى
عقوبة
واجت
صري
الترا
صحته
##هز
ولع
النحوي
##هدف
هشيم
الممكن
الأنواع
بالوا
الرافعي
##اته،
الشراء
لجنة
ويأتي
عباس،
الأفضل
قولي
الطبيعة
للإسلام
لعام
##ليظ
فخذ
##حوث
##خلها
يليق
والإسلام
بدي
##ؤوا
القارئ
##ماح
##وست
يغير
والكتاب
سري
##معة
بالبيت
ياء
والإفتاء
##قاة
الصال
أفعل
ذهبت
##ولاية
فسلم
الافت
بيني
للآ
تزيد
مختل
فوجب
السدي
مفا
وصفه
اليدين
الصدق
الميلاد
##امد
##اهل
لتن
الملكية
تبطل
الخلايا
بطريقة
مرج
شقيق
المزني
##رهاب
القعدة
الضعيف
وطل
الحلق
الضوء
الوزراء
##بهان
يصلون
الكيمي
والمص
فحين
الفلسطيني
منصب
أنعم
عو
##يسير
الموج
مصر،
السكر
واجبة
##السي
شخصية
طائ
بذلك،
مالي
الجنوبية
##لتهم
أتباع
الصين
سمعته
عر
##حلل
أجن
السنة،
واضحة
##يعاب
وممن
##ؤلؤ
وبم
حدثت
تشبه
ره
تحول
##سبق
المصالح
الذنب
التقي
مقتضى
مبني
فالح
وأغ
نشأ
وثبت
يكذب
التيمم
##وكم
الحنب
سمى
وكي
أطراف
تسأل
الهبة
الرزق
تعين
يخطب
ورك
يراه
الأمراض
واحدة،
العطار
والأربعون
##مر،
ومعلوم
##بودية
السجن
برب
الحاجب
يكثر
الصا
المشترك
سال
##قوت
تفصيل
النسي
يقبض
##قيد
الحمام
لرب
الواقدي
يتحقق
معرض
إجازة
توقف
بلسان
بصفة
الأزهر
ولنا
لديهم
الخميس
بسط
وإليه
المعجم
التقوى
##ابقة
##حة،
والظ
##شكل
بقيت
بلوغ
بكلام
##طيل
##لتم
##فان
أربعا
الهيثمي
ابتد
صحيفة
أخاه
رمي
يتمكن
اهل
##قا،
جزاكم
رأينا
مدين
محبة
أظ
##قتضى
##ابط
سجلت
##تيق
##ثمار
الدرا
إدراك
مخصوص
##بسط
تجاوز
فانطلق
الخار
المظفر
للبحوث
قرن
##عمه
تشك
الولاء
الواردة
##طعن
##وسل
العثمانية
هاجر
بقل
يغلب
تسليم
الموكل
زيارة
الأسا
معرو
وفت
السفينة
##رازي
##غون
##بينة
رغ
##عدام
المشركون
وظهر
##رمى
الشركات
إنكم
الاحتجاج
##امى
الحقائق
والتأ
لله،
جرح
الفارسي
جوف
اما
الأثير
##هداء
##وأ
##فها
##صيب
الارت
اللون
أفلا
##حين
الغائب
##فرا
القاد
سافر
وعرض
يقوله
الغزالي
قصيدة
الظالمين
##ضها
الجيم
وثلاثمائة
بسند
تفت
أنفق
مرسلا
##ضطر
مأخوذ
##صرت
##عاما
ويوجد
الزهد
النعمة
اتحاد
المقب
أوقات
فيقولون
العقول
فيح
##قش
##عيش
القاتل
##الها
السيرة
دابة
##نيته
والعشرين
وأط
بترك
##ندية
كراهة
الناحية
لسانه
سائ
السبعة
##تار
سعيد،
رحمهم
وفد
ائت
##انوية
الصغ
شاب
بريطانيا
التربية
القسمة
خلافه
أيد
الجسد
تؤدي
العمرية
##أنيث
يعتق
ممكن
مزيد
تخل
أصدر
رشيد
##ركوا
لحي
##ديو
دف
##دعو
للمس
##وازن
مرح
وابنه
يتوقف
لعله
الحبيب
الحرير
حاكم
اللب
حملة
السور
اعتقد
الزناد
الحدي
بشأن
##باعة
باق
مذ
##ثنا
##رفا
ستر
العلاقة
مقابلة
الاضط
الغن
أحمد،
جزم
##ضحك
المرتهن
نعت
الجوا
المؤتمر
يعين
يفتح
##اريات
وسواء
ابني
الموض
وكأنه
أكمل
طواف
ومتى
فران
والاعت
الوسطي
خيثمة
##لامي
صليت
حدثه
العظيمة
##وتها
مشترك
والسل
إقرار
منفعة
خصائص
شريك،
ورقة
وولي
فمنهم
السادسة
فاعت
مشايخ
فاسد
القاموس
السام
بالإن
صبر
التفصيل
##رز
##كح
العقود
الموافق
##وسيقى
الهدف
البلاء
سكانها
اعتمد
المناسب
الموصل
##راجعة
##جو
الناقة
طوال
اتخاذ
كفار
الظل
##قاتل
قبضه
شيخه
كلي
معناها
يصوم
وأحد
الإقامة
الفروع
الموفق
البريطاني
والنهار
##سبانيا
منق
لزوم
##لائق
مفس
الطلاب
مالك،
رحيم
##ائنا
##ثرت
طرح
الخمسة
المخالف
نجم
الاعتبار
المنفعة
لتكون
دفن
وخير
ذكرا
مشرك
مسلم،
المأموم
إيران
بصي
صيغة
وتارة
هنالك
إظهار
##جنبي
باللغة
الخضر
سهيل
هى
والستون
##داع
أهداف
الشهود
القوانين
أبيض
غيرهما
الحوادث
الهيئة
ولعله
الزرك
أنشأ
الفوز
الحجاب
##زد
بينكم
الإنتاج
تحتوي
مشك
شذ
المهل
الراهن
وأصله
الفقهية
الإحسان
ماتت
المستقيم
سح
الشري
الطبيب
بيتا
الوحيد
المعارف
تسقط
نتائج
أورده
المتأخرين
مكروه
##قضي
بالعلم
##فقت
المشايخ
##ليون
##نيين
كإ
المحكمة
ذكروا
بالقاهرة
والوجه
دريد
##قبه
يفسد
يعذب
فأي
يحد
انها
وقته
الجمعية
الوادي
استئ
##مائه
وصية
بنحو
المعين
برق
القراءات
للمت
##غيث
وقطع
##تابعين
الهذ
اسمها
ثابتة
السابعة
المجد
أسأل
لعلي
البيوع
ابنا
حروف
احتج
النات
السكنية
الركعة
فهد
##كيم
الغي
القدير
##عتي
##رائم
المتب
##تية
توجيه
يتعرض
قوا
النسخة
وسمعت
خطي
والدليل
النخعي
بالشام
عملت
##لادي
والخط
عنها،
استن
طلا
سياق
ورأيت
الصفا
بآيات
أصغر
وتب
بالذكر
##رارا
حصن
حكاية
علاج
وكت
##غفار
فوا
بالحج
توضأ
بغيره
فأقبل
##رفعه
اللح
الجي
الصراع
مسمى
والأع
بالأصل
باتفاق
فمع
العت
بئر
إماما
لاحق
علمنا
والأب
عفي
##ادا
##قدرة
ويجعل
بانت
نط
##جبه
عابدين
المعاصر
معن
وصدق
إك
##ريش
##ميص
الأت
اذهب
##وحى
##ضحى
كد
وأمه
اللات
يعيد
##افل
##وصية
التركيبة
سيدي
آخرها
الماوردي
##روا
بقا
عزيز
##خبار
أمرت
##بود
##يقظ
##شفى
##الين
قيمتها
##داني
##رب،
مقيمة
قائد
الجماع
أكون
للمست
المبر
##ينيات
الصراط
لمس
السماع
عار
##ناول
الصيف
نعرف
نقض
##جس
##ثيرا
##مون
اليم
حمدان
##كي،
تركها
متأ
ناز
والشع
طويلا
غري
##سنة
لأنهما
##ورين
والمرأة
##بيها
حرك
وأقر
##باغ
وبل
الدفع
المعركة
##عبادة
##بالغ
جام
##فد
الاكت
يعم
وخمسمائة
##بوك
بعلم
درهما
التسمية
بزيادة
اليمنى
أعمالهم
مصد
الشأن
وضرب
تراب
##ائشة
تناول
عرش
والات
##اهن
المتوسط
الأوقات
مجر
والاقت
##رحام
##ماة
مين
##قاش
الأعظم
لأصحاب
واللفظ
وإع
##رابل
تتضمن
القولين
##فاوت
##ياع
قدمه
لبني
الراجح
ويظهر
إص
يؤذن
آنفا
##باطل
##شرح
الال
رأوا
والبد
الته
السلوك
توبة
الاستح
منزله
الغضب
مناق
وتلك
عاج
التشهد
##ؤية
المحبة
أحل
وأنزل
والنساء
##رية
التحرير
خشية
البه
الجنسية
##ريته
الطبقات
وإسماعيل
الرياح
خطبة
طلقها
مواقع
لمحمد
مغل
ذمة
##فيض
##تسل
يعلمه
موال
##كنت
يقولوا
يرويه
##انهم
السياق
القرار
##يثاق
الصلي
وقلت
##وجل
فنزلت
واللام
##والهم
خبره
أعطاه
الأصبهاني
ماي
الانتفاع
##لندا
##يرها
هدا
ولكم
الشيباني
##فروا
صب
##طيف
الشريك
##جون
الربو
والكلام
فول
##قي،
الأصنام
المعيشية
الدجال
اتفا
العصور
العاق
مبدأ
##لقا
##وابط
شبكة
##اءة
الأصليين
النيل
انك
ومنع
يسمح
أظن
امرئ
صحت
##ضرا
رجلين
##واريخ
##حدى
استمر
سيرة
##طاه
الهر
الركن
فأكثر
فري
السراج
المكتب
##وسة
العاصمة
وزي
##وكة
##اد،
تعارض
بكثير
عزل
زيدا
##ستاني
شرعي
البرنامج
سلاح
##ويس
كرا
مجد
الإسب
الهلال
ودفع
##يوش
##باي
##هلاك
الأفكار
تحر
##سخ
العائلة
##فاعل
فضرب
يعا
التاريخية
##رعى
انتشار
فأراد
الملتقى
أزواج
##قيقا
المفسرين
بمال
##راقبة
يرحم
##دف
تفرق
##ذكار
النظم
العيب
دلت
الأزدي
عظ
##وتا
كاملا
أكره
##نائه
مقاطعة
وخص
يهم
حماية
ووف
الإثم
ويشت
الضلال
بالض
فيل
الصحابي
تسا
حكمة
##زول
أشكال
قدمنا
رهن
الدماغ
شرطا
تؤمن
المؤمنين،
العقوبة
بيانه
أرادوا
بلغه
أيمان
##باري
لاحقا
الحاء
معدل
وعبارة
الفع
سلوك
فيع
تولي
نبت
الإنترنت
الاقتصادي
##انات
نذكر
##ماذج
##حيف
##بله
وسليمان
قرة
الساح
الجنة،
النار،
##ثق
اشترط
الأجرة
##فرت
إياها
كافرا
##رسة
الدرجة
ولى
##برية
ألقى
السمرق
##ساعدة
جورج
عنكم
بعدي
الأولى،
##فتين
والرا
الطائف
##فخ
الغاصب
##عو
وبارك
قاص
طبيعة
إحياء
تأوي
والعد
نشاط
الضعف
طعاما
##ليمة
بأرض
المعصية
##بتم
##صروا
المستوى
الدراهم
قرط
جعلنا
##طيط
أدب
كرم
##تاح
اليسرى
مساجد
##اخذ
الحادي
المتع
##ريه
##مارات
الوداع
صدره
صوته
الفقير
##دو
##كنى
ووجد
المبت
الشعوب
##فاضة
الأنفال
أكان
آمنا
##صلي
الوسائل
##ادلة
تطبيق
##شرات
##خفيف
ويعتبر
عليهن
للعمل
شداد
ينتهي
القلم
أخذها
كثيرة،
##دفع
##ناط
أحداث
الخدمة
ولكل
وجزا
يترتب
صدي
##فتها
وبينه
النداء
الله؟
قناة
##زايد
وآخرون
##كنة
الحربي
واجبا
مبارك
جعلها
السعادة
ويب
أصدق
الكندي
مشكلة
النت
وغيره،
##ختصاص
أخاف
##يم،
شهود
رمى
يصرف
محفوظ
أقصى
القضايا
الأولياء
الكبار
الإص
دقيقة
##ختم
فوقع
##شارات
قوية
##ارعة
وأجاز
للأسر،
سوريا
الاختيار
يتناول
الميراث
الإخلاص
حضور
##جموع
##ارا
والستون،
النشاط
##راهية
##دعي
الرأ
لكتاب
##صيحة
تمن
##صري
الأسد
تصنيف
بمثله
الشاة
وفعل
الأصلي
صبي
فالإ
لعلكم
بطلان
##ذنب
##قتله
الحق،
عفا
المحدثين
والنا
الجو
تطور
إست
الوكالة
مقارنة
وولد
والتس
استعمل
عضوا
##طون
خطا
ووج
فاص
##ماري
تدا
يطلع
المفهوم
أجله
الداخل
الطحاوي
بيانات
أقسم
يتعين
الموتى
هرم
وصد
البقر
موقوفا
النزاع
المستأجر
منعه
##شيا
يضل
قض
قيادة
ينقض
يأذن
جنة
المجا
##سها
استحق
##وف،
##احف
جهاز
الواقف
حاول
##ملوك
واستمر
يبعد
قبائل
##الع
تقدي
والمقصود
لأب
فالقول
حرة
الضرورة
سور
أكثرهم
تحتها
##ظرة
فنحن
أخوه
الإمبراطورية
الأوروبية
الوحدة
##جها
المرجع
السلفي
منش
لمر
وقفت
التبر
الحسنة
شىء
الكلية
التكبير
أفت
##وقا
المكاتب
الحضارة
المجتمعات
السبكي
فوضع
ونشر
الني
مند
الأمانة
البحرين
أعل
صديق
##راطي
مضي
تألفت
شد
وشي
الأولاد
المزيد
##نصر
##فرض
إليها،
ضل
قبلكم
ظهره
##جهزة
انس
تعظيم
بالمال
عارض
مرتب
##الوا
##خمة
##ضد
للعالم
بفضل
ويغ
تشكل
أركان
انقطع
فأين
##ذكير
تعذر
أماكن
الإجابة
أسرع
تمييز
هدية
معه،
##بوته
الموحدة
فرط
معلومات
##حدة،
العود
أتاه
المكلف
جمعة
الإذن
العالم،
بعل
معيلات
##راوح
وأمره
##بايع
##نزير
أحد،
لقوم
السمرقندي
كرة
الشفعة
اجعل
##جام
عنقه
العس
بمتوسط
الميتة
مآ
خاتم
فقهاء
تخريج
وسأل
الصالحات
المرة
##ماك
للحديث
##ونت
أوضح
المهمة
يدر
فدع
الشرطة
وأطلق
والقر
يضم
##سيط
يصدر
وكر
الاف
استدل
غيا
##ائى
النش
بكار
صر
أنني
الشكر
بإسناده
أخلاق
##جزء
نبيا
مكي
تصبح
إطار
كريب
بالقول
السيطرة
ذكرته
بتأ
فرأى
صلوا
##ثاله
مدح
أصيب
##نائس
الهاد
الزيت
بحمد
توب
تحرم
داء
وبناء
##ليله
هدم
نام
بقيادة
باطن
##رجيح
كالح
##ياز
محافظة
فيا
فأبى
بالتع
##غيرات
تحم
السنوات
بذل
الصامت
الحقيق
##بتهم
##ائك
قلعة
الإنجليزية
البالغ
أسيد
كلب
أسلوب
العالي
الأصحاب
##اريع
##ابة،
ويرى
مزا
تذهب
الدالة
دقيق
روسيا
فرب
بريدة
##عمة
##معوا
الأصلية
البعد
بذا
بجامعة
ويدخل
إحسان
الوجهين
وموسى
عاز
نبه
ولكنهم
فقلنا
الديمقراطية
وعبيد
إسقاط
صدقت
بحجة
حملت
##غام
سبيلا
الأجزاء
##ديك
خس
شغل
بالات
الجهاز
##صدقة
الإدارة
##وراء
##راءات
العقاب
لأج
يحم
الماج
واختلفوا
بالإسلام
سع
فرضا
يلتفت
يحا
الجلال
بعمل
جاءه
جدا،
قضايا
##قان
##ادته
ختم
المحلي
والقرآن
عموما
ببل
العيش
أفريقيا
فإنا
البيضاء
المطلقة
الصوفي
خات
بسرعة
السفن
لتق
ليسوا
تتخذ
الآخر،
بياض
نصيبه
للمع
يسعى
مؤمنا
شهيد
يجيء
بماء
ينفذ
ومعرفة
الأنس
بصيغة
ميز
##طلان
##ضرر
المرج
##قيقه
وزيادة
تسبب
ويط
السلامة
بكذا
يخشى
والمج
##ودها
والفضة
التلخيص
القرون
فروع
فحسب
وأسر
التعليل
سق
تقسيم
ورحم
الذبح
##دمير
سرعة
يتزوج
##وب،
الجب
وخلف
أراضي
واه
جمعية
الأعداء
##فا،
الطبرانى
##جى
الانصاري
##غيره
السعي
تقدر
##ضعاف
وكثرة
اسماعيل
التقدم
المتقدمة
البعيد
وأرض
##تبعه
صدور
المخزوم
رقبة
وجعله
##قتهم
الأسدي
قدرته
##غوا
يعرفه
يرضى
غزا
رجوع
فضة
باك
المضاف
##شة،
الجناية
النبوي
جهود
السودان
المباح
ولكني
خلقت
أولاده
أحرم
دورا
##غيل
مالكا
راف
والاجت
أعرابي
العاشر
المنس
الفرات
##ندوق
كذلك،
##غية
المفضل
العرب،
##ينة،
جبر
الإلكتر
##رائه
أمسك
وسل
الشبهة
##ائزة
فاقت
أية
##روري
توس
جئ
العثماني
المؤسسات
الحنبلي
البطن
كاد
طارق
الظروف
فسار
سأله
الصلة
والتقدير
أعرض
##فلان
حفصة
ميسرة
الطبية
شخصا
والفت
مضر
##وثق
مها
فريضة
لصالح
محمول
واحتج
عقله
الوقوع
##كري
سكر
حرية
غم
والأش
الغناء
أعاد
الوالد
##شابه
##ماليك
مؤتمر
داع
الأمرين
محتاج
البئر
إغ
اللغات
وعنده
بموجب
نفسا
سان
ظالم
محب
كلاما
مدا
أخا
خالق
##طبة
بيضاء
##واشي
الكن
أبي،
##حصاء
أصابه
تضع
الخطابي
##هزة
محرما
موجب
يعبر
الاحتمال
تحري
بالأن
##حيوان
المري
##بيدي
دعوا
العلي
##طاليا
تقطع
العدالة
الديار
البيانات
شيطان
الجوية
فالذي
راح
عمان
المصطفى
تام
وحج
##مامه
شاكر
##طير
نيوي
وإياكم
باريس
إثم
ونظر
البدل
وتهذيب
يصلى
الحالي
الشفاعة
الإغ
الفطرة
##قيف
سبأ
سيئة
أعطيت
##ضاح
رأت
استحباب
روم
المحيطة
صادق
##حيض
باختلاف
تراه
كالت
وصول
ضيق
الحمي
ويخرج
وتشديد
خض
المشهورة
شتى
المتوكل
##هلي
##شع
المبار
##دين،
يغني
الباطن
##تون
لأي
تدري
الفرقان
فارق
##خصصة
الجنازة
العقيلي
الغزو
الطائفة
تدعو
المنش
##طبعة
الخلال
الهاشمي
مسدد
تنظر
الحرمين
شرعية
الصفار
##طئ
مقب
صحيح،
عوضا
للآخر
العمليات
فهما
أمثلة
الأذى
الصحف
##خن
اغفر
الكثيرة
صغيرا
##ميزة
بلده
يتوضأ
وحصل
نقلا
شن
اخبر
##لقب
حث
الناظر
##صبية
قبلهم
الولادة
ذنوب
الإسلامية،
##طيعون
##جرح
القائمة
يرسل
##ربين
وحدها
الزوال
العلوي
المصلي
الشرف
##الة،
عبدالع
##ولايات
الإب
مولاه
فلأن
لندن
ثوبا
تعدد
المرضى
طبقة
يعطى
الآسي
الرعاية
الخليج
طف
لاب
أمس
رأيه
زر
الرافضة
خسر
أسقط
تصوير
فقتله
##خه
شيبان
بالمعنى
كمثل
الاستعمار
المواضع
قبلك
وحيث
دارا
يتفق
المجيد
##شيع
مرتبة
الألمانية
ميتا
السح
التأثير
الوعد
بثمن
ثمانين
فاض
الحسن،
سفيان،
عامي
يطوف
يولد
##اطر
حرمت
##فيت
لكثرة
وأرسل
لآخر
الأطباء
عبدة
تسلم
مياه
##وت،
علية
##ميه
والتاريخ
المشار
تميز
مدير
الغاز
مفع
بالإجماع
أشر
##مهيد
مبت
وفرق
##نو
إرسال
المتقدمين
تنس
النذر
فأح
العناية
علمية
للمؤمنين
يوصف
يتقدم
الكراهة
يعارض
فأذن
يكبر
##ماعا
##الهم
الموال
العوض
تصور
##فقته
فرأيت
عبدي
##دبر
الغيبة
##قافي
ملف
الزوائد
شريعة
أناس
يجبر
##حدود
##فة،
ابنته
هاتين
استوى
الهج
وثقه
برهان
ينصرف
مردويه
الشتاء
##طاني
ومل
وإد
وضعه
الوطن
شهادته
تنزل
القم
وهن
##خفاض
رغبة
ويسمى
وبعدها
مدار
الأقصى
دما
برامج
العجلي
المقدسي
##وارد
ونهاية
خرجوا
الاهتمام
##عمد
الهندية
المنظمة
كتا
البلدة
##هيل
أفطر
متق
بابا
##ديت
بطلت
المستحق
والسي
مقبول
فتحت
التشبيه
آسيا
اليمان
الإخبار
التعاون
إبطال
إعطاء
والقا
فف
يومين
مقط
المبحث
الجماعات
اللغوي
بتس
الأنهار
نض
مقامه
ولدا
##حيات
وعيسى
نريد
الوزن
عسى
تعتمد
مبر
الصالحة
مسافة
##قولة
الشورى
وحرم
فماذا
وعطاء
##ستها
دوا
والإمام
##ولوجية
الأخرى،
##تكلم
لمح
حلقة
مسيرة
النصب
شجاع
موجودا
براءة
أدت
يغسل
فاف
الكشف
أرباب
وفقه
الحيا
##يرات
##سبون
##لاحظة
العظام
عمرو،
الآدمي
ويرجع
كنيسة
وخلا
المنطق
ينتقل
حفر
بأع
فعلي
##راعية
المسك
مستقيم
سياسة
الطاهر
وأنكر
بتحقيق
تمس
أهلي
تلقى
المنذري
البرية
##ذرعي
وبخ
وينت
نشرت
نمو
حاجته
تخري
رسل
الفضاء
ونه
##قتين
##قبول
بطولة
سبيله
شغ
الإمامة
وانما
##وصول
احتيا
بردة
يذكره
سواد
الشيخان
كور
التابعة
انقطاع
استثناء
##ظهور
منقطع
يستطع
خلع
##امه
يجعله
صفوف
الهمداني
الضحى
اختصاص
بركة
كالص
الابتداء
يختار
الشرب
حاضر
وتغ
##ك؟
وأعظم
بهن
سفينة
##خ،
تؤثر
فقيه
##ضاعة
النفاق
معروفا
المخرج
بدرا
الموصلي
##فش
بالو
##يدر
وتحت
مراعاة
وعق
رجعت
البلق
##يير
بلي
عزم
حديد
مدن
المتعة
##بهما
بأيدي
أتت
مفتوحة
برجل
بالعمل
##صين
وعين
مختلطين
عبدالم
الأخوة
لمسلم
تجز
كناية
الإير
الأبواب
##وند
العجز
حامل
الاعتدال
وجن
الأوا
اشتهر
##ائنات
النظرية
جنات
اكتشاف
##رحل
الأعلام
تقا
الرمي
قدير
بالإيمان
##ائري
موافقة
الديني
بيم
علل
آخذ
##جبت
التطبي
##لاته
الرضاع
العمد
يجر
الأربعين
لتأ
قتلت
الزركشي
الآداب
اسما
زواج
فسي
##وكا
بشئ
فاحت
تجارة
الفلسطينية
الصنع
السلعة
كرب
##بيس
النقطة
ويأخذ
##ويق
صاع
المأمور
بتاريخ
الإيط
فرفع
##طها
فكما
##عمش
المقدم
##همه
التزام
##صادية
قتلوا
##كومة
##كملة
الحسنى
التكليف
فجمع
استأجر
موسم
للمشتري
ملخص
ورأى
##سمة
##طيه
##ض،
إبراهيم،
##هله
##برأ
السلسلة
الفم
فترك
وأربعمائة
للنساء
التابع
مولده
علامات
تحكم
وسير
فالع
ودي
فحينئذ
الانتخابات
أمرها
##بسوط
##منات
##حقه
سجل
تحصيل
للعلم
وأصبحت
وأر
بضع
اهتمام
الضغط
تفيد
الكفاية
الطائي
عبيدالله
وخال
الاشتراك
نقي
##اليف
سرية
##شرا
ثوبه
النض
عرقين
بأكثر
المانع
دنيا
الحبشة
الأعيان
الشعبية
قح
قابل
وبنو
أمل
خارجة
الأحياء
انع
##صون
والقمر
الأصغر
##ذروا
نارا
حية
حمص
مناسبة
القبي
##انس
أراه
##قاف
بقوة
تلت
وتل
وقتادة
الدماء
فأصبح
زمانه
المكتبة
فالن
هانئ
فأولئك
آلة
مسروق
حيات
زيد،
مضاف
ترفع
يحتوي
والرجل
العبيد
عينيه
التعا
الانتقال
توفى
يتغير
##ابات
الفلاح
النزول
ونت
عبدالعزيز
الخراج
##اهية
بالنظر
أسألك
##طانية
تزوجها
##ارته
##صله
##ارن
والنبي
تغلب
وجهة
##جلترا
الحروب
انتقال
##كرين
للمن
مهران
ذمته
تحته
وقص
##وان،
تصنع
نوعا
التث
إيمانا
جمل
أفكار
الأعرج
طي
##حداث
مرارا
القوي
داود،
المفتي
تحفة
##نعة
اتصال
والبخاري
إياس
##ليث
العقلية
والثلاث
دفعه
طاوس
للمدينة
يظلم
الإسرائيلي
والمسا
وسع
الإنكار
الأحوص
##ران
يحاول
وجها
##متين
منتدى
منفر
فيؤ
لانها
تونس
اللخ
##كنا
تسل
##ظلة
##قائق
بسنده
المناسبة
خلقا
فكانوا
بدار
مملكة
الجوهر
ولئن
زن
البين
جوهر
غرض
##قصير
ولدها
##حيل
قياسا
##شرك
طلاب
نيل
العكس
ويكره
ساعات
للحق
يركب
##ديمية
##نيت
عات
##عدوا
جالسا
الغا
المول
جمهورية
##وعظة
مطرف
##وى،
ويعقوب
##كول
تضر
##شن
##لبث
ميزان
الحلية
عبدان
ومكان
##بوس
ورسول
أنى
إعلام
تصاني
يهت
إدخال
عهده
تخلف
ينه
بكر،
بابه
والعا
##قيما
مضت
ويقوم
مذهبه
السحاب
وخط
الصداق
عناصر
حنين
صلح
مواجهة
##فري
بأهل
مدر
الأردن
السواد
ثمر
معلومة
الأكا
التصريح
جهاد
الجنائز
جزر
##نتان
برم
البحوث
فإما
شبيب
والتابعين
الأسواق
المضم
فعلوا
خمسمائة
والبغ
##خلاص
##مات،
وأظهر
##غه
للأم
سمعنا
بحلول
##ائت
فتع
للمنا
عاقل
أكله
خزانة
##جره
المثال،
جالس
قذف
مستق
الثناء
طلبه
بمدينة
والكس
التصوير
##قدة
يستلزم
النمو
الشهير
اليوم،
الجمهورية
##يهود
مجالس
حرارة
##صر،
الأشعث
وكره
المهذب
الفضة
إسلامية
جمعت
فليست
##جيء
أرضا
ذوات
عرب
يأخذه
سحر
إسحاق،
فوض
الرقيق
للقرآن
تحرك
الصائم
لأنك
##خاء
انتهاء
الزوجين
الوراق
لتلك
تبت
دخوله
##ضيات
##ذهبت
القرض
يجزئ
البزاز
بكثرة
عث
الكلم
##رفية
رعاية
تمسك
##رامه
العقبة
لذ
##واته
يؤمر
يشرع
وأقبل
مستقلة
##بادرة
الحائط
وليلة
الحية
الهجوم
فسأله
ووصف
الكواكب
الثقافية
الجند
وانه
مراحل
##ملت
أحمر
باد
قصيرة
أبيات
الملك،
المطبوع
العنف
العربية،
وجهها
يبد
باعه
أصوات
طبق
لأخ
حاص
الطيالسي
جرم
قرآن
العوا
##لاسفة
صراط
وأست
يلعب
انما
الجعد
ويبقى
أضاف
إثر
ملتقى
الإرادة
##وصى
يفطر
لتحقيق
ومث
أجهزة
ليع
##والة
##بطال
الأماكن
تقرأ
الموسم
##رفين
الزراعة
الحكومية
لبيك
الجوع
ليب
رابع
مراده
##يمانه
قلابة
يعل
تصف
سماك
##ذبه
الانح
ومحا
أنكم
والرج
أمها
أحا
الخزا
اللم
يشارك
رئيسا
##كشف
##رين
الند
وجده
إخبار
والفق
المستدرك
الرقم
##امين
ماك
بقتل
##وطي
الغذا
عدتها
الإيمان،
بصر
##طاط
أسن
طلقت
الأمر،
سؤ
زا
القلعة
وبشر
اقرأ
الأساسي
الضي
كثير،
هاج
جريدة
قوانين
ربح
##يلون
الفاسد
صخر
الإل
##هدي
المار
##زاري
##اصي
##ينيا
ناقة
عمرها
رفعت
البع
ثمنه
القريب
سعة
دبر
##باك
##طول
يتن
عربية
أصلها
والتك
وأهله
وصي
فرصة
لا؟
المصاب
فعن
وسبب
##ضور
حجاب
الجما
الأمثلة
أبن
فالص
##ينا،
مهملة
الطرفين
خاط
##شين
البرق
آثاره
ماج
تبدأ
طاف
كفاية
ومجاهد
يشك
كالن
انفرد
المبادئ
##غرافي
العطف
ميراث
العرق
أعراض
لشيء
فلهذا
الشهيد
والإع
منده
جيم
الصحية
رجالا
##وكي
طرد
لوجه
الكتاب،
المخطوطة
##خار
##وانا
واتبع
توفر
طاقة
الوعيد
##عاء
##ءوس
وجدنا
الاعتماد
تعملون
ينطق
أجرا
الأعراب
##نائي
الجهد
##عتاق
رخص
للبائع
الحداد
مكة،
وأبى
خلالها
##وضوء
حادث
بمثابة
والأح
الانسان
الاحتلال
المحافظة
عجلان
تطلب
البشري
##اهم
##صلين
البرلمان
البدعة
تصد
معتقد
بالأمر
المال،
الأشجار
مثقال
يؤكد
أفتى
الوقت،
الجاني
أسلمت
تركيا
الماز
##آت
يشرك
العناصر
والنهاية
يتوب
الإقليم
##زيمة
ظنه
معكم
أنفسنا
إليهما
##زيون
وأين
والمغرب
بإحسان
اختلفت
فتقول
اند
##عاع
التقليدية
##هوة
فتأمل
باطلا
##فعاله
الإلهية
خلت
الرملي
الهروي
والبحر
لانت
المسرح
المقري
##راته
لفظة
صالح،
بالسيف
الحميدي
الزمر
قاموا
##شاركة
رجلان
الشح
لأنا
إقليم
الدعاة
منسوخ
##ضمير
الأث
بعير
##يسابور
##غ،
وعي
الربع
معلوما
##يفية
التدريس
يكلف
##لهم،
المدنية
ساح
دينار،
##شطة
وأمثال
ار
##رأي
شاع
بصري
شفاء
حذر
وجوههم
قمت
المختصر
الاستخ
يحج
##مله
ودم
واختار
سلط
العدا
والرسول
التوضيح
والشي
ثان
الحوض
نهار
يري
يبكي
##بدا
الهادي
المشكلة
##بسه
نظرت
وأجاب
##وصاف
عذابا
تخريجه
مقل
ينام
السنين
مرضه
##ستير
الترغيب
ثعلب
النمل
رأسها
وكون
المتحدة،
كسائر
البري
دخلوا
تطلع
ورواية
##ناكم
احتاج
والدعاء
الواضح
##سلطان
أستاذ
##قطار
المرتبة
ورم
##متهم
##آة
##عبين
الأذن
غديان
والحم
##سنات
شيخا
وستمائة
محكمة
##ضاعف
الأعراض
##طبق
تور
السوري
يتجاوز
باي
أصلي
يباع
تكوين
نجاح
الفاح
للمسلم
وبدأ
مسن
هذا؟
##وقوف
حولها
أمراء
برسول
##راتيجية
نيويورك
خت
كاذ
##غن
الإيجاب
دست
يسبق
اشتد
بيمينه
كلف
وور
##زة،
تردد
النتائج
الأيمان
وسفيان
التغيير
البرهان
والنار
##واجب
خروجه
غياث
طريقا
نجيح
يساعد
الاستش
القطاع
أمريكي
السلطات
البدر
لقيت
##رجات
جني
##حلة
##تموه
العودة
كالإ
##حا،
الجلوس
الجنين
##ظا
الوارد
فوقه
ارتفع
##زان
قصده
ذكور
النحاس
##ارير
المسجد،
##فصلة
##فتي
المخالفة
مسم
مكس
الخدمات
##حنون
بالذي
الأرواح
يرا
##كسر
خبرا
طاعته
لبيان
الإسماعي
اللطيف
##دن
التز
##برز
ثورة
يمينا
تصميم
الأديان
ويحرم
عبادي
الآباء
حاصل
أيا
المها
بعضكم
ثوبان
موسى،
##جاعة
الملف
##مائهم
مجموعات
الأسنان
وأز
التفريق
##وات،
##ويب
##اصم
فيم
##ياسات
فالجواب
آمين
يدور
مملوك
المحكم
الزاهد
متص
##دتهم
آياته
##وائي
لض
التام
خطة
##غنى
##غرق
##فاضل
الحمار
ولست
حنث
انقضاء
سعد،
سبقت
الحصين
فأقول
##ذكروا
وتز
حقها
مضط
المعالي
مرور
عوا
الرسمية
فحمل
##رابة
##قاذ
الحكام
##شط
العمي
نورا
المبين
الحوار
أوتوا
##ليط
##عدون
والمسلمين
ووال
الإنسان،
بيض
الموضوعات
أذى
حقي
البيئة
المعارضة
هول
الشهاب
والقص
الأهلية
الغنائم
الجهات
دينارا
المرسلين
الشوك
##وقه
##غلظ
الأطراف
غنى
يخال
##قيات
النبيين
##سلوب
محال
منازل
ونعم
##اليم
وتحقيق
بالان
وافت
إعداد
والجد
أصابع
أطول
أرط
يؤخر
##ماله
غائ
فامت
##حايا
التأمين
وتؤ
المهلب
وعملوا
جميعها
إصدار
ينادي
##لقت
إباحة
المجلد
الوفاة
للعل
شهيدا
والعرب
بباب
مسر
فهؤلاء
المنكدر
لحكم
##بيعه
مواد
بالآخر
وحضر
دير
وكلاهما
الحبس
كالع
المخلص
قرابة
الحادث
##فيدة
مسكين
وحسب
المواز
جمعه
##جته
وقبض
اقتصر
الشامي
أبت
البرت
##خيرة
##زوق
##مانة
والحسين
اتجاه
تموت
##ظف
الصناعية
التض
البلوغ
محض
عمد
وثي
كلاب
بالباطل
المنازل
مكاف
يلقى
عيش
##نيس
##روز
##وثيق
##ؤم
الرسم
##وليد
بإذنه
##خرف
##يضاح
ضعيفة
الثمرة
مسئ
##ختياره
##افرين
والمسلم
##أكل
##جموعة
تصدر
مقتل
العوامل
مراتب
ومال
##لكه
##قوى
##صاة
وغيرهم،
الكسائي
هدف
حصر
الأموي
البخاري،
عزوجل
معهد
بالبصرة
##ارة،
راع
صم
##ائعة
محددة
##يب،
حراما
دائم
متنا
الرؤيا
طهارة
الميلادي
والتش
الأنوار
تعبير
دماء
العظمى
دمشق،
قصص
مساعد
##ذكره
واتقوا
##جليزية
الشاب
##طيق
##وائية
##ذكرة
##ولاه
ممنوع
وخالف
تحسين
سلمة،
التنزيل
##كروا
##فقوا
الهلاك
وقسم
وكن
ياسر
اللخمي
ظلموا
مكحول
##رابات
العلمانية
ومرة
بالله،
قطعت
الآسيوية
##لج
الداعي
مطلع
الغنى
القائد
والملك
رسالته
تكره
##وجين
المنام
مكث
ثي
كول
الأبد
##ولياء
قعود
##يروس
السعدي
##اتبة
##رسوله
زادت
تابعة
دلال
لابي
القوا
ينظرون
منصوب
##وقوع
انف
الحركات
ذئب
وعظم
تقتل
بيتي
الخلع
تسب
صغار
بثلاثة
أرش
لباس
المضاربة
##أمن
##ورته
التطوع
مسب
##ؤكم
بأص
##ملأ
الدواء
وشك
جديدا
عرضت
التفكير
اللقاء
المفر
فيهن
##تل
البريد
أليم
اتفاقا
بايع
المحق
رجليه
##دام
يورث
##تيك
نموذج
##ؤنا
الأسئلة
نزيل
عيون
الإسرائيلية
يتصرف
يزول
العارفين
طعن
المنه
نون
وبح
صيا
مذاهب
جندب
واستدل
الجرج
اضطر
بصره
وخر
حدا
تحريف
كمية
##زياء
اخرج
نفى
الراش
##قرأ
محي
##لاها
##حرر
مسجدا
الاستفهام
لاحتمال
الجنود
##ساق
الأجسام
ساكنة
##ومين
القناع
يتولى
أمانة
تتكون
النصاب
الصهيونية
##لقه
الأفارقة
##فارق
قادرا
عائد
فجلس
ومغني
فضالة
فخرجت
وكلما
الفكرة
مباراة
تتأ
مشاركة
يسع
وثاني
الشم
حكمها
جدة
حكي
##جلب
زار
أخذا
آداب
ضغط
مطالب
إقراره
مسرح
الخارجي
##ظائف
يبحث
ليعلم
##طنا
أنما
##قيح
للعبد
تأكيد
الفلسفة
الطيبي
العيون
وتفسير
ففيها
المبلغ
المساواة
الوالدين
بام
قبلت
للأن
##اهري
عصره
وثلث
الإنس
المادية
أوفى
قريبة
رابعا
العجب
وبالم
الشام،
الخصوص
والتر
توجب
صدا
##لازمة
الأنا
أعلنت
طلبة
أعجب
إياك
،و
نبأ
صائم
نفذ
القومية
السهو
##مارك
الشوا
تقليد
دلائل
زل
الطول
وأحب
الماضية
الدلائل
البها
##وهب
يذبح
تدور
هلاك
##خالف
بعيدة
العنك
والحكمة
وشبه
ظفر
جعلوا
مستقب
واصل
لويس
بالكوفة
يطالب
خمر
لفي
قصاص
##ئيا
لوط
يرغب
نزع
عاصمة
أعيان
المبالغة
يحي
تصلي
##سير
بوضع
فأتاه
يحبه
إنى
المتط
للمؤ
المقاومة
##رفق
وبقية
##كنه
فأسلم
فعلها
دراسات
اللازمة
المعم
وعلوم
والعقل
فوجه
الحالية
##فاءة
إطلا
الإرهاب
والمال
وأسلم
##خلع
مذكور
ينقطع
الصحراء
النفسية
غاز
كسرى
الماء،
تشي
##شاه
المستع
مظاهر
أسعد
عبرة
القشير
##قضت
اليتيم
الألماني
صحابي
فور
والحنابلة
نصفه
ينوي
ردا
##رفوا
إسلامه
المتح
أحم
التصنيف
إلها
الوصي
معطوف
معقل
وظيفة
رام
وحب
غسان
التقى
الحشر
الحراني
تزوجت
جلب
أياما
الصغار
##فقات
وبعده
ثمرة
معالم
الفارس
ونست
##طنه
يسيرا
رحمته
جاوز
للزوج
للملك
##رأس
##رأته
فأكل
ليح
ثلاثمائة
تدفع
جمعا
ملة
يؤكل
##اهيم
الصغرى
##داخل
صنعت
ويصح
الحقيقية
عفيفي
بهم،
وبعضها
##فته
وقولهم
يجيب
##كتو
##جيع
فالا
##تيات
أسهم
والسر
يستدل
قومي
الفضائل
فكره
##شره
أعطا
##كلي
والتف
ربها
المشتركة
الفتى
المجتهد
طائر
الشاذ
فأس
يرزق
واما
العنكبوت
##وابا
إنسانا
أور
اجتهاد
أثره
##ريان
اختاره
نجس
المغربي
دني
يقصر
ومضى
##ذرة
الخصم
حقق
والرد
فلت
سانت
السكون
بالضرورة
المفس
##أنف
توهم
شبيه
الموسيقى
والعم
وأعلم
بالأم
حصة
بخصوص
السابقين
رحلة
بصف
ويرد
لأع
تها
##اهدوا
بفت
فو
أرسلنا
العلماء،
يفصل
المزي
ارتك
الدوا
يتميز
الثانية،
محص
العزة
##حام
ميلا
ظلما
الثاني،
البلاد،
حدثنى
سنده
الصلت
النشر
فاجتمع
الأمة،
القيادة
كيد
بخبر
بقد
العليم
حمار
##قلاني
قديمة
إعلان
والعصر
يتكون
كذبوا
ولفظه
والنظر
وعباد
أوسع
##روضة
اعتراض
معاملة
آنذاك
مخر
الجهني
أمان
البخارى
أشرك
##ائله
وظن
بمكان
##رابلس
تأمر
ذكر،
نظرة
لبيد
##رسالة
يرك
إجماعا
الحرث
##يني،
والمعت
أمهات
فتوى
##ميري
إشكال
معم
الجان
دينكم
ذلك؟
تفض
فهرس
واح
جاءهم
المجهول
فعال
نزاع
##ادهم
الاستقلال
يدرس
وبيع
دونها
تشكيل
##صلت
##ريقي
##ديس
##بوط
حملها
الرجلين
يفضل
عنق
بمائة
استحقاق
##خين
أحياء
ماري
##سيما
ورجال
الزائد
مؤك
للذي
فلقد
فاعلم
أرسلت
كق
##يات،
غيب
##عنة
##اهة
مير
الحلقة
الحما
يستوي
أربعون
غروب
تصلح
وحل
##ستم
أهلا
تصريح
جوانب
يميز
الفراغ
عادت
والكا
تحب
ضربت
ضربه
يزعمون
المخلوقات
مدخل
##لتي
المنافع
فلها
##طعمة
المشك
##غلب
قولها
واستقر
ويعمل
##ابهة
وضعف
العجل
فتى
وقا
##ادها
سلا
لحا
##غاثة
الشبكة
##جزات
##رائط
وضعها
يكلم
##وثان
##ابته
العذر
##ياته
ساج
ترجم
عدمه
والحاصل
الحلي
##ربها
السجدة
والاحت
المرس
نوفل
الحديبية
الفنون
ياب
##قيها
سياسية
##وحا
كذبت
المعاملات
##متاع
##حدر
الأشهر
##ياذ
##نهم
الهندي
جيدا
الرحمن،
رمض
##جنون
حيض
يقم
##انوني
جنبا
وشيخ
وهشام
يفي
بظاهر
وسجل
مشى
##مأن
مباشر
فصلت
مستقل
وثلاثة
ووصل
أطاع
خاصا
فبال
الدواب
الأسلحة
تكر
وأكل
##ندس
خديجة
وطئ
وعظ
المطالبة
##اعون
عدوا
تصير
الثابتة
الحجارة
والعق
##هنية
وعقد
شهداء
وإياك
التحليل
كثيرا،
خمسا
للكتاب
الاعلام
اللازم
##يه،
مفرد
تؤخذ
أعماله
ألوان
المنح
ونقله
يقضى
بتن
خب
الحمصي
فسب
يسن
أجيب
##رطان
سائل
الفور
ركعات
دورة
اشتراه
الكافرون
يره
##ذرت
الأوس
##وبهم
ناقص
صفاته
لصاحبه
لفلان
فكذا
غني
##افه
وقلة
الردة
وتسمى
##عتك
##سمه
مشارك
التصديق
ببد
الأذرعي
##فتاح
العبا
يكشف
صفية
توزيع
الآتية
##بادر
العراقية
وامرأة
وبني
بطنه
وأخرى
تراجم
الخزاعي
كص
حنظلة
يفسر
البركات
كذاب
وقوم
إيطاليا
##هدا
##رضى
قوى
الزهر
يتصل
الفصول
سريع
الخبيث
غيري
ووز
القذف
والسيا
تكرار
لقمان
الرومانية
عرضا
##رافية
كنانة
سنتين
عدى
لحوم
##خور
مناه
تكلف
السرقة
مرجع
الفريقين
دعوته
بجواز
صالحة
الصدقات
##نتي
بسن
الشمالي
العاقل
حت
والحج
بالموت
يوا
فيصل
اللباس
أوتي
الرعد
قالها
##شو
##جاح
الأوراق
نحر
##راكب
متصل
بكلمة
الرسائل
##ثوم
الفنية
المخزومي
أخذوا
فسكت
لفر
المباشر
للسي
قسمين
ميتة
يوضع
ظرف
ينتج
الحزن
السيارة
رتبة
غفور
الأحم
شمر
اليق
المتقين
ببر
##انيون
الثانوية
##قافة
الحرمة
الوديعة
يأتيه
##لائكته
سرير
تحليل
مستقبل
الإناء
قومك
بالطلاق
##ائه،
وسعد
نعبد
الاعتراف
الدستور
المعاملة
رأيتم
وتعالى،
الحاصل
الموحد
الفريضة
الدقيقة
معارض
الأشج
الورق
##فاح
##ثو
أطعم
الطيور
عنده،
العبودية
بصير
إسبانيا
باطلة
شعار
عقود
ردها
##الي،
لهؤلاء
متنوعة
الجنوبي
العبدي
وجز
دعوت
وأجيب
الأض
العمل،
##بوم
المخطوطات
##طيعوا
ربط
محاسن
دمه
يحيي
البرامج
جنازة
المحار
والدعوة
الجا
روضة
صدقه
إخوة
وصنف
صورته
حلت
لبث
الشهداء
العقائد
##فز
فجر
بإي
ازداد
الشيوعي
فقر
القرآنية
الأصوات
سماء
##ثاء
وخصوص
فلين
المواقع
هب
أعيد
المسئ
عنى
البرد
واكت
العسل
الجبهة
تكتب
ردود
سو
الجهمية
الخا
حضرت
##مالك
صباح
واجعل
وأعمال
الإضافة
ذرة
واقد
السدس
يساوي
وإسناده
وعليها
بحاجة
والدارقطني
رجله
النفط
ذراع
فيصير
ولايته
الأخضر
فقبل
وابو
البنات
وأحكام
حبا
للض
##عمله
الأزرق
إنجلترا
وسقط
##شب
##ها؛
فاخت
وبت
مجالات
مرزوق
روما
التما
الطهر
قولين
توك
تلمي
الشئ
كو
بيعة
وذا
الفزاري
والمل
لواء
يزد
##سوا
الغريب
يتابع
بالبر
فأتي
الكيل
##حال
##سلمي
أنيس
الروايتين
الموافقة
إسحق
رف
##ادوا
##وليا
الصناعة
قلتم
للحصول
##اربه
الحامل
تارك
مقدر
صلب
والتب
والعلماء
متابعة
للرجال
الإنفاق
صححه
الباحثين
ابا
يرم
##جوج
الغنيمة
الأخر
##ذهبي
التعرض
للات
بعده،
##لائي
مكتوب
كرد
وجزاكم
شت
وأور
##كاثر
##يتي
معجمة
معان
النساء،
##حظ
الرجعة
ووقف
بخلافه
فهناك
التمثيل
نيابة
الغذاء
وتنا
كأنهم
فمثلا
ويعد
أخص
وورد
##غور
الطيبة
أصلح
الإض
فوز
##ليمه
قدرا
اللوح
زفر
##بتين
الليثي
مبار
القطب
##بئ
##رادته
يشفع
بالرغم
##مان،
##وون
الدائم
الأيمن
إنني
بعثه
##كتوراه
ألب
يتعدى
نصا
والعياذ
كالش
الاتجاه
إننا
عنهم،
فحكم
##كة،
مسهر
##وائم
المنعم
الديوان
والرك
مواطن
##خوان
ودرس
الخطر
مصيبة
رفاعة
التقرير
والملائكة
وسبعمائة
الروسية
عتاب
وفاء
توفير
واجتمع
الشين
الفهر
البجلي
المتفق
بجانب
العدم
عوامل
للغاية
مؤمنين
يتعلم
تذكرة
فوات
زهرة
شواهد
باليد
وبإ
الظهار
الأخت
##فصال
بكونه
ينال
##طش
إناث
منسوب
##رقى
تفصي
الالتزام
يملكه
##الق
##يناه
خطوط
وأخيرا
وشرط
مثنى
بالرفع
محيط
المرأ
لك،
جرا
فسد
قلبك
المثليين
العجم
حقائق
##لى،
وكثر
المسافة
يصد
كتابي
ينعقد
يزيد،
سنت
لكرة
تعطي
أويس
الشدة
كله،
السلفية
الشاط
أسترال
نجاسة
##زها
صبا
خادم
تسليما
##شيدي
مكلف
المعاصرة
معرفته
الفوا
سببه
الفلاسفة
بحد
رفي
وجوز
كيلوم
##رائهم
رمضان،
الظرف
فصارت
وأك
تكونوا
مؤقت
##وسائل
ونع
مدارس
المحال
النفسي
يمنعه
الأجنبية
ياقوت
فأشبه
زائ
فيخرج
فريد
بالنار
التخصيص
الجزري
مرة،
##لهة
المنق
لفظا
روحه
أثار
الأبيات
##واها
##بوية
##ءة
المقدسة
فقول
نال
العاب
##ويح
يدخلون
وفلان
##هره
سوار
سبعون
فسقط
والبيهقى
النصرانية
لتس
التاج
موقوف
والنفس
كيسان
الكفالة
خف
الشامل
##اجتهاد
يمسح
علاء
##ودية
##حي،
وتعتبر
وصلاة
فثبت
ركع
والشمس
المكتوبة
وصفت
بالخيار
يهلك
يفعلون
المني
##تيال
الإمكان
جيدة
فكم
وقوعه
نسمع
##نائها
الخاء
العو
عروبة
طلع
الصحابة،
##راري
سعي
يتف
الآية،
الآخرة،
يطعم
الفكرية
##قرية
##ذهيب
واو
البلاغة
##خيل
استمرت
عدن
##لات،
##فيها
بالكلية
أرضه
كتبهم
التطور
المدر
يوق
##دلس
الوصل
همزة
غيلان
##صام
المعز
##ادين
وطائفة
غرفة
مبادئ
##مئن
إقام
استق
تربية
منظور
وكالة
رسائل
أيهما
##رتفع
حلول
ساهم
ينصر
فأصاب
يؤيد
الشق
قطاع
يمسك
##ص،
سيار
المصباح
الإعلان
إناء
لذلك،
الأسلوب
بصحة
##غوت
##رعان
وحده،
رسميا
أقرأ
البنوك
الحياء
والبي
##سنوي
الملكي
ركعت
مريض
والأنثى
وقصد
الصنا
فلل
مليار
##دعية
كثرت
##طلبه
بغض
واختلاف
وصلوا
أحفظ
محامد
هداية
سعى
جماع
##موا
الصلب
النتيجة
##رمذى
لور
التنفيذ
ممارسة
ظروف
ده
والسن
العمري
استث
##سست
بالعين
##دراك
##ظنه
##اب،
ضمرة
الداعية
تترك
جيل
كقولك
##كاة،
عشرون
السورية
هريرة،
تعليل
اتخذوا
الخبز
سوداء
##ددة
الملي
علمي
سمعوا
القيامة،
إيجاد
المشارك
اعتبارا
وطء
والتعليم
الثلاثاء
قولنا
النباتات
##ريدة
بيوم
هذ
القصيدة
حقيقته
أنصار
اجتمعت
حبة
ذلكم
أصبغ
للتأ
قصير
اطلع
وأولاد
أقيمت
وكفر
الاستئ
تصحيف
أمرك
تحويل
مقالة
أشخاص
ممد
المجاورة
بتقديم
والخبر
طن
فرواه
يقتضيه
الهول
يذ
##قده
غيرك
الليل،
بتحديد
التركة
الطبع
ويقع
مختصرا
المنورة
شرطه
غلاما
وني
##وطن
يجيز
الفرنج
مشاهد
أعز
##سرين
##ويف
وكيل
يحول
الايمان
ملكت
##ماته
إجارة
يقومون
سنا
والانت
زع
الساحل
الخراس
أمرين
يصرح
##شوا
والما
بعبد
##قبته
عسكرية
##صفه
##مهوري
المقالة
الجامعات
تزل
تسمح
الأنثى
أرواح
##منه
والجهاد
##أسيس
بدنه
##لامه
والعب
لتش
الإسلامي،
جف
##لز
الاستعمال
الحاس
الحملة
الشهوات
اللذين
السريع
اثني
الشراب
دامت
الجيل
للفق
البكر
##دارة
فإننا
دعواه
##زعة
الدني
وكنا
السكيت
النعيم
العداوة
##ختصار
امرؤ
قراءته
المنير
النطق
عندكم
يعط
ونسب
أصناف
##ضرات
التأخير
قبور
جوابا
كفى
مكانا
عاقبة
##ائكم
##معون
الطفيل
يصر
شهرين
تخت
##لافا
باعت
##وضات
الدرس
ريال
وشع
نوم
##زوا
##وجي
بعشرة
تلبس
والحال
والقاضي
##تمون
اليابان
دينية
سبل
المنقول
فربما
ونحوهما
أساليب
سط
شركات
الهذلي
كج
استدلال
الطائرة
ستي
ثبتت
نطق
بالقدر
رحمهما
وقوة
بهدف
الأنف
وأهم
معينا
جعفر،
نادى
مخافة
البيت،
بالياء
وجملة
ونصر
##ضمام
حدة
والجن
يتح
الخلاصة
والماء
الأجنبي
الإخوان
##افى
إذنه
كأنما
قطب
اصط
##قوال
شئتم
ضعيفا
ورف
بالذهب
وأتى
جسد
حائ
وبأ
التحت
النادي
الآمر
الحباب
الشيرازي
فسوف
##وني،
انش
الكرماني
قدرت
وحماد
الرمل
بيعها
التحكم
الكام
##بطة
##ائنة
##وطء
##شعر
بزي
مناسب
واتخذ
بالسنة
الكائنات
دعي
الفنان
وخالد
المقتول
أساسا
##ريين
لحظة
الدورة
وخلال
ووض
والمق
شاهدا
الإباحة
##يمته
##صق
اضطراب
هلا
أعمى
والرابع
استمرار
دواء
الأمصار
الأدوية
العاملين
ودر
سلطة
متعلقة
العقلاء
البيهقى
بخطه
##وسطة
العلو
الدولة،
محرمة
##رقام
الجنب
رقيق
المستخدم
##زدق
ترجيح
الجهر
الزرق
لفترة
##طفة
المنهاج
ناظر
مسلمين
لعلم
تنفع
الموارد
الباقون
نوعان
محق
خفت
الأقرب
الجنابة
##وائز
مررت
المجاهدين
فالق
قدموا
الكرة
##خيير
##واقع
##زي،
لاحظ
قرينة
متح
والأص
شو
بيدي
لسنة
##زموا
يعتد
حوش
##ستي
الأسبوع
الاغت
للأب
المخد
الموصى
وأخبرني
طلبت
##جراء
الانتق
##عيته
المنافقون
القض
مشهورة
بأمره
أنزلت
ديني
وثالث
الشبه
القران
أشهب
آراء
اصحاب
الدعم
بتص
وتعلم
دروس
##ينت
##حرى
هبيرة
يحقق
طيبا
بنيت
أبدا،
ومحل
النموذج
الجغرافي
متك
الكاملة
ومذهب
إتمام
المعلق
قسمة
لأس
بوص
امتناع
يتط
أبنا
تضرب
سخ
الصبيان
الحكم،
فوقها
معاد
العروض
شرحبيل
ترب
##كاك
تقييد
وتولى
مركب
وغيرها،
العادل
##ردت
يطول
##ياح
أكن
الكفيل
وآخره
##انم
أسرار
المتنا
بإس
تذ
كالج
##فضيل
استشهد
##ونغ
دولار،
وخبر
فذكرت
لزوج
يعبدون
الأرحام
المصير
الأشرف
شريف
وبك
جنسه
والتد
الكلام،
بالثمن
سميع
ساحل
وجلس
يؤتى
الطلبة
التصوف
فنس
الحائض
يذكرون
شام
رائحة
وصفاته
حبيبة
هوى
الذهاب
السيئة
جلاله
النفع
##بذ
تكرر
ودليل
الإتيان
والأحاديث
التركية
يفس
فدخلت
ميمونة
والطب
وضبط
والفضل
يسا
وتمت
يشق
الكشاف
مأمور
اف
##لاغ
الإسكندرية
بكت
نفا
الحبل
الجنيد
##ناسبة
الحياة،
والعشاء
الصريح
أكد
تكاد
عرضه
المسلحة
##بنت
بالنبي
التاسعة
يرده
يخاطب
بالنصب
ملائكة
##صالح
جسده
مراكز
فارت
والعمرة
##وهوب
تامة
دب
يتصدق
يحق
ضربة
الشفيع
##هيب
الضبي
جها
جنود
الجذ
بتك
أحببت
كذا،
##حته
الثقافي
الده
العاج
كلثوم
##اري،
السيئات
متب
ونقص
##ليدي
عماد
##عيفة
برواية
تنازع
متم
محالة
وذو
المقط
##طرت
الأمل
مصن
صدرت
##ذبين
البلقيني
##ديع
##رفون
بست
وادعى
روينا
سحنون
التلاوة
أمري
قريشا
المركزية
التوجه
طعم
أيما
أرا
فظهر
الترجيح
تكت
فمتى
وعليكم
والذكر
وعائشة
وآل
##مى
لعموم
بوجوب
الكلاب
المنظمات
الخف
يقتصر
تقريب
ورسوله،
المؤسسة
صادقا
ملايين
العماد
جميعا،
##يتا
جير
ليم
تتع
المحفوظ
الحلم
ينهى
##ذبون
الزراعية
الوصا
بغداد،
الحصر
يعتقدون
##فرغ
الفتوح
ليال
العالمين،
فأمره
أضل
##واحي
شح
السارق
كالس
##رائن
الصيغة
مردود
القطر
السيارات
آلهة
مارك
المبتد
##بادل
العراق،
حوادث
فيدخل
التأكيد
يعدل
الامير
##نائية
فأخبره
##شئ
الحجم
حبل
بلغة
رءوس
وطب
مرفوع
تقولون
فاعله
لذكر
الخزرجي
المنصوص
##سره
الممارس
مشقة
المسيحيين
الرومي
المدائ
وبنى
##واتها
انهم
تجار
نيته
البتة
الأمثال
##يريا
للان
##ميين
تنتهي
مسلمون
مجلسه
يحيط
وتعد
أقوام
سيل
والأولى
وفضل
؟؟
فراس
العطاء
وفيهم
الشريفة
##منوا
الأعمى
يعظم
المشاهد
يحيى،
##قاليد
الشبهات
المحرمات
محسن
الصاب
الدرر
وأقول
ذب
مخالفا
##صص
ثمة
جحد
منكرا
عقيد
إيمانهم
فظن
فيلزم
يصب
##صارهم
وجعلنا
ناص
##بتة
الحلو
يعجز
والتج
شاهين
استخلف
أولم
الرسمي
ومنذ
##وظ
وبالإ
ذرية
طبي
فاته
مبنى
المهد
ادخل
وأتم
##كوم
ساعد
##لكت
لكنهم
##قطعت
القائلين
والثوري
الليالي
الوسيلة
السمعاني
##لتان
الطور
مجازا
والأخلاق
اتهم
باسمه
لكونها
قبيصة
قاس
ترون
خيل
يميل
##نائع
أجره
التقييد
واع
مقاومة
أنظمة
واختاره
بقصد
فاضل
يرتفع
الكاثوليكية
المناه
آباء
مليكة
ويحك
والأنصار
##دنا
أوص
وليت
النقاش
##يادي
ببيع
والعبد
مطلقة
يسبب
الجيوش
قادة
الملح
والسلام،
فيش
خرجه
ثابتا
الوهم
وسوف
الأدنى
وكف
##طيئة
والصفات
النفل
إمامه
الموقوف
تقضي
أفاد
المستعان
صفته
البنت
تركته
خبير
بجمع
اعتما
##لقي
بالألف
يدك
تصديق
اللعب
الليبر
الأربعاء
مهد
الرو
خلاصة
وتشمل
الناسخ
الدقيق
##دران
مستحق
أرم
بوصف
ذهبا
التمهيد
حط
ويف
تنتج
عصمة
فقطع
معالجة
الطين
والتم
وتسع
وينظر
##حمده
فجاءت
متط
الذاتي
الشافعي،
لغات
الذاتية
وجعلت
الإجازة
وجهك
المغازي
##نمية
##ظى
##وءة
المذكورين
يسمعون
حالهم
غفلة
شامل
##شي،
النصيحة
زعيم
أعداد
انضم
وقضى
التيار
إير
##شيخة
اعتماد
الرغبة
يعيشون
تساعد
طور
قرئ
أدركت
الإت
تغي
الفص
ورغم
منيع
للتح
ويستحب
##ؤمنون
##راتها
المقل
##وقية
السلع
مشاكل
وجودها
الورد
##خفضة
السطح
##منت
##وجة
مئات
التنظيم
بالبيع
الكريم،
جمرة
ذكرهم
زرارة
ينص
السرية
أخيرا
حزن
وبو
##جاة
الركعتين
هير
أفي
ينقسم
المدح
ومق
باقية
النقي
المرتب
فصح
##جدد
الراية
بالخير
الحمى
مذم
محظ
وسلامه
الغم
وول
المدى
الانق
نهج
فجعلت
سماعه
أعلاه
كالتالي
##فر،
بموت
الأصم
التشريق
صريحا
مستويات
سجن
##ديها
فالمراد
ويلزم
والبل
اجتمعوا
الجواهر
يساره
منافع
أخل
تستعمل
باليمن
استعماله
رؤيا
العذ
السعودي
غصب
ونها
السرخ
عثر
قوت
الخول
##قدين
واجه
يكمل
والأد
رياض
أعي
##كونة
استخ
##ينغ
ومسا
##جاني
وأثبت
تقولوا
الصير
مصح
الموصوف
الطعن
والإحسان
الصحيح،
بقوم
راهويه
تبوك
يضاف
بالملك
محتمل
رط
القومي
أساسي
الملة
المجيب
حمر
معاوية،
##رنا
الظنون
مسعر
أئ
محطة
مواقف
##شتراك
نقلت
العتي
مربع
السرير
أعرفه
وانصرف
##كا،
سبعا
##صيان
ونصب
تزويج
قعد
فقالا
تهي
أقدام
وضعفه
يليه
التفت
سليمان،
##مويل
##رهن
حلالا
فالواجب
الإعراب
تابعي
علموا
الثمار
أسبوع
الأنظمة
معط
بعب
لحاجة
المقابل
التحالف
بالذات
معارضة
طاب
##حاطة
المستخدمة
مضمون
توق
##غلال
بالمت
لتم
إيمانه
تدبير
مناك
لدفع
الموجب
##شات
وتقديم
رحي
##سله
الميل
الجزائري
تتميز
إجابة
بعدد
الغف
المحب
الغابة
وأو
سيارة
##حويل
أراك
متعم
المؤيد
فقير
وتاب
أصابت
فها
واشن
البرم
وشرب
للحكم
بصد
ملاحظة
وصرح
بحرف
بولاية
سريج
لشيخ
وماله
##سنى
اختبار
##جنب
بمقدار
الخفي
الأصولي
طلقة
يتوهم
تدعى
الجدار
مقالات
لمالك
المطالب
زعموا
والفقه
##طيفة
لأبيه
شريكه
ونفس
##سوقي
##لاقة
المعتبر
والقدر
##يلة،
المحد
بأل
الإنصاف
يعاقب
يزوج
##كنولوجيا
##لتا
##اور
البنا
##ارات
يكف
نسلم
##رافات
الأهداف
##كنون
تهد
وراءه
صاعد
##كيك
دنانير
تفس
الساق
اجتها
##معت
##بلوما
اصطلاح
تعمد
##سا،
##ضعة
الخندق
الوحيدة
شرو
فيأتي
وظاهره
الرابط
فأنكر
مبينا
العضو
اللفظة
الدخان
الشعور
النقود
وجوبا
جاءكم
موافق
وجع
الديمقراطي
الغل
العنصر
كائن
اختلفا
مفتاح
فظاهر
##زح
هرب
##وفة،
##وائج
يسأله
إلغاء
غائب
##قرر
فتت
المراب
افتتح
السيدة
يقارب
بحسن
تناقض
بلاء
بعد،
فعرف
##ذره
##صوا
وجعفر
وظائف
##فوع
مساعدة
بعقد
للدكتور
بحي
##ثرا
إمكانية
متأخر
السرا
##غانستان
وتبعه
لمعنى
الرجل،
قاض
الخير،
خدمات
رتب
##سقاء
##خالفة
##لسي
##ظه
بأعمال
##صارا
المبتدأ
فليتأمل
##وائر
لجواز
الرومان
للدين
الحظ
عملها
مريضا
البسيط
بنصف
زنى
يشار
كلها،
وكس
وأفضل
الاعتكاف
ولمن
محذ
##حتين
العصبية
الشهوة
آتي
##لالات
أرسله
البكاء
تجر
خلايا
مسير
وسكن
بيانا
مره
يستطيعون
ملم
والته
وصالح
كانون
منهاج
بشهادة
اللاتي
##أب
طفل
ولان
والقيام
الشافع
البيعة
مشتركة
تصيب
تري
##بغة
منبه
تعدي
بحم
والسب
##تبين
جاءوا
الأهواء
بذي
##خام
لاختلاف
بيتها
حدي
الطوسي
الرطب
استي
أحضر
وجوبه
بالنفس
ملأ
الغرماء
الفرصة
لأحمد
يأتون
قتادة،
مطعم
وخلاصة
##يتك
##غتسل
يزداد
##قلها
واشنطن
المصاحف
المبسوط
ومصر
المتاع
دعاة
وذاك
بشدة
##ريابي
البدائع
أجمل
##جلوس
فاطر
الأسانيد
المفصل
السوداء
للتن
النووية
##واجد
بلدان
للنا
والقياس
تيسر
المباشرة
ذنبه
##رىء
كفرا
الجوي
الرش
بالاتفاق
أري
رخصة
الزوجية
##مده
بهاء
##بارته
الصنف
فيحت
جو
البت
قثنا
##ذربي
أمراض
العروس
##وكس
نشأت
##تهم،
أقف
واضحا
القرنين
إفريقيا
##لسنة
ألي
الاعتراض
##بوها
عدلا
المجلة
الأبحاث
لعلهم
##صيح
المنزلة
بطلب
يغتسل
للإناث
بطون
##طوير
##غف
لأكثر
فالك
والور
فانصرف
تطهر
الموت،
كذبا
وثم
وعبر
فليح
سنه
وإقامة
معتم
الثعل
زائد
##فرون
وأقل
تساوي
##آني
تفسد
##يقن
يعمر
ازد
شف
ذراعا
الضعيفة
اختلط
آي
صائ
المولود
القشيري
يتطلب
يرمي
يبني
والفعل
ذهاب
##ميات
##أمر
النجاة
عرفا
استقلال
البركة
التنمية
عندهما
بمش
##انيات
##يقية
المنتخب
##ؤا
##ربون
القاري
##لقوا
سعر
شارع
العبر
اللحية
تاريخية
الكنائس
وحلف
شعرا
الله؛
مبنية
بالتأ
##رائر
بقايا
##خرية
انتقلت
جناية
سلعة
وماذا
سبحانك
عاشوراء
ستكون
ويريد
فولدت
وألا
المحرر
التسبيح
##جلا
بذن
والجملة
جميلة
محبو
خفيف
نواحي
وولى
أجنبي
التدريب
طبيب
المسم
بضعة
##بقية
يخدم
فاتبع
الطائرات
للمر
##وثة
تقف
النقاد
والأخرى
##سلط
العقار
شراب
مرث
وجاءت
المرور
وأثنى
للقاضي
اعترف
##انين
ساكن
##خري
الطويلة
وصارت
الصنعاني
العباسي
فقيها
الديون
سياسي
##بيحة
فأد
ينفي
الصدور
فيأخذ
والكل
ووافقه
يروا
اخبرنا
القاضى
الحسيني
##يمة،
عبدالملك
ضلالة
##زته
العدوي
الأنباري
راحل
رئاسة
والجرح
يعانون
نظره
نهارا
الأغاني
استقبل
وبقيت
يناسب
الشخصيات
سره
##وزة
ارجع
عظام
ففتح
##فيين
بعلمه
##انيه
والسجود
حادثة
التركي
تسعين
تدريب
الحذاء
الطوائف
بذاته
جوازه
القنا
ورئيس
تشبيه
إحصاء
ورود
##رويج
والواجب
المحمد
والضمير
أمامه
المعارض
الأفلام
حاس
فكنت
عنصر
الجاهل
معلم
المباراة
بالذ
وجزم
المغصوب
##ثوذك
ونهى
##شفة
##الس
ويثبت
فغضب
فأحسن
عملوا
يخلف
سيئ
##عمون
وحال
تفتح
أتوا
السماء،
الأبصار
ويشترط
شبر
وأشد
##جران
##ئاب
اليسير
المتعد
##سال
##سيك
لصحة
شركاء
القربى
وطا
أوت
صناع
يواجه
وجابر
البابا
الريف
أجود
المتعا
والمعرفة
مقيم
##جلى
غزة
يكونون
تجربة
قبوله
مصحف
الناتج
وخصوصا
مستع
المولد
وظل
أمك
والمغ
عجي
##ماها
##ديين
##حاة
حمير
والجز
قتي
فؤاد
وسمي
وجدوا
ذؤ
هجوم
جبلة
مشكل
اثنا
وأحيانا
وكفى
ديم
والصالح
فرسه
الإذا
##قيس
مكانها
ألحق
يعطيه
عودة
المشاكل
والهي
الساج
خرجنا
غف
##بداع
وأثر
رضيت
##شيته
بملك
قصور
##بش
##ابها
الخس
نماذج
عرفوا
طلعت
نفوسهم
لضعف
الأديب
حرفا
المكرمة
مطلوب
موارد
علو
الحيوية
الشرائع
توفيت
للإن
عثمان،
تابعه
قضيت
منتهى
مشغ
##هانة
تعديل
الجرجاني
كافية
أوصاف
##صحابة
الفاسدة
##مأنينة
دنا
الإنجيل
##شروا
غسله
الحرب،
تلم
شطر
##وهية
تركيب
##يكاني
روايتان
الكسب
معاهدة
خاد
قنا
النبي،
وقعة
رزقه
نأخذ
الأرج
يتجه
أبيها
يحسب
للرسول
شذرات
الزهري،
خالفه
بعينها
لذي
يجدون
رأسي
اللحي
لعنة
الراشدين
انتفاء
بوش
##ائيل
##بتك
وأخوه
فائ
أذا
أخته
أغنية
المدا
##ابرين
نصير
وليه
بالرج
الأصابع
جدار
##رائها
معتبر
حمى
تأثر
وعدة
أستراليا
أدي
كليب
حياتهم
وعلمه
يباح
##لاء،
والعراق
الميقات
هنري
منج
الزور
ويعتقد
بيل
بغية
مطاب
باح
ومأ
ولح
استيفاء
الدرهم
كراهية
##غنياء
المواقف
فشل
وركب
خلط
والإنسان
حائط
يومه
قوس
النجاح
حزام
للأمة
القنوت
حرملة
مئ
##فره
##رياء
أعقاب
##ضون
وعده
الشمس،
المجموعات
هذان
ثماني
سيت
للمح
راية
بنص
فهمه
فنون
العزم
والمشهور
خفض
نكون
##مالا
احتجاج
يتي
شأنها
ندب
الكسر
بالكفر
يستن
تخاف
بفض
##خى
ثلاثون
الرشد
##جبال
بعثت
الداخلي
أذهب
قويا
وحاشية
إبل
##بلها
##وجبه
انتها
شيوخه
##صان
الجس
يعقد
##اتلوا
الثمر
ونشأ
##وفه
فاضلا
المعهد
التتار
##وعب
والعالم
التعلي
بولي
##سرع
بالمد
عازب
عجب
يقينا
يفوت
ينته
تشار
الأوثان
اكتسب
جزي
الحسنات
دال
نستطيع
اليونانية
وغل
ويطلق
لليهود
فاذا
بحلب
كتبها
عذب
فث
##فرع
الضم
##اليين
يوفق
تحد
فطلب
البلخي
ميثاق
العساكر
أرقم
##وبرت
##ئهم
الرحلة
فيصح
##سلسل
ونفع
رؤيته
وأنس
وبينهم
أرك
##لحاد
##اهدا
##رادات
المشرو
##هده
الملكة
جح
التجاري
كفي
موز
بتشديد
الأظهر
اقترح
##معا
بالشيء
##كر،
مخاط
الطاعات
أفلح
ثيابه
وحكي
دوري
خطوة
الأضحية
التوكل
بالخط
الشن
أهمها
القود
أشعث
##بدوا
العبرة
يأكلون
##يرون
##ئوا
يور
أخرجت
عام،
خرق
##يناهم
مناقب
واعلموا
صعد
العاشرة
أوق
اك
بمق
الأيدي
لأني
التركيز
حكا
الفقر،
##امس
##جي،
##تقان
فاتقوا
التقسيم
##ليو
##فرج
ورجاله
الصوف
##لافة
الزاي
بالواو
فكأنما
##قذ
وتخرج
المجنون
النهائي
الأجهزة
بولا
استغفر
مشروعية
فأتيت
##طنطينية
وكذب
واستح
الأعشى
ذري
الحنث
يتحرك
فروة
ثالثة
مهاجر
المقاصد
ونف
يضره
منطق
والإك
مزد
صومه
أيمن
يستمر
بقطع
جلوس
زاده
مراجعة
يتضح
##درى
وثيقة
وفس
بمنى
حيز
##روى
الامتناع
وسكت
ودون
ممتنع
الطائر
الزبيدي
أضعف
##بوي
تأويله
علاقات
الصعب
ينبت
يجعلها
قاعد
شفا
الإمارات
والصبر
##لائه
ثني
الرجاء
##اعا
الأولية
##راسيل
أخف
مبالغة
خث
##لاقي
الرجم
واز
صنعاء
كوفي
ذلك؛
أطيب
العمارة
الاخر
##زيين
منتخب
حلي
يخرجه
##وسيط
والمروة
المور
يدخله
الحضور
المحسنين
##جة،
الفرزدق
##هورا
طرابلس
##صات
عددهم
المآ
المره
تحفظ
إبن
##ريخ
اللعان
وغالبا
التهاب
أود
وتقدير
##فاعي
##وجهة
والتقوى
المقص
##ذرهم
والشافعية
أمروا
الأخطاء
أهدى
والشام
تشرين
مطبوع
النجاشي
الصعيد
الإرث
قبة
المرفوع
##يرية
ويبلغ
أوراق
وثلاثون
الخيرات
بالعقد
##صرها
عورة
##راكي
الخنزير
امتداد
الربوبية
ومك
##لاثة
بالجنة
##وافقة
القناة
جوان
##ماثلة
كالك
وكثيرا
فلعل
الآراء
المحافظ
##ستانت
يتخ
##ووس
والطاعة
يستغفر
عشرا
زمزم
توص
خوا
السباع
شير
عقدة
بلادهم
##براطورية
ميدان
##ظمه
بصح
الاصطلاح
##رابا
الذمي
ويشهد
وسر
بقيمة
القاب
أظهرت
اليمامة
##ومة،
##فتهم
كذبه
أذان
بظ
وطريق
آكل
السميع
الذهن
استقبال
بضرب
واضط
أفسد
للشي
البطولة
واليهود
الحوا
قبلي
اتصل
واستد
القبيلة
##ديون
اكتشف
بمعناه
المفض
مولانا
##داوي
قبلة
الإثبات
##رورا
تمثيل
المخاطب
نؤ
##ويز
بجامع
الحال،
بعرفة
الكهربائية
أعناق
بقضاء
وزين
العباب
##ريث
صلاتهم
وولده
##مسح
##شاق
نقصان
اتفاقية
##مدة
موسي
الغفور
المشقة
##طبيق
##لازم
الجعفي
أحيا
أير
##لاميذ
القانونية
غال
أيسر
والباقي
##طو
بحفظ
بالعدل
نصي
يرفعه
الوعي
##ملا
الأخفش
مدع
قاعدا
##وفاة
الصاغاني
جنى
جيمس
قوام
الأبناء
الخشب
الرياضية
لمنع
الإشكال
الحمراء
##ويلات
الهجري
الصهيوني
##سيد
ويؤيده
حوشب
لشخص
الستر
البراءة
##سيب
الأشراف
##بيته
ابتدأ
أيام،
الذل
الديلم
الذم
فقيرا
والكسائي
##أر
معين،
##رجاع
بقص
فأقر
##انك
المرح
##روها
سنويا
المجالس
هواه
عكا
ووث
ساف
قبح
شعبة،
العثور
لؤ
الشهاد
الرخصة
##طبخ
قريظة
الاستواء
شرقي
##دركه
المكروه
ظال
##داول
الاستثمار
ويسلم
##باشر
##حيته
فالظاهر
أهون
الوزارة
والخل
الآن،
اعترض
ذاتها
الطاء
عقلا
تدرك
فغير
##اخ
ملحو
##فيز
تقام
يملكون
بالقتل
انخفاض
الأسفل
الحكومات
##حاضة
موث
ليش
حبه
الخفين
##لتك
##ضاوي
الحين
أصحابي
##يارا
الباهلي
حصته
##باين
##خارى
تركوا
التربة
المصريين
الحادثة
عقاب
الرقبة
ومط
بعض،
أداة
لذة
##زاع
الحط
والثانى
اخر
المسع
فركب
##وبري
##سيان
##ومن
##فقود
بالتص
جاهل
اسمع
##آنا
بحضرة
##ذرون
أنف
قاطع
وقامت
وعاش
باعتباره
الذخيرة
تأسست
لطيف
السرخسي
وترتفع
وجعلوا
والتخ
بغي
عليك،
راس
غزو
مجلدات
الحج،
التعلم
اني
مون
##راما
##واله
##جر،
السليم
الخياط
##ويه،
يرجعون
الصحافة
الزيارة
السيل
##عدين
الظهور
الأمام
البحر،
غافر
متعل
##باحث
لأحدهما
تحق
##اهير
عصبة
النهضة
##مرين
رقاب
الجام
ويونس
للدولة
مثلي
يمد
يخرجون
شفع
يلي،
الحف
المساعدة
##يفور
وثق
إصابة
##جزة
وتو
الطيران
خلل
ردي
##ووا
وتكلم
أزواجه
##بوق
وداود
##بيثة
أملك
بينهما،
يضعف
الزينة
والإي
يفقه
رمز
مختار
روبرت
##ئ،
الهندسة
نكت
##باج
إز
##ظها
الإسماعيلي
مقيد
لتص
المرأة،
الذئب
الخب
دان
إليهم،
خواص
يوح
تخص
مكانة
فراغ
##ضين
وسوء
##جعله
مائتي
المعن
وقتا
لابنه
الإمبراطور
حوض
##جبة
فأتوا
عاليا
ولسان
برفع
واث
قبيح
كك
عجيب
فقراء
وشدة
##راعي
ونساء
والزبير
المتمر
العام،
عشرات
وتوجه
المسلمون،
##ونيا
فلماذا
بوس
زلت
##فران
##كارم
بلغنا
تعري
بأسا
جاك
الهيثمى
المقبري
بالنص
أكلت
أفض
لهو
الشيوعية
أسف
والعين
وكشف
كالذي
باعتبارها
المختص
الأمطار
جاهلا
##ضائه
##رضاع
##وعيد
التجربة
الغصب
صوتا
الخلائق
أتاني
فجاز
وعدمه
وبخاصة
وأولى
لمست
ضعيف،
يقاتلون
حلية
الإرشاد
الثدي
عمرا
##جلال
##امنا
وجدته
يوضح
الير
حيوة
الشوكاني
ضابط
غص
##فقين
يخرجاه
الصفوف
وكونه
والمجتمع
ريت
خالد،
##تمرات
أسي
##وته،
بأربعة
##ياج
فبينما
تقوى
محدد
المطاف
تاس
استخدمت
والصف
##وانه
يطهر
الابتد
خزا
واستن
جين
##ولوجي
شاك
القلب،
ثقافة
خلاد
اليسار
والقدرة
بئس
دقائق
التوسل
الجريمة
بوض
والمي
قمة
فيمكن
الزبير،
الاعمش
سألته
##شئة
يستقبل
##همال
لهب
##قلين
فحذف
##راجه
وأضاف
زنا
##شفت
##ليفه
الرقي
تسجيل
والهند
باللسان
غرم
اشترك
أنوا
الواجبات
ظلمة
هجرة
ساقط
فقبض
الهام
أدع
ويترك
الحدا
بإع
##امرة
تجديد
لأصحابه
##زلي
##صرين
عرشه
فذاك
وأورد
يقين
الاختصاص
المهت
المنتجات
طار
حرص
بنحوه
يتعا
افتتاح
##اتين
توضع
خن
دو
وعا
##بعوث
التغير
بالسلام
الحث
للذكر
وأمي
الفريابي
ادعوا
العامة،
تلزمه
الخصائص
##واجا
الأنما
رداء
برز
الجبر
الغلو
مؤسس
اكثر
رواد
##درج
يسمعه
فصا
##طاف
بتقدير
شريكة
الحرج
##انا،
وفهم
عصام
والدم
أضعاف
اللؤلؤ
##ضرت
##ساوية
طوله
فعاد
إسرائيل،
##خلا
##خوة
الشفاء
وليا
تعدادي
مصدرا
بواجب
تسعى
أموالكم
اللاتينية
ثمنا
الحنطة
وعلق
##ذام
فأشار
##وائب
المحققين
المناسك
##باته
المملوك
الإنساني
بمشي
الجمعة،
التدبير
شؤون
الوظائف
الآفاق
وللح
##قلون
##أني
لأسباب
يطأ
العاقلة
قربة
عقائد
##قدس
طائرة
الدرع
الكرسي
حار
أغني
##ازم
صاروا
قلوبنا
تلقي
وفع
المعدة
##يلا
أوحى
للبر
والشعر
بالصواب
البنية
صفا
لترك
يأمره
الجميل
يراجع
يوجه
كنيته
الاسود
مقاب
السمك
جوابه
والنسائى
توما
##حيفة
##ياف
التخفيف
استولى
ديننا
بشرح
الرجال،
ميناء
اكتب
يخطئ
##وع،
جميعهم
المسب
##كرمه
ناسا
##غوط
صاعا
الفاحشة
نصح
يسوغ
نذير
وأولئك
المدائني
ذاه
الفخر
الآلهة
لوحة
يجزئه
أسئلة
##قراره
الجماهير
برحم
بالكلام
##شح
أكتب
وعيد
خلقنا
خصال
لجه
##وبين
شكرا
##كلف
تعب
تصانيفه
هاء
بأقل
أيامه
الكبد
الضيف
##غسل
والمث
والإس
ضا
النافع
بالتس
##نته
##فاك
بالقياس
التسعين
فتم
الخيرية
الفاك
##داس
أشعر
غليظ
##وثي
ويأمر
الحمر
عبدك
جميعه
أمت
نظيره
فإنهما
شهرة
بنفسها
غربي
يقود
التمتع
##ادرة
##حرق
##وزي
حقهم
المسن
يتذكر
ساحة
الحسين،
##كاء
الأندلسي
غار
الراعي
للبخاري
يبرأ
الجور
طوائف
مطار
الفضلاء
لحيته
التحق
تلزم
وقلنا
الكع
يستقيم
##اهرات
الغار
ويجمع
اختص
البحار
البراز
##سوس
التجارب
##وجوه
مترا
ويكفي
حركات
الجزم
طبقا
سجدة
البغي
##كاس
الإنجليزي
بإجماع
ويضع
تنقص
##عق
السكري
مكرم
الغذائية
والسنة،
الجحيم
للعم
وموا
البيزن
النفس،
البادية
بقراءة
مقبل
والآثار
مدرك
العنق
العورة
##درون
منفردا
بالمح
كأنك
خارجا
المضارب
##حتهم
##بدع
المناخ
الأجانب
فنف
أنفه
وأموالهم
الإمارة
الساكن
لفعل
##ساع
لجمع
تنقل
حجارة
وأخذت
نائم
بالمق
الجهم
أسند
الحصار
ويبدو
مختص
ابيه
والقط
واسط
رؤساء
أجريت
الكتاني
صفين
وقراءة
بمست
المساكين
السامع
ودار
قدمناه
##باعا
عتيق
الحوالة
النواب
المخاط
والسبب
لاعت
##شكيل
وتقع
أتينا
وصله
##خلة
الضرير
يرجى
الفداء
فأخذه
##زعه
##وري،
بالأرض
تخفيف
عجبا
حمراء
الخطوط
المعتمر
الفيل
راحلته
حاف
السويد
##شها
الخادم
لدينا
عصا
قطعه
والإنجيل
السلا
سفره
##وارزم
المعتاد
لطلب
##اكم
##رده
كفرهم
الاستي
حضرة
فلق
##ئيات
صراع
لزيادة
يحزن
وعادة
ذكروه
المحرمة
لصلاة
ظلت
العين،
نسخت
الآخرون
كندا
يشتمل
إياهم
##ويع
ويقرأ
والباطل
الدن
##ضارات
والمدينة
آمنت
لأنفسهم
يخر
ملح
قدرها
الصحيفة
الروي
فقضى
هامة
يفرض
وقيام
##صراف
أصبت
وانته
الجوارح
الجمهوري
عروض
الأرثوذك
##امة،
بالنهار
ويلي
ومغ
وجهي
شعائر
زريع
والآن
البوا
والحد
رسله
##هلها
##نابة
يحدد
وأث
موضوعة
جريمة
وحسنه
الاستخدام
##ويين
كرامة
إلزام
يضيع
ولاء
الألعاب
##لائم
استطعت
عمدة
والقضاء
##تين،
##سيمات
تكبيرة
وتزوج
يتأتى
والباقون
يتهم
العصمة
وأصلح
لي،
دينك
يفضي
##بوين
المشهود
المقيم
أحكامه
تنفي
السعيد
الدينار
الظلام
##لسفة
حظر
ولين
صعب
التوجيه
لعباده
الإدراك
##طفل
الحرص
##صابات
المباني
##اتمة
الشما
الدائرة
المدخل
التخلص
أصحابه،
##ماء،
##ها؟
فلولا
تنزيل
للسيد
الجنرال
نصاب
الحجرات
وحمزة
يلتزم
نقاط
سابقة
هزيمة
قرون
يمارس
##دارات
والولد
بخلق
بالصبر
اختلافا
ءامن
قمي
والبيان
البياض
روت
##حرمة
سخر
##لاحقة
والرق
لائ
المطلوبة
##اعرة
يفتي
أميرا
الكيميائية
وعكرمة
للخط
مقبرة
##مرا
منط
السوفيتي
تراجع
سخط
أسط
طلبا
الكري
##دره
أنشدني
يحمد
التعيين
##واهم
فأخذت
##طة،
عنب
والبن
تمتد
وحدات
##يخ
جاءني
طالب،
تقويم
تخالف
كوكب
##رياض
والفساد
الرمة
الكاذ
يتوجه
##راسان
العافية
السمن
الأدبية
البكري
ينصب
لأخيه
المجاهد
شعراء
أطلقت
يوهم
أسباط
المصن
الفضيل
ذكوان
الشديدة
المعدل
تكفير
وبأن
جحش
خطيب
وسأ
ذى
وعاصم
الاقتداء
إطلاقه
كبد
أحي
بينك
اشتغل
بالحكم
يجدوا
وحك
بسكون
الأنث
ببيان
الأسلمي
التاجر
البناني
انقضت
ميد
نسبته
لذاته
يطع
وشعبة
المحتمل
فالأول
واتباع
اللوا
والكفر
الإعادة
أستا
عقول
ذل
استأذن
اللواء
بلاده
الظلمات
كخ
ومرا
ويحب
الزين
##رحه
لازمة
الزكاة،
حاضرا
لغرض
مطبعة
الهن
تقلي
مغيرة
تبعه
كبير،
فأب
يأمن
أربعمائة
الاستحقاق
فدية
التكرار
بالهم
الحواري
متصلة
يكونا
اجتماعية
وفيات
بسنة
وعليك
محدودة
المفتوحة
مستمر
انتخابات
المعاصرين
رغب
ورسله
ويصلي
الجارود
##رابه
الأهل
ألسن
الأمريك
مسألت
ويحمل
##عباد
كبرى
متعمدا
التأنيث
يدين
نقلها
لغت
##شان
يمضي
بفر
لمصلحة
بعباد
انظروا
رع
##جيات
##ساة
الجود
نسبيا
لمعرفة
سمح
ولاة
كابن
##غات
الزعفر
حاملا
المبرد
والكر
تكذيب
إخواننا
##دود
معيلون
بالعراق
##لك،
##بل،
وسماه
بقرة
بالأس
والسم
الجهود
والفض
الأطل
الأوقاف
الآحاد
دعاه
##وعظ
تحية
شهوة
يوصي
التوكيل
للمتق
ويؤخذ
اتفقوا
دراسته
الإسكندر
استحسان
مظهر
المبدأ
قولوا
محدود
الفني
ناسيا
والحارث
الشركاء
الانف
التسوية
مرحبا
##؟؟؟؟
استخدامها
السني
يجاب
##فلحون
زماننا
علام
لخبر
##ماما
بحيرة
الأذ
عاملا
السنية
مؤخرا
واللغة
طلي
المقات
ورده
##واي
الأسرار
اليونان
الميد
فرك
يلم
##يلعي
بمحمد
الاستغفار
فصول
صهيب
بمقتضى
##واجهة
اط
بصيرة
تبدو
لعدة
وخذ
الصنائع
الأوائل
لموسى
المستشر
يوما،
قلوبكم
##نافس
الفكري
تصرفه
تباع
##قراء
شعبية
أجمعوا
##قاه
##اتيح
أصبهان
يستدرك
فقدان
دفعت
عرفه
لزيد
وذكرت
بصوت
##قياد
تخصص
بالنون
طبيعي
هاد
جائزا
لمجرد
نفعا
ومعاوية
##قاقه
رجعوا
خاصة،
رابطة
لحقوق
مصل
بريد
وثنا
##تقاء
نفوذ
دعت
والحرام
المغفرة
والطبرانى
سيم
يحمله
##يدها
ينس
وجعلها
وجمعه
بالدعاء
الرضاعة
السرعة
تشريع
بشران
##وبى
آر
صوفي
الصادر
زينة
ورحل
وأربعة
تفضل
والمعروف
ويسأل
التمسك
تعرضت
امام
##جاء
الرقا
المتولي
طرفي
مولد
للجميع
##ث،
أدوات
تهدف
##هزاء
الجانبين
أساء
مشهد
وجاز
الخولاني
مجيء
والثالثة
المميز
المجالات
أظلم
نداء
ولاه
رواة
أمركم
بقلبه
بخل
##راش
وأخر
ساء
العقوبات
المرتد
زاوية
نسوة
يستح
مغفرة
الطريق،
منقط
الحصن
الدوام
وترا
فلانة
الفردية
تحا
والخير
نادر
الدسوقي
سيئات
والأف
سريعا
##جئ
عادته
دالة
أسوة
الخراساني
ماه
اللعبة
الالف
أثنى
رجوعه
قدما
الأوصاف
الاي
بآية
وكيلا
صندوق
قرض
تحوي
مستقر
نجوم
لاعب
الفضيلة
بآخر
##وخي
ثابت،
الصائ
والتقريب
مرثد
قوته
أبغض
التيم
وطئها
الثم
بعدك
##حرز
صحب
##مها
ارتباط
بالشرط
الخاتم
وساق
##وران
يونس،
موعد
النخلة
تعي
موري
القيد
قادرة
فتبين
##صده
النفا
تقرب
بكى
##واحش
##ماوي
كالق
أخبركم
يؤذي
الخصومة
##ظالم
الاث
مثلما
القوس
فسألت
ابتغاء
وكلها
السكوت
ينفرد
##مهم
باه
فطلق
الغيث
تجتمع
أنبي
انعقد
##رعها
أرحم
المراجع
لعبة
الحذر
عملي
الخلية
المدبر
##ولة،
شيوعا
##يس،
معص
عائذ
##سكين
المماليك
نعرفه
العزيز،
ينفعه
##ظفر
الرفعة
الحلول
التحفة
لؤلؤ
##ثات
ينج
##ضلة
##زالي
وملائكته
##وهات
تتغير
الأطعمة
رزين
المسلسل
فلان،
الحارث،
طبيعية
الألباب
مود
أفغانستان
تسير
إحداث
يعلق
##وتين
الأرضية
الاختلاط
عمال
وحذف
ابنها
##هدة
المحلى
##بانة
الزاني
الزر
مجن
أقوم
فأف
الأنفس
لسن
العزى
##ثيرات
##جاهات
##خاوي
وهيب
وآثار
رجح
والأصح
ورقاء
حياتها
حليف
##صعة
والاجتماعية
وهب،
تعجب
بيعا
معمر،
أنزلنا
فابت
علمهم
توضيح
التعليمية
##حلول
الامة
##فارسية
وبدأت
يشتغل
والستين
المسعودي
البهائم
ترق
يرق
كاليفور
صرفه
والأدب
وطال
عناية
العنبري
طين
الفحل
لسب
الظلمة
ألزم
يروه
جوار
ضخمة
للمش
##نيل
##يت،
قابلة
ويه
وزنا
رواحة
معصوم
لتت
عرفات
يومنا
ظلال
عزي
عثيمين
##مدي
نسائه
حسن،
##قبله
فجعله
الأركان
ينزع
والشرب
فأعطاه
مؤمنة
نغ
يوقف
حوا
تفريق
الإكراه
ويمت
اذ
وثقات
غائبا
المالي
آبا
يلبث
يغضب
والخوف
ويعود
##مادي
السلطان،
##ؤوس
هناك،
تمتلك
##وق،
##طي،
معدان
العظمة
لمش
القصير
والأعمال
تتراوح
الملأ
وقدرته
مقبو
حرمه
جماعات
##ساسية
ثمار
##عدات
مساء
ولبس
الزن
المجرد
التنفس
أخذنا
ويدعو
استعداد
نخل
وأذن
الجوانب
مكتوبة
المقالات
الملقب
بالعربية
وبط
ويرفع
تنقسم
واتفق
وتقوم
##طاقات
ببناء
حيلة
خدا
##رونا
استغلال
الحبوب
ضربا
حمام
زبيد
تسي
طوا
ألك
##شهاد
##ضياء
كأني
المعتق
نزلوا
بريء
##غرافية
المكره
كاليفورنيا
عقيب
الدراس
فاسدا
الاستيعاب
عرفنا
الديلمي
المفسرون
أنس،
الظاهرية
الألوان
فينظر
التحتية
نمر
والليث
##يدية
أغنى
##امية
وتخفيف
يجاوز
##رافه
أقبلت
برئ
سلب
المظلوم
أوقع
عدوه
بالقضاء
##ماج
يمتلك
بيتك
قتلهم
المزد
الكوفيين
أعوام
الطبي
القاهرة،
فوت
جليل
##يمه
والكذب
التزم
مشاهدة
ثمنها
والكافر
المشر
محارب
الانتهاء
كوك
ادعاه
والدر
التواصل
تقصير
احتمل
##شهدوا
جسر
##باض
خمسون
شها
الكي
والحياة
فير
العاط
غيبة
إتلاف
وبالجملة
##قيته
قصي
أضرب
يهب
##دني
عرضة
##ئذان
والزكاة
مثلا،
تحريمه
قارب
التردد
والإنس
التخيير
بدائع
بالإنجليزية
لقل
لإي
ارتد
عبس
بقولهم
أخرجها
والدارمي
لمثل
أتبع
صنا
نكل
بصلاة
تواجه
ومقا
متفرقة
هو،
ووجود
##جدوا
يستر
المستق
يصبر
رهنا
المنهي
كيلو
للأول
##أيها
عقبه
باللفظ
ذيل
الابل
##لقين
والنون
بالتاء
الكسوف
جواد
##طلعت
بقرب
العسقلاني
الحالف
مالية
أحكم
المأخوذ
مقسم
أزمة
الاية
الخطاب،
فحا
##طوي
للترجمة
ونسبه
فوجدت
تولوا
بالتشديد
يسمون
يتل
نمط
ومثال
##قيموا
المنص
##رتبة
##وايته
للاحت
متصلا
الكوي
خشي
##وفاء
##شدد
حافظا
فاختلف
##لاحظات
معهما
يؤاخذ
##جاجة
الجدل
العظيم،
ورحمته
فامتنع
##ييس
القير
ويمنع
قرآنا
أرادت
فدفع
المصلين
مجز
عبيد،
والرحمة
الملابس
خضر
غلا
يتمثل
يرجو
درهم،
يقابل
أستطيع
والحيوان
الأفق
وبسبب
العربي،
بحرية
حش
مواز
الناقد
أسير
والقاسم
المجرمين
حقيقي
الغرر
##وفان
ينشأ
مثله،
القرآني
وطبع
المنثور
يسافر
مناهج
الأتراك
تفضيل
خري
##ونسي
أختها
تشاء
مقبولة
##وها،
مقاصد
يعز
بعدها،
##زاة
إياكم
خالدين
التخريج
تدريس
إحرام
والواقع
أمريكية
الواعظ
تدعون
حسنات
##ائية،
الغاف
بماله
ضيف
بينت
بالكامل
سوي
الحز
وظهور
أكم
##ادتها
المفيد
مفسدة
كالخ
يفسخ
فبعض
لهي
##فارة
التقديم
ونتيجة
بإمكان
##شراف
قيامه
القرابة
##رفة،
عداوة
الموهوب
جبار
الأقسام
تنتقل
بأد
للمرة
الاستفادة
الزبيري
التحلل
الجزر
التناقض
##جرا
##رف،
##جازي
ضرار
طع
مكن
بحذف
يسبح
النابغة
مفتوح
فحمد
خلقكم
البرا
المواطنين
محلها
مرتفع
عتقه
أكابر
دفعة
يفتقر
لحما
باس
##طاس
مناقشة
والليلة
##برع
وتبين
وإل
مخرمة
تقسم
للضرورة
مسافر
ملكها
اللغوية
إحرامه
والغل
والإجماع
##وبته
الزخرف
نؤمن
مرق
يحبس
توصل
والمكان
المسكين
بطول
والآداب
نات
ورثة
اشتريت
الحيرة
لتك
##ذرا
بالقلب
لشدة
الخلق،
غياب
فالش
صعوبة
##والد
وأدخل
مؤلفات
فلسط
كسبت
ذهن
لزوجها
مدي
##تقض
اقتصاد
رئيسية
أذرع
مثلهم
الفاسق
##احات
الهوية
سياس
يزيل
استئناف
فبعد
وطلحة
سعادة
##عكس
البني
الاتصالات
تتطلب
أسلموا
بقى
قطني
فأجابه
كهرب
خياط
قتيل
أردنا
وأخت
كتبا
العشرين،
##كاره
مقات
ويذهب
معز
##ؤك
والعدل
وجوبها
الباقية
قاط
غلبة
طير
##ضايا
تميل
عبادته
إمارة
تزول
للمناطق
حيوية
تستحق
والأبحاث
حكام
فبقي
بندار
لقال
لواحد
المقدار
وقفا
وقياس
وتمكن
حينها
عارف
##دير
فراش
ندري
##صها
حقيقية
أيمانكم
الشيعي
بصحيح
##الكية
وبينها
تحس
حان
فوقف
طعامه
زيت
ترم
فحم
وعندي
عصى
##رضت
##يسان
##نفل
ويغفر
قف
##قهم
الانس
المذ
وكال
وزر
ماتوا
نكاحها
سابع
##طيعة
تأك
المستقب
قولكم
أصابعه
التقا
مستحب
صبح
##ضحة
بأخ
أجزأه
خامسا
يمتد
حاك
تكليف
فيحتمل
مسار
يمدح
وللأ
راكبا
العادات
القريبة
الكثرة
##شده
وأض
فالمعنى
سنوات،
تخفي
يعاني
مماثلة
أفيد
##طالة
وبالأ
خذوا
باكستان
يتب
والشهادة
حاطب
الساحة
لعذر
ءامنوا
نيسابور
مشابهة
بجه
طرأ
قان
الطف
##راب،
والعلوم
نيو
المضي
الغفلة
تفقه
ترتب
أفعاله
حكمت
صبرا
العقب
كهي
وعشر
فلابد
المسلم،
بشرا
إلقاء
##شارد
طريف
إنجاز
متفر
##ءا
ووجهه
##رامات
اليأس
يلقي
العدول
حرق
الصبا
وصرف
ورثته
والهم
وروح
أعمالكم
الراكب
التحذير
المتكلمين
غرس
الأوجه
##ومان
البصري،
مميز
باختصار
للقضاء
##عمى
لونه
ولادة
يشغل
والاسم
فضحك
##صمة
غيرها،
ببينة
الرض
نحوها
شعي
##يته،
مسلك
##ذربيجان
أفواه
بديل
قدميه
وصفا
إسماعيل،
التقنية
وتنت
مولاهم
يربط
بأنواع
العاملة
تدبر
يأخذون
الأغلب
وصفة
ومعظم
أسم
يقام
المعتقد
نقدا
كارل
كلوا
يفارق
يرتبط
مهرجان
إسلامي
الشطر
البكت
فتس
وجرى
داعية
الفراش
##سرى
المستمر
اليماني
يوحى
سنين،
ويؤيد
عشية
أوج
الخلوة
العصا
عادل
المتعددة
جث
عظمة
أسوأ
الآلة
المحص
الحاوي
باستثناء
النهى
الأكاديمية
##درالية
طلاقا
الواسع
الأصل،
ولدي
أضيف
##فيك
مسعود،
العزل
والترك
مفعولا
يشعرون
##عجل
يتمتع
فسره
يحبون
اللاعب
ونافع
أبين
الكفرة
عزة
مفص
أتلف
سئ
##هر،
##نيها
مهت
رضاه
صواب
ليخرج
للمفعول
ثقل
وسميت
المشكلات
الأكس
يوسف،
للمتقين
##ضن
الاخرى
الطحا
##ضاة
النبيذ
##دهن
ودخلت
##جابي
القلق
بالغة
الروسي
قدوم
حسبما
جماهير
وقي
التعرف
عزله
العامري
ركوب
عطفا
الاحتياط
أعج
خشب
صغر
مبد
الغفاري
تحسن
للتجارة
المزع
بنك
##عينه
فمه
##حار
##فسة
النائب
حبسه
والخص
ليوم
##فلح
يون
##حدا
بأسماء
توقع
رسمية
بالقوة
مبن
الصاحب
##وقات
شهدوا
شمل
يمان
الاحتفال
الفتاة
فمنها
الملل
إطعام
##زلها
بأخذ
فأخرجه
##وفون
كالا
التمويل
##زاي
للسنة
ضده
غرة
##رعه
بيمين
الكوكب
تعم
الماشية
قطن
مبتد
الضلالة
الدرجات
آلات
رعا
والاه
الرباط
بسهولة
المرتبطة
##ربح
صحتها
عري
مجاهد،
لأننا
##طره
الفيء
وخمسة
فاسق
رت
سرد
الشعر،
لتحديد
براء
الباجي
المدرس
اشتراها
##درت
##ابتداء
لإس
##ذهان
الكبير،
الصينية
توافق
الحماية
بعذاب
بعدة
رواها
قاضيا
الجنان
ثبوته
##قدت
##طاعت
يجت
سلمى
بعت
لدراسة
حريث
##سيه
الفرح
بالتك
##غله
يديك
بأمور
الفدية
##موت
المتق
يلاحظ
##فوظة
الكرامة
وأخذوا
سبا
مطا
القاص
كقولهم
فسأ
الاعتداء
فسم
جعلته
الكلاسي
##روية
يدها
الضاد
وطن
لمؤ
أفاده
وقضية
ونقول
أمرني
##سيح
بدور
يديه،
الوسيط
انتشرت
الصافات
أكبر،
##ويش
قياما
أضر
منزلا
بامرأة
كالز
تدمير
المركب
يتحول
لوق
نفقته
تأت
للشافعي
وصفها
اخرى
أدركه
بالشف
الثلاثين
والبحث
أمره،
والمرسل
المعادن
فذهبت
وهار
الحوت
اللهو
فيض
الصيني
بحثه
الحكاية
الكربون
الصادقين
غاف
##بيرات
القارة
ولق
المحتار
المان
##ماثل
قريش،
المأذون
تبيع
ننن
مطلقا،
وقرئ
استطعتم
مزاحم
البخت
ليصبح
##سرة
تطوع
يؤمنوا
يار
اليومية
الرياضي
محقق
##قوس
ينو
##راعى
تاما
##ضائع
##يتاء
قبله،
حالها
##أثر
وأمثاله
والمساكين
أنزله
##وقها
البيضاوي
والخلاف
##ساد
##درة
وكلمة
المحظ
ظاهرها
مشتق
##متم
بالكذب
غنيا
وأبوه
##جيال
خامس
باء
##عهم
التعديل
اللحياني
والموا
فقدت
برأسه
وباب
وسأله
منظومة
القديس
اعتمادا
الورع
والرواية
سماحة
هنا،
الدعوات
أثرا
ضامن
##لاعب
##اتبه
النمط
سنته
يدخلها
أبحاث
أخبرناه
الخبرة
##داها
وارد
##صبة
فأص
أوامر
ظنا
معلق
وحديثه
بسوء
يرفض
النسيان
الأيسر
وثمانمائة
##ورا،
للحافظ
يتس
تجده
##،،
الفرار
والأز
التحول
العقلي
##عاقب
مصير
والجمهور
تختص
الهات
تكثر
القدح
##شركين
وقب
يتق
خالصا
لأجله
مجنون
تمليك
موك
مهي
يجهر
ويقدم
للميت
ادعاء
والقب
آمر
يعجب
والعامل
الديانة
الاشتغال
الصاع
التصويت
##يرت
حروب
الاقتصار
الجيد
فتلك
إخواني
طرفة
ووكي
##ورون
##عدهم
ويقت
المصلى
##اطئ
تخلو
الماجشون
كونهم
##زمي
الجرير
بفعله
جود
يهتم
كين
الآيتين
##باره
وليها
والباء
السيوف
التفاعل
خراج
بسببه
إرشاد
بالقوي
صنيع
استقل
الاستقرار
وأعطى
##معه
للنس
صريحة
النقض
بدفع
مصرف
جهات
المصيبة
توج
حلم
##همان
بطنها
صحا
طهور
مطيع
للذ
يتأخر
للفقراء
الضب
##دمة
##لندي
فينت
العينين
ساقه
الذاكرة
الثبات
مستعم
تركي
أساسية
الاطلاع
محافظ
العنوان
الهادئ
البالغة
مندة
أشجار
بسهم
مخطوط
فروى
أضع
ناه
وكله
هلم
المرش
الداء
يتبعون
النصراني
نر
سيطرة
وعام
تتنا
النطاق
كاذبا
بالتن
العيدين
كفه
الحافظ،
##ابرة
##ستاذ
##حيز
احدى
أصحابها
والبزار
النفر
فيجعل
المخل
المودع
ثناء
##ضاها
شرعه
يبيت
##ففة
تعزيز
الواجبة
واحدا،
العميل
العارية
التهمة
كفره
##رتيب
##يرين
والأحكام
##بغض
المطا
القتلى
دفعها
تصوم
##راوي
##حميد
إنش
عكسه
الشد
##يسا
خطبته
المعنى،
ذهبوا
الموصي
المنهال
أره
القانوني
خديج
الوراث
##راتهم
خاطب
الموسوعة
أعمل
وأكرم
الدخل
قومهم
أبيك
المقدام
##مرقند
رص
##خرون
غادر
ينح
لاحت
ويوسف
شعري
التكفير
ونظرا
تعبدون
##جاسة
وخرجت
##ستان،
افعل
##نعت
فيد
ترتبط
اعمل
##ذق
ليالي
عائشة،
ويصل
اختياره
##غراض
المحاكم
ويسم
معلقا
مقدما
سيرته
طالبا
وأكبر
ضرو
كاب
الصناعات
حسا
كز
الصليب
أعبد
قبلنا
نسيت
وقالا
احتلال
غلبت
الجرائم
والمك
##جني
معدلات
نحوا
للما
فيقع
فقمت
يهودية
والنصر
نصرة
قرطبة
شائ
واذكر
المتوقع
##ذاكر
##كيه
الختان
##ولو
الإسنوي
المضارع
وإليك
تنكح
الأصيل
الحرك
وصحيح
رجل،
لازما
الجزي
أحسب
بصيرا
وإمام
##فتان
##جزه
##ساعة
جندي
مسلسل
##فلت
الراغب
ففر
بالتي
والمز
عرضها
يقدح
ترتفع
##زيارة
يستفيد
الخفيف
الإنشاء
سهما
التامة
الوالي
يخلص
العادية
بأنفسهم
##ولته
##أته
البير
وصحح
حبيش
الاكتفاء
##ستهم
##سلس
يسألون
ندم
الدروس
ونفي
يسيرة
ماض
أشك
يجهل
التعزير
برأس
دن
آتا
##ياك
##ياسة
##راهين
تنبت
هادي
كتلة
عيبا
مولود
وديعة
وأعت
انعقاد
حده
عالي
اتق
أقا
الثانى
الخلل
يأتين
خالصة
الأصناف
بيوتهم
الوصايا
نكرة
بالفاء
##رسله
البصريين
صحح
الرسوم
لبي
القع
فرسا
وروينا
القاسم،
الصفقة
##نبوا
##وايات
##وجا
حدثناه
حجرا
موظ
قلم
بالرجل
يصعد
الصانع
الجندي
أجرى
وسنن
القزو
##ئنا
الكنى
بإسلام
تصحيحه
أبوك
تغطي
وترى
درست
ممثل
وقرىء
##فعوا
##در،
حاجب
بروت
جوه
صبيا
##حيه
مرتبطة
الرفق
مستشفى
التصميم
فعليك
خالدا
##مائر
ثقيف
وبنت
وأشباه
واشتغل
مدني
الحكماء
المنتهى
##دايا
مفيد
التقصير
بذات
الفائ
دفعا
بأول
لحن
هيل
القح
تلخيص
فأم
بلدية
وكبر
ياأيها
يقرر
أفرد
##وود
الدولا
الذرية
الحرام،
##ائيا
فراشه
بدن
يسلك
المشهد
إمامة
فاسدة
تفاوت
الغفار
بأح
واسطة
##ءوا
أنبياء
##طلبات
الأمور،
وقيد
المعتصم
ضمنه
والملا
##رائق
ضياء
##لقاب
فتاة
تدريج
أقدر
##ئيل
وقدره
فأصبحت
التوسع
الكذاب
فهنا
تصغير
المتم
حاولت
رأسا
بقين
عميرة
يلحقه
مراقبة
##يافة
يجده
الأموات
فبينا
أحاديثه
بحا
##تبس
الأحق
الأغنياء
أخشى
بالاعت
##سار
وإنها
تتحدث
##آه
أكثرها
التعدي
التأليف
رفيع
##وشي
أشعار
عمود
العبارات
##وائح
اليهود،
شهور
كوس
التعظيم
صادقين
ميرا
العيوب
فنه
##دونيس
ومسح
##يون
الزا
ترضى
حلة
##ضارة
سيفه
دوام
وجواب
عددها
مؤسسات
التهديد
##رك،
وبنات
الزاد
تحالف
العصبي
الشؤون
جاد
قميص
يسرق
وأمرهم
حذفت
يدفن
يكفيه
الجميلة
وقرأت
فمعناه
ما،
الرأسم
ذؤيب
الجناح
##سبين
وتعرف
منعت
الدموية
ووفقا
المواطن
##فاعه
استجابة
تقم
فحدثني
##مهرة
##باقي
الضرائب
فدا
المنط
اللباب
شاس
##اتا
أجنبية
التين
الأسماك
بالعكس
##هبان
التاريخي
القسامة
##لسوف
اليسر
ليقول
والأقرب
مخزوم
##لفا
بموته
حذا
محج
ظننت
كغ
المعقول
منازلهم
صعيد
التعم
القعن
السعر
##خاطب
الحاشية
اسحق
فسألته
##شوف
يخف
فرقا
الأوامر
##برد
مدل
ردت
السهل
المعارك
الأسط
الروس
فتا
إخوانه
جانبه
##قييد
##هون
ينفقون
يوحنا
كوم
وظلم
حملا
بقتله
عدنان
اقتضى
عظيم،
##لئ
##متك
##حلال
##ائس
أسمائه
ثناؤه
الضروري
سبط
صدورهم
الأغنية
لبناء
القمح
تبد
مصف
##هدم
وتصرف
الحمض
مثالا
شعوب
وأموال
الصيرفي
والمط
للمص
المركزي
المؤرخين
##ذبهم
##وبة،
الأمريكية،
وجمهور
الإعجاز
وأقره
اخذ
أسرى
تضمنت
المبادرة
الجح
الأنشطة
بالجز
##روان
##اريا
الحيل
أبصر
جهم
إرث
والموت
أصر
تنزي
ضخم
راجعون
فرسان
فبكى
فولد
وأرج
المجته
والخلف
الوثائق
والأوزاعي
وشارك
محاولات
##وهما
تتخذوا
للقيام
بقبض
أخطاء
يشد
فليراجع
المغل
حنيف
كريست
##باعد
المعبود
والآية
بوت
الحليم
ويبين
الشمسية
والفتح
الأثرم
لوجوب
إملاء
شائع
غرف
المند
##سامح
ديارهم
شفاعة
عارفا
بينهم،
##ازن
##رارية
أثبته
فجل
فيصلي
بدخول
##طاي
إيه
العدوان
فاه
يراها
الغلط
وخطب
أزيد
البرتغ
لظهور
بالتق
ياسين
تعليقا
مضاع
والمه
أسهل
سرعان
جلود
مختلفة،
تضي
يبيعه
لحفظ
لكثير
الرياء
البلاغ
المبنى
##ظات
نافلة
تراث
##بعين
##صيله
والظلم
السعد
##ويرية
السالك
العاصي
الزيلعي
تحتمل
وأولا
وإنك
استفهام
المسؤول
ببيت
موطن
##شفيات
الأذكار
اتخذت
المخدرات
##سملة
##فول
متحف
##شور
##عاذ
##بيوتر
المادي
صداق
الميز
للبن
بعرض
أميال
عاق
اللبنانية
غريبة
الحديثين
أبطل
وإثبات
داخلة
للحاكم
المؤلفين
مجه
باط
بحثا
سماها
وفرض
ضبطه
عابد
الذب
##همين
الدكتوراه
محركة
فليقل
للحياة
الحديدية
طالما
القادمة
عفو
مناسك
حق،
داف
##كارا
الطيبات
شاركت
كاذب
وبيت
الرابطة
والقوة
السرور
النظرة
تشتمل
باليمين
بدت
محرك
الهرم
تار
التست
الشروع
##احبة
كانتا
##ادير
مدبر
أشهر،
إتيان
##وذا
لاشت
كاست
بالعد
التكاليف
تحدد
فلعله
##رائد
##تلوا
##زف
المثبت
الغض
للمؤمن
إزال
عينها
أعمار
أكلها
وماء
الأسهم
يبصر
الوجيز
والكاشف
آذان
##كشاف
أخضر
##شتا
سلمت
صفحات
الباب،
مطلب
فترات
أحسنت
الشهور
بعوض
مشر
ووس
يرجح
##صيص
تهم
فمعنى
بأف
##شارا
والواو
آدم،
شوا
ورزق
##غيان
الفردوس
الهيكل
صق
وسمى
بآياتنا
غش
قباء
ستون
القوية
مكسورة
الفناء
أفصح
والزهري
أظنه
بالمغرب
المتصل
يستجيب
تقييم
بالنساء
ينتمي
بنفسه،
يتحمل
أمكنه
اذكر
عنهما،
الإنجليز
##أى
يسهل
الانساب
موحدة
ببلاد
معاص
البروتستانت
أرجح
##علهم
##بلد
##رضوا
اثنتي
صيغ
الخطة
شميل
كشاف
رود
كان،
ملكية
النسل
الاستيلاء
ينشد
أقبح
مقيما
##انة،
والضحاك
اختصار
وخلع
بيئة
أحوج
فعد
هزم
بالعيب
##لاتين
الإرسال
انتشر
كرام
المذكور،
أحواله
المغرب،
الممثل
لقيه
##حض
ذكرى
##نجاء
ذنبا
الاستغ
تجارية
وقط
النقصان
##ستون
وقاتل
##بعها
##واترة
فأحب
مزي
الماس
##رضة
الإحياء
##ابيح
##زات
##سمت
تقنية
##طفاء
خطوات
لحمه
كوريا
الاصح
##طاة
نفيه
فرجعت
ويحكم
يتبعه
أراده
بوزن
بالقراءة
الجوامع
فافت
وتذهيب
فرص
##راجعه
نضرة
أنفع
##نفذ
وعليهم
وطول
القدرية
النهائية
بخي
فأدخل
الظواهر
المغناط
الصليبية
تعجل
للجمع
احفظ
أتباعه
انتظار
الإمساك
وكتبه
فحل
##خلي
الشعير
الانتصار
موضعا
جمعها
ضاق
##وحش
ونش
واحتجوا
##وعات
جرائم
خباب
عبارته
نقط
مساف
المقيد
##زج
تجنب
جدع
النائم
البصير
إجمالي
لامرأته
للفت
جماعة،
حماة
الميثاق
##كها
رآها
وكذا،
الهدية
يخفف
لاقت
القاهر
الاستسقاء
تشعر
التقليدي
وأرجو
الجنون
بلسانه
ضح
ولإ
الغابات
سادس
الجسر
##طفان
المنتقى
أدعية
بالقبض
الصخرة
##دينا
بأداء
##بارهم
تقلب
الراجز
##لكات
زوجا
والصالحين
يشاهد
المرتفع
الوقود
الصع
الآلات
مبنيا
القراض
إر
طرقه
قيصر
النعل
##لقاه
##هرت
التعبد
واستدلوا
##سرون
وقتلوا
وقيس
وإعادة
الانصار
الأبرار
اليمن،
تفاصيل
روز
النافلة
##ميزان
دجلة
والدها
رأسه،
الخواص
باج
المفاهيم
الإلهي
سريعة
بقراء
ملكة
وبالا
مكاتب
خمرا
بخمسة
ماد
بأصحاب
مشيخة
##فيظ
خفيفة
وفساد
والطلاق
الدعا
الآلاف
أحدنا
بالقسط
وسبعون
##جيز
##رته
تغني
صيانة
السلطنة
##يهم
المخر
الاستمرار
الظاهري
سموا
عالمية
فيبقى
ارتكب
واللسان
غريبا
هرمز
الاق
يشر
للعالمين
ظه
##خلال
فتقدم
صاحبي
وبالت
المزارع
السبيعي
لمكان
يبنى
قولهما
جاءك
بكاء
استقرار
الظفر
خبز
تقط
خليلا
##فيته
أهد
والفي
ومهما
ويكتب
##زمت
الإيرانية
##لته
يتغ
واستغفر
بدرجة
ضاع
والند
يبلغه
##شعار
للوصول
الجرا
الإدارية
حائض
إيقاع
المساقاة
##طاول
خبيث
الطالبين
جاره
يحس
تحولت
ويستخدم
جهته
يوصل
المحذوف
التدخل
زراعة
يضحك
والفا
يجزي
سبقه
للحاجة
الراحة
يبط
##ليان
الأسب
القادة
الإسبانية
التصور
أباح
الجماعة،
##اتحة
الطبر
الناشر
دستور
حضارة
صعصعة
يصعب
##مارية
والصوم
ألست
يقاس
##بغى
العاقبة
##ولف
فيرجع
النقاط
يستحقه
نصارى
لحسن
الأشعة
والكتابة
##ارد
##ولان
أخط
أهواء
يأتوا
بإطلاق
الفج
الأساليب
عبارات
وضمن
الطاعون
المجوس
الاضطراب
تحيض
سينا
عيسى،
والخروج
علاق
تنك
وعبادة
العتيق
المصائب
بكفر
##سعى
لعمل
بطال
ضررا
##يرك
كبيرة،
بواحدة
##برك
اللزوم
حائل
بكلية
نصفها
القميص
والزيادة
القسطنطينية
نشا
المراه
وأجر
نظري
مطالبة
الجمحي
قررت
التخصص
##ماعه
استجاب
والوق
قدس
ينكح
وانتهى
جبير،
اشتراك
وهارون
يطل
ممر
أمم
بولد
راحة
##رونات
##قصاء
يبغض
حنبل،
يخالفه
هجرية
سرح
والضلال
الكنز
اللذان
مصلح
مجته
وأقرب
تعالي
##لن
يقعد
خطط
أقت
الطهور
الكهرباء
كميات
##قصان
لاع
أفلام
الرغ
محرز
والفس
والمنت
طبيع
المراكز
والشراب
خلدون
واستع
لؤي
تحريك
خزائن
تعاون
لحد
##مل،
تتمة
إيراد
وكيفية
ولحم
حنطة
المقبرة
رئيسي
وبالر
ضمانه
هلكت
الساع
الاثير
ارتكاب
جراح
التوقف
كيلومتر
والبيع
يتعامل
ويسن
فضربه
الشقيق
ورعا
##ذبية
المفتوح
بسيطة
اتفقا
المقابلة
##يلي
لامت
بالغيب
##رتين
يعلمها
بالنية
المفلس
اغتسل
أسانيد
حديثة
وغسل
جنبه
النضير
كاس
تعجيل
وتركه
فالس
الفلسطينيين
والأمير
يخافون
للوا
طبعا
رياح
مازن
القار
##عيات
بدله
التفاوت
فذ
لنفسك
أرق
يبن
رحيما
مناد
قذ
تأي
لنقل
##واض
فأق
الخمسين
تعط
وإظهار
أحوالهم
أوصي
مضل
##كرت
الكاثوليك
القطن
والغنم
الانتخاب
السلطانية
الإجمالي
واعتبر
والصدقة
والأئمة
ثلاثتهم
القدماء
##قدا
##شر،
وحفص
محكم
القاضي،
الفاط
أخذته
ووجوب
نصفين
نجح
كأبي
للأمر
##مرة،
الغام
وكمال
##ذوذ
تعليقه
الزنج
الزوجات
بود
##خس
الفط
تأثيرا
لحماية
##حرام
الإيطالي
الإجمال
##بدة
فهلا
وزراء
وبحث
##رهيب
ديفيد
ظلمات
لزوجته
يعذر
والشرح
فالتفت
الرحال
الانقطاع
المائية
شعور
وحمله
تبني
يكر
##وايا
جيشا
خصي
انتظر
صبيح
##غرة
واليا
##وك،
المستعم
الذراع
بالنا
استيقظ
بطرس
فصلوا
لال
فزعم
واقف
##ضيه
مساكن
والقتل
والوليد
ساجدا
توماس
الهزيمة
سلالة
وربك
علمتم
السخاوي
حوار
صخرة
تشارلز
خطورة
غازي
##وطار
يطرح
السابق،
##جتهم
إعراب
ملابس
أجلها
##شاة
منصور،
موطأ
الخرقي
الأستر
بذاك
توقيع
تنعقد
الروماني
التراويح
الخت
##سيق
الغريم
سقي
والمذهب
بالرد
يستقر
حصار
طالت
ويقتل
راكب
مكافحة
عسكري
##يج
شاعرا
تكشف
مناة
العصر،
التطبيق
##طعم
وأسباب
ولماذا
الكلابي
##وزارة
المترجم
علوا
الهما
##وعها
نصلي
بالعقل
##فاعلات
##اصلة
الاختبار
شريكا
فأل
وأنواع
##شيح
وتفقه
وكلم
##شيش
بعتك
يريده
تظن
تربط
منطلق
جهالة
المشترى
##معاء
سيطر
ابتاع
لغتان
البطلان
رواته
يعرفها
كريمة
فأعلم
اليتامى
يشركون
مأمون
محبته
##ذيرا
بنقل
ويدفع
انض
يسوع
والحساب
##تموا
##طلوب
اعتكاف
الجهالة
فورا
الباطلة
فجاءه
الكات
عذرا
##ومها
##سة،
اشته
يوص
المجادلة
أصابته
##وحد
ولزم
أشكل
عاصم،
النحاة
الوحش
جلي
وضح
وصاح
فسدت
يشكر
ليبيا
صوابه
مسكينا
بلغوا
الحربية
تركيز
الإلكترونية
اقتراح
الإيطالية
##هم؛
وطرق
السبعين
واليد
لاحد
مركبة
##دمات
وبسط
موضعها
##مائم
مؤكدة
يوميا
بشر،
عك
سحب
القزاز
##ساطة
المستشفى
الظالمون
يقلب
يده،
الصناعي
##طيء
الراحم
مصري
منفصل
بالانت
بحار
أولا،
بالقر
للبيع
فاعلا
الخبير
داعي
المكس
##ستا
محيي
المنصب
##ارتفاع
اول
##خيم
##شيط
أخبرت
الضفة
مفتي
##قابلة
الثمانية
حجه
خالص
الأحنف
التبع
وسألت
فالأمر
اخي
الصار
يخطر
أهله،
رهط
وسجد
والصح
دافع
##ووي
عقدت
قالوه
حرث
الغروب
المتعلق
المثناة
أدخلت
للأطفال
المبارك،
لعلك
التوحيد،
رؤبة
دقة
موه
تنص
الألمان
شخصيات
بقت
وفارق
تخلي
مفيدة
منفصلة
أنب
الإجراءات
لعمرو
ببط
جاب
ويفعل
والنظ
مذهبهم
قانع
تتكلم
نزار
عصرنا
يتقرب
أيوب،
الاحاديث
تيسير
##ياطي
وتلا
فهى
ناق
والشراء
فأخبرته
كمل
موالي
القطعة
توسع
##متنا
الرجز
إخراجه
عقر
الموظ
مغا
الائت
بطرق
يطلبون
فزاد
المازني
زمعة
##جدة
والقلب
الدافع
مرآة
##نازير
##سرا
##يف،
زمانا
بتم
وسهل
والكثير
بوقت
المصابين
شيئين
فحص
يود
##كوا
اتها
القصور
توثيق
##وانع
صلاتي
أصابهم
##أنا
ومعاذ
البصرة،
تعلموا
بالتحريك
غام
والتفسير
لوس
وتحمل
أيديكم
ورضي
فتوضأ
بكرا
الطاغوت
##نادا
أجده
لنبيه
البينات
الغين
##بوهم
##ريبية
القربة
أينما
معجزة
بالمسلمين
يأتيهم
حلب،
خصمه
يقيد
والخمس
رآني
شاذان
يظل
فصاعدا
واذا
أشراف
فرضه
فجعلوا
الشهيرة
الأمهات
الخالص
كالب
مشايخنا
الدبر
يستأذن
أحس
الدنانير
استثنى
##طانة
سبرة
الاخوة
لإنتاج
تتزوج
بغيرها
##يبات
المراحل
الزائدة
الشرعية،
سواها
كجزء
##ماش
خليج
تند
نائبا
تفري
##لفات
والذى
##طمأن
ورع
##مار،
وجي
الإمامية
وافقه
اين
##سما
##هلا
##وفين
##انته
وهدى
للعامل
الفقرة
ماكولا
بشي
لأمه
تكفي
وعدا
الكونية
الأكف
مؤرخ
الاعلى
عربيا
العابد
التفرق
القعنبي
##بوأ
ولابد
##ذنت
مظنة
##جزأ
التت
عقولهم
للنفس
##ليفة،
ونح
بمرض
أشير
##رامية
جمعوا
وشرحه
تيار
##طراف
عامين
الكبري
باستمرار
قلي
والتمر
نرجو
وقصر
والروم
##بينات
الركب
بأيديهم
البند
المشاريع
فالأولى
درب
تعدى
والخطيب
##خذا
##وازي
العاد
##قاليم
بطلاق
جراء
يجعلون
درو
ولبن
مسؤولية
التعلق
والبخارى
محاربة
التقويم
ألقي
تقدمه
##يرو
أدم
زنج
السواك
السختي
يعترف
##ايا
##سكي
وتوجد
حرام،
##ضرع
الأشكال
استفاد
##ستين
##ثن
المكا
بالقبول
التجمع
نوره
مشاريع
الباقين
طراز
والطحاوي
الصائغ
ارفع
وسيد
وغر
ولج
ليؤ
المؤقت
المستن
بهز
للدلالة
يرف
مطم
##تمن
##بهم
المعقود
المحام
يخضع
أصحهما
راء
واثلة
تخبر
يوقع
ينطبق
أدخله
الغربية،
وباقي
إكمال
##قدمه
حسنه
بالقيمة
الأهمية
تتحقق
يسمونه
الخيال
فأمسك
طاووس
حماس
خزاعة
الحارثي
##كلها
##ذاني
تنسب
المخصوص
سفن
##اناة
تفهم
القصيرة
ارتفعت
سارة
أخيك
هني
##هلة
بعضنا
مروا
ولأنها
مملك
يثير
تتجاوز
تعتد
الأوضاع
أصدرت
الجري
##اربها
تلاوة
وصيته
المناوي
الادب
التخطيط
ملء
المخطوط
أولو
أحاط
##داه
هرقل
والاص
فقولوا
وبلاد
المسماة
قصيد
الرازي،
ضخ
يغيب
##رام،
الأزمة
التذكير
مركزا
والفكر
بالخروج
##احظ
الارتفاع
بالغا
أودع
##حتم
بلالا
بدنة
أقوالهم
محدثا
##مداد
أعلمه
##رجي
والسير
البدء
فمكث
ركعتي
متلازمة
الذرة
الاستقامة
دعائه
أبنائ
يدركه
##لاقه
المزا
مجي
يزاد
##غيبة
فون
تاء
##ائي،
بالأمس
المنكر،
وأتباع
##دس
القبيح
##جهيز
الكناني
بالكتب
والياء
وحكمه
سراج
نخرج
يطلقها
وبص
كتابات
مطابقته
تنزيه
##بابات
##ليمي
##ناء،
للعلماء
##انغ
##وحدة
وحقيقة
تؤكد
والصيام
لحصول
والعبادة
##فعلها
بجوار
الفيزي
اجتهد
صباحا
مائتين
نزلنا
ثامن
الرحل
الره
ولرسوله
بعشر
المتحف
حتي
الحش
والسؤال
والبغوي
عطا
نراه
وفسر
الأقر
##ودان
المصرف
دائمة
غانم
محلا
سكوت
##أنس
أله
جناب
##اليه
نفسها،
شاملة
وطاعة
فيقوم
السكينة
فارج
حلقات
الممل
مضافا
يعقلون
الأنام
مسعدة
وذكروا
مؤنة
##لمس
الشائع
المساحة
لبون
فلينظر
بناه
##نبط
مكارم
فداء
كيمي
ثمامة
الإحص
##جرت
للكافرين
طرفا
لقتال
نسا
وعاء
المقابر
تهديد
عهدا
القبط
##ذكور
بالعمرة
فمثل
سيب
مشاعر
ستا
بمحذوف
##يداع
أصوله
الرياضيات
مراجع
وأعد
##سلحة
والحقيقة
حال،
المحض
الراج
بالمسجد
فيرد
لفض
##رسلت
خطيرة
احترام
المحمدية
منقول
##وكالة
للانت
أتاك
ضروري
##زقه
الاستن
مقعد
والدا
##ومون
##وفيات
خلفهم
شكا
##ألتين
الهامة
والليل
نعمه
وأدى
##قيطي
شفعة
##كروه
إلحاق
مقدرة
المصطلحات
لربه
الرعب
##وزون
الثبوت
الأنساب
وقومه
الجعل
فانته
خيرا،
واشتد
نيك
للفن
لعائشة
فتأ
تحقيقه
شيبة،
الحلفاء
حسام
الأجير
رشيدي
السكنى
وكلهم
ومنت
##جارات
حجج
فلهم
الفؤاد
مختلفين
التور
عنبسة
آياتنا
بالآية
زاهر
للسل
##قدان
ليف
العدوى
ويحفظ
والمؤمنات
نجيب
فكلما
الأوطار
ذنوبه
بالدم
##نفقة
اتباعه
انتخاب
تنتشر
حواشي
بالعل
##نظر
ونحوهم
السبق
السقوط
صياغة
أفق
فعم
السادة
##بهت
لعلاج
الخضراء
##ديقه
وأني
فأش
الشوارع
صير
البش
الوظيفة
ديوانه
النقدية
محبوب
اشتمل
عسر
للمجتمع
سهام
##كسه
لكانت
##ضبط
والروح
الحادية
والاختلاف
النجس
مؤلفاته
أرفع
والعقاب
نبيهم
بالإس
المكنون
والدنيا
لدرجة
خفية
ومقت
والضرب
فأعط
استقام
تقال
أكثر،
وسألته
##حرص
أبويه
صحبته
وأعط
حرو
مكا
##غيت
الرصاص
مواليد
السماح
الموضعين
عشير
فزع
الطراز
يتخلف
##قتان
مأمو
الانحراف
يحملون
جريج،
العملة
نفخ
باتباع
بصفات
الفح
يحذر
فست
أوح
##حرية
##طاكية
المنتج
صائما
إضاف
وقفه
العولمة
فكبر
ضعفاء
المحاسن
##قاض
لاسيما
وأعلن
المخبر
إضافية
القادم
الغساني
الاخبار
تقليل
التصحيح
ووجدت
إلياس
##يتون
بأربع
لدلالة
لعد
وطعام
الحذف
القفال
الصم
مجمل
بالتوبة
##عتان
ومئة
##ختصر
كالغ
فعمل
وشد
المذكر
##لمانيا
للسلطان
نعوذ
تزعم
المطهر
الجمرة
وصوله
الواسعة
##ائره
السفلى
تقيم
##وكيد
طائرات
بهيمة
##على
##ثارة
مشددة
##طر،
همد
##هيد
يستفاد
أيدينا
بسلام
النصح
الأعا
يعالج
لإعادة
النوافل
المصي
##ؤس
وأحاديث
##وخة
التفضيل
يمكنها
صحف
خلافته
بالدي
يختلفون
بالزنا
النك
شجا
طرفه
##وثر
المقدر
حصوله
ركبتيه
المعهود
شعا
الخيانة
الفوزان
جودة
##طهر
وعالم
الأدوات
عيينة،
يسميه
اللقب
أيل
فبأ
##ميزا
اقتصادية
عقده
فنادى
لبر
المصد
سلمنا
المشروط
ويحصل
طولها
الحسد
الاستجابة
##لاتهم
تطلي
حلفت
حلاوة
توفيق
البحري
##ذوا
والفاء
الجوار
أبطال
##قوبة
##ثام
##طا،
فقاتل
الشيطان،
تتمثل
##نكم
الشاطبي
والشرك
تفضي
##حدون
لمت
صفقة
الفلاني
أوربا
##انيف
الناتجة
شط
تيمم
مناكير
الرضى
بالمست
واستخدام
يحاسب
والالت
وأمها
##لمانية
دينه،
يملأ
والمجر
الغداة
خيره
المفاسد
وظهرت
##ضلوا
بإعادة
##واء،
كولوم
##مانه
تخضع
والقبول
عجائب
جاءنا
بالدخول
المباركة
التوفي
وأطيعوا
مجا
##لافه
مجالد
المقرر
المناهج
رقبته
عملهم
المناقب
نجيح،
بالتخفيف
الأقارب
التواضع
وانتقل
الشافعى
##بياء،
بعيرا
طاهرا
##عياد
##عاذة
##هن،
أنشدنا
وقرب
القليلة
خلقها
مكتوم
عداه
الموصول
مقطوع
غفل
مراب
البعثة
##رافي
التونسي
تتحرك
غداة
ينطلق
استخدامه
زكاته
ننت
##ويله
ثبات
يحرك
##مش
التخلف
وأدرك
المؤمنات
وتستخدم
حلا
هديه
الغبار
الخن
جيوش
بتصرف
يعلموا
البيئية
جازت
لبد
وفضله
فتنا
حديقة
الأنصاري،
##وراني
##وفهم
بديع
قاف
ويصير
ثقيل
الوليد،
يختم
تأمين
نيف
تجارب
الغلاف
ذكرهما
تبنى
وأيام
الهجر
استعم
##وئي
##وريوس
لقومه
نزوله
الاشتراكي
المفروضة
فادع
مصنفه
الدنمارك
تغل
ويقدر
الفيديو
بدعوى
ويليام
ضب
المقاطعة
ويتبع
وفوق
قرره
الدنيوية
##ائيات
ويقيم
الاستمتاع
##جتماع
إخلاص
الجاهلية،
تفعلوا
العك
السوي
المتأ
علمائ
إنزال
##ويته
فباع
فسمعت
الأواخر
طولا
##دياد
الإمام،
والفقهاء
##مروا
الزنى
##ساطير
بعثني
المشيئة
لكلام
عشرة،
تنكر
للفر
والمحا
المهندس
دفاع
الحرس
ولس
والثق
المركبات
تول
فائد
##ابرات
##قدوا
عملك
فبد
الوافي
الواضحة
محس
تلد
السول،
يصلوا
كثيرون
الأرش
##وبيخ
رؤوسهم
يركع
وقضي
وضا
وبغ
##نسخ
البشر،
ودل
زوجتك
التحريف
فتحها
عقدا
الوثي
المحرك
يدفعه
تسميته
أكسيد
##رائية
تعظيما
حدد
واستمرت
أطال
الأشجعي
معتب
الاغ
وصور
التعب
بينته
يحكي
ريتشارد
الإزار
بقليل
##برهان
##ماق
##متنع
حفل
واستعمل
معتمر
تلفت
ومآ
والمالكية
##بينه
متاب
##لفها
والأكثر
التحديد
أسابيع
نجران
منافق
الجائزة
مستن
لماذا؟
##ينها
##ريحة
وسبق
##يط
بعثة
##كييف
المهي
كيلا
غناء
نبوة
##زعا
يغت
يفرغ
سرقة
أوحي
ونور
يأخذها
العراقيين
بالدليل
النيابة
بالرجال
والبيت
المشاعر
##طمئن
جلست
كشفت
البرقاني
وذات
ولادته
##رداد
فكسر
يقتلون
##ضير
الفاسي
##زني
##همات
تتعرض
تطوعا
تبكي
الروم،
سماعا
تفرقوا
الزاوية
مشهورا
##وكول
حو
جبهة
تحزن
الأخيار
والبصر
وغيرهما،
فشهد
صاحبكم
يحتاجون
موتها
ووقت
##ابين
أختي
قتلا
أصبحوا
الشاه
المضادة
سقف
العائد
##مساك
مفردا
الموسيقية
##ئتين،
راجعا
وكسرها
تعاليم
المصري،
هشام،
الصباغ
تسكن
عبادك
منبر
الدم،
يعجل
باتجاه
العوفي
ويكنى
كتابته
وصفهم
بأكم
الصادرة
واشتهر
سالما
مسقط
اليابانية
صيدا
وأنبأ
عاقلا
الفرسان
الشاملة
وأهلها
بسبع
##وعين
تخفى
المكتوب
البطاقة
المعرض
خاتمة
##مامات
للبحث
##اهده
##صيته
السبل
تعبر
فاش
الانتشار
##لكان
أجسام
الرقاب
لقلة
##ونه،
القعود
متفاوت
وخاف
##سو
الطيار
مالها
بمعروف
برس
ثلثه
ومخ
وإب
المعظم
وأرى
##وفيت
تكاليف
لآيات
فعندما
كائنا
تشغيل
نبيكم
مرتفعة
تغيرت
##رافة
كمثله
للحكومة
##راقة
##يتنا
بواسط
العسر
المدنيين
أهلية
والراء
الجودة
##خره
لكني
تلي
كأم
كغيره
##اليا
وجهه،
رأسك
الفعلية
##شرهم
بقلب
نقيض
مملوكا
فيحرم
##زيق
##غاث
خلاله
تظلم
وهبت
وتضم
وقلبه
ربعي
الكرب
شمالا
ننظر
سني
شراح
الندى
المسير
وتظهر
وإحسان
القدوة
نادرا
تحاول
التا
##سيات
الاستاذ
امتثال
الاستعانة
جبه
ولحق
بأحكام
##يثا
الألوهية
بدءا
العابدين
أكر
وقلب
##صفور
وقاله
لأحكام
البرج
ضحى
أوثق
البسط
صدام
فأعرض
##اهي
الاصحاب
مباحا
أجي
شعير
بيده،
ثنتين
متقدم
وشق
عيناه
يخط
##راجح
##هاه
المعلى
لامرأة
لتصبح
بصدق
وجمعها
مخرجا
زهر
كراء
تنقضي
نصابا
ينقلب
##وفرة
والحب
الإخراج
الشهري
وأصح
أحرف
##ابس
بشراء
المواهب
الكوفة،
داخلا
العيني
والألف
##جهول
##سمها
وحجة
وتعظيم
بخر
بإثبات
فاء
أولادهم
للجد
فأخبرني
هوازن
##زعات
القتيل
يعلن
والبعد
اسكت
##رسول
ونظم
متكلم
السط
مستأن
التحديث
تطورت
لإقامة
افترض
الاشتراكية
أوسط
##رجاء
أخاك
يدافع
دابته
##ضره
التعارض
حجته
النهار،
يشهدون
ونظيره
مليح
التفرقة
##نتاج
أبصارهم
حمض
خير،
توقي
حميد،
يوفر
إدوارد
التكوين
##ضطراب
تثبيت
يله
انط
ميلاد
بولندا
فالحديث
توبته
أمورا
خطه
ميقات
##قيدة
نوعين
ويطلب
يتوقع
بمساعدة
يجوز،
بنفي
الأعور
تعاني
##شاش
جواهر
يتكلمون
وزيرا
ثبو
فيهم،
بتف
شاءت
معجمه
##كتة
تطهير
المستشرقين
فأطلق
وفصل
يعترض
المتنبي
ونز
##روء
وحبس
ناش
النسك
أعتقه
الرئا
المعالجة
قصدا
تموز
قطعها
المعاهد
والترمذى
##عدة،
الرعية
ينسى
آحاد
ونائ
##ونين
امرأتي
لرؤ
فشرب
طم
الآجري
مستند
تغطية
طلاقها
أجبر
الازهر
والثناء
التكذيب
كوا
الضحايا
فلأنه
الخيط
##بيون
أسواق
إرادته
بائ
المتص
بالمش
بسيط
##لكة
ربه،
بمنع
فالخ
الأولون
يذكروا
مجتمعات
وعض
##يسية
عدوان
أعتقد
سلمه
والقسم
بوجهه
والشعبي
راد
يستند
وبث
والحافظ
اتجه
نصراني
وعشرة
الزع
متشاب
المؤدب
كالد
واليمين
ينشر
والعربية
معلقة
بأنفس
يؤم
خوارزم
المصلح
المعطوف
آخرهم
المستح
##بتدئ
الأثرية
للحا
##حيين
لوال
شابا
ومز
تجزئ
وتعا
##فاذ
وآمن
والآيات
جهر
ومفهوم
للأرض
المفروض
الأعلى،
وباط
الفلب
##صميم
يضلل
##ه؛
خلقهم
المجتمع،
##جله
##وبان
والعقد
##هوت
العقيد
المتعلم
الأوكر
##صارى،
وستون
العمامة
دخولها
الراشد
السريعة
المعصوم
حياء
غنية
والنخ
وتض
شملت
والتحقيق
متعلقا
##فح
للحرب
كتابنا
تلحق
عاهد
بالمؤمنين
موافقا
تنفذ
تبرع
##برس
أجور
تسليمه
معايير
موصولا
مسؤول
السحرة
بالشفعة
فكت
وانح
نادرة
تحمله
فام
##مائي
البشير
جوي
يطيق
الماجستير
بالشر
الأسعار
العقد،
##ناه،
والطي
وينزل
تعليمه
##برق
صعود
نخلة
أقطار
وتذكر
تتمتع
فجئت
حاضت
الكرخي
لدعم
شريط
وخدم
يمكنهم
وخروج
يهوديا
##بهات
الندب
أدعو
##ضاءة
الشائعة
بتد
خالية
##وهام
الفقه،
بلادنا
فاسأل
سكون
##لأ
##اف،
بوضوح
المتابعة
الخبث
نظرنا
الحلواني
والبقر
أفس
المسور
آبائهم
##ضبة
تلام
اللبس
بعمر
##رساله
تنشأ
والاقتصادية
منذر
تعز
سورية
يناقض
الإيلاء
أقطع
قاعة
##رزاق
والولايات
وتحدث
فجأة
المودة
بابها
للحج
عصب
الذباب
بالأول
غالبية
بطوله
دخلها
مندوب
وود
مثلك
تكملة
جهله
النقش
وشت
والضياء
بالخبر
##أمله
موضوعات
##فعا
والكتب
قيرا
فتكلم
طبعت
منصوص
##ءون
يحافظ
الكاذب
موصولة
الأضحى
بحبل
الضأن
مناص
##ورو
لبابة
جلدة
الموحدين
المبتدعة
ثمود
الأعداد
استبدال
الثقيلة
الزيتون
تدرس
الضالين
تعدل
والعي
والشعير
تفسيرا
كتبنا
أنزلناه
يبدل
فأجاز
والسعي
وغلب
كالبيع
##زاما
تبعهم
فرانسيس
فرائض
ينكرون
السرطان
ودراسة
وبذل
تقاتل
عضد
ترتي
الجريري
مباد
يتسع
تشابه
تركة
##وافر
وحكاه
المنار
الخبر،
المرهون
ووكيع
غرق
الفواحش
تبعد
##رافا
بينهن
فأوحى
المنية
وأصلها
المرافق
مخصوصة
جنين
العادي
العجاج
##كميل
الاصول
يتردد
##رتهم
نطفة
هيكل
أحبه
صاحبة
أزال
فرضت
##ملي
وأسأل
رقي
صراحة
الفخذ
بإنشاء
العملي
##اتذة
الجماعي
##طعات
أشت
تحيط
حوائج
للبشر
التصرفات
##بعيد
تنقطع
تعطيل
انفص
جهلا
والشرط
اللقطة
جشم
##زواج
يحارب
الفروق
يمل
يكسر
رقعة
هذيل
##باعية
آدمي
فراق
الأنماطي
مارت
وشهر
فلله
بنور
تحقيقا
خلفا
الاصابة
الباطنية
وأسماء
القرعة
اعتباره
السوا
وشرع
يضمنه
اجتهاده
تدريجيا
ويضرب
نفعل
دكين
يأثم
وأورده
هوا
للهجرة
رين
كالث
وغاية
المنكرات
درع
بمعرفة
والعدوان
بالباء
بنعم
الساعات
##كرا
##شخاص
الأحول
لخدمة
نواه
##واما
الذال
البأس
##خلل
الضابط
مكية
يقبله
ليأخذ
للأمم
المقنع
##ساقط
والقراءة
وحقوق
الحداثة
الميدان
##وعود
لأخذ
ضمنها
بواحد
صبغ
##غين
ويدع
فلسفة
ولأبي
والسياسية
بدمشق،
موط
الفيروس
وينا
السياس
رطب
تكذب
الهمام
##وطا
##خلهم
متهم
القرم
الفعال
لقضاء
تتب
أقم
سمعتم
والإنصاف
المكتبات
أيرلندا
##قره
مرضى
عظيمة،
ليتني
لاستخدام
فبايع
الخلاء
المعتز
للنظر
الموالاة
تبعث
قدح
مرات،
تأكلوا
نهيت
الإعراض
سهوا
العطش
المشرف
##صلها
وإخراج
شرقا
##ذيبه
نصيبا
##روسيا
ويشير
##عز
وأدعية
##وفتين
وصحة
المضمون
مسكن
بمد
والخلق
نبأنا
جاري
تحسب
يستحيل
بحوالي
العظ
مجتهد
بجنا
ورجح
وزوجته
##روهم
##صرهم
##عيض
المبكرة
تزداد
تقديمه
بنشر
وأفتى
مات،
القنوات
مخير
وأعطاه
رعي
دونهم
الطعام،
ويصبح
رزقا
أرت
بالشك
##بوح
ينتقض
بمنا
ملام
##هاض
بدرهم
وتأمل
ابتلي
عامر،
غنيمة
##بيا،
بحقوق
##رفته
##واتهم
صدري
السهمي
ذريته
سارية
مبيع
##امها
مجانا
عيوب
نبذة
دولية
لأهله
البلدية
القيود
المظالم
وبالرغم
البخل
بالتد
والأق
الثعلبي
للبل
##دينة،
الفارسية
معرب
الضخمة
هولندا
استر
##كتبة
أنساب
وخمسون
موصوف
المتحدث
الخطب
فيقت
النمر
قلته
تخف
حملته
هذه،
ملحق
فصد
##سوخ
الرقاق
ستمائة
وللت
فإنكم
أسلف
سفرا
الوثيقة
أذنيه
بتحريم
محلة
علمها
المدني،
قدمها
رومان
الخلط
النظريات
الإذاعة
##رباء
##قطاب
ربى
فسجد
وأعوذ
الفجر،
والأمة
الأدبي
بالعم
##تبى
نجعل
مولاي
الأزل
ويقبل
أذنت
والمسلمون
والأموال
مدريد
##كسار
نتاج
المركبة
الغيرة
اعتقال
محار
##هبط
نفعه
النماذج
لأنفس
فأدرك
الواهب
ومعا
الأحرار
بطاعة
بنس
وألحق
##قتك
يومي
بقلم
تهت
نيسان
الموسي
والقي
المذم
شج
العث
الحميري
المتضمن
فوقهم
اختلافهم
الزمان،
فيحمل
الأفاضل
مشار
الإعلامية
الارب
أجعل
التنفي
رسوم
تغرب
مسرحية
سألوا
ألسنة
قبورهم
المدير
القزويني
يقاب
بعهد
خلقك
والأخذ
أنشده
آثر
بالفر
مفاهيم
صديقا
معقول
اعبدوا
مخطوطات
الخشوع
الذاريات
يحتسب
ضعفا
وطبق
فوصل
السويس
والمقا
حجب
وتبع
بدوره
سجوده
وأصول
والعرض
فلأ
الانبياء
لإبراهيم
ألبتة
المعدن
بالحاء
بأعلى
لعدد
المخلوقين
الأحبار
أؤ
ففى
أمد
والمشرك
سؤاله
حنيفة،
الحضارات
التوازن
معارك
منعها
شركا
ظالما
قلق
لطف
بالأولى
ووعد
سمت
شارح
بأحسن
أرشد
وثانيها
الابتدائية
زه
فبان
يقوي
ورح
##رور
الضبط
ممكنا
الملق
الاحكام
##وفت
غضبه
النفوذ
الرياضة
##طفال،
وبينهما
جلده
واسعا
مايكل
بغل
بنيسابور
المتخصص
أسفار
##ائلته
الخصال
وبع
البعيدة
الجنسين
لانتفاء
كتم
##اريو
##هيار
للدفاع
أند
الأمي
ويحدث
وعلا،
والثقافة
كسبه
الخبيثة
الكتلة
الإلكتروني
فيأ
مباحث
يفكر
لوازم
وبكل
وأنك
الوجد
المدعو
بهرام
السفهاء
##لاتها
ماله،
الضياء
والخر
وحن
أغراض
إفريقية
ويكثر
ملكهم
اختلاط
سبعمائة
الكردي
بتقوى
الشهادات
لتب
##كوك
الباك
مساكين
اتبعوا
وعزاه
يضيق
##حلوا
تناوله
##كبرون
يجل
أنكره
الدبلوما
مخطوطة
زبر
الموالي
المعالم
إلهي
تلعب
المحمود
ساع
##رفي
##ديته
وخارج
وبينك
تغتسل
##وئ
الحصى
تقارير
رسمي
والجر
الاستحسان
فنعم
ظهير
أقاموا
خويل
مانعا
خيرون
##ترا
سهلة
الشنقيطي
##حقاق
أمتك
تشخيص
تقتلوا
يقتله
أعلم،
التنصير
قرأها
النوادر
شره
ورفض
السماوية
الفحم
متعة
الفسق
يعص
بأسلوب
##ظير
المقداد
يظنون
##ثوا
الرها
الفتيات
التقارير
أهلها،
جوفه
صصص
وبشكل
صوف
كراه
تمتع
خدمته
جوائز
وعجز
##وتو
##جازات
وأكد
##روحة
الأزد
لحقه
قيس،
جذور
الثور
المزارعة
بيروت،
العصب
الجواد
البسي
واستخدم
برلين
إثارة
تطي
وأسد
##طعنا
والصلاح
مفاتيح
شوبري
##فقون
معدود
باعها
لوج
##لفون
مشهود
##موها
موضوعا
سراقة
القبيل
وتعت
إلي،
اقتضاه
المتف
وصلاح
فاكت
يضيف
الركوب
بادر
خفف
يهي
الاك
##لاميذه
الحنيف
أسبو
الرزاق،
المحاربي
واعتمد
الماضي،
الجاري
الوجه،
الإيم
وآتوا
عارية
توسيع
نأتي
واخ
وجنوب
انتصار
طلبها
ريش
الول
مسد
تنمو
##وائده
خصم
##ء،
المماثلة
أوهام
الصخور
طاع
##روت
بإقامة
حرب،
يهدف
##غرس
وهرب
الجراحة
الفهرسة
الضيق
فللم
العلامات
بالعبادة
الإلحاد
ثنائي
يأكله
التاريخ،
الممن
بالصحة
القبة
المتوفي
والخلا
يشترك
الإثنين
وتمام
يعاد
حمده
يقوى
##ذنوب
الذهبية
تنتظر
رباط
##تيج
فعيل
اعتراف
##برات
بالسن
بالتعاون
كريما
منخفضة
السقط
الاستئناف
تابوا
##الون
المرق
الخاتمة
وحش
شرائع
##يناء
اعتبرت
##اريف
بالظاهر
معظمها
اليا
ليحيى
تدعم
بصاحب
وتغير
##تيش
##هيلي
للولايات
والأصول
وليعلم
صلاها
##ناقشة
##رويه
المستثنى
وأعاد
؟؟؟
##ذاذ
وقضاء
ردوا
سلطانا
داري
##يوم
الفقهي
زائدا
الجلالة
والميم
القديمة،
سواهم
وأيوب
وعلماء
لأت
وخي
قسمت
الباحثون
زريق
##صته
تكبير
ريحا
##وقد
التعجب
يخرجوا
ومعها
وسورة
عقلي
##وابت
عليه؛
اليها
البغدادي،
وبحلول
##قاية
الجوف
أمسى
يكتبون
يوشك
الأمنية
صهي
##بعا
##كرمة،
خراش
فقات
منهي
الحاسوب
حربي
بالبينة
##طروا
ذاتية
بشروط
التنوخي
فمضى
المدع
الذكاء
ووافق
يعفو
وسطه
##كتات
برأي
الرئاسة
##يناك
والاخت
##رقت
للقر
##تيقن
التجديد
كبي
الربط
الرباني
غرا
لخص
نعمته
وعامة
المعتمدة
التناس
بمؤ
اشتملت
إلكتر
سات
والتط
بالمرأة
بالرجوع
شوك
صانع
عرج
ثلاثا،
مملوكة
اهد
##سق
قاتله
والاستغفار
الهمز
##وتة
الفضائية
وقفة
حفاظ
فناء
وأوضح
##والدين
بعبادة
سامي
##خها
بنوا
طلبوا
والنجوم
##مائية
بالشراء
إفراد
متعدد
الإعت
يتقي
كونوا
وقرر
بيديه
الشرا
ويسقط
وأذ
البحت
لدن
واعتقاد
مقرا
المحارم
التشبه
وفتحها
مصدق
##افي
تستمر
##ديده
##حميل
ينسخ
عدوهم
وأشهر
تليها
السلبية
ابتدع
##بينا
##طباعة
الرقة
والمؤمنون
مستمرة
تحي
رمل
المهنية
الانفراد
الرجيم
راوي
##خطأ
جوزيف
الحيلة
ينك
الغرفة
راو
المكرم
معتمد
الصغر
صدقوا
جسمه
وهاجر
وعلل
الوفيات
ساقطة
جنيه
##تك،
استحب
المستهلك
فحسن
الدفن
وري
الغوث
مؤذن
مشروعة
##فالات
النقاب
وتعليم
عروة،
معق
البضائع
وزنه
به؛
ومعهم
وأبعد
كير
##وامر
وامتنع
##شرطة
شهادتهم
وصلة
تتوقف
التدليس
بالقص
ينبه
للتص
الواقع،
العمدة
كفل
بنيه
هيهات
محفوظة
##هارته
غندر
ضحك
لولده
منتجات
إنكاره
مشكلات
##ضوب
فيروس
وبطل
المستعير
وفعله
السجد
أخطر
##رابطة
الاسلامية
مشيئة
الجليد
المغربية
وتشت
المنز
المرد
وقواعد
##طنطين
نافع،
هبط
##عوني
تبديل
قمر
##عاش
استخراج
بمحا
والقد
ويحل
##هلال
مسه
خشيت
لوجد
ينصح
ليعبد
الخلاص
سيتم
لحل
الحفر
لوك
يسمي
وتأخير
قارئ
الثلج
وتحريم
أفاق
تزايد
بالعذاب
التركم
واقعا
##جئين
تقوية
لسبب
ويلك
المشاركين
مماليك
أقصر
رفضت
التشريعية
شياطين
##ناعه
واللا
وهذان
كمع
##قل،
والمعاصي
الستين
يبالي
فخرجوا
الإلزام
والديه
الإفطار
فيلزمه
##كهة
الصابرين
بقيد
##كلما
وبينكم
يدعوهم
مثاله
##أتون
التمليك
تقتضيه
يلا
##نادق
للقوات
اقر
بالسر
بالحجارة
كليا
أدعيةطباعة
وسالم
يفلح
فارسي
بند
مالكه
أخرجوا
المكث
بثقة
السينما
الاستعداد
يغل
يبذل
فخطب
تعيينه
##صرة،
الفرنسيين
بجد
المخاطر
يكتفي
##الية،
##وقوا
أولادكم
الالتفات
##عتنا
إبان
خارجية
والهاء
الأقدام
العقيقة
إفساد
بيته،
رقيقا
تدفق
كرها
##ضوع
إيضاح
مبكر
المجتهدين
الساحر
للعبادة
الطباع
الاستنجاء
القائلون
بأسر
حققت
##ارقة
والنوا
والجهل
لإع
اكتساب
موجبا
المراسيل
داني
الدقاق
لتعلم
يشأ
ذريعة
وثالثها
للعا
الكهربائي
وإصلاح
ونظام
الأدباء
الحمير
أيهم
الإطار
للأخ
ويروي
##تلر
تقديرا
وذهبت
يورد
بإخراج
اتفقت
حجرة
كغير
آمنة
فيص
بعمرة
يجئ
إليك،
الصندوق
العضوية
الاعيان
جميلا
اليمني
التلفزيون
الهاتف
النوى
وترج
قسما
الاتفاقية
خطيئة
##ديمي
الصوتية
همه
المعني
يفقد
شرطة
البلد،
مضمومة
إثما
الرفاعي
أنشئت
الإبهام
موسيقى
##خوله
أشكر
يصيبه
قضاة
يتد
أكا
لإثبات
نصيحة
هالك
مسكر
المقبل
للجيش
مفي
القلة
##وضى
الصحبة
لبسه
وشمال
نعلمه
بعمله
يفيده
فشي
نائبه
علته
العمود
ووصفه
هائلة
المستقلة
مونت
وتأتي
واعترض
تبرأ
ائ
بالرك
جزئيا
وبالنسبة
الأشاعرة
خبرة
##زيم
ذكره،
حكمته
النخيل
ظهرا
الحجج
القدوم
##صدقاء
وكتبت
وأمن
##سيين
فصاح
##ذاكرة
##ياكل
##افعة
قع
##يمون
فيشت
##ريبي
بدونه
والإخلاص
تابعا
لنفسي
وأجل
يحجب
المناعة
بدينه
الاستحباب
سرت
غدر
عنوة
اللين
قبولها
مصدقا
محلية
شرعت
##لبسه
ورأس
خلوا
والريا
فظ
الشأم
زجر
الأجيال
باقيا
بأجرة
والمسجد
إجراءات
أمينا
والخامس
الرقاشي
##نعه
ويقر
##ياتها
نسل
يدعوه
الصحوة
الثلاثي
جئنا
خلكان
معاشر
للتب
##لاله
يزرع
وصر
بابل
الشواهد
ولانه
التمكن
والإرشاد
الذهلي
الوص
##قلوب
فنظرت
##وئه
##ونى
برؤية
البوسنة
المجني
الاعتصام
الموجودات
وأقاموا
الصفر
ويجري
تعال
العرو
حيي
سرطان
نصرانيا
كمر
نشهد
فيب
المجروح
للسيوطي
تجهي
الإشهاد
فيز
##لام،
ليسا
مستقلا
تهمة
القه
الفقي
النافعة
يزكي
وافقت
مبلغا
البرازيل
##شاد
فليصل
المقارنة
##راغ
والمشتري
باستعمال
مشروعا
الصمت
ومثلها
أطلب
وجمال
الزيات
حاتم،
##ورن
واختيار
سبحانه،
المعجزات
والإقامة
دواب
البث
يعنون
الغراب
طمع
##طس
منكرة
للخير
##شياء،
والسماء
الأسرى
المبكر
يكفرون
لبيت
الجدد
اليقظة
غطاء
ينف
وطبقات
##يعاد
إسرائي
فاختار
لوقوع
##حدين
الهيدر
الحسني
مقصوده
اهتدى
أسلحة
لثلاث
يلب
والصد
ولابن
قتالا
##سبي
الحظر
الأطلسي
يبيح
النهج
الكعبين
##خلوا
قائله
مظل
البدي
الترمذى
للعد
المدثر
رموز
نيوز
قتيلا
برح
أنسا
##وجها
بدلالة
ويعطي
لآدم
مأخوذة
حياته،
للأع
القرظي
غذا
الجماعية
أبوها
زيادته
شرعيا
التثنية
وللحديث
الخانية
المنفرد
بالشهادة
صيف
##يض
وبات
الاستبراء
الديلمى
الذيل
قتلته
وينهى
نجاحا
##ظنون
يتعذر
أثبتت
وخالفه
الاثر
وإنهم
العباس،
##كفير
##زيغ
الاتباع
الوقائع
قوائم
مقعده
بخراسان
قرأه
##بداء
وكانا
ووهب
يلتقي
والاستع
فيقتل
##وزان
مخالفته
صادر
السليمة
وسد
##صبغ
اجل
الجراد
وتوجيه
لرفع
ورؤ
واستولى
السياسات
##اجد،
خلفاء
كردي
فبدأ
والجمال
عسك
يتكرر
وسام
الأرمن
ادعت
شديدا،
الشريكين
وانا
##كاني
##مرون
##مرأة
وشذ
##ولي،
فضيلته
##بتنا
المجل
الكليات
وموضع
باختيار
الأشربة
وذك
##ية؛
ويسر
إعت
جرد
رستم
شفي
بأب
وصى
والجامع
ويأكل
إحص
تمشي
الاستقبال
لبل
مكتوبا
برأيه
لرسوله
ابنك
بعدهما
فساده
ولدته
السوفييتي
بجل
##زوين
وفل
أهو
تقدم،
المخابرات
المذهب،
الثوري،
##فاعا
الإسلاميين
بحاله
أفقه
##حمه
فتوح
للمشركين
لجعل
التلم
علاوة
رحمك
راض
##قاني
وتصل
خاش
جلا
الفراق
ونجد
مخطط
يضي
طريقين
القلوب،
إقامته
جلسة
الموظفين
الحليفة
حاجي
سيدها
حزيران
اللحظة
للحد
لعبت
والربيع
##ريعته
يصاب
النهدي
يخوض
أعينهم
##حدي
المغير
الكائن
أسعار
تعالوا
هيثم
رأيك
يذكرها
##فيده
##ضاحي
هين
فيرى
وأداء
##عدية
تشارك
أأ
أجزأ
فيق
الزجر
بالمنا
اللبناني
وحميد
التفاضل
شكلت
طهمان
##غوب
يتلو
الغزل
ليك
التواب
رطبا
جويرية
##نعا
والجبال
وعملا
المسافرين
أيمانهم
الكويتي
قسط
فحلف
الإقليمية
ضياع
الحور
الجاحظ
إيصال
الساعدي
موعظة
بعدا
الرائحة
القرافي
بثلث
ولف
المارك
الإبراء
##ياطة
والأمن
تشد
والغرب
شماله
المنظر
وسمعته
للعلوم
أرجع
البذر
تقصد
بنعمة
##حمود
وكشاف
فخذه
بالفارسية
خيانة
لضرورة
تعامل
وعص
باغ
سواء،
يملكها
جاهلية
تفاعل
مسجده
شتم
##ذ،
واحدها
الباردة
حلو
##ثره
وألقى
والعامة
يتلقى
ثلثي
الحاضرين
##حج
وآية
سطر
قهر
##كك
يقا
مشتركا
فؤ
وذي
عنت
ووجب
##فنه
والخي
نشره
وأتباعه
الحجري
الثان
استقال
والطريق
يتقون
المتوسطة
ولكنا
مؤخر
##نبلة
المعايير
المختلفة،
الباس
أخوك
الغزاة
بالسماع
والخز
الحموي
الراحمين
شين
ويضم
لعلمه
فملك
السيرا
استج
رصد
حدثتني
كلمته
إشك
التواتر
إنهما
موسوعة
القوم،
التبرع
المرجح
صنعة
الجهال
واقتصر
تبيين
تبادل
زور
##هملة
القول،
بالطبع
تظ
##زلوا
والنور
ترجعون
نستعين
مسيلمة
كرر
نفلا
ويلت
ينفعهم
برضا
خبث
يتوصل
المسؤولية
بقرينة
الدراسية
الائمة
والره
بتش
مطابقة
التأمل
خبيب
قراب
لأداء
إضمار
##طنبول
طريقها
الورى
نوحا
تظل
ونج
فردا
ذالك
##ارتها
بأحاديث
الحضانة
##ريمه
ولعب
معينة،
يتحدثون
والدة
نفسية
ألفا،
العبادة،
جرحا
الحريق
التوالي
الصق
القاطع
الشفق
يخير
للتفسير
منك،
والرس
الولاة
دق
##باشرة
والمحدث
الكحول
الكيان
ولغ
الاستخبارات
نعي
زوجي
الثمانين
سرج
للعرب
بجير
قلبه،
بسورة
الركاب
سيس
والأج
##جعلها
مطي
الحشرات
##لقون
نكح
والام
ولقوله
السجستاني
ليصل
تحبون
والنشر
تاريخها
المزار
ثانيه
بطاقة
##لندية
بدراسة
اراد
الحيات
تضمنه
وتطوير
هال
والارض
المعينة
تستطع
العقل،
ووثقه
أشرت
ظني
مغلطاي
والهدى
العلى
باطنا
أبقى
وشرف
للحال
الأغراض
أنوار
غيرهم،
بمكة،
فكلم
واستعمال
عير
الفارق
الغلة
محارم
تمارس
ذمي
فسل
المؤلفات
ملكي
شقي
##يكائيل
الطائفتين
الشريعة،
وختم
المقربين
رسال
فرده
ويفرق
بإحدى
وانتهت
ولعن
بالبناء
وعذاب
الاوزاعي
وميزان
##ضاجع
الظهير
الأكابر
ونعوذ
التغيرات
الخطوة
البهيمة
مصيب
سوءا
التها
الكتب،
التلفزي
الكيمياء
التعصب
##راص
بالتوحيد
بيناه
للتق
السيادة
##لاند
أعان
المكسيك
بمصر،
##ماتة
قتالهم
الأصوليين
تربي
##دهم
##عبان
المكارم
العار
وبق
ارحم
بحمل
بنون
وتث
مدنية
رطل
كفن
نشاء
خائف
الناطق
أزواجا
الهنود
الرط
معدن
##فلون
الموجبة
##جبني
ببغداد،
تكلموا
الراهب
الفعل،
نشأة
الروياني
الإما
##كايات
الجزائرية
طاق
فوافق
المسرحية
بامت
جرب
##ألهم
بألفاظ
فاشترى
ثوابه
مطال
أنفسهم،
الكبرى،
الكوفي،
##ينك
القصار
##علمون
التبشير
##كررة
المعص
الإفراد
فيروز
##جهز
مؤن
قود
لنس
الزل
وتركت
أبل
الخوار
لوح
##اذان
المؤلفة
فافعل
##اليون
فبما
المخلصين
حدثا
المؤجر
يسكت
##صيلا
ادخلوا
خائ
الوفد
فاغفر
تفوق
وحاصل
##ذته
المناصب
الشرك،
لشركة
فأهل
وشعر
أرطاة
ايام
تطع
سمن
وشاهد
السياحة
يقدرون
يأمرهم
تولد
##ادف
##ضطرب
رقية
وعامر
حربا
بنفسك
غبار
بدقة
التقرب
بظلم
الحزام
مائت
##تموها
إكراه
تتناول
تسوية
للإيمان
التشديد
الامور
احتياطا
وسؤال
ضيع
الشخصي
التوصل
##ظمات
لبعضهم
خشبة
##ليلها
والدع
وبلا
مشرف
السابقة،
وعندهما
الجوهرى
شبة
خلون
معانيها
والأخبار
والتسليم
تاسع
القابلة
ويدعون
##فعى
الحجة،
التنفيذي
بيس
دينها
التزويج
للرك
ومه
نودي
مدته
الأزمنة
تلقاء
المسؤولين
ربو
طوبى
فكن
بنوع
المواجهة
وأجمع
خضراء
وتمر
البروج
الجهاد،
المصرية،
صرت
الأقطار
الصالح،
##بتان
بالأعمال
للمبالغة
لقوة
حكيما
نلت
نمت
التمس
والصلة
تفريط
الشريط
أفهم
والدته
##ئام
المفقود
عرفها
للور
وسلموا
أوجد
أنهار
معتبرة
الأردنية
السهام
بالحكمة
غرر
النمسا
المؤثر
رويت
ترابا
اللاحقة
##سموا
بدر،
المنطقة،
مبتدع
الوافر
تخدم
لود
المقصد
فهلك
معانيه
ويراد
##قيط
المتون
فاحشة
تقنيات
##ارثة
وامرأ
حرس
سودة
##لوه
الموضوعة
##هاهم
##ديهم
الفرنس
##ابية
يجتهد
التخلي
للشيطان
هق
الإشارات
وعرضه
ورش
المضطر
السدوسي
النيران
المبطل
لطيفة
المرام
وقبول
عوده
الأرقام
فأغ
والثواب
بطعام
أشارت
أثرها
وطنية
يوكل
فأعت
##ذنه
تركز
ضرورية
انطلقت
ظواهر
القيسي
بالرياض
الكفاءة
##انيها
يتوكل
أيكم
عندهم،
بالأندلس
وأستغفر
مضطرب
##بيلي
وطالب
##شتاين
##بنا
يغطي
طلحة،
ملعب
لمرض
##ظرا
العجيب
تضعيف
البستان
يستوفي
إكس
بقط
##لزام
وعمار
ينفخ
ذكرناها
المثلي
بالآخرة
والرضا
أنفقت
التعذيب
##رابعة
الشعرية
تقريبا،
##قس
والبعض
الحاف
وهدم
حارب
أوجبه
الاسناد
الآخذ
عجيبة
جيران
وجامع
قاصدا
القعقاع
بستان
فقامت
ورتب
الأجناس
أوان
وتفرق
محدثة
بالنكاح
بعيب
والتوحيد
يتراوح
والنف
وأصاب
صمت
##فيس
إنت
المتشابه
تربة
توضح
ويتأ
للقرية
##ظره
سهو
الأرب
باحت
لنبي
انهيار
شرور
يتصف
##وتن
الدارين
سجدتين
اعتقاده
##صفهاني
أرأيتم
كاتبا
المخالفين
والمحبة
يارسول
اجلس
الموقعين
والمعتزلة
دمر
##واتيم
واستدرك
بيوتكم
سيدة
يسيل
والنكاح
جعلهم
المدائن
تبو
حمي
##قر،
للمال
الأحبة
فأنشد
الكفر،
##دادا
فاتحة
قاتلوا
الإقدام
ونهب
محصن
القرارات
يوافقه
ارتب
##خائر
الإصدار
وتابعه
##دهور
صرحوا
صوب
فطرة
##دامة
أفمن
الزه
فالحكم
مفصل
أصنع
سليمة
كاه
والعباس
##ورغ
الدجاج
والتل
بيقين
البارد
الأخلاقية
موضعين
الداع
##يتام
تنبيها
وقوف
##رقية
بمذهب
لعنه
اختراع
إشراف
إيف
##ماتها
الصلاتين
##يسة
وصلا
القضاء،
المفسدة
التستري
أقص
بركات
المثلية
المهاجرون
واتبعوا
تبدل
دراس
القرائن
متس
ملعون
هتلر
وأظن
الأوعية
المتصلة
الأنبياء،
فحصل
يتأثر
##ياخ
##ضافي
يجاهد
وجدها
الليبرالية
فكون
استهلاك
##سرت
مقداره
العصبة
خويلد
وسنده
فيخ
الدوائر
والمض
بمص
المصل
التيسير
ولات
فحسب،
معذور
الكناية
##حالة
الحنف
وأكثرهم
التراجم
غيبته
الجائز
تتن
المسألة،
البسملة
عاقلة
استعمالها
البختري
البديع
ينبغى
عمق
ظله
الشاهدين
##عرية
زياد،
تذكرون
تبليغ
بيدك
الإحساس
دبي
الباه
فارس،
اعتمده
للإشارة
نشرها
ومئتين
تشبيها
الساعي
الخميني
تلو
الأبعاد
ومقتضى
المجلات
أمثالها
سعاد
##رار،
##ومته
الطابع
جذب
الإنت
استغنى
فافهم
جاهد
وحلق
قبضة
مجددا
منخفض
الارتباط
فرحا
ويشمل
نافعا
اهتماما
رون
ضاب
للقتال
##لسطين
حضرموت
صديقه
نواة
تتوفر
يسد
للتش
قط،
التوزيع
القطي
خطير
التكملة
شيئ
##قالات
بالصوم
طوعا
##رقوا
أصلا،
للاعت
بصور
والأر
والى
الردي
مستقيما
سلطانه
إمرة
##وسي،
المعلمين
ضرا
##تلاف
قصائد
بالسجود
بخت
##ارها
للحسن
أعدائه
الساك
فلقي
تنته
والسيد
مجهولا
بالبد
للشيء
الطلاق،
وفاطمة
بالمثل
الوقاية
الإسباني
ديمق
##مارا
الجمعيات
تايم
##سيون
##رائح
والجزاء
الصواف
تتقون
إخوته
حفظها
خثيم
المبتدع
الأكسجين
يعامل
فهزم
والنبات
وقتله
جانبي
نقر
##وزير
مقياس
المعترض
القدسي
جدد
بالزيادة
للماء
هارون،
كالصلاة
السبا
شائعة
كراع
يوف
وتبقى
النواة
معسكر
وترد
الأسير
المقدمات
السفيه
الندم
وبينما
أثرت
حاضرة
شمالي
الإحكام
بأصل
الشمائل
بالدعوة
فقيه،
الهلالي
معامل
فسق
يزالون
والسلطان
أسلاف
##المة
الجمار
انتقاد
معروف،
سحاب
##ذت
المظهر
وإيمان
وضوءه
الزبر
##سيف
فلست
أدل
التسع
للقا
المفردات
معا،
وتعمل
بالظ
وبقوله
مجيد
رأيا
أفرأ
والزوج
الطوا
مرداس
برئاسة
العبسي
حضره
أتاهم
المشروعة
الأكوع
##طبقة
المثقف
باطل،
بعضا،
سيفا
وبعضه
طهرت
الأصفر
بارد
عسكره
##شاعة
انتفى
مثبت
فتست
فاق
فوقعت
افتت
خلقه،
للجنة
والبغضاء
زوجه
##جل،
##يتس
القدوس
تمرة
رميت
وفرنسا
السختياني
،وال
##طوم
والهر
خاض
أزل
نجدة
##لنا
قدوة
وليد
المبتاع
تروي
المسلح
وصورة
تنمية
بحل
مرادا
الجامعية
يلتمس
القائمين
هناد
الخضوع
اضرب
الناصري
تعقب
وطريقة
الإفاضة
بالرأي
الذكرى
حقيقتها
اليك
فعلته
همدان
إجاب
تجلس
تكف
##ودهم
الزعيم
عمك
تكلفة
لدينه
تبي
وأنشأ
لأولي
والمعاد
لغو
بخروج
يسوق
##حنث
مخلوقة
كافيا
شيوخنا
ألبوم
وتصح
ليظهر
وحول
تدخلوا
##راضا
العداء
الزاهرة
وكلامه
نفل
منف
لاخت
الاستماع
عزاه
للشخص
السكك
المرابحة
يندب
التوفيق،
##ونكم
وإطلاق
##وتك
العمى
لإنشاء
إقبال
##شيات
إحداهن
##ضعفين
##صاله
أجناس
وجهت
##قيقته
وقولوا
التونس
بثوب
مخلصا
الشهرة
خازم
التغي
ونعيم
اعتمر
خطأ،
اقتضاء
الصفحات
طابع
منصبه
وسافر
خاليا
##ؤه،
##سمين
انفصل
وكيع،
ونسأل
التمام
##لائمة
وارتفاع
اللذة
وضوح
##ماض
آتاه
##يروز
##باطا
الفصح
والمسألة
يوتر
أوضاع
ونق
وبدون
فرجها
المراتب
يطف
والامت
يتيمم
وأخذه
البحيرة
##أو
وهد
ينكره
وآداب
تآ
سمرقند
للصائم
قدمي
والحجة
ونسي
البيع،
##لائكة،
بحوث
الميكاني
##سم،
محطات
والآخرة،
فشيئا
قو
إبقاء
النواحي
لوجب
الاند
رمح
كتابه،
أخبرك
بتمامه
ظهوره
الغس
بحج
الفيزياء
تطل
ندع
والصدق
هؤلاء،
كليهما
سوط
##عمهم
الواحدي
طويلة،
##طرق
وتابع
##قلد
الدمع
وعروة
أتع
بالجامع
التشيع
بالشيخ
وإف
ومعجم
لضمان
الكيفية
كالف
برزة
نظمه
البشرة
لمواجهة
##رطب
لنا،
وأحوال
بئ
الأرثوذكسية
بقتال
التلبية
فليكن
بالجمع
ويلزمه
ضمت
رجم
يمكننا
عقلية
كهيل
##انو
ويفت
ويجاب
رأوه
تلميذه
خطرا
وتجب
والمخ
أنبا
الشارب
الحاجات
ساعدة
الرع
أولهما
جانبا
البكتيريا
فمد
##ليته
##حده
##ربى
الدير
الصلبة
بى
الفروض
تركنا
كرو
مدرس
المحور
شهدا
إخوانهم
كبائر
المستنصر
واغ
وإزالة
التنوين
الأحي
مقصودا
##ياتهم
قرضا
السلب
لدخول
غضون
اطلعت
والرجال
العجوز
ترث
ضال
##آية
لمنا
التصانيف
يقيمون
##افح
وأمريكا
الأغلبية
الوضعية
الممارسة
الغائط
والعديد
دخلنا
حفظت
فاعبد
جدعان
إثباته
يعادل
شبرمة
##تهاب
ألفي
لنفسه،
المحدد
وبنا
لآل
##جبا
واستخلف
##ضمون
والسنن
شرار
السفلي
دبليو
الأرجح
وسعة
فالحق
طيلة
ندا
بمثلها
يظلمون
شربه
تعقلون
اسرائيل
الاستشراق
وأبد
بتج
##جارة،
بجر
بسل
بحجر
الحاكمة
أذربيجان
##بهن
أخبرهم
وضاح
يستدعي
غضبا
المحدود
والابت
عامة،
مؤلفه
النحويين
جرحه
تيقن
التعدد
الدقة
استخرج
##دتك
رابط
خطايا
الفيض
فاجعل
نزهة
مصنفات
بالقيام
##عد،
استيعاب
مالم
حظه
لعبده
##خراجه
##هوات
والصل
يندفع
عطاء،
معني
المستشار
ماريا
ألت
المناق
الاصط
فأتيته
برض
بورت
##يفة
والخم
بائع
لار
تريدون
المبيت
الأبوين
شيب
اقتداء
علينا،
فوث
ناقته
أباك
جدول
غرار
شدد
عنان
بحقيقة
تفرض
الناظم
يردها
منتج
الهند،
أصابها
زعمت
بالرم
أنهى
غرائب
السبي
والجنة
وجدتم
هاما
آذار
أيتها
اشتكى
بأحدهما
يدرى
مسندا
والتاء
الدار،
وعمله
ركعتان
الصنعة
إعجاز
ضحايا
ومشا
يرجون
تلميذ
أوكر
##تهيأ
يوحي
بالاحت
##ذفت
والمأم
أكذب
التحدي
فهرب
عفوا
خسارة
بالحم
وقبله
انقطعت
رسمها
مقصور
اض
الفتح،
عسل
تعميم
بأسباب
الأعمش،
فلسطين،
تدعي
دعوتهم
كفيه
##برج
الهمذاني
بولاق
بالسب
وأثناء
الآل
ينع
##غيظ
فعرض
##سوم
فعالة
والثلاثون
الرص
دخله
النصيب
وجا
بحضر
ونظير
المحصنات
منصرف
علم،
فعالية
بعموم
فصي
تأخذه
المفترض
شرائط
السائدة
مرتبط
عجبت
صادقة
وقرا
الشرع،
الحضاري
##بكة
أشرنا
وطنه
##نط
قبل،
التحكيم
للكفار
المقتدر
##شيت
##حمي
محور
فاعتبر
حيثما
واستشهد
تخلق
الفضل،
شهادات
باف
وقيمة
ومنعه
يحذف
الهز
مقيدا
##زدلفة
توف
شاطئ
الإعداد
##مارسة
##غرافيا
##شتر
وحبيب
فإلى
وانق
عياله
مجلسا
وجوابه
تتحول
والرجوع
مباركا
أنث
الحرارية
الضخم
صاحبه،
الغرب،
سباق
فيحتاج
##نى،
سياسيا
الكاشف
صدوقا
عجرة
فيليب
الحبر
##اتك
الصغاني
ذوو
الصيدل
فيحصل
لأمته
المواقيت
فلذا
مختلفا
أنكروا
ومحبة
متاعا
كنوز
التغذية
ديته
الوب
##باش
##قاص
المعروفين
وستة
##برغ
##طىء
لعمري
وباع
فيف
أهالي
الأولم
قضاعة
خاله
الممر
##نتا
الاستيفاء
حرمته
تواضع
تمكنت
مكره
أزهر
الاختلافات
مكونة
أنط
العارض
عامدا
كلامي
وطيب
نظائر
حفظا
التشغيل
والاتحاد
لتقديم
سويس
لوضع
الشيخ،
الحجرة
##طالبة
لتخ
يحرص
كط
داوود
اتقى
أتانا
اللتين
البوصير
شربت
يثرب
الازدي
استحسانا
بالصدق
هوية
##فعية
يوم،
جديد،
مودة
للخروج
أغلق
وأخبار
لظ
للفظ
##ذهبه
مصاد
نعمل
سجدا
التفاصيل
السامية
أنماط
بدعم
مروي
الضرورية
النسبية
رفيق
زمنه
بطر
شروح
وأبلغ
الغرق
توكل
احدهما
يستعين
لنشر
للجمهور
الغرور
فصر
التسلسل
##فيلد
العشيرة
##هاينة
##ربص
وسطا
باشر
بحقه
للمسجد
ناقصة
إشارات
الغش
وسجود
الضامن
تبدي
جابر،
سادسا
##دخال
تفقد
الكامنة
خفاء
##يلاند
استطاعت
ذكرتم
وشريك
أهمله
##براطور
السامي
مقابر
الخفيفة
##باز
وسيا
ذبحه
بالعود
ولهما
مكان،
يطي
وجواز
يداه
تغيب
والبناء
##تقوا
يؤول
الهيئات
ناع
وصدر
مؤمل
والشكر
نهض
لظاهر
مخصص
##جارية
خلص
عجوز
الدائن
وشكر
ومعت
وبهذه
فأخذها
مهام
نسك
مطولا
يلزمها
يفترض
أوروبا،
باحث
فيغ
الفزع
واليمن
اللغة،
ردة
ونادى
الرؤساء
الابتلاء
هدفا
تنتمي
تراض
المعجزة
الأنسجة
الساجي
بالوضع
يجامع
وإسكان
كاتبه
الثيب
تنح
الاسماء
مؤيد
##كيين
القدر،
والمؤسسات
##نتهم
الخاصة،
وصيام
والله،
زعماء
بظهور
جيب
وكبير
فألقى
المنتظر
المعتبرة
نوعية
##فوف
##طفي
أوساط
ببلد
والرف
قانونية
ويشبه
ذها
الكافية
##وحيده
فنسب
##ذذ
بدو
يمينك
وعلما
تتفق
ويتع
الثقيل
لقيام
نصل
السهيلي
وتحديد
التقط
ألفين
ألعاب
نقصت
معلما
واذكروا
يتيسر
ينجس
أشعة
أبالي
جزى
البدا
وفقك
قيده
وصوم
رعيته
يقلل
بلفظه
فتأمله
والأفضل
أبوا
تمرا
قصرت
صفي
##رعات
##ذجا
انخفض
حرز
والمنكر
أجازه
الخفاف
ومولده
متزوج
لكما
تصا
الأفريقية
الكمبيوتر
ذاهب
التكنولوجيا
ليون
المتاحة
ودوا
دورها
يؤجر
التسجيل
يكفيك
##كين،
##حنة
##ئكم
والرسل
##راية
المدار
صنعه
حاكما
البسيطة
##ياها
يعقب
التسم
للدعوة
##افية،
وجيه
عيال
متقد
متعا
والعجب
حاصله
يبس
بالوجه
وجرير
تكفل
إخراجها
##بياض
الموسيقي
اربع
والوقوف
ينتشر
##طرون
مبحث
البور
يتمنى
المعاف
ووقعت
فراجعه
لدع
والرم
##اتها،
الداني
والنقل
الحريري
أوتر
##ريقيا،
فعلوه
##وارئ
ويقضي
عرس
##فورد
لمجلس
الغزي
سمعان
##زمين
فسادا
تذبح
مظلم
##سامة
قلع
يسألونك
لخمس
مفض
بنظام
أملاك
##دتها
##داود
والمجنون
جليلة
لبقاء
فرغت
،ف
##هت
ومجال
استعادة
##ندقة
الفهري
نفيل
بائنا
تمي
سمة
##غاف
التشي
نظر،
##لالا
المجن
ودخول
تأنيث
أبيح
الفتاح
بفتحتين
وأوصى
يغشى
القتال،
للسلام
القرينة
جنسيا
ودعوة
وبالإضافة
الرفض
النكاح،
شبع
وراجع
الآفات
قطرة
حضرته
خلية
صوابا
هو؟
يتقبل
غطفان
يطيع
يثاب
اليوناني
غفورا
بجز
حولا
##بوبة
ونوى
بشهر
بالأب
السمس
والحزن
أأن
وأفعال
الكراء
##حبته
تصانيف
سوري
والمؤمنين
الشامية
سقى
نعل
ورائ
وافر
ويضمن
والحالة
عائدا
للتعليم
للزوجة
المرجئة
البرتغال
ضوابط
عاشر
مقدمته
استبد
يغر
التنوير
انقلاب
أوغ
للرد
ولوا
يطير
تسمي
النكرة
المستمع
بإح
اتحد
للعهد
يجعلنا
وأبناء
حلقه
ثدي
زمام
نذرت
##بيهات
##امير
الصوري
المنجم
المشددة
##زابيث
الديانات
كاشف
الدمشقي،
ويشرب
بوق
وصنع
##هباء
وكيله
الكلاسيكية
تكفر
لفهم
أيلول
##ئية،
##رادا
تنشر
بناها
بفرض
ويث
ويهدي
معاوضة
لمذهب
فإنني
وصبر
يأتيك
استف
ألفه
المرسلة
تبحث
فحق
##طني
الشجاعة
وهلك
للبلاد
فضاء
##قليم
يصور
لعثمان
سلما
السحب
بأهله
الواحد،
والثقافية
بله
طبر
القيا
وعرفت
بالنذر
وسخر
صبروا
##ارين
العون
يقض
جنادة
بمرو
تخر
لملك
##وسيع
رأيهم
مئوية
وساعد
وربيعة
انقلب
جريان
الكيميائي
##ذوب
أموت
بحضور
جرير،
فشق
فيثبت
أمنا
للعلامة
بأسانيد
المنافسة
شعرها
أسنان
##ثان
والميزان
تجميع
الاختصار
المحددة
والبط
طبعه
لتد
كرهت
الزرقاني
أعض
المخصص
الغمام
مقيدة
أمثالهم
نابليون
ثنية
وراث
يشرح
##كيت
الغطاء
كبرت
بحديثه
الجذع
تبن
عتيبة
الصبغ
وتتم
يفرح
عقال
الاحتراز
نتحدث
عراق
تتصل
وأخيه
ومشي
فلحق
عدت
تمثي
تجن
##بات،
التحية
يلقب
فيج
الغري
أقارب
وأعلى
الأعمال،
جرج
لقط
المعمر
ورغ
الطيال
غشي
##ئدة
والأظهر
بتخ
يطبق
##بغا
محاضرة
زعمه
منزلته
تحط
بذكره
خلو
للملائكة
المحبوب
##تيناه
بشرى
سمك
ففرق
وجرت
استأ
لأغراض
تشترط
البروتين
الهذيل
##ينو
بالتم
للتم
خالدون
وتركوا
النسيج
ونهي
مأجور
وضر
المهمات
لافت
القان
للفعل
أمية،
مؤجلا
جعلناه
الخصوم
شباط
مني،
التكلم
الدرج
##بيلية
والأفعال
خصلة
لقيته
عودته
##نر
لتف
مشاهير
وبغير
النصرة
غزوان
نواس
الهجمات
خالفوا
كادت
يتزوجها
اكتفى
وارثه
فيذهب
نبو
والاجتهاد
وتفصيل
يتلى
بالإي
مواهب
مترو
والتوبة
وثابت
قائدا
وأنشدني
ندبا
طفلا
ينفسخ
##دونيسيا
أشق
غلظ
طلاقه
غلة
يبسط
عقار
وأخلاق
فادعى
ليز
تكلمت
معجز
صاحبك
رابعة
فوه
الشوق
الوعظ
##صفح
بالجيم
الانتباه
لخلق
نومه
يوثق
##ؤدي
مجهولة
والعت
وعهد
الساعة،
وإسرائيل
هجمات
صاب
والأه
باليوم
##ذع
##وبون
متبا
المشبه
وزهير
بكلمات
سألني
فوجدته
بدعوة
المصيصي
سرى
تجلى
ويرضى
المسر
المصابيح
زوجها،
يكرهون
يتك
يجي
المكفول
إمساك
آلية
مكون
الممد
للثاني
##واطئ
المرحوم
ولاي
لعلى
الهمة
شابه
والأسود
##زل،
وسبعة
الأغذية
##عك
الفلا
ويحسن
خيف
فسمي
أخى
استنادا
فالمع
تسبيح
##حتكم
وقوعها
الزعفراني
فجا
##سران
##رتك
ودعم
انتخب
يأخذوا
التلفاز
الضباط
بلوغه
##سهم
##وعد
وأحل
وسعى
ضامنا
ولب
خصص
فصلا
بالخلافة
لرد
مغم
إنهاء
المنخفضة
للحفاظ
البقية
يدخلوا
حسبنا
بفاتحة
ولام
##طفه
بالمكان
فأنتم
##وساطة
تخلص
زمنا
والحرب
يكرهه
وحديثا
أبيت
والمؤمن
موسرا
سياسات
غذاء
وأوجب
وجهات
يزن
وإخلاص
الخوض
بيعت
أمران
منسوخة
غيركم
##ازة
الضحك
مذهبنا
الخطايا
رأيكم
غربت
ويمن
قتلى
والخطأ
دارت
ركوع
فحفظ
ليتم
دفنه
بليل
التمار
##ندب
والنصب
ارتحل
##يما
##ائرات
للشمس
بولس
والاقتصاد
مخاطر
خفاف
لخط
##ذبة
البس
##زاحم
##لواح
رماه
كلامك
##زلهم
متحرك
أنج
##ضيحة
والمقت
لجماعة
جآء
المهام
##فعته
بموضع
مصنع
قصيدته
الآمدي
اثنتان
نبوته
ناصح
قبضها
سيدا
يتسبب
موجبة
يرشد
فبأي
بتب
مشا
فاتته
أصابك
صلاتك
توري
##افة،
الثقافات
حقوقهم
العثمانيين
ألسنتهم
أبشر
بعثنا
##أييد
يباشر
جيشه
ايضاح
غايته
روج
والجل
الخدم
حكومية
أذنه
فوجده
##بيه،
بمقت
فغسل
أورث
فأك
المستعمل
تناسب
بائن
كفت
الفائق
وجم
موسكو
عريض
مبالغ
واغت
اقتر
إعادته
مظلمة
ناجية
تتألف
مستقبلا
الدلال
ليعرف
وغضب
قليلا،
الجديد،
الأحرف
منير
##ذائ
الاسلام،
والمخط
الحالين
المقتضي
وترتيب
الفعلي
أكملت
العلمية،
العدو،
منظمات
بسا
المفتاح
##ضيت
القسط
الكيس
متناه
والشجر
##ونا،
أخباره
الإفادة
عذابه
مراك
مفارقة
##قنا
الحطب
والتنا
يدبر
وشهادة
عاشت
والطرق
رأيي
باللام
يسري
فسكون
##مائها
مزارع
الخمر،
نواب
الهامش
العلق
تعريفه
صرا
ينافيه
قراءتها
المكلفين
الثالث،
بالحياة
نصره
تهامة
الأكفاني
والوعيد
أبط
المشهورين
المسئول
##لم،
العير
##نجس
الكفار،
حسد
دليله
للمعت
الميلا
العضلات
وسلوك
سكة
الأهم
مقدمات
وريح
الأرز
صداقها
بوب
يقولها
فاقتل
وانطلق
للجماعة
##اجرة
الاستئذان
المحلوف
##قفة
يقبضه
حفرة
لوصف
استوفى
ودور
وغفر
للجهاد
فاتخذ
الاستعمارية
سمات
##ستن
##قاوة
الديات
سرور
الجدول
التسا
##فعيل
##تمين
تشا
ألح
المغاربة
حرير
حتما
استواء
المعنيين
وينقص
منهما،
أمواله
الإيراني
الملفات
الألي
التوا
والأثر
مصلى
المشركين،
نفير
الخاسرين
الضالة
والنحو
سعدا
ويرت
##خش
ظلمه
والسين
##دادي
اللوم
الخلود
جبهته
عشري
أوم
الخاط
فتق
أثقل
جراحة
##وجيهات
الثرى
أبوابها
وواجب
يثني
واجتناب
المؤتمرات
النسائى
##ائها،
وإله
##ندى
أدهم
##خرين
والتعاون
عشرية
كفارا
كبري
أصفر
الرجس
##ورثته
سها
ينفك
إيقاف
الحقيقة،
مشيرا
الندوة
عبدوس
ليعمل
كالط
يلجأ
الألبوم
##سب،
حيضها
مصباح
##هاجرين
حقل
##هني
الصدي
وأفاد
اذهبوا
عتي
##وئية
ومنصور
والكبير
قرارات
تأكيدا
##وز،
والاس
يضبط
صنم
الإقناع
مذكر
الديم
الرماح
البطل
صاحبنا
وأقوال
بالوحي
رضع
الإطعام
رجعة
##جميل
المحاضرة
بأموال
الشدائد
وأولاده
##يرى
وفائدة
اهتم
##ضاي
منعك
الرافضي
موجة
عميق
يستمع
الترمذي،
معسرا
ويختلف
للتك
البزازية
##اوف
أخرجاه
غفرت
أدا
المتنوعة
ظنوا
وضي
##نين،
بيبرس
اللواتي
ويعني
لتعذر
##بوض
البقعة
فاستع
الأكثرين
##رقه
ركبت
فبه
يهاجر
بالطعام
المصارف
وكأنها
والسلوك
##موه
وأوص
متضمن
يومها
عكرمة،
يتساء
يؤد
##جيج
تره
قلناه
تشري
الحجامة
المروءة
بجزء
ذباب
الإيضاح
##وانية
والحجر
مدلول
دمج
وزوجها
لقصد
##علك
للموت
تمكين
##بيهقي
الحماني
يثق
البالغين
العينة
##بنة
اللعن
فالد
الأسود،
بروتين
التمرد
دهر
شامة
يؤدى
نوادر
بثمان
والمف
المتظاهر
التنازع
الاغتسال
يركز
للمق
أفندي
تجيء
##ضج
##وامع
لمص
فتزوج
وخمسمائة،
مساحتها
يطلبه
##ضمار
للغة
يأبى
تمثال
بالبينات
##نتج
وناقة
ممثلة
اسلم
فني
والريح
لعظم
الأشباه
أسلم،
الفرعية
الاضطرابات
الكاهن
يغفل
الربيع،
وكتابه
يكرر
حديثي
الدعاء،
فالذين
القدا
الأصولية
يقتضى
عورته
أدر
ضار
##كرير
البربر
همز
بدورها
المحراب
الحنظ
وانتشار
معبود
المغا
تنافي
اللاعبين
بكتابة
اشتهرت
بروح
وانقطع
قسمان
أبرأ
المنسوب
مناج
أفاض
واحمد
بقبول
ألف،
فوص
ورسم
سترة
فحضر
لزوال
أوحينا
##ثلها
##ذرية
تشجيع
دمت
قتلها
طريقته
شبل
استثمار
##وليات
بالمص
##ائر،
للناس،
ويحتاج
أقواله
المروذي
التصدق
أوها
وجرح
فشلت
الأقاليم
والاستن
جنازته
السماك
جاؤوا
انحراف
المسبب
المنادي
الرتبة
مصاب
مخاض
تفسيرها
الناشئة
الأمري
ويسجد
ينظم
##كلين
التحصيل
الدعوة،
الخزانة
##انه،
##ريها
الآدميين
بون
مورد
وإجماع
المسلك
خراب
مفسد
الفاع
رجلي
نسبا
تنقض
إفادة
المعدنية
نتكلم
مشابه
الانفصال
قومه،
الظاهر،
الفرضي
ألقاه
عتب
فورد
##سح
##ادث
##يفة،
سمعا
وليم
وضعوا
هواء
أمثاله
بشخص
وجوهكم
مميزة
ماجد
البشارة
يعول
الإداري
ملحوظ
المريد
متبر
وثائق
والدراسات
وثمانون
ترو
##ثما
الأرباح
المظاهر
أعلاها
ترس
الترج
للإي
مبشر
يتجر
المهند
ربيعة،
جديدة،
لاس
وساء
الحاضرة
وأشرف
والمنافقين
قلما
فروخ
ثقي
ولكننا
##صيبة
الفوارس
##رسي
وأيد
##وقراطية
نجده
الماد
المعبد
عالميا
فقتلوا
المختارة
التطبيقات
شات
##عاها
##ملها
حيوانات
زوائد
بالجر
أجرهم
وقدمه
لثبوت
بالطاعة
السمان
##ائث
فأخ
الاستراتيجية
والتغ
بالشعر
##كافحة
قضيته
شجاعا
##ودين
وحيا
فعلنا
بغرض
قصدت
للعب
##ضيب
لتطوير
يزني
والصحابة
يزور
مدة،
الحجاج،
##وهاب
##معن
جذع
بإرسال
لنحو
الفرص
القادسية
دحيم
##نيك
نهيه
يعتبرون
يمنح
الوراثية
أحت
يعرفوا
رحلته
يذم
الراسخ
حسناته
تعهد
القيوم
بالجواز
يظ
العهود
وضمها
لقص
##يتو
فأخذوا
كندة
والأعمش
##طيخ
##شاور
الكثير،
المرادي
واجبات
سدا
يفعلوا
فجلست
وصلي
بمحل
أحسبه
مقار
وفاقا
الكعبة،
قصب
يحصى
وشرك
بالأدلة
الباطنة
نقرأ
##ثمر
الفتيا
أرجاء
عيدا
تقارب
قدروا
##تابي
زاذان
##زامات
##ذلل
السجدتين
##شرف
الأير
صدقات
مضرة
##بيبة
##ساها
وأحضر
مرش
خفتم
القضائية
طبية
والري
مفردة
فديك
ولازم
المساء
وآت
بالإشارة
بالأص
جنوبا
وجزاك
الأبدان
مذموم
واللي
يغرم
والقصر
توم
توط
تتابع
جيء
للحزب
سكنى
##خالفته
المغناطيسي
##وريات
والسدي
حادي
تعلمه
دورات
للمالك
الألقاب
للذهبي
لمدينة
وإلي
الألفية
تلاميذ
لنظام
العقدي
فصالح
الظهر،
عور
##وارج
والبراء
أطلقه
خطيبا
فرف
التقاليد
النسائية
المرآة
أسست
تقصر
نسألك
المقدس،
ويبطل
نفق
يخصص
البضاعة
##انيته
بالعبد
ساحر
الأمد
فالأصل
يرمون
الأحقاف
##ظان
الفك
الفوت
وإقام
قتلوه
العباسية
كرسي
والسياسة
التفويض
وواحد
فيعلم
المصانع
لنت
المسالك
سمعها
أعدت
تجعلوا
الفنانين
الأوت
##عياء
اختر
المخطط
##قالة
تنال
القصائد
رئيسهم
تتبعوا
والمنع
أصحابك
مخلصين
##رايا
الإحاطة
أقاربه
بإقرار
افتراض
وحمد
ومائة،
والإرادة
الدراوردي
المليح
المقطوع
المراقبة
مناخ
التميم
أسب
تدر
مجيب
تجعله
طوي
للمسا
السنوي
ذاكر
القسري
##ومهم
##باية
##ضيفت
الوفا
والتصرف
الأسطول
عادوا
أنفقوا
المئة
البطر
عوف،
علقت
الآخرين،
فنع
##سلت
الإعدام
البديل
يهتدي
المازري
بعذر
الطعم
تمويل
لجأ
أنشطة
بنصب
##ذاة
التخص
إنجيل
الأقليات
والأرض،
أولادها
معكوفتين
يطعن
##بلة
##ئتي
يكتم
التقية
الدورقي
##ائهم،
##يدز
بهامش
حياتي
نسائهم
مدلس
##لائد
يصليها
التابعي
بالبل
للدار
هون
للفاعل
##جيله
كفاءة
##كية،
متجه
##وطنات
أولى،
لباب
##طاوي
يلج
اقتضت
دوما
بنته
الحسية
##ائبة
للعين
يمشون
مرضا
درك
الطباعة
مؤثر
المتحركة
مؤكدا
فتعين
حنيفا
الأكراد
##هارس
الكراهية
ومسجد
الدلو
تعطى
وعزل
والعافية
الربعي
يجرى
يخبره
وتسعون
الممارسات
ثغر
قانوني
الممالك
##لف،
الطوال
المعتضد
عده
لسنا
الميس
الرقص
##عيها
اليما
لغيرهم
النوعين
جبرائيل
ففت
أموات
المحيل
الجديدة،
السالم
البقا
الخفية
اقتصادي
مضمونة
صفرة
الأرجنتين
استعمله
ضيا
##طارات
التمكين
##عاس
بالجامعة
الهرب
المزكي
وأنزلنا
إجاز
احب
وحث
لانهم
الخلقة
ظهورهم
المعدوم
واجتماع
اعملوا
وتفر
المجتبى
قنوات
نبى
المبني
المفيدة
المعيشة
##قدمت
العباد،
رقيقة
##قييم
وأرضاه
دهن
ديانة
سببها
السقف
والإشارة
الغربيين
والإكرام
##غها
ومدينة
بسببها
هاذا
مظعون
أون
تله
##رقا
واليت
دوره
موقفه
عليما
أخوة
قلد
بك،
المتبادر
وجيزة
تسن
وكرم
##صع
##راثة
السباق
فاضرب
تضمين
الكوثر
فمنع
ديون
النقشبن
العبرية
##حتك
الواثق
فانها
##زعوا
البارحة
ميسر
تحديدا
أحلام
##وجات
المعراج
##رامطة
فانهزم
##خلات
حقه،
وشم
دج
ومشى
قرنا
المود
والحاجة
يعظ
المحصول
مهاج
الخبراء
الانش
ذروة
اللائق
الهدايا
##طايا
المفلحون
الخان
يربوع
المشتبه
قيود
بلبن
مماثل
تعتقد
شأنهم
اتب
الناصح
المعماري
علمك
وبدا
صلاتكم
أنبيائهم
عزا
##قرة
أيار
أمه،
المستخرج
وحاصله
##راتيجي
روض
صان
##فسق
ترعى
وأئمة
السكة
بمدرسة
آفة
واضع
أجمعين،
مراس
وبالغ
##اتنا
الثروة
##قولون
اللآ
والبلا
إجبار
للمرء
مفلح
##نية،
ينحر
الاعرابي
التفاسير
نوبة
ومي
يدعيه
سيوف
بوصفه
كني
##سية،
استب
أبصار
خطابا
نقف
إغلاق
توض
وخت
##درا
لحركة
يكذبون
ارض
حله
الملام
الأخيرة،
الفواكه
بالتالي
##ركة،
وحف
ملجأ
##ماهم
فسلمت
وبئس
المؤكد
فرش
الرقابة
برحمته
ترجح
أغاني
ذبائح
اثر
يعتم
بمجموع
ووسائل
الصواريخ
##وريين
حجر،
الأميركية
اغتيال
يبارك
الغازي
تكسر
الروافض
إيماء
الروابط
ثمانون
النسوة
الإشراف
شبرا
##ستق
ويؤدي
فذبح
ابنتي
والمعتمد
دولي
لينا
##هتمام
الحسب
والمواد
فتوجه
يشتد
المناسبات
بنتيجة
التهم
القبل
##يدرو
وخم
دلالته
سليما
الكتابات
متفقون
إحسانا
الزرقاء
لبا
##مسألة
والخدمات
##ظرية
حمدا
بارز
تأييد
فسا
يال
##بيلة
أشركوا
بجنس
واتفقوا
النسفي
تصب
متوسطة
صحراء
المؤرخون
##هبة
الذرائع
الوقعة
بوج
الفائز
الزيادي
العلية
المواضيع
الهدنة
اللجوء
##واصلة
آنية
##شوع
ويقف
وتصد
المبد
عدالة
الحقبة
ظهرها
أرباع
بالآيات
الميلادي،
الوثنية
اللحوم
فيديو
الموجهة
المكذبين
للجنس
ووضعت
أسيرا
حيدر
شيد
غلي
وكاتب
منهجه
فتجب
يحلق
خلقوا
الجاهلين
التفسير،
##صموا
يتألف
والمجرور
توسط
##لفى
المسألتين
المواريث
للنظام
أعمارهم
##طته
حضوره
خيرة
فبر
##قراض
بتأويل
عامله
الشاميين
نعيم،
وعمره
بخمسين
الأنثيين
##امله
متساوية
نظريات
يقتص
دعاهم
بمي
رضاع
ماشيا
ونزلت
لتج
للعديد
مغفل
هدبة
لزمته
العتيبي
##ستور
تشرك
وزعموا
عشاء
بعشرين
##ويك
والعذاب
والصبيان
البدنية
وأكثرها
البيزنطي
##عهن
تطمئن
الديباج
استئجار
فريقا
عادي
يعدون
الاتحادية
داعيا
ويبدأ
##نسى
والصحة
وأفض
لحظ
فلكل
فتش
حكمهم
الحالتين
خولة
مفصلا
تحذير
فنية
الازد
والمرسلين
وقيم
التنوع
أخطأت
لقا
ويسعى
فأج
وتعقب
##ون؟
الإقالة
نهائي
الفاكهة
شهري
##ونية،
القنية
##زيف
بريرة
##كاملة
بالسوية
##ثارا
هديا
الصنم
ويلاحظ
طولون
شبابة
أطلع
معار
##وسعة
خلفها
ومروان
واشترط
أقتل
يبايع
ومض
الأنصار،
أنشأت
كنف
للخبر
بالسوء
الاسدي
##طمئ
المرفق
تجرى
نحتاج
لمحا
ونك
فالإنسان
الساكنة
يما
محاكم
نسخه
يجتمعون
تضاف
وبكر
##قلان
عالمي
آتينا
منته
المسابقة
واتخاذ
الحقد
واط
##صفى
والسمع
ثار
مريد
القوت
بأق
فرآه
الإجهاض
نافذ
المأل
الحواس
وسعها
عمى
بغتة
بقرية
وزم
وصاحبه
##باني
المكاف
بكونها
أجلس
بوقوع
بالأخ
أرسلناك
بالدنيا
مفار
هنيئا
المصدق
رجلا،
إيقا
والطيب
وحصلت
ملخصا
ومحاولة
##فعها
نظيف
وأعرض
فرحون
يعلو
المحاملي
الزحف
الأعصاب
مهنة
سارت
##غاله
##وارح
الإنكلي
##طفية
بجعل
مضمر
المحتملة
ممكنة
حياتنا
كلمه
##ربة،
بتخفيف
مؤس
انتقد
##صيلها
نجحت
##شميهني
والتصويب
فيقدم
الجمر
أحجار
مذكورة
وقائع
أوقف
القرء
تدارك
مقصورة
الأحو
وأفعاله
الصخر
انقل
العلماني
رجعنا
الجرمي
الممتنع
شافع
السرة
للأس
يطرد
لقولهم
وشرعا
ثالثها
يجمعون
كبيرا،
المميزة
فأر
آثم
شان
فمال
يئ
بمفهوم
مسالك
الدينية،
جموع
فيعتبر
كتابك
تواجد
##فنا
وتسلم
عشره
فكلوا
الميلاد،
بالهدى
الصعود
##ياض
والساد
والاشت
الحنفي،
والحرية
كهيئة
##ألكم
انزل
##طاها
الكميت
مستحقا
أرحام
تمنى
لمجموعة
الثغر
فأمرهم
مقصودة
مولي
يستقل
كفوا
يقات
لتغ
أفراده
##صالات
الصادقة
دماغ
سراح
##ثرات
والبو
وتعقبه
وثمانية
كاره
الداري
اثبت
##لع
وأقيم
للمحرم
وصفته
والآخرين
مجتهدا
إنقاذ
##رضاء
##طلبة
باث
والخيل
بوساطة
##ياجات
أسكن
نفرا
فيسقط
والمصنف
بفضله
تكمل
زوجتي
خميس
بمسجد
التابعين،
الجامعي
##قياء
بالتمر
ركاب
التنفيذية
به؟
أترك
كماله
مباشرة،
البكال
عبدالوهاب
والراجح
والترهيب
ليدخل
فحكمه
وهبه
اللحن
علميا
##نبؤ
##موهم
نقش
يرتكب
فشك
كلتا
وحما
لديك
سلس
بالأح
والقانون
عمامة
الفاضلة
بارزة
الإكليل
##غلا
بشهاد
ومعناها
بالمدرسة
يرخص
اليمنية
##ادق
تأول
والشهداء
عبدالله،
استطاعوا
أعطيته
القمي
يقولان
تنه
##ناهج
فرنسي
سلي
القري
##قدمين
أجري
الجلسة
الأيو
أهدي
سهلا
يرعى
الصدا
المستويات
فدخلوا
سئلت
وتجد
يرضي
مقرر
ظرفا
وكقوله
باقت
عشت
الغريبة
والأل
فئات
شيعة
الغليظ
يدعم
والراف
بالشرع
أوليا
حرمان
مهند
المحاصيل
الغيظ
##ضاض
استعار
الجميع،
فانطلقت
ساهمت
فصدق
للام
وأعيد
يدعوا
الإكثار
إعل
الاكمال
بتمام
ولدك
فرنسا،
توصف
لصح
والقصد
ينفر
الحديثية
لأح
تحلل
لسانك
أقرت
ودينه
آكد
بالفت
الجغرافية
وحز
نصبه
##تكاب
أضاء
عفيف
##فاهم
وارحم
والذهب
##ولادة
سيء
اتسع
التحلي
يصح،
والغضب
جحيفة
##ينهم
فلقيه
بقيمته
هممت
صلاحه
ويخاف
شبيهة
فيتم
تحكيم
المكاتبة
داخلية
نفاق
وتبلغ
فلزم
##جدية
المشاهدة
المناظرة
وقفوا
واسمها
خوان
ذوى
وعكسه
##عيت
##أسف
مباحة
فتك
يستخرج
بقعة
العلوية
بلدا
نجسا
لطائف
بدينار
قادرين
ببني
##صاء
كيان
صابر
الاثني
ومواضع
أناسا
بالإع
حبر
معيار
الفحص
وتقبل
والتعبير
ميزة
ويسمع
عصور
بالضرب
للدنيا
بلق
السواء
يشبع
يلعن
جهز
تجدد
وتجعل
هت
##ريهم
الحسبة
أنت؟
تفصيلا
مسافرا
بيضة
تستر
وغالب
الجينات
##مانية
##طلاحا
محتاجا
الجحد
ونهر
##كانة
روايتين
تدليس
بخص
بكمال
بالإنسان
ونوع
قلبت
الصحفي
الشيء،
ومحله
تأخيره
وأمير
بمناسبة
الاستث
صدقا
نبذ
أكاديمية
قضت
##بيدة
جامعه
الغلبة
الموط
##ويها
الوظيف
وسلط
تشركوا
بعثك
ترع
نحب
يرع
الشف
الكاذبين
بالبن
النخبة
أعناقهم
تلاميذه
أقواما
المستشفيات
وددت
بيتر
بدايات
ثوابا
حواء
طاهرة
##طيب
##وبوا
الرمح
الخلفية
حدثهم
لتست
عمومه
ارج
##رحيل
استعارة
وأبيه
##يدات
المتخصصة
والمشركين
البيتين
مركبات
العرقية
الحاسب
نبيك
التونسية
وطلق
وتجمع
##اريب
يفوق
يضرهم
يرمى
أصولها
الخصيب
الرأسمالية
##سقى
##جأة
والأطفال
أصلية
القمة
##وموا
تقدموا
وتحسين
لبنها
مكروها
الثوار
##تيار
والمجموع
مجمو
الاستطاعة
##وائه
التطهير
تعاطي
##بج
منفص
الأجن
للمريض
سيتي
الموضحة
سحابة
والتجارة
اصل
##ضحت
البقاع
الطلق
إياه،
ومأجوج
وأولي
قتله،
التشخيص
وللع
خليلي
خفا
##زبان
المروي
بالقتال
ومقاتل
بنجاح
المؤنث
والسفر
مهلك
تقريره
سواه،
دنياه
دحية
سيرا
##موك
الإبداع
تعذيب
ينز
معظمهم
للوجوب
فبطل
حسبي
صعبة
##ظري
##طعه
وأيدي
##روش
الرازق
الجزئية
سليم،
بدعاء
جامعا
الأظ
وتعلق
يجزم
تحص
والجنوب
تاريخيا
بالنصر
##بعير
والوسط
التأسيس
وقصة
والكسر
العملاء
ووفق
الدمياطي
ومركز
الروحية
الثلثين
عاجز
وأبقى
يشرف
أغلبية
صدقته
حقا،
والشعراء
أعدل
مهرها
ناقصا
تنام
ورائه
##قطنى
رووا
التملك
بالري
الرخص
أقاتل
وطرد
عورات
وحماية
العاملي
التقنيات
فدفن
اللاهوت
وتتبع
والمفعول
عادية
إجمال
الفيدرالية
نتج
وزياد
ويده
بالباب
تسجد
أخيها
سميث
إظها
اللذات
والطير
آثارها
المطار
الهولندي
أدرى
التتابع
ويفتح
تفكير
لإطلاق
روين
والياب
والضعف
والرأي
وأجمعوا
تصر
عوي
لعين
نرد
مادام
للغير
ويقل
الاعمال
والمسي
شعرة
صمم
الحزم
حملوا
التسعة
مباريات
تشغل
أضحى
متوق
عصاه
أجب
ترسل
أنور
الجبن
المحلل
حماد،
المنتظم
الاشتقاق
إيجابية
لإزالة
بوجوه
الرمادي
##حاها
فألق
انتصر
الرؤوس
الأسفار
وعدل
عليكم،
وآخرين
خسائر
تثير
حمرة
وأمان
فته
##ذفه
ويؤمن
فتل
بذبح
جحر
##دمج
والدولة
بنائه
مناصب
السائد
ويقطع
فتحة
أفضى
حرجا
وقدمت
جاءتهم
مخففة
اللاجئين
ألفاظه
قصره
العجي
للعقل
تلقوا
بالتحريم
ذهل
##ظما
التبليغ
المطبعة
الضرو
والجار
يشاركه
ككل
والكرم
متت
حاجتك
وخرجوا
نكاحه
شيكا
سلطنة
أحسنوا
اجتمعا
ملازم
المختصة
بعبارة
ظهورها
وتسعمائة
عاف
أنبت
أبعاد
ضربين
وتخصيص
##قبلها
الحرز
خاصية
يفيض
##ياه،
الخيرة
بعملية
يخفي
ضلالا
كلكم
##فعلن
##ناطة
أكثره
الكوفيون
بسطام
ريع
لزيارة
الادعاء
قحطان
الراحلة
ستره
والغالب
إراد
ووهم
المقامات
القيروان
بالمنع
ولقي
صفراء
والكف
فأرجو
تصني
ترحم
العاجز
جوع
الإط
الإسنا
##ليل،
امتدت
بمشيئة
غرضه
ندعو
تصنيع
نائما
وأطعم
##شفي
قوله،
والكامل
التنافس
##طلاقا
بطلانه
وبحسب
رشي
الصريحة
والنم
أسمعه
تؤمنوا
تاجر
غابت
الكهر
حميم
طريقهم
فصاروا
لطول
التعاقد
حيل
الحمرة
تغفر
المحتلة
للاتحاد
له؛
اجتماعي
أعمالها
جهينة
##ذنا
المقطع
أنهن
بأيام
##نعيم
اضطرابات
الجبلية
تيس
##جئة
يأتى
بإقراره
دائر
والنسيان
تعبدوا
##ثية
يعرج
والمشا
بمبلغ
محصور
وحينما
##ريا،
السرى
للمشاركة
تشرب
ديك
ليبين
تسبق
معذ
وهزم
النامية
##قاطه
تهتم
رحله
##رامي
التجويد
قهرا
فيضمن
##برين
البضع
وصاروا
متاعه
قميصه
القصب
أضواء
ووسط
الحار
أوف
##سلخ
السعودية،
محظور
فمسح
اللغو
والثلث
أيق
##روسية
الثلاثة،
جنون
الكرك
مروان،
سيارات
لقيط
بالديار
لسي
التكاثر
مالكها
إعمال
ثنائية
واليقين
مرب
##لأت
ثلثمائة
لينت
##سلسلة
أعا
##هم؟
استدرك
حران
##ناعات
بصدد
جريح
وحجاج
التعجيل
نقصا
فرأيته
نحت
والوس
ومقد
بمعدل
أموالا
صدوق،
فسبحان
مارتن
المسار
الزوجان
ومعمر
الحدوث
التأويلات
تنافس
جملتها
ملفات
كاذبة
إزار
التحقق
السكين
الحاقة
نفقتها
البريطانيين
الطائفي
يجادل
والحن
بسعر
حجره
زد
فرمى
بنسب
الإعتاق
واستطاع
الحاكم،
تعريض
عصابة
يأمركم
تماما،
المعج
صلحا
فيعمل
يتقا
وتعرض
سمير
نكا
شكلا
##أها
لإخوان
الحبشي
والأنبياء
تحريمها
مجتمعة
الكونغرس
شاذة
##طري
الدكت
غيرنا
فانك
والنخعي
التغل
وردا
السندي
تواتر
والرب
القويم
متخصص
ونصه
سفه
ميلان
الأبر
الضبع
للشباب
الكمية
كليات
ومسند
بالتراب
لإمكان
وحاول
نسيان
فيكت
حمزة،
أغار
الحملات
##بار،
المحجور
البشرى
محرم،
حزنا
يستع
الفيلسوف
وبحمد
نوعه
الجاهلي
ساعة،
بظهر
والوصية
##بيط
السقي
أسأله
أصنام
واقفا
حينا
حريم
مفه
التضحية
الدب
ويصدق
##فاقه
ينوب
متعين
المطهرة
لبنا
رياء
فاسقا
الصورتين
الباطل،
جبة
عائلته
الجين
كالذين
اشتر
أعطاها
ودعاء
##يدون
المعاهدة
علقه
الاجتماعية،
ثمرات
##ملوا
سترا
زمنية
المقاتلة
هاني
##بوذ
الإحت
يحشر
المجردة
يي
وملا
مجاوز
فالغ
فعلهم
والخارج
يجزه
تتمكن
الساحلية
##صنع
اندل
وبلغني
اقل
##سميه
لسوء
مصدرية
##ديمقراطية
بوم
فجز
وتوفى
الثريا
##صاره
مكونات
لتعليم
صبيحة
معمول
##عوبة
وسق
أسلو
وزك
النوبة
الكأس
آبائه
يقبلها
الطر
##يتها،
السيئ
سكنت
ممدود
متقدمة
ألقاها
السفر،
التوقيع
الرموز
لتنفيذ
وسلمة
جوامع
رسلنا
قرع
الأعين
استراتيجية
ففعلوا
ليقوم
سيناء
المطبوعات
##ماكن
كيت
الايام
وإيتاء
روحي
المتواتر
للنووي
بيدها
بورك
##وراق
الأبه
يتفر
والميسر
متوال
المتهم
وخبره
إبدال
وشخص
الأزهار
ويؤكد
يعلمهم
##أة،
##سندر
صلبه
يستثنى
خالفت
الاقتراح
القديم،
تملكه
يجلب
فيعت
المشكاة
والدعاة
نفيا
مذهبا
ذنوبكم
##ين؛
##ائبين
يعينه
كالآ
##صاديا
بشيء،
إزاء
الأحمد
معاهد
بالنهي
يتما
المحكوم
تطبيقات
ففعلت
وسلامة
الانتقام
##غة،
##يمانهم
الإفك
المتأخرة
الإشراك
مجلدين
بالكتابة
الكاس
##جزئ
وأكمل
القلي
النصي
##درالي
الاستسلام
تمنح
بأصبهان
زكي
ممس
##اتبا
##مرها
يقنت
يستحل
بردا
لجاز
فخاف
الياباني
وأحكم
أتيته
استنباط
للورثة
الإنذار
كرهه
صوفيا
كتيبة
التبيين
تعرفه
مستد
إعجاب
كبيع
##ثمة
تنطق
يتبعها
وإدارة
الجلي
آثارهم
الاربعة
صورا
##لوك
متخصصة
بالاسم
منظر
##انج
النفقات
يتناوله
ماس
القبر،
بتسليم
نفسك،
أبق
أقامت
الفتوحات
##يلندا
وإك
##ضمض
ومرض
ضباط
العبد،
##قطعوا
والمنسوخ
طائف
الطح
والنق
قرص
التفريط
وإخوان
الربوية
بالتكبير
حظا
أنباء
ماكس
لإدارة
التجريد
المضمر
خاب
موجه
يحكى
أبكي
لإصلاح
جدته
أطل
لومة
الأبطال
النقب
الفوضى
##رشح
عبادة،
مولاة
بالثاني
الاستشهاد
شما
وحص
انقضى
غصن
التداوي
يطيل
المتمردين
يها
وليكن
كتبوا
كفالة
لوي
متنه
خالي
اشتبه
ركوعه
نفيس
الامتحان
اعتمدت
والخلاصة
##عدن
يمكنك
عاجل
المثلثة
أساطير
مضاعفة
طوق
جنوبي
المصرى
منقطعا
أحدا،
##سابا
فذكروا
بصرى
الزوا
وإرادة
بجائزة
وتنظيم
الموجات
##بكر
فتفرق
بالحجر
أجرته
يديها
المرتضى
مضمونا
يحزنون
انضمت
بهؤلاء
وخلاف
بناحية
الخلافات
خروجا
دولته
ملاحظ
المسيب،
لرواية
أغنياء
##وضيح
التبري
أعود
مشارق
افترى
الحضرية
نذكره
للحم
البتر
##لفوا
ونزع
خرب
صقر
مخصصة
يشكو
أرضى
والزهد
تعلقت
والاجتماع
##اوي
والاح
##تيها
الغرة
تخط
الانتظار
منعوا
ويلحق
المثنى،
بالمقارنة
كنائس
##ادون
مسابقة
للتس
يتركه
لقطع
##فكر
بعتق
مسخ
محذور
الهيدروجين
الجني
بشعر
بالمغ
الأحجار
حسبك
لينظر
يحمي
بإسقاط
السطر
رئيسة
المبالغ
وأنعم
وشروط
المسلمات
طوى
عمره،
القاذف
بإجراء
مبس
يرونه
الانتفاضة
بارت
الأصفهاني
إذاعة
##رق،
مفهومه
استقرت
العجائب
فتجد
أسفر
قلبا
علقة
والبرد
صقلية
ذرو
بلجي
عميد
بالأش
بالسجن
موقعه
يرتد
فاجت
طيبات
عمة
منزه
أشباه
بسام
إحداها
القدمين
أنعمت
مقبلا
##نجي
##ريء
الثغور
الغدر
والنصف
ودية
القصوى
الأوليين
يعارضه
ماز
وبج
وينتهي
وظنوا
##وسم
والطا
انفس
وإش
التعميم
والحي
##علب
بمدة
البنين
لطالب
حسنة،
وتختلف
والنحل
نفهم
كساء
نوبل
الريفية
وباء
##قطعه
السلف،
لرئيس
##ائده
##وفوا
همة
##سلا
الأساطير
الصهاينة
##سابق
يحط
##حوش
النجدي
موقوفة
الافتتاح
الرسول،
يبخل
القطان،
موصوفا
حذافة
يقص
خصه
صيحة
المسبوق
وفاز
تصرفات
خصوصية
رفعها
الخلد
المساهمة
الملائكة،
غيرة
تحصى
صحيحة،
للخلق
سلبية
ووه
وجامعة
عمليا
زرعة،
بنكاح
وتشير
باختياره
نفاه
أخوكم
رشدين
كرامات
ضبة
يبال
يكرم
بالخي
##تابك
محبا
جزما
رسلا
يذهبون
##اخذة
تفلحون
فابن
الدهن
وجهل
وإح
اخترت
##صناع
بحب
بالجهاد
إط
وتفا
يعفى
عداد
صحابة
حاجا
المفسدين
الحراري
للبيهقي
القرص
سلفا
##دمت
عمله،
بالجهل
يتعارض
منصوبا
السياسيين
كلفة
والعتق
التواريخ
عدوى
ونحوه،
باتت
وبايع
الاهت
##نبه
الدباغ
الخطط
ملكوت
عادات
مسؤولا
باص
##غراق
وند
موف
ويخبر
وجهاد
الغدة
لأخي
المختل
مادية
الحدائق
مضطر
الأموال،
وتجاوز
يسهم
وليسوا
الباشا
عهدهم
يعدو
##صفية
ويعرض
وعمران
فزارة
بألسن
ووع
الوف
##شكلة
الفلسفية
وتأخر
##فاية
يستغني
المؤمل
والدفاع
بالحجاز
أمورهم
##انق
أكدت
للعلاج
قبلها،
المشاة
والحركة
ولأجل
فوجهان
بويع
سكين
شوكة
والحمل
واللبن
أعرابيا
التذكرة
أمثل
أنت،
لكم،
المعاوضة
التربوية
فغلب
مبينة
ساكنا
الروذب
زجاج
للمولى
قرارا
غضبان
تذهيب
الاولياء
عفان،
البرز
اجتناب
نعيش
الموجه
وحكمة
إعراض
أعطوا
أنواعا
الطفولة
وقليل
الإفتاء
وغا
تلقاه
يصنعون
خبيرا
يستأجر
أعمالا
صبيان
الزيدية
انهزم
ويلز
تمكنه
آخرا
بحالة
نقلته
حسرة
الاصبهاني
مفيدا
##جزي
يعجبه
مجالا
يأجوج
الحيوانية
وذبح
تسميتها
السوفيتية
الجاذبية
أديب
زنت
##ثيق
##غلت
الشقيقة
ويفهم
ومائتين،
أستغفر
يقدمون
شهادتهما
مستقرة
التبعية
والإقرار
فسماه
لحرب
والقن
##ظيما،
##ؤول
المذي
اليهم
الحيضة
خرقة
بعيره
والصغير
البلدين
المعلومة
والوقف
السجل
الخيام
محتملة
الغذائي
البنيان
##يناها
تقص
عدول
والتحذير
ينتظرون
ضمنا
الفجور
الواقعية
ومساحتها
وسك
قبري
##لازل
##واره
السرح
والمرا
لسر
فيظهر
الفريد
##وانات
يستغرق
الاموال
معدودة
لضرب
##مدادات
تخطيط
اللاحق
##غارا
مبطل
باطنه
القوار
بأكل
يخلط
العثيمين
لعا
للبد
أعضائه
الانع
قصته
الصومال
ثروة
دأ
رائد
فروض
ويعيد
فلقيت
لتحسين
عاجزا
تذك
عقا
كوني
للوكيل
وسقوط
ثلاثة،
أربابا
يلونهم
يعقوب،
ملازمة
النقور
اتبعه
##بابي
ولزوم
مقاما
إكرام
ويصف
سيادة
عبثا
وصفنا
صلاتها
ندرك
ومجلس
النازية
يدلس
رددت
مزرعة
بالمي
وسلم؟
بأشياء
تحضر
رجس
##ولا،
##فاعله
تأويلا
بحساب
الحيوي
موقعها
نافذة
فأثبت
كعب،
الاربع
صامت
موفق
الرهبان
الفاجر
اختل
الذكر،
وأصحابه،
الجوزجاني
##غد
النقيب
معدي
الاخير
##سل،
يهدى
والبه
والغر
الأضاحي
##ياغة
كلبا
لقريش
##اقان
الحبة
الصقر
##بلت
وحرك
والشاهد
المقترح
الحديقة
##زمان
الإفريقي
توقفت
مبادرة
التطوير
مبسوط
الفحول
ويصرف
يتقيد
##حباب
##جج
تقابل
##طائه
##جده
المعق
بذنب
وثل
فيصبح
تفكر
##قاقير
قلبها
شارب
تعقد
المشكل
وطاعته
الثالثة،
معتد
المنظومة
ظهري
والرابعة
يصرفه
الاتجاهات
الربانية
الكسوة
لعملية
رويناه
##ابض
الدستورية
يصط
الكتابين
عفير
استدراك
نعد
##سبا
التآ
النفاس
تقبض
صيفي
سواك
بصفته
والباب
السو
الصب
والحل
والغرض
وللإ
وأهلي
نموذجا
الجرم
الرخاء
عندئذ
تنفق
يهدم
##مثل
المغول
البارزة
عوام
الملاح
وإنكار
والافت
العتب
##سمح
يطمع
ينازع
##غازي
برت
للظالم
الاختي
حققه
##راكم
السفاح
لتحرير
ثلثا
فازت
المربع
الديك
فرارا
حليم
المشرفة
حبان،
فيذكر
الدرك
للمد
وغنم
أثلاث
ظنك
فرجه
مظلوما
##ضيض
الغنية
فرقد
قرين
مترجم
##كانية
##ديد،
أحكامها
قربه
معتبرا
أثمان
ميش
الناقص
بالاجتهاد
وتصدق
فيه؛
المتواترة
بوادي
رجعيا
توجهت
حسي
العبادي
الطوارئ
يصنف
ترجمه
عوضه
والأحوال
قمع
##ذاه
الخالية
أشراط
وخوف
ودنيا
وذكرنا
##لكترونات
الظهيرية
الخدي
العنزي
تدعوا
بالطريق
يبتغون
عنهن
##رقون
يخرجها
شبهات
الفاروق
##ئتها
وإضافة
يغادر
الصالحون
مواضعه
الناف
بالأسباب
##واعق
ثقافية
نذره
فسمعته
والإسلامية
أطف
يوفي
##ثورة
##ونة،
بالثلث
اسمك
الاحتفاظ
لنف
##لاهم
أنصح
##بنه
بلخ
اللعنة
أعمالنا
وظيف
المؤسس
حالته
خلقناكم
ضغ
عدي،
وأظنه
غيرت
##لبها
الفاصل
تواصل
للمسافر
المنخفض
الأسف
أتدري
والصفة
أظفار
تمهيد
##يسون
##ضييق
أدبر
تسافر
##كارى
وحكمته
حبال
الطمع
ذكرتها
ثلاثي
أجزائه
للجن
الكار
غربا
العضد
عهود
بالمدينة،
حجا
القبلية
بناته
القابل
##ورج
النطفة
وكثرت
عبدالرزاق
لفظي
العجمي
ووجوه
أهواءهم
والاد
والذب
مدحه
مختصرة
عواقب
المهتدي
##كتشاف
خلفية
شربة
##كوب
والني
##راخ
مادي
الإتقان
##اثية
بضرورة
وسعه
هداه
##نيعة
##راهن
المحليين
##وائق
##صيبه
خده
درة
قدومه
وسعت
اتباعا
حرصا
جدير
زمي
الأنباء
والعفو
ساعدت
الخرطوم
##طمئنان
التكن
وعمرة
بأخبار
حمدون
مهنا
##كبروا
شئون
جندل
الروذباري
الرئ
اليشك
للدراسات
وأخبره
أرسلان
والهبة
التوقيت
##طانية،
والكاف
والفقر
شبكات
اعمال
العمران
فوثب
دمي
##كمات
وشعيب
بمل
الإقبال
معاذا
##مدت
فرضها
السبعينيات
بعلو
لسيده
انتهوا
إشعار
الأردني
يسكنها
محفوظا
المبنية
مقرونا
بإضافة
وشا
شاء،
لأمره
السديس
الأوكرانية
##تابة
وتعني
شأنك
تفتقر
المستعمرات
##طاب
الأودي
استمع
المجيء
عديدة،
سرب
الميث
الرماد
والأولاد
##غلبة
##سكرات
كأحد
قبيس
##جيد
وانضم
رأيتها
صنعوا
كولومبيا
لتبين
##ودوا
الإث
وتوق
يستمعون
المجمل
واستثنى
كسوة
ايوب
رهنه
الفوات
الأعوام
رأيتك
تؤدى
الطفي
شاءوا
البلوى
للسهو
أبرزها
السمسار
نعود
أوزار
بساط
ينبع
أكف
الإبل،
المطلب،
يوجبه
وقعد
الدف
وللب
ومنكم
نأ
##يرهم
وجلال
ومحدث
فاما
##عب،
للإع
إيمانكم
الاستعارة
الثمرات
فخير
كظهر
نل
بالوفيات
واسأل
مدرسا
ذاق
فعا
الحليب
والتض
لأعمال
فالحا
المغضوب
يبيعها
فاصبر
نحمده
يوس
والخمر
محتر
مصطلحات
يخصه
لقتل
الاذن
##قطا
والمرت
المحرم،
ترام
المساجد،
فاغت
مصانع
تسعا
غرناطة
والبدع
والكت
عبلة
المهرجان
سفل
بالسل
البصيرة
مضارع
فجرى
##ضمي
##طالب
وتغيير
يتأمل
##طاكي
التعويض
جده،
الفلكية
إزاره
مديرا
التحويل
واي
##حيق
للمأم
بتغيير
وشه
والسلاح
السمو
تأسس
الورم
بانه
تبق
خما
الحبال
الثاء
مؤجل
الجدال
المتأخرون
أبعث
وسطها
عنف
التوكيد
بتر
الحد،
طهران
الكاذبة
فحيث
للطاقة
##وحات
##قضوا
##اؤه
تقوله
مضاد
توال
المصح
الجسيمات
الكوم
الإماء
اقترب
طالوت
يضاعف
##زاله
والرفع
وأحا
##وانئ
فجعلها
موحد
زبد
الشقص
المنفصل
فاجلد
أدق
##ديرات
للقب
عمها
##دعون
فعل،
والطعام
يتعد
يتجزأ
فترى
فنقل
حاشيته
أساسيا
باجت
بكتب
الباعث
إعانة
قطيعة
والهد
الضياع
الساكنين
ثلاثية
مشد
المرتفعة
بزوج
##جمل
النائ
##باحته
وراءها
الجبل،
أستاذا
تدين
التدري
الاقرار
مقدور
وحفظه
القابض
مسألتنا
الجيش،
المناقشة
بعلة
بحركة
أموره
بنصر
المستمرة
##ائرين
##رشيد
##وذة
تسلط
الألواح
النكت
##عبارة
تجدوا
فيتنام
فأقل
تقربوا
جلوسا
بمشيئته
وتمسك
اشتقاق
وضلال
تناز
لقت
منامه
بالبعث
السقاء
نفسي،
بالمؤ
والدخول
بالواجب
##بورا
وعقب
الخطوات
المدفوع
لقبه
وقعوا
مبط
واللح
##حملها
المنتسبين
بنفسي
ثانوية
مؤكد
والسكون
قوموا
السكران
المروة
التحدث
وكا
وعمارة
النادرة
الآيتان
لولي
تجريد
يبول
والمعا
يقرون
البطالة
مأل
تعددت
القصيم
لسبع
مبي
المقيمين
خالفهم
الصغائر
##روفه
والمختار
##نعوا
والكفار
بأس،
الرسالة،
ونستغفر
##ذوبة
ووحد
شاهدين
الهجرة،
زهد
ملاحظات
وطي
فيمتنع
والوث
الحام
المعنية
المكسي
موصول
وازد
##تيح
استبعاد
مزاج
ركعتين،
##بيري
يستشهد
علمته
الأزمان
نسيئة
الوريد
##ردن
الأدب،
المسيطير
يمنعون
تحققت
##ضرار
##وطنين
##من،
##عارات
أمضى
لقمة
مرافق
امتد
التجي
البر،
احتجوا
مشتقة
الإقت
لأص
ستار
##ينيين
سرقت
فأتت
العذب
##رحيم
دونك
حملك
الأهوازي
جليا
الحوير
مريم،
مؤشر
الزمن،
واهت
المضمضة
##ارقه
##يبها
صحية
بمنطقة
الغرباء
وفقكم
غراب
##وحي
##ليح
السمر
##يبس
الطحاوى
قفل
##فاسد
الزراعي
بشرية
الستينيات
جاهلي
السعة
##نيب
مالك؟
والنفقة
سعدان
بالعهد
الميكر
العلوم،
الملايين
أزواجهن
زح
غلاف
القواد
الغلا
قبضته
مجردة
يرحمك
الطرس
ذكري
الجويني
وثانيهما
شائعا
تأتيهم
ماجستير
فداك
بضاعة
التائب
الدرب
يعكس
يتش
الحديثة،
ركنا
المعتدل
عجزت
##تباع
الفشل
الطوفان
سداد
يكسب
دعاني
ينتسب
يثبتون
بالصفة
حقيقيا
الرفي
دمياط
إصبع
ومدى
##عيفه
الأسس
إقرارا
مرتين،
وضبطه
يغتر
##امح
وتعليق
سهولة
لمساعدة
##وزه
تحديث
وليام
لتر
الأعذار
##يوبيا
أقرع
الخزاز
يضحي
التراخي
والصلح
أولهم
الإتمام
وضمان
الغيوب
البيضة
##ظيفي
يفترون
الأكبر،
قاتلهم
##سور
##ثلي
فقعد
##افير
ويتكلم
إليهن
صيامه
للسر
المحنة
لعلة
التفكر
أوردها
بالفضل
أوسق
الثمانينيات
استعملت
الإسراف
الوسطى،
جهده
أنواعه
بلقب
دأب
العديدة
الحاصلة
استند
وحذر
تقضى
##وتهن
للقلب
وتقر
فاتفق
وتقديره
جليس
##ائلهم
للوارث
##يابي
يتيم
فتحا
مستعمل
وفرس
الخيول
القرشي،
خاتما
للمك
بتهمة
بشبهة
التعريض
##فارس
خراسان،
حجت
الكوا
##كنها
لأهلها
الأفريقي
العبث
فنز
إفراز
ويعتمد
غزاة
والورع
##برون
فأبوا
تطبق
الدستوائي
والخطاب
##وعت
وحسين
بربه
حلها
منفرد
المجرور
نان
##لله
##يفه
رأسهم
تقتصر
التذك
بالرواية
جمهرة
وحساب
الباقر
حبذا
لقبول
الانسحاب
الفقيه،
وراح
وسرعة
بإل
ترمي
سوم
فغل
الخاف
عمري
وخاص
حاض
الإساءة
بالأل
متطلبات
توليد
السالكين
إزالته
والنظائر
بالوطء
والفروع
وغم
عظمت
فصيح
ويجلس
بالأع
المعمول
والكمال
منافاة
مشروط
المستحب
خبي
صلت
##ضاب
القف
اعتاد
يعتذر
البدو
ببعضها
وشيء
وبحر
وحركة
يستهز
والشرف
##نبى
إخفاء
راغ
توبي
الأيام،
الزمنية
أسرته
بوين
ورمى
##ميرا
بوز
الأليم
الرضي
##ياما
لقراءة
يلد
والفرس
وأريد
##ائلها
الجوائز
الخلو
شبهه
فقها
ومدح
هيبة
للسائل
زكرياء
المساعدات
بالرسول
تذكير
بخارى
نخبة
وألزم
ومب
انى
يأيها
فاستأذن
تحمي
للتأكيد
زب
والحرص
لفظها
تيمور
عزيزا
تفي
##يلين
##ودت
يدى
مضغة
ومسألة
بلى،
المعادلة
فشد
الينا
بالحر
الذكاة
استهلك
زعمهم
موقعا
والإعلام
##يمات
اختصارا
الصغير،
##سلها
الخفا
الطاع
المعطي
للمدعي
امرأة،
الإعلامي
معتمدا
##خرجه
الضال
بإزاء
كسرة
المفاوضات
ضريبة
لفتح
الرشيدي
الأمثل
محلي
##وح،
جولة
يضح
##جرها
##طلقة
فكشف
التكلف
ناسخ
للآية
داعش
بقدرة
##سبت
فمنه
أرسطو
رفق
المطي
ومهر
يصيح
الوضوء،
نيران
فأردت
برماوي
متقاربة
فارجع
والتنمية
مقامات
##ونسون
وداع
حركته
غفار
##رازا
النجف
أنكرت
النبأ
أمارة
فضح
المقدرة
إرساله
كارت
##صلات
القهار
##حادي
حديثهم
زوجك
للشركة
عنترة
للنف
وتميز
المنصوب
ساكت
الصالحين،
يصيبهم
الانقلاب
يوش
بالما
##برى
استحل
تجا
ويتجه
وأسقط
حريز
الخنثى
تفعله
جمة
المراجعة
##شلونة
رفقة
غنائم
##انيت
##رى،
كالر
بتركه
تكمن
##تاهم
فاحش
والطبري
بقاع
##نبور
معتدل
سائلا
عوق
وولا
بالور
بالجن
مدعي
فاتت
طغ
يهل
رأيتني
فأنى
ويستعمل
فرسخ
للنشر
##راقه
مختصة
الكهنة
وبداية
درجته
##غته
بالاج
القهر
محضا
والساب
فجزا
##وديوم
لآية
اندلاع
ماهية
التغييرات
رث
##البه
استم
المناظر
خصومة
براون
يفقهون
الطبا
##رادى
مضار
مرضاة
معرضون
تايمز
##خون
الثل
دخلا
الرأى
أقصد
طفي
بالنيات
السداد
ونصح
قارن
فانظروا
وعرضها
قضائه
فيقبل
لأش
وتأثير
##أرة
##ثناة
وأصدق
يعي
يجزيه
متميزة
تسلسل
والتكبير
شعاع
نكر
##كوس
والنسب
##تيني
لحساب
وسبحان
حذو
يحضره
الأندلس،
شبابه
وبالاصل
القفا
يدوم
##صوبة
للبا
وهبة
وإحدى
محضة
البشرية،
ونهيه
القشرة
تاركا
اذكروا
ديز
فمس
نفت
##خارف
##ديقا
الوع
والقيم
المعنوية
غيث
لمزيد
##دامات
فأصلح
مهج
فالمقصود
الاستغناء
مخلوقا
وشهدت
أصواتهم
نقاش
التزوج
فهن
##باتها
لفقد
الملتقط
ألقت
عاتقه
فتوفي
##دعوا
شارل
تذر
زان
ظبيان
وعلو
ونبه
المترتبة
##كاما
مكش
يلزمهم
سدس
ذكاة
بإص
دخان
السموم
##ساتين
الأوروبيين
أعطاهم
مؤقتة
وغي
والسند
الخاطر
والشيطان
وتذهب
الزهرة
أصي
##ناهى
نزولها
موتا
لوم
##أين
أتبعه
##عمري
عميس
العاقد
منقذ
الفحشاء
##ذونا
التحمل
الرقاع
##عمان
الشعائر
بقيام
الطلا
المحس
ببساطة
فقتلوه
الكافرة
الفصاحة
تسيطر
تنقيح
يرثه
بالفضة
فطلقها
الأعاجم
وأدب
الجيدة
الرداء
والعرف
للأمير
نترك
الثقفي،
بزيارة
أبه
العشق
وكذ
تعنى
والتوفيق
خيال
والقصاص
المجروحين
آذن
الحصاد
لاهل
اللفظ،
مؤقتا
أبوال
تمضي
والهداية
سؤالا
المتعارف
وتوقف
رسولنا
الآش
تنوع
وثب
سلاما
وأرد
##وياء
##رخاء
وادع
شرعا،
مسبقا
معتق
فاكهة
تشكرون
صدرك
اشتدت
سلطات
والغناء
توكيل
ماؤه
رجحه
فاستغفر
خليف
ريد
ميكاني
متميز
المكونات
التغريب
التخصصي
والار
أنفذ
الزبد
سيطرت
مقطع
هبت
القرط
حقك
الاندلس
وطؤها
##رابط
بالغسل
فالاست
وأمسك
إذنا
الكثيرين
ليشمل
أغير
مخص
يفعلها
##تبعون
الخطيرة
والصرف
وتدبير
رقة
دوران
##اشع
يحملها
ساه
الاغاني
الزانية
وعندنا
أوامره
كبشة
الحلقات
ضاح
بالسين
والأدلة
الهالك
يسرا
##عداوة
ذميا
العنا
##امرات
الشحم
الشذوذ
فتركه
بأمان
نقصه
يجتمعان
يناله
اعتدى
ويلبس
مرسوم
المعدات
أسفله
تخفيفا
علمائنا
بحت
##خبين
الخطيئة
متف
بماذا
##وابق
صلاته،
المأمومين
وكرمه
مائة،
احتياج
##رفات
الطري
والعبر
بجيش
يموتون
وههنا
ليأ
الراحل
والإد
حابس
وضيق
##هاة
##ابقات
للظ
يطيب
ورأوا
ثقيلة
ينجو
قتلة
يصحح
تقلد
السهر
أسما
المكية
يفهمه
فتاب
##غلاق
ويقصد
أدرج
مصاف
المنتشرة
إهمال
افضل
برجال
جلالة
المزمل
استدلوا
كآ
المبعوث
ورغب
حبيب،
العنصرية
قوتها
##وهو
أحزاب
يكلمه
صواريخ
##ثها
الموعود
##وندي
الأمعاء
بالولايات
يقذف
فلوري
يستجاب
قعر
قضاه
بنين
أنطاكية
للبي
أخبرته
جسما
مقصد
النميري
ومجموعة
المؤمنة
##وار،
يقلد
مأمورا
##ليج
##بوغ
وتوا
أكانت
وتوزيع
##قاس
أقمت
لكنا
قحافة
العزلة
العصاة
وأحر
الجدران
للعباد
##حيت
ومراده
ينمو
فعله،
بالعرف
للحركة
والاستدلال
يلعبون
أحدثه
##نسوة
عشيرة
الممتدة
الأغر
للفي
##وله،
وسلم؛
وسماع
بطرف
يسمونها
يضربون
المحارب
اتضح
النوازل
قاع
سعيدا
يؤتيه
برحمة
بالخاء
ويقسم
المحاضرات
##فاحشة
تعويض
غدوة
ضاقت
كفيل
ابنتها
وعتق
أبوي
##صباء
عباده،
حريصا
بطي
##كانيات
الكنا
أ،
للشار
الآبار
يشاء،
انتقض
الأشعار
وأربعمائة،
الامتثال
بمهر
وصوابه
تفوت
##جاهد
الآونة
نسمة،
جمعهم
تؤكل
وتحول
فعليكم
##ضات
معونة
يتخير
والشريعة
##ذائف
لولد
هبته
ولايات
عظيما،
نحكم
وإنشاء
استعان
##جبين
والاج
أخوات
مسبو
لأربع
التنزيه
الشعبي،
الزنادقة
تفسر
الجذا
للجز
بشع
##اقبة
وستمائة،
واعتبار
والمقام
##وضه
عدمها
عضوية
المعيار
نهب
المضل
بالجد
##حداد
حملات
يطبع
مضادة
مضاربة
يأمرون
أطيعوا
لونها
بالبحث
##افهة
##تموهن
ولكي
بالترك
والشك
الرمز
التحقيقات
البروتينات
عمت
اسمي
تركب
عاجلا
إصاب
مكرها
يلقون
البصرية
فولي
الحلة
سمحت
استحسن
يحكمون
الكسرة
جنت
غور
لأست
مواضيع
تغلي
اليرموك
والها
##شتم
تأليفه
الضوابط
فرقت
والاختيار
فارسا
نهائيا
رائع
##جعة
ويمر
وندب
لأف
بيك
علمني
أفأ
مخاطب
رمزا
مغازي
السنوية
بصحته
للقتل
وبري
تصلى
الحكومي
يطلقون
التدخين
تحسبن
ملاك
الشخير
منسوبة
نازل
آس
الإحصاء
لحكمة
ذاتي
وغض
فحديث
شهر،
##بئكم
الخوارزمي
قين
##صرنا
اختارت
بزوال
اعتبارها
إحضار
حتم
العرس
وقذف
مأذون
البهجة
ضريح
فكثير
##طلاقه
تتأثر
وطبعاتها
الانتخابية
توات
شفيع
المات
الإر
وإكمال
الدينوري
وشمالا
يعنيه
قضاؤه
الشمسي
دقيقا
ضالة
##ائين
##يتر
مثلكم
فتزوجها
وحقق
التكلفة
##ضطرار
رافعا
##بونا
فنهى
اكتفاء
أفع
أرزاق
السيرافي
نسوا
عزمت
أثواب
صغره
تختار
العنان
العلائي
##صحابه
قلوبهم،
ينفعك
يسرع
الفلوس
اطمأن
تهب
حشر
لبيع
موجهة
الرئة
ينش
وثياب
المدافع
التفات
البوي
القطيعي
سارق
غان
##نوي
استيلاء
والإجارة
القتل،
الزواج،
##ذوق
وقوته
سيره
توظيف
##قسام
##ارون
أوقية
والقوم
هاشم،
حارة
والشرق
وشمل
تكرير
يئس
العلاف
تعكس
ومنطقة
##عاقة
والإصلاح
##صارات
المحيض
بنقد
بالتزام
والسك
بصنع
كالمت
مركبا
فأحضر
آلاء
الاله
##جددة
لمنظمة
يظهرون
الملتزم
##خرفة
إليزابيث
لوحظ
##زايدة
ثانيها
رائعة
ليعقوب
السياسية،
فسئل
أرضعت
بوصفها
البوصيري
موات
##خنة
فتصدق
نصرا
الميسر
وينسب
خاطر
بالرق
##روقة
والتوكل
الخطية
أتدرون
أخره
مقاعد
خروجها
الاستعاذة
فهمت
اكتشفت
يضطر
الغربي،
زائدة،
ينهض
معالج
احتلت
المفكرين
وتركها
فاروق
الرأس،
مناسبا
فريدة
حوائ
كرك
الوراثة
أرخ
صورتها
ماهر
الزهراني
بالقد
##حاقه
فأسر
المعافى
موجات
ران
أدراك
انتشارا
امتلاك
العيال
جدران
##اءه
##ياهم
أوكرانيا
##جعه
منحت
الكشميهني
تستند
برف
الراد
والاع
المتشاب
أدائها
والثلاثة
يهن
الرف
حديثين
الرقمية
كنية
##سبات
وصلها
جعلا
محاضرات
والمرض
راجعة
يتعبد
كاز
كنه
وبالح
سنتي
كثيرين
والصبي
أثم
أشبهه
بصرف
نعمتي
مرفوعة
الافتراض
بالصدقة
ويخت
ومكر
##سبير
وقتنا
القبلة،
للموا
##جمية
والمعاني
تهلك
##اليات
##وصا
مصرا
بالتفصيل
أنواعها
كسرت
الرائق
للمعنى
موهب
##فاها
المدلول
سلول
مزية
ائذن
برسالة
ضربات
سكينة
مجردا
تاي
وأذكر
الكور
الشيعية
##جدون
اعتداء
بالتف
والغسل
بالموصل
وعندها
الأكثرون
المنة
الموث
##فتر
والتقدم
يستحي
##بطت
بالنصف
الملعب
لبست
الواسطي،
الاكتشاف
ضروب
لحمل
الخث
استك
وساد
فالث
الانصراف
جعدة
نرجع
الشمالية،
إنسانية
الممتحنة
تليق
##وبرا
لتعلق
تسجي
القبور،
الكروم
الرحيل
يته
الأرم
وجر
ومكث
والنص
بالحجة
التأكد
الأثري
لائم
يقنع
##بت،
وسلك
يسود
تشويه
كذابا
فحبس
بالاقت
مستثنى
تؤمنون
فراسخ
عراقي
##طرا
ونفخ
المنقطع
ورمي
بالكل
مستهل
فليأت
انتخ
والدواب
ماء،
مأكول
وجاهدوا
##فارا
يراعي
ت،
لاين
الدعاية
##عملها
اللامع
##فيا،
##تيانه
ونن
##تقار
شخصيا
وعندهم
ظاه
الحسي
##وكو
الجوزاء
وقاموا
الطمأنينة
والعلاج
والدكتور
##جتها
الكاري
لكمال
أرضهم
محمية
وأقوى
تلقت
تميزت
المقصودة
نحا
نتبع
الدروز
وكعب
##ضايق
متشابه
بأيد
##جار،
بالنقل
زيادتي
منتشرة
المغيرة،
زاهدا
عمران،
الخصوصية
مباركة
مرجح
والتربية
منة
المئ
##كان،
عرفته
لغيرها
المتعاقدين
اذن
والرسالة
##ريما
النديم
تعصي
##قاها
إبط
كلامه،
أفضل،
تفعلون
والقرى
أوهايو
ارم
بينات
إبراز
تركوه
ألفت
قدرات
أخفى
أصالة
الشريفين
لحاجته
المحاربين
الرئاسية
يان
بالقل
وتوفير
تقبيل
الانترنت
المندوب
والزوجة
فتد
والعناية
المواشي
سألوه
حذرا
المفاصل
وارتفع
##بايعه
الخسارة
الإيمانية
وأبرز
فأظهر
وصحب
زيادات
نقم
والجه
الأبار
أبيهم
ذكرك
تخزين
أطلقوا
فوالذي
المباد
وعباس
بالإحسان
لحال
##يلاد
معالي
والحجاز
فرضية
أبدل
تبرز
الرطوبة
والسا
والأمانة
المستشرق
والدال
حذفه
شجع
##لت،
المرئي
لسيد
لبنان،
واختلفت
مسؤولي
دعواهم
فأصبحوا
##قيل
ماضي
عقوب
الشعار
بالاس
للشك
##ريقه
تكنولوجيا
وبرع
##سيوم
الاستهزاء
نظاما
والسلامة
##فاعته
أعدائهم
الفاسقين
والمدارس
ومعنا
حاله،
الرجلان
إقناع
وفعلا
سادات
مضيق
المنى
وقاتلوا
الأحلام
وسيف
الشرقية،
يلقاه
وولاه
##كم؟
علان
اعتذر
بالتش
شئنا
نسبت
فتدبر
الامراء
آلهتهم
ومصالح
دمع
زانية
تنج
بغلة
بالحسن
وردان
محاكمة
ببطن
الزركلي
وأحكامه
الاكثر
وإسلام
أشجع
بطاعته
بشرطه
عادتهم
هدانا
الموالية
دبره
##شال
##ربته
بشك
حكمنا
كافرين
يستخدمون
فيؤخذ
البروتستانتية
الحو
جزئية
الريان
الأهلي
##قاويل
فتصير
المقبوض
بهمزة
بيانها
سافرت
ذهنه
رخ
يراعى
الآلية
وثانيا
##بطه
السجون
الفلكي
مجاهدا
فراغه
قسطنطين
لعباد
##شوش
المبدع
##مامته
تطيب
العملات
والمنطق
قبضت
وأهلك
جذيمة
النقيض
كفة
##ثت
##ثر،
يبعثون
ادريس
فيضع
مصورة
سلبه
الصفراء
بثبوت
الأحكام،
بيوتا
عقيدته
الحويرث
القلا
وترجم
يعهد
الطحان
المؤدي
بالمصدر
رأيتهم
وجزء
مطبوعة
يقصدون
خداش
آتاكم
وربع
الكفن
اعترفت
التشابه
الموضوع،
واشربوا
فندق
الموز
وتوحيد
الطرد
المنقولة
والقواعد
بفتحها
تهدي
موالاة
وديوان
بالهاء
تشكي
هاجروا
مبعث
مئة،
##ئي،
الماهية
##ناهي
تشر
الأرقم
بالعتق
ومحمود
النادر
##عارا
يزا
لإب
الميت،
تميم،
لقر
فقصد
##خاطر
النهوض
المريخ
تكييف
منحة
الحضرة
##كنز
الويل
امرىء
قاموس
تفصل
بالكثير
##يقاف
منعهم
##سهيل
مجلز
يوقنون
وشذرات
غربية
##ذله
ويعيش
العميق
طوافه
كورة
معها،
الجليس
والاعتبار
السفير
الأبنية
##يلت
وجبل
فعلة
مواصلة
قصبة
أعطني
رشدا
جاع
نلاحظ
التساوي
الإنزال
أسقطت
عليه؟
الردى
الخريف
ومقر
بالتج
والمجاز
##قاومة
وانتق
الصفدي
ويستثنى
لمعاوية
لتأكيد
الدعاوى
عريضة
لته
الرملة
الباقلاني
النبوة،
التغابن
مسيحية
العذراء
رداءه
أنذر
الأكرم
##ائخ
##وبها
والموضوع
بصيام
يزوجها
المعنوي
بلت
جرجان
فاتك
مشتمل
الأخص
للحر
واوا
##بتر
##شيه
والتقى
##ضمين
الأقلام
ءا
##اباة
##رج،
بأنك
والحذر
جدوى
العاص،
بوال
الممات
القرامطة
تحذف
نجاة
بتنفيذ
مخاطبة
لحر
##ظب
تعادل
الرحيم،
زالوا
لصاحبها
المحققون
وسقطت
تير
فولى
ولكنك
امتصاص
وتتكون
واشترى
الاحرام
مسئول
اولا
##ذاق
العطية
بعضهم،
المطعم
العنبر
فأعطى
الاشعري
ضيقة
إهلاك
##سوة
##مسة
بسيف
وتحقق
يصفون
الشحنة
سويسرا
رمت
##بداد
للولد
الدان
استماع
أحال
داخله
وتنفيذ
وأجازه
ميراثه
أضحية
أقضي
عبدالحميد
يطمئن
فقهية
الزهرى
وعمه
##شيئة
فالحمد
المخصصة
بالوضوء
للزم
للواقع
فأهلك
##سبوا
مختارا
ونفى
بعضهما
كفاه
الكثيرون
نفيسة
الرشوة
##الط
##وصوف
برئت
ويتكون
امرأتك
الزبرقان
فاب
أكثم
والدول
شرفا
الرمال
حيضة
الخليلي
يسيطر
وتعاون
وحض
تحال
مخنف
مناط
دبل
قصرا
للكل
تعترف
لحمها
ازدياد
الفلاحين
الدواوين
##شتراط
والتفصيل
##كتهم
المؤجل
ممارس
المستحاضة
بغسل
التقاء
والطواف
واتصل
خلوة
محمولة
كيوم
والجمعة
ساروا
المباحث
##يعه
الأخطل
##جزئة
التحري
يقوموا
رئيسيا
حرمها
حلفه
الاشعث
سمو
الشجاع
##ته؛
##زاوج
علوي
المعتادة
والرغبة
وصدقه
متفاوتة
وتدخل
مؤثرة
مهرا
صاروخ
التابوت
لفوات
النوم،
المكونة
الجيران
متسا
ورخص
وطرح
السابقون
النسا
تنظم
حالية
محمودا
بالجملة
##باذ
##يمها
##تم،
كالل
زوجات
وجودا
المحدودة
مرم
##لتنا
الإشعا
يتطهر
البيزنطية
بعباده
ثوبي
يتاب
حمدي
لنفي
نقضه
بقراءتي
إقطاع
دوي
عيار
ورت
##ونز
وتأخذ
انسان
نسائكم
والسلف
جزاه
نقوم
فاستقبل
##طارد
الملحق
فرقوا
الصليبيين
والموعظة
اللوحة
المدخول
زيارته
المسودة
والعز
بشارة
خلقة
اللائ
##الحة
إنفاق
##صرية
بأني
مستعمرة
##زويج
##ائل،
خطابه
ووفاته
خريطة
مذكرة
مبعوث
##بوله
للقول
ويصلح
بالخلق
دس
والغم
العصيان
وألق
لأد
المشا
درء
كمد
##صاق
##واخر
الذوق
تعس
والنذر
لسائر
مجنونا
نير
القاهري
ليزيد
المتدا
المزاج
هاتان
##لايا
الجولة
وتصبح
أمتنا
أعطاك
##وين،
الإجزاء
بهي
متكلما
الأماني
كالمع
بكف
الجزع
حبست
فأعاد
فدعاه
تلبية
طيران
اللف
والوص
أحلف
تكساس
##وائهم
شرحا
##خاذه
المكي،
بديلا
والشيعة
ملامح
يبتدئ
##وكله
ودول
تعرفون
الجنايات
ليحصل
السائلة
يتفاوت
##يامين
تطير
وثمود
أغلظ
صحاح
مقه
##ذهل
الصالحي
منشأ
المديون
ويرضاه
أسبابه
الرسل،
أستاذه
وأبان
عمرك
ومنح
##تابعات
بأش
بمجلس
زيدان
المأثور
الحصون
الكفارات
سويا
المعمارية
لحزب
يبلغوا
هاجم
الزرقي
ونال
مقالا
وصفات
النباتية
يحفظه
##غضه
التروية
وبينا
فأست
بصدقة
بقائه
فكنا
مهين
المفوض
البخار
مشركي
ضروريا
##مبراطورية
بالتقوى
انتفع
المقرىء
يتركوا
يترجح
بأجر
##وطنة
الجانبية
##اقه
فيضرب
القهوة
تعالج
الطاهرة
وإج
متعددة،
أخلص
عصي
التوتر
الصفي
وبار
الهائل
استحقاقه
##تحاف
فكرية
المنزلية
طهارته
العط
لإخراج
وضعته
بالدراهم
دانيال
بالمل
الفئات
محنة
إبلا
دينهم،
كتبته
##واعظ
أبدى
الصواب،
##رافيل
وألمانيا
وبغض
مصم
جيو
الأملاك
مستور
تركتها
يأتيها
يمنعك
مقاييس
غنمه
صاف
فوصف
وموضوع
المستحيل
حقبة
وتمثل
فوجدوا
للرئيس
ريبة
شريعته
عونا
##زود
##ياحة
##ذلان
صرفا
##نا؟
القوق
للمض
مؤنث
تزويجها
##ورانيوم
هاب
##ثهم
الخفاء
فأرسلت
سنقر
الهمم
ليلته
تخصيصه
قابلا
تحميل
الروحي
أديبا
وعت
المنايا
فالحاصل
وأعل
الشاي
الاخرة
فعول
##جاهل
واصط
مسيرته
تهن
يتحرى
حاجز
التضخم
مزدلفة
سرك
المشابهة
##طففين
أطباء
الأعياد
الكرا
النسوية
والحفاظ
مزينة
تقييده
لوقت
##هية
والخاص
تفويض
فقدمت
##فله
##ولدة
وإياه
##رابها
بجواب
##غلوا
##خلفه
حمارا
خارجي
المتصوفة
احسن
لتفسير
جعلوه
##عنه
وعطف
وأنثى
مدبرا
الفاحش
لفضيلة
الكندية
لأنني
المصطلق
##فضوا
ترغب
الصافي
مكروهة
النبيل
##ريقية،
يلبي
اشتري
وغز
الفقهاء،
بادية
مال،
وعبدالله
فخالف
وسرعان
إساءة
وشراء
مرشد
ورسالة
خلفي
افتقر
الحرم،
المغيث
تحرفت
ورهب
اشتمال
##برياء
ووط
##جداد
ثقاف
منزلت
الغزال
##جيرات
الأدوار
توعد
فحملت
الكوك
سمعة
إبراء
أحرى
دوائر
وإرشاد
الانقياد
بالحب
يعتقده
تعليقات
وابراهيم
لنفسها
##جلو
##ولية،
والثبات
لساني
ربكما
بالضمان
بالقب
الدرة
جزية
وعملت
##راكا
لاجتماع
بالحد
##برها
أصبع
قدمته
النظير
ناجي
ماركس
فبات
والبرهان
##روسة
والباطن
يقابله
رئا
وناب
الدورات
وعقبة
وجه،
##طياد
فحج
المفارقة
وقدرة
والسكر
##حراف
##ثلت
الدخ
الهوائية
مقالته
فصعد
للشعب
مجموعه
الداخلة
إرها
فلبس
الشراح
معقدة
يقصده
وعلامة
##قدون
استل
انصرفوا
بأحوال
ورفعه
يحفر
بشق
مساويا
المعتقدات
والعلة
المصنفات
المخاطبين
لفساد
بالخل
ومالي
فالب
لإجراء
عينك
صلينا
أدركته
ثوبين
تحدثت
أرقام
حور
نأكل
بالفقه
ذاكرا
الرياسة
رسوله،
رحال
الأحوال،
لإنسان
##حاف
ويكت
##هرم
والأوجه
التسهيل
يحاولون
دالا
##ومأ
الدمام
أعلا
والنفاق
إلخ،
وكلوا
يشهدوا
فتبسم
والأفكار
##كريم
##صبه
##قيا
التلاميذ
##قدها
بحرب
يخشون
اتصف
كوين
التطورات
##بلي
المورث
للعام
الاجماع
##عيذ
##وزراء
دارهم
أسباط،
فشر
ماعز
تسهيل
الانضمام
والبصرة
أعماق
يسقي
##زا،
آلاف،
كافرة
خطبنا
حصاة
غنام
لتوفير
تأملت
والمحافظة
##كيا
المكون
انفصال
ليله
تحصيله
القادي
أوليائه
المحاولات
شراحيل
الفلبين
البكالوريوس
وتلقى
الثمن،
خرد
معلى
الصن
لمصالح
اللورد
##قاله
##هلكة
لتنظيم
شقه
مفسر
وتحرير
والقائل
مواضعها
رياضة
منفردة
##زيا
يتخلص
والتلف
##شاشة
شعرت
السلمي،
والإعراض
ضن
##ثة،
ولرب
وطني
تطالب
بالعديد
##ذهبن
وسخ
المؤس
المحطة
ليقولن
غريم
ولسنا
تزكية
جنابة
مقتضاه
يكتفى
حيال
لعلها
قومنا
احتجم
عادتها
والتعظيم
عمار،
تمرد
عجزه
يهده
التضعيف
##راجا
##ولندا
##ريحا
الذبيحة
وتما
وبصره
فاخرج
رحمكم
وفات
ترجي
لبعد
بالغين
ريحه
طيور
أقاويل
الآلي
لأرجو
المغنى
خيركم
تقدمها
ممنوعة
هداهم
مسطح
المسكن
##وريت
ألفية
يغلق
وأعطي
الحاجة،
جنسية
فشبه
مبال
##قصا
برشلونة
امرأت
الشعثاء
مرضية
وتضمن
##وتنا
لأق
برزت
صوره
تراكم
الغزوة
الرضوان
##جعا
الثقل
ماليز
بتفسير
طلال
يقرع
وعلة
المنصف
أدوار
وفارس
##وما،
لإخ
نظرهم
رغبته
##درائية
الاول،
تميمة
أرضية
الصدمة
الثلثان
تقريرا
العاطفة
بالعا
يدريك
ولكنني
حدوده
الوليمة
الأتباع
وبأنه
فعليها
والإست
والسما
##جارب
باردة
حمود
وماتت
الأهواز
##نسيق
##لميذ
السالفة
بهجة
بمرا
إثباتها
تتعامل
محذورة
إين
اطلاع
والاز
التوص
##بهاني،
عدالته
المصورة
المدل
فجميع
أفيدونا
وأسامة
وعلينا
خفيفا
بالأز
المضط
تخرجه
حسابه
للدراسة
بقدرته
##روبة
هاربا
تقديمها
تورث
##انوس
الموات
ومراد
ويميت
يبرز
##واكه
فاقبل
##يعلى
يسبحون
والرجاء
بطانة
وأمام
أوطان
والتوزيع
تأثيرات
بروايته
ويتخذ
وأعراض
مفردات
ببير
النابل
اللصوص
##ضلع
وفاته،
لقياس
حكومات
ألقيت
الثقات،
فطاف
شقيقة
مده
والنظام
بسقوط
عتقت
نكاحا
روابط
بالسلاح
بركعة
لعنهم
##نيمة
متقار
##وهي
فتخرج
حديثه،
العامي
بأفواه
وخلص
الحقل
قتلتم
تطرح
للعقد
هجرته
معرفتها
ناقش
ذاته،
لبشر
ويشكل
نافعة
يكتسب
ندوة
حجاج،
البحتري
حفيد
والبحوث
##تابه
سنجر
الأخوات
القدوري
الأقضية
النسائي،
الموجة
نفذت
ثقب
فسمى
قه
انفسخ
فأولى
والمأ
تأريخ
هندسة
العكبري
تراهم
المعسر
جهدا
غزية
صوتها
الصاروخ
ليحكم
والعزى
البدوي
أقرانه
اصطفى
البخيل
##وهم،
والبق
##امسة
أوك
يحوي
أبنائه
عاين
إيثار
ساقها
تنازعوا
##كبات
الميناء
المسروق
##دتان
والكفارة
##ظيمات
الشبكات
ذبحها
ولغيره
وأمكن
أردتم
نهاه
الفاتح
الزهراء
الشفع
الفهارس
ويعبد
لصد
الصلا
عمته
والكلب
للقوم
الثقلين
ينفصل
##ذرين
عزت
وآدم
وذم
وحملت
أعمدة
الكويتية
اليشكري
ساجد
ولقب
الثنائية
##يبين
والبغي
امتحان
منكبيه
والأمراء
تدرون
الشفا
تمامه
مائدة
حاصلة
المهيمن
روك
المقررة
الفاتي
الدواد
عاطفة
والقوانين
الدولية،
إيم
##سعت
ويكبر
قومها
احتراز
والرحم
مؤمنون
هكت
##بيله
الدراية
الإسماعيلية
الجليلة
بأربعين
مواقيت
الرواية،
الانفجار
اختي
##لفين
بهذا،
وينهون
فصيام
لثلاثة
##السيوم
تسبوا
ديل
##رواح
##ودته
الإرادات
فالبيع
ضربها
رحلات
السوفييت
زوا
غاص
##وضحه
وانتشرت
والمتأخر
فليتبوأ
أحمق
واتخذوا
مابين
وتعود
##حيرات
##وائها
تفريع
عصم
الذهب،
عاشور
##كونن
أعور
حديثا،
الأسقع
واستقبل
الاجتها
والتأخير
والاجتماعي
فتاويه
القيسر
الفري
بياء
أفادت
والصيد
سلخ
إحساس
الاختبارات
بالأمور
جزيئات
كاثولي
التيارات
وقات
وتمامه
بمختلف
وأعجب
ومرت
بضعف
عهدة
محمل
##فيون
وعظيم
##جزت
يشتبه
الهولندية
مقبولا
تراج
##حصل
للفرد
موقفا
تعرضوا
ووصلت
المحمول
تضيع
لذات
والنبوة
وتصحيح
فسبح
خادما
ثور،
معجزات
المصرفية
تجاري
برنام
انتباه
جدلا
وبيانه
الصليبي
خنزير
المهدى
##قيين
حدائق
يحسبون
##باحية
الاعتذار
مستأنفة
##راوية
العجلة
المعير
وحصول
اقتدى
المأكول
الجموع
للولي
يعض
يعطون
المتد
أبطأ
التشريح
بالضبط
والضم
وأوروبا
فهارس
##ياق
أسري
والده،
التحديات
احتل
السادات
##واصوا
والتحريم
ألقاب
عاتكة
التخصصات
آذ
رائح
التثبت
الكلأ
تشتري
رحب
المراس
وخع
للتد
وبركات
متعديا
دوق
سقت
##اا
الأشياء،
##شيف
تنبه
دخولهم
وشكرا
بالهمز
شوقي
الدمار
##ويلها
أسقف
تستلزم
الرئيسة
مهلا
الشرطية
الميداني
##شستر
وضوئه
ونحوها،
وظلت
منقطعة
الجدة
##ربية،
والقادر
نظروا
بالاشتراك
غلمان
المفسد
للبيان
والدتها
النقدي
منزلي
لاعتقاد
الاثنان
إسب
ونفذ
الغلمان
يسلط
لكلمة
شرحها
اللفظي
الزيادات
##الطة
والزع
السرد
##افعين
استه
تتلى
يبقي
بمرور
طرحت
الألياف
##طبع
فألف
والمصدر
فعسى
والفهم
راعي
الهموم
معطوفا
نشاطه
ترف
لموت
الإفراط
للسيطرة
المحظور
راق
قشر
فيلي
الطبيع
مستخد
خبرها
موتي
أنشأها
بعلبك
السحور
وحياة
محركات
التشري
أعطاني
بالبحر
يضرك
الجسم،
فطال
عبيده
السوداني
قنت
المهن
##جروا
فتارة
فإذن
مغول
فأعجب
الخشني
حنا
غمر
الجذور
وخسر
نوعها
اتهام
إعدام
ثا
ثانية،
##وكان
الحارة
ماشية
##كتر
المستملي
احتيج
المائتين
اطلب
سادة
غاد
##شفه
##رجا
بدعة،
غلو
وللف
أداه
معدوم
يعودون
جول
وأقيموا
ونفسه
المسكر
القاعد
الاستدراك
فعلتم
##غلين
مطابق
جنوده
والشيء
لأمير
اتساع
وغدا
المجلس،
المجرمون
بنتا
ويرون
ومنهج
##وافذ
تبل
فاجر
قرق
واعظ
حيضا
المحلة
دمها
يعملوا
فضيلتكم
ويوجه
يحتمله
حثمة
إخباره
أنيسة
طغي
أحرار
العالمية،
خاقان
والكنى
##بوبية
وتوكل
متعبد
بدونها
للمعل
اصطلح
تأخرت
فورك
الكلى
وجحد
وجاه
الزبيب
اعتد
عبدالكريم
اصطف
البلاط
رواياته
توكلت
##رقاء
مطبو
مزيج
نبيل
الخري
وأنفس
لقوا
وبنحو
يحرق
معطوفة
الملاحظات
الأبي
##منون
للرحمن
فريدريك
الذهبي،
العليا،
بالكر
##روب،
والتشديد
##متعون
والثمار
الاسم،
للناظر
تود
طمعا
كنع
تنفس
المغت
صفوة
للشريعة
قسوة
المملوكة
بالذين
وأرضا
الجفاف
بلزوم
وزع
وهكذا،
وثلثمائة
بئرا
الخاد
وعج
وزار
والإناث
##قات،
المرزبان
كفرح
وعلمت
بالهند
اندلعت
تملأ
وحرف
ضعفت
والسرقة
مشغول
##فينة
يمحو
اختيارا
ركز
للاقت
ألبس
بنوه
##متعة
آخره،
يرحمه
ليا
##شفع
##زية،
##ئنة
كفر،
صرفها
يبع
##حدار
مخد
نقلوا
واجب،
والضراء
اضطرب
وازداد
أنسب
##بوطة
المقتر
##راتيجيات
المهارات
##ضمان
الفصيح
أدوا
صدقة،
انتظ
وضربه
استئصال
بأصحابه
المعافري
فخل
أخطب
مدافع
يقترن
أجرت
العذاب،
##كدة
التسامح
الطم
ليوسف
المتخلف
أكلم
فعلية
فرعية
##وقيع
الاحتجاجات
التماثيل
يتيح
خضع
المراكب
الحواشي
##ماتهم
عميقة
الإذ
متساوي
نسخا
تخشى
يحدثه
الاشراف
بالابتداء
##يراده
وخيار
تخي
الأحسن
لهيعة،
بأسرها
هادوا
وحرب
##فصاح
القلبية
أمامهم
لشراء
جائز،
والهوى
الحسابات
طباع
فيرج
يسجل
لنقص
أتزوج
الشر،
خليط
وابي
حديثها
تدركه
بمعصية
امرأتين
الشاطئ
النعت
الجنات
يهتدون
بليغ
##باكات
تنصب
جدال
ذاكرة
السامري
حكايات
الأولمبية
يسند
##ضاد
كلين
استشار
كتمان
قسمه
ريحها
شافعي
بالحرم
البرازي
تعاد
يعمد
ليبر
للمساعدة
سابور
وامرأته
وإدراك
مراع
كلنا
بدراهم
الضح
##وليين
والجماعات
الدموع
تقدما
شؤ
##أتى
الأدعية
ولغير
فيهما،
الظم
خرجا
وروضة
المقرئ،
اللمس
خيمة
لرأ
والرض
معصيته
متزايد
يسعون
إسنادا
النحو،
شوارع
وعضو
تلفظ
المقرض
الدراسي
غروبها
بطة
الصارم
المستدل
راغب
قيما
لكونهم
هذي
##طرد
بالوصف
##مرد
يقظة
وتقل
انج
الأقوى
مفتوحا
وارثا
ازدادت
حمران
ظلام
وعزم
يتعمد
أمشي
فعبر
فالصحيح
تلمسان
الدبلوماسية
العقيق
والمقد
يشغله
ستان
عقدها
توافر
سهمه
فنزلوا
سعودي
المفضلة
دراج
والعشر
العدل،
تعلقه
وشبهه
يتطرق
بالقدرة
بالمملكة
قطعي
ويتصدق
بالقاف
فماتت
يفرقون
المنصورة
جادة
فاني
##وننا
ويصد
يعطوا
خارجه
احتياجات
نيكولا
كالمن
بالعفو
يبصرون
المحتوى
قبيحا
وأنبأنا
عبق
المؤثرة
قتل،
نصر،
المحاسبة
##ريز
بالوجوب
##ادثة
يغزو
بضمتين
دراستها
الحطاب
الشطرنج
حجي
كوي
نبين
الفرن
أجرها
رقيب
معهود
وعسى
ينصره
وعدت
برجله
تمه
والحفظ
والخنزير
الرواتب
بروتوكول
عبودية
ومقام
تأكد
الجمهور،
انطلقوا
ومنك
والأيام
وصولا
##تموهم
بشاة
لغيره،
##غاة
وبمن
الآبق
المتكبر
فضربت
تناولت
الشهر،
بحثت
خوفه
الانه
بسؤال
##جابية
واتهم
المذموم
دهرا
##زز
الإسم
وكنيته
وعشرا
وعدهم
وبالعكس
حدودها
أفواههم
يأتيني
المكسورة
##كلوا
انتفاع
خيرها
ورجاء
بوك
وعما
والإثم
قاطبة
مستحبة
شغله
ناح
انخ
اللقيط
تأجيل
الحميدة
نبيذ
يستحقون
الاطلاق
##فسدت
المنعقد
أتمنى
أموالنا
أرواحهم
الأسترالية
وباطنا
صوتي
##غنية
استلم
بشار،
بجن
جنسا
حيوانا
تعبيره
آجر
بالظن
الزب
ليص
مطرد
اقتحم
الاعراب
أعجمي
عراة
##إذا
النقط
بالقصر
النجاسات
فوضعت
لسل
##حقا
والذهبي
بحرا
مختصا
بالسؤال
يشترى
بالمعروف،
اعتقادهم
إرم
البز
##ساهم
المحسوس
وذكرها
وجنوده
الجادة
ولص
أمتى
المذكورة،
أخيه،
الكفين
والمناطق
مسيحي
مسئولية
رفيقا
الذبائح
نالت
فيسلم
التحرز
بأعيان
للتنمية
تعاقب
تثنية
الإيجابية
خاس
ملق
نقب
نبهان
##هاي
فالآية
عقوبات
حاجات
كحديث
بائعه
رشيق
عصبية
الإقطاع
ولاسيما
يعرب
يتج
##ويتها
للامام
وللش
عياش،
ببي
##وشة
بالتب
وقاد
##كتين
فرضي
المفردة
إضاعة
للأسف
طهورا
المؤقتة
##قضاء
##ديف
فتخ
والحسد
بشهوة
قليل،
أعتقها
مستحيل
وفتحت
أسبق
زمرة
طعمه
وقنا
نسق
الاستهلاك
تكريم
الأخلاقي
احتفظ
لمعالجة
صرد
السمات
ويحاول
تعتق
ونون
وحوالي
وليمة
أباها
مسموع
##خر،
عابدا
ورضوا
بفساد
تناس
سعيه
والكم
العلمانيين
##عينوا
بسائر
الغنوي
##تف
يعن
بصريح
وواحدة
زوجت
حبك
إمامته
بالطائف
الرأي،
فيشترط
جوعا
ينجي
لتقدم
مستدركه
فردوه
كلمت
موصوفة
##الرحمن
الحنا
يترجم
منهجا
المعبر
##زيدي
فمنعه
وذهاب
بوي
جونسون
##شته
الأذهان
المتك
سدرة
مملكته
##شية،
تعق
تعجز
فأعتق
إسطنبول
الوجهان
ضربته
الأطفال،
لاجل
السوط
استدعاء
وأنفسهم
بأخرى
تنطلق
أجلا
بوابة
##سفان
حزبه
مفقود
المعالج
ويعظم
يجعلوا
للكافر
الداودي
العشائر
برع
والقطع
الناطقة
##بتداء
الضيافة
بخار
موته،
جنسها
وانتشر
النفوس،
واختص
بي،
أدعى
أنتج
نزعه
لانقطاع
المساكن
وأتباعهم
لذن
يظنه
العديم
بأج
حلفاء
محذوف،
المفرط
الأحيان،
توثي
لكا
التلفظ
##ديني
مستل
وشركة
راضيا
المنتجة
منتظمة
للفائدة
زواله
شيكاغو
بينكما
##ضعفه
الإسقاط
فصبر
إخوانا
المجرم
سقيم
التحسين
يسمعوا
للطبراني
نسيج
ودعوا
معتقدا
اكتسبت
قدام
ومخالفة
والشدة
شبها
لعمرك
مراكش
احاديث
لوارث
وتقرير
أعتقت
تلاوته
متغير
أسره
ستت
كتائب
وسبح
إمبراطورية
عطس
الانصاري،
للبلدة
التميمي،
دواد
والطلب
##راة،
السرط
يعيب
الآذان
البيئي
بحري
فرضنا
ميادين
علماؤنا
تشكلت
بجا
تطف
نما
أنقص
بنيان
أتاكم
جزئي
الحاجز
مليء
انتهيت
عظمته
السول
ومجموع
والمغيرة
والمذاهب
ورجعت
ورأسه
ورضيت
المرات
واليس
الشقاء
##قارات
بغيا
المقترض
قزوين
بأنا
حكموا
السكوني
قتيبة،
عبادنا
صغيرة،
الموصل،
يتفرقا
##غمة
##ينز
السرج
ويفر
ونوا
القردة
التحرك
ودخلوا
آفاق
قواد
##حله
البهاء
ينجح
##قاظ
متوجها
المستور
بإظهار
يكسبون
السياحية
##بايعون
الفرنسية،
##والاة
فأنه
الخطيب،
كحال
يغتفر
دوس
والقتال
الرخ
المنفي
##لالك
المقذوف
الكلمة،
فيبطل
ظم
لفا
التوثيق
هولاك
التصريف
اكتم
حارس
##حاك،
والإش
المهملة،
ضيقا
المرسوم
متكئا
فنام
##شدة
الرفيع
ينتمون
الغشاء
##قالا
والإف
للمرتهن
طويلا،
،،
##راؤه
وعقل
بعص
بصائر
ويستمر
بؤ
والوتر
سندا
أتكلم
الأشقر
جئتم
جاهدوا
هاري
أصبر
برؤ
##تقام
بالاضافة
الهيمنة
اجمع
الصيانة
نضلة
##باحثين
صوا
##ظمي
##قتنا
لكنت
فليفعل
مغرب
المتبقية
الأوساط
تغييرات
امير
بالخص
أدناه
نازع
جدل
حادة
##ضة،
بعلي
فأث
والمراجع
المحبو
##طنها
تغسل
القلعة،
استحالة
يكتف
أفعالهم
وفسره
بالتسليم
السلاطين
ببن
##طيات
الأصدقاء
السلي
القدامى
هدفه
لأمتي
يلبسه
ملكه،
المقدور
خلقي
نحاس
ناطق
مصدا
اعتقل
أصيبت
ترفض
لعرض
والجاه
القسمين
أجمعت
وذريته
الحضارية
أندادا
مدارج
المقدمي
التأبيد
والسادس
##ذاعة
همته
والفلسفة
يقبلون
للصواب
فرم
قانت
الرعا
ولزمه
##فسكي
بالمسلم
بالإمام
التنسيق
مركزية
وتحتوي
##ذني
##لكية
الحوائج
أكفر
للمنت
فالوجه
النبوية،
يمنعها
الهائلة
اربعة
قرم
وأنى
يؤت
انتبه
اثبات
مخلص
بالإسكندرية
إصب
الالب
والعكس
ودلالة
##ذبحة
والثمن
أزواجهم
قانونا
فحرم
أخوف
متواض
##وازية
الإيقاع
انقراض
الطاعة،
خبزا
النفايات
آمال
##ساسة
بطبيعة
للنص
فالمت
فيتعين
شاهدان
وسلطان
للمسلمين،
العقيدة،
##هق
##غمت
الفوقية
واغفر
والنذور
بطيب
الزوج،
يطرأ
##لوكم
التصغير
والتعريف
##ظة،
متتابعين
يمكث
تأذن
خاص،
كرز
حقوقه
فأخبرهم
ستيفن
فحمله
##فرنج
والعسكر
رحمتك
وخاتم
مستدرك
قبالة
لقرب
شعبي
شديد،
التغليظ
وبكى
يستيقظ
الاسلامي
السكاني
تطليقة
كورت
الباد
##فرده
مواسم
برده
بذله
الإسناد،
ارك
##مرية
الناش
والخضوع
نظمت
##قضه
ويؤثر
اسلام
ظبي
الأثناء
أخلاقه
الشرعي،
فوضعه
ضلوا
وده
الحري
وإسناد
فترد
بمضي
بتعيين
والصي
المنتديات
الانتداب
المراقب
المتميز
لتحقق
فانتهى
بالنسب
ببطلان
المرضية
فأقبلت
متقدما
توي
تفيض
##خانية
صلبة
النظامية
غنما
غسلها
آليات
وإرادته
ورعاية
الأرضين
رايت
ومسلم،
قارة
ومناق
##فاوض
##شا،
بالكلمة
الحكوم
يردون
##زقة
وتجوز
أدائه
والمشاهد
والمجلات
أثير
تشرع
معنيين
الكشي
ونشرت
والسعادة
خوط
السائق
اللطف
##ذر،
لإظهار
قائلة
كلهن
التأثيرات
فاقتتلوا
حريق
يفرد
الوصال
وإمكان
وانفرد
مؤثرا
##ناعية
أشهرها
محرر
يترب
##واتف
فأعطاني
وخلقه
المنظور
نوق
واعمل
زوجين
الحرمان
الشعراني
الصوم،
حضروا
رويدا
ضابطا
##ذابح
بالحمد
قرنه
حاجتي
التأجيل
يعطيها
طرس
المرع
##جم،
توعدون
يسلمون
فكتبت
العجيبة
التجيبي
كمس
أيس
الآمال
وبالفعل
راي
قصاصا
ضاعت
الجواري
ويبعد
المعتدين
فمما
وتصديق
يهدد
مسؤولة
فعلمت
فلب
##ين؟
عني،
الاحمر
استوت
وطهر
أصبحنا
مصنوعة
الشهادتين
وقضيته
وبس
الغرف
تحلي
ثبوتها
تصوره
الهدم
ورجحه
ناجحة
طبقاته
الأضداد
التتر
تطرق
وأرادوا
انكشف
تين
البليغ
البقيع
انعدام
فتحه
تنطبق
بحياة
تخير
سابعا
إخوانكم
اليابس
باري
عرى
المرض،
كاملة،
الدهون
آتاهم
تال
يبادر
تمد
##فاهيم
خفة
##نيفة
##فسار
تدمر
وخرجه
شربها
غلامه
ثيابا
القياسي
قصف
الصوتي
لوحات
الأولوية
يسره
اليمين،
الإتلاف
مهن
المته
المصنع
الفترة،
مكانه،
والثلاثين
خبيثة
##ؤن
العزي
وعنا
وجدا
قبلهما
وذوي
ريف
##طعة
والاب
وتضع
الآجر
منه؛
فعرفت
تجرد
تزرع
الخرق
مطلوبة
##لاطون
داب
معرضا
برسم
أحرز
يابس
والحيوانات
العثمانية،
الجزيئات
والوج
والشخص
بطونهم
الشباب،
وعادت
الإشعاع
نابلس
حباب
الليم
أعرب
واحدتها
بجماعة
سيرين،
مظفر
مواليه
جوية
##بونات
وعرفه
ومحبته
لأه
للأص
نهوا
للنهي
عودا
ولمسلم
والعام
الصحيحة،
مغر
لسعد
الوسا
النظري
الإضرار
الأكمل
الهوام
يشبهه
حى
دكتوراه
الصعبة
مثناة
الشرط،
جهرا
يفتر
يبتغي
مستعملا
وياء
##وهة
أشع
صحبت
بالحرب
سلع
حراء
عيلان
التماس
دعني
أرضها
ابتلاء
الأجوبة
يليها
الأودية
لمصدر
##روهن
للأح
شاهده
ووالله
يعجبني
##كيز
لعطاء
يزيدون
نورث
أحرق
بكلامه
كمه
يوغ
##ناني
الأوز
وسؤ
بأقوال
زعمتم
معيط
مشيئته
معادن
الخبائث
الكرامات
الإبانة
وكافر
##صحب
الغدد
قياسه
وصدقة
عان
مفل
مجلدا
##يران،
للقص
يمض
وخز
واحتمال
صادف
سؤالات
اعلام
عطش
الحنظلي
أسبانيا
دلي
##ذيلة
يعزر
قدماء
##رجوع
ومكة
وحافظ
الإسراع
وقلوبهم
يشربون
عارم
عصفور
هائ
أوجبت
##والب
والدنانير
قصيرا
الخلافة،
الإصرار
خائفا
##جيم
##لهي
ومخرج
بموسى
##ضربن
وفروع
فكلا
الركاز
العهدة
والمسك
منهجية
عقابه
مرتبا
ويستدل
واللحم
أخبارهم
وسبعمائة،
جابرا
ومابعد
والنوع
والصاد
أرضي
خصوم
مقصورا
طيء
وفاق
##سلي
التقاط
الختم
عدوك
مقربة
والصورة
للأستاذ
فيكتب
فيسأل
لأجلها
يوج
##خبة
وأطال
المنسوبة
شحم
متبع
##لهن
بالولد
اللبيب
التصنيع
المقلد
السلاسل
المصنوعة
فوائده
##خات
##داهم
المعادية
حصان
ضرره
فكأنها
المسؤولة
التبرعات
الفخار
الاستصناع
مقادير
يهديه
ويمثل
مأذونا
موليا
##ترات
الصولي
أربعتهم
همذان
تراها
مرادهم
بروك
معام
تعل
باخت
تزد
أبناءهم
الفاسقون
أثلاثا
##عش
والحدود
فاليوم
صفاء
لإحدى
البعض،
موكله
ذبيحة
الترق
##لق،
بمصالح
وبالن
والزنا
جامعات
يختلط
تأخيرها
انفجار
هتك
##مح
والجب
الفجار
الشمال،
مكرر
تعقل
والتزام
تحريما
بايعت
المثقفين
##يكو
ذكاء
أفرادها
تأكلون
والنقص
حالي
رآهم
أمنية
قابوس
يساهم
وزينب
##ست،
وللك
إبله
للدول
رضوا
تلفزي
يعذبهم
لمصر
##لباب
بتغير
جزافا
غلبه
ويخالف
تسألني
##حيا
وتردد
أبويعلى
شكري
أرباح
لسليمان
شهوته
المبشرين
ليكونوا
مجيئه
##حور
##كروس
والتمييز
##قطعة
الشها
عامرة
تكبر
##راق،
التجريبية
الإفريقية
أهلكنا
إقامتها
القيسراني
كوب
لقطة
مفصلة
##شمة
والشرع
##منها
الفردي
الإجراء
الأوربية
لتعزيز
عذره
والمسلمين،
التعليمي
##فكون
##خاله
بعناية
خطية
##لائها
أيديهما
الجلود
ثانيهما
اعلموا
البهية
ختام
افتتحت
زحف
نقيب
##زهم
الموانع
وقن
تتقدم
نعطي
يمثلون
ككتاب
خلاق
##صهم
##ضا،
والأك
الأميرة
أتاها
إيذاء
لجان
إمامهم
اللسان،
فاشتد
لرؤيته
افتح
وأقم
##حيب
وحط
مغربها
##انيا،
##زقنا
الزمني
مريدا
الأمامية
##ويا،
الكتيبة
وللا
انفراد
وبقى
##يبته
المعارج
بتونس
مشاة
والرعاية
بالجماعة
التفصي
كهذا
ببدر
أسنده
بالعالم
وكأنهم
أروى
صني
وأجرى
حقيقة،
بالرحمة
والنسائي،
نقدية
صبغة
خبراء
أسامة،
لأبى
والفنون
وأمرت
واليون
شل
مميزا
النرسي
##اريين
المعرف
لأعلم
بالأحاديث
الدوران
الفرنسيون
الإطلاق،
المروزي،
أخلا
فالز
سواحل
فيشمل
حقة
دكتور
##دوز
##فارات
ويحتوي
اعرف
تنسى
تسببت
غازيا
انتهاك
المزدلفة
حولهم
الأسلم
تشديد
بالكفار
أبرهة
واصبر
الإصلاحات
ظهار
##ريس،
المستفاد
والزمان
##قابله
بعيد،
وابى
التغلبي
وروايته
نصبا
المنابر
يقدمه
يخالط
للفنون
لوزارة
السوسي
معارف
الذلة
والإج
الصفات،
مستقرا
بستة
أسطورة
عوج
والجلوس
أبوبكر
ليخ
حالك
بغا
فاستجاب
يناقش
المنتصر
تولية
بالشرك
زميل
والتدبير
المباحة
معادلة
مساحات
يطأها
طبيعيا
اشهد
للموكل
تأم
وتشكل
يتناسب
ودعوى
الضبعي
##رشد
##لامات
أودية
الاجارة
الناج
مالت
كالمر
لأولئك
##سيل
متما
##دمه
عيادة
التوبة،
الغالبية
مقرن
بالقاهرة،
والعدالة
مراكب
منية
للشر
الخالي
يشته
المقاطعات
نهيك
الغازات
##راك،
وكبار
فالف
تخيل
##يازات
وجزاء
تكسب
المعاش
للطلاب
نحل
والوقت
وأبر
##فاؤه
أفاء
##طارا
حرر
والأنعام
ويزعم
ينعزل
##ديب،
النحا
##ودور
الإيدز
##قاما
بتط
متأخرا
بالنس
الثنائي
صحيحي
سبيلهم
وطلبت
اهتمامه
مقول
وأوج
وقاية
النرويج
الربا،
الكوفى
##كنوا
##ابتهم
ورأيته
العالية،
حركتها
بأدنى
باثنتين
الياس
تنطوي
وفقد
تصريف
الفتنة،
اصبح
الجنائية
تساقط
أحمل
فذا
##علج
تحبس
فالناس
مطاع
ومكحول
تظاهر
بأدلة
تجويز
حكوم
شعبان،
