[SEP]
[UNK]
[CLS]
[MASK]
<s>
<pad>
</s>
!
"
#
$
%
&
'
(
)
*
+
,
-
.
/
0
1
2
3
4
5
6
7
8
9
:
;
<
=
>
?
@
A
B
C
D
E
F
G
H
I
J
K
L
M
N
O
P
Q
R
S
T
U
V
W
X
Y
Z
[
\
]
^
_
`
a
b
c
d
e
f
g
h
i
j
k
l
m
n
o
p
q
r
s
t
u
v
w
x
y
z
{
|
}
~
¡
¢
£
¤
¥
§
¨
©
«
¬
®
¯
°
±
²
³
´
µ
·
¸
¹
º
»
¼
½
¾
Æ
×
Ø
Þ
ß
æ
ð
÷
ø
þ
Đ
đ
ħ
ı
Ł
ł
ŋ
œ
Ə
ƒ
ɐ
ɑ
ɔ
ə
ɛ
ɡ
ɣ
ɪ
ɬ
ɾ
ʀ
ʁ
ʃ
ʊ
ʒ
ʔ
ʲ
ʺ
ʻ
ʼ
ʾ
ʿ
ˈ
ˉ
ː
˓
˚
˛
˝
ˤ
Α
Β
Γ
Δ
Ε
Η
Θ
Ι
Κ
Λ
Μ
Ν
Ο
Π
Ρ
Σ
Τ
Υ
Φ
Χ
Ψ
Ω
α
β
γ
δ
ε
ζ
η
θ
ι
κ
λ
μ
ν
ξ
ο
π
ρ
ς
σ
τ
υ
φ
χ
ψ
ω
ϕ
ϵ
А
Б
В
Г
Д
Е
Ж
З
И
К
Л
М
Н
О
П
Р
С
Т
У
Ф
Х
Ц
Ч
Ш
Э
Я
а
б
в
г
д
е
ж
з
и
к
л
м
н
о
п
р
с
т
у
ф
х
ц
ч
ш
щ
ъ
ы
ь
э
ю
я
і
ј
ћ
қ
ү
ӏ
ә
Ա
Կ
Հ
Մ
Ս
ա
բ
գ
դ
ե
զ
է
թ
ի
լ
կ
հ
ղ
մ
յ
ն
շ
ո
պ
ս
վ
տ
ր
ց
ւ
ք
־
׃
א
ב
ג
ד
ה
ו
ז
ח
ט
י
ך
כ
ל
ם
מ
ן
נ
ס
ע
ף
פ
ץ
צ
ק
ר
ש
ת
ײ
״
،
؛
؟
ء
ا
ب
ة
ت
ث
ج
ح
خ
د
ذ
ر
ز
س
ش
ص
ض
ط
ظ
ع
غ
ـ
ف
ق
ك
ل
م
ن
ه
و
ى
ي
٠
١
٢
٣
٤
٥
٦
٧
٨
٩
٪
٫
٬
٭
ٱ
ٲ
ٳ
ٹ
پ
چ
ژ
ڠ
ڤ
ڨ
ک
ڭ
گ
ڵ
ں
ھ
ہ
ۆ
ۇ
ی
ێ
ے
۔
ە
ܐ
ܒ
ܓ
ܕ
ܗ
ܘ
ܙ
ܚ
ܛ
ܝ
ܟ
ܠ
ܡ
ܢ
ܣ
ܥ
ܦ
ܨ
ܩ
ܪ
ܫ
ܬ
ݒ
ݘ
ݣ
अ
आ
क
ग
च
ज
ट
ड
ण
त
थ
द
ध
न
प
ब
भ
म
य
र
ल
व
श
ष
स
ह
ा
ि
ी
ो
আ
ক
গ
জ
ট
ত
দ
ন
প
ব
ম
য
র
ল
শ
স
হ
া
ি
ী
ে
ਾ
க
ச
த
ன
ப
ம
ய
ர
ல
ா
ி
ு
ල
ก
ง
ด
ต
ท
น
พ
ม
ย
ร
ว
ส
ห
อ
า
฿
เ
ไ
າ
་
ა
ბ
დ
ე
ვ
თ
ი
ლ
მ
ნ
ო
რ
ს
უ
ქ
ᄀ
ᄂ
ᄃ
ᄅ
ᄆ
ᄇ
ᄉ
ᄊ
ᄋ
ᄌ
ᄎ
ᄏ
ᄐ
ᄑ
ᄒ
ᅡ
ᅢ
ᅣ
ᅥ
ᅦ
ᅧ
ᅨ
ᅩ
ᅪ
ᅬ
ᅭ
ᅮ
ᅯ
ᅱ
ᅲ
ᅳ
ᅴ
ᅵ
ᆨ
ᆫ
ᆯ
ᆷ
ᆸ
ᆺ
ᆼ
ት
ን
፡
ប
ម
រ
ស
ា
–
—
‖
‘
’
‚
“
”
„
†
•
…
‰
′
″
‹
›
⁃
⁄
₀
€
₹
℅
ℓ
™
⅓
⅔
←
↑
→
↓
↔
↵
⇌
∀
∂
∆
∈
∑
−
∗
∙
√
∞
∧
∪
≈
≡
≤
≥
⋅
│
■
▣
▧
▪
◄
◇
◊
●
◦
☆
☉
♦
⟨
⟩
ⲓ
ⲙ
ⲛ
ⴰ
ⴱ
ⴷ
ⴻ
ⵉ
ⵍ
ⵎ
ⵏ
ⵓ
ⵔ
ⵖ
ⵙ
ⵛ
ⵜ
ⵡ
ⵢ
ⵣ
⸵
々
《
》
〖
〗
あ
い
う
お
か
き
く
け
こ
さ
し
す
た
ち
っ
つ
て
と
な
に
の
は
ひ
ふ
ほ
ま
み
め
も
ゃ
ら
り
る
れ
ろ
ん
ァ
ア
ィ
イ
ウ
エ
オ
カ
キ
ク
ケ
コ
サ
シ
ス
セ
ソ
タ
チ
ッ
ツ
テ
ト
ナ
ニ
ハ
ヒ
フ
ヘ
ホ
マ
ミ
ム
メ
モ
ャ
ヤ
ュ
ョ
ラ
リ
ル
レ
ロ
ン
・
ー
一
三
上
下
世
东
中
丸
主
之
九
事
二
五
井
京
人
仁
代
会
伝
保
信
元
光
全
八
公
共
兵
刀
利
剣
劉
化
北
区
十
华
南
原
口
古
台
司
合
吉
名
君
吾
周
和
四
回
国
國
園
土
地
城
堂
士
大
天
太
夫
女
子
字
孝
学
孫
學
安
宗
官
宮
家
寺
寿
小
尔
尾
山
島
崎
川
州
市
帝
平
年
府
康
式
後
御
徳
德
心
忍
念
成
我
戦
戰
戸
手
政
教
敬
文
新
方
族
日
明
星
春
時
晉
書
月
有
服
朝
木
本
李
村
東
林
校
正
武
段
氏
民
水
永
求
江
河
治
法
洋
海
清
港
源
漢
無
爾
物
特
王
生
田
画
白
的
皇
真
石
社
神
福
空
章
織
羅
美
義
羽
者
聖
自
舞
良
花
英
茶
草
華
藤
行
衛
西
言
記
語
谷
足
路
車
通
遊
道
郎
部
都
里
野
金
長
門
間
闘
院
陵
雄
集
青
韓
風
食
館
香
馬
高
鳥
黒
龍
﴾
﴿
！
（
）
，
－
￼
𒀭
📺
📻
##y
##c
##n
##o
##g
##i
##d
##s
##a
##u
##h
##l
##e
##ر
##ي
##ب
##و
##ت
##ك
##ا
##ل
##ى
##،
##ح
##ة
##ض
##r
##ش
##غ
##م
##ه
##ث
##4
##6
##2
##0
##F
##t
##ق
##ج
##ن
##b
##m
##س
##ص
##ـ
##O
##C
##K
##E
##T
##S
##v
##5
##1
##x
##ف
##ط
##ع
##p
##؛
##د
##ز
##N
##R
##I
##D
##U
##Y
##ی
##»
##k
##ذ
##ে
##া
##ল
##ম
##خ
##ء
##ڤ
##ھ
##A
##B
##7
##8
##ظ
##w
##P
##G
##”
##L
##О
##Ж
##Н
##z
##ー
##シ
##ス
##٬
##9
##j
##3
##گ
##M
##–
##‹
##H
##f
##؟
##—
##٪
##Z
##V
##μ
##女
##共
##画
##…
##«
##چ
##ڨ
##ı
##า
##ท
##น
##·
##き
##☆
##す
##た
##◦
##∙
##°
##武
##q
##ᄆ
##ᅵ
##ᄋ
##ᅧ
##ᆨ
##ᄀ
##ᅮ
##α
##ρ
##β
##ο
##ς
##ι
##‘
##מ
##ש
##ך
##“
##Q
##る
##’
##W
##之
##路
##ो
##श
##य
##X
##θ
##ε
##κ
##城
##π
##ν
##о
##л
##д
##и
##м
##р
##›
##с
##т
##в
##а
##•
##τ
##χ
##σ
##J
##ŋ
##⟩
##ʻ
##א
##ח
##ו
##ס
##ک
##υ
##λ
##ξ
##ə
##²
##ø
##۔
##ル
##ト
##・
##ロ
##ャ
##٩
##٦
##٧
##ר
##ת
##γ
##′
##″
##ב
##כ
##ל
##پ
##þ
##٫
##÷
##ч
##е
##у
##٠
##φ
##事
##記
##δ
##月
##×
##ð
##ᅡ
##ᄅ
##ᅣ
##ᆼ
##ᅳ
##ᆯ
##ˈ
##ᆫ
##ᄉ
##林
##ە
##ۆ
##ы
##к
##я
##門
##х
##ہ
##年
##八
##と
##れ
##み
##ᅩ
##↓
##ß
##ж
##н
##ร
##ส
##−
##德
##和
##念
##ᅪ
##б
##ь
##™
##ן
##田
##י
##ω
##€
##פ
##צ
##ी
##त
##ा
##٥
##リ
##ژ
##陵
##子
##水
##戦
##ɪ
##ט
##ה
##п
##ヘ
##ン
##セ
##ш
##化
##ג
##ד
##נ
##∞
##→
##－
##´
##ܘ
##ܪ
##ܣ
##ܝ
##ܐ
##ܢ
##ܡ
##ם
##里
##ո
##բ
##ի
##ϕ
##﴾
##र
##स
##क
##利
##न
##ि
##ट
##ᆷ
##٨
##٣
##中
##ٳ
##華
##լ
##ա
##կ
##з
##ݘ
##স
##র
##ʾ
##》
##г
##≡
##ۇ
##ק
##®
##ܬ
##ܠ
##ܩ
##ħ
##ᅲ
##œ
##£
##古
##野
##本
##教
##ᄌ
##ᅥ
##व
##١
##³
##ⵉ
##ⵏ
##ⴰ
##ⵖ
##А
##К
##ን
##٤
##方
##ᄇ
##ː
##白
##マ
##ᄃ
##ᅢ
##η
##ܨ
##½
##±
##ע
##モ
##ク
##ज
##茶
##合
##ᄐ
##Α
##‚
##二
##郎
##ζ
##ћ
##レ
##ム
##タ
##←
##ग
##э
##ł
##川
##В
##ܛ
##ܟ
##明
##ᄒ
##ɛ
##ʁ
##民
##Π
##Ι
##Φ
##Ν
##Η
##Σ
##ɔ
##ง
##ด
##ᅭ
##С
##ц
##寺
##通
##家
##দ
##द
##Κ
##˝
##ᅨ
##ᅯ
##٢
##ף
##天
##大
##ᅬ
##⁄
##ז
##，
##ⲙ
##ⲓ
##刀
##ץ
##《
##Ρ
##南
##イ
##ʿ
##ウ
##ێ
##ъ
##ю
##і
##族
##ݣ
##ψ
##ক
##ি
##æ
##生
##℅
##ɑ
##ᅦ
##ᅱ
##ܒ
##物
##な
##さ
##い
##ᄂ
##˚
##Γ
##ٱ
##お
##ん
##ふ
##ә
##§
##港
##Ф
##М
##黒
##ⴱ
##ⵔ
##〗
##一
##上
##吉
##々
##テ
##文
##华
##ƒ
##ち
##は
##オ
##ヒ
##ܗ
##康
##カ
##ハ
##ナ
##⸵
##ᄑ
##原
##道
##長
##म
##մ
##վ
##ր
##¸
##º
##ष
##主
##ী
##շ
##հ
##ܕ
##井
##法
##ย
##ม
##ɬ
##ⵢ
##ⴻ
##ⵜ
##ے
##≥
##木
##ᆸ
##神
##ɾ
##־
##׃
##の
##হ
##ल
##ण
##ⵙ
##ⴷ
##字
##ڭ
##ⵓ
##人
##会
##エ
##メ
##￼
##प
##世
##海
##Г
##│
##‖
##ܚ
##У
##И
##源
##東
##П
##Λ
##ま
##江
##อ
##พ
##ก
##ไ
##け
##≤
##щ
##պ
##ե
##校
##ホ
##フ
##ᄎ
##馬
##Ω
##ᄊ
##ڠ
##保
##ろ
##州
##寿
##戰
##ி
##ு
##த
##ல
##ப
##ܥ
##ˤ
##च
##थ
##こ
##館
##ʼ
##空
##国
##ა
##ი
##王
##Т
##十
##鳥
##ड
##მ
##რ
##ह
##公
##安
##部
##Ο
##山
##ラ
##美
##₀
##學
##五
##‰
##է
##ɣ
##ต
##ห
##เ
##し
##う
##キ
##ア
##ソ
##ッ
##ݒ
##Հ
##Կ
##ʃ
##ʊ
##崎
##ն
##院
##官
##ց
##յ
##፡
##孝
##˛
##ら
##敬
##元
##ւ
##க
##ர
##ம
##ᆺ
##ᅴ
##士
##的
##下
##真
##！
##求
##我
##政
##府
##國
##永
##行
##風
##兵
##花
##語
##雄
##清
##Μ
##ф
##（
##ј
##金
##京
##氏
##ⵍ
##ⵎ
##য
##学
##∈
##正
##ヤ
##⋅
##自
##״
##ⵣ
##﴿
##ァ
##√
##ℓ
##თ
##ლ
##დ
##ე
##ბ
##ნ
##ო
##ვ
##գ
##ս
##香
##ィ
##◇
##ს
##უ
##サ
##星
##羽
##ュ
##宗
##義
##光
##聖
##英
##仁
##章
##¡
##吾
##爾
##龍
##成
##羅
##良
##丸
##ন
##་
##春
##市
##伝
##衛
##治
##時
##回
##）
##ত
##ɐ
##ニ
##朝
##ब
##Д
##≈
##қ
##জ
##も
##っ
##か
##ன
##▪
##ܫ
##園
##դ
##河
##皇
##ব
##段
##Æ
##˓
##西
##書
##間
##都
##ョ
##թ
##く
##堂
##石
##夫
##三
##藤
##տ
##រ
##ម
##舞
##者
##¨
##↑
##太
##µ
##手
##Τ
##島
##ា
##チ
##コ
##無
##ں
##¯
##ா
##Δ
##Υ
##有
##司
##君
##ミ
##ქ
##ٲ
##ツ
##∑
##小
##Р
##∆
##ٹ
##戸
##Ш
##福
##ڵ
##言
##Х
##日
##ʒ
##代
##Ε
##东
##ք
##∂
##名
##谷
##洋
##韓
##ய
##り
##口
##ɡ
##高
##つ
##四
##地
##め
##て
##新
##社
##ܓ
##土
##ว
##式
##গ
##ܙ
##¬
##帝
##剣
##食
##¥
##¹
##ស
##ប
##„
##ひ
##ゃ
##尔
##区
##Я
##đ
##平
##າ
##শ
##村
##足
##Л
##Е
##北
##⅓
##⟨
##Б
##晉
##ղ
##ট
##₹
##ϵ
##草
##闘
##ᄏ
##ⲛ
##集
##Ц
##全
##٭
##九
##尾
##服
##ⵛ
##ケ
##ⵡ
##ܦ
##李
##Э
##忍
##御
##織
##ት
##ਾ
##信
##Մ
##Ա
##〖
##Ø
##զ
##Θ
##Β
##ү
##ध
##ʲ
##ײ
##特
##漢
##¢
##ʔ
##Ł
##฿
##あ
##†
##宮
##ச
##Χ
##¾
##প
##車
##遊
##に
##心
##☉
##ӏ
##後
##ල
##ʀ
##Ψ
##𒀭
##¤
##■
##徳
##ˉ
##भ
##∪
##ほ
##ʺ
##¼
##З
##आ
##Ə
##⅔
##Đ
##周
##Ч
##©
##台
##∀
##青
##↵
ال
##ال
##ية
##ان
في
الم
##ات
من
##ين
##ام
##ار
الا
##ها
##ير
##ول
##ون
وال
الت
##را
##ري
ان
عل
الع
##ما
##اي
##اد
##ست
على
##ور
##اب
لل
##يا
##يل
##وا
##يد
الح
الس
الى
الق
الب
##عد
##لك
##نا
##لا
##وم
الج
مع
##يم
##هم
##سب
بال
##عة
كان
##رب
##رة
##حد
الف
الن
عن
##ود
##وس
عام
##اء
الد
الش
##قد
الك
وا
##اف
##رك
##مل
##يس
##عل
##بر
او
وت
##قة
هذ
##بل
##كان
##اس
19
الخ
##في
التي
##شر
##لي
الذ
##كن
##تم
##بي
وم
##مة
##حت
##00
##وق
##وج
لا
##لة
##وي
الص
الاس
##وب
##كل
بين
الث
اي
الام
##عت
ما
الان
##جم
الر
##خر
##ية،
اس
الط
##دي
##نة
##رت
##دا
##سبة
##قي
المت
##سي
لم
است
##فا
وه
##قل
تم
بن
##تي
##صل
##اني
بعد
##دة
##وع
##مر
##الي
##سة
مت
##با
##وف
الل
##ته
##مي
اك
##اص
كانت
##دم
##يرة
##يث
##عض
##ني
##كون
##قت
الذي
وي
هذه
##ارة
##كر
وب
##در
##جل
ذلك
##ديد
##رن
##لال
##ثر
##فة
##اري
##عي
##وت
##خت
ام
##بة
##دين
##هر
##ادة
##عر
##قا
الو
مح
##لم
##اج
اب
هذا
##سم
##طة
##حة
##سا
##خل
##ثل
وكان
##صر
20
هو
##كت
##يو
##انية
كل
##الم
حيث
##زي
##دد
##يات
##عم
##من
##ذا
الي
##حدة
##هد
الغ
علي
بل
المن
##ضا
والم
وج
با
##وات
200
ون
##ريك
هي
##فس
كما
##ايل
##دينة
##خص
##حي
##عب
لت
اله
##رق
##وية
قد
قبل
##ولة
وقد
##يت
201
##افة
##وك
##فت
##صب
##طل
يت
وفي
##اث
##ند
خلال
يم
##اض
##سل
##اط
##عية
##تى
ول
الار
##وري
##ذلك
##ريق
بعض
غير
##جا
عند
##جة
##ركة
##رض
بم
عدد
حتى
الاول
##عا
##بلغ
##راء
للم
##رية
##يب
##الية
اخر
##الة
##وز
##شكل
اد
##وسط
##حل
##ورة
انه
##بد
مثل
##نية
تت
نسبة
تق
##ستخ
##لام
##ناء
له
##كم
عشر
انت
##بار
##ادي
وق
##يف
ايضا
##طا
تحت
##بع
تح
بت
الري
##يز
ثم
تش
##مد
الز
##ة،
والت
مق
بان
اف
بد
ومن
18
اكثر
##يك
##شا
يمكن
##وض
سن
عمل
تن
##صف
##سية
##ه،
اش
##دام
##تها
وع
العام
تع
المتحدة
الجن
وان
اول
وهو
بح
المس
##ايات
##لب
ولك
المح
##ختل
##يين
##عات
وس
كت
##ظم
##رد
##رح
ولكن
اج
##رف
احد
الاست
##وى
كب
يق
مست
المع
##ا،
##طقة
يع
وح
##اك
فان
##ربية
مس
##اريخ
##سبب
العالم
##ين،
##وة
##ثة
##اح
##وعة
##كوم
الول
الاج
##يع
مج
##وان
##شار
يتم
##ناك
سنة
وكانت
بشكل
ات
##قط
##يش
##غير
##فر
##لس
اث
الامريك
المست
الرا
##از
##واج
اص
##يلة
اح
##ارات
اما
##ظام
بر
وهي
اع
##ي،
ونسبة
##اه
مد
##ابة
##رات
##قات
سب
وك
##بات
البح
##انون
##امل
ين
المد
##يان
فت
##يمة
##ايية
وف
##ورية
اخ
لان
الض
##رج
##ارس
سي
البل
##ثير
نفس
دول
اخرى
قام
به
##وح
##الات
العمل
عبد
##غم
والتي
##صول
فيها
بلغ
##مال
##ميع
##ركز
##وار
المج
الات
##شت
للت
الله
مص
##عتبر
ولا
المص
استخ
الال
##بية
النا
العديد
##زة
الاد
يكون
هناك
##اصة
199
الولايات
ري
منها
لكن
##به
##قية
الاخر
جميع
##حو
القرن
الانت
المنا
الذين
الاسر
##وجد
##قر
اغ
تعد
مجم
##غة
##لاح
##صبح
##طف
لي
الخام
مو
##فض
##بت
##ذه
عندما
الثام
جن
والا
##تما
الدول
##ستخدم
##ها،
##مان
##بعة
مدينة
##رس
##فع
##نين
السل
لدي
##مه
##انيا
الاخ
##راض
##وط
##راد
تص
##على
##راي
##عمال
تلك
##ضع
العل
##ايا
##عيش
##ماء
##كة
##طر
المدينة
دون
مما
فقد
المو
السكان
الاص
##ظر
وجود
##زا
##برا
##الت
الملك
دا
##طين
والع
##طي
محمد
بها
##كس
##نت
القد
الرييس
الاف
##مو
##امعة
انها
وبلغ
تد
##سات
العمر
عاما
يج
##قب
حد
##كومة
##ارج
ست
فر
شخص
##شي
##جلس
السيا
##وقت
حول
##ارية
بالم
رييس
مختل
فوق
تكون
كم
##لف
الثامنة
بسبب
وز
##er
##قدم
حين
##بن
الترك
##حية
##ايد
تو
##زل
##راف
تج
##واق
الاش
المم
كبير
متوسط
اق
عليه
البي
البر
##ابات
##ديدة
##هة
بدا
الاولى
##ذي
الاسلام
##ريط
##وير
##وقع
باس
##عرف
##سين
نس
تط
التح
منذ
يد
##ايلات
الوط
##راق
الشي
يوم
الحرب
بع
##هما
##هل
الخامسة
##ودة
##بط
والار
دولار
15
##فل
ذات
لها
ثلا
##حاد
موس
خط
10
الكت
الدين
##يه
يح
اض
طريق
##ابل
##قتص
استخدام
17
العايلات
ابن
##صة
##اش
##عليم
##عدة
##ايي
##والي
##ظمة
سا
بي
##زء
اذا
##سان
##ودي
##حدث
##امج
##سك
التج
198
بالت
ضد
والد
12
##ضم
الاك
اعت
##واء
سكان
##رم
##وه
اكت
##عرض
##ارك
##ايلة
##طق
##امة
##قى
ومع
##ربي
##راك
تس
التن
فيه
الوقت
##قال
##يا،
197
##شف
الثاني
فقط
الاح
##سن
##يدة
العربية
##طفال
##رون
##زب
##فق
##ات،
لح
مجموعة
سل
##وث
##وال
الاخرى
بط
13
وخ
لد
وذلك
##رى
##علم
##انب
##ارت
##جد
##لت
الموس
##ويل
مم
للح
##ياة
لديها
##ظهر
اخت
##on
196
منطقة
المث
الفت
وقت
الشم
الساب
##وص
حق
##راج
##ضل
##قيق
14
لع
واحد
16
##يون
##شرة
بما
##هم،
##ياء
ضمن
النس
دخل
عليها
والح
قال
المغ
##ان،
##اما
##ورا
والذي
##ريد
الاجتما
##تج
##or
##in
##قاط
##مبر
اصل
##جر
##راسة
##لاف
##لاق
##رير
در
##an
ود
##فاع
11
##انت
للس
194
##ادية
عدة
##ون،
##ومات
##يرات
الدولة
كتاب
##اق
لن
##اضافة
الطبي
##غي
##ادر
عمر
بينما
##كرة
اور
مل
##ينات
المجم
##داد
##فن
اليه
##حديد
##اة
##زم
ار
ملي
##افظ
اذ
##اخ
##تمع
##لكة
واس
باسم
##اليا
اليوم
حجم
##يلي
اكبر
تاريخ
##طان
الرغم
واست
##وبر
##ينة
مسا
الطا
##عود
يست
علم
##يادة
حوالي
عبر
##ضة
##ستخدام
تب
العلا
##نى
الفرن
##ر،
##ثم
##0،
مش
الحكومة
##كتب
فما
اسم
##يرا
##درسة
مر
##كو
##هاية
##ريقة
وبعد
احت
##ولوج
الارض
ذكر
ماي
##واع
مرة
بالاضافة
مصر
##زية
##كور
الشر
المنطقة
##اية
##وبي
##طب
##غل
داخل
نظ
المق
شي
للا
195
##كي
##نع
وش
اهم
##اته
##سر
##وفي
معظم
##سكر
##يني
ذلك،
عملية
##جن
##طلق
##ضاء
وص
##راة
المسي
ارت
اثناء
تعداد
الحر
##طار
وتم
والست
يش
بار
##ثافة
تز
كبيرة
##ظيم
##طن
لكل
##اضي
اسرة
الجيش
100
فه
##en
الخل
##تل
اجل
##وما
ور
والن
القر
البحر
##يران
##تيجة
نحو
كانوا
جامعة
##ــ
مب
وغير
##اول
عب
##شاء
اعل
نظام
تل
##الب
##تين
اقل
التص
تر
##اذ
##ركات
25
القانون
##ar
قر
نسمة
##قص
لج
##سمى
##ينية
جم
لاح
##دت
الحدي
##وبا
الشيخ
الاور
بالن
الثال
##واي
قص
##هور
##طور
ارب
المخ
##قاف
##ضر
##ريب
##جلي
##لسطين
الامريكية
##ينا
الشخص
مجلس
الاب
عاما،
قل
##ذكر
##ندا
فترة
ترك
##يسة
واحدة
##واس
بش
الشرق
السكانية
##صال
##واقع
يوجد
الوسط
الاز
##ارب
ولم
##مية
البريط
بق
##انا
##اند
##دمة
الاتحاد
##وبية
الاقتص
الهند
##هدف
ابو
التاريخ
##شرون
الامريكيين
اللا
دور
المب
فيما
اصبح
##at
للع
المه
##es
دي
##انات
لو
خل
نوع
##كا
التش
سيا
الاغ
##زيرة
##راييل
##ياه
وار
وما
منت
##غط
يون
اساس
##صبحت
الالم
الدم
منه
حسب
##وء
الكب
##طح
##عدد
193
سنوات
الاسرة
بنسبة
شركة
نشر
##اتي
##ريف
##عى
وعلى
##ليين
##شروع
##ملة
##بعون
رس
الفترة
قدم
##يدي
##al
القوات
##زر
##وبة
##نان
الجم
##جوم
شكل
قانون
والس
حالة
##الف
##راب
##خرج
الحد
##غيرة
##شرين
##حف
كثير
القاط
هول
##قيقة
الاي
المش
البعض
##صار
##ويت
الخاصة
والاربعة
الاسب
الثانية
##عضاء
##يية
مركز
##فه
العامة
الاحت
المعر
المل
از
الاساس
الناس
##جال
خاصة
القاطنين
30
بج
##جاه
الانسان
##جي
##يانات
الكن
##ايمة
##طاع
يجب
بير
بناء
فرن
واق
##خب
النظام
##سون
بو
العلم
مليون
اسب
##دية
##قاء
ليس
عرض
ثلاث
##وجه
وضع
الكثير
##رنامج
البلاد
##راسات
##ادل
بول
192
امريك
يس
##ضمن
##قم
العالمية
##يلا
تقد
##كار
##نف
##ربة
جدا
درجة
حل
##همة
نهاية
##زيد
##طلب
كون
عدم
##ومة
ابي
سجل
بص
##يلات
##تمد
##اثير
التعليم
##طع
عادة
قب
بك
##عداد
##غر
##وزع
عم
الخط
##ايم
##راه
ينا
السن
الفر
المسلم
##وريا
جزء
191
الخارج
تست
الرس
##رحلة
##سط
سم
##باب
##ضي
تقع
اللغة
الموا
الدا
##ابع
مختلفة
للن
##عدل
##يمي
فا
الموج
الطب
##البا
اعمال
وكذلك
العم
##حا
قدر
المحي
##ال،
يبلغ
##ic
عض
ويم
العر
العرب
التد
اط
الحيو
##و،
##جه
السا
تف
##ريل
##تد
##سكرية
الوطني
مه
الاث
امام
المناطق
نش
مخ
النساء
##التالي
##وني
يعتبر
يول
##ماية
ثلاثة
السي
وهذا
الروم
احمد
مث
بدات
حصل
الخاص
##قرا
مارس
لب
كتب
خم
##وعات
سبيل
شر
عد
##فية
##طات
الحياة
##حدات
والب
الامر
24
للد
عايلة
وث
##خاص
التركيب
مجال
الشعب
##هرت
##م،
مكان
##جار
##زيز
##هب
21
ني
##وقف
22
تخ
##ياس
طا
23
الحق
المر
للق
الاطفال
مرت
والف
بالق
اصبحت
للسكان
##قبل
##كات
##زاير
واي
##كال
##عتقد
##وغ
حكم
افراد
##وول
المركز
##امية
##خذ
الاعت
##باط
شمال
وحدة
بـ
يكن
##ريت
##هتم
نفسه
وصل
الثالث
##فات
##جمع
راس
الاع
فل
##راع
الامبرا
##هاز
المعل
لدى
##يار
شريك
##دار
الاعل
يعيش
تاس
##هرب
الوز
##ورد
ولد
##فظ
##صور
##ادات
##جية
جنوب
##عار
##ايق
##حات
معر
والج
الكل
دم
الحم
##س،
اكتوبر
المرض
##تمر
والق
الصح
##وفر
خارج
للاس
##يدا
##is
##la
##طرة
والش
عشر،
##طية
##واب
حر
المسا
##فيذ
وفقا
يقوم
سر
##ابعة
ويت
##قه
##وفة
منهم
جديد
ديس
000
وتوزع
##دمات
بداية
##كمة
الامير
يناير
النف
##تر
##خي
##هاب
26
نوف
قامت
##عين
بغ
##ايزة
ملك
##he
ولاية
فبلغ
##املة
التق
##امي
يستخدم
##تمبر
##ادرة
بواس
طبي
الكتاب
العراق
جانب
يحت
مبا
ميل
##وش
##واد
قوات
##يي
العثم
تستخدم
موج
الاقل
المجتمع
تتم
تك
##صد
##ميم
التع
افضل
انواع
المملكة
شهر
##ورت
##اصمة
بالا
واب
العد
##سمية
سبتمبر
كن
##عمل
الوطنية
بيت
وام
طب
وظ
تعتبر
##قطة
##وضع
لذلك
##عيد
الميل
يب
##صوص
##راز
الثلا
علا
##فاعل
##وسي
##ذج
##اهرة
##it
##طاق
وط
انتاج
##يبة
اقت
اليم
##لاء
اطفال
الفيل
##8،
##ساب
بانه
الاسلامية
##ريبا
##بكة
جديدة
##جيل
بواسطة
##شاف
##افظة
قتل
الرياض
الذكور
##وذ
والث
جون
##خة
يعرف
الرح
27
يونيو
نتيجة
زوج
يوليو
28
العق
##الح
##ندي
##انة
##ثلة
##زال
الجمه
##جرة
باستخدام
##صرية
##ولي
بحسب
##سام
##ويات
واض
مك
ديسمبر
ابريل
##خفض
فرنسا
##ابت
##وين
الحكم
كار
احدى
##ن،
قض
##ختلف
ادارة
مار
كذلك
مايو
لق
نقل
##ايج
##7،
حم
البشر
الجديد
العب
القب
##5،
نوفمبر
الرابعة
انح
لمدة
حركة
العربي
والص
فع
الطاقة
موقع
الانجلي
اوروبا
ادى
بالنسبة
بقي
مقابل
عالم
الاكثر
##هار
مستوى
##كية
##شل
موا
##ريات
اهل
##فين
دولة
##ويد
##علق
اغسط
65
##طورية
للج
تمت
السعود
##هود
##تهم
##لسلة
##جاج
وعدد
##9،
##يري
##عاون
التاس
السابق
غر
الجزاير
##عادة
لهم
##زمة
البيض
عقد
##ظا
افريق
##1،
فية
##ناعة
الجل
##ريم
راي
##قافة
بعضهم
المراة
محد
المرت
سطح
واد
وغ
مول
##وليك
##جاب
##6،
##باراة
دراسة
اشهر
الكلي
ساب
والخ
##امين
##طلح
امت
##بال
الاناث
تعيش
وقال
##4،
بالل
فن
##جان
اعادة
##دان
##000
##ريس
حرب
2000
مكتب
وين
هد
##2،
##سيم
##فاق
للان
جعل
الحديث
المحل
الشع
الياب
##فاء
##اليف
الاجتماعية
يعد
طول
القديمة
##عاية
##راث
حيات
الفرد
فال
##3،
##اكم
##طبي
##مت
##ايف
##براير
هـ
المسل
متر
##ثى
##قتل
##حث
الوا
الاعمال
##امات
المختل
المحت
بالح
##ارع
الفرنسي
##يمية
##زاء
##نيف
السود
ويمكن
يعمل
##قليد
##خابات
فبراير
اغسطس
للش
برنامج
29
##ماد
السوفي
باست
##ستان
الجما
خاص
##ايب
##غيير
المعلومات
الدولية
كاس
عهد
نف
##هن
##سكري
لش
##ولى
معهم
الجديدة
السياسية
##ورك
##كيل
##ناة
القص
##يمقرا
الفن
زيادة
امر
##هـ
الكثافة
##لين
الفلسطين
اسراييل
الجنسي
اليهود
##ابه
كال
وصف
الفية
عاد
البن
##شاركة
وتت
##20
##ورن
وبالتالي
انشاء
##يدر
الحركة
الاخت
الداخل
الحزب
هولاء
بب
وض
الحكوم
##سمح
##هاد
##ارد
##ستر
##خصص
##تيار
##قاطعة
##لاك
##جب
##هداف
اليون
كر
##ولا
تحديد
##ion
النوع
##يوية
الرييسية
العسكرية
المانيا
##كنية
المط
صحي
2010
حقوق
المنت
##ريض
الانس
اعلى
##خول
كيل
روس
##راس
##om
##ذهب
فيلم
عنه
صف
##ى،
استخدم
##انيين
القل
##el
الغربية
##ولوجيا
ايام
تقريبا
بس
وعند
توفي
معدل
الدولي
القدم
جاء
مشا
##حول
##شق
##واية
المياه
##جاز
السنة
حدي
##يام
منظمة
اضافة
##طيع
اللي
اند
حزب
الوح
تنا
##ونة
##هات
هم
المسلمين
الزرا
كلا
المختلفة
قا
نادي
الوحدات
مي
##وام
غالبا
50
المز
لما
##طاء
عين
العلاج
##ناصر
##ساعد
##هير
الظ
##رع
##ارا
تقدم
31
الدكت
الموقع
المواد
##قق
النفس
##ماع
##شارك
##زن
اعضاء
##انية،
يقول
القض
الحل
مشروع
##هزة
الثقاف
يص
##رنت
الاخيرة
##ينغ
توجد
##اثوليك
##فاة
##حليل
تعرض
مدرسة
مغ
##فاظ
##اطق
##وارد
رفض
كثافة
##اتها
وتش
الماء
فريق
40
حدث
##ايه
تاثير
المقد
الموسي
اير
عق
التس
طلب
بات
يودي
مناطق
الازواج
انحاء
بني
المجموع
##et
العرقي
لس
المعيش
##تايج
لقد
السياسي
يف
##ترا
الاق
مز
##لبية
##شة
بدلا
اليها
الجام
##جميع
##كترون
##ورج
باب
العرا
السعودية
تقوم
عر
البط
##ol
والان
المجلس
يلي
تال
تطوير
نمو
بمت
انش
الجزء
كا
وات
محل
الكنيسة
##لاب
##حاب
##افية
انثى
##ارض
##حلول
وزارة
الاراضي
مض
##وزي
##ويلة
##الا
##المي
العصر
الدر
سجلت
##فضل
وبلغت
القرية
##عيين
مختلف
الفيلم
##حر
##الد
الها
##ير،
قسم
##وانين
الشمال
الوسطي
وحيد
بالف
العمرية
المشت
واقعة
##ونية
ريا
الغرب
دار
##ايع
حاليا
صغيرة
##كام
##يرية
##ظاهر
المصري
سلسلة
##ur
عبارة
##ويا
كلية
تكن
النو
##دن
الفرنسية
الثورة
المك
وتن
الخلي
لك
الصنا
##وضوع
عمليات
المض
كث
يل
منا
اخذ
عرق
##حاث
وغيرها
الدراسات
التركيبة
اثر
المشا
##راح
فعل
افت
منصب
السكنية
قدره
##الك
والعشرون
البروت
التاسع
##ايدة
##يسي
##وامل
لبن
قوة
الشمالية
لف
##جاح
وعشرون
##ورات
##وها
بريط
##جين
افريقيا
شرق
190
##عة،
تعمل
معهم،
##ارنة
##وست
ترت
رم
اوا
##وحة
الجزيرة
35
الرييسي
ابر
الغذ
##افي
##us
##لمان
2011
جد
مقيمة
##بدو
اربعة
##نب
للغ
الامريكي
للب
##حداث
للف
اجراء
##as
الاصل
النظ
العلوم
البحث
##ورخ
المعيشية
الاجتماعي
لهذا
##بنى
مباشرة
و1
الرب
##قاد
##لاع
##ذب
##ارقة
انهم
والستون
وبين
البريطانية
الخلايا
واربعون
الاشخاص
مف
الفريق
رسم
العليا
الجنوب
مرض
نطاق
البد
والاربعون
##ستور
##باع
##لوب
وجه
الجسم
##ed
##جات
##ونغ
للاسر،
##ظة
والستون،
يو
النمو
لعب
##اجة
والك
2008
##واة
بانها
##بطة
الشركة
معل
السلطة
نسب
الشرقية
الكهرب
الاصليين
انتقل
لاي
المرك
وهناك
##حن
العملية
الساد
##زين
اواخر
##خيص
تنظيم
بف
##il
المدرسة
بالع
##وسية
الاط
##يمان
##عددة
البحرية
ذوي
بذلك
التالي
##انس
##عبة
##هرة
##زو
شريك،
لعام
القديم
##ام،
معيلات
الاض
الاوروبي
العلماء
قرية
##واصل
##برى
الكبير
##orm
الالكترون
فكان
تالفت
بمتوسط
2012
##امت
##am
وجد
##ساس
الاو
##قلال
##طال
غرب
لاحقا
##لحة
ارض
##قاومة
رب
##افع
##يفية
الحصول
حكومة
وو
##يفة
##حتى
مساحة
الامن
دعم
الحدود
التر
##ثيل
النم
الحالات
السلطان
تقديم
الرابع
را
نهر
يخ
الاحي
الزي
##عاد
معركة
##ريا
##غيل
النها
##فال
2009
اجتما
الديمقرا
المسيحية
##تا
النبات
العايلة
وسط
يحدث
الكاثوليك
##بارات
الانترنت
السف
الخارجية
بلاد
##حب
##ليب
##وجود
##امر
##ro
وبال
كول
##وسف
تشمل
##شاط
واش
تعرف
والر
السلام
تظهر
لاب
الاساسية
##يق
##ينيات
##تون
المدن
فض
يعتقد
##ندية
2007
الدفاع
والاس
الخم
بالان
فهو
بيانات
الاير
شيء
جما
الباب
##احب
2006
##صاص
لاول
ظهر
محا
المال
واخ
امريكا
القوم
##رافي
الحض
مسل
وير
وحتى
اعلن
ويل
رقم
باي
##كلة
الثلاث
لتح
ويق
##ارسة
المحلية
32
##صلة
الامبراطورية
##ونات
المسيحي
اشت
ها
لانه
المجموعة
فهي
##وفير
##ز،
##لفزي
##له
لغ
البريطاني
وانت
فاز
بخ
الاسم
عنها
يسمى
حالات
الجامعة
تمكن
قاد
شعب
##كب
السب
مجلة
##nd
##يل،
##ار،
الصين
##لاج
##زام
##ريبة
لهذه
تحقيق
العشرين
سمي
جيش
##قلة
جبل
##وتر
السر
رغم
بهذه
##10
السم
لكنه
الاصول
##فقة
##راتي
شارك
##عال
بحيث
اللج
تاسيس
##رييس
##كثر
يصل
##طوير
حياة
جمه
##حم
العالمي
المادة
هن
##فهوم
نصف
حال
دين
التم
والام
رجل
##جح
الرجال
##ونت
الامم
##ula
باعت
##وبات
##وون
##انوية
ارتفاع
قايمة
للام
والغ
التخ
التقليد
##ch
##ته،
الحالة
فلسطين
وتق
##وعية
الداخلية
نص
##ق،
##ريع
##حدد
واج
الحديثة
سكانها
الدينية
انجل
##قدر
تي
الحرارة
اطلاق
تعليم
##نوان
معا
##باح
مرحلة
189
البار
شهد
تطبي
##رر
##وخ
خص
جايزة
المصرية
##le
تحتوي
متن
جي
الوصول
سواء
الجنوبية
##هج
تشير
تحدث
جزيرة
اثار
##داية
##اء،
مقد
33
العاصمة
##ينما
##نيات
##يكا
##ابلة
##واعد
الميلاد
##راهيم
شبه
##صيل
عرقين
مختلطين
##رجع
مرا
##فاض
##ormula
##ولات
بطولة
ليست
ير
##ونس
ولكنه
##50
الـ
مقاطعة
داي
تشكل
بري
تبلغ
##كرت
الامام
ويتم
اوايل
##هتمام
السابقة
الطريق
عالية
##بيض
تسمى
تقل
المحيط
صد
##ماغ
بالس
بالر
الصغيرة
التف
##ing
كثيرا
فانه
ظهور
مكت
##رة،
طويلة
البيانات
##ضاع
لند
##عدم
لجنة
طريقة
نظرية
واله
درا
مشت
التالية
استر
##حيانا
واسع
المرحلة
ظهرت
الاكبر
وهم
القلب
2014
الواقع
كبيرا
يعني
الشعر
36
الصف
##ور،
##لندا
##ويورك
السيد
تصل
لاست
##»،
##وسع
##ويس
الوزراء
##ك،
معه
##زوج
المغرب
##كوين
وكل
##ولت
شع
##اصر
وتع
عرف
عشرة
##وفا
الاسلامي
وتح
العلمية
خلف
كات
الاشت
اعداد
##اني،
##زاب
بالقرب
المثال
يا
##وعي
##راءة
##قوق
المول
يعود
يظهر
لين
البرت
2013
الاعلام
بريطانيا
وليس
الموجودة
يقع
##شية
حي
والده
هيية
استمر
ويوجد
الجغ
الاحيان
##ريح
##ميز
الطبيعية
##قرار
##وله
للمدينة
##امب
مين
الحديد
النظر
رح
الاقتصادية
لـ
formula
##شفى
جورج
رجال
مط
الشخصية
اطلق
تسبب
اهمية
نفسها
الكبيرة
المدارس
اللغ
##وية،
وزير
منح
العص
اكس
علماء
المحيطة
الملكية
الجوية
2010،
##ايها
المعروف
2005
وفاة
##جاوز
##اله
وسايل
##ماس
##داء
جل
الانتاج
التجارية
المكت
ابراهيم
ذو
مدى
ته
المجال
الشرطة
##ذر
حمل
اشكال
العلاقات
##جز
بعدها
خمسة
حض
##علقة
ويس
##حق
بالك
تا
ظل
نظرا
188
##جع
شبكة
##ذية
جمع
المف
بقيادة
الجمعية
##دل
فقال
للص
2015
تغ
##اسي
منتصف
##حص
##ظمات
##ادت
لفت
سير
النات
اختيار
الحيوانات
تحمل
##ضح
الشباب
##تال
##ناطق
الايط
الالمانية
عليهم
علاج
سوريا
سف
##ثال
##ساعدة
بغداد
عصر
دمشق
34
بور
##ساء
##درجة
##ده
##عام
##مرت
اربع
##عمار
##ري،
##هاء
##ريدة
##شح
##هادة
اقتص
الكبرى
ومت
بحلول
37
حدود
سوف
##صاب
##قييم
محت
العسكري
مصطلح
النار
##فسير
وعندما
اراض
##وجيه
النبي
المحكمة
نيويورك
##راكز
ولي
محافظة
كلمة
##واجه
الكر
حدوث
شا
وايضا
الست
القران
حاول
انته
بدون
الاخير
شار
الصحي
الشكل
جزي
الجانب
بسر
يرت
الطرق
باشا
يك
القوة
##re
الطريقة
كامل
نشاط
##واجهة
المنتج
##اسم
بنفس
بالج
##غا
مسوول
لقب
صوت
المفت
الاقتصاد
##طاليا
فكرة
كي
##تع
##راوح
مان
الصحة
قاي
تمثل
##دون
##دات
الطلاب
المجا
##خاب
الباح
##عاب
معينة
سان
##خفاض
والاج
لمن
اللجنة
طويل
تغير
والل
##افر
اصد
حديث
والمن
##فاقية
التب
##لسفة
مات
60
والاست
##عبير
الخامس
اللبن
الافارقة
يشير
الطفل
##وجب
اسبانيا
##غان
برا
ارسل
##صرف
الفي
حص
دفع
قيادة
##ميات
##الغ
الاسيوية
مباراة
القاهرة
لص
خلي
لر
##اديمية
الجنسية
وبعض
جزءا
يجعل
الطبيعي
##os
بكل
اسس
فتح
والاد
##فيات
##جمة
##تلك
##هي
##ثناء
المعد
باك
محاولة
فق
تصميم
مهمة
كرة
حسن
الانتخابات
ابرز
##يزة
##عاء
وسجل
187
##احية
##وند
لبنان
186
الفق
الغربي
اضط
##ودية
تطور
##عيم
الدكتور
الافراد
احداث
##درس
نقطة
القا
##تان
##iv
وخاصة
##غال
الاحمر
الشمس
جر
تماما
##كين
العثمانية
قط
يزيد
علاقة
شخصية
##يروس
##غب
باعتبار
جام
المرا
جان
هار
لخ
##ناط
متعددة
الجنس
الباحث
2004
زي
المسرح
اكتشاف
انس
الهواء
بعنوان
الاسراييل
##صالح
البول
العن
##رته
##بير
##وي،
كتابه
##ac
عضو
##لالة
##شات
##صاء
ومح
الدراسة
38
##ع،
وله
اليس
وادي
اعتبار
الحمل
فار
تضم
##قة،
السادس
تنفيذ
تغيير
##سته
عامي
الوق
الاحداث
##عه
##كري
##ليل
الوسطى
سبب
هنا
الاوروبية
##اخذ
المورخ
منزل
##ريعة
##ent
وحد
##ايير
الانجليزية
الكويت
وصول
اجزاء
الزمن
مسرح
يوسف
الطبية
##وجين
يمثل
قناة
لله
الكتب
الدور
بلا
بدور
العض
انضم
الشرقي
موسسة
التابعة
بهذا
تصنيف
السنوات
##ولوجية
المتوسط
##صالات
الحب
واص
of
الزواج
##عديد
##بهة
يتعلق
المعت
ففي
قيمة
المثال،
الممكن
يسمح
بث
العمليات
ولكنها
جهاز
الجهاز
لندن
##علوم
الادب
##id
##انه
##ياب
##طط
السيطرة
باريس
وهذه
جمعية
الشركات
المشروع
##ايص
##تمي
كثيرة
45
الور
##مرض
دع
##خلص
##وعا
الدوري
الحالي
الجمهورية
المثليين
الشعبية
الصحية
العلمي
كري
##دير
الابيض
البداية
دايما
الانواع
فهم
حسين
السوري
عمرها
الثقافة
نيو
المالية
القدرة
##راحة
بيل
الوظ
انتشار
صناعة
##ملت
##الجة
روسيا
صاحب
العزيز
##اسة
ارس
محم
##وكس
بطريقة
##عته
نق
بشان
2016
قايد
مرات
المستقبل
المتعلقة
الدماغ
مقر
لغة
الحقي
اخرى،
مرب
الاثار
صل
مكون
عديدة
##اريا
جمهورية
##طول
انق
التك
المي
الرق
##رابات
##ــــ
##ثمان
التنا
دورا
الضغط
لكرة
بمن
واف
##تمعات
##عبد
البلدان
الثالثة
الكا
للخ
لاحق
مرك
ايران
2000،
فصل
المستوى
يطلق
اراضي
صورة
واسعة
##دمير
ماري
البرنامج
انذا
فرض
الحي
و20
##الى
الفقر
##راقبة
الفعل
انف
طالب
القي
##ارضة
منع
2003
##تش
رو
نقص
##رجمة
اسيا
فير
اغلب
الوحيد
حياته
الاقتصادي
البلدة
الاوسط
المتحدة،
##كذا
##جمالي
##ايس
المخت
يحتوي
##قديم
تشكيل
##شطة
##وافق
##سد
##رال
بحث
الحج
لات
مقارنة
##عدام
الكيمي
التجارة
شعر
الامراض
البشرية
##كانية
الساعة
العظم
واصبح
##ذك
##خم
تزال
يزال
النب
العقل
الهجوم
##واجد
##عية،
##يريا
##فيل
##بيع
##هام
اعتبر
لاس
م،
##زيادة
##واف
السبب
كيلوم
صغير
##فيف
الفنان
##لاحظ
بروت
سانت
تعيين
المرضى
##ليات
سين
##قين
اتحاد
##ولد
التقليدية
منف
السلوك
الغاز
مسي
مواقع
باللغة
##ارير
##كندر
وراء
the
نها
الصوت
ستة
يحمل
48
الكات
##ينيا
التاريخية
الحكومية
وقام
ابناء
تعتمد
الذات
المنظمة
##فو
الادارة
السياسة
##فاه
موسم
شم
الثامن
امير
##ومن
##ra
احيانا
كلم
ادت
سابقا
##اريع
2017
اظ
برامج
لديهم
الاعضاء
بمع
##ربط
##عف
##ut
اصدار
«ال
مجموعات
ميد
البرلمان
##قوط
##طاقة
الواق
المدني
##غو
صدر
80
##جليزية
المبا
39
##برة
طرق
##جمات
خمس
قاعدة
##هولة
##يلون
الاشتراك
المحلي
فلا
اسمه
التل
##فاف
##طى
الحال
##لازمة
جزر
حماية
##شد
الضوء
نتايج
##ابر
##اجر
النادي
##راجع
بعضها
##حتها
مفت
##ليف
الرجل
افتت
وترت
اعلنت
##كلفة
النقطة
بام
مخت
تقرير
##اليب
##ستخدمة
لديه
زمن
كام
عبدال
##ريج
المسوول
باد
سيد
السابع
نم
تعود
قرار
وسي
##ومب
الاعلى
##ولايات
عضوا
الاسود
##سيا
الذه
##ول،
السلطات
دولار،
العصب
##نايي
سوى
المنزل
ايل
الالماني
الابت
الحقوق
ينت
الخص
##خصصة
اطار
##راعة
اهداف
تطبيق
اللاعب
تتضمن
##صا
##وكب
##وس،
انجلترا
معين
مال
انط
عامة
الشا
الهدف
##ظروف
للعمل
المسجد
ضر
العمال
اللات
لاد
بتحديد
##ورغ
ذكور
##رفض
##ياز
##ورو
لام
الفضاء
500
صنع
النق
النشاط
صالح
##ناق
##يتها
حصلت
المطل
بالد
صور
المكان
بدء
هدف
جيم
##اريات
المصاب
لانها
واع
قصة
انا
##شرف
الالب
ليب
##كتاب
##يانة
الساحل
يعتمد
العشر
للك
ثابت
##رام
وبر
بسي
القط
المعركة
توق
نا
##جموعة
##جلة
##قاعد
ايطاليا
وجدت
##تاج
الرحمن
##وكد
##ماك
بصورة
##يقة
##ation
##ثور
##شيد
الوث
قي
السورية
دخول
##ادم
##ig
المريض
الموت
##طيط
لصالح
##زع
السوق
ساعة
لكنها
الشه
مدن
##ونا
ناحية
العرض
المعم
البع
للاست
##مع
المستخدم
والمت
نشرت
بلدة
العصور
##ربون
العراقي
##وتي
امراة
##um
سك
صحيفة
2002
41
حملة
المعروفة
اجهزة
شك
اناث
كيف
قصيرة
مطل
معلومات
كنيسة
اغنية
##ولين
درج
قطر
العهد
الخدمات
يبدو
##ايين
##زيم
##احة
ستي
ربما
الجغرافي
مصدر
رسميا
الاصابة
الحص
الفا
النهاية
جهة
##يور
القبايل
ورد
سعيد
##ريمة
يستطيع
##اسية
لويس
##هرجان
##قف
التطور
نو
الشمالي
184
قصر
##يلية
العدد
الرومانية
42
انذاك
##اطر
الارت
يصبح
##ia
##يوخ
##كير
الروسية
للاناث
بينهم
رد
الخدمة
ومنها
الماضي
##راييلي
##ودا
##ow
بهم
وقع
##ادث
معهد
دبل
##يكية
فضلا
الفلسطينية
##ادا
تزوج
ضغط
بسرعة
وصلت
##هدة
70
النص
حب
##يمن
##راءات
القن
السينما
الثانوية
##لاة
وقعت
مملكة
2001
##ويج
ثورة
##شري
##الج
الاخرين
عددا
الاساسي
##طلقت
المتم
الراي
مفهوم
الفض
موسي
عز
##ومي
ويست
الجبل
بالب
النووي
رواية
##em
الكلية
##مم
قن
العنف
##ملية
##ad
##اطي
المسلحة
##طورة
##لات
90
البناء
وانه
##وايية
بموجب
اه
بهدف
47
قرب
##د،
الموسيقى
تودي
الدع
##un
صدي
فيت
الثلاثة
##بيت
حرارة
المباراة
معد
نور
الرعاية
تتكون
الاسلحة
##اليد
الارد
لاف
##ul
مهم
خصوص
موضوع
العلاقة
العثماني
واخر
روم
عص
##ot
الجزي
موتمر
43
##ابس
##فاوض
##ح،
183
ليت
قطع
شهادة
قرر
##باه
الموتمر
##ارف
يقدم
##عون
نسخة
##بغي
##جت
المها
البيية
كمية
صار
زم
لتن
##زيمة
##اوية
##تهر
البطولة
للمن
الاردن
يغ
اليمن
مجتمع
##برت
للغاية
مليار
الرسمية
44
يشكل
##ec
الدستور
مستويات
##لافات
الطرف
##افحة
الانف
##عتها
##شيخ
الوضع
##جابة
##اير
الامبراطور
يقل
ثاني
##عان
لتش
الاحتلال
القوى
و2010
لاعب
للحصول
المستخدمة
التفاعل
نظم
الكم
واجه
##اربة
الموسم
##اتل
هما
##ولية
##وسيا
مدير
##كنولوجيا
##فتح
يلي،
اقدم
روما
##ابي
منخفض
##ايت
##وته
الهي
بيروت
##صلت
القسم
العين
وعل
##نايية
##اتهم
يذكر
##سلسل
##رافق
##ter
تنت
الاهل
##حرك
حساب
ذكر،
##نز
المعا
##ذين
الخليج
الاصلي
القيادة
يتكون
##ناع
تعدادي
الفلك
46
رسالة
منتج
حكوم
راب
تختلف
جبال
بينها
##فيد
##ادلة
##نه
المزيد
محددة
ويعتبر
##دى
الطعام
ساعد
##سلم
##ذة
نظر
##فة،
دقيقة
فمن
مدة
فيل
لفترة
سعود
يرى
اليابان
كالتالي
سوق
الخي
الثقافية
##جلات
##حديث
ديف
الاما
يقدر
قبيلة
الموسسات
##خال
تحول
##ذور
مادة
مياه
##قام
##اكمة
البراز
القيام
الفنية
##غيرات
خدمة
عنوان
185
الفكر
القدس
نجد
محمود
##لاث
العراقية
العقد
الدن
دوري
الفار
مير
The
توفر
احتم
كانون
تعريف
مون
##وحيد
وخلال
صح
اصدر
##خاذ
المدنية
واح
استطاع
شه
الهر
##وم،
معت
الطبقة
##طباء
عاصمة
النمسا
انفس
الجنوبي
##يزن
الجنود
اراد
تحرير
الكاثوليكية
##لز
بالرغم
##قترح
##وبرت
##طنين
##اطفال
##واريخ
يه
انظمة
الكون
البلا
##مييز
الهادي
المشاركة
عناصر
استمرت
وتب
ساهم
##نيع
التلفزي
الاند
محطة
##ماح
النظرية
مصادر
منتخب
الاضط
الاسراييلي
##od
شريكة
لكي
اصول
مجموع
الصناعية
ابنه
خدمات
فران
##شب
اثنين
الشام
##زت
##وحات
توفير
اتباع
##صى
##ولف
جين
للاش
السفن
النقل
الامارات
التطبي
##راتيجية
الدعم
والسيا
نموذج
مساعد
##19
هير
##ناه
التعاون
تحليل
##لبة
##ماذج
الاثر
##ويض
النفط
يعانون
عسكرية
معيلون
اليد
خرج
اللون
المسيحيين
ولقد
##ريان
دير
المدر
فشل
مور
عاش
ذا
##رتها
تسجيل
كين
العالي
المركزية
الرك
##فعة
##بي،
##شن
درس
دراسات
##اكيد
رييسا
العوامل
##ونيا
تدخل
دورة
الرسمي
المري
التحرير
رفع
وست
العناصر
تخرج
##خمة
##st
2018
احصاء
اتجاه
##اكرة
##قاذ
التمييز
سرعة
##روف
تاث
الاتصال
##يوان
العالم،
كبار
in
##ريقي
##رايم
يز
التحكم
رك
المواقع
واصبحت
مرور
49
##ندوق
الزراعة
##تاز
##شير
##ثوذ
بتاريخ
يوما
##داخل
رحل
ناب
الاصلاح
زواج
##ش،
##ظل
القتال
اداء
عكس
##شرق
شديد
معرفة
النقد
التنظيم
الداخ
تشرين
قضية
الاسراييلية
كافة
##تهي
تض
انشا
##اره
##ادق
الدرجة
##خصوص
##وايز
##ناول
والز
نج
##وضح
للبل
تعني
##رايب
الطايرة
الرواية
الملكي
##ليون
##اهدة
مدر
ووف
هيل
##سيك
##رفع
التهاب
قدمت
اختبار
كتابة
بالانجليزية
انخفاض
##وظ
توس
لذا
وهكذا
اولا
1990
##وطن
فرقة
##ir
الجوي
قدرة
الحسين
القمر
وعمل
تجاه
##رز
قيام
وترتفع
تاسست
##بس
##لامة
##وتا
الحفاظ
الحيوية
تور
خلالها
##شرت
والط
كاف
بض
تحويل
القايمة
##حيط
##عامل
الفرق
##ثرة
##عمر
بالفعل
المثل
معروف
##قاب
##ساهم
عمله
ولدت
##حكم
نب
شان
الاه
##ديو
الجد
خالد
الكريم
فب
الحالية
المصادر
بالمدينة
and
الفقر،
التنفيذ
درجات
المجاورة
فس
جاك
##روج
##ريقية
رسول
جو
تركيا
الديمقراطية
النتايج
##رقية
تصبح
بمث
##علن
العثور
ضرب
عمو
##op
سياسة
كور
والتن
##im
##اده
##كلي
##بة،
##حين
1999
##اين
##رافية
بيان
يدعى
يمن
والى
قليل
الاعراض
الاصلية
ولذلك
خلايا
غال
كندا
##ماعيل
فلم
##فان
السبع
واك
الوحدة
الاستخدام
##ايعة
فرق
طف
السودان
##شرات
الاسبانية
الطبيعة
واذا
##واص
خصوصا
المجموعات
النهر
اصحاب
عمان
الاجن
##يكي
النهايي
وبا
تحسين
عموما
التصوير
الاسكندر
البرامج
القس
##وانب
قلب
سيل
##ومية
الحسن
الفصل
##نتين
صع
##سي،
بكر
##ستير
موجودة
اين
الاستقلال
يبدا
قياس
##قلاب
صلاح
خان
300
توزي
الزوج
وتد
تولى
المكون
المنتخب
##سكي
القضاء
تث
لون
##يته
مثلا
التاثير
##عيات
الهول
ريت
سليمان
1998
قايلا
طاقة
البحرين
##اليفورن
##ايز
حز
##داع
بكثير
وبدا
التشري
##فاءة
قوية
طرف
نجاح
امن
كج
##لة،
للمناطق
بمثابة
نايب
ماس
تعلم
الافلام
الدقيقة
الماض
البيت
##الث
متنوعة
الجو
##بكات
##سية،
البالغ
اسماء
القصر
البص
للر
خطر
والسل
##بان
السوفيتي
ميز
سقوط
97
##ag
##ماط
لبعض
اية
##هول
الكلا
والات
##قتها
المعرفة
الفرقة
مسجد
واعت
قت
اقليم
##اثر
قوانين
امريكي
وتعتبر
عرفت
##اغ
الافت
98
طوال
القرار
ثانية
مسب
52
القوانين
تكوين
ينتج
##ابيع
الزراعية
جيد
الوس
رج
كوم
تقسيم
اعلان
الشبكة
وذ
واحت
دايرة
ويد
##جارة
##اليات
فم
##مرار
مشكلة
##اع
قليلة
هجوم
الرو
موت
##واز
الولادة
شهدت
فرد
##زايد
السويد
الواقعة
فح
اسلوب
بالغ
الحاكم
##جمه
سيكون
يسبب
ناد
##ايية،
استخدمت
##ضية
##وسطة
مدار
شركات
##يين،
تصوير
غض
الناحية
ممارسة
##جتمع
واث
المصطلح
الشخصيات
الايطالي
اهتمام
55
معاهدة
النباتات
تول
الاربع
##ياف
كارل
##ب،
الشت
هنري
واحدا
180
ويع
تفسير
جيمس
ايه
##طفى
تناول
حقي
##قها
الاستر
##جيات
مواد
الاشارة
##هضة
##قسم
علاقات
ينبغي
##ويين
اظهرت
ذهب
##طلاق
##ثمار
##باء
ورب
وحدات
الاقت
##يدات
طايرة
البيضاء
بلغت
##وكي
##لاس
الاهلية
تنتج
قطاع
للات
التركية
الظروف
##يرو
الجنرال
مقتل
القطاع
##ود،
##وراه
##قطع
مشاكل
والستين
وكالة
##لفاء
الداخلي
##ينت
روبرت
بيع
75
##فز
وغالبا
التغ
تتبع
##مة،
سياسية
امكانية
الوطن
الرياضية
سبع
اللعبة
تبدا
##غار
للسل
تسمح
##قيات
اتفاقية
##حة،
الناتج
##بول
##ينو
##ik
تضمن
ناج
المهمة
ذكرت
اللح
##ناس
##فعت
الاغنية
##oc
النخ
بالش
بالخ
جماعة
استراليا
الابحاث
##ديه
وعدم
وتس
##ابقة
##يديو
سيما
كاليفورن
##رار
الحاج
الادوية
هند
الشاعر
المسلسل
ابدا
تشار
الانسانية
اخرين
##كتابة
##غبة
##عي،
وفاته
##خرا
##ريبية
##عودي
البيزن
الصحف
الحجم
##كاتب
اعراض
الاسنان
الملا
المقاومة
##دة،
الطايرات
كاملة
زوجته
اسباب
الغذايية
51
المحد
واكثر
ذي
حس
اسمها
الهندسة
وتشمل
##ذيب
##يمون
##نيين
قرا
انتخابات
##شاب
فرانس
السير
##باق
##ساير
واشن
اسبوع
##طو
ترا
الوقت،
سعد
بلد
محاول
##ضان
##مرة
القاعدة
##طوط
##اهل
وبذلك
تجمع
البوم
تفا
خطة
و19
##ستانت
##صدر
المشتركة
القايد
الهيية
طن
مستقلة
مجالات
اقيم
السجن
قيم
##قليل
##ملكة
تابعة
##يسية
##انع
فريد
##اسوب
اقترح
فري
يحصل
سلوك
##ف،
الصور
##وازن
نيك
يرجع
عملت
اجريت
السيارات
النفسي
##اد،
واما
بالص
يض
اماكن
انتهت
واخت
التعبير
بحر
تونس
قواعد
الاولية
الالعاب
واشنطن
الحاجة
الاذ
بيد
التابع
العالية
##ثلا
جمال
1997
##and
ويلي
53
المرج
باج
1991
الاخرى،
##ضى
الارثوذ
خي
قبايل
1996
##ويه
جسم
كيفية
الحقيقة
الموارد
الولاية
اكتشف
##og
##يوش
المنظمات
شعبية
القانونية
##طنة
الاحياء
1994
54
##يح
توزيع
يريد
##افات
اليهودية
البلد
والاجتما
المتب
المجتمعات
ثقاف
استخدامها
##فى
افلام
بالاس
التنمية
مطار
تمتلك
شارع
الرومان
ازالة
بعدما
الدرا
##ندق
خلق
انفسهم
الروح
عثمان
الاكاديمية
##وضة
مجرد
نسبيا
ممن
تتميز
عسكري
ارسال
96
##يله
الذاتي
اصغر
شيخ
##امه
البا
##وزيع
نجا
المناخ
روية
النجوم
الخض
##رين
خطوط
ومست
شيوعا
اسماعيل
كريست
##عو
التصميم
الابتد
استبد
الوحيدة
القتل
دليل
ساعات
متم
طبقة
عايل
الطيور
الكتابة
ضعف
##واح
##فورد
القول
##الين
الكهربايية
موسى
المطاف
56
سلاح
الحملة
حفل
##جو
التراث
الانجليزي
النصف
الغير
قيد
الامور
##عيا
##ولوجي
التعامل
كاب
الهيدر
كش
الامت
الجلد
لوك
مراحل
و2
اللازمة
العاب
الجمهوري
القضايا
##ونه
بينهما
وعلم
اقتصاد
##نق
##ابق
الموضوع
النسب
ليكون
المحافظ
ووفقا
الواحد
البشري
بجامعة
بالكامل
##را،
الاربعة
##واري
الاجهزة
##ضيع
##جاد
المركزي
محكمة
الثق
الصورة
بلدية
ينظر
الرم
يحتاج
ايد
اصلاح
المسيح
نت
##ri
معها
تتراوح
##يد،
ومنذ
1995
##ناية
المعارضة
اساسي
الطيران
التدريب
حج
##درات
##فيز
التقدم
الجر
##زيل
وتعد
اللغات
مقاومة
##قول
الكاتب
##راغ
الفرس
##يلاء
##سليم
دو
##عزيز
صن
##وايل
مباشر
تلقى
معروفة
البابا
التعد
الصراع
ضم
##قدة
الكيميايية
الموسسة
فين
الاذا
التون
##كيم
اليونانية
##نيه
الكاينات
حقق
##خور
ومد
المغناط
وضعت
ht
##سيج
الصحافة
المنخفض
يتضمن
##ريش
تميز
95
##غن
##لافة
##ناف
##بيه
و5
تقييم
عامل
سبعة
##يوب
البرية
القديس
بشر
لض
مارك
ايدي
الاله
##بلة
##كلم
1992
##فيه
##شط
الحقيقي
جير
1948
##ندس
سياسي
اوس
المذ
##رياض
المرتبطة
مراكز
##دوج
سنويا
للمرة
العودة
الكربون
##قاق
دعا
والاخ
لمح
##نوعة
الاتجاه
الفلسفة
ميت
الني
المفر
القصة
رق
الراس
اشار
القرى
ابت
فقط،
ماك
اسلام
181
مبنى
سلطة
وعن
##نة،
وفر
بمدينة
##لاقة
يقرب
وترك
المعهد
##بعاد
##درج
##طبق
النطاق
##ارسات
المقر
##غلال
##ers
الصينية
يساعد
الاكس
يشمل
##ارين
استعمال
##عرفة
متحف
العصبية
فص
يشت
الثدي
ايجاب
والاح
##ساوي
مهما
ويح
##واقف
##ايفة
الاتصالات
عوامل
##ناح
الجامعات
حاكم
##قيام
الخليفة
القيمة
ملم
المتح
تعزيز
اهتم
الاولى،
والبر
مسلسل
فور
حلب
##عاع
لاغ
64
##واحي
##اليين
##هلاك
مهرجان
##لندي
مسلم
##امن
والاقتص
والمس
بقية
توجه
قابل
وقتل
##افت
179
طور
##تبة
تعالى
التواصل
##زاع
المعلم
ولما
##خلق
سلطان
ويكون
بولاية
اتخذ
توثر
بطل
لنا
150
الموافق
اعد
نز
فانها
الالت
التصويت
##نج
ادم
##غطية
الشريف
الموجود
##بيب
##سيق
اقام
##باك
مجد
بوت
##ستون
الحرية
سيف
اقامة
قالت
نيس
تقول
عقب
مصطفى
موظ
النووية
العظمى
الفص
##يتي
##يوانات
التركيز
الده
قلعة
الديمقراطي
##كك
المحافظة
جنود
عش
##ايهم
حرية
البكت
مساعدة
المنتجات
تقنية
الحمض
ترتيب
##قبال
النفسية
##حايا
62
العصبي
مربع
رحلة
يضم
##جون
هام
وغيرهم
ابتد
##ميزة
افكار
حفظ
النح
الحمراء
معالجة
182
وفق
نشا
الهجرة
تشغيل
St
99
استن
انتهاء
جهود
مكة
##مارك
الاطلاق
##دخل
الفنون
##ياجات
مناف
##يس،
القبض
الثمان
ابحاث
بتن
##تها،
يخت
##بين
##مس
ايضا،
الاسباني
تعل
الشعبي
امين
الانظمة
وسل
زوجها
كنت
مارت
مستشفى
##جيع
اللاتينية
##ظار
بعيدا
##ابا
صي
تحد
##مح
وارت
القيا
الفوز
يملك
لحقوق
##ولو
الكه
بنت
روح
##رط
ظروف
ونظ
الثقافي
يختلف
الجبهة
##اصب
##برية
##طوري
##يدية
1993
##رجال
ويليام
لتحديد
##اصرة
وجن
الالكترونية
الملكة
اعماله
البرم
85
بمعنى
الاعلان
الاماكن
المدى
شن
مدارس
فقدان
حلقة
كيلومتر
الصيد
وظيفة
##ايط
##راجعة
النواب
مستقبل
1980
التحالف
##th
يلعب
لتحقيق
الطلب
وعادة
الشيوخ
##قاليد
القومية
##شارد
الخلية
سام
##ارة،
##همية
##قدمة
##لي،
كيلو
هج
##غييرات
التو
برم
وربما
##ارن
المرتبة
يمتلك
كتلة
فو
الته
##ارق
##رتيب
والعشرين
ياتي
واخذ
##فاز
النموذج
باستثناء
متلازمة
##بك
الايام
##تيبة
النحو
وتر
##كتور
الميلادي
##انى
##سيكية
الاوكر
جنب
57
الدورة
ثمانية
المشر
تجربة
In
شقيق
و4
ليل
بعمل
البرتغ
القناة
##حته
يتطلب
تسمية
##وكول
الخارجي
مبار
عال
اشخاص
رييسية
بذ
سميت
قس
58
كوريا
##اجد
400
##ني،
السفينة
عيد
##روة
القاد
ملايين
##فاهيم
##حه
##ادثة
الفيدر
##بو
الاهداف
والمح
المقدس
الايطالية
كاليفورنيا
##بيين
التحق
القومي
التحليل
طال
طفل
استقلال
اصيب
##ab
##يمياء
##كشاف
رود
الارج
##فاد
الذهب
الدموية
وسلم
الاطل
الصحراء
ومس
قادة
##ثي
##تيات
##وارع
##جرين
##انو
للدولة
تهدف
##زف
##دران
اللاح
شغل
وانما
الكامل
الكونغ
##كسية
جندي
موري
ابنة
ويعد
الضر
لوس
يحي
##جاجات
##اسيس
لعدة
ليصبح
1967
اخراج
مناسبة
##هلك
بوجود
الفيديو
##وفية
عرب
ممثل
##ج،
شخصا
المشاكل
##جمعية
ووضع
المواطنين
يط
##سباب
##سيمات
التقنية
الجمهور
##ويق
معدلات
الاخبار
##براطورية
تبقى
الصلي
حينها
الصغير
تساعد
حف
القضية
تفاعل
الاستاذ
باقي
اتخاذ
المساعدة
250
الكرة
وتحت
الاشعة
اطلقت
سال
63
##يات،
غرفة
اساسا
اوت
الاهتمام
الكلمة
الروسي
##ضلات
لتكون
الذاتية
هان
مثال
الحس
روب
##حويل
##ay
تدعى
الهندية
كلها
اولى
حقيقة
##ما،
الافكار
الغذاء
##ربين
تاي
##خين
العشرين،
ربط
المصدر
الاطباء
##قرير
موقف
##حاق
جريدة
نقاط
##نام
فول
الاسباب
##ت،
جيل
كهرب
##ابط
عمره
##جير
يتمكن
##وابط
الذاكرة
شاه
سيدي
دخلت
com
وتكون
##كرر
كم²
تركيز
العا
البييية
بها،
زال
المناسب
شاركت
كجزء
وتص
##طلبات
واضح
اجمالي
لعبة
تزيد
ميناء
المصابين
انظر
فرع
##لالات
تدريب
النسخة
لجميع
تتطلب
مالك
قادرة
الصدر
الاجتماع
السفر
نجم
المحتمل
واستمر
للانت
فرصة
شييا
ممكن
رياسة
دراسته
##واكب
المسلمون
موقت
اشارة
وابن
وجهة
##كتشاف
فارس
للط
والمست
الطبيب
ليف
82
غاز
بشدة
الشهر
الكلام
الروس
##بوب
##يذ
##وصول
النجم
##تز
المتحف
البنية
الحرة
وتل
والجن
الجس
احياء
##رسوم
وظايف
طل
ليلة
تدمير
اصدرت
امراض
1989
الثانية،
تيم
الاعتراف
الاشياء
الممثل
التفا
كتبت
المباشر
##ist
1970
ملف
##طت
الذكر
وجعل
تقليد
توجيه
التقل
للث
سري
الكترون
##ويم
اكد
للفن
وذكر
الحروب
رسمية
##فيين
##ce
##زان
ببعض
طبيعة
##وريوس
فاذا
سفينة
##tp
فاس
##ونها
للاطفال
معرض
المتوقع
والعمل
انتقلت
السعودي
السريع
##رنسا
خدم
اضطراب
كس
شرح
لط
الميد
الدبل
##انغ
##بره
الفقه
اقصى
وحصل
الجهة
مسار
##ميت
تعديل
المبكرة
الانشطة
العدو
الدست
الليبر
والتعليم
ويب
والبي
ورغم
بالام
##يفي
طايرات
هرم
مترا
##قيب
الطف
وقف
مواجهة
سليم
de
وحل
ترتبط
اللبنانية
##لاص
الكنايس
##فتها
اتفاق
فكانت
ملحو
##لاحظة
علوم
مناسب
120
##نا،
الصيف
التجاري
جذ
العظيم
الخب
فون
واول
رييسي
جول
##يرة،
بجانب
يعت
سرطان
العربية،
الحيوان
المشترك
الاداء
لانتاج
##بابات
مواليد
##بيوتر
التقد
##ريغ
منهما
الاستخ
ورييس
##ستها
له،
المباني
للز
الصد
##عفر
يهود
الاموال
فك
الالمان
الكبد
الموظ
وهما
صلى
غزة
اقرب
شديدة
##يره
ينص
الروماني
##رو
السويس
القلعة
ماد
الفني
##اضر
##رابل
الاسبوع
الليل
واضحة
البحوث
الغاء
##يتين
جنبا
93
التجارب
خصايص
##فذ
والاش
66
صحة
نبات
وكن
الموافقة
فلما
استاذ
سقط
امريكية
الكشف
##وسة
84
الاقص
للض
وبي
تعرضت
ابطال
بالط
الافريقية
الفكرة
طرد
##تيال
http
موسس
لمنع
انتخاب
87
التيار
##ine
اوليك
##تية
المساواة
##سيطرة
تحتاج
الشمسية
الحماية
السيدة
يقال
راى
##ap
ايرلندا
##جمهورية
باعتبارها
توقف
##جرد
السلاح
اندر
88
Ch
الحية
اليابانية
##سيطر
ادوارد
سلم
مماثلة
السطح
وبل
الجميع
انتقال
الاثرية
يحاول
##طنطين
##ورين
النهايية
اكسيد
المبنى
##وتش
يدخل
حك
ليون
##دي،
الانتخاب
زالت
الحا
وبن
للتن
##ie
القيم
الغابات
الذك
موق
##فيفة
عود
الاول،
ويش
##ماج
جاءت
##زون
لاج
عباس
تبين
الهندي
راف
يشار
واغ
وعد
##وقات
##ساسية
##يرون
افتتاح
وقبل
##قار
##نها
##يلم
ساحل
ديفيد
لتم
هات
##ساد
اغاني
لمس
والض
يتحدث
بانت
فوز
حما
الاشجار
عربية
59
وبدات
الانتق
##قيه
مكتبة
هل
##فير
اضافية
والمد
##يما
الموصل
اولاد
التشغيل
الالبوم
الرسم
سجن
بنية
شهرة
الجبال
##ايك
ادخال
الامطار
##طنا
##ضمام
البروتستانت
##خار
تشارلز
مكافحة
الضرايب
ونتيجة
اثبت
1988
يوثر
باله
178
##اكد
ميات
مذ
##ديان
##انيون
الله،
فيصل
اخبار
2011،
مشاركة
التعليمية
تستطيع
كو
اسفل
نفسه،
##صات
يقارب
1945
الكلم
المجالات
جوزي
تشخيص
المدينة،
##رويج
الحدث
توماس
##وتو
جيدة
الفيروس
نشات
الباحثين
##هيون
السلسلة
الفلسطيني
بفضل
النيل
بسهولة
طلاب
روي
الطويل
الادلة
المهم
عدا
صحيح
ويقول
ميش
##تصاب
سابق
منظ
الفم
الاحزاب
باص
يقت
التربية
التعلم
سمح
رسمي
##وسا
الرقم
مبدا
ازد
##ركية
##ub
ثالث
سوء
الرياضيات
زاد
##لو
##يرك
##اريو
##30
معنى
المقابل
##قلت
وكتب
المنش
الوراث
اعيد
##يال
##وزارة
امرا
الشديد
يرتبط
##جري
##الي،
مسافة
لاستخدام
الغالب
حدثت
الغر
##وولة
1975
حاج
تموز
1986
سيارة
قضايا
كوب
السرطان
مايكل
مدريد
الخلف
يفت
يعطي
##فون
##لاه
وبسبب
لدعم
##قوم
باخ
الرياح
##قاطع
68
ذاته
دستور
قادر
##واه
الفيزي
##يديا
الهيكل
صم
الكهرباء
##وره
وبقي
##وتها
الوجه
المقدسة
ملعب
##حار
##ملوك
النوم
تمتد
سبق
##باس
##داول
فيها،
كولومب
الاطراف
جس
بالمق
##نامج
وبه
التوجه
حدد
الامثلة
صفوف
تخل
حظ
المهنية
نوعا
##خرية
العاملة
فات
قصير
الصوم
ذه
94
والفن
##صي
لاحظ
##برات
##تهاء
التدخل
الدخول
1960
كشف
للاد
القايم
المشكلة
##مار
اخرون
طبيعية
عثر
اطول
الاتفاق
##ادن
1973
##ظاهرات
والمع
فاست
##قيم
ويعتقد
الايرانية
رعاية
1979
1982
ملا
نمط
لدراسة
##قاطعات
اليونان
الحديدية
باغ
المحا
تقدر
خس
ثنايي
تاليف
حرف
##يسكو
فيليب
قليلا
##دريب
موجود
مونت
##اييا
باتجاه
##ارته
بالاست
المشارك
غز
التربة
الديني
بقوة
تتعلق
السرير
اسابيع
سيطرة
الدخل
علمية
تقارير
ظاهرة
حمض
فيروس
الخصوص
موخرا
برن
الصناعة
زعيم
الامة
حاجة
صباح
والاب
لمع
التوالي
بارت
re
انجاز
لتص
اظهر
صنا
غيرها
الناتجة
الادارية
ياخذ
وعرض
ومسا
لال
القت
الاولي
2019
التض
لعلاج
##بيعات
مصر،
ظلت
الادبية
جمي
ونشر
موضع
67
##ايح
والدها
المقام
البرازيل
##هاجم
اصابة
وتتم
91
الاولم
اعتماد
يتمتع
التشخيص
التفكير
الخطوط
ريتشارد
جه
##عش
ناش
##ل،
##طوع
اعتقد
الرسول
##ct
لتس
بون
ارم
والاف
للقرية
الجماعة
بيك
الحادي
فحص
طراز
الشهير
التعرض
وانته
لار
الحلفاء
استد
المضادة
منخفضة
##واير
والذين
##اري،
مشترك
لتصبح
##شارات
الاسماك
##او
التوق
محرك
86
استخدامه
الالكتروني
61
حصول
##علومات
والاك
عام،
تملك
##نغ
##اديم
السايل
2008،
تنص
2012،
##ومين
فج
##طة،
##فيذي
وبعدها
كلي
##عتين
روز
للقوات
##ظيف
وبناء
##صلحة
##اعد
1984
الارضية
##قان
الدكتوراه
ناي
قاموا
البيان
امل
تجاوز
##جنب
##فادة
##لكية
الخمسين
خليفة
تجعل
177
باعتباره
##فاوضات
##يرت
72
##لاقات
92
وافق
الاصوات
السماء
اعتبارا
نقد
##عدات
تلفزي
##ph
الثل
##وتين
الاخلا
ثقافة
ليبيا
اجتماع
يتميز
الاستعم
لوحة
##ess
بحوالي
تاتي
قطعة
##وسسات
احتلال
##يها
2009،
القانوني
كتابات
##لاغ
العلوي
عمرو
جميعا
وبحلول
كونها
##وسيقى
##غرق
1987
تدريج
ابا
فاي
المستعمر
الجماعات
صرح
وسيلة
قبر
بالمن
مسالة
للاب
يعيشون
تمثيل
وعبد
هزيمة
لعمل
تركيب
دبليو
قوي
بمساعدة
لذلك،
شباب
النصوص
اتصال
##جاة
هزم
لتلك
##لاند
المصر
##ومان
نيسان
اجن
##ابهة
بتح
##باين
العش
تقنيات
الكتلة
1985
هر
##نون
اعطاء
يشبه
##ud
سفر
القراءة
##يسى
لاع
الحرب،
يكت
تذكر
كميات
##فرقة
اعقاب
التمثيل
يث
بلدان
2014،
فش
00
##رمز
للاص
سيتم
##فعية
##لق
##تيح
الوعي
لاعادة
مولف
للاج
ياس
سيت
بتص
الوقود
##غوط
النتيجة
2013،
الاجزاء
##ضيق
حافظ
نجح
الموسيقية
جيدا
##ard
معايير
##اخر
العامل
مراقبة
منش
هيكل
مستقل
يعاني
كوس
##بطولة
لنفس
باف
تاج
الكحول
خطط
كافية
##داة
هاجم
##ov
##قاع
وكما
مري
بمح
قصص
سنوات،
قمة
محافظ
سلام
يصف
الحين
الاجراءات
اجتماعية
غادر
سما
وتحديد
مرتبطة
المايية
##شكلات
الخطاب
المالي
##طوي
اساسية
##ورة،
كونه
زين
التقليدي
العام،
عا
وتوفي
وبم
المستشفى
الشتاء
الاقليم
##حقق
الامريكية،
مقت
الشيوعي
بز
تشت
الماج
##لاط
بحيرة
التمر
لاكثر
وبد
##ريبي
##ديات
تحالف
الضفة
تصدر
احدث
##بري
السكر
##عمرة
##ازل
اختلاف
##انين
اليومية
وتج
رمضان
مسرحية
ولهذا
مجددا
لوح
العلامة
تشبه
شخصيات
الحلقة
##عمدة
وجاء
الاسكندرية
اللواء
عادت
ماريا
رابطة
ضعي
النمط
البقاء
البسي
الوج
فعلى
ساحة
و«
##طلاب
هولندا
بقايا
ورا
##طلاع
للبر
فترات
البلاد،
##قايق
تدعم
المركبات
الاستعمار
بيية
كه
الهرم
الحاسوب
الافريقي
يقود
بعيد
##فيض
معسكر
اقوى
اود
برج
المطب
##صفات
مسير
للحكومة
كلما
##ناسب
##جاع
خسر
سكن
يلت
المذهب
بعدم
لكون
##قيقات
باش
استش
المكسيك
##ابيب
النجاح
##طوان
##وبا،
البعث
الكلمات
##شفيات
مبكر
1981
مبادي
خاض
لاص
اخيه
يدل
التعرف
دل
الجزر
المحرك
##قوب
##هاض
يتبع
2007،
الجرا
##كرار
##وادث
وسب
وبشكل
##الية،
سراح
##ربت
##فاضة
دايم
المحم
##واهر
الوزن
الجيل
الحجر
##تمردين
##تياب
بولندا
يوفر
اساليب
##اصيل
الهوية
قرى
زيد
المناعة
الصار
2015،
الاخضر
الشعوب
##يسون
الانتقال
##طاقات
78
والهند
يمر
مجمع
##اذبية
وتخ
سيط
مالي
اضاف
خلاف
##هري
##فعات
##تلر
73
تجارية
للنساء
سيم
##مى
سرعان
الاندلس
يجد
قبول
تحدد
##شى
يطلب
الفيز
الغلاف
##غرب
التحقيق
به،
تحل
رام
##فترة
##فار
ارك
تركز
##اءة
المنازل
##شين
الميت
##وتن
المدير
الناصر
اخذت
##طاعات
بنيت
اهمها
عودة
الجي
البريد
الدعوة
##لندية
نات
##ضب
##ضاة
مشاريع
يحيى
الزم
العرش
لحماية
اذار
التقارير
##وف،
ثل
وعم
البير
العظام
لاخ
ومص
بوصف
اللعب
المستمر
مقدمة
والاص
##av
بحرية
يحدد
حزيران
انتق
##ev
خطا
تخصص
الشوون
الضوي
بالعمل
المتعددة
##شاة
1000
المرة
حظر
ناس
1974
الاستخبارات
بنا
تدفق
##ابير
واز
ملوك
القواعد
76
وزوج
ادوات
عرضة
مشتركة
الاجمالي
حديثا
الاجنبية
قول
الرابطة
الطبقات
السوداء
##دادات
الانجليز
##تمرات
القصص
العذ
الطق
جوايز
موسيقى
ند
##ضافة
الارض،
الكام
علامة
الصباح
والثقاف
83
اوكر
الشرا
للجيش
الميكان
عما
ويبلغ
ترجمة
##يسيا
##زق
وقامت
##عن
جنس
انتهى
##نح
##ادرات
ايجاد
التدريس
واستخدام
##ياغة
1972
قاعة
89
الادنى
الواس
عنصر
الكوم
الميث
وخل
77
التغيير
##شاعر
كلمات
##ياكل
##اقم
##زز
الدواء
عاي
تقدير
تبر
##افا
كوكب
##قاش
حجر
##ريين
##ak
##ساطة
جامع
الفيزياء
الانسجة
تقليل
كوك
##عمة
الفردية
74
النقاد
قابلة
لعدم
##رغم
برلين
جعفر
ارج
سالم
جوزيف
##فرد
الوجود
1956
طرح
سد
مناق
باخت
اتهم
الهد
تهديد
الابتدايية
ضخمة
التخصص
##راء،
اضطر
1983
نجاحا
الرسوم
زيارة
باكمل
id
للمراة
الوظايف
تايم
##غ،
دمج
اعتقال
عاص
ويجب
##وايف
البق
لها،
##واك
زار
التعريف
التخطيط
##شتاين
فرص
عليه،
لوي
2006،
الاصغر
1978
المعالجة
الحرارية
الحقيقية
ذك
##وايي
امثال
##يمنة
##وقرا
لشركة
##كوك
والعلوم
التجار
طبيعي
##ou
صندوق
##رحت
##وهم
##رابلس
الدنمارك
##سيين
1971
الوف
##صنة
الرسالة
المشاريع
الاقصى
##هيل
##قلية
##فسر
هنالك
والاخر
1963
المفا
السري
الكوي
##زلة
قررت
الكاملة
الاعتبار
غياب
تطورت
البروتين
جا
تدور
اقيمت
جرت
المخرج
##ضرورة
الاغاني
بدر
دينية
##est
غزو
الوك
الشرعية
ايلول
الانق
الغزو
##انيا،
شراء
الموقف
والعديد
اقسام
##ابرات
شكلت
ايار
التركي
تعاون
يواجه
الايجاب
صدرت
##iki
العاشر
##مين
للمس
وتست
الصعب
وتقع
صعوبة
##مادا
الصناعي
الامين
لبر
يكتب
الحف
خض
##حلة
التحت
فعالية
##عضو
السرعة
الاجسام
يشعر
ضوء
##كاثر
الشهيرة
##عراض
##مالك
الجزايرية
خير
العاط
الرياضي
حضر
الزجاج
لسنة
فروع
##يتان
التنفس
القطع
وثيقة
انع
النهضة
التحول
1976
البرلم
عملها
71
المعارض
والي
النصر
ونقل
مراد
مزي
##بوط
جنسيا
زوجة
يضع
اليهم
##شرح
تصف
سفن
واعادة
قديمة
اعوام
سافر
##ارسال
التجربة
اضع
زراعة
##ذاء
توقيع
المغناطيسي
الالاف
##وهات
1968
جلب
##عاة
1969
1950
اجراءات
حمد
والانت
الاسواق
بانشاء
يجري
البحري
لعبت
للمح
محاولات
##زيا
البنك
موسكو
الحصار
الجان
غالبية
##واط
##ياط
##كمال
حياتها
##يط
##دمج
هتلر
##كاس
بنفسه
لبناء
##شاير
اري
القريبة
وني
نساء
تسمي
علاوة
##ينز
سهل
فيهم
محدودة
الاختبار
قيل
وشارك
القارة
البو
1962
ومحمد
##ران
##ويف
اسطن
بصفة
الاقليمية
الارمن
سنة،
تقت
موسسات
##ضيف
مجل
الخلافة
يتعرض
فرس
ادلة
##وضوعات
عالي
1964
لقاء
##ركاء
انشيت
سلالة
المنصب
ناف
مركزا
تدريجيا
حام
شملت
الصي
الجامع
التلفزيون
الدبلوما
العاملين
نسخ
##نر
اعمار
القادر
##تهاب
ترجم
81
حينما
##ويب
##تيك
الاعتماد
الاكسجين
##نوع
ww
البلدية
تكس
وقوع
##كنيسة
الشيء
المهاجرين
لاسباب
##صت
##خان
##ظرية
بتش
1920
##باعة
اسر
القاضي
ماء
600
ومل
الاتراك
##اكي
تاثر
المسب
القطب
وزيادة
وبح
والمعر
##حلات
جوانب
##سلة
انتها
مطلع
الموسيقي
التكنولوجيا
140
قراءة
بعده
تير
شير
##انوي
المعارك
يسوع
وخصوص
##واحل
الملف
##شيح
##ضور
اعتمد
1977
وتطوير
الاسطول
##طلحات
دولية
##خرة
الثابت
للامم
بالذكر
المستقلة
الاذاعة
##قتين
الاشكال
ضي
ومنهم
69
ريف
لاحد
##ديق
##رايية
كير
##وب،
الكهر
تمي
الارثوذكسية
br
##اكس
##وايم
##وقة
##بلي
الانح
وعين
تتمتع
المناسبة
العضوية
ويحت
والاجتماعية
سار
باح
احتمال
##ادين
##اليك
لدرجة
##امرة
المحاكم
وزراء
رفي
79
div
ميوية
الشاي
النظم
السادسة
المعايير
تلق
الشريعة
الاعداد
ولل
عمي
علامات
##عبية
##عارض
استجابة
اخيرا
الخصايص
هرب
##اضرات
##قاوم
اعظم
رسايل
الاشتراكية
##هان
##واني
الحركات
الصغ
##اطير
الالوان
طبقا
عيسى
ودخل
##رافيا
ابتداء
الادوات
العباس
تخص
تكلفة
مقابلة
العبيد
اوب
ايا
##راعات
##ناز
www
الثاني،
بدرجة
##اتش
المثلية
بقيت
##صرة
الحربية
القادة
البكتيريا
شوون
ارد
##ذف
2016،
التنفيذي
يمنع
##تهما
جزييا
الساح
##يم،
الجمعة
مرتين
فخ
تمييز
اشتهر
الاخوان
الذهبي
##قن
ميس
##في،
تاريخية
رفضت
راد
وبالرغم
تخت
##هادات
الابن
وطنية
##حام
بالتعاون
واخيرا
وقيل
تلعب
امتداد
والشيخ
##عاش
الفضل
##لا،
##الحة
##ريكا
##اشة
الرحم
##كوب
##جام
للاف
الفلب
##طبيق
##نس
العدل
استمرار
واصل
محلية
1965
حديقة
تلت
السد
سيتي
البرتغال
بدعم
1958
طبقات
##qu
##if
استبدال
شباط
الميز
لانشاء
2017،
الالهة
المولف
والولايات
يعرض
الاتفاقية
السيارة
للولايات
الكول
##هورة
الشيعة
الفرنسيين
جند
الترتيب
البكال
الكلاسيكية
##اشية
المفتوحة
سويس
لواء
اعاد
##جاهل
صفحة
نماذج
حديد
ولو
العدالة
هامة
استعادة
والتص
الوع
الترا
ايت
الرج
ويقوم
##شفت
السماح
الجهد
تبادل
##ريه
##وت،
الحضارة
##عوا
الجذ
يوميا
بسيطة
خطاب
راج
##اليم
المتظاهر
جديدا
الهات
##بون
##كلين
##رميم
القليل
الصهيون
##فرات
ناق
سود
##يناء
1961
جدا،
المساحة
كيمي
محدد
الماية
يمتد
فيديو
##يرها
##اييات
الاجانب
الاوراق
المكتب
المورخين
##شاهد
وخصوصا
شعار
الاردنية
فلس
المراكز
التقى
الفور
المسرحية
رتبة
اوغ
وقالت
تحصل
##مارسة
الاضطرابات
سيب
وقدم
##اوف
##وهان
##وة،
##وا،
##عدا
انتقد
خليج
##نافس
كاتب
الفلاح
##ودين
ستكون
للاتحاد
الين
سميث
عالمية
الضباط
##حاولة
اتش
منفصلة
##بعث
تشي
السياسات
بعث
اليوم،
تغطي
انما
رياض
بورت
الابعاد
##رايط
##ran
بدءا
بوش
الصناعات
الهجمات
ازمة
المرشح
اندل
##اطف
ربيع
مباريات
وعاد
##ell
بدوره
يهدف
##دا،
ازداد
Al
بوضع
تايل
##يص
الجين
عبدالله
توسيع
##ip
شرف
صيف
اشراف
##والد
##زابيث
جودة
السلم
دوق
##تس
غضون
فكر
اسما
اختار
اللاعبين
##سلام
المعاصر
المكر
##نك
المغربية
سوري
##12
##علان
شروط
العقلية
مزيد
وتستخدم
المخابرات
مدين
استقال
انج
الكهربايي
هاي
للعديد
السور
الملح
بوس
تابع
اصاب
تجنب
اقر
الحادث
##هز
المبكر
##ولاية
عشرات
التاج
##يسر
الملوك
st
الحرم
##تمام
انسان
للحزب
متعدد
ديل
الة
المقت
##ستن
الجينات
التقرير
##حدر
نح
المكتبة
فعالة
ناصر
اكاديمية
يبقى
##زلي
يجمع
استراتيجية
يتراوح
حوض
القرون
##ob
بيتر
الباحثون
##صورة
والدين
قريب
##مام
انصار
جرا
نهايي
المصريين
الفنانين
احكام
الية
الموقت
##ورها
يكونوا
##ity
المور
ويستخدم
الاوس
ونظرا
##سيوم
بنتيجة
اوراق
الكونغرس
الجريمة
##شرطة
ضمان
##حان
وطن
مفر
يعلم
تجارة
##اثيرات
التاريخي
##eg
مسيحي
##18
##سيب
##فور
##وضيح
المباشرة
تواجه
البرج
##الته
جبهة
الدفع
الاوكرانية
تصنيع
##ماض
##وفى
للحفاظ
لز
للعلوم
اكتسب
هجمات
الجهود
##قدام
##دريس
الاوعية
الربيع
فضل
##جمعات
الدار
النور
بمر
اعطى
تجارب
هاما
عامين
الصلاة
وكانوا
##هدت
قيا
المتمردين
##ايي،
##عينيات
بتس
الصوتية
##شاد
العضلات
##وسسة
مقات
موث
##مات
معامل
واستخدم
##ian
انخفض
##زيارة
الرسايل
المعادن
##طفل
الازمة
المطلوب
التغذية
الافتراض
الما
1949
##NA
عليها،
now
مها
لتطوير
يمارس
D8
رين
اشعة
الانتهاء
الغرض
يدعم
##ريطة
مساء
##وديو
الطواري
اموال
وارسل
قضى
##ill
ومساحتها
بنك
##يتا
منتجات
زع
نجوم
خب
الاستراتيجية
##وفرة
الاحكام
اون
##اندي
وكثير
لغات
شجرة
##ستين
حصار
وتسمى
##اس،
al
حاز
##قلب
##وريد
انتشرت
مقبرة
المجر
طبيب
الكمبيوتر
تمر
التغيرات
جهد
الصل
اعتمادا
ثابتة
قانونية
الذهبية
ونصف
مدخل
سورية
اخر،
1954
وجنوب
المقات
الطويلة
##ابد
بالض
والتر
السفلي
تري
المعنى
التطبيقات
##فيت
واعلن
مشابهة
استقر
الجماعية
عزل
المخاطر
تربط
تام
منها،
سياسات
اضطرابات
##16
القصيرة
وطلب
1947
التما
##زرعة
to
فاج
##زيغ
مقالات
عرا
##لاثة
ادخل
العامة،
1939
تمويل
1952
عظ
##زما
الفل
الكار
باكستان
الاسماء
داعش
واستمرت
1966
مختلفة،
nowiki
للال
احتل
والال
امارة
القديمة،
المعماري
الاسلوب
الممارسة
نفوذ
بضعة
شت
قوى
حديثة
يدفع
اللاحقة
صيد
##all
طرابلس
معبد
الاستيلاء
الاشتراكي
النسبة
الوادي
##كنة
المبار
تتالف
صلة
واعتبر
تحولت
بتقديم
اوروبا،
الكيمياء
2005،
بدايات
مشاهد
جسر
ملكية
الاطلسي
##صري
الهامة
الجودة
مشر
الخطة
المتوسطة
بمعدل
واحيانا
لتخ
الغذايي
الترب
الحكومات
##عالجة
محطات
##رتبة
تحكم
المنخفضة
الدايرة
##اهيل
وقتها
برياسة
الماجستير
##وران
ببناء
##ذكورة
ريال
العظ
انتخب
دفن
##وفت
المركبة
##وريين
كف
الفع
الصلة
فرط
نفذ
الكرد
##حيح
جرايم
السلع
بالله
التقنيات
اللبناني
ومركز
الازرق
اللاج
ادرك
تعطي
قضاء
مقدم
##دو
الفضايية
الموظفين
ترى
##يمين
واشت
ملاحظة
##كتلندا
المسافة
الاستثمار
##ثمر
##طاعت
مهام
الظاهرة
المقدمة
المشاركين
التحتية
المجلة
176
المتاحة
الفرصة
تفت
حتي
داف
زاوية
المطر
الفلس
الواحدة
ووجد
باع
الاسد
##وايد
اللقب
يعملون
##اريس
بطول
##اخرة
كرد
الرحلة
##ــــــــ
سحب
قرون
بمس
راسه
يذهب
##نتج
حلقات
منازل
الحرس
##واض
1940
تحقق
اسرع
##شيط
العثمانيين
الواضح
##رحي
الارهاب
نهاي
جرى
خروج
نحن
الالي
واحد،
شمالا
##رنسية
##مويل
للار
##هلة
مستشار
قرط
الطلبة
الوثايق
اقتراح
خش
ينتمي
التصنيف
##قدرة
المنطقة،
لقي
للوصول
1957
موك
شو
اليزابيث
دبي
انهيار
##فسة
والمل
النسيج
قصيدة
الروايات
##ربيجان
##ره
##ارتها
##ادته
تسعة
الفلسطينيين
الايمان
بالاش
ووصف
توحيد
قوله
المراه
الكث
جنيه
##سوف
منصبه
ذاك
المقب
المراحل
يوح
##قامة
استهلاك
##غانستان
تاخذ
صب
قريبة
##عوة
بعدة
المنح
للاحت
##طلع
##ect
واشار
بلج
انتصار
تنتشر
النقاط
1918
نزل
##اليون
الياباني
حا
المخل
الشارع
##وليد
العاص
##خصية
السوفيتية
اسطنبول
الصادر
وبالاضافة
##يعاب
##ib
##لاوة
متت
كله
الاختلافات
دان
##بق
صراع
يخرج
عشرين
الشاب
الصلب
التشريعية
التام
قم
##انيوم
يتجاوز
1941
800
##تمدة
الحراري
لنقل
باستمرار
تيار
الانتشار
العادي
العمي
الثوار
الرصاص
وثلاث
انشطة
عارض
##بديل
مصنع
وزن
المفهوم
فازت
##ew
المنافسة
##يكس
وفرنسا
للتح
مساحتها
##انك
بالز
الصخور
ليع
##ـة
الاعد
##لاسل
##تيش
سعر
الخطر
الاصد
المعرض
الافضل
قديم
الامنية
ويبدو
ارن
##كافحة
##ضايع
الكواكب
لتقديم
عالميا
سبا
نه
انشات
المدنيين
كع
القذ
الجراحة
عمه
كفاءة
السرية
بانهم
1946
الحساب
لمدينة
الزاوية
لضمان
قرن
الجهات
وتف
للذ
خفض
السط
تعت
مجا
اسلحة
ويعرف
اعلام
بنحو
تعاني
الاداب
فقام
مظ
الادراك
اليمين
الاعدام
##وزير
المبادي
##لل
العادية
السنين
##اطية
نوبل
##كاك
اقتصادية
##نتاج
اليهودي
##قالة
##قاهرة
فالم
الشرف
##عاقد
سور
##قيد
البند
ودعم
عبيد
##زه
الشعور
تبدو
كمال
اختراع
لعدد
التوجيه
الحرف
تجميع
نخ
واهم
نار
الخروج
ضرورة
قرابة
المطار
الاستقرار
العدوى
##our
##ماش
المجمع
عقود
مارتن
ايس
المحليين
الاحو
الشايعة
الطالب
ممثلة
اهالي
رشيد
##15
##ابين
للمت
##ميل
حكومية
شاي
مخل
للجد
تردد
ترب
اني
##اضط
القادمة
##نعة
لاخر
تنتمي
الدراسية
##جيب
1955
##كشف
وليام
رجلا
رون
المتقدمة
##مي،
الخشب
##سمع
تون
عايلته
وجيزة
1936
لزيادة
وصفت
وظل
الترجمة
##صلات
قصايد
الهيدروجين
توفيت
عديد
ميث
##داب
1959
##وبين
يشارك
الدنيا
هاجر
ولها
الكيميايي
جسد
بحد
المقاطعة
##ناها
العمارة
معارضة
للدفاع
حضور
والقر
الاعصاب
ومعظم
هدفا
125
المستهلك
المهام
ماكس
فعال
وراث
##يدين
##دامة
لانت
براون
مركبات
##17
للمست
##ضير
انتج
الادبي
الاثنين
برشل
المفترض
امور
الاتحادية
خال
##art
##،000
##فالات
سنت
اطراف
نال
انماط
للحد
يستعمل
مخطط
قوم
160
##up
##ant
ارتباط
القرارات
ابواب
الهولندي
الزمان
##حوث
##هوة
حققت
مكونة
##لى
##وتون
الارجنتين
السما
بالات
##هرية
مواطن
ونا
للمرض
ملحوظ
الجزايري
لسل
واطلق
فقر
الصعيد
الصالح
مستمر
الملعب
روايات
##كررة
بغض
اكل
الموم
ملت
##حمل
الهم
والدته
يفعل
الحيوي
اذن
جعلت
«م
##ظى
الفاي
بنجاح
يمكنها
مكانة
وانها
لاش
السياحة
##واتي
حاولت
المطلوبة
1944
الخال
##فتاء
التط
اندلاع
وفيها
تاريخها
تتمثل
##نات
نصر
روك
##خلي
الصواريخ
و3
2018،
الممت
##ستا
الروية
القضايية
مرج
النج
المادية
اثبات
رمز
المسار
عامر
شرطة
يقلل
رواي
بوك
اوها
مراجعة
اصوات
جريمة
تراجع
لعل
##راها
ماية
يعادل
##وافقة
الجماهير
ضباط
ادوار
رسوم
المتحركة
يفضل
يكفي
الفتيات
كق
##غور
وسام
##طوطات
مبلغ
للتص
اختصار
##ss
##ـا
اسعار
كتبه
بامكان
والبل
موجة
اداة
قدي
كبرى
يوكد
معارك
##عمق
كامب
مالية
تاسس
يربط
الاسبان
زادت
ولان
الحقبة
العادة
طر
تسليم
##بدا
##40
بعين
صلاة
بالانت
انهاء
الوزير
شرا
ريد
شايعة
مناخ
المتحدث
متسا
بارك
منظمات
الخير
روج
للطاقة
الاولمبية
والتم
كبير،
بحكم
البريطانيين
ابيه
هـ،
رات
اغتيال
الجايزة
##قي،
1930
اسست
الرياضة
فرانك
##ازي
##سبر
##ate
بينه
الحضرية
تضمنت
اوهايو
##قض
عددهم
##يمقراطية
منصور
الدي
مسيرة
كتبها
##سلمين
ليو
تصور
##ok
لمجلس
المنط
مفا
##عومة
##ماة
##ستخد
الميلاد،
جب
بعدد
مستق
مقدار
استي
ولعل
واثناء
##علام
المخدرات
##11
استعداد
##وري،
ليتم
افتراض
##وكل
130
##هيز
فتاة
تكت
##صفر
ويرجع
موز
الاصدار
ميكان
##نية،
##بيعة
استغلال
النز
##هاي
هذا،
الاستجابة
الماضية
زيت
واكت
ساهمت
##لاحظات
يدرس
1919
##وديا
بحق
فرنسا،
النماذج
القادم
يترك
دقايق
##شتراك
الاغذية
التخلص
ديم
صدام
المذكورة
علما
الجنسين
شدة
لنظام
كولومبيا
البروتينات
المعدنية
سورة
ودي
الاميركية
والثقافة
توم
##ديها
سلامة
الدولة،
ورفض
##يليا
##قدار
اوف
الاستش
دام
##يتو
عرضت
الرقمية
التنفيذية
فحسب
مبارك
تواجد
خبر
سرية
كح
بمنا
شاب
اشجار
يوحنا
An
##80
معظمها
جدار
الفيدرالية
اليو
الاسلامية،
##حنة
##قطاب
ديك
##وقعة
##وامر
##يلين
##يانا
##تب
المعي
البخ
سياق
مرس
##كلف
والتق
تكنولوجيا
لتع
الاعظم
حركات
الظهر
139
الجامعي
##سيس
وبالم
انضمت
السج
##سكو
الثقافات
ميدان
استنادا
وري
##شم
وتوجد
كاي
##انج
الديانة
المسوولين
وبالت
قانوني
نابليون
##طعمة
الكال
اغلاق
وتمكن
خارجية
##تلكات
ضابط
المبر
##يلة،
الريفية
بالمقارنة
يعقوب
الملابس
##يناف
المعاصرة
المخطط
توليد
الخمسة
تمكنت
جغ
ليد
المتر
،و
غاية
##60
لمجموعة
##طايرات
الجميلة
##زى
##بعاث
فنان
ابعاد
والتح
الخضراء
750
معارض
لث
الصحفي
##خصة
شيكا
الاداري
نصب
ويقع
تفاصيل
##وموس
فلوري
الاشعا
تطبيقات
لادارة
اشارت
برون
فاعل
##ـي
ادي
مسوولية
جراء
السح
اليمنية
الايراني
##طيف
الجيوش
شبكات
لبل
##وافر
المشاة
النسبية
عمال
الصغرى
##ep
##سلية
الورم
طبية
##بادل
التوازن
واور
المتن
##سيكي
##وديوم
يحكم
شارل
##البة
والمر
برك
##رابطة
مشار
##نيت
مدرب
نيل
العيش
البكالوريوس
##ايته
##لافا
الصيني
##ستاني
ديز
للمر
السريعة
مكونات
الفساد
ويعود
للبي
##طيين
الاحد
عنهم
واسم
السابعة
الغدة
##ثا
##خلايا
الخز
المهندس
المنق
سيارات
الفرع
ساح
كرا
##ge
وتصل
امه
موشر
يمكنه
ذكره
والثاني
لمت
رضا
زعم
##امع
النحاس
والتاريخ
ورقة
مهارات
اليوناني
صديق
بطر
والاعت
متح
اوقات
العربي،
مفتوحة
142
ممر
يعبر
الموالية
لوصف
وتعرف
قبيل
امثلة
مناه
يشغل
التطوير
##قاح
تنقل
القسطنطين
يقومون
ستيفن
##قش
##ريجي
امبرا
الشخصي
الغربية،
استا
غرار
شايع
قلة
##غول
دست
اللاه
الاحتجاجات
##وشي
##فيا
بوب
غيره
المساجد
بصف
والمه
خمسين
##13
مقياس
الساحة
موافقة
##igh
وبما
الشعراء
ايجابية
##ماعة
بدورها
النرويج
الخطا
تبعد
عودته
تفوق
##فاقيات
##دين،
يجوز
بامر
وجميع
متك
بروتوكول
قنوات
البالغين
##وضوح
النظريات
الجاذبية
##لر
تشارك
الحوار
1953
ايم
الحن
ابان
ايقاف
بنظام
ادراك
وعشرين
الدستورية
##اييل
بنشر
##شو
تخزين
لابن
للبحث
##حلل
سنتين
ذاتها
باعادة
للحرب
الحاضر
حقل
العمل،
تما
##وتة
للنظام
المزارع
خساير
تزوجت
اللاجيين
الكوكب
وسيا
دعوة
يرغب
##ياته
المريخ
البور
##اديمي
راش
الاعتقاد
والاي
التقاليد
للبلدة
بقتل
تاب
كالم
كسر
تمنح
اجبر
##ضاعفات
تايمز
ادعى
شرقا
والعل
الممارسات
تسعى
الاوايل
شاهد
الحبوب
الذكاء
##نيا
ادنى
طويلا
العنصر
الاهمية
الشوارع
بمجرد
##14
##كروس
فرا
الريف
الشيوعية
الاختلاف
فيه،
الرياسية
العراق،
شيد
المعمارية
القرنين
يستمر
فد
متزايد
##تهرت
##يتر
تحوي
المعبد
العرقية
احدهما
##ادها
فتحت
##عاقة
نادرة
استعمل
البال
الباك
الجسيمات
لحل
##يمات
2004،
ولت
سباق
وشر
والرا
##سبورغ
الكبار
وشمال
تقريبا،
مذكر
الحفل
بعيدة
الزعيم
عقل
##وحا
اوامر
##طاف
للقيام
الثقة
الاجهاض
الانكلي
لتت
فمثلا
المقرر
حدة
##احبة
اخبر
ودفن
حيز
فتم
للبن
لاز
التنوع
مكث
منفصل
بتم
ساي
المدخل
##يهود
عدن
##غاف
##ly
بحاجة
الالات
القوية
الفحم
ذر
لتحسين
##مثل
الطول
ويقال
حقيقية
ثق
الهن
وضعها
قتال
الاغلبية
والشع
##ne
175
سابقة
بروك
المغربي
المعدل
الفرعية
##ط،
التكلفة
اخلا
تاكيد
##تاح
##طم
##زامن
##باكات
##روب
النازي
ساف
النهار
استراتي
ثانوية
داني
الشبكات
نموذ
تعيينه
##غناط
وكات
ثنايية
##طيل
##فرع
لفظ
##خروج
الجامعية
ربع
السلبية
الثم
المان
لانهم
التوسع
الصرف
باحث
المعاهدة
جذور
##ترات
المظ
##فاية
الكندي
##تمييز
وجل
الكسن
##لقى
حامل
الحجاز
##حوا
السنوي
##تة
##كا،
غام
الهام
الضخمة
افريقيا،
ارق
##البية
القياس
المعتقد
وتقديم
والتج
موطن
المرور
فوج
وجامعة
ملكا
بدقة
هاري
التى
النواة
وادارة
بكلية
التغييرات
بجايزة
والذ
##ولاء
التكن
النقي
وتقدم
الانسان،
ابيض
يحقق
تستمر
بوي
1943
##ive
الوسايل
وفاز
##جمال
التونسية
##وسيع
الهض
اصط
##رتهم
البصرة
##كاب
العسكر
##تمال
الغناء
الاستعمارية
الجدد
معلم
بلي
الحميد
##زاز
السكك
للتعليم
المحددة
##سه
##ظهور
وخارج
النسايية
مقال
لعملية
فشلت
ثبت
المهدي
ملكة
##سع
اعط
العقود
##اصلة
1951
صاروخ
جيف
##eb
##وثر
مصالح
تجد
بكون
##يسا
كتابا
بمرض
الجناح
اسود
##وريات
مسيرته
خطوة
بمنطقة
صحف
مشارك
الاساليب
##ندسين
##ارعين
الفول
##سو
المحور
الوليد
لاغراض
##الة،
وتقوم
ابل
شانه
ورق
الهلال
برشلونة
قديما
التسمية
البري
الاستراتي
نوعية
الكسندر
المسلمين،
رصد
صياغة
قاسم
لوجود
وطب
تاريخيا
اهلها
تامين
السفل
اسكتلندا
##فا،
التسجيل
سريع
##بابة
وتضم
##تمدت
ويلز
معم
##قتصاد
سرا
##ميه
ويك
الانتخابية
صواريخ
مبر
الصلبة
بنو
وحسب
والعالم
القليلة
الخيرية
اليسار
##هابية
ويذكر
تكاليف
تمام
موارد
اغلبية
الفكرية
بالمع
مذهب
ارتبط
عبدالعزيز
والرياض
1917
يتالف
خطيرة
يخص
##هران
تخضع
بنى
العملاء
عربي
النشر
##اكاة
##قالات
##عاقب
يتسبب
السوفييتي
الاهلي
عاز
وكر
##وضا
ويعمل
المقالات
بالعديد
##يتش
##اضرة
رع
وول
وتطور
تلقت
كاد
##شال
##طلة
الاباء
والخدمات
المحتملة
الخلفية
دقة
شمل
##ياة،
مسابقة
تضع
لسان
للعب
تاثيرات
الوراثية
##غام
الخوف
##زيف
##ذار
وتخرج
اذربيجان
عندها
الجانبية
##دوز
تستعمل
ويسمى
700
هايلة
##ريته
##لاقا
جزييات
القنوات
الساحلية
##ضال
الحاكمة
ما،
غرف
البث
ومصر
##ort
مغل
بلقب
اضعاف
صحية
##وازي
##ex
D9
للملك
ستان
باول
وكت
تحرك
امتصاص
ليش
الحرير
##ont
##احف
##شام
1914
تاثيرا
الارتفاع
مسبقا
بفعل
خوان
زرا
مميز
##ry
##افلة
الجبلية
توسع
ملح
نان
المار
##يده
النزاع
بتهمة
المستشار
انقلاب
##خلف
1،
كانا
اسهم
##وفين
يبحث
المعدة
الجوانب
الطوايف
تلام
غذ
##قبة
وابو
##درايية
الرط
رييسة
وبهذا
اندلعت
الاحوال
الانزيم
المسايل
عروض
##رفين
Ar
شاعر
وشكل
##سى
يورو
##كرا
143
الطفولة
المشار
##شاكل
or
رغبة
الخش
##ارو
بعثة
النسخ
احتياجات
محاكم
##سنوات
137
مروان
الاعتداء
والاقتصادية
##صين
##فرت
مرضى
لدين
تمنع
للحياة
لمساعدة
السين
الجدار
الهاتف
##ابية
##جلد
الوص
السياسيين
##ضايا
منق
محيط
الجنين
ملابس
الجديدة،
1942
للاغ
واضاف
تتجاوز
##كز
استولى
الذهاب
احص
مجمو
الموجات
عقدت
تربية
تبني
محدود
وتشير
التحد
الوال
للعلاج
مخاطر
##غات
##ادي،
حروب
الاصطنا
الزيتون
اى
##وسين
تنشا
تبعا
##لاعب
بود
سح
##فوق
الديم
##فعال
الازهر
الانسحاب
اوسع
الانقلاب
وحاول
الرادي
##ثمارات
1933
احتلت
الحجري
##uc
##ضت
قرارات
تميل
الارقام
وانضم
##طالبة
المكونات
متزوج
فندق
##ارية،
138
قاط
بالسجن
##روي
ثلاثية
بالتالي
والسياسية
الماضي،
فنية
وسر
خلفية
نهج
##هى
##كسي
ترجع
رواد
الجهاد
تزايد
الصحيح
احتمالية
يقتل
وفيما
وحكم
##اكو
الطراز
الاحص
##وراة
##ich
ببساطة
افتتح
العلام
الجرايم
##ويش
170
##ens
شف
المرء
المحتوى
تمرد
##وريس
تلقي
يسكن
مند
الفحص
والاحت
الفتح
الطرفين
سقطت
جال
##عيان
مسقط
##طبيعة
المختلفة،
تعليمه
الجدل
وتك
الخرط
##باحث
الانساني
ارا
الاميرة
بيتا
عالمي
فاصب
منه،
الكرب
باحت
##وكو
اثنان
كبيرة،
##دياد
الانتباه
لحم
##كول
##قود
البوس
مكن
منط
فلسفة
محركات
اعترف
فيات
التحقيقات
نيكول
بيس
##هو
وتاريخ
اوكرانيا
حصن
لاخت
تدل
وزيرا
1938
اللقاء
اعتبرت
المستح
كارت
##كسر
تنمية
تسع
حكمه
العكس
لمست
افغانستان
الاسلام،
تجديد
النسوية
مركب
كيلومترا
##اية،
سينما
مميزة
هكذا
اكتشفت
جونسون
القلق
الوفيات
##رقاء
##ينج
بضع
وصفه
الجدول
كـ
المشاهد
##قتال
لتعزيز
الوزارة
فرج
يود
المميزة
##عا،
##اكا
النفايات
Th
الاطار
الراسم
135
الكندية
محور
##هما،
##وترون
ضحايا
واقت
##ادلات
التهديد
المستويات
بوسط
##درالية
حمص
06
نصوص
بالث
ويج
تجري
التمرد
فيم
اسطول
سلط
واحدة،
المية
الهولندية
للمساعدة
داخلية
1922
وحده
##ارث
الاشارات
##ويك
معظمهم
دورات
الصاروخ
ابلغ
##بح
##دع
تحاول
الراحل
جنوبا
1934
الجزييات
المستعمرات
حلف
حماس
1931
الفاعل
##شستر
##اييس
الرشيد
##هرج
المشهور
اننا
نتج
##ريحة
##زمات
هندسة
##بيان
##جازة
المغول
الزراعي
##ذان
ذاتية
لاث
حلول
جاي
كرب
لور
مصري
وادى
ref
حاس
##وجات
بالاعت
حبيب
سيطر
وامر
##يزا
بابل
تقي
##درا
ومنطقة
الفرسان
سول
البييي
##قاليم
وانتهت
بخصوص
مهد
##زاعات
تخطيط
الحوث
عددها
مزدوج
##وزن
العروض
ووصل
الزيت
سلمان
##برغ
##اقفة
وبالن
اللوحة
رييسيا
سرير
الجسر
غل
النازية
الفات
جعله
الاخيرة،
مرتفعة
للاشارة
##وبان
جيب
المدرب
هاش
##وارث
يومنا
بيوت
شانها
البيزنطية
دايمة
ضمت
##وجة
الاشراف
خلاله
الفتاة
المثلي
روساء
مريم
بالبل
طوله
انجيل
##ياج
تنقسم
سياسيا
ارسلت
مركبة
تسلسل
هوية
الوكالة
يحب
التغير
التمويل
الشاف
لكنهم
الثقيلة
يركز
##يوط
##ang
##ies
متطلبات
الممتاز
الحشرات
##طاعم
الضحايا
##يف،
واستطاع
والنساء
وسم
انهى
لروسيا
اشد
مدف
المحاصيل
##فلت
وغيره
خليل
يقصد
نعم
التفسير
والدتها
الخمس
ينتقل
نادرا
بالاج
وجهات
المواطن
لتق
##فلون
السنوية
والتنمية
بسل
العوا
الخوار
جماعات
السبا
فعند
##جرات
البرب
مسح
سمع
المتظاهرين
الماس
السكري
فقدت
مناصب
مزيج
##زايدة
منحت
اكمل
ولعب
الموحد
محمية
لتوفير
حياتهم
منس
اسحاق
بيو
##الفة
السايدة
##وفيس
##اريين
الانفجار
الشهيد
2003،
##طاة
##فيلد
للفنون
##بادي
سويسرا
##ثلي
انك
الانجيل
بمست
الظاهر
##io
##امون
الدهون
##وفيتش
كونغ
بغرض
بوم
##حى
اسلامية
يهتم
الحجاج
1937
خز
##داقة
والثانية
التسع
##قاعدة
العاش
##وارب
جدول
يخضع
باجراء
حادث
##ذى
##سبير
كاز
الاكتشاف
المماليك
##وطنات
وود
الجمال
##وكا
فاط
كوين
كاست
اطر
ضبط
ثلاثي
بكت
##ضاف
البطن
الامامية
البوذ
اكدت
نظريات
وتمت
##اربين
الجمع
##25
باز
لتر
تولي
استقرار
لرييس
##جموعات
يتناول
1925
الصادرة
##مون
العرق
##بور
انقاذ
الفراغ
التامين
##جاعة
##وزا
##اميم
ولايات
المرجح
الوظيفة
ابعد
المستشفيات
سلطات
المهارات
المعلمين
السعودية،
##كتات
دقيق
##سيل
الناخب
بقيمة
مسلمة
العيون
الاعلامية
حادثة
عنده
الجليد
##ونسو
البضايع
بتر
الزيادة
05
##سمم
يميل
##خن
##وزان
الاضطراب
وسا
الدفا
ماج
المنورة
كمن
للمع
مطالب
ووا
المسمى
لمنظمة
##سمة
وتعني
الفارسية
اعض
التوص
الدقيق
لاحت
##ack
ومجموعة
##رايق
##وايح
مشاهدة
بالذ
الدين،
##ـن
الالياف
##تو
##غلت
##جمهور
##كره
ثمان
قادرا
##اتا
الدايم
المعالم
##ain
المواقف
متخصص
وعلي
البروتستانتية
ايفان
##جة،
عظم
المقاطعات
##اييين
بالقاهرة
اليور
الاورام
الشمالية،
ومثل
تتوفر
الانتداب
شمس
جود
ديوان
المنهج
داود
شرقي
الجغرافية
توكد
##iz
##ممة
08
##مادة
##وبول
##بدل
بدراسة
بعملية
الارتباط
واخرى
هكت
##رحيل
##ايش
##ستان،
جميعها
##اولات
الادعاء
فهناك
المفاهيم
الطابع
المتخصصة
عيار
ورم
##اتم
##ert
السهل
##وضى
قتلوا
بسيط
الشاه
السياحية
للجدل
134
##ياسة
المشهد
ساعدت
th
##ذل
منطق
وكيف
صدور
المستخدمين
قايم
##غد
مديرا
##سكا
التاثيرات
عمق
##ربات
الاختيار
##ريطانيا
يوضح
الالية
محر
واضحا
لابد
##فاح
1921
1932
اثبتت
العلامات
##سس
الاختبارات
النقدية
المذكور
بعل
مشاعر
الستة
ابرزها
الاسترالية
نايبا
صنف
##تي،
مقب
الخبراء
شرك
وهى
لحركة
الانجاز
سببا
الاخلاقية
والطب
##يرا،
يقبل
##زمية
العمود
نست
الاحتفال
القبيلة
لاجراء
##اردة
اساسيا
زمنية
نواة
##ينس
البطل
الغشاء
تتعرض
##وطنة
البارزة
كشفت
حيوانات
استطاعت
مقاتل
خلل
التردد
شيكاغو
طيران
سيس
التخلي
جملة
##يكو
للاستخدام
يصدر
تكساس
للغة
الصفات
للمشاركة
الاخلاق
والله
القوق
وهنا
مجتمعات
الجوايز
ومز
الخطوة
عضوية
مهنة
العقوبات
كاثوليك
##ورث
اتجه
ترامب
والاتحاد
ايمان
مخرج
التبر
الايت
##ونيو
النبلاء
فيكت
الحاد
##رتين
امبراطورية
والاغ
الحديث،
لهما
المعنية
تنتقل
نجحت
عظيم
المشكلات
الكاري
والمسا
مستعمرة
الاردني
مستخد
قدما
يحد
المحطة
##يلو
##وسل
الشامل
مقالة
والاسلام
##وقية
متوسطة
عرش
باري
التونسي
هوب
التقييم
المنظ
غي
المرب
الاندية
ادب
الشعرية
تتحدث
مشابه
الغرفة
«الم
##انها
والاث
الفاط
وعي
لمواجهة
والمص
وحوالي
الشرعي
1929
فاض
##ذاهب
الهنود
الاطعمة
بزيادة
والمنا
هرمون
اته
##جمالية
تدريس
يفترض
المقط
تشجيع
الارجح
مرتبة
الشف
يستطع
المتبقية
##قدير
الاجتماعية،
الاحتفاظ
تبع
##باطا
تتواجد
بوضوح
##قون
انزيم
ولكنهم
اختبارات
##هـ،
طابع
القاري
عرضه
صنعاء
حرم
حوله
المومنين
##طه
البتر
ضمنها
بطاقة
تغطية
الرضا
يسعى
لوحظ
##قلين
لحزب
فرانسيسكو
##اوي
المارك
التوحيد
##وقي
ولادة
ويرى
المورخون
القسطنطينية
اندي
طاقم
غن
##وبل
الجماعي
جيوش
ردا
التجمع
السريرية
اشارات
الاذن
التت
ومنع
طبع
المراقبة
المشاعر
يسيطر
##بعد
##شابه
المحدد
1900
باطلاق
انتخ
البرون
كد
الواج
التوتر
والثقافية
اتى
##مان،
وخم
الممتدة
مقعد
اجت
الويب
##حيين
##ياح
تعبر
وامت
جونز
##ast
الستينيات
الصع
كفر
السبت
وعمر
##رعان
الضروري
Un
الاسكت
##وتية
وقل
##يتهم
110
##فف
للاح
الصوديوم
المنس
طفول
اعمارهم
##زويل
الخلاف
##بيات
تكرار
تجار
جدران
هيو
##عوم
صفر
وحدها
##واطي
##سبق
ويظهر
والمث
1923
معروفا
البعثة
يميز
الممر
وكتاب
المهد
النباتية
صبا
ليم
القاسم
03
باعمال
Pro
الاستفادة
كلاهما
لعلم
رووس
Sh
متخصصة
السبعينيات
البلدين
الحكومي
تلا
ادراج
##بث
الميكر
Com
قريبا
الدليل
البولندي
يمنح
خر
يرفض
الجولة
##زي،
قايدا
المنزلية
##بدء
الايرلندي
عقوبة
اختصاص
الكاين
الميناء
##يموس
152
مفيدة
الجز
##وده
الادوار
##sp
##وبرا
##رمى
معالم
الرية
توصل
بارز
##ناوين
##برز
بتطوير
الاغتصاب
حكمت
فايدة
وجمع
المفاوضات
الامراء
الشروط
##ضرار
04
02
##كيك
احتجاج
ميون
البرمجيات
الانص
##وفات
تسا
خيار
##اتذة
اراء
رص
متاحة
الغز
التالي،
لتنظيم
للبلاد
عاشت
مخصصة
ووس
اصلا
تشكلت
الكالسيوم
##يلان
##ودور
##وجل
ثلاثين
المزدوج
الثمانينيات
Mar
فالت
##تمان
اسقاط
الاكتياب
رحمه
##und
##ريضة
العج
للمجتمع
بالاح
واط
##شفة
الذرة
##وزة
اعتقل
الموجة
##كرين
الاوضاع
الوظيفي
الكري
جلس
ريس
##ايخ
مضادات
##غلب
منزله
للرييس
##ربا
الصندوق
استكشاف
مستمرة
البحار
بالقرية
دفا
##ماي
والتع
المسالة
فريدريك
الحك
نسمة،
القم
##ندات
اذاعة
وافقت
الرهب
##شيء
الاقتراع
##صارات
امكان
المكونة
شاملة
##end
##وصل
##ومغناط
الاناض
##هداء
فنلندا
فهد
هى
اللفظ
رايت
سكوت
كلين
اثرت
نشرها
سكنية
امي
وبينما
السام
##ice
القدماء
طريقه
مكعب
الساخ
نظرة
مضادة
##وستس
لوضع
القابلة
معقدة
طارق
##ليان
الناس،
تحديدا
الجراح
طاير
هناك،
القشرة
##فردة
فريدة
الايمن
لاجل
رموز
لتحرير
القيود
والمواد
وسرعان
القوي
ضخ
الانهار
مبكرة
الابلاغ
1935
الرد
مستح
بوابة
التعديل
جاه
الحكام
لوحات
##فسي
والحد
معتد
تنتهي
تصنع
جعلها
حكام
##ولندا
##ورى
الغدد
البدء
طالبا
##رب،
تقام
والتش
وثايق
ميلان
كارول
صمم
##وافع
ببر
علمي
حرك
مبت
بالمر
المنصور
اشتهرت
for
لحد
##افل
البسيطة
لتجنب
تتغير
طايفة
مسيحية
وتحديدا
داء
بند
انتجت
سريعا
ثلث
الفج
##بعين
المجتم
«ت
وعر
##اته،
معاملة
الرقابة
البيولوجية
بارزة
جدة
صفة
المرافق
والبحث
الجديد،
اللجوء
زمل
هيدر
اليمني
الباردة
لير
##ial
##منت
والموسسات
العقيدة
الفلبين
مطب
##سمت
##املات
المعدات
##وتات
توقع
##يدان
اعتمدت
واللغة
الفعلي
##ركيز
وانا
مضاد
اهتماما
يدعو
المسوولة
التخصصات
هجرة
غرين
راه
ميزة
للسيطرة
الصم
القاب
الخاصة،
##سون،
##ff
الشايع
والمناطق
السياق
بيضاء
##تجات
التاسعة
حرة
##سة،
##عمد
الثمانينات
##بدال
اعلاه
البطر
وتبلغ
لمكافحة
البرك
الخبرة
الرقص
الرغبة
تسببت
مبيعات
الثوري
الهوايية
بروتين
خام
شبي
مطر
وشار
الصحرا
يعتقدون
ناجحة
الليبرالية
يلاحظ
##فصل
محاكمة
شيوخ
الفك
وتحول
1924
ماساتش
وزوجته
سلف
وتنظيم
موعد
خسارة
تقاعد
ككل
##وطة
الفترة،
معتقد
174
164
درست
##ـــ
جميل
##راهية
السينمايي
لافضل
ببط
خلية
ميلاد
##غت
##بيون
##نيفة
التقسيم
للاط
##نيك
بتاسيس
مسوولة
##موذج
محتوى
الوسطى،
بقوله
واقام
مناقشة
##حون
المعادلة
##زمنة
الاصلاحات
##بيل
الجسد
##كند
##زيت
بمقدار
حولها
العقيد
الكمية
منهج
ربا
##ستي
الانضمام
##جلب
لتنفيذ
التوصل
رف
والمخ
تنمو
##حولين
جوية
طق
##الون
167
الجمعيات
تعبير
تشري
##بتة
شعبي
سريعة
##دال
والشر
الفرات
##ثروب
شق
فواد
للجن
##ith
صفات
##اتين
##يرن
استعاد
مجرى
بطرق
ده
الخيال
##طية،
##وسفات
الثنايي
الاشعاع
لتشكيل
وارتفاع
الكويتي
خاصا
##ah
الحياة،
واقل
تركت
الخرطوم
مثلما
مواقف
##عاف
##ودان
##نيوم
ودرس
##تخب
##طين،
الفقراء
##فارد
##يلد
القاء
##انيت
سلبية
عهده
تريد
مستخدم
التحديد
الشيوع
السوفياتي
وليست
تار
زرع
كتيبة
يدور
جديدة،
##هض
يومن
##بطية
الاقم
المسوولية
تغييرات
انتشر
اثارة
المفوض
حدا
العثمان
الشمسي
نيوزيل
09
##ثار
الفيت
##جدية
احترام
ذاكرة
الانفاق
مرتبط
التفاعلات
طيلة
الطيار
يختار
##طيات
##علي
سو
شامل
موجات
##مز
حملات
شهرا
فورد
##pt
الظهور
اعدام
الايسر
##وكولات
بقاء
واجهة
قصف
##غوب
الملت
الشديدة
مدم
##قايه
اوضح
الدينام
1912
وكم
الرياسة
المحر
بداخل
واخرون
سمك
الامبراطوري
وكثيرا
##اب،
الصليب
والكل
بطي
النهج
##انيات
ولاح
قدرها
درب
النفوذ
##ضاعف
##مير
جذب
##زاوج
2002،
##ريدج
وصفها
المصل
لوزارة
نادر
##صن
بالضرورة
ثي
فسي
##لقي
##خ،
##ورب
وطني
استاذا
كلام
ستار
ارتفع
المدم
الفط
##ord
##فعول
##واصلة
صديقه
##ايتد
للسي
الدولية،
الشرقية،
1928
غضب
تعكس
المزمن
ردود
ونظام
وحصلت
##اندو
والادب
فيتنام
فيينا
التطبيق
جوان
ورس
استح
جمعت
الهند،
تخفيض
القياسية
الصغار
الاراء
للاشخاص
موض
المتخصص
انهما
المساعدات
دن
معالج
07
الناجمة
اجرى
تجاهل
شين
التسلسل
متابعة
بلجيكا
الايد
تحتل
تعادل
اظهار
رفعت
فضاء
قويا
ياب
وفيه
وخرج
##دمان
الوفاة
##ابقات
البصرية
ومخ
##فاذ
خطوات
المباريات
امتدت
الزمنية
##زنة
المومن
الرخ
##ددت
تقبل
مواضيع
on
القرا
تعامل
##قوا
تسيطر
نصيب
سون
الاديان
الدبلوماسية
##تين،
##كنا
المخصصة
##يمر
##وز،
##وظيف
سعى
##ذايف
الضرر
تزداد
مظهر
السايد
بمدرسة
ثقافية
الحاسب
تفر
##ربيا
الفرض
فرعية
وتعمل
##ارات،
والعراق
قدرات
القياسي
##لون
بجوار
والقانون
امتار
بابا
الواقع،
للمسي
وجوده
عادل
مود
ابنته
ترتفع
ريك
لقياس
الحلقات
رغ
كاش
ليك
##بيك
##وك،
##لاسفة
وبت
الوهاب
جني
رضي
الان،
1500
تلمي
وضعه
العبودية
سنا
ضوي
وعرف
وعضو
والاز
تمارس
الخلفي
الدم،
نفسي
انفجار
##يوبيا
##ight
شريط
مماثل
136
تفيد
الحالات،
ويشمل
تزويد
السوفييت
التناسلية
جناح
بتلك
مغادرة
فارسل
وصولا
لاعت
##با،
##وفاك
ودم
##لتا
المانيا،
معاوية
وتحسين
رحلات
جولة
سيدة
قالوا
الغازات
كسب
الباط
النش
ومق
بنقل
##فتاح
الموجهة
الياس
اللم
احب
149
لجعل
الشاملة
ومما
حقا
الارز
يقيم
##ابتن
فاد
المدفعية
تدهور
##اتيح
##ug
##نيد
##ليك
اسفر
##ثث
##ايا،
وفقد
153
##ليني
المناصب
التجريبية
يجعلها
يرد
الايدي
##واسب
2001،
البني
النايب
##راجات
هارفارد
البيزنطي
##يقا
##دفق
خطورة
168
اندون
الاقامة
تجم
الصن
الاسلامي،
الفرنسية،
ويطلق
مرشح
ناسا
البصري
والعد
##هرات
دفاع
دوره
مانشستر
بقدر
##ey
الذرية
الامعاء
القوقاز
بلاك
هشام
##اهتمام
اعتقاد
جراحة
##ضار
##ورم
المنطق
##يفر
Am
حيوان
وتشكل
لمعرفة
الاقليات
وانتاج
اتخذت
##یة
يقضي
155
كريم
المتقدم
##حيز
تحيط
بتق
مبنية
صعود
##طانية
الابط
2019،
وكذا
اللازم
موقعها
##ناد
##راثة
المناعي
##SA
الدواير
متج
السابقين
فوايد
القوا
الاحماض
133
ميكر
جوهر
التوقيع
##وسيه
التكاليف
استقبال
تجهيز
باسلوب
159
مبادرة
للشباب
##rom
##ناعات
المعارف
احسن
##ond
مزارع
##شهد
##ولان
تاريخه
القتلى
##ضات
##ical
##ust
الانب
##ame
##عديل
يده
جورجيا
الارثوذكس
##ارعة
القرم
الشهادة
الحقايق
##وذة
التوزيع
##ure
تواصل
##فيان
##كتوراه
المهني
تطلق
والدي
وانشاء
تصنف
تسل
الحوادث
##سبانيا
الصهيونية
القهوة
متى
اجتمع
132
خرجت
والبن
الثلاثي
قاتل
المبت
السيادة
فاطمة
بطلب
الير
والفر
الحادثة
القدر
##وفان
للدراسات
قواته
الليبية
يثبت
##0،000
كيم
الموض
المعرف
الصدمة
لحظة
الاوروبيين
حضارة
موظفي
##فلونزا
تلي
رغب
تشهد
حفر
الليلة
محفو
امتلاك
بارسال
تدرس
الفير
المتنوعة
مديرية
التلفزيونية
الفيزيايية
الجنايية
السجناء
برب
تحديث
##ينه
كليا
##المانية
المحركات
هونغ
الايون
للطب
افراز
##ماثلة
اللورد
##رونة
انتشارا
##حيفة
تلف
##خصيات
عايلات
##وجي
ادريس
3000
تذ
##وايا
الاهم
والاط
##همين
للاعت
الفيروسات
##az
##باني
##ملات
##قيين
محليا
كيب
ليلا
##شرا
يتواجد
احمر
دروس
المواضيع
بخط
الحملات
و200
وبحسب
للتم
واعل
الثورية
##ساك
##فعيل
سج
عيون
مرافق
التذك
الغالبية
حقبة
##جاهدين
المشرق
البيع
المعالج
هدم
النامية
للتع
166
فلوريدا
الاحاد
البدا
مقام
اثينا
##ساسة
En
1926
للجنة
يصعب
##اتية
ويص
ارثر
الركاب
طيار
##هلا
الحوض
الكس
تتخذ
اعتراف
الالتزام
##رفت
##صود
ويخ
ميلا
يتيح
والعلم
##ياطي
الطبعة
##وكيو
##شارية
اصابات
توص
تساهم
وضم
فيمكن
المرح
الاكل
الاسيلة
جنسية
##قاقير
##وقراطية
الدبابات
وبخ
##تمون
##اخير
مركزية
سمحت
الشريان
ستالين
يونايتد
الرموز
ar
##راط
استث
الفعلية
الاهالي
الطقس
الحدا
صحيحة
اشترك
##ment
للطلاب
الوض
برو
الحديثة،
##مادي
الدايمة
اعمالها
##هرجانات
مسمى
بحثا
كاملا
شريف
المفق
الخضر
157
المعقدة
فانت
165
Sp
شهور
المميز
باه
مغناط
II
روى
شب
كوي
##بر،
##ليت
احدا
الاخطاء
حساسية
خوفا
وافت
الهجري
استخراج
1927
الشاطي
باكثر
##ندسة
فهذا
للعالم
اتم
فصول
هذين
1916
المعاملة
غربا
##كروسوفت
ضخم
يحل
الاسي
المعاهد
الساق
الامامي
كتل
الاشهر
##ary
الكلى
التنافس
بفترة
والمجتمع
##وسم
يتر
يتغير
تشك
وتعزيز
##ض،
والمملكة
##اهن
اسطوان
للموا
افعال
طولها
النمساوية
كوسيلة
الثنايية
الامد
1915
##ضط
بلاده
بعرض
ضريبة
تشتهر
سيرة
##بني
##عكس
السعر
##وبية،
الانش
ويشير
##بتون
التبادل
عصب
##رارة
اسوا
بطرس
قصور
واضط
رايد
سوي
الثانوي
نقلت
برت
الاساطير
الهاش
توقفت
لمرض
مستم
##ابون
القريب
القمح
الند
##الثة
##سبي
البحر،
شعوب
انشي
يدرك
الاثناء
والنا
##اي،
##ركبات
مستقبلات
سنغاف
دراستها
انسحاب
برف
##كست
##قيادة
بانتاج
السكاني
ومعه
##قصد
فورا
قيس
##جيلات
العفو
بالسل
الضعي
##قران
السلامة
هجوما
ميشي
##سارة
##امعات
والاطفال
يتحول
للمد
للمستخدم
ينتهي
بسم
الكفاءة
وتعرض
173
##شيف
مشهد
لندن،
قبرص
الكورية
الصب
ويندوز
تغيرات
الميكانيكية
كينغ
لمعالجة
##ملوكة
راشد
كرييس
##ادية،
ومنا
##قطت
##اندر
الاوامر
مسعود
مجتم
##وارق
المبدا
وايت
وبالتالي،
منصة
استطلاع
##جددة
رش
وتظهر
وحقوق
ذكرى
للمنطقة
وايل
##قلق
يتولى
اتفق
البيوت
شقيقه
والياب
دولي
##ططات
يتوقع
ويتكون
تتمكن
موسيقية
##ue
اجتماعي
كارلوس
طورت
الفشل
القرص
تراث
واعاد
وهن
العملة
اللغوية
ارجاء
تين
البوت
المدافع
يصنع
##وريت
صفحات
الامازيغ
##ear
والفق
الحظ
الفرا
الفيات
156
##ath
معادلة
البلج
الظواهر
مجموعه
عملا
اليورانيوم
فرح
الاحتياجات
جاكسون
قلت
وفتح
##هاجمة
##قلم
تدفع
عمود
مقاعد
الاجراء
والاع
##ذبحة
السفير
لمنطقة
انغ
للانسان
العثمانية،
##ضج
للكتاب
الازد
فعلا
الدستوري
اركان
صعبة
الحروف
التصنيع
انقطاع
وكون
الحديقة
##يازات
الصليبية
سوال
كنا
الفريد
السياسية،
انابيب
##صلب
الموتمرات
للشركة
يتوقف
##ind
لبنان،
الجنوبية،
الدراسي
اوكس
وتوفير
جده
##وافذ
فرانسيس
ريب
##بورغ
باحد
صوتا
اخص
الوان
بالتن
الاونة
علينا
القضاة
الطابق
المند
الثدييات
المقال
##كتين
##طفاء
حوار
التز
الحليب
الاقليمي
العناية
##طايرة
وعلاوة
تعويض
للحركة
اليمنى
واكد
وساعد
##ليص
172
للحكم
فرنسي
تطلب
رجب
مفاهيم
يعكس
##باتات
تكري
تخصيص
شوارع
التكوين
الحقل
الواسعة
الحكيم
القصور
المستمرة
##طوعين
حن
##رنج
المسح
##اردو
المكرمة
بصفته
توج
صيغة
##غون
ترشيح
قصد
##olog
الدب
وبط
طم
##man
##ريز
مقرا
بولس
مختبر
غريب
انطلقت
السيرة
دورها
دمشق،
##خا
معيار
التحقق
شرط
طلبت
تميزت
مخصص
اشياء
##ناقشة
##كى
الجيني
بيته
دافع
بالاد
بالمس
ادر
روت
##ريحات
القمة
لمص
متفر
وجودها
169
والصح
فيتامين
##خيل
النقاش
ودعا
اليا
##ركي
وتولى
الاجر
للقانون
##ورس
الدير
تتاثر
الانقسام
نوم
##كث
##وفو
البحيرة
تراس
الابرا
الشحن
##صرفات
بروس
الصحابة
المكث
##act
الضويي
سيية
المصطلحات
لماذا
ضربات
pro
غربي
##حادي
معرف
##خصايص
مظاهر
الدقة
##ميين
ولن
جانبي
الطلاق
##فسيرات
ساير
اللاس
صاد
اللاتي
بحوث
##ليفزي
IS
لكم
##1م
الضعف
an
بشار
اللوحات
لتعليم
ذكرها
سجلات
##ريبات
اوك
الارس
129
##اسيوم
تثبيت
وتتميز
ارمينيا
الموقتة
##غني
##دور
##وان،
لجامعة
الورق
اتصالات
يومين
##غلادي
المشهورة
##حاكم
صحفي
البرلمانية
القذافي
مرسوم
السك
تنظم
يستخدمون
##ite
##طاليا،
فكل
نواب
الروابط
السوايل
نيوزيلندا
مكاتب
اخرج
التاريخ،
اراضيها
عانى
وتز
التجم
ومر
يصيب
هال
اليات
المسم
هذة
كيت
##وقيع
اسطورة
بمصر
مكانه
يرسل
##صح
المطلق
لتف
المصالح
العثمانيون
زعماء
##حصل
المراد
الاسفل
امراء
باعداد
الممثلة
التدفق
بجر
جنيف
ديو
مزرعة
القبل
##ولة،
وبالنسبة
القصف
القدرات
برس
105
ارضية
مسوولا
الفايدة
الهندسية
داك
##وود
السوال
الرمل
اسراييل،
مكر
##غرة
##قاض
لتج
##ردون
المحتلة
تشر
حوادث
رول
بكثرة
الاعوام
ببطولة
##ذن
الاسعار
الامكان
الاندل
احتفظ
تخفيف
##8م
التا
تتحرك
تركي
حاد
##همات
109
كاين
الالكترونات
الترفيه
حبي
والمسي
عبور
عج
المقدم
الوراثة
يهودي
الجسدية
اصر
الفلكية
ساك
وور
المبيعات
##افير
والبحر
يان
##–1
##كر،
##واجز
ورث
يزداد
العنوان
معان
بتع
ينقل
وتتكون
الفيدرالي
تلفزيون
سوبر
عينة
النارية
وفد
107
الطاير
للدراسة
اشرف
بالمد
والمانيا
توازن
##ذير
الاميرك
تود
##ادثات
##عها
مقرها
الفلاحين
فخر
مضي
##طلا
باكملها
##دس
##ابها
انتباه
وحين
154
الاغريق
ضرورية
ممتاز
الامان
يدعي
الشجرة
السابق،
البريطانيون
وظهر
##وريك
والفض
المنشات
الظلام
عاصم
عينات
فاك
الشيش
تعدد
المستقبلية
الاجل
الشري
ومقر
الزع
الارجنت
الحكمة
اطباء
بالولايات
مصل
التنسيق
##طعام
المنتجة
السمات
مصلحة
الاصابات
والدراسات
يعترف
##ايقي
الشرك
##بيط
محسن
برز
ماساتشوستس
توضيح
##ثية
تحسن
##ong
اربعين
اصدقاء
بالمنطقة
تساوي
مولفات
دبلوما
الصحيفة
القطبية
حصة
عس
##يلاند
الكبر
##ليح
الرحلات
مدني
وامريكا
Pr
ثر
زايد
##ويدي
##ظرة
السبعة
##يشيات
شكلا
الجراحية
القراء
2،
دوما
ضيق
وها
المادي
اسواق
يمكننا
ودول
توضع
كمد
المقا
الصفر
يتخذ
تنشر
سيادة
التعديلات
تهتم
##ضلية
يقتصر
المبادرة
احي
##ارى
الابا
السكن
الافعال
للارض
تقرر
القصير
خلفه
##ide
العسكرية،
توضح
جميلة
جلال
مثير
ثماني
الفرص
شعور
##ost
##لزال
والمج
##حابه
لمصر
المعتمدة
122
رياضية
فعليا
##قته
الالة
المسيحيون
السمك
التقديرات
قبة
يساوي
التشكيل
01
ضربة
الحجة
##شاش
افريقية
يات
##–0
##رجي
والكتابة
الانثى
اغل
تسلم
الجانبين
التزام
والتكنولوجيا
دوران
وظهرت
جيشه
التطورات
اللحظة
ومجلس
تمثال
المسرحي
1910
سيناء
خبرة
##جيرات
##5م
الفوت
ايط
اللواتي
المرتفعة
دعت
ريو
للقضاء
الفرنسيون
التسعينات
##انا،
الحساسية
يقف
##والى
السابقة،
تطل
##هيد
حيا
##وقا
الامل
الناشية
وثقاف
##اريت
وسوف
118
السودانية
القاهرة،
للكنيسة
تاسيسها
العضو
بعب
كورن
##ضبة
القى
##اثة
يحضر
##واصات
الزمني
طعام
التسل
قدرت
كذلك،
ودر
لاطلاق
مساحات
المحافظين
صغر
##وى،
الاطفال،
حقيقي
##اديق
الابدا
##يصا
##ظهار
##ولها
##رايه
كثرة
##افرين
ديزني
ملام
للرجال
الانتفاضة
تجاري
##لفزيون
معقد
اليه،
المنه
اشتراك
لخدمة
فصيلة
شحن
ووق
يحيط
المصنع
سايل
المكتبات
منظم
البعد
1913
##حلام
البالغة
##ستقرا
واسس
##غرام
شرعية
البنوك
الوثيقة
حلم
##حسن
ومه
السليم
التسويق
سوريا،
##طالب
مرش
فنون
##yl
الشك
الخبر
يتمثل
تصريح
والقص
##ماثل
الثروة
##كتة
توصيل
متتالية
سكر
عانت
ليز
##تك
قلق
المحدودة
لسنوات
واصد
مصدرا
الالف
لعايلة
المفاعل
سلطنة
ويلسون
واصيب
للاصابة
ضعيفة
تعم
يفسر
الشب
##مر،
البندقية
شتى
مدا
##يخ
##افو
المتك
بعد،
الانتحار
##يوم
##وازية
115
هاشم
والتس
##شاه
##رداد
##علمين
##شرية
##عيه
##زاة
##ational
بريت
لبي
الغن
الغنية
##واتف
##يان،
مصنوعة
128
الفيلسوف
وذكرت
اقرار
##خطيط
وعام
الربع
انطلاق
«ا
راك
كوري
والكر
بمق
وتحتوي
الفارسي
المجلات
102
الثابتة
اختصارا
الاناضول
شام
##ae
والاخت
مشيرا
العباسي
السفارة
البوذية
بالبر
عنيفة
عاملا
كوست
##ثيق
##جنة
الجيد
ادعاء
##وطنين
روبن
ذهبت
والشرق
##اتيكان
العلاجات
الانترنت،
دفعت
التاكيد
الصوتي
وعالم
البنفس
الحصن
واحمد
العالمية،
ياسين
لنفسه
حادة
##درت
الدل
كلف
##ازن
وانتقل
التفاصيل
بروسيا
نفسية
وشركة
تاك
طهران
الجدران
ومدينة
البلاط
##ياتها
الوقاية
مجالس
الصحيحة
يغطي
الايجابية
فيكتوريا
ترميم
معز
الخاض
الصحفيين
جلسة
##وتمر
للو
للكل
ومات
ليبر
تصني
العموم
تنازل
تعليمية
يكشف
##بعاثات
##عرة
الفايز
ورفع
الود
ونشرت
وردت
للتنمية
ارتباطا
##زوجة
##فتين
واقع
المختار
دوغ
الحش
##اريف
ابنها
راسها
وتتضمن
المشي
السلة
القوط
الواردة
وحماية
الكردية
مرتفع
بتنظيم
فولت
##ادو
الحاس
##تيت
بلغة
اقناع
127
الجليل
بثلاث
رومانيا
بجميع
حار
تشغل
واجتما
##صان
ادوية
المقابلة
حيو
##زية،
##ory
الاثري
سات
السياح
واجهت
والعم
وبالف
الهبوط
المدف
ماركس
ويرت
قمع
لولاية
103
##اقته
طالما
شاطي
والسب
202
الاركان
وخط
##2م
##ينا،
للاز
الريوي
163
منظور
دمر
ويا
##وليت
ومش
وكلا
تقلل
جامعات
سوداء
##فانيا
معاد
التعذيب
السنة،
900
خوار
دواء
كيس
اوز
الحيوانية
مهندس
مكانا
ثقة
لود
الهج
الالتهاب
صغيرا
تصرف
عليك
الاكاديمي
الاحصاء
البولندية
والمعروفة
فاب
الاقاليم
قدمها
بريد
##صاد
بنات
وفيات
بتنفيذ
المفاصل
##تن
##200
والدة
واعمال
يهودية
##وفيسور
حرق
##ظات
اسقف
الطيب
اكسب
قانونيا
كلينتون
شرب
يسم
##ys
عبادة
الاحيان،
اللاتين
الوفد
ببل
##يراد
الدرج
الدرقية
ماخ
##اجين
الاخر،
الدماغية
طاب
المستع
يناهز
##عارف
المنتشرة
انجلوس
تاخر
البرمجة
فاق
##ضارة
##وسس
الحضارات
خصيصا
اقتصادي
القنابل
تراج
حاك
##فضلة
دينام
##age
سوم
الموضوعات
##يوبي
بحقوق
حقول
لجان
بزيارة
سط
الملفات
جوي
الحادة
النادرة
##عليق
السجلات
غنية
والتجارة
يمكنهم
104
بغداد،
اللحوم
فيقول
##وتس
الاخوة
المحقق
احدهم
التلوث
خبراء
العاشرة
##ach
اسرته
تعق
الراحة
نيوتن
الوالدين
نك
##ذاب
الغام
موسسي
117
اسسها
##واكه
##قية،
وته
##ساتين
تثبت
يراس
عوا
ورجال
##ber
الفضة
##قلات
كهربايية
لدينا
غار
للمجلس
فاش
هزيم
##9م
البشرة
##ربول
تعب
كليات
بالغة
المدة
وتحدث
##ويون
##رضت
البلوغ
الفلسفية
قري
الجمل
##وقاف
بتعيين
بوصة
رومان
تفض
##رش
المظاهرات
الثالث،
فني
##اهر
##ويته
الامارة
##قتهم
المعتقدات
وذهب
اسد
##كونسن
التشريع
لست
الهل
منتظمة
##oh
الخفيفة
##خرط
البيولوجي
ريش
المهرجان
الشريط
الكاس
اكتوبر،
مشاة
فرسان
زيار
مرف
السبعينات
توافق
كوبا
الحاض
تنطوي
مباني
التدخين
سرد
##ft
##اليل
##ولون
التعليمي
استرليني
##يوس
##ومتر
الجوفية
ومدرسة
المتزايد
وثلاثة
##ish
وساهم
##ماعات
والدول
معينة،
معدات
يرون
الليم
المساعد
نظمت
البداية،
صر
الدولي،
ميشيغان
##ث،
##وحية
تفرض
خاصية
لجمع
الرضع
كونت
وظلت
وينت
الخميس
الاوقات
التعب
وتزوج
غيرهم
المرتبط
المكتوبة
اختلف
##4م
بلوغ
كورت
##ينين
التوت
تنوع
لنادي
العميل
الاجتماعي،
السمع
الكهرومغناط
ريم
يور
##ld
##قرت
النك
##ساحة
##صفوفة
قيود
ارقام
جواز
كاول
العبرية
##ادتها
##رتب
وجون
يتج
الاحساس
قضايية
والعب
تمرير
المصانع
بالتع
##وغرافية
تيل
##وكوز
اريك
يوغ
تتسبب
اثارت
106
هدفه
العسكريين
بكتابة
للنا
المركب
شاشة
حميد
موقتا
صاغ
##ارها
##ادى
##زيين
162
البريطانية،
تستند
القصيدة
الجرح
مايو،
هاون
المبلغ
##لكي
النجف
واوروبا
تتحول
العايل
مصانع
##ase
اليسرى
فجر
مراك
##ليج
اثيوبيا
نوعها
الرباط
وانتهى
شعبة
##سيد
##ابة،
القطاعات
اكتساب
يعرفون
و50
##هامات
##طني
الحركية
متنا
158
فرضية
شعره
عايشة
ديب
لارت
##الق
واهل
اوروبية
طبق
المضاد
مفتاح
قات
الحو
##حرر
النموذ
مسم
##صلا
##مايية
الشاشة
##اليه
الراديو
ازدياد
الانتاجية
نيويورك،
الضويية
تعترف
واليون
##ماق
##تيان
الاعلامي
الخبز
##كاة
##خط
النروي
قادرين
ch
بدم
##ووس
اللسان
اشعار
باسمه
الوطنية،
بعضهما
وحم
مصرية
للابحاث
قاب
##ثبيت
الاية
يتفق
بمناسبة
وفا
##وكر
##ونين
اوجه
##طبيقات
المعتمد
نوعين
يخدم
مينيس
الابطال
اعمدة
ضواحي
عجز
الممالك
بالال
##وقود
الوريد
تتطور
ارتفعت
بمرور
استيصال
صباحا
خوسيه
##6م
##واها
الصوفية
##واجهات
الاصدقاء
##قا،
الدينية،
المهاجم
نهاييا
زمان
##جلى
المنافس
##عارضة
جيشا
جوجل
طلي
##out
الكور
الانجاب
##سيت
متط
سبتمبر،
##ـل
ولبن
بعضا
##غلق
السويدية
والمعروف
توظيف
مثيرة
للغاية،
موقعا
لذ
الناج
الصومال
النقيض
كوبر
##كتبة
المجاهدين
السامية
الطايفة
وقوات
التقويم
صارت
##ديف
##ديين
##وفسكي
المناق
وتمثل
المخطوطات
المعرفي
فبعد
سواحل
##7م
المون
الاصفر
للجمعية
الفخ
الاسهم
وبها
انتقاد
اجسام
##ثمانية
بوصفها
الناخبين
De
##صفة
##ودو
ويضم
النخبة
وبالفعل
تلم
حلت
غول
تفعل
الربا
لصناعة
الدوران
وقرر
وصار
دمرت
واكبر
يساهم
بالجن
اوج
##tern
للثقافة
سيطرت
المزر
##تمين
##لاميذ
المحلية،
التسعينيات
ويسكونسن
تشتمل
عظام
كرم
الحز
وسوريا
لنشر
جدل
والرق
##لاطين
محلي
التنبو
الدروز
المحافظات
نرى
يضمن
استقبل
الخلوي
قسمين
يلزم
البحثية
تراكم
بجمع
جار
فاخذ
بالماء
وتوزيع
موجودا
كيميايية
زر
وعقد
قرارا
فغ
##يدون
المتعدد
وقص
الزرقاء
طيبة
الانابيب
والمش
بريطانية
غلاف
غطاء
يوافق
##سخ
الاضرار
والدا
المنظم
والحديث
عليا
##نازل
ممت
اختراق
##سامح
حث
واير
##فيق
العرب،
للهجرة
##وخة
المهندسين
الخساير
افريقي
برين
والعلاج
##ign
الهييات
الحفريات
بدي
مفاوضات
وبني
بالتص
قدمه
فرنسية
الصفحة
صناعية
5000
للفرد
تبنى
##خارف
القطر
##ساع
الاستوايية
اتل
البلاست
للسلام
بقد
فيكون
الفلاسفة
الاتحادي
الجملة
123
الساعات
الكليات
الحريق
متعلقة
سنين
السلط
يفهم
الرقمي
الاسترالي
اجنبية
للشعب
حجما
فلسطين،
هادي
##sh
##امرات
الاطر
للعد
##ومه
اعجاب
##اهري
خرا
##رياسة
يصنف
المفتوح
##فري
الباس
الفين
##وفيا
السلطنة
موجهة
قضت
لقوات
مكتوبة
بديل
الجمجمة
القيصر
ثانيا
جري
طري
##دق
شخصيا
الوطني،
الحسابات
صممت
1999،
الواقعية
المدرعة
ساد
البش
الانفصال
##حرية
##خات
للشيخ
الشركاء
وتحليل
اللام
المعادية
الاجيال
منتظم
الشافعي
##ern
الامر،
بحري
ينظم
رحلته
بوف
بتج
##ons
قابلية
البخاري
غريبة
هايل
##دها
البطين
وعليه
بذل
##واسيب
الفسي
انتاجها
انفصال
مضم
الابر
العبد
##قاه
##اهة
نفسها،
بطولات
تهم
ثان
بدل
126
الاميركي
مفتوح
ثمة
##صرا
مجمل
145
مخاوف
القدم،
شجع
عزم
للناس
جمهور
كيان
يخل
الهزيمة
مسايل
ينشا
##جر،
الاقمار
توت
المرات
والحفاظ
مرتب
مورخ
للاخ
انتاجه
وبقيت
##aw
يمت
مايكروسوفت
الحدايق
دعوى
باصدار
جنا
فورت
وعب
اسنان
الاعتقال
البرتغالي
والفنون
##cc
علنا
يبق
طيور
نين
الحظر
الفوضى
ولاي
ضده
##ence
##جهيز
و6
للعم
1998،
تجاريا
124
الملاي
##ult
عسكريا
البرتغالية
سنغافورة
ترس
الفاتيكان
لاك
اولي
تاثرت
ازدهار
القبول
المجتمع،
التلفزيوني
Le
القطن
الاستمرار
القانون،
للافراد
بوسطن
قارة
##ادرت
##وقيت
##طوطة
كريس
مريض
##باري
##AC
سمات
قيمتها
السينية
وقدمت
المرتفعات
رياضة
حملت
نجيب
جابر
##ire
##وغل
##افلات
طريقها
##هرباء
القاعد
هكتار
اجازة
الادي
استولت
الهرب
السوداني
للفريق
الحضور
الروحية
فعندما
Sc
تضر
غاب
وتغ
متاح
المسابقة
وقتا
الخليل
ينتشر
لتشمل
Co
قار
قوايم
##صام
##وسلاف
وتلك
افادت
سارة
النزاعات
مساهمة
يحق
انتخابه
مية
النيران
الصيفية
##رايح
والفرنسية
بالقوة
والانس
حذ
##ric
##غية
المتغيرات
الابادة
اجتماعات
##per
الرايدة
فريقه
اليدوية
بحل
خريطة
لاعمال
الصين،
المستن
مدنية
المحمولة
محاضرات
جنسي
الاصط
تطورا
نقله
الايجابي
هاب
##ركب
350
البديل
نمت
1911
اغسطس،
هون
##ستانية
ويحتوي
الفعالة
يونغ
مذكرة
ماليزيا
العشرة
يسجل
باريس،
طوكيو
##قيا
ينسب
والاق
حسابات
كوا
الماشية
ماذا
قدرته
المناهج
اقدام
كبر
الجه
##ويتر
العباسية
براد
##ستية
محب
اولم
المسجلة
تكمن
نعرف
يقترح
##قيح
بعمر
108
الستينات
بانتظام
صربيا
المرسوم
العذراء
تكتب
حفيد
خطي
الملي
الجب
الشعا
الامهات
##باقي
ابوظ
البوابة
جوني
صالحة
الحفر
المصنعة
اقلية
القطار
الجنة
الديون
بمص
وسميت
الاندماج
en
سلك
البت
لاقامة
الامري
الانماط
كلارك
##رسون
##ضعف
اختلافات
الحكومة،
قاضي
فيرج
##ربه
عنه،
اكمال
حمزة
الحجارة
العظيمة
التصرف
تنشيط
وتحقيق
المسيحية،
المرشحين
شل
##اطب
المسماة
توفيق
الماء،
نذكر
##حور
##غريت
##ماه
الفهم
الاستهلاك
خلفا
التبريد
السلالة
الجند
الطبيعية،
سنتيم
تشيل
الماني
السحب
##ميها
##يت،
##عاقبة
تحفيز
نشره
##زرع
الليبي
ph
عايد
يوف
المتجددة
اللهجة
##راهام
وتنفيذ
##ودها
المتع
المعسكر
واتخذ
والغاز
متميزة
ديون
لاقت
الوصف
والعربية
واستر
الازياء
##ass
انطونيو
كريستيان
راديو
هلال
الوب
انجلي
الهياكل
تتناول
العديدة
زجاج
السعد
الفونسو
الطل
المرف
والو
متع
يتضح
السكان،
يزعم
متساوية
##قابل
##خرفة
الاكراد
قبض
قريش
الجينية
##لاحية
موريس
كرات
##انز
العاج
والخارج
1908
و51
المواجهة
العنصرية
سعة
##AS
المقالة
القديم،
حاكما
بطاقات
دالة
سع
مضيق
##قاعات
محمد،
للاق
الغطاء
الريح
كتايب
الرييسة
الممتلكات
يونس
الخطوات
جديد،
دورية
##ليق
ماز
الهة
ولذا
لاحق،
تنافس
اختياره
المراقب
حزام
##خاء
الاجمالية
المحاكمة
##ضاءة
الاقسام
التكيف
خادم
##جيريا
والبرت
الرص
الخطيب
التمريض
قايما
هوم
ينتمون
حيوية
فقتل
اوبرا
##وزراء
وانخفاض
الاكاديم
اختير
تفجير
قاض
##سنت
##خبات
لتكوين
الزوار
والصين
اوباما
اندونيسيا
لهم،
السواحل
بمبلغ
##قبض
##واسط
رمزا
ببطء
##وراق
المنزلي
##رافات
عرضها
برفقة
وحقق
تصيب
##ork
الكلاب
المساهمة
Re
فيزي
##قيف
باستعمال
الكلاسيكي
سيمون
التحدث
يتحرك
##ريقيا
والتف
الالفية
اقرا
قتله
نابلس
##سبرغ
##هرا
المقترح
الثان
ارتداء
بخلاف
التوحد
الكوك
وتختلف
##يانغ
##ore
119
الاوساط
تكر
الاسطوان
اجمل
كاحد
للثورة
##ظير
المنف
##شيون
الكتابات
محتمل
ركزت
##ver
##وع،
موحدة
يحوي
اشهر،
وبالمثل
تسي
كوت
والما
انتفاضة
بغير
سيع
##قع
##سلي
المتكررة
نيابة
للهجوم
فط
هارت
الدورات
ويز
والمنظمات
يغير
##يكل
للعيش
لتقييم
الثلاثين
قطاعات
يديه
والكتاب
##ock
المناسبات
تاش
##قاعة
##عاهد
وقسم
1990،
للسماح
وجهه
حددت
القتالية
المعرفية
تارك
1905
الكبرى،
##يسين
اسفرت
##قليم
يتعلم
والتك
113
الكبير،
طاهر
متصلة
وقطع
لحساب
مواسم
العينة
تقاليد
الابواب
داروين
السطحية
يلب
ايطاليا،
اكسفورد
العنصري
امنة
##يتسك
الخيول
«ان
خفيفة
##عث
الاضافية
الكويتية
تغيرت
ركز
اسبوعين
عظيمة
##ظهرت
الانث
بحجة
الوسي
##اءت
اسل
##بعوث
ومنح
المحاولات
اعطت
رايعة
مولد
افتتحت
ازدادت
##حي،
موسيقي
##فيزياء
الليبرالي
حية
##قفين
##BC
ابريل،
المطلقة
ملفات
##صاف
الجيدة
لحكم
نظير
نقابة
الضرورية
##واضع
تغلب
نشاطه
بشرية
منافسة
لبرنامج
وفت
الفصول
##كلترا
المتط
المختبر
قمر
ليصل
الراسمالية
ثمن
ويصل
وكاس
ينطبق
الناش
والقوات
القلب،
واعلنت
حافة
##يدو
النعم
الاسطورة
الوالي
##شاق
الافراج
خاصة،
كهربايي
##te
##3م
##عتهم
##طيور
لجا
##ماغي
شعراء
##رحة
الخيل
برلمان
جراح
المراجع
معق
الطاي
المتف
سنه
فانهم
المستقل
صعوبات
##ياع
بنسل
وبداية
اضافي
##ايجاد
البدنية
جزيي
اقتصاديا
يدي
##اليا،
الكيل
الخلافات
الطور
##قيقا
ويشكل
مقطع
يوليو،
وقاموا
حارس
سينا
هور
##صيب
منحة
وفع
موه
ذروة
نزاع
واصلت
الطباعة
الغل
تسوية
دراسية
##زات
انور
اندية
العينات
المتنا
يولد
نموذجا
عكا
##ـم
##زرة
والهر
استج
##عياد
مثالا
مضى
فاروق
وارس
##راقب
ارتكب
وغيرها،
امتلك
انخفضت
##ويا،
السوبر
الفعال
ويقدم
وقب
الاستع
مستعمر
الراف
Ph
##شون
يقرا
الخلق
sp
ديني
##ميص
البطالة
النهاي
##AR
التقاط
الغابة
##شاشة
بتشكيل
مواصلة
الخمسينيات
ناه
البعيد
اسلاف
المعاص
مشوار
قتلت
الميدان
استدعاء
وبدلا
بوز
القبة
ومنه
الاتجاهات
لجن
هين
الشهداء
الكاف
وتنت
ضروري
ليلى
سماع
##ياه،
##ثرين
لاستعادة
بوصفه
##عوبة
ونظم
تعاليم
لجايزة
والاتصالات
الممثلين
تقتصر
والجد
السعيد
استنتاج
استفتاء
اللذان
وكيل
الكبريت
تكريم
اقترحت
لاداء
ملاحظ
الطاقم
عموم
ويمثل
صفقة
حماة
لمعظم
ميثاق
مذه
##تمية
مصير
##لاحقة
يحظر
بفوز
New
عاط
##وشة
التاكد
لمركز
وحمل
وشملت
##ism
والثلاث
موضوعات
العادات
تعليمات
شمالي
المقاتلين
وبخاصة
##خلة
استبعاد
اجر
اللغوي
تلقاييا
السيف
لاه
##تهديد
اجبار
مينيسوتا
الفقيه
الوظيفية
باختلاف
العرف
وللم
برود
شهرين
##ولث
##سيون
يتعامل
دينار
##يء
وتدمير
اداريا
المستثمر
اعطا
الطقوس
للمرضى
الاشعاعي
دانيال
##رص
والقد
الخبي
متب
وبالا
تصدير
تكونت
خطرا
المزارعين
يفقد
المجالس
الصحفية
المقبرة
السجل
بالاشتراك
روابط
صعيد
فجاة
الديانات
الدعاية
الناطق
##رايها
طويلة،
ميو
الاخص
اغت
الشيطان
تقديرات
قنابل
وتبعد
جدد
ضفاف
##سق
للمسلمين
وروسيا
مبني
بالعربية
حبوب
تقليدية
دواير
##ier
بمد
مصممة
المقصود
وطالب
ميخ
المضيف
الجسم،
النخيل
للجميع
القلبية
الجدير
وعملت
يقرر
ينجح
##رموت
الارضي
مباشرة،
موظف
باكمله
##غلاديش
نالت
يعلن
##يرين
عنق
ومم
الرايد
1994،
##وغرافي
وصلوا
المسلمة
يفصل
لفهم
ادين
رجع
عوض
موحد
و18
الربط
محافظات
ومكان
##يليوم
بوست
غرنا
##سبانية
##ندية،
المصابة
بيير
يعتبرون
لوف
الانشاء
احوال
##افاة
الاتجار
ساوث
للصح
بمحافظة
قشت
ووزير
اوضاع
##فاقات
والصحة
ايام،
يشكلون
عشيرة
ساند
صلب
##وبة،
##رتي
##فاقه
##سلط
مسارات
يسهل
الواسع
العاطفية
1948،
المقارنة
رونالد
سيك
قايلة
##غداد
##ـد
انتظار
تحتفظ
قانونا
للاسلام
للشخص
المتوسط،
التشريعي
##هارة
##ولوا
التقاعد
بتف
##ابلية
تسير
كاتدرايية
الابتدايي
براءة
غابات
ودا
##غذى
للجمهور
الذرات
استيعاب
بمجموعة
اغني
القصوى
الكونغو
انني
##ايه،
وجرح
ادارية
مثلت
مرارا
نقلها
البطريرك
بوجه
لغرض
نشاة
يكتشف
حاصل
زملايه
جهات
كرك
##باغ
##بطات
مثلي
ثور
##تف
##ومنيوم
##طلبة
وقوة
ذاتي
لفريق
المتمردون
والسياسة
والهندسة
##بيد
147
الاعشاب
لقانون
العصابات
زميل
التنظيمية
الحبل
اللذين
يتكلم
##one
مواطني
اثرية
الجفاف
الشام،
وتعلم
الحمام
كعب
نع
##ram
انبوب
السجون
##واتيا
للمث
##وارت
جنوبي
الموحدة
تقدمت
عصره
ميزانية
ينصح
الفيزيايي
##وفاكيا
وعلوم
##ـر
الفاك
السلبي
خليط
الحداثة
سلاسل
الاموي
يتع
للتش
الرحيم
الحاصل
بارتفاع
البوسنة
##خيرة
المضي
السادات
امدادات
##قطار
جنرال
يرمز
انطلق
##حدار
اسماك
وحفظ
الاخرون
موهل
تجرب
تاريخي
##ics
خار
الشرب
##وانيا
الحلول
المشتري
توب
##طرنج
لبث
سيز
كاري
##ميث
داخلي
114
الثلج
شهادات
ميك
والسي
الفكري
ويقدر
اعرب
المعلوم
##وابق
بثلاثة
اينشتاين
##ص،
بتغيير
الزن
يجعله
العضلي
واجهزة
صرف
##برين
متفا
العبادة
نوفمبر،
الايدز
العتي
ايوب
الطين
##اجي
يتاثر
وعبر
مدافع
للتعامل
بكال
يرتدي
حجة
عات
##مط
واعيد
كلتا
##يتار
المداف
العلوية
انذاك،
الفلكي
الاستراتيجي
##ظن
المير
الشريك
##خلل
اثني
للتعبير
واستقر
التشابه
مارس،
النشاطات
نادال
بجن
هياكل
##وبه
والمم
المحمية
بالتح
سمعة
فلورن
التكامل
دف
الغضب
اولية
كنتيجة
المدرسية
مقاتلي
نفذت
الحارث
اللحم
ممارسات
تاكل
للخطر
القسري
##yst
##صير
الفوايد
عدوى
اكتسبت
##ذاعة
المستوطنات
الاعداء
اختل
يظل
البذور
واسل
##تيوب
المنع
بحضور
المعابد
ينقسم
والفلسفة
بامت
مساجد
تماما،
البغد
ماير
الزبير
القصايد
باتمان
المولفات
والاقتصاد
السباق
بالار
المساء
للتج
مخيم
بيانا
CO
حزمة
وعض
ووالد
يسبق
##انوس
الكتيبة
اسوار
والاعمال
##كس،
##صدير
عادية
كيو
مرد
افاد
سانتا
لازالة
ذروتها
فخرج
وجدوا
كيلومترات
##هال
المانية
الجرم
تقسم
مشهور
حصان
قسطنطين
الشغب
وتسبب
اليها،
##قرر
##وطين
يحتفظ
يبين
##ايرين
للسلطة
و7
المفضل
استوديو
والموا
والتدريب
البلغ
ستون
مستقرة
انطا
##شر،
والموسيقى
ومنظمة
العملات
مصح
تدعو
112
احتجاجات
بتصميم
جوا
لول
المذاهب
واعضاء
الذراع
##وضي
الاجهاد
فنزويل
والغرب
تحريك
##سرطان
وبعضها
احصاءات
وذات
##نازير
بمل
خواص
العجز
##ودة،
للمواد
الناجم
للصحة
الكروموس
القبر
ايز
تنسيق
وحسن
##واجدة
جماعية
مسلحة
المغرب،
البسيط
org
دوم
المالك
البلطي
ودور
##اند،
التدابير
الاردن،
بفتح
خالية
عادي
يويد
##قرة
##ياض
مستش
منتشرة
نورث
موقتة
علق
السنية
السحر
الجافة
قدرتها
ودفع
بجيش
الاجنبي
المطبخ
واوايل
ويصبح
##حوصات
المناهضة
شنت
عمد
لعرض
##طام
##كتها
اتت
1991،
الاعلانات
عينه
وصوله
والسلوك
ودرجة
الضغوط
التشريح
ايجابي
الذكرى
تفتقر
تعقيدا
نسيج
##شي،
التجمعات
##سبوك
الصراعات
اخوه
تصويت
دونيتسك
لفترات
جرين
ناتج
الاستعداد
الفردي
ليفربول
حربية
سلب
##صرح
فتحة
مراسل
الانتقادات
الصيغة
عديدة،
والبط
انعدام
للكاتب
اتبع
نظاما
الخطط
امان
لتقليل
الاخرين،
والحيوانات
المهبل
العمومية
دليلا
حزم
مظاهرات
الزايد
المحطات
بالمح
وزم
المراة،
##ox
التفاوض
الصعبة
تشابه
والتد
احادية
سبقت
العبارة
غا
فامر
##هيار
##pp
مجهول
للاخت
الفضايي
حيدر
الفيني
يقطن
1997،
تكريما
الدان
وحزب
النساء،
تاييد
الميزانية
بالبلدة
تتيح
لليهود
يتلقى
فردية
شتاء
دال
والقط
البارد
الذكية
متقدمة
وجايزة
انتصر
مشهورة
##يدرو
##ظلمة
الشرايين
تظل
عاب
موم
وجم
السند
البرا
بالمرض
##غطى
وظيف
صنعت
##تزاز
ضريح
غازي
والسم
القنا
الدماء
المستدامة
يجادل
الكثيرون
هاد
##هوض
علاء
تشريع
ممثلا
قنبلة
مدرسا
يمكنك
البارز
هامب
الكوري
وانس
##اهما
التحرك
التغلب
معسكرات
الرطوبة
دماغ
فوكس
المعز
والحكومة
الاثنان
##اديث
بالكل
##صلية
##رافقة
النبوية
كبديل
مرمى
هيم
ووجه
##عدى
ادناه
ستت
الاغريقية
تستهدف
للدول
بالفرنسية
المضادات
اسبانيا،
المعتاد
##نافسة
##ذاكر
وكيفية
البلقان
قلوب
النبوي
جنديا
مهاجمة
سقف
الشان
الشاذ
الاستيناف
حيفا
باداء
عندي
##ويتها
##وراس
116
##سرعة
لاحقة
تخدم
الكاثوليكي
النقوش
بعلم
مبي
القدام
باث
للموسيقى
احادي
النبيذ
الزمن،
نباتات
تات
جادل
##ous
البصر
مستوطنة
وكالات
مرة،
تعليق
انتقادات
والجم
الرقيق
##زيب
##وكالة
احزاب
1992،
البارزين
جراحية
الخلفاء
ابوه
المثالية
قرص
فلسطينية
##فاهية
##unt
حفلات
للضوء
قرطاج
جوه
بالاص
محرم
##يكوسل
اعتراض
##كاسب
واذ
##خروط
يموت
للمص
ادبية
نوعان
##تدى
التطبيقية
السفلى
تذهب
الشحنة
##تهن
ياكل
هبوط
هضبة
##مسا
الثمن
بالمدرسة
باللون
يقولون
رياضي
ينتظر
منظومة
is
طه
نزع
فيكتور
الفجر
##تمة
##وقاية
البترول
عوضا
نير
##لان
الموجه
الطم
متاث
توثيق
الموسس
المسلح
البعيدة
فحسب،
غشاء
الخرايط
امنية
الخلوية
ومدافع
العميقة
توك
الماك
المفضلة
الايث
الامثل
يسير
العراقيين
المصرية،
غاي
قوس
وعاش
عنف
الزب
موسوعة
مرورا
فيله
والقي
الاتية
التجريبي
اصبحوا
##iss
لشراء
التبغ
الكونف
مناسبات
ابوظبي
##تح
انتر
ارتفا
خارجي
شديدا
تسميتها
فاصبح
امضى
1996،
101
المغاربة
المقيمين
البطولات
فف
السعادة
اسيلة
##طاير
والبعض
للامبراطورية
بسرطان
الاوسط،
الاربعاء
بست
لوقف
التوقف
##علة
الزايدة
العليا،
نشطة
يفكر
وكندا
التلال
الارواح
الزهرة
##صفح
##ارسون
##orld
تروي
##فساد
##فسهم
##زاوية
يونيو،
الجزاير،
##خراط
الانباء
امره
الاضطهاد
للجمهورية
المتعلق
بنشاط
تتشكل
الضحية
جلسات
غور
##حاء
##ينات،
##يميا
اتفاقيات
1200
اثرها
واخراج
الجزييية
تشيلي
الجندر
المجرية
الاحرار
المغل
##اندية
والزراعة
امبراطور
اخترع
ياسر
##وه،
##لاحة
والتعاون
انسحب
الجزيي
البلازما
الثمانية
نتاج
##بقى
البطي
النحل
الدنا
اوري
اضرار
معاهد
السوريين
رض
سهولة
##كانت
##فيون
ايوا
تترك
تطبق
شرع
والجيش
##ung
ويعتمد
الفصايل
##ER
##سيان
متاخر
##كييف
التعليمات
قاع
افترض
الجنوب،
واشهر
ناقش
المايي
الدو
استثناء
يعارض
فعله
انسجة
بوج
والدر
ومناطق
تصاعد
لدولة
الحجرية
الثقيل
مولفاته
ملامح
غري
##هنة
الروب
بمشاركة
الاستقل
انطلاقا
La
هود
##8هـ
##يتس
عمليا
الافغ
البديلة
خريف
قراء
نيران
##oy
للمريض
##املين
الحربي
صحراء
التشريعات
الناب
والمق
اشهرها
لشخص
نشاطات
انضمام
العميق
##ردات
144
ملايمة
شكلها
الاحتفالات
عرضا
بريطاني
حسني
فراغ
##وثة
يتصل
العملية،
الاخذ
تكشف
##1هـ
##ظف
وحيث
الفقري
سيدني
##وانية
##كالية
للدم
السويدي
##لاحي
##جموع
استشهد
##AP
##ادقة
الفرار
##ذاكرة
ونقص
الاتي
والحياة
بشير
ويتميز
ذراع
طلبة
##صم
المقاعد
للمياه
##بهات
تعديلات
بكميات
وايطاليا
He
تبا
عذ
غالب
##وكسي
تتوقف
بلغاريا
##وثيق
##are
تايلور
الاسكتلندي
الناجحة
ديمقراطية
العط
وحركة
الانكليزية
نبي
الرمال
##جلترا
لتصل
##احبه
دعما
قيصر
الميلادي،
والمدارس
جزاير
الكوفة
ينطوي
##اذبة
ازواج
المطالبة
واتهم
جرعة
البعثات
بتسجيل
المجتمعية
ولبنان
يصور
##6هـ
##ـه
الشفاء
لموقع
##يوود
المرتفع
الثلاثاء
نيوز
تشييد
سبي
فيلي
الابار
التكاثر
الفندق
الانخفاض
##فاوية
واسر
حجمها
حشد
سامي
##شيا
##يليو
الفيران
برعاية
مره
##ثرت
وافضل
##ليفة
الطوب
المتوفى
بمختلف
##يون،
وشك
والثالث
وكلية
استقلالها
ووسايل
سكة
##بها
الاعاقة
##ودع
##نتايج
مبكرا
طبيعيا
الهروب
اوم
##قراض
المرس
##رمين
الاختصاص
اجتماعيا
طقوس
امتد
بمفرد
##قطات
للتكنولوجيا
المقبل
الظل
زياد
المفروضة
شبيهة
بادي
الاوت
بالاب
بالاف
العلاجية
##ناقض
طيف
##كنز
واصدر
كريت
##AT
عماد
غزا
##زيج
المجد
الاسرى
تصحيح
فردين
يريدون
قوام
مقاطعات
يخلق
##ium
##sc
##OS
وتاثير
الخيار
المتاخر
1945،
المتميز
الحاجز
حقيق
الدماغي
اللطيف
1800
للتجارة
##ica
الكهنة
مقترح
المبيض
التراجع
##وسون
امكن
وحق
مصمم
##والده
للامراض
امة
لكتاب
وحي
الغزل
الابداع
الجرعة
##3هـ
##يدس
ايزاب
وبريطانيا
بالجامعة
المستوطنين
اخطاء
للتس
والعلاقات
اقوال
ممثلي
سمة
##قرب
##فيحة
للمعلومات
يقسم
الملك،
ارسطو
انديانا
كم2
مهند
##مادى
ووادي
ووصلت
ثروة
سكرت
والطاقة
السوم
الاجور
عمران
الصفراء
يضاف
عايلتها
الحفلات
##uct
بمكان
اجراها
اصلاحات
النيوترون
##اديمير
تلبية
تداول
عصور
هايد
وعا
تشا
الزوا
بحجم
##وانا
والاكثر
ذرات
ووض
متوفرة
##هدفت
الاستي
##التين
يجتمع
1906
للزراعة
مشكلات
##صية
التحويل
يمين
حاسوب
سفيان
متكرر
الاستكشاف
##احظ
احرز
فاين
1907
والكثير
برد
ضع
قطار
##فقات
المتطوعين
والمعلومات
ودون
للاعب
الداخلية،
السلوكيات
تقريرا
الباقية
هاتين
##AN
المتوفرة
محام
باضافة
الاولاد
برلم
تلوث
وطرق
للانضمام
جماهير
والامن
صغار
لفر
##يسة،
وتوجه
تحظى
واسعا
الشمال،
الوراثي
اصابته
##اضطرابات
والعر
ممتلكات
ارباح
الساحلي
زراعية
الاحاديث
النشطة
الزور
الاستثمارات
1995،
ترخيص
العمالة
يرتفع
الفقهاء
الصليبيين
##sk
##يج
البقر
الخرس
التنقل
الجيش،
##كوف
الواجهة
الايب
##ارسين
يشهد
وجهت
الحسيني
##كمل
الياف
انكلترا
الانط
المخاوف
كنايس
شهرت
شباك
الشوكي
##زاعم
والنظام
وابرز
غرام
وادت
مانويل
الفنانة
تيت
سعت
صعب
الجريدة
بالشكل
هاج
##هابي
والرس
بديلة
بالنظر
تفقد
انجلترا،
ساس
امون
المواني
وتعتمد
ممكنة
الصلح
Br
تذك
##زج
يعالج
دوليا
##ونيوم
الاقتراح
لكونه
واليابان
نفي
مقربة
المحاضرات
التحقت
الحكم،
##eth
نحت
##نجر
##دوا
اسيا،
اللقاح
وابنه
يوصف
وبرامج
للمل
##افيا
الغريبة
مسج
148
اشتباكات
نام
الدالة
##هر،
وجوه
بكالوريوس
كود
الحمد
ادان
مصن
والدولة
ديار
اهتمامه
القولون
لاعبي
غنى
لولا
وحدث
الطبا
الغازية
معدنية
والاجتماعي
اياه
عزيز
قضا
##7هـ
الطح
وفاتها
حمراء
1909
##ثروبولوجيا
وتضمن
المتلازمة
146
2000م
تعرضوا
لايحة
سبعينيات
زك
##يلاد
واعداد
الثورات
اصناف
عليهما
اصدارات
التحديات
جرح
##غالية
##الجات
##اسعة
الطايف
##رنها
بالمست
التنقيب
وكاتب
فيني
منهم،
الشهرة
##اطا
يقابل
بالاعدام
النباتي
الزوجة
انتهاكات
رفقة
نوري
النسل
الاستد
وحول
الوسايط
خضعت
انجبت
برق
تان
لقتل
الطفرات
اللوم
تنفي
الفترات
الدراما
الاحساء
طفلا
فايقة
Be
بوقت
##دود
فيدر
منز
العت
الحارة
المتد
##حوذ
قبالة
يروي
بادارة
الرمز
زا
##ايتها
استعراض
الاحجار
الاحتجاج
نشط
الايرلندية
بروتينات
##نزير
فيلاد
والخل
العايد
ونجح
الابناء
المغناطيسية
وغر
##yn
##كما
الابد
الضي
يستخدمها
مضاعفات
ودين
واسراييل
الالمانية،
وثيقا
شيف
يورك
الميات
استغل
متغير
##فرغ
لكونها
روايته
##التها
معن
الطيف
##وات،
اعترفت
رايدة
شراكة
داكوتا
دبابة
ذرة
المسجل
لانقاذ
الانتصار
ميلادي
البوتاسيوم
يوضع
##حبت
##برد
##قلعة
وبير
وفرض
يستند
##متع
المحاسبة
##اثار
لاند
مولفة
المرحوم
قطب
المصنوعة
الغرب،
##ست،
البولي
الكافي
##تيه
ويحدث
##ثرات
يعين
يعيد
الضمان
اقصر
سلبي
##عادن
شعرية
ولاحقا
لغير
لجمعية
##ظاهرة
##يمس
الاستطلاع
التجديد
يحملون
##فورت
##ياسات
السيل
وجزر
جينات
مقاطع
##عدين
اللجان
اكثر،
يبعد
شعبان
عسكر
##وحد
##صون
فيز
واين
مفيد
سفير
الحوثيين
##ـت
##IS
المفعول
الاهر
##وتشي
مسجل
##قطعة
سيست
##سينات
الكاتبة
الكترونية
والماء
السهول
تعارض
بهما
دونالد
الحدودية
صقلية
نيف
يفتح
لتغيير
المحس
##طرفة
التشك
خيارات
الجسدي
الشراكة
مابين
المصلحة
متجر
وقر
##رحمن
بيرو
مهدي
فرضت
ميشيل
ميخاييل
ووقع
##se
فيرن
والقدرة
السيية
الجذور
##لسكوب
والعق
وانتشار
مكتوب
وتلقى
هاجمت
كردستان
وتعليم
الغرف
بديلا
مستوح
وفى
المجيد
الخارجية،
مستشارا
عجل
الانع
##سيط
##ساط
##كو،
البشرية،
بعمليات
اتمام
##واصة
##ليط
المعاملات
يفوق
بيروت،
و52
تيمور
##مادية
الكابتن
المتج
المعدن
عميقة
##اميك
الدوار
##برج
1993،
البعض،
الغربي،
استقالته
صخور
قف
الاعمدة
التهم
عنها،
الشق
ويف
##ere
بيض
الشمس،
دعمت
العاصفة
ووجود
##ai
##فته
##برع
##مرات
اللب
يعطى
للاعمال
تقديرا
الاسراييليين
بقرار
##ثات
والكنيسة
##قيته
لمنت
الارم
بالمغرب
بطريق
##amp
1890
نووية
السريانية
تولد
##شان
##سخة
##ساخ
بدفع
غاما
المجلد
الجاه
واجب
الهواتف
الاغلب
والشعر
كتاباته
الاصطناعي
اعلم
غون
##غراف
اعداء
تليها
جثة
##شفير
لنظرية
لعمليات
الاوبرا
##سيف
تتسم
اليونسكو
تقدمها
البدايية
##cl
الدافع
المنفى
بارزا
الفروع
يحتمل
رايه
لتد
يومي
##ann
الملقب
##ron
##اسا
الناطقة
##سينما
نقاش
الايمة
الاعمار
##0000
بيبر
البشر،
كاينات
الايتلاف
جواد
##يران،
لتاسيس
المعني
شاع
البرازيلي
دعي
ملاحظات
Ed
عاج
نبرا
فيس
سمعت
البروتوكول
قنا
##رها
للمملكة
حمام
قاعد
شايعا
وويل
الفارس
والتطوير
البروست
1904
الاوروبي،
التخزين
الخصوصية
ثقيلة
كالات
الكومن
الديناص
شيل
عف
للطايرات
البحيرات
تدير
ديسمبر،
الثلاثية
##قاذفات
بيلي
##لية
القش
الكلب
كمست
1967،
##صارى
تقدما
##كندرية
صادق
المنشا
باخر
برزت
مصاب
حقن
كارثة
واتباع
دارت
##خري
##وق،
المتحولين
تنفذ
حياته،
الخشبية
لمل
هبط
##2هـ
ومج
الصنع
والدفاع
التفتيش
الملاحة
الارسال
##90
##لازل
##سيما
السينمايية
عراقي
الدجاج
ينشر
لوثر
لسكان
البدو
وتقول
الفقرة
الفجوة
هوت
##ضادات
##ايقة
محاربة
افندي
##عات،
المرضية
لاعبين
«ل
##4هـ
والمغرب
الزهور
اجرت
تقليديا
ضعيف
حري
هجر
##هية
الصخرية
استقل
الارهابية
الحقول
عقبة
اصدقايه
فرجينيا
ليا
##وذا
##ايلي
2020
انهار
العقلي
اهلية
ميزوري
الاخلاقي
خضع
فاص
للمادة
ويشت
##والب
الاقطا
تفاقم
عميق
والرييس
التاليف
الفاس
##ace
##وافد
الانتقالية
المستحيل
بجروح
طبعة
الموز
الاكت
للاي
وانشا
##قبول
بكامل
##راثيم
ايران،
وكلاهما
##رنهايت
##DA
معتم
ستريت
بالتف
للعام
##وغواي
##ook
##كيف
منص
للماء
للطفل
##واتب
نيجيريا
فلقد
مارغريت
فالن
حامد
اواسط
علي،
البنات
الدهنية
تفعيل
غينيا
كالي
الاوقاف
للنف
##نتان
التنفسي
##وريون
الضابط
النسايي
مرصد
الخلط
التقليدية،
الجذعية
الملاحظات
##فعالية
بالتج
بالضبط
3،
##5هـ
مني
بالاحت
وطريقة
مشتقة
المنشورة
##باحثين
كارولينا
##land
##سبا
الانجل
الهضم
تحميل
تجرى
ارتفاعها
الرومانسية
##ايها،
##عدت
اليكس
##حلية
وقانون
الزر
اولا،
وفن
التنوير
واسيا
الشخصية،
الجميل
عرقية
للكشف
بشرط
الخمسينات
القبلية
وخدمات
وطرد
رحمة
والعلماء
عيوب
الجاف
عامة،
ماجد
##وتهم
المناظر
غريغ
وشا
التعداد
القلاع
##لاطون
عاصفة
دوا
##تنا
##صق
لمشروع
والمز
##ستخراج
والعنف
اليومي
التضخم
Ad
خوف
صراحة
بالمو
الارباح
والعرب
##زلج
التعويض
العقاب
الحديدي
حكومات
حكاية
Or
فاخ
الابل
المصورة
المحيطات
اليونانيين
الروحي
اندرو
مقبولة
غرناطة
450
El
ترق
تومن
قز
##yp
##اة،
##ىء
##سور
##ونج
اباد
البحرية،
كرسي
عقيدة
غود
##غين
##راوي
البانيا
مليارات
للاع
الاخبارية
بالمقابل
تهديدا
ضويية
عادات
قاس
املاك
العدوان
محتويات
Cl
بقليل
والسا
الحريات
##بات،
تدابير
ترسل
بشراء
حاليا،
جمعها
عي
الاقدم
يتعين
وليد
وقاد
##ark
يفرض
المعارضين
طفولته
قاذ
يثير
العسل
السعي
بالالمانية
يتوفر
##طاعة
شج
##حض
المتزايدة
متطورة
ابنا
المدارية
بيرن
موقعه
بفيروس
تنفيذها
القيامة
الزوجان
سراحه
تعر
رخصة
فوت
##9هـ
والبرا
تحط
اجري
موريت
المثليين،
وشرق
##–2
##ريا،
الصديق
بالمملكة
##ستردام
طفرة
بيب
توي
دامت
مراج
##حك
الاليات
محاكاة
اليمن،
متميز
لاسي
عندهم
اشبه
وكار
الضارة
ودراسة
انشط
توسعت
اقامته
كالت
كوه
##s،
قدوم
حدايق
انقسام
هدفها
ذهبية
واستخدمت
بدمشق
،ال
لوم
وانهم
مسجلة
الامريكي،
القدس،
لحفظ
الاحتراق
العروس
عدنان
الرهبان
حال،
صبي
##طحة
القارات
وتقل
متر،
تقيم
نوعه
يستطيعون
اتباعه
برمجة
##اتينية
الحبي
##قاحات
الوارد
##تهاكات
جمعة
العملاقة
الجزايريين
متحركة
البنفسجية
ضحية
مفاعل
يجلس
الخدي
متكررة
مصطلحات
فاع
النمساوي
موزعة
كرس
الخريف
الانقاذ
##براطور
والحرب
ارتكاب
عضلة
حضرموت
اللاهوت
لزوج
والسيطرة
##كرم
##قاضي
التحكيم
قدموا
جلد
##ivers
المتمثلة
التعدين
الهضمي
تشرشل
سرق
عناوين
ويودي
المجرات
الاغراض
للامام
استراليا،
الانزيمات
اجمع
بيش
والري
##تيب
المعن
الاحتم
والقضاء
يحتل
انتهاك
لطلب
وعدة
وجورج
علميا
##متلك
لبيع
معتمدة
النقص
##فاعي
تمديد
المعيار
الدفاعية
حذف
فوجد
يوص
##ood
الحادية
المتطلبات
متف
تشعر
وصناعة
منهجية
نسبيا،
اخلاق
البييات
للنادي
مزايا
العضلة
حصوله
والاخرى
توافر
منعت
ابراج
شخص،
##ربيج
السياسي،
خراسان
بيز
ديمقرا
##AM
التوراة
##راحات
النع
الكفاية
والاور
مبالغ
سمير
التقني
الارمنية
دوك
ضرر
الالتها
الانسولين
الفاكهة
##خير
فيجب
الطفيل
اقامت
مكانها
نموا
حش
نوح
##راكم
الديوان
الارستقرا
للمخ
مسرحي
##وانه
مملك
عميد
وسيط
جاذبية
تعنى
جدوى
##ile
تهدد
محتملة
حاجز
استراتيجيات
ماجستير
فقه
سنوية
والدواء
##اماكن
المختصة
الباقي
AT
برتبة
تاهيل
##جيا
##جعل
ولديه
المثيرة
المزاج
بالعودة
بريست
الاسيوي
التلاميذ
##ولوجيا،
اعلامية
عمارة
1898
النقود
ازدهرت
تولت
السامة
ومراكز
وقته
الهندوسية
الاشتباكات
احتجاجا
##وصف
ومدير
الاساقفة
ينمو
الانتقام
النظرة
ترفض
تويتر
##ايقية
وجبل
الجندي
بكين
الاقلية
المصريون
نض
يرج
بالمل
الدوحة
البلديات
بوليف
تفاعلات
الفاتح
السني
السلالات
صغيرة،
الحالي،
العاطفي
4000
ترد
الممن
علاقته
الساس
بترك
والخط
هاواي
##ستهلك
المريي
والقرى
جمادى
قومية
لفن
يعل
##خلا
##رتز
محظ
تسكن
نشوء
المساحات
مشتق
الفقيرة
يشتمل
والبيية
الميثاق
زيارته
ناز
هيد
معاني
التيارات
استسلم
##ادة،
شخصيته
يكمل
اوتو
الواجب
سيو
الاسقف
استع
لالم
##جي،
الصالحة
المتصلة
قاله
اللاذ
واربعة
تمتاز
المطالب
1901
نووي
##شابهة
##حية،
التمه
انجز
كانساس
تمكين
##وعب
##خلى
يتحقق
تعزز
يقام
للتق
وشهدت
للجسم
بوا
زن
غارات
##ابح
يتقدم
والتحق
كثيرة،
الالبان
جز
فلك
لايجاد
##كستان
الغريب
والمشاركة
##بتين
##ولوجيات
اطل
##بياد
##وبيا
المتطورة
##erm
البروفيسور
##وثايق
لدول
فهرنهايت
كروز
يطبق
##غى
##جزة
التاهيل
الحجاب
المتت
##بارا
##ale
اليابان،
الوقوف
الكثيرة
مبيعا
##اييد
لمق
الاستفتاء
كينيدي
ربيعة
بنغلاديش
تفصل
تفكير
موكدة
فلي
##موض
##ین
##ختار
ادولف
وقود
الفرنسي،
الصغيرة،
الصعوبات
شد
عيش
لمنصب
1860
فنزويلا
النصب
النضال
استضاف
متبا
نيكولاس
قشتالة
العنب
الاسماع
##فساء
##راكات
للعراق
عمار
##قراط
حروف
##صدق
##يك،
وانواع
احتفال
الاوروبية،
روسيا،
فصايل
يلتقي
الانجليزية،
ارنست
ارتبطت
شح
##غذية
السرد
البك
##ودون
ومساعد
يكونون
المرصد
بالحكم
جانبية
ستيف
الاوكراني
ويبدا
للاصلاح
سمر
النمر
ملكي
ميدالية
والسلام
الالتحاق
وثلاثين
الفولاذ
القدامى
ذوات
فدان
يشاهد
##ابك
##وبلا
##رنين
الليزر
كافضل
تاه
ومعدل
##واته
##طاحة
الاجابة
الناقد
والمنطقة
جسيمات
دبابات
عضلات
غابة
كعضو
ووص
##MS
الاسكند
##وعها
ويتضمن
اسراييلية
منحه
1870
التقدير
لتسهيل
واستراليا
دلتا
شري
الجوع
بصفتها
الثلث
فيلهلم
اريد
حجرة
حوالى
العي
بالسكان
تلفزيوني
المعاصرين
صرحت
##les
##ريدي
##زاحة
الخصم
للطيران
شلل
البرد
ايها
ونادي
تعطى
وسمي
##سنطين
##عودية
##حفظ
يصاب
اعتقاله
##سج
##طي،
للاك
تعالج
العميد
بالجيش
لجمهورية
##شوف
##امينات
##يلها
الرعب
1989،
الكبيرة،
لاستخدامها
العذبة
نخبة
مناهضة
ex
حصر
رابع
صناع
##وراد
التطوري
الكراهية
مراعاة
بريطانيا،
الكلاسيك
تسميته
ليشمل
سلالات
مصب
وابل
##طوبة
##زول
##امجا
##دمت
فلاديمير
هاوس
المحمول
Sch
خلافا
لرفع
##يفا
المستعمرة
اقليمية
القاعة
لاسراييل
افكاره
دستورية
ران
##ضباط
الخطي
المتضر
استهدفت
يدير
مرحل
بحثية
السلوكية
صلاحيات
حرس
خور
غادرت
##شفي
والتهاب
اشب
احساس
شخصي
الاحف
لحق
ترشح
1902
##عليقات
مرق
##ضن
##هدين
الشارقة
الامني
الرع
##يب،
##بتهم
375
الجراحي
«ن
ره
سهلة
عت
متزايدة
وبدون
تبحث
شرعي
كمر
فيلا
المدا
للرق
##واتية
انتصارات
عملهم
وانج
الاحمر،
يهدد
خات
دلالة
شغلت
غرا
##فها
##يركية
الشح
الغارات
لتلبية
الهيم
للاقتصاد
فيلادلف
دفعة
رشح
التالية،
القبطية
واقترح
وجزء
فتت
الموث
##وءة
المجاهد
النسبي
المبرم
فاعلية
مذكرات
،وي
زهرة
ظاهر
للرياض
يحافظ
التنم
عباد
واقامة
الصينيين
للانتاج
الخاضعة
ثقب
ورج
##ail
##غلي
##انكا
التداخل
اسامة
للتاريخ
مشايخ
كرواتيا
الفيض
متكاملة
صدمة
##سببات
وابي
لخطر
Ex
دكتوراه
التخرج
بالمعنى
يرفع
التسمم
للدين
الشبي
##فترض
بكاس
الاعراق
وغرب
يقودها
للسيارات
دجلة
##بورد
##مسة
بدخول
الالز
1980،
##راكب
فبراير،
جاز
الانك
تشويه
تدعي
المبنية
امامه
معترف
مدينتي
بنسلفانيا
حاض
##ee
##وعه
##قاتل
فرويد
ديي
القضايي
لغزو
ويليامز
ووجدت
دوار
الفوسفات
الدراجات
استهداف
يتزوج
بتحويل
ينفذ
والده،
والصناعة
طلبا
عريضة
##yle
التزاوج
الرفي
1970،
القنبلة
فيلق
تشترك
صالة
##نبا
المقطع
المسيرة
للتاكد
الموثرة
##كاينات
للشركات
المولفين
طنجة
CD
«ب
والمدن
يقاتل
عملاء
يناير،
انعكاس
##قادات
الاندون
والمك
اجرا
وبالتحديد
المترجم
بفر
عربة
نيب
##هورا
ونال
والشركات
الكتاب،
العقوبة
واليهود
مختلفين
درع
للشوون
والرعاية
وعمليات
الكاريبي
لوبي
يوهان
الامينية
ويشار
بعام
مليية
لكاس
عبدالرحمن
مدرعة
##EC
##عيب
##سلين
مقط
الطبيعي،
##صاعد
السورية،
##au
المرجع
##ابو
وتعود
غيرت
موته
اقاليم
الخطيرة
##ظاير
هدفين
##طبيب
البريطاني،
الادباء
التجارية،
يشرف
##بلوما
الخدم
لممارسة
وتمتد
ابيب
السبيل
كندا،
مدرس
نداء
والالم
للعل
##فتهم
مقسمة
تعقد
وحيدة
والاعلام
الرييسية،
العلمية،
عقدة
مراقب
عالما
ادخلت
الاصدارات
الاكتشافات
لقاح
هطول
##ديا
اجاب
الهايل
الفايقة
لزيارة
##والم
##لزم
التوافق
لاهل
ابنتها
مرتفعات
الكويت،
وشاركت
##امز
التعاقد
الحرايق
وتشت
##ذاك
ونحو
العلمانية
الحصان
والجنوب
الهرمون
نبراسكا
Is
تعتقد
##جرت
البخار
الكيما
ايف
الامدادات
المغت
كريستوفر
خسرت
تحلل
سفين
الجنا
الذيل
لتحويل
تنخفض
والحصول
الاجتماعات
##سترول
النوعية
روما،
توليه
لقيادة
المياه،
واقتص
##وجو
لتوليد
ازاء
اهله
البابوية
سيناريو
النيتر
بوينغ
الكثيرين
حالته
فرانكلين
##oph
بيدرو
حذر
شبيه
اسهل
متق
اصابت
ستوك
توصف
رايحة
ميجا
عصبة
ارادت
قوته
الصمام
الغبار
الامريكيون
##ارتين
البنكري
الاختراع
يمثلون
مرات،
التلق
1830
النقدي
كاليفورنيا،
ثقافي
مناهج
تيس
صوفيا
منفردة
العشاير
لاعداد
ارتك
220
الجزييي
السماوية
خلافة
كالف
##قذ
الغني
لهجة
##يشي
وشبه
الجنسية،
المعتد
الحوسبة
حراس
عار
لمراقبة
لحكومة
والشام
المعيشة
القطرية
تخرجه
تايوان
السويسري
مستخدمي
المضم
تشين
الايرادات
يكمن
واسمه
بسب
سعودي
شهاب
ضاب
موجه
بالماية
النوبة
##اثان
تتر
الاجرام
تسقط
محلول
name
جبر
##راش
الحسية
الباز
المتحد
المتغير
##شاهدة
يستحق
الاحتكاك
التعليم،
##ystem
اعم
غولد
الممل
الحافظ
الفريدة
واظهرت
المقابر
يفيد
انسانية
المتميزة
##ايرة
##ES
##عوب
##الو
اوق
##هدية
تحفظ
يحظى
الشرق،
يناقش
ايرادات
وعلماء
اونت
جاس
##مض
والمياه
##ذبح
لمسافة
برنامجا
المبارك
دوغلاس
##طري
الشورى
محس
المالكة
وتحمل
العنق
شكسبير
حرفيا
منشورات
ماند
##mp
##AD
الاوز
##يمير
##نيست
تحضير
المقبلة
فلسطيني
اسلامي
المفوضية
كليب
وجمهورية
##نيس
الايك
وتوفر
امها
خطير
##ويتهم
##ضيحة
المرش
النهاية،
ابتكار
السريري
تلفزيونية
##ology
##ET
##ولمة
##ويع
##رايهم
التعادل
زميله
قتيل
المفرط
سوس
##جيم
##ونيل
التث
وتحويل
بحركة
عقدا
ابرشية
قادت
خزان
##انيك
اشور
تعاطي
وسار
الالومنيوم
الحرام
1903
360
وبيع
##فيتش
استغرق
الجلدية
وتتبع
جور
سند
##سبان
الدورية
وبول
احفاد
المدار
العملي
##موقة
تدوير
حينيذ
بذلك،
ستيوارت
والسياسي
مثلا،
البيانو
الصحراوية
الفرضية
sh
حايل
##فقت
المخصص
الحلم
واثر
الانهيار
##فاوت
الشيعية
اختارت
مطعم
اندرسون
عصبية
لاسيما
الجها
معا،
لمناقشة
وهزم
متحدث
ونحن
المحاربين
منتدى
واجزاء
الاربعين
نقدية
ضييلة
la
نجمة
التباين
القوس
الاخرة
مختلفا
##anc
للسر
عدل
والفكر
الدروس
تاون
الكاميرا
المسببة
##حواذ
بصر
يسمع
##لين،
##فرة
##ونة،
العلم،
بغية
طلبات
تطويرها
الغربيين
وبلاد
تجمعات
##الع
انباء
معجم
معه،
الصداقة
وياتي
المحرر
ستين
with
برفع
##ix
الصدد
اسلم
المتوقعة
##ابلات
##int
رسومات
الاسبق
1880
المعدية
لاختبار
مفه
المدين
التراب
قبله
للتحكم
بالمية
القرط
فليس
الفلسطينية،
العالمي،
1896
لصحيفة
فرانسوا
الانجازات
Bl
Col
وقاذفات
##بية،
##ظي
##كنات
##وقوف
للتر
باسماء
##اشات
للنقل
للبحوث
للفيلم
مركزي
الخيارات
«الت
خشب
ملاك
نوبات
يوك
بالتم
امية
كتابها
شاركوا
هيلين
حفلة
هاف
هوف
التقط
للخلايا
##ومو
محط
##erv
النمطية
يطالب
للمواطنين
وراس
يقد
بحالة
الانتر
##زاق
ستر
والسنة
الابتكار
مساعدا
تخلى
اعدم
بركة
##حمة
الكعبة
المنحد
##خصيص
بتد
الكتل
تسهيل
ترشي
صلبة
كارتر
بوزارة
##الونيا
تتصل
اتصل
حملته
##غازي
##ذكاء
AC
Te
##خنة
##امير
الايوبي
العيد
امستردام
تقف
والتقاليد
يتمكنوا
اعضايها
جوز
##لمذ
لهجوم
بتخ
ارش
خلع
##ابعاد
لتمثيل
الماركسية
جوف
واسبانيا
ومث
##وريو
التحرر
للاخر
والادارة
بطليموس
الانبياء
اخصايي
والكن
##اجيل
الافات
كاثرين
انجازات
المراهقة
عازف
شون
مكس
الاموية
للتخ
المولود
المنطقي
بذور
حريق
دكتور
يصب
##يحة
##امية،
معار
الشعار
الصرب
##عتي
انهت
تتعامل
لدفع
مزودة
فوزه
روجر
النعمان
اشر
طلال
الاقدام
لمد
اعماق
لدخول
خلدون
الحبيب
النفا
وقايد
##تهاد
اعادت
اكبر،
مارشال
الظلم
السمنة
الكامنة
الدرجات
فلورنسا
فرديناند
توفى
##كتشف
يتحمل
لانهاء
اوروبي
يستغرق
المخاط
عينت
المولد
اضطرت
الخصوبة
الافتراضية
رحم
##حيث
##سار
الايم
##ورية،
البومات
##وييل
المسارات
موامرة
بالمت
لحضور
لابي
الكرسي
المشروبات
كامبريدج
at
##ندر
##IC
للحل
السايق
##ربها
ومحاولة
1941،
رياح
##عادلة
نافذة
اصب
ويعيش
هوك
لتامين
وتشكيل
للاتصالات
اخلاقية
قاسية
نقط
الكافية
##ندن
واصحاب
مغلقة
فهر
نقي
##زويد
للعلم
الحمر
تجنيد
وينتج
لخلق
##كه
##اكل
الفخار
المهن
العظمي
للتحقيق
كربلاء
مستخدما
##خيم
##يلت
النطق
الصادق
اجداد
والشباب
نقش
للمنظمة
الكتروني
نستطيع
اغلقت
حامية
شغ
##ضحت
المظهر
##رياء
الكوارث
محرر
تنطبق
للتدريب
واربعين
ميلر
مفصل
سابقا،
واخذت
لاصلاح
والدينية
##لع
الاسكان
ودية
ليسوا
واصابة
المصرفية
طيب
##وجا
الصفقة
متصل
##وريا،
المسافرين
تصفيات
مهن
الاثني
المسلحين
##ستانتي
وضوحا
الاقرب
المشتبه
المكسيكية
1899
انقرة
المطاعم
##ريال
العز
الفاش
وايران
الصعود
التصني
سياحية
بيري
الصفايح
الاقتصادية،
نابولي
بوع
بحي
فدخل
وتغير
الضرب
كم،
رفضوا
الزيارة
الانفص
رويته
الاوسكار
فقرر
للمثليين
التليفزي
الدوب
##ديز
تدمر
وشهد
العايلية
سبل
نسل
يبت
##امة،
##سترون
البكر
تقود
المحامي
يشجع
وضعف
لصنع
المعتقلين
المعركة،
بالبحث
شهري
الموكد
الرملية
لمختلف
ابنايه
##وثي
##انتا
القران،
يخبر
ابتكر
اقراص
انطاكية
قلبية
مام
اليك
الاساسية،
##ick
سرقة
##وستاف
تطبيقها
ايتلاف
بوتر
مذبحة
باضط
##بعثة
الزوجين
والتحكم
الولاء
اعتلال
الجلسة
اليابانيين
##سترو
شيء،
التنازل
الرجوع
جيران
لحو
و8
ووز
الجار
##قيع
ميزات
اصيبت
IP
اجاز
بضرورة
سبر
كخ
الانبوب
عليهم،
لتاريخ
##وكين
وازد
للمستخدمين
والمعدات
مقابر
##طارد
التلفاز
يشترك
الهدنة
لاثبات
النموذجية
شاح
وسبب
النانوية
##يسي،
اوستن
لاكتشاف
ماث
لتدريب
يتلق
تعهد
مدفع
السلف
الهندوس
الملايين
الفيلق
الجليدية
##ions
1848
صديقة
المتبادل
اوسكار
الصفة
تشجع
لكثير
تاسيسه
السيدات
المسبار
حاسمة
وعرفت
خاطية
دب
وربط
متوقع
بتوفير
للتخلص
الرييسيين
وصح
للنشر
وتشجيع
الترويج
ضرايب
لايم
##EE
الكونت
الاسس
تتولى
عملة
الالواح
##قرون
ممتلك
##قمع
الرحالة
للانس
لشوون
النظري
المفصل
والمسوول
الهرمونات
محفوظ
ثبات
عارف
وطل
##ذرة
التوظيف
لاق
استقرت
باور
سيودي
وثاني
الحمى
صنفت
قرطبة
##كتاتورية
كرون
##بادرة
##وابع
الحيتان
الرصد
بانواع
المناجم
ليوب
جنين
بالمشاركة
جبلية
المعدلة
##ثلاثة
القياسات
التبرعات
تاركا
طباعة
الازمات
##سمبورغ
البلدي
وشقيق
تستطع
رايتس
عقوبات
لاحقا،
نشاطا
تضمين
الموتى
مطلقا
عطلة
##حها
وحضر
والنشر
اندماج
المسرحيات
النهرين
تثبيط
##ress
##ياغ
ومرة
يتجه
اصابع
##شيه
واقعية
قوتها
الاطاحة
الحين،
الحواسيب
النيو
الامية
ونشا
الهيمنة
سنوي
موتمرات
الرومانية،
الهايلة
هارون
##دعي
التحو
امم
عمدة
اعمالهم
الحقن
السوفياتية
##ضاعفة
خاضعة
##ــــــــــــــــ
نيت
##ثيان
المليون
الاضاءة
معي
##يمت
الروك
##باز
مستوي
والدكتور
الظاهري
السلام،
والطرق
وراثيا
البلطيق
حسان
رتب
##ذجة
المضاعفات
والني
برص
##ذيفة
تبريد
لينين
col
كفاية
الديك
تمدد
محي
وثيق
يلقي
ناتجة
تايلاند
##رقت
##جارات
بالدم
الدرع
##فيزي
الاشورية
##وثات
خصص
المستهلكين
السباحة
توري
##غادرة
ومدى
يتناسب
لهن
وانظمة
يقطع
عمره،
فرناندو
الاضراب
##وظفين
وتركيا
تعلي
ملحوظة
حافظت
ربه
##واتيم
بتك
استخداما
التاريخية،
##ata
##كليزية
البربر
المحدث
النشط
الكونية
ايونات
مجهولة
تدري
##سكك
المغني
هاين
استرجاع
زينب
الباكستانية
الكومنولث
##غش
##غاء
الايات
##سيكو
تقضي
وفيل
المواليد
المثالي
وصدر
البدني
المالكي
نبيل
وجاءت
Man
by
كينيا
##حيم
##نصر
معين،
استكمال
تنجح
جميعهم
##خبيل
نشاطها
بنفسها
انشاوها
htm
625
تجاوزت
اتهمت
##شكلة
##صلي
الحضر
القطط
بالعد
اساقفة
##ins
بارد
##قراص
التسعين
يفوز
الجزيرة،
للفوز
زلزال
البادية
ومف
الصادرات
اسعد
المدعي
المصمم
الموهل
الحرجة
المهنة
النظامية
للدلالة
كروم
حدودها
واماكن
بكونه
وفقدان
بسط
##ID
##راحل
البوب
مواصفات
والبرامج
المقابل،
بجد
حاف
شيب
##جيت
الملاك
##ادرا
الرها
ابسط
الزفاف
##واجن
##ina
##enc
الطبية،
الجيولوجية
جاف
حنيفة
مستخدمة
الجور
وهد
##وتينات
##شاور
##يشيا
المفتاح
تنصيب
الزعماء
##وسلافيا
be
المام
وتبع
الخواص
يتطور
##عاهدة
اصحابه
بالمخ
ممار
منازلهم
فاصبحت
اتهام
براس
شواطي
التحديث
فهذه
رسالته
الاسود،
حكايات
الكوميديا
زكريا
التقليل
العزل
واخرج
وعادت
الفتاح
تلمسان
##23
##زامات
##كمان
كمصدر
الصحية،
اعتبارها
وتبدا
بكونها
لطب
ووتش
تقارب
تحمي
الرياسي
الاطلاع
الجغرافيا
جزيء
العشرات
الاجنحة
##اهلية
قيمته
المامون
وموقع
##هدفة
تسخين
كافيا
تصرفات
##نان،
الامانة
الانج
##كومات
تبنت
اهميتها
بصوت
امتياز
المناخية
الالهية
المنطقية
حبه
انب
الكرك
اميل
بحماية
اخته
##موه
يحول
العقارات
لمحاربة
باختيار
ودخلت
للبيية
شيدت
##ثة،
معادية
المتزوج
تطالب
يدوية
جمعيات
##ated
يتحدثون
صناعي
قياسي
جوار
خاط
نفق
##بته
##لد
استثمار
##سلات
مساكن
حمى
الموظف
بوه
تدا
##تام
##ورف
ايات
المسابقات
يعزز
سليمة
##وفيق
تركيا،
مشاهير
نورمان
جغرافية
والهرسك
كوش
العقاقير
وتصبح
لمثل
افلاطون
وعايل
تصاميم
والدولية
المبشرين
صادر
##تهم،
التغطية
الحلف
استلم
##وضاء
وزاد
بعقد
والفرن
وامراض
مرضية
1897
التناقض
الرايخ
المنقولة
مشاركته
جمل
لسب
##نوات
العشاء
العيوب
تحافظ
لنهر
الدمار
##عالج
المكتسبة
اوساط
الجينوم
والمثليات
الشبكية
غيب
لورن
وثم
الصخر
تشريح
اقرت
الاحتياط
بالفشل
1895
خيالية
منشور
وراى
ميكانيكا
المعلومات،
ثار
يوجه
##سيو
تميم
بلده
##نتوس
التخدير
لوكالة
صناديق
وطبقا
السيناريو
التحدي
et
بوص
تعا
صانع
فاح
واطلاق
استفاد
وفلسطين
يحسن
بالتاكيد
الابجدية
واضافة
تناولت
الهاون
البومها
و49
اطروحة
Comp
حو
باقت
ادلب
ولكل
اغتصاب
اقارب
ضروريا
المقترحة
##كولن
النرويجية
مستعمرات
ثالثة
سوزان
##PA
التقت
لمساعد
وزيرة
التجزية
الحضري
بالامكان
الصهيوني
للبنات
Car
المتدا
##ابتكار
##لينغ
محله
واسع،
بيزن
جورد
حماد
لعم
##خاير
##واهد
القاتل
الجالية
المتاحف
اولها
المرغوب
راسهم
ارتفاعه
وافريقيا
تخرجت
الميزات
الضعيفة
وبالاخص
رقيقة
##شيات
لمحاولة
متس
والمسلمين
المعاني
احاديث
والاردن
##نقعات
عشوايية
ويرتبط
الثانوية،
الحام
الفطر
##زيه
لتغطية
الاستسلام
المستم
بيكر
مبدي
استخدمها
بخار
##ubl
وازداد
الامازيغية
مقل
##شه
##قدس
##كرون
##قاها
محاضرة
باخذ
الاستث
الضخم
احتف
تفكك
مغني
##يقظ
##درة
##70
الضا
ونايب
الناف
مولاي
محاطة
طالبت
ميونخ
اشبيلية
كيلي
مجر
للجامعة
المفكرين
الوجبات
تدرج
فالح
هاني
الغنايية
بلق
ونوع
العمالية
##ild
الممكنة
حساس
دوب
لايف
نون
الفس
والمدينة
وجبة
تتحكم
السلمي
البياني
الاحتياطي
اقتحام
والروم
جماعي
وانتشرت
الورقة
و199
القادمين
مذكراته
##كسترا
عواقب
البغدادي
ووضعت
US
صاحبة
##ضغ
##قفية
##نابل
الوي
والحل
والسبب
القمع
الخنازير
ايب
تصريحات
ذاتيا
تسرب
العبور
المتبادلة
مقاوم
عنصرا
الدوم
##ساكر
وفريق
فردي
الشعبية،
ميغ
العاصمة،
المراهقين
بالاك
وموسسات
##سيخ
##لمس
يتوافق
المحترفين
فضايية
تورط
للانتخابات
World
صام
ظن
غان
هز
##يري،
القاسية
لمجلة
المشاهير
اشترى
المسوولون
لوري
ومو
##ساح
والمف
بروز
والجزر
خاص،
##old
وواصل
القصب
الكانت
##حتهم
الرش
##ثروة
المضافة
واغلب
ممي
##ريخ
الرغ
##قطب
مدتها
فتكون
باراك
تغذية
وهكذا،
ويعني
كالاتي
جاب
##زميات
والديه
##ادمة
الرسل
مقبول
دولارا
بشعبية
قسمت
الثلاثينيات
رحيل
توقعات
##اتو
العادل
للكون
الحارس
بالاز
##زييات
تعز
تستغرق
دراست
للادارة
معاداة
متفاوتة
فوري
مقا
المراب
والفا
والمي
والزي
الجسيم
ماكين
ذاته،
المرض،
باشا،
بالاجماع
توف
صدا
كوز
لبدء
ورك
##شك
السلاف
معمر
انترنت
الرابط
توخذ
المملك
بعناية
1979،
لجيش
الايتمان
يتردد
التوس
العزف
الحزام
السلك
امداد
الموسوعة
الخارج،
نسبه
اعتباره
صارمة
برميل
التوقيت
خضراء
انتي
بالرياض
اوقف
الصبي
وسوء
الدولتين
الفنادق
نهاييات
غسل
فايق
##المة
##انة،
الحامل
الحداد
الفلم
##علت
##فيظ
الاستن
الناجح
##مانيا
يزور
Con
روث
##ساء،
والقب
الباق
الكاب
المتكرر
تتوافق
مساهم
القروض
المشورة
للقرن
محتر
اكتشافه
ممثلين
حارة
##بذ
المزرعة
بالو
بتوجيه
المثقفين
واستن
الخاص،
وظهور
##وستيرون
يوخذ
تحدثت
للخدمة
والمسرح
التكنولوجية
تبل
جثمان
شوك
صيانة
ضغوط
البرق
متجان
##درالي
تحصيل
يعقد
وحجم
للنظر
والخم
وتنقسم
##round
النيابة
القادسية
المشاركون
وجمعية
##شع
السامي
لاحداث
ادعت
بالتحديد
تبث
##lass
وينبغي
العنكب
##ime
والاقتصادي
الاميركيين
تفضل
فيتم
الخسارة
وبق
الوالد
##يليكون
الميليشيات
الاقباط
فعلت
باغلبية
الاستعماري
cod
فكتب
##طاط
الميم
والكت
تنظيف
الاستماع
##جيج
نفوس
اليدين
الهيكلية
المحاولة
نن
##ym
##ودت
ومي
الرعد
##عيون
محادثات
اختطاف
لكلا
للكثير
المدرسي
تضخم
منشاة
ويزيد
للمشروع
##ise
تقديمه
الرايعة
العينين
الكهوف
مرتبطا
تقترح
كجم
##سطة
الموه
ممكنا
طالبان
جيه
خرايط
مطال
نواحي
ووسط
##وايات
##ذات
النواحي
##ندت
ولايته
اختي
اورام
والنقل
الاوربية
الرسومات
اكتشافها
##بيرغ
لافت
التوصيل
تاهل
خلا
شعا
##يمور
الطبع
مقاييس
ليفي
والاراضي
1973،
احتجاز
المكتشفة
دخوله
مزدوجة
تفتح
وولف
العنيفة
الحاق
الجذر
اوريغ
الصوفي
مثله
ينزل
تاثيرها
دبلوم
بتحقيق
بهم،
##ck
انزل
الكريمة
محامي
والتطور
اغراض
يدافع
وشغل
مترو
يملكون
حظي
كيميايي
الاديب
حلي
دى
سطيف
هوس
##هدا
##يرز
الدوق
استيناف
الجنايي
الشيعي
تركية
النفس،
لوج
##كيز
الباي
بالطاقة
وتميز
##صفية
المحامين
شيوع
قصفت
عرفات
واثار
المنشورات
الثلوج
صحفية
ثن
خبير
لوهان
الممرض
السقوط
الجبه
باكو
2500
##نانة
بالهجوم
##وقراطي
بروكسل
الادعاءات
تشكيلة
الوسيط
لامت
نية
المتسا
تقويم
وفاته،
الموامرة
##نتو
لدور
رفضه
##لهي
كاتبة
مونتي
صيغ
الفاطمي
مايية
مادية
##ax
وبات
بلاي
ونهر
لترك
تنظر
ازياء
العملاق
الواح
والانجليزية
نسبته
وانتخب
##دليل
البرتغاليين
ثلثي
انتقدت
خشبية
تباع
مكل
يامر
والرب
القاس
للمخرج
مقعدا
بيوم
والحزب
الكلور
واضطر
بالطبع
عنديذ
IC
وخلق
العضلية
الروا
انتح
##فران
الانتماء
لقسم
عقده
##هولم
قصايده
تشرف
وطور
ايما
استقالة
والمعرفة
قدرا
1960،
مثيل
جرام
بيلبورد
المكثف
ضياء
يبد
العامين
مستقر
خطابا
بيغ
و10
الاضافي
##ونتو
واجراء
بامراض
وترجم
حكما
ذكريات
قياسات
تربة
زب
سوفي
التقي
التعلق
التجميع
بمحاولة
احتفالات
استخدموا
هجرية
موكدا
والرياضيات
شقيقة
##ووا
والجل
بنهاية
اعتنق
والنمسا
انشايها
##نجبار
875
تقييد
جويل
روا
لكتابة
##وعت
النقيب
ومعرفة
اسرار
##باص
والتخ
##كسار
##سكي،
صوتية
##ابيض
المدمرة
شحنة
نلاحظ
لليون
بالي
بلدا
##يكا،
اشباه
الاخراج
التصفيات
البنغال
##rab
بالطريقة
التربوية
القايل
##واتر
قاموس
المرجعية
السفلية
تواج
خد
فام
فكرت
##يبا
##PS
فيشر
والظ
الحار
المتواجدة
وقرا
ينبع
الناقل
بالمثل
والحركة
حرص
يغادر
واكثرها
الكهربية
Me
Qu
والشي
العاز
##بلر
المنص
مرغوب
راين
منفذ
بوناب
مظاهرة
الاحصايية
النيتروجين
جيس
غلا
قذايف
##كوس
##خبة
وسجن
الاتفاقيات
راسل
وبرنامج
Univers
بقطع
تاخير
فوك
فبد
##غوا
##قدان
سبح
مواني
والارض
هوليوود
ويساعد
جسده
المفاجي
المتخصصين
وبيت
##شة،
##طابق
الجارية
معناه
الفاصلة
وتوجيه
##فاصيل
##تهد
1986،
شكله
التبش
1871
النقابات
والاثار
الديناصورات
##af
##يغة
##بورن
الاسكا
ماكن
الازهار
##الفات
رايع
المصري،
الحالة،
الاصطناعية
##يرغ
التحيز
الجيب
كلاب
مسر
وضعية
طلبه
مفوض
##دميرال
الانقراض
صوب
يطل
انفاق
ومار
الطي
والتب
ساكن
وصور
معلما
والامراض
الهاشمي
جسيم
##اياه
للالت
وتكر
الانثروبولوجيا
ستينيات
وروس
نشطاء
الثورة،
الفريقين
المعتدل
وتصميم
اعطيت
احصاييات
##شعر
المملوكة
كلب
قبلت
1939،
مجالا
روزفلت
والالت
التحل
القف
كلغة
الارادة
تنته
اجرتها
##ارتهم
والقوة
##ett
قتيلا
حظيت
المزمنة
##اهية
فلن
الجلوكوز
موضوعا
المريية
شاهين
الملاح
##ايقات
بالبي
مسابقات
اثن
البيي
والحر
لقبه
باتريك
الرجال،
1881
يكاد
1840
Intern
تبرز
غامضة
Wh
##ظيفة
الشطرنج
ومرض
بلوم
والملك
يعنى
مدعومة
موشرات
والجامعات
الركن
للزواج
وخمسين
اميال
رغبته
تعلق
المقاوم
البان
يتحكم
وحرية
الانتظار
الاصابع
كبيرا،
اختفت
الملونة
للخارج
معاناة
جزاء
##كم،
الزكاة
الاستعمال
##واجبات
1982،
##راعية،
قطرها
تاجيل
الترابط
التهديدات
زيم
الاشرف
##ريون
##ايبة
##يدرات
اوضحت
##عرق
بمجلس
مجه
الالغام
تدار
مختلطة
##زلية
مسرحيات
عالية،
تهمة
راح
##uk
واللي
التلف
اوكت
الصامت
اعجب
##ركزة
بييية
تسجل
##ans
##يليوس
عمان،
البيزنطيين
بناوه
الابراج
تصب
لسي
الصلاح
المتاخرة
بانك
ينضم
المجرة
والارت
حرارية
العداء
كولوراد
رواه
شاك
قوا
كهر
يشرح
المطلب
والمرض
##ستيان
السبي
الفاشية
لاوليك
##كوني
##فلات
عبرت
مخططات
الفيلم،
مراسم
1885
واصلاح
عالمة
والعمليات
##ext
غذايية
الساخنة
بكتاب
جرج
مطلق
الانمي
الانفلونزا
باط
الكنسية
الدعارة
ماركوس
مراكش
اعرف
روسي
ووزارة
المثير
اجبرت
مستع
والاقل
111
المشعة
بمتلازمة
الزوجية
##oci
تلاميذ
اللاسلكية
wh
تفس
صداقة
عنيف
الانصار
الموسسين
محلات
ركوب
فبدا
شهود
يبر
علمه
الجزية
الاستنتاج
1975،
اختلافا
للسيا
العثماني،
نفط
السلطة،
واشتهر
##وهة
##ثان
##وليس
والاض
يتصرف
وقلة
المعين
وفهم
كمب
ارام
مثالية
##وشات
معدن
ومسجد
A7
سلي
عيادة
وقي
##اديا
السكة
معمل
##بيتها
الامواج
##وفون
وجوب
باربعة
افرادها
بالانقراض
للمنتخب
ستانفورد
المنهجية
غارة
لورد
##كوت
##راعي
الحركي
##سبين
الثقب
لتقرير
السياحي
علمت
والاجهزة
اميركا
لمحافظة
ببعضها
السلمية
معتدل
المتكاملة
بشيء
هواء
##رافا
اساءة
##قتان
وعقب
خميس
تمكنوا
وتبين
اياها
الصنوبر
الرفض
متفرقة
تقابل
اشاد
المعقد
ينحدر
وصنع
ورجل
حصلوا
الاقل،
الليثي
حاولوا
القطيف
ذكاء
فرانكفورت
رباعي
فز
##وپ
##مور
##ارسية
##ورز
المنتدى
مويد
بابن
1889
لفتح
يرغبون
الشيوعيين
DNA
فالي
بالسي
بنوع
##عيق
##قاشات
نفقات
الفاصل
صوم
يدين
##ظايف
الحواجز
الجاز
##حدها
ومراقبة
اسرى
الاراض
وحر
اخاه
عبده
المناعية
بطن
1920،
الحكومية،
وافاد
الجزيية
ناجح
بالاعتماد
طموح
##فوا
##الها
الملاحظة
الحافة
وتقييم
##كتيريا
بلون
احجام
تسويق
والحق
عبيدة
لفرنسا
دعمه
الوسيلة
تثير
##طون
التسا
وتربية
الغي
الالقاب
التصديق
فعالا
حكومي
والتنظيم
##بريالية
مفاجي
وسرعة
تيمية
اوكل
يتفاعل
##ance
##وسفور
المالية،
التمثال
والامريك
المزروعة
ادا
تداخل
يدر
الميوية
منك
انخ
##ربوا
وتكوين
##سيات
والموارد
اجيال
مستط
بالنظام
والشم
##اردن
مغطاة
وترتبط
وباقي
الافتتاح
الولادة،
احصايية
المنظور
Par
جيمي
##كارات
##نياء
##فية،
القوارب
##ليه
الثر
والمكان
الاستغلال
فاننا
اعتداء
1940،
المواهب
نفى
مزد
##لاجقة
بالجزاير
لاتحاد
style
المغلقة
حاملة
بالاخ
المعادلات
المصارعة
##ene
##isc
تقلص
انسداد
راجع
الحرمين
لثلاثة
##كونات
المنشاة
مدفعية
بيتي
الاتحادات
##نفذ
الرياضات
##oll
لفيلم
بالعالم
المصابون
اتجاهات
المطبوعة
لاختيار
##que
البرونزي
##طان،
##اموس
##ستو
الجبر
##انيه
للعودة
مهارة
##هارا
كثيفة
الكرمل
ابتدايية
مجلد
تراجعت
لسبب
البنى
##داقية
هييات
##وزيل
هولمز
المواصلات
التماثيل
خروجه
تاجر
هدد
##يفت
##IN
فيهما
##ابور
الحساسة
السايلة
الشراء
اغا
يسلم
السموم
1882
تحديات
لتخفيف
هامبورغ
حساسة
صعد
عشاير
الحوي
وتوسيع
تعقيد
1987،
1985،
لكلمة
وكلما
اضطهاد
ترجمت
هابسبورغ
المدافعين
خن
عط
انكار
ماو
##كمية
المختلطة
القصبة
السرطانية
العلمي،
الدبلوماسي
##ضافت
المماثلة
للقر
الاساتذة
##وبون
الاولوية
وعلاج
الجنس،
##وارض
مساحته
العمق
240
العقايد
المدرسة،
الانصاري
فسر
نجل
نايت
و9
##التي
والوصول
التشفير
##ذاة
الغواصات
بلو
##طا،
1988،
الطاهر
المساكن
##باراتين
بالرصاص
المجاورة،
التضامن
لاعطاء
الساخن
خفيف
الصيانة
وحض
اثرا
للتف
المعترف
هندسية
شارلوت
تفسر
جثث
يافا
##ومت
لاعضاء
ابولو
1974،
1972،
العقبة
بورصة
قيادات
4،
بايع
رطل
لطلاب
الشهادات
وهولندا
والتلفزيون
تنسب
الدموي
الطاقة،
الزواج،
مهمته
غزة،
مايل
##ودات
وتهدف
والمجلات
مقارن
النفطية
انتاجية
«لا
بجا
بسك
##كي،
المهرجانات
تقوية
مجانية
البحارة
الضريبة
اعترض
ومتصدر
بالغاء
لثلاث
##ايدا
السلاسل
الفدرالية
الكف
##اريون
والمحيط
لتك
للمجموعة
اخي
اخوته
##فقه
ودار
تفتيش
البنز
##lect
ليتوانيا
عتبة
##ius
##نقل
##سوم
التسامح
باق
ادار
سلبا
الجنسي،
##ome
حيوي
الشرقي،
لحدوث
يتجزا
صورت
##”،
البدي
النزيف
اميرا
وقضى
الريب
اللهجات
الموشرات
ومعالجة
##ذكرى
ثلاثينيات
للجزاير
الواف
المفاتيح
لرعاية
قتالية
الوفاء
صريح
غني
##فينة
السقف
البيل
وتض
تمث
تحب
بتطبيق
##زاين
والنف
قصيد
وامام
واجبر
الملاعب
الملايكة
بضم
لتحليل
تتفق
بالتعليم
وصاحب
##وغان
صحيحا
المشروعات
التابعين
##وساطة
ومزدوج
اصف
تقاطع
ختم
قوبل
##خية
##امس
##هابيين
الكيان
ولديها
مصنوع
توما
بالحصول
الميدالية
القتال،
الخديوي
Joh
براز
يعاقب
الماخ
الايس
واليا
التذاكر
بالارض
ومواد
ولكي
اغنى
الملكية،
##غلو
##وماس
الدكتورة
و15
1876
لتشغيل
مطالبة
مملوكة
الحان
النت
لاين
المتهمين
اكتمال
للمنا
##فرين
الراش
تجريبية
##فظة
##lam
##وكسيد
وكنيسة
بكتيريا
المستعملة
صورا
ماهولة
لتشكل
الهيك
بتدريس
المحفو
الاستشارية
اخفاء
اخضاع
والعشر
وشع
القرية،
##كاوى
يليه
صدى
حديثي
##oth
ويحمل
يشعرون
##يكوسلوفاكيا
البنكرياس
ثانوي
جث
انجليزية
للقتال
مجرة
مجهزة
اعطي
دايرية
التجنيد
اسباني
##باطرة
بالاغ
وضمان
1894
1861
يضيف
للضغط
والانتاج
عراقية
سونغ
كص
لوا
الموضع
والخب
الفاض
واظهر
اساتذة
##سيه
لمزيد
##تيكات
بمهاجمة
ينته
المويدين
##بطان
المخيم
مفاتيح
ماتت
بلاط
مارتين
سماه
الخالق
يحدها
ببيع
زاير
مرح
##فونية
##هايمر
الحامية
معقل
يومية
النظام،
عدو
الترشيح
يخطط
ومتحف
السلوكي
الخضوع
الروسية،
الاعدادية
كاثوليكية
ضارة
غوت
##راوية
عام19
واصول
وباء
##دينال
وجزيرة
الموسمية
ملغ
يسقط
مغنية
يلقب
الرطبة
مجتمعة
ممالك
##البات
فيد
##ادف
للفر
##افه
ويغ
ويوكد
وبان
بالتزامن
##ana
الجامعة،
مطابقة
جزيية
فقالت
مورغان
سلوكيات
مجموعتين
الاصطدام
le
جفاف
##22
والكتب
انقاض
الشوط
الخريطة
الريتين
##عددية
يسار
والجزاير
النفقات
عصابة
حازت
بالزواج
والمساواة
عدي
كاج
##وسب
كلوريد
باطن
وقطاع
سيغ
الالهي
كثيرا،
اطلقوا
قلبه
يمارسون
##رادي
الخنزير
الصق
##رضة
وعاء
1400
##وايية،
التدريجي
بايزيد
محترف
نقول
##ناقش
وسلوك
القراصنة
التذكاري
ed
سوا
كاك
ناص
##بوت
##نو
مناص
##ايما
الحصر
بالفن
النياب
المستقيم
1944،
ورسم
ميلانو
دفعه
واشارت
الرضاعة
ذرية
ركن
زهير
##ء،
المظلمة
بالرنين
استرداد
##وزين
حقايق
واجبات
1893
الناتو
لاسرة
فيلادلفيا
ناخ
##رالات
##قبت
المايا
التاهل
وتغيير
مسافات
بالمياه
##وصور
##ولوجية،
وحديث
انقذ
يشترط
واليوم
غذايي
الانجيلية
وظيفته
كغ
هيمنة
##حانات
القلم
##وبيل
الرمادي
داخليا
والنشاط
مثبطات
فعاليات
الفنلندية
اندريه
##ose
العشوايية
تكل
ترفع
قضاة
الشقيق
واوضح
وتمن
استيراد
ونزل
##عاه
اتضح
##رجيح
الواض
مربع،
لتصميم
حاملا
مـ
##ثوم
الينا
اوصى
ويصف
ونص
تتناسب
وسكان
مصنف
يستفيد
ولدى
يصح
##ينغتون
كييف
ثقافيا
الانحراف
حارب
شوال
##عام،
الدوايية
ابقاء
يتسم
الاحمد
بقرية
التدريبية
تقديمها
يوما،
ونظرية
موقفه
مسيرتها
ندوة
الجندرية
حالت
##جور
##جرون
##طاني
الصربية
المنظر
باولو
مديرة
يحمي
والدعم
الاسبانية،
السوفيات
الاقلاع
رجاله
المجاعة
المعتادة
##ations
بناوها
الكهرومغناطيسية
اتي
ربي
يرق
##تبع
وتقليل
للمركز
الضباب
ويسمح
عاشوا
وكتبت
دبلوماسية
المناقشات
المستثمرين
زحف
كط
بينت
هوارد
كلهم
##ضاوي
تتلقى
الزنك
وسن
الاستج
وفرة
الاتهامات
للتعاون
المصنف
المقارن
##جهات
الجليدي
##ash
قصيرة،
ايمة
تسم
شهاد
يفر
يهاجم
##يوبية
##درب
##ومون
لاظهار
الاسطح
1850
برات
ليقوم
مرسي
الحركة،
ربحية
هرقل
الوكالات
Tr
نفا
##قوبة
التطورية
##ستر،
الفواكه
وتط
الاستبد
وكبار
تلو
خلط
##كاين
##طعيم
عضوة
ويتبع
القصيم
لتشجيع
المرجانية
القوافل
وهاجم
القات
وفرت
استخبارات
بيج
التصوف
فعالي
صناعات
Med
رست
لني
لرياسة
##BN
الماه
القح
البها
الرتبة
الغزاة
هيكلة
كبريت
بعكس
##اقبة
ارهابية
ترغب
بولي
الحلبة
التفوق
الدماغ،
##ومباي
المزدوجة
بونابرت
سايق
شرايح
##35
النجاة
ويختلف
يدعون
وخمس
جنوده
سبحانه
تونغ
##ضد
استضافة
اميرة
ونشاط
يحفظ
##وهيدرات
الاحرف
حكمها
##طالما
سيرته
##ايطالية
اجتياز
كيه
منشات
##اروس
السيت
معيش
اسكندر
محف
بلان
عملوا
الدمش
مخطوطة
المزايا
تحدي
Amer
الارجنتيني
لسا
##لهم
##غو،
##45
##اسو
والمو
##جاير
كروموس
وتنمية
ستيشن
موريتانيا
Ab
راق
لزم
##الفا
الحزم
القارية
واطلقت
##علب
والاوعية
كمح
##شفاء
واستولى
صعبا
يحاولون
والضغط
##ound
عظيما
مراه
##هاجر
##ادون
المتوكل
##باض
##كونة
كمبيوتر
لحالة
الثالثة،
##سنطينة
سبار
سعاد
هابل
وسمح
##ton
##جية،
والخي
وبار
وكانه
بمركز
تجويف
القرانية
الاعمال،
والاسلحة
الايرانيين
بالكثير
1878
المتمثل
انص
##ومبي
الشوك
اللعاب
##عرع
المحظ
بطبي
وابت
والاناث
ويلاحظ
ليعمل
والفت
البه
وتاسيس
الخار
ومول
لاور
داون
عصام
اللاحق
الصليبي
بيبرس
back
لوسي
لونغ
وليب
##ذوذ
##عله
##ازون
والعسكرية
##وصيل
احتياط
ورش
##اذن
المواصفات
وينتهي
القطعة
رقمية
دييغو
جيني
شعاع
لبطولة
هنت
##يغ
##كف
##ذنة
بالاي
الصرع
الطيبة
لموسسة
وهران
اللين
اخرها
اتاح
##وار،
الاصناف
التجسس
1971،
ارضا
بشري
يسمي
ارضه
المدنية،
متعددة،
##rad
مطلوب
الفصيلة
ومسوول
مناسبا
كوسوفو
##وريكو
اختلفت
Ret
اجم
المرق
##خرجة
امهات
بلانك
بتعليم
الزه
##شاشات
##بتر
اقنع
تطهير
##اخستان
صدق
تصميمها
قياسية
الحاخ
##سبه
امارات
الزوايا
احتوت
##ition
اقتراب
تعليمها
رومانية
الكهف
«ح
##na
لهولاء
ولاسيما
التحفيز
الاعتراض
والجزء
تكليف
##جبين
تقليدي
الاطلاق،
##rans
سويد
التها
للتمييز
##ors
وادخل
المقدس،
الاطباق
واحتل
ايسلندا
توزع
لوفي
##وحت
##ها؛
##رابي
##حتوى
مترا،
قبل،
ليح
التجهيز
رفيق
ملتقى
تعاقد
راية
الخادم
ايون
الغيت
تتفاعل
انتوني
المناهض
1984،
تسجيلات
والنباتات
يسال
الكلوي
مواضع
وادوات
غازات
بمستوى
بقص
غناء
مالا
##شور
للوزراء
بنايها
بدع
وعملية
تعطيل
1978،
كنوع
حجرية
اوريغون
خريجي
رزق
سيات
فمع
المكاتب
المملوك
بنايه
سنويا،
الراهن
الخطية
##icro
الرابع،
1892
بورس
راض
والعض
الصوف
ايصال
امرت
الهير
##جهزة
ماريلاند
مزود
انفصل
اللاتيني
##ماطم
الشهرية
هزمت
تقتل
المراجعة
التداول
##ريجين
تتجه
اجرته
الشرع
للبشر
اثارها
الحالية،
الايطاليين
كهف
للذكور
بطريرك
وخمسة
اسطوانة
،ويبلغ
زنجبار
##ونهم
المتهم
##وفن
السليمة
ازرق
1918،
##قوش
والهدف
##عبان
اشعاع
مويدي
لحن
##att
للعنف
السوفيت
خصصت
بورما
اغلبها
التلقيح
وجعلها
للمسجد
مميزات
ادعاءات
حاتم
فی
نهضة
##طبة
المين
الفخذ
##قاقات
لتوسيع
اثنتين
بطانة
لنيل
رفيعة
والعدالة
ضابطا
باتي
طفيفة
##يذه
السمو
الدوا
مجزرة
اخضر
التدري
واتجه
1891
مقدونيا
واثنين
ويكيب
الاستيطان
اطا
بزع
ضيقة
##انف
الجزاء
واعد
واعتقد
الصنف
##نيان
##يو،
ولغ
الاستثم
##وحيات
روسية
بلادهم
منحنى
انشاها
##فزات
وحلف
وازالة
متكامل
AS
شاء
قح
##وحي
فيست
الاقراص
للشرطة
للاهتمام
##سبت
وتعيين
تشو
المسافات
##طقوس
بطب
اختها
اهدافها
مساعدات
الفقهية
الوضعية
الابداعية
قاري
##son
المذه
المطور
##ياش
القسام
الجوف
##تيكو
وبقية
سترا
وتدريب
وبهذه
جلبت
جيت
كالح
نزيف
الدرد
وقطر
##يز،
الناجين
شعرت
اصدق
فقامت
الينوي
ارادة
المربع
توني
ركب
زكي
لورين
مارج
يهم
##غهام
##سحب
التبت
##مايي
الجثث
بمثل
ادارتها
المصير
شاكر
وتبادل
يطرح
##غر،
التاب
بالعلم
##ودر
مناجم
الاصلية،
حكومته
تحويلها
صلاحية
https
المفقودة
فيرجينيا
الاسكندنا
##لور
الاسلاك
بدعوة
المديرية
للاحداث
يلجا
الوزراء،
عموما،
والتصميم
رقص
وخلص
يراه
واليه
للطبيعة
الرنا
المتاجر
ولادته
الاستثناء
اخوة
وخسر
##غرقت
بفارق
الكاثوليكية،
زيدان
نوبة
الخزر
الاسري
كلير
العمر،
1968،
##ink
1949،
والسويد
سيطرتها
حليب
الحما
وموسسة
سبايك
##ارسيا
والاحداث
الطاعون
المبذ
مفيدا
جامعية
اعتبره
اديب
سافرت
الاباحية
لالمانيا
تلال
حاصر
كابل
##yd
##اطة
##غمة
##ركت
وموس
وجبال
المعطيات
اليابسة
للغاز
الهرمي
الجسور
لتسجيل
واجتماعية
صلي
عجلة
##ـب
##IT
##انتي
التوام
الكفاح
ولدي
المحادثات
##ورا،
الحمل،
انقراض
باشكال
نحصل
جافا
سينغ
الخفيف
##درز
##عروف
المنفردة
تقطن
استخلاص
لعقد
1600
ميلادية
ببغداد
##نبية،
مسوولين
ناقل
الحصون
نانسي
والاسلامية
CH
عطية
##ياطة
الجولان
لمكتب
##وفيل
بممارسة
اصطنا
الاصلاحية
الاستخدامات
كهرباء
لويزي
البركانية
اليرم
ومقرها
شقي
نمر
##يهم
##حيا
##شيت
##اناة
وتعال
##عترف
مقص
بحياة
دونما
قواتها
##سابقة
الربح
مسلح
تضاف
المتظاهرون
خوض
قشرة
المبد
الشبك
##فيو
والتل
اعصار
المصاحبة
تصغير
##hem
وانتقلت
الحريري
بافت
حاص
النحت
الكمي
##دايرة
الغى
يمتاز
اضراب
امريكي،
##جازات
دراية
##امبيا
الفيفا
الطحالب
دوافع
والشرطة
العف
##يمتر
النجا
الدخان
الاسرية
المتعلم
الارش
الاستواء
1962،
##اماة
الخلل
الكنيسة،
رمزية
تصميمه
مكونا
اهتمامات
للمسيحية
باليون
قبلها
##باره
القرش
اعلانات
الحدوث
ميغا
مغامرات
اللبنانيين
ماكدون
والثقافي
تشريعات
وتنتشر
320
as
كمو
القراءات
القوايم
النوى
وجيش
مستقب
مجانا
الناصرة
##جران
دعمها
النقاب
تماثيل
##ual
##فاضا
باقامة
##فتر
الاخشاب
للحيوانات
المغن
تركه
##عتقدات
مارين
لروية
الخزانة
بتمويل
تفضيل
البلاستيك
6000
مجلات
انبعاثات
علوي
العزم
وكشف
وثايقي
نصت
قاطع
اونتاريو
ترحيل
نضال
وكانها
وللت
احداهما
الانتح
الكتايب
1958،
الاغتيال
جامعي
ملازم
والثلاثين
بزي
ثانية،
##وادي
الامداد
بنما
الوفاق
ابدى
الغوص
والمغ
برغم
العمراني
##erg
التصويرية
شبابه
متاثرا
6–
SS
##يروان
العود
##برها
تمركز
بنغازي
متدا
المعاد
اعلا
الافق
ساعتين
1981،
ومعهد
1956،
اغلبهم
الحيوانات،
لحوالي
سوب
##اعب
##عري
الموار
المشرف
الفرج
بنز
المحب
##قصاء
الابنية
واربع
##بابوي
قاعات
الطلابية
فجوة
وبالمثل،
5٪
«من
دماء
رخ
##iel
التعم
التايل
الحراس
الشبان
الخبرات
لتفسير
تقليص
براند
1963،
نظريته
واراد
وضرب
مختبرات
القطري
مزيدا
المجردة
سهول
غيل
مصفوفة
الاودية
ايست
ويجري
مسكن
مايك
مخط
الجنسيات
قطعت
##يروسات
انسحبت
منزلها
طوب
يوري
يامل
##روس
##32
منصات
الصدي
تمه
وسع
الاستغ
موثرة
بطبيعة
اختفاء
حلها
تفشي
والجماعة
تناقض
عقيد
للبحر
فريقا
وخلفه
الاهرام
ببن
صوته
##كالي
المرونة
##يافة
##يدها
الشكوك
##رايي
المويدة
بالمركز
اعتاد
والبريط
وطال
مطبعة
1884
##ree
ثمانينيات
للدي
النصارى
الليل،
يتنا
بحملة
المثانة
##ضرر
مخالفة
انواعها
##راسلة
##افيزي
يوتيوب
موقفا
لمتابعة
بعلبك
Fran
ايمن
دومين
غرض
لوب
المسبب
##حيق
اتساع
للتطور
توصلت
الفتنة
الشيخوخة
الوطنيين
للخدمات
المثلث
يتمتعون
بالاشعة
البشري،
مشواره
الخرسانة
شيون
##ربع
درهم
وصفا
##ater
تقدمه
للدبابات
باللقب
الصناعية،
نظره
زواجها
نادى
يحتاجون
بتصوير
وبمجرد
الخبيثة
ازم
بناه
تعلن
الارجل
##يفان
تشينغ
الاستقالة
##ضمنة
تسهم
التبني
اراضيهم
لمحمد
##اطفال،
AD
خربة
خاطي
سرب
لكت
##حصر
الادميرال
النوافذ
اللول
الغش
##ضاعة
والتقى
الاستح
1976،
الانسانية،
##نزاف
التوقعات
مريية
وتوفيت
تقترب
ناض
##ورق
الرواسب
محق
ستن
راو
فيزياء
des
احلام
راند
شقة
قاص
قمم
##كلا
##اميد
الجري
الفوري
##وجبه
##ند،
بتدمير
احواض
##راته
وفيلم
ارواح
تفكيك
##فاءات
بنيامين
مقدمي
المعروفين
##واصم
الاربعينيات
السويسرية
كوبنها
سباقات
وبطولة
pr
طاي
كاه
المود
##ولهم
التامل
##ادس
لمخ
المنصوص
باقل
تشفير
كمت
بييات
وقتنا
مساهمات
المركزة
فعاد
ثابتا
ويحاول
ملحوظا
الخصوص،
تصفية
فكرية
للاحتفال
وراثية
زايدة
لته
##IP
السحاب
الخان
وباب
اباء
1964،
الشرط
ويمتد
الاعلام،
بالحياة
معمارية
اعيان
تخلق
عطا
هامل
العبارات
كانتا
والمراة
مستقيم
اعين
تدريبية
وشعر
230
قادها
يرتدون
انجليزي
WW
تبديل
والوط
##تمعت
اسي
الطرد
للمدرسة
ينخفض
لجهاز
السودان،
وواحد
وتحولت
ايلي
قارب
##قلا
##75
##ولادة
##وليني
##اديب
هيومن
بتكلفة
##يزة،
الاستوديو
المستهدفة
يحكي
والبح
وقالوا
وتشغيل
##enter
لادن
##ull
الخيالية
اجنحة
جغرافيا
خوارزمية
##بعت
##شاريع
##ward
للما
للشي
استلام
للمج
داير
##لفل
##وكسجين
الموت،
قسما
لتمويل
الابراه
طرحت
الهاد
الاصف
الشاح
ونج
تحظر
الزلازل
السلفية
المقياس
علاقتها
المضط
جنازة
##غشقر
فبال
##صينات
القرب
وكوريا
ضمنهم
جعلته
تصنيفها
ينتخب
الوثنية
مقاتلة
ديانة
مادي
مرم
هندي
##اتة
الايز
العلي
##فسية
مقالا
باسمها
10000
##ويدات
كولين
جرعات
باخراج
استعدادا
اتهامات
تدم
ردة
التايم
العار
للخل
ماهر
واند
المستفيد
##موية،
الشعري
الدكتوراة
1888
1868
الاستروجين
التوجيهية
يوفنتوس
بقر
جاسم
خيرية
وشرح
##صوفة
##الله
الحسي
اسط
تركها
والبحوث
باللغ
بمعهد
ميرزا
الهيدروج
ومسرح
الهدايا
مسيحيين
الدوبامين
##راخ
علی
##ادير
ماين
##باخ
مستد
تزعم
بقانون
بوغ
الكروية
ينتقد
للاراضي
تامة
##48
فيج
الشاط
##اصير
تاثيره
الكردي
توقيت
الرسمية،
الانحياز
مكثف
المهددة
والقيام
الحزن
الفري
الغار
للمسا
##قصايية
والخاصة
جانبه
مربعة
هامش
التضاريس
بزواج
##MA
معاص
##كان،
وممارسة
##وجر
تتغذى
تحض
تديرها
1977،
الاسبوعية
عديمة
الرياضيين
عقار
الصفحات
الروايي
والاخلاق
لويز
اضعف
باعطاء
الحسابية
sc
افس
تجا
##الس
والدم
##قيها
الريش
##ذهان
والثالثة
جدير
للبقاء
لاستقبال
##ضحايا
بمنع
المسلسلات
طرفي
##ML
##سبات
الفد
المقاييس
ولده
والصنا
##طالية،
بيه
مدي
##امى
والتمييز
التفسيرات
##سا،
##رات،
والصناعات
برمجيات
استشهاد
نزلت
بالتعادل
Gu
فقلت
يرض
والمعادن
تحركات
العامية
مدته
المجن
##شييد
اضيفت
للاسلحة
واشكال
والادوية
اليسوع
عزز
لسلسلة
المدخلات
عقلية
##ED
##formula
المصرف
##وني،
انتم
وموا
##وقين
ادانة
تشام
الضربات
عميل
بغزو
هدنة
واختيار
والامبراطورية
الشعر،
اهدافه
يغلب
هانز
اللاتينية،
ومزدوجي
##وليا
السادة
##فيك
##انيين،
تتحمل
1965،
##ict
##ript
كليهما
الفلسفي
قضاها
خيوط
ظاه
ووافق
##سها
##زونا
##–19
التحلل
البطاقات
المتغيرة
ويهدف
##اريه
ابادة
تتركز
احضر
1943،
##اذب
سفيرا
1864
ووقعت
ترمز
جاد
فيض
الاصب
والاند
للعمال
للاندية
وتابع
مازال
وانتج
المحاكاة
بروم
##شفرة
تكاد
اختيارها
تمثلت
مختار
وايرلندا
الاستقلال،
الفيضانات
الواضحة
صهر
مزاعم
وايد
##تاحية
القطبي
النثر
الذياب
##در،
##قاة
##رقوا
مداف
درعا
اورد
للعلاقات
235
الجيولوجي
وارسو
##نال
انجب
للفترة
وتطبيق
الخن
الرنين
الغموض
وليم
مثلها
بتاثير
##ازيا
المدربين
1983،
##انتس
التشيك
تفصيل
تستخدمها
مضت
بايت
والامارات
جانبا
فطلب
فذهب
مارب
اكاديم
اصلها
الهندسي
لبريطانيا
المحلول
##row
كامل،
##كلمات
صيفا
الافتراضي
##اضطراب
سويفت
متفرج
PC
الميزة
##سترا
##يدالية
وبفضل
##درين
يقيمون
المستكشف
برسم
##راكيب
بمنح
رويتها
للادب
اجنبي
ووج
##زقة
فيلس
المظاهر
الحوامل
##ركبة
استثم
وبنى
##عرش
ولكن،
1942،
والنصف
كره
مسوولون
نقوش
انطوني
ويدعى
##وازنة
استبدل
##ينيين
الترم
ابار
تحقيقات
الاستقبال
التحرش
اقترب
جدلا
شهداء
ويستمر
فسوف
الملازم
الجمهوريين
السدود
تونس،
##غالي
القماش
كانو
الشلل
وتاتي
وبج
وقواعد
الاديرة
ليخ
بهاء
والحض
ورشة
البحرينية
منهن
مولود
الامتصاص
وتتمثل
العشوايي
وامتدت
بجنوب
Ag
بصرف
المال،
الغاية
##اطس
يعامل
فتحات
ولاء
التصدي
المرسل
مولر
مسوولي
1867
يكتسب
تعليقات
صوتي
هالي
##فلي
التلاعب
الوهم
ونجد
بمكة
مثلث
دونم
قلبي
الطب،
الخاصية
##raph
لونه
حلب،
المنشور
ادرجت
جهاد
عناية
فشي
##ground
##صبة
والصور
العريضة
اليق
يعزى
1917،
ظهوره
مدنيا
بيعها
غزوة
التوترات
يوغوسلافيا
تجل
ختان
صال
صادرات
ليلي
مخلص
يوش
الی
بالقاء
الكود
##بل،
لا،
الاندر
المتس
استحوذ
لكلية
ايرس
لسوء
مضط
المخلوقات
مستقلا
يودى
اغتيل
Ne
حسام
مرونة
نوت
##اريا،
##ونيا،
الجوز
##ربة،
المتبعة
اشعا
##غياب
والبناء
وضوح
تحديدها
لكثرة
عصبي
البرمجية
التقدمي
والعشرين،
،وال
فضيحة
يوس
##زعة
وملك
الرض
عملي
اتا
الخليجي
مفصلة
والمنتجات
رفيع
امكانيات
فادحة
الاستدلال
ديانا
غين
وارسال
##زمي
الاعم
##ربما
وتركز
##رتون
وسير
ليحل
المقربين
##وايق
مهنية
التعقيد
##فاعلات
1887
مانهات
الورقية
وزوجها
الايونات
المسموح
##متلكات
اعاقة
ترقية
عاليا
المكي
بالياب
النوا
وتنتج
ونادرا
##يفكا
وحش
1947،
الاغاثة
الملايمة
بصح
مخطوط
##سابق
تناسب
##وامع
بالعاصمة
اعدادها
عربات
والافكار
5،
برية
سخ
عشية
مهاجم
ووقف
الوت
العريقة
البطاقة
لمهاجمة
متوق
امري
اليقين
الراهب
الاحترام
بكافة
راحة
##هجير
وكلمة
حديثه
يضرب
المعاهدات
حاضرة
شريحة
غذاء
##CO
الجاهلية
اوال
يتعارض
##فر،
للجهاز
الوحش
تطويره
للعمليات
اسلوبه
رقعة
يتعرضون
برصيد
par
«ع
صان
فست
العنيف
الكاهن
الويل
باير
الرايع
الموالي
##وهي
1950،
العلوم،
وانتقد
منحها
فيلما
الاطلس
الوجوه
للمسرح
وخارجها
John
جرم
حرا
سارت
##وكم
تنحدر
تعين
البلدات
##قصى
السنين،
مهتما
يوليوس
القضيب
المجاور
بالخط
المتبقي
كقايد
الكريم،
اسطوانات
الاسطوانة
الانثوية
روان
فوزي
فصيل
التعليق
اسراييلي
##اريوس
##ريكي
وحاز
الكتف
##orn
الملحق
لشب
سفارة
مقره
comp
اسماه
النشطاء
الزواحف
الانجلو
بقلم
حصد
ضاحية
غاض
ملب
التكرار
وتيرة
الطر
##اصد
تحق
اخوان
اصله
الداعمة
المشاهدين
ظهورها
وافراد
لاتخاذ
الاذاعية
##ذيات
##انوا
بالانس
##نيز
اخطر
للسيدات
بحثه
الركبة
Pl
##24
فيسبوك
##ياغو
متواض
يتابع
للمطالبة
تحطم
##شاك
للحرارة
##وما،
الشعب،
الامبراطورة
الجلوس
امتحان
والادوات
الدعوى
خيال
حديدية
صيدا
##aj
##شارة
المقاطع
ومجلة
ايك
الطعام،
بمساحة
تتنا
بتونس
المصور
المصارف
داخلها
والسيد
الاثيوبية
هداف
الفنلندي
اثره
وكلها
الشكل،
للاستثمار
العقدة
كعلاج
الباكستاني
منطقية
ضا
البلي
الداف
اوجد
الاسعاف
ويقل
الراوي
الالفاظ
يدع
اعتناق
واستاذ
##ينيوس
وتنتهي
والامير
المستقبلات
##ement
سيبيريا
وراثي
تشيلسي
الرافدين
كولورادو
حجب
لوت
يكره
##fer
العس
الباه
##فاخ
اللوح
##يتون
سنتي
##اهو
سيقوم
##شفية
اللاسلط
و17
##amb
فساد
هاتف
##طلاعات
ليوبولد
بورسعيد
بعمق
وصرح
بالقيام
##كاني
بتوزيع
يقر
مستشفيات
التحضير
ودراسات
##ينيوم
##ener
نشوب
التمارين
الصفوف
وشكلت
اللاذقية
بقدرة
تلب
خلافات
كولي
لقتال
والصرف
اكملت
الهيليوم
##يكيا
يحفز
جداول
##جهود
ناجي
تيمنا
الاستشعار
ايطالي
جواب
غانا
نوي
##فصال
##33
الصيفي
##جمان
كلفن
##وكلي
بدوام
لعبد
اصدارها
واعتبرت
الفعاليات
لارتفاع
زحل
شاسعة
صوفي
طي
عظمة
التعا
##راوات
المتطرفة
##باش
امينا
اخرين،
والتراث
فرعون
المخزون
حرمان
وطول
التاسيسية
الكروم
المستقبلي
التنظيمي
لوكسمبورغ
الكوميدي
واكتشف
خمسينيات
تـ
يصر
والوظ
وتفسير
##اسع
باعلان
لتطور
##قاتها
للتواصل
اقول
الطاولة
يستقبل
الاثارة
القلبي
البيضاء،
الضرورة
مكثفة
ايطالية
مستوحاة
Go
co
خدي
غوان
نما
والرجال
الشابة
##ملي
لتل
انتظام
والعودة
##رافقه
والحرية
وصفة
قتلى
والثانوية
كاترين
1863
والسلطة
للسلطان
المذنب
المفروض
استاذة
الميثان
استعملت
والرابع
المودية
واللا
للخروج
الحافلات
بتسليم
##اراته
يومنون
1969،
##جنيد
للنشاط
باستقلال
السمعية
والاشراف
انعقاد
النزعة
جغرافي
اهد
قلا
مصف
يبيع
##TS
التورب
انظار
##ايكا
الشد
الره
اكاديمي
باهمية
ولح
بالاسبانية
كارولين
هيرود
العابدين
فجاء
سيطرته
المقاتلة
ISBN
سمو
##اليس
##ينكو
الاشر
واليس
للبيع
الحايط
وتجنب
تمسك
محو
للمق
يعثر
اقمار
اختلال
وروى
##وايب
بوينس
وامه
حربا
الوحشية
للامن
الهواء،
بموجبها
مهمتها
و198
ميونيخ
المملكة،
ببار
تامل
نطق
##حاس
##II
##ماير
بالتهاب
وتقدر
المويد
والحكم
والحقوق
##ank
##يميايية
##lay
السعوديين
مشروعات
لفرض
يوحي
والاصلاح
الفطرية
بوساطة
##ندة
القايلة
##لاست
الخمر
ساو
والنقد
بكفاءة
تخطي
270
لفكرة
##اصرين
1886
ثالثا
اريت
ديان
شجر
يوان
##rit
الاثير
انث
استضافت
##هدوء
احراز
بداوا
الشباب،
##غبين
وسيتم
بالبشر
بيده
الاندلس،
Res
تكلم
غلوب
ليث
مداخل
هدية
واهتم
بموقع
المعجم
##وهو
للحقوق
المبني
##نفية
بفرنسا
واللغ
هاريس
التذكارية
ثورات
حوران
##نعت
##اريكا
للمه
باند
بانفسهم
لحوم
محاور
قادمة
الفضية
صديقا
الحكايات
الترفيهية
codice
اراغ
عوف
##اصل
والامت
والديها
##يلا،
الغنايي
تتعارض
##رحم
وحث
الاتهام
فردا
ترميز
المواطنة
بروتوكولات
المتنقلة
الاستعانة
background
بورد
زوايا
ورف
القعدة
تحذ
وفض
##ياء،
1946،
##البوم
بصناعة
العمري
##وغا
والقيم
التاسيسي
مغاد
الخميني
واخيرا،
330
لينكولن
الماضية،
خدمته
الازدهار
غلي
##امو
##واعا
الجبار
الفايق
الخاطية
بندر
والمورخ
احتوى
نظريا
القيادات
الحجج
واكمل
نجاحه
الرووس
للبرنامج
بقصد
تيب
مشي
##ثق
##زلاق
الحلي
ومشاكل
##ازة
وفوق
اخو
##بابا
مكسيكو
بفرض
الاكبر،
فقالوا
كوكبة
لتخزين
طع
عاطف
فعمل
##ييات
##500
بالامر
ومب
##سلسلة
حولت
##زمت
حجمه
البروتستانتي
واحترام
بينهما،
و48
فاضل
مستمرا
بوكس
جولي
##وعتين
##طس
الصداع
##وكرب
تقم
اليسارية
برنارد
تختص
فاشلة
بزعامة
شركاء
لربط
##ضر،
العزلة
للـ
الفلز
الكنيست
محلة
تتابع
الموشر
كثيرون
##تمردة
1883
القنصل
للاشعة
ايديهم
##متها
##زمه
##ينجا
الاوسع
##رايد
للراي
بالدرجة
##تمس
المتفق
تحكي
151
بوابات
حدثنا
##riev
0،
حواف
##ارتي
الحوت
البوي
##يمو
الغضر
وسكن
والانشطة
والكيمياء
حاله
المفردات
مجلدات
ارنولد
تفرز
انخفاضا
بعم
عيني
كذ
مكلفة
وساير
##غاس
##we
##الغة
المهر
منجم
السع
امانة
##سك،
يستهدف
احتاج
مخطوطات
فلو
انفصلت
وباكستان
بالاسلحة
ميكانيكية
المهدية
الشيشان
طعم
##راة،
##ياطين
القابل
يتل
تتع
تقطع
اصداره
قيادته
واخرين
الموجودين
الدنماركية
السطحي
امبراطوري
دستوري
المنفصلة
Gr
تفسيرات
سويا
مرجع
##بيرة
التصلب
الحشد
وتذكر
لتدمير
بمهمة
##اراتها
للتد
اعتزال
المواشي
##متاع
ترتكز
نقلا
طالبة
الاولمبي
للافلام
تكتشف
ستانلي
بطيية
are
لظهور
##tic
##اندة
والخاص
الجبرية
لتطبيق
اداري
بتاليف
مسطح
الاختي
التركية،
1961،
##واعيد
الخطرة
وادعى
المزد
الترخيص
اللغة،
مربعا
الميدانية
لاحدى
الكثيفة
البولنديين
عايدات
تجربته
Ind
اعا
عيب
غرق
والسن
الحفظ
بالعم
##ودعات
الكاز
الذري
اساطير
متشابهة
الاستيعاب
مجهود
فرعي
يدويا
احتياطي
##اربون
والسماح
##قبلات
وجهها
1877
بالدخول
سلمية
بعثات
توصيات
باحدى
الدلايل
يرجح
تالي
سعادة
##هيري
منظر
ومرت
##اريج
باهتمام
سيصبح
وتمتلك
المحلات
بابي
اشترت
فرانكو
يحصلون
اوسلو
والجنوبية
اعمق
تباين
سقراط
هوج
##99
الاجازة
الفه
للتعرف
اغلق
الاشغال
لحما
اثاره
كاتبا
الافتتاحية
تخصصات
##غوليا
كاداة
##هلاكية
اصفر
بيث
حراسة
رهاب
هيث
الملاحظ
التجا
##لاوه
وقصر
تنز
والاربعين
##وادم
النظير
1879
واصفا
النقش
سكك
دبلن
عصابات
الطرفان
الجروح
دلايل
العواصف
الاندلسي
حافلة
مراة
##يني،
والشاعر
##ياقة
الصمت
لمملكة
اللوج
اعقب
الاخير،
كمثال
لحرب
الملحو
للدخول
مباشرا
شمسية
محددة،
يمتلكون
بالذات
بندقية
net
سلا
منى
الادمان
معتمد
لمر
وبع
لانجاز
والاعل
خطابات
##eng
اربد
وعندها
لفحص
الاضواء
وتحرير
الاسراييلي،
فرانز
ناجحا
يلتزم
اطرو
الرخام
المملوكي
صافي
مفق
التين
انزال
السلال
##ودية،
ويذهب
الابنة
##كاو
والصيد
##يسيبي
المنزل،
استطاعوا
الخوارج
التبرع
كدولة
اوكسفورد
ماثيو
زيل
كيد
هندية
##27
##ذية،
الجراثيم
بالحد
بالفر
الرضيع
اسطح
##تياله
ابحر
##جالس
بصنع
1914،
التسوية
و53
نزول
لاعبا
الوصاية
مجموعته
تكاثر
موضح
ياق
##sch
##CA
الموقعة
للهر
البقاع
متخ
##واتها
ودع
الاغشية
اطفالهم
لغاية
1865
الوثايقي
وتستمر
عاطفية
##غنية
##21
بالني
الشواطي
لاذ
احجار
الرومي
##كينز
كاميرا
والمتوسطة
ارادوا
والتصوير
منسوب
انزيمات
عبارات
يانغ
##اتورك
الاوي
##رابط
الحواف
وتقاليد
ومواقع
الرقة
الاجواء
##يشن
المدفع
موراي
الموعد
1966،
درمان
يستجيب
المقيم
تزود
ويتحدث
لكسب
لابحاث
حضرت
واصدار
سلطته
بوند
للقب
الجوار
ومثال
##درجات
الدول،
اضيف
الخطورة
والكويت
لامريكا
الامتياز
تحديا
تلميذ
والفقه
للازواج
النيوترونات
شهرته
كوف
##غرافيا
##اندا
##ونيك
والفيزياء
التنين
للاثار
السريان
##مل،
الغت
الارشاد
وقيم
المستهدف
الراه
##طيفة
الاسلاميين
عادة،
دموية
فكانوا
نهايات
##اعقة
يقترب
باحتلال
رغبات
سني
كذا
نهب
والته
##راكة
العين،
بالرب
لمجتمع
استهدف
يتوجب
والتخطيط
القرنية
1700
اختفى
حقه
كتابتها
المبدي
##ترجم
كاظم
اشتغل
الرقبة
##ope
الزجاجية
ايمي
لشرح
متما
وبعث
امناء
بموجبه
الزراعية،
والتعلم
لنوع
باربع
بالقول
التعاونية
احتفظت
واصدرت
الناطقين
معتمدا
Pol
ad
بظهور
غربية
##باد
##طرق
##اتها،
للفق
الفخرية
الدفن
الديار
##قيت
##سيك،
ادبي
مقهى
المعالجات
سكانية
وغيرهم،
عادوا
اخذها
العلماء،
العضوي
وطنه
موثوق
قومه
غوستاف
كريك
##BS
##ايى
الخزان
الصر
##فاقا
الهوايي
عبدالم
الاحتمال
الاغريقي
بيرل
امريكا،
مكة،
النوعين
بسعر
عقيل
يختص
تفترض
واهمها
اليوغ
استثنايية
##rieved
جها
ناط
##a،
##بيا
##عق
##عور
بيني
##قيبة
بتعديل
اخري
ترقيته
لقضاء
واتحاد
واتفق
القوميين
العسكري،
البرازيلية
ثقافات
المفرطة
بازالة
مستقبلا
شكر
غاندي
##وندي
القاض
##ساق
والتقدم
اثري
تصريف
المشابهة
التقارب
مكافاة
باللاتينية
المطارات
النخاع
التجميل
وفازت
Bar
تدين
حلا
صاحبه
##ool
##است
##طدم
##الطة
الانحدار
##ندو
##مدت
احم
موهب
دايري
القديسة
خطيب
##ويل،
واساليب
وشركات
الايض
الظه
الكويك
الاستشاري
ارتفاعا
Ge
تيك
وضمن
يام
يدا
##ستوستيرون
للوزن
معادلات
##كنسون
اليوت
الضم
الاشوريين
1300
##راب،
البنجاب
1869
شيخه
الامريكتين
رادي
شابة
ووك
وورد
##غرافي
والوسط
الحساس
النشيد
الكساد
ومخت
لاكمال
الاسمنت
وهرب
ويطلب
والمساعدة
##تهاك
تسعينيات
احتواء
التسجيلات
الاقارب
جاكوب
والبروت
لتمكين
Mus
بريس
شتا
طوايف
موكب
الجوية،
الديدان
##ركه
المتكلم
امال
المنوية
بالتدريس
الفرنجة
الابقار
للعبة
مواطنين
الحرارة،
القطارات
وتدخل
دود
عطل
يظن
##وكون
##رييل
العناوين
النار،
المترتبة
متاجر
##زيق
الاجماع
##شيوس
121
##وش،
الثقافية،
##ذبذب
للاستيلاء
رابط
واكدت
ارسالها
وبموجب
مجاورة
مغناطيسي
un
حلفاء
شاشات
##NT
الكميات
ونف
الهيب
مشهورا
نظري
اسبوعا
تستضيف
الرسام
مخاط
المنتخبات
الاقواس
تطبيقه
1872
المحلي،
اغانيه
الجانبي
وتطورت
سينمايي
الرباعي
ايدا
فاني
محاصيل
ومنت
المدعو
الطبيعة،
بقصف
المهيمنة
اليهود،
مدرج
##ميتة
انعقد
لورانس
البلجيكي
تعميم
##yr
##شيل
الدوام
استجاب
الليلية
تتنوع
وحاليا
الضيق
وزنه
تزرع
قبور
مرتف
280
لقناة
ايرباص
ترتدي
الترشح
والاسود
##الغاء
1873
والمتحولين
اتباعها
المدرج
المطاف،
لزراعة
الليثيوم
App
from
رمي
زفاف
المخلص
الانخراط
استسلام
متجه
الزلزال
والتوزيع
ومعنى
يستهلك
ايرل
لسياسة
و16
والغاء
تيارات
للاستفادة
زمني
شهريا
حفرة
لعض
##اربه
السيليكون
لاقى
وعلا
الخامس،
البرية،
ابنايها
1936،
##ضييق
مسلحين
عرفوا
مالطا
طفلة
واختار
بارتكاب
البرلمان،
ملحمة
لشبونة
AL
«الح
تكلف
سماء
نارية
والطيور
علية
للشاعر
واطفال
لهيية
اثنا
فتن
وفشل
المجال،
وظي
##eter
يقدمها
زمام
الباشا
الاذاعي
هريرة
وتخزين
الغزالي
معتدلة
السوفييتية
تامر
مشكل
##IA
النفق
لموسم
بنود
والمط
والمركز
التحسينات
والحم
الطبقي
مترجم
الجماع
لبناني
يخالف
واخبر
حيال
ديفيس
المحدود
يضطر
جوليان
رويال
##ude
دوقية
الهضبة
ويكيبيديا
لويزيانا
AM
سوني
##28
السالم
وتو
لاضط
##نيش
للميلاد
والديمقراطية
الفتوحات
وابراهيم
##ويسرا
دقيقة،
الصيدلة
ذروته
الاسكتلندية
لسن
مايي
##co
##غض
السكتة
اللوايح
بران
مدونة
داغ
الاغنام
يسافر
##ورتون
وضح
تقلد
لاستكشاف
الكرامة
1875
مفتوحا
واعتمد
مسلمين
At
سامة
ظلم
مواجه
##ديون
##كتر
ادلى
الاجنة
المستقرة
وزنها
مقابلات
باتت
لاستكمال
بانتصار
فجعل
الميكانيكا
الممرات
Comm
التاكل
كغير
##بول،
##غري
##قرية
كانه
واقتصاد
والموت
والترك
تنشط
المحسن
ورعاية
مباري
بكثافة
1919،
لابنه
نقوم
لتشخيص
كوميدي
الانتخابي
الميكانيكي
المعتدلة
International
صقر
عاصر
الورك
والواقع
الترميم
وتوق
##درو
بتل
تعطل
الضواحي
التصريح
والشمال
انحراف
اليهودية،
بسحب
الحدود،
للامير
العشرينات
ويدخل
تفسيره
الكهربي
ضييل
الديناميكية
الايديولوجية
كمدير
الحاسوبية
ذهن
طفرات
غاري
نافع
يبرز
##form
الاداة
الكمال
كلثوم
والمشر
يتشكل
الراين
استخدامات
الاسرة،
القبور
التاسيس
الحليم
##lex
يرسم
ضربت
ويبقى
##iew
جهة،
ناشطة
للمحافظة
يفضلون
اليرموك
Gre
جرير
##وليو
السعة
هذان
الرفاعي
##المات
يتذكر
والتحليل
بالتد
المغايرين
ملخص
مساوية
قبضة
اعمالا
ولدوا
التعزيز
جيوف
تهيية
لخط
تصويره
فريدريش
صمام
وبدء
اصطدام
البلجيكية
معرفته
الجرحى
##مبي
##26
##افي،
اوست
استف
يميلون
تتل
وعاص
الاجناس
للتربية
الرييسي،
ارشيف
المولفة
بورغ
الكردستاني
عـ
##ورط
للالم
الحذر
الخلا
الخرج
تقاسم
بدولة
الرادار
ليوم
باسعار
عدة،
روايي
نهايية
الركود
جسمه
للمحكمة
بورتوريكو
جونيور
ستوكهولم
الابه
##سبية
بالوصول
الكنع
وتث
اجماع
فتحي
تركيبة
رايدا
المكانة
ستيفان
دعاة
معتقدات
والمجتمعات
وتغطي
الترق
##لاش
الكوني
واعلان
اسقطت
تشاد
سنان
##فضة
171
المبادرات
##hel
الحضاري
منفرد
مطلقة
بالكامل،
وعرضها
وسياسية
الهاشمية
تنفيذه
فتيات
هوي
##قبه
المولى
التميز
انواعا
النجار
النهوض
الرواد
ويه
اولوية
الضريح
البلوت
المجري
الاعتي
للشعر
والاستقرار
الميول
الحيض
للبيانات
الاحصاييات
هاجرت
الاسماعيلية
سيش
عنا
لايب
نسي
##غلة
بالاق
النايية
النادر
##تمكن
لاجهزة
بتقدير
التحض
بيعت
1952،
الطبري
##ave
حجز
مزر
##وذه
##امنا
الاعياد
##يرس
##ريو
بالبطولة
##حدي
لمقاومة
ولات
اجراه
الراب
1954،
الكنسي
العقار
650
الاشتباك
شهيرة
والافراد
بزراعة
الارستقراطية
con
he
خطف
ديلي
شوقي
##ضعة
##یر
الحجرة
بالعب
استقطاب
المنصة
وقايع
##طاه
والتواصل
اكثرها
تنفيذي
ملونة
وصدي
مثالي
تكامل
سكو
كنع
المدرس
الخيمة
الصبا
هذه،
عليكم
والمالية
بتحليل
وسعت
##وطي
مشغل
وارد
المكسيك،
وجده
الزيوت
جليا
##جزات
النخامية
لوسايل
ممتازة
عاصمتها
خريج
ذيل
سمية
سحر
سلاطين
كض
لارسال
مبعوث
##حدى
تمزق
والتعبير
لحقت
دراما
المهتمين
رمسيس
الستير
والمحافظة
والاشخاص
لاحظت
البقايا
كعامل
##ma
##ظريات
السفين
الامساك
الطلق
المتعة
لمواصلة
اللهم
المعاناة
الادارات
بشبكة
بقسم
الرياض،
محدودا
والخضر
التفجير
الذهنية
الجرعات
موقعة
هروب
المرابطين
University
مسببات
##CP
##الن
واه
الخر
##تيكا
ويضع
بلديات
ونصب
طريقهم
لويد
بصحة
وثمان
##rop
السرقة
محفوظة
لودفي
ماخوذة
ــ
قايل
اناس
للكن
##ركين
وتمر
ومض
ومساعدة
وممثل
##جمد
يتبعون
وحرب
تدريجي
وخدم
وصارت
مشروعا
واتخاذ
##عابين
دعوته
1859
الاسكندرية،
ادمان
استدعى
ريفيرا
يسكنها
افاق
قسنطينة
##ux
##36
والاهتمام
الدرس
الشبه
ومختلف
ايفر
اسقط
المتعلمين
ويضيف
وقدر
وقرية
تسوي
مبادرات
المهلب
المحلفين
والانظمة
راوا
برايس
التكافو
رقما
وقتلوا
مناقشات
ظفار
كاهن
مضر
##اوى
لاخذ
استونيا
بلدي
تشيكوسلوفاكيا
##قبرة
ملجا
نظيره
هولي
##هبان
والمنطق
المستقبل،
سبعين
##ection
المتطرف
القرطاج
Retrieved
جوب
قافلة
كثر
##ماسي
##بيته
ماضي
##تيين
الوحي
الملكي،
خطية
##غطاء
الحيوية،
حراري
اقتباس
رفضها
محلها
وتسجيل
لاحتلال
Gl
##ونيين
##قدا
واحة
الذروة
ومدن
بمهام
تتحقق
تعيد
احتياج
مفادها
الاذربيج
التطهير
التكنولوجي
منزلا
##واتيمالا
##اتور
العضل
الكي
تموت
كلود
وجرى
##وكوست
##يبات
بتوقيت
الزهري
##غمات
للتدخل
الافقي
اضر
الاغنياء
رسام
بالاعمال
##نبعل
الابيض،
كاستاذ
والجدير
بالكلية
Se
sub
رفاقه
عداد
النض
امبر
تزامن
وهنالك
سنتيمتر
متباينة
التلقايي
AR
بورك
ديلا
شمر
ضيف
مكاسب
الماي
للري
للوقاية
اللف
ونهب
ادنب
1820
كتابته
البنزين
##urg
المكسيكي
للالكترون
فنانين
ثراء
دلهي
سراي
موكد
##كوا
##ثه
##دانية
ومكافحة
وموسس
ايقاع
استثمارات
##منية
##ريكس
تندرج
اجواء
##فضاء
تسارع
بطرد
ارثوذ
الجلد،
الفنية،
تناقش
ارسله
الاقتصادي،
ليعود
مظلة
البلغارية
Fr
##عهم
##ذته
المواجهات
التسليم
ومكتب
يعاد
اصلية
##ates
للنمو
لايت
رقابة
ملاعب
الفطريات
On
ac
خبي
كبد
##ts
##BM
المجل
والاه
القفز
##كانا
205
المحصول
اتاتورك
خطب
ملحق
التصاميم
اطوال
210
شارون
يرتكب
1866
واعط
##شنطن
لتصنيف
لفرقة
ملاء
##كبة
اوزب
الانبعاثات
##تيف
ويخت
يتح
الزا
تنطلق
لحياة
المقري
وتتراوح
فقيرة
مطلوبة
عزف
مريضا
الاستراتيجيات
نينوى
كركوك
عاتق
For
«ف
بفت
تضاعف
تلسكوب
غلب
وشي
##نكي
التكت
السمة
باليد
لاطفال
الانتهاكات
اولاده
المحبة
المجهول
الافراط
دخلوا
الفرعون
حمدي
بالحرب
التخفيف
اسبوعيا
جهوده
الصليبيون
بطرسبرغ
الضعيف
التبشيرية
MS
بحت
تعبية
تعاقب
الافي
والسر
الحث
##وسايل
الشهود
استوطن
ويوم
لتوضيح
بتوقيع
ثم،
##صفور
مدع
بهجوم
ساعة،
للحماية
اهمال
للقوة
العدسات
براغ
فتحها
بالاساس
لاصدار
بناها
بوق
بواقع
تكييف
جيو
زوال
المخروط
الجذب
الام،
اكون
##ياتهم
بمقت
والاهم
##ane
للسفن
مشج
التصور
الفروق
فاقت
مثبت
لشبكة
المطلة
تناقص
بالعبرية
اشكالا
الامتيازات
##فيتامين
ديكارت
نيلسون
الطايفية
Ass
حاش
موزع
##OR
##واتج
بدايية
اجساد
المجهر
بالتق
لحمل
##enn
المخدر
تعرضه
مغربي
انشاوه
الزوجات
مهددة
رونالدو
ارى
لوق
##وخي
بالقتل
الفدرالي
##ليكوب
##كرز
الوصل
يتوسط
وسافر
اخلاء
مصادرة
اضافت
ترانس
عمدا
الداعم
العماني
وتتالف
باتخاذ
دينيا
لونها
للرجل
باصلاح
تماثل
التنافسية
ترسيم
CS
بلال
تيد
شغب
غورد
نريد
المصف
الاسطوري
المتصل
وهولاء
الممتد
بطلة
النظامي
الترميز
مختصر
عزلة
كارلو
رافق
للصحافة
رواتب
فلكية
قومي
كواكب
ماني
منير
##ونز
والالمانية
##ماها
للفرقة
البشير
النتر
واوص
ولهم
مدغشقر
الانتقاء
تدوين
##اشيد
##وبيين
1933،
الفرعي
لبس
طبيبا
العدسة
للشركاء
الامتثال
اوغندا
غريغوري
7000
«ج
مورد
##iy
##سابات
واليمن
##ريسي
##ستال
الدوافع
واحر
ايزن
المتقد
اللقاحات
##سمات
يتسع
والتض
المصممة
الموهلة
درويش
الحرمان
التدقيق
##راعنة
والجماعات
المرضي
وطبيعة
بالحركة
تحقيقه
اطلاقه
##امبو
الكاتدرايية
وستة
زالوا
الانكليزي
والشعور
550
سرت
فايز
الخيانة
##عتاد
الرزاق
انهارت
وقوانين
تحتوى
الراعي
بلغراد
التجويف
ارجاع
بقعة
الالماني،
دمياط
حمود
ابرام
بالكاد
بادخال
السوفيتي،
تعليما
مونتريال
التربوي
ادركت
نانومتر
حاسما
جاهزة
باللغتين
حاسم
عك
العولمة
للرس
النجمة
الامامة
الانذار
##تيج
وغيرهما
لباس
اخذوا
الاصل،
مفتي
الالكترونيات
1874
وافكار
لمعهد
دافيد
الناشطين
شيك
##امش
##لافي
الديو
الخد
الثمار
ماه
##سم،
كليم
والمباني
لتحل
يتعرف
للاعلام
ماريو
وسيطر
بضرب
هاجروا
بخل
رحب
فرفض
لونا
##وهر
التاي
##ادور
السلاجقة
الصيام
الانا
الرحل
وفيت
اجور
الاستعراض
السلفاد
##شفى،
161
##صاروخ
##غرفة
260
333
المعتقل
تعلمت
التدخلات
جيفرسون
تلاميذه
الترددات
والعلمية
بيات
زواجه
سلال
كدليل
بالـ
اللثة
ولقب
ينوي
لانواع
للسياسة
مصرف
الايقاع
الاحتباس
العمانية
يحتفل
للبحرية
الاكسدة
واولاد
سماها
مسحوق
كازاخستان
والفضة
للنفط
وركز
انبث
العظمة
النانو
متحرك
لتلقي
للموقع
وحافظ
المصن
##غلين
يونانية
السنغال
لكافة
الاوروبيون
التمدد
الانتخابات،
احتمالات
1815
الميداني
للاجيين
دفاعية
عشي
فوسفات
لالت
ماب
الفتى
ومط
##ويز
المنعم
##يتها،
يتركز
##بارك
المصارع
الالحاد
131
لنشاط
تستهلك
##ريلانكا
الحبشة
الدوريات
الروساء
تهديدات
الفيتن
كوهين
الاحتمالات
رولين
##نوا
##BA
##ماهير
للدر
النقب
ومملكة
##رتا
##فسكي
المحمد
##ختلط
مسودة
الاخطار
البيولوجيا
البحرين،
1930،
الجمركية
الزيبق
يصلح
الشرطة،
صلح
روماني
دراساته
الوعاء
##ضغاط
عون
غلام
كريات
##قسام
العادلة
ومالي
##حتاج
متاخرة
##نيها
الضيقة
التدوير
والغربية
دخولها
هيرمان
القديسين
منافسات
جذبت
باختصار
يواجهون
انجيلو
الخضروات
باضطراب
لورنس
نوافذ
##اما،
وتودي
##ليز
##قطر
وكرة
ينج
اخذه
يجبر
بطلا
##وفيات
وروبرت
خلص
الصحابي
احداثها
التهوية
الفلبينية
النورمان
مرسوما
استعادت
شكري
كنف
##قالي
المرمى
التعبية
العشب
الفناء
الفحوصات
وتنا
وتوس
والمب
##يزل
المحرم
والدعوة
1957،
لجهود
نشطا
والقوانين
وتشتهر
بسرعة،
السينماي
ركاب
العاطفة
النازيين
والرياضة
واضطرابات
بعبارة
Op
ادرج
باني
حتف
مراجع
##موند
##جين،
##ولي،
الاسنان،
والمال
المناخي
اغنيات
##راكين
لحالات
الملون
المناطق،
المساهمين
اندري
الفصح
اعيدت
للادوية
قاتلة
##اهم
##ظايا
##ينيا،
والناس
التوفيق
الكو
الخلاص
الذكري
الاسابيع
والمعاهد
ونفذ
تتداخل
10،
1938،
نشبت
بـ«
لقوة
الاقتراب
التراثية
ايجابيا
تابعا
اخلاقي
الفاعلة
موهبة
html
بفعالية
جولات
حت
زاك
صهيون
مبد
الموك
معج
بالعين
ومك
ومقد
ومبادي
امرة
مصم
##ator
بيرس
فنيا
الحضارية
لينكس
##ower
الاصليون
للاتصال
##able
الموصلات
التاجي
والتقنية
بسمارك
انغولا
ميسي
##وراء
##مجة
##ثيف
الوقف
الموضة
انجاب
وافر
وتوقف
الخاط
امنا
وجب
افر
فانك
والاشتراك
##ينغز
الاقصر
السبب،
المسجد،
البرازيل،
1856
قراصنة
الرمزية
جسدية
لالعاب
شجعت
الماهولة
وكتابة
##غاز
##TP
للاله
السلاطين
الصخرة
متحد
ويقصد
##زله
الاشوري
بالحقوق
بالفوز
ربح
تصلب
سكاي
ابدا،
والابحاث
البيانات،
سق
فقبل
ياك
يسر
##ضرات
##غهاي
##داني
##NS
الماز
والكون
والقتل
##ماشى
معناها
الفوج
الشرج
الكوار
الصغر
الرومات
تتوزع
المخططات
##atch
السن،
عديم
الزراعة،
التسوق
المفيدة
فقهاء
النيجر
مباراته
تبرع
هربرت
مجاهد
تسمم
ذها
صحته
ممل
##وها،
##صقات
##AL
##ينة،
والقى
التوايم
الجلس
الجوي،
بالسيطرة
تحفز
للسفر
العربات
لبقية
والبنية
رسمت
ايديولوجية
اعدت
الصيادين
وياخذ
سعيدة
فيدرير
وتكرارا
بوري
سايدة
لخص
لطالما
يهرب
##حونة
##سلاف
##فيس
##pl
##امكان
##ايض
للرب
##يلي،
الشجاعة
##طاقم
الريوية
الزام
سببه
لجذب
##ذكرات
كونراد
الرسولي
وغادر
بسعة
اعدادا
التنظيمات
واعتقل
الحقيقة،
استعمالها
ادموند
عشوايي
المقابلات
فيروسات
سيطرتهم
امتدادا
وطنيا
##اضطهاد
وسياسي
غنت
و،
الاسوار
لمنا
للتحقق
وزعم
يستغل
يسعون
واضافت
##str
نزار
افتتاحه
رت
فاما
مضاعفة
##اور
التزلج
##ستون،
وتامين
المتفر
متد
##يفين
بدايل
بالمنا
##uss
##زامنة
كاملة،
الذكريات
التوالي،
لتصنيع
وسرطان
Har
##38
الثور
لمصدر
سنتر
بيوس
##وصية
وشمل
فرانش
واعتبارا
السلاحف
كولومبوس
«س
جولد
الموريت
##هاجرين
التقاء
##يلتون
وترب
استعم
بمقاطعة
الموثرات
##زلت
تران
عملاق
تعليمي
##ley
ومتابعة
الوقايية
وسيكون
الصيف،
بسلسلة
الكيلاني
جايز
صينية
##سوا
الاري
الايل
التذ
السهم
##تموند
لمرحلة
##جا،
الاخوين
كمركز
اختيرت
##خيصة
##نبو
الديمقراطيين
##roup
الذاتية،
شهيد
الحجم،
موظفا
لتصوير
والافلام
المتحدثين
للمرء
وانضمت
فاضطر
مازالت
ايزابيلا
Bla
ind
بيا
كحد
يراقب
الماع
والخلايا
الجيري
النمل
النقط
النضج
ومارس
لاجي
المتابعة
بنسب
متغيرات
##وفة،
بتكوين
ومنتج
اصعب
احف
كمس
يوميذ
نظاير
الكبري
الملاريا
ابيها
##وغلي
##لاء،
الاسراييلية،
الهادي،
حقيبة
ابلغت
الحاضر،
القاعدية
حقيقيا
«ما
خضم
لاري
##بريد
##تر،
الورد
منفر
##لاة،
بالمه
ابراز
لتوجيه
تحرر
تشوهات
الضربة
التحولات
مرضا
بشمال
كروس
الطفل،
للهند
وواحدة
الصعوبة
الحزبية
توتر
جيري
##نجات
##دهار
انجح
ماكل
المستد
ريغان
للسكن
ترين
الابقاء
يعتبره
شرعت
لبنانية
لاتفيا
##وظفي
##ستانتية
مراجعات
للعلماء
براي
فناء
ميم
وزي
المكس
التاثر
التطعيم
علقت
للقران
وتونس
الطعم
الطاز
استحداث
اليان
الغازي
1955،
##افعال
والاداب
للهندسة
بالدولة
##ove
الجيولوجيا
ندرة
الديموقراطية
خامس
مستطيلة
الكويكبات
My
غدا
يواصل
##صرت
للسينما
النية
الطلي
##فاقم
وحب
##واجية
وفل
للتغيير
الموجية
النفسية،
انقسمت
واعطاء
النصرة
يقدمون
فبعض
الشتاء،
نيكولا
وعمره
الاحصاءات
قاذفات
##وزيلندا
بيم
طوابق
فهما
##جورة
##خذه
للفت
##يدت
الرفع
الطعن
الغواصة
وجها
تشانغ
بهزيمة
اقبل
ورود
قدمتها
ويتالف
طبعت
ووحدة
فقرة
خصوصية
##نزه
اصولها
التحليلية
عربيا
فاكثر
الكروموسومات
باليونانية
كوبنهاغن
ماليا
مورو
المشيخ
التوعية
عني
بدت
خطبة
تاريخيا،
للاشت
البوليس
قراره
اهتمامها
الطلبات
عودتها
معقولة
جارية
رويت
ركلة
الاعيان
الباري
لمدرسة
ونفس
##ارجح
##كوينات
والجهاز
كرو
رمزي
رسمها
والهييات
وصولها
ابحاثه
الفعالية
بحدود
المواطنون
ارتكبت
بوح
ردت
ملاح
الاوكسجين
التماس
العكسي
القبلي
الذخيرة
اللاي
بموافقة
تتشابه
للتراث
ستير
التنس
1922،
سعودية
اهتمت
باحكام
واقتصادية
ارامكو
البنزوديا
And
us
تلة
تورن
وراي
##سطين
##هايم
والعمال
المتحرك
##فاعات
ولجنة
##يبيا
تتلمذ
الزاير
تستحق
مخزن
ويتراوح
تمتع
الموقع،
##حمود
صورته
المهاجرة
واسلوب
وعضوا
مانهاتن
سه
لسيطرة
نشرة
##CC
منته
التمو
العوايل
بلات
والمراكز
لتست
الارامية
##رحب
اعالي
للعهد
##صارعة
##ويتش
اسبانية
طاعة
كاساس
الفلسطينيون
لايزال
اطلاقها
1854
واثبت
والرابعة
Eng
تبت
رز
لرس
نفت
الاشا
بالقر
النوبات
وتناول
الصدمات
##ساقط
تحذير
الزحف
اشعال
وسايط
المعجبين
اقل،
الثالوث
العمودي
مخيمات
1849
جوليا
فلسفية
الكارثة
مضيفا
جوس
زرقاء
شاف
قبره
ييل
##فجر
للكتابة
##سيوس
##عيها
المنبر
وحينما
##ينغ،
يلحق
الشركة،
التفريق
سفح
الدراسة،
380
السجن،
مشاركتها
اخلاقيات
العجوز
بتقسيم
مستمدة
حنبعل
المودي
التكر
العالية،
##واخر
معادن
الكسان
الكيانات
##تيز
ابلاغ
الغد
تقاس
##بارية
المحف
وحما
موالية
المغولي
مشد
بشخصية
كونان
التدهور
للدكتور
مكتبات
1862
الابتعاد
يشتبه
وجعله
واستخدامها
##ake
البقعة
وافتتح
System
##nal
##صقة
بالارت
الشغل
الشامية
ومشروع
الانضباط
الطارية
محصول
بمجموع
تتجمع
يقم
مستوطنات
احاط
المدعومة
خطابه
اضفاء
الاكواد
##وايها
موجبة
بيتش
والاجراءات
1857
واعترف
الطفرة
يفتقر
قصيدته
بصحبة
ياقوت
بورن
تصر
خفي
قلم
قند
نوفا
ويث
##سف
السجاير
وتاس
والمجلس
مدنيين
المدن،
لاحياء
الملحن
الساكنة
الاثن
والبول
الاعصار
قضايي
##نبورغ
علاجية
الوقايع
وترتيب
وارسلت
ياباني
شيت
قوارب
##yt
##بسة
المصفوفة
##هاوس
العبر
السرب
البنت
الخالية
##وجها
انهن
وقفت
بتغير
##يكية،
وسوق
المستوطن
برمن
##لفظ
لحظات
احتراق
والنمو
والغابات
المفيد
البلدان،
بتشغيل
استراتيجي
معالجتها
واليونان
وتضمنت
cont
لاسم
لمفهوم
لمصلحة
اللوثر
بالمج
ارباب
وارنر
المشايخ
عداء
تكثر
التعاليم
##itt
المعلوماتية
استمرارية
الوردي
المقدسة،
التعريفات
سحابة
مدفوعة
والخارجية
ووصفت
سوك
شط
لالغاء
##وياء
##صة،
المباراتين
البيو
الجثة
معاصر
الدموية،
##سيير
كلامه
بترجمة
والتربية
احدها
ساق
وخدمة
مثبتة
التسعة
مزار
التفاعلية
كنتاكي
النافذة
الاسكندنافية
do
خشية
داب
فصا
موف
##iam
##رية،
##بسون
القيروان
معابد
بالدين
لمقاطعة
##باطات
وانغ
اعربت
تستقبل
تفهم
لفصل
معلوم
خصوم
ابرزهم
شكوك
الاصلي،
ويعطي
ليوناردو
وعرضت
بدرجات
نفوذها
رضوان
الاوتار
وطلبت
se
##بض
##وطا
فيك
والطلاب
الحبر
##لاجات
الكيس
وتاثر
##خرف
الرازي
داع
كمساعد
باسكال
يشتهر
الزيارات
علاجات
الصيدل
صموييل
الكاردينال
والالكترون
المجتمعي
الطيارين
مدمرة
ثير
حكيم
دينا
سداد
عراق
##اتان
##هاينة
الكمان
##تيكية
متعل
امني
1953،
الاحتيا
عدسة
بالاسكندرية
1814
انتخابية
هولندا،
معزولة
العتيقة
فشييا
##غرات
عشرينيات
افرج
مصاص
حداد
##era
البيية،
يديرها
##وبي،
دورتموند
##ican
التسوي
الخصبة
واعطى
البطولة،
سعود،
تحسينات
يحكمها
النرويجي
خوا
رواسب
عفان
##وهرات
القبلة
الشدة
الكين
استم
كلفت
ونمو
للمستهلك
##ساندة
الوزارات
بالعراق
##chn
ارسنال
انطبا
المشروعة
##فادع
نباتية
البرلماني
ساكسون
المتتالية
هيمن
يرب
والند
##ريوس
للرا
الجبن
##باكت
اللتين
اكلة
##ضاض
الرياس
##بطت
الدايري
سرعات
نفوذه
لايقاف
لخدمات
زملاء
و196
سريرية
جويلية
الموارنة
بسا
مودي
وقيام
وخصايص
##ien
##جرس
فيرون
النظاير
ايق
##ريقية،
والتكن
مقار
ومنظمات
ليالي
الافطار
المبالغ
بوادي
فاعت
بالاخت
يعتمدون
تحريرها
##ode
قليلة،
مستقلة،
الرجاء
ثيودور
طريقا
متاحا
المعنوية
للسرطان
لايمكن
Fl
ثقل
فالف
لوايح
موب
مغطى
نجران
##رسة
التري
انفلونزا
ونش
##وكسين
##اثا
ثمار
تشوه
تعذيب
اجتمعت
المعامل
اخيرا،
##ذهبت
تجريب
والسودان
##هبوط
المحتجين
وتبقى
تختار
السعرات
والممارسات
هرتز
##لوا
##ضيه
##ثاء
##عج
##ظة،
مناز
السمي
معبر
الفيلة
الكرن
وماري
##وفه
اتاحة
اخطار
##طفات
تجريد
تجسيد
اضخم
نظيفة
تلقاء
هولاكو
لقوانين
للجزيرة
يطلقون
المختبرات
واجهات
تقسيمها
ومستوى
وسلسلة
تختفي
رباعية
مميزا
جذر
لوجه
وجمال
##غوبة
##ـع
##يسك
الانظار
##فاعة
اللوز
ويحدد
للمز
للتاثير
ريج
##يناتور
1959،
وصلة
الايتم
المواسم
مخزون
والشوون
انحلال
للفرق
وبعضهم
##ناقضة
لافراد
الموضوعية
الهدوء
اريزونا
##ليكوبتر
دوف
سكري
صراعات
قور
##FA
##ولم
يتهم
##ندقية
للموسسة
##لسك
وفصل
##زل،
بشن
##الفين
##سطس
للشمس
خصبة
خصمه
تنتجها
بوتس
لاصحاب
جبريل
التزامات
وعايلته
التهابات
تاف
طابق
لقص
##so
##لوك
##غتون
##نم
##EM
النسي
ومال
الوحد
##ايل،
الزاوي
المسطح
برلين،
وفير
##رابين
اقتحم
هدى
صفراء
الاقوى
الاحداث،
طالب،
لعلماء
ودمشق
للتعذيب
بالتفصيل
يوجين
والصف
انغل
الحيات
##برير
اوين
وجبات
باعدام
الزمالك
وانجب
والعكس
وزع
ودخول
تلخيص
مخازن
وابناء
وينظر
مسلمي
جمهوري
والاستاذ
الدنماركي
فاجاب
والمهارات
مفهومة
بادر
يزرع
المعمار
##راسي
##ايدي
البوك
بالظهور
بالوقود
الكاش
##نيطرة
كلفة
بمفهوم
بتوسيع
تشان
وحاصر
##رايض
الموالين
شخصين
##ero
الموساد
##ويلات
ودير
ملايم
التصادم
والسعودية
اسبوعية
مهامه
##ريتية
والانسان
كثيف
فعلي
الجمهوريات
والجنس
متزوجة
ايمانويل
وشارع
المراقبين
الكونفدرالية
مشرف
هوا
يذ
##غلا
استغرقت
متوافقة
##كرو
املا
الارصاد
##بعات
تعال
مدح
اخيها
الخارجي،
لبني
##ريتش
المزعومة
عشرة،
تهريب
##ott
التضحية
وتجدر
نيكولاي
الاثرياء
المضيفة
ذهاب
فتى
لرجال
مهر
وتساعد
استيلاء
##كتبات
باين
##شتا
الدولارات
داوود
يجدون
نسخت
##لتون
بقع
امريكيا
والفنية
##كاتبة
حياتي
المشروع،
المهاجر
واشنطن،
رقصة
مذنب
العواطف
php
«الا
بيلا
سجون
صقل
##ه؛
##زة،
##اطيل
وكثرة
البلع
تطرح
##سكين
##ino
بيرد
الطبخ
ويمر
المرارة
الذكور،
فيلمه
رمض
##ames
الثلاثينات
اللبنانية،
الجمهورية،
انتقاله
حظرت
ساري
سوز
المعب
الخيوط
ولغة
تتعدى
الاستهلاكية
الناشط
الانتصارات
##تماء
فرعا
والحب
##يرازي
##تلاند
خلقت
وامكانية
##هنات
بفكرة
سببها
الحياد
القيصرية
عزت
خدماتها
المريء
واعتماد
العابرة
بتحرير
All
الكهرومغناطيسي
تلاه
##هش
##اربي
الايو
الصالة
اسير
المعادي
بروف
تويد
تسهل
كونهم
والبحرية
طبيعتها
الرياضية،
الطريق،
يزالون
الطفلة
##اكسجين
المخلفات
سلبيا
وحققت
00،
ترن
تراب
ظواهر
كورد
هلس
الاباطرة
والباحثين
انكر
وتقد
ومركبات
لمكان
##عرية
كمادة
المداري
التحاق
ودمر
واستغلال
باللغات
ارمسترون
align
زعمت
ويجعل
الانجابية
تويوتا
بجاية
ديد
كوخ
الاذين
والكس
التعددية
##عيار
##عرات
ابراهام
تعريض
ودعت
باركر
بيركلي
الخليجية
تشكيلها
Sm
دعى
قصب
لوز
وذا
##ler
والحديد
والقم
التاجر
وتجمع
الصخري
المتاخ
متقدم
##دمجت
محايدة
تتسع
##يزيا
بداء
تجسد
مشابها
نشرته
يقوموا
الديمقراطية،
حالتها
وتقنيات
##وكسيل
العظمية
رافاييل
الاشعاعية
بالجنس
سهم
وصر
يسب
##مية،
##ونو
الترجيح
وتكنولوجيا
الامبريالية
الاناجيل
الطماطم
##انيف
ويوفر
##شتاء
حققه
واستعادة
##ثماني
وردا
##اذية
##ald
تفص
المركزية،
تكفي
المسيحيين،
دينيس
حضارات
وافادت
##own
عززت
الطرفية
الداخلة
الثقوب
اصيبوا
وكنت
الوعايية
الهولنديين
نموذجية
الفوتوغرافي
للسياحة
ماكدونالد
توطين
حنا
يرافق
التعليقات
القيس
الفيس
##شرع
امس
بلوتو
لتعلم
العالمين
ينطلق
ينشط
##لاحين
السلج
##سن،
وارن
قبولا
الروماني،
لشعب
##ole
ماتوا
الشمالي،
المسلحة،
والسياسات
الجوهر
حمدان
بداخلها
الشحنات
وولي
##وين،
الترس
الباحة
##سبوع
بالاسم
اماما
المنفذ
تشابل
وحيدا
##اك،
تجريم
والسكان
وضد
##umb
للرعاية
استبدلت
تيريزا
للاطباء
المناقشة
سوار
شيلي
غزت
مينا
##46
##47
الربي
الكريات
ونسب
ادايه
تقريب
الريفي
اشتر
المسالك
ليه
الملكيين
والعقل
##وايه
##las
المحليون
للفنان
معماري
الخوارزمية
الليمفاوية
الجرمانية
اشا
ببي
حط
شهير
غارسيا
كز
لوالد
نهري
##rist
##صليات
القز
الجوه
واقدم
المصنوع
الالام
والحريات
للدور
وينص
اليونانية،
الحلق
الانتاج،
لامراض
نيكسون
الصومالية
التتار
ديمقراطي
المبرمج
##غه
التسبب
التوليد
##عدي
واهداف
ومطار
افيد
مستطيل
والعسكري
واحداث
لنمو
سمى
وظيفية
الرحمة
ومحطة
##idae
الشتوية
المبكرة،
صبغة
يابانية
احداها
المكثفة
الطمث
تذكاري
6،
نبتون
##حوم
##صاح
##SM
##طعت
##pg
للارت
##عده
##عتان
باوند
تجذب
##ويلا
وشرك
مبان
بوينت
للدستور
اليونان،
زيوس
البناء،
زمالة
نجاحها
ضعيفا
والعالمية
المشهورين
الصحراوي
ولاحظ
الاطرش
HT
صخرة
##شوفة
##ثين
##عقد
الحراك
المتش
الهز
تقني
وجودهم
التصدير
عينيه
الطريقة،
جامايكا
العزيز،
الموسيقيين
اعطاه
اوقفت
الجورجية
لوهانسك
المبذولة
دوت
شفاء
فالب
##pr
المزم
##راسل
وتراس
##نيخ
كلاي
##اديان
تحقيقا
##نتهم
يوم،
الايطالية،
##وغرافيا
يستخدمه
غروب
المزعوم
الدرعية
يخشى
التفصيل
فارق
بمنصب
تسجيلها
فريدر
جهدا
حصولها
اردوغان
والشرقية
مغناطيسية
AP
بزاوية
رسل
سايد
طرا
##قيدة
##طيا
الميس
##ارم
واللب
القشت
##حدت
الشجر
##وجهة
##عته،
##قيون
المتشد
استبعد
اخرجه
بدايته
يجرى
وروح
بقياس
الظن
معلقة
اسسه
باشراف
وضمت
يراسها
Pa
خيانة
شابا
غالي
كوفي
مطاعم
نعيم
##حلال
المقل
السيم
معها،
الطلاء
متفق
يتعدى
تتويج
اوليفر
مستودع
تدبير
لعالم
النسر
والسير
ويتطلب
لرجل
ايلاند
بالامراض
المقبولة
بالاتصال
لكان
##فريد
الاحلام
الحالتين
الدواجن
##يسيا،
اسحق
المتوفي
الهواة
ولين
للموتمر
وصيانة
الخلقية
##ari
تستغل
##ريتهم
والشعب
عادلة
كثب
الهجوم،
ايدت
معاملات
للمعايير
بفن
تواف
طفيف
##امح
الاعا
العطاء
ومجموعات
متغيرة
بمخ
تنبع
الولد
مصباح
وصية
##حفية
العراقية،
ميغيل
الغذايية،
كيلوغرام
شقيقها
##ناسبات
الموحدين
للمدارس
استجواب
اشرطة
حمو
شوار
كالب
كومب
##39
##وردة
وميل
متض
بتدريب
ومنتجات
العاملات
سيج
موثر
##جرز
##طعن
عمها
النفسي،
فنجد
##يدروجين
##ينغراد
المشتقة
الستار
حديثا،
اعتبرها
تورونتو
ينظرون
تركزت
تند
يكثر
الترجي
بالبن
تحضر
مجيء
للتدريس
موصل
بالمص
الوطواط
احتيا
تستفيد
الموجي
جيجا
بلاست
السوق،
Int
كسرى
هرمز
الماليزية
الميتة
الحرفية
والتجارية
والمسيحيين
بكرة
فـ
##ضرة
البين
كانها
الدفي
الذكي
الروت
استق
محاض
والمدرسة
يترتب
ادارته
رييسيين
1937،
##وولية
تمتص
المحتر
##هـا
الحنفي
القابضة
ثيود
ثري
قوية،
“ال
##بكت
##FC
##ففة
المدرجة
العايلي
الببت
##بيو
ومان
اسماع
وهل
متوقعة
لتاثير
الزل
##قاته
شخصا،
1100
بجولة
دارفور
البولية
قياسيا
فاتح
الفايكن
شفرة
Cor
SP
جوش
كيك
كتيب
##كسة
##طهير
التواجد
الكش
##ويي
ونز
لتولي
##inc
ملزمة
المسيول
مارش
الدرامية
رودولف
مشتركا
رينيه
توط
جماع
رالف
وخص
##هون
فيقوم
منغوليا
##هايي
البنا
##اءات
ويعرض
امد
ونقلت
للمورخ
اديل
ادامز
بدايتها
اتسمت
الدولار
يحرم
بقوات
الملوثات
تفريغ
ميلاده
كاسترو
البروتونات
قصره
قرروا
لتنمية
هربا
ببرنامج
الكروموسوم
الماكولات
قزوين
TV
فايد
##راعا
العريض
##عدن
بالسرطان
الشقيقة
بينهم،
الرامية
متاخ
الوصي
تدريبات
بالمسي
وزادت
الاوردة
المشاهدة
مفرد
خصم
الكتب،
الكاظم
الدستور،
1851
للاشراف
كريستينا
الرمزي
انتقالية
ماكسويل
الحاسمة
تكرر
سماك
فوض
##فتي
##يريا،
والكاتب
للاه
القوت
اوفر
الخزف
لاستخراج
استحدث
امطار
ادق
والتعامل
تنس
تعري
الفلسطيني،
بالانكليزية
##ings
صاحبها
ليبيا،
و197
اسرهم
لتعريف
غامض
الديموقراطي
والصحافة
تظاهر
صياغ
كافي
نقا
نطا
وقاعة
##سوة
معينا
##يسن
##يسكي
ومولف
ومكث
استون
استاد
بنج
بمحرك
##لامس
بترتيب
وسقوط
كتبا
سبورت
##الياف
داخله
فاشت
طبقت
شعارات
الذاتي،
ويستطيع
العالي،
والاتصال
فارس،
وخلف
ترجمته
التماثل
باللهجة
كقوة
تجاربه
واضطراب
صغره
You
خرق
نكون
نقاد
و30
##EG
المراج
والبار
الحايز
عاملة
لاهم
الاساءة
الثن
وقناة
وكول
للتطبيق
ستيل
##سنى
ترومان
الموازنة
##ريتشارد
لقوا
واتس
التبشير
المهمة،
اتجهت
##earch
الروبوتات
بورج
مـن
##55
الحرج
الشفه
##حتي
الصال
تتوسط
##طاوي
اثنى
الضح
ضدهم
مليوني
عمالة
مهنا
شرقية
بخمسة
التميمي
تعيينها
وذو
افلامه
البرتغاليون
حفريات
الحسني
التفاح
المطران
السحرية
دوس
ضل
ووتر
##اميل
والظروف
##باة
اليود
اجز
المناضل
تطورات
وخاض
العقاري
غراند
المكتوب
ارساله
تورب
الامتناع
الصلوات
اعضايه
اللاسلكي
النموذجي
قاضيا
الالتهابات
بكن
نعمة
هارب
##طبع
##ونية،
للقد
##وبو
اسوان
محج
##سلق
الاجتهاد
الضمير
المجرمين
تسريع
11،
اورليان
ارث
الهندية،
الاسباني،
وينقسم
البدايي
##وتردام
وسجلت
بسيطا
المهاجرون
حسين،
عشواي
تلقوا
المعماريين
هيوستن
الافغانية
اراغون
وظيفتها
كاذبة
##air
##هاني
##37
العون
السكرت
##وجير
##وجرام
الرات
اللولو
ويفضل
ونتج
الراج
ولاول
تجدد
141
الشروع
تعرضها
والادارية
السوري،
للكهرباء
بالفعل،
ماركو
ماكسيم
ممرات
##وضيحية
Mon
زوار
طار
فود
كيش
ناك
##خف
الاوغ
الروضة
##اضة
ولانه
المسنين
اخف
##زاولة
المسيح،
للعايلة
نشرتها
تخطط
العقبات
العقارية
واداء
المضغوط
يخسر
1839
الجنوبي،
حسنة
الصمود
الجنازة
تهاجم
رويس
مواجهات
##غرافية
##نسر
##ذبية
منارة
##بيتهم
الروايية
##ديوهات
والمجموعات
لتوزيع
الاستقطاب
الضوضاء
##تماع
10٪
للسيد
واستطاعت
الاعراف
لسلاح
وانتشر
نصير
بنفسه،
انقسم
كامبل
1837
ميزان
متجهة
شاعرا
AA
ST
جريج
لوقت
##كهة
##RI
المختلف
المبعوث
الفرح
الضريبية
القداس
قصته
اليابانيون
ارضي
ويلت
المنتجين
هارولد
فهمي
الاشتراكيين
للدولة،
المنظومة
بالمرحلة
ووال
وشاعر
##رينا
##وراي
الافع
الاقطاب
##بلور
ومكتبة
##داه
متماثلة
##شارلز
اثارا
الاوروغواي
للفلسفة
وباستخدام
الشريفين
الكلام،
الليبراليين
لمسافات
ونيوزيلندا
وتمكنت
ايزيس
وقررت
8000
Rev
res
عزي
فاف
قتيبة
##وڤ
والابيض
الحرق
لاعلان
الرطب
##جلان
##اريح
سيارته
المجهود
ستست
والحان
خلصت
الجمالية
وطريق
برنامجه
ايامه
باتباع
النووية،
للبنين
لابناء
مقدسة
المعاكس
1858
الهولوكوست
جيد،
بالصحة
المصرفي
بافاريا
بولندا،
استاذه
بليز
لمرضى
اباه
بكسر
حركية
صحن
الوجد
##ارا،
##راضا
الكوب
##اف،
وتعاون
وبحر
والتاثير
##قات،
اضاءة
اعتي
دينه
يكسب
وراءه
##ows
##ular
##ific
المقطعي
المرفق
والبرتغال
برلمانية
هاينريش
Per
تسبق
عريض
الباش
بالمال
لاعلى
الصلاحية
الامويين
والتجار
المثنى
1951،
عبود
الرحيل
الشعاب
عقلي
البوليم
سانتياغو
قيامه
الاهتزاز
الداخلي،
والمستقبل
بحدوث
بالمعهد
بالتنسيق
للاخرين
RNA
دلال
صخر
ظبي
مفعول
مهرجانات
هويتهم
يال
##جيكا
والحو
##ويات،
المتعاقبة
اللتان
##جل،
اشراك
بالتش
والحرف
احتجز
وصدرت
المهند
تستجيب
احمد،
التسخين
بايدي
تعاونت
انتخبت
طفولتها
الشعاير
سكرتير
بطبقة
سحق
فصار
مخروط
##uch
##بوات
منب
انبعاث
للجم
##شروط
الانطلاق
وهب
المنورة،
##ناء،
اشير
سيء
موطنا
نسايية
يومها
وشجع
##ابعين
القبيل
لشركات
والهوية
المرابط
تنتظر
المطبوعات
العباسيين
يسمون
الطفيليات
اال
بقل
حزن
هاس
##وضاع
الكولي
اسق
متشابه
يتب
##ركزية
مورا
فروا
التحريض
موسيق
وروم
بالنفس
للعصر
الحموي
تكبد
والروح
لغوية
هنا،
كوسبي
الصارمة
لقاءات
الينابيع
ab
«د
طبا
واني
يبعث
##ويني
التلم
للقاء
الدخ
##برالية
متظاهر
##سمان
##عباء
المسند
الضف
موسوليني
حلمي
225
فلان
والشخصيات
##صدى
والثمان
تهامة
الشهية
فسار
بالاسلام
والترفيه
عارضت
ساحات
جزايري
الضيوف
تراف
حواجز
سالت
##رابا
الجحيم
بالذهب
بالاطفال
النوم،
الديزل
ومعا
لاوس
وقدرة
ادانت
برقة
ينقص
مصورة
##اركية
ارخبيل
ميادين
البدوية
##edia
##فاضات
المدني،
802
يملكها
وبنفس
التشخيصي
خشبة
بالاتحاد
بامكانه
«ه
احل
سطر
ضحي
##يه،
##سير
##ος
للبطولة
للولاية
##لاقي
الكع
الصربي
##نيون
##اجرة
##حيب
##صوله
الناز
ليغ
بالقانون
امتيازات
حدثا
الوثايقية
مهمات
تشارل
فوربس
تخلت
للذهاب
لبلاد
الفاطمية
للمسيحيين
الوباء
يويدون
ارتفاعات
فقرا
نفر
##ha
الحزمة
##قلص
متعلق
اللون،
لتناول
لتعديل
##رجوع
مويدة
موهلة
##هارد
تناوله
بكلمة
الفقرات
العقلانية
خشبي
المعدلات
المستشارين
الكربوهيدرات
مملكته
بوقف
مراف
##ject
المكانية
والجمعية
العوام
##يليان
واصر
ومقاومة
المتق
استقب
بموا
بمحا
تتزوج
موتم
البروسية
اعتقلت
##انتو
باردة
بقضايا
للدماغ
وادخال
فنادق
للشرب
الاقوال
البارود
سواء،
اليساري
المختارة
الجرث
العشيرة
انتهاكا
هايلا
مفاجية
ليتمكن
الموضوعة
تحطيم
شفيق
عصا
الاقران
علني
للقيادة
المتعارف
وبحث
203
المنصورة
##بار،
والتركيز
وانط
##شتت
المصحف
ودولة
##واعظ
وشبكة
منتخ
سرعتها
بالاقت
اليونانيون
حقوقهم
##يسيوم
بوربون
حصص
الاماراتية
بوتين
المستعمرين
##بليغ
رياضيات
للاحتلال
ومعظمهم
الحاضرين
استوديوهات
الشاذلي
الارمني
جثمانه
Sup
حان
روبي
فـي
مرن
نقيب
هادية
يجلب
##ve
الخيام
الخارقة
استنتج
باقر
للمقاومة
وكري
تجدر
##ative
1921،
يصاحب
417
مرجعية
الصاروخية
افي
يوت
##عالب
انخرط
##واة،
البقية
وتخت
استولوا
وجرت
فانا
تدرب
يسود
ويمنع
الساكن
رياسته
ومتلازمة
##وظف
واحتلال
الواردات
حليف
سريان
صامت
قضي
##oo
بالالم
الصفي
الطهي
##اريوهات
قدرتهم
اتبعت
كممثل
مرموقة
بوحدة
الطبق
جوناثان
بالحكومة
واتجاه
##urn
لغتهم
بريمو
مختارة
1845
مسببة
الروحانية
البكتيرية
التفاهم
##وتونين
يبحثون
باحترام
الغامضة
UN
بركات
كمه
لقمع
##غيت
##قيل
##عاج
##ينوس
##ستري
للامت
الشيف
واعلى
الصماء
وجهاز
يتدفق
الارشيف
وقادة
وقضايا
لانظمة
الضخ
يسهم
تكيف
حمولة
رياسية
الاطارات
المالحة
##كبير
القمرية
نقدا
التنفسية
روبنسون
Vol
بته
حبل
شريطة
##ولا،
لاير
الصفيحة
ماوى
المتاح
لمول
تقرا
افريل
جنايية
##تجه
اللغتين
يغني
التوصيات
حركته
تودى
الممنوحة
يتلقون
الصلاحيات
jpg
فوافق
لارس
لتمييز
مقاط
##نام،
##فنت
##LA
الاحدث
الايران
الجيوب
واكس
المنجم
##عباد
البلورات
لديهن
قالب
1934،
مركزها
والفرق
50٪
مكتبه
ناقلات
تناولها
محاولته
البوابات
منطقتي
عسير
تاكد
كك
للعرض
للاضطرابات
الامازون
والمواقع
لتدريس
يتدخل
##بارها
باربرا
القرشي
##لسطينيين
بشركة
بالحجارة
ومحافظة
النقض
نجاحات
سالبة
للبرلمان
للمرحلة
الاعتداءات
يسكنون
الشفافية
الاحفوري
تمهيدا
خضر
زيب
##حيل
منعه
التاه
التعيين
السبل
بالاض
الاسطورية
الانبا
والمول
تتقدم
المعق
المجاري
توالت
##زمين
ارباع
اطلال
وثمة
##oss
القيادية
احتمالا
و«ال
البرجوازية
راتب
يمتص
Cont
بوبي
بذكر
خارقة
ريانا
الودية
البيرة
##يسير
الزايفة
بحمل
الاستحواذ
احسان
اختاره
##inal
عبء
القانونية،
لاحكام
ايرانية
و12
الكهربايية،
لمنح
المتمركزة
معدلة
يلتحق
لبرامج
باحثون
مغلق
SO
بصرية
عسر
فارت
##شيري
##هارت
##CS
انفاذ
الحرة،
الكرات
وتجهيز
المتجه
اللد
208
تقنين
مستر
المستنقعات
##اهي
تجتمع
يحسب
احتكار
بصيغة
يبني
مناظر
ابراهيم،
طويلا،
براين
##داخلية
وباعت
استبداله
استعماله
بالضغط
استقروا
بمسافة
اللقاءات
دفاعا
اللاسلطوية
صليب
ضجة
هجم
##بوس
##سنة
##فلة
المصب
والبا
الكسر
الوحو
##ساة
بدار
الجناي
البلد،
ذاتها،
بشوون
بجعل
مزج
الصينية،
وصولهم
1832
جيرسي
وريث
المزارعون
الظاهرية
الاندلسية
تصنيفات
تعبيرا
الاسطوانات
PD
Rob
اكان
جوت
جورن
روضة
شعيب
يظ
##ient
##IM
##ينيون
الابرز
التسم
الختان
الخريجين
التيت
ومغ
##قيتها
اليورو
##ريكو
الزهايمر
تنوعا
مسد
الاسرار
يوميا،
1925،
يسميه
مكانتها
بالاع
الاناث،
للامبراطور
تيودور
يردد
لاستيعاب
سيدات
معدني
مسبق
النيكل
النجمية
هايتي
حنبل
والتفكير
up
اومي
جناز
مضل
يطور
والرك
والطف
##اديس
للصف
ايفا
المتسلسل
اللس
اللايي
##كرات
##حيى
والاول
العمرانية
بالملك
نظرت
المخط
نيوترون
المرشد
المطعم
313
عقاب
الدروع
النظافة
الصينيون
##حمام
توزيعها
ايرلندا،
يواجهها
المارونية
الرملي
المفاعلات
والجمعيات
والكنايس
Ca
Micro
ديتر
روش
وقيادة
التول
##ريحا
انمي
انذار
الخفية
ومعدات
الامنة
اللباس
الذيب
##ذاذ
ثمرة
##زلاند
ارملة
اليومية،
المبيدات
المعلقة
انتقلوا
زيارات
منتجع
اليدوي
1812
تلتزم
بوسايل
والتاريخية
الايتام
مثيرا
المسجلين
صخرية
عريقة
لويل
نهار
نايف
##روا
##تون،
علبة
الفوض
الخت
الخالي
##ليها
اياد
##ميق
املاح
لتزويد
يمد
##شا،
وكسر
المصالحة
وزار
##راكيز
وخفض
العلاج،
دينهم
المصابيح
منافسه
معرضة
المحاور
مزيجا
الكوليرا
الافتراضات
ضخما
راكب
طليعة
الامريكان
##رتيكر
الرواية،
am
برفض
وعلق
##IV
الافيون
##ماك،
القارب
بالمانيا
الدلتا
كلها،
المنشق
بايرن
الزخم
برع
كمص
##واقفه
احتكاك
روسو
شعرا
الواقعي
موظفين
جسديا
اللاهوتي
تساو
اللمفاوية
الامكانيات
فاكهة
ايزابيل
التمهيدية
بقب
##انق
##انهم
والعا
والطفل
واشرف
متقد
وبث
يتجنب
ادارات
##فلح
اربيل
1929،
السيوف
الفنزويل
يفشل
العشرينيات
العصيان
حملها
الاعلى،
مسبار
توجهت
الصيغ
جسدها
تكتسب
كوستاريكا
الميراث
كروموسوم
qu
جرد
كني
وحدد
##يصال
##كة،
##سوس
فيمن
المايدة
والارج
وتصدر
وباس
لتاكيد
وانجلترا
الراس،
للتعلم
اغتياله
الدوليين
الملوثة
بولين
المقدرة
كيبيك
فاراد
صالح،
بالبحر
int
للضرب
الانتقالي
احدثت
##ournal
وحاولت
المتقدمين
هبطت
الاراضي،
الماخوذة
class
حاي
سجين
نجت
##ضوا
العال
الحيز
##افح
الاملاح
الامومة
اسكت
امينة
##واء،
والحقيقة
##ــة
بواسط
الموسيقار
جدال
معلمة
موناكو
جيدا،
والبيانات
سكنت
دانييل
الشبيهة
يدرسون
عطاء
كتي
##ij
##اها
##صوف
##طاد
##دعاء
منحد
الرماد
ويشارك
##حيه
لتبادل
##حوص
والعاط
العمران
بالتوقيت
والنرويج
##واسيس
ولمدة
المشع
فاحت
استخدمه
والرومان
1844
الصدرية
الوجهة
يتبعها
يلبث
الدوميني
بليون
طلاق
ماله
واري
##مجيات
##56
فيش
فيرم
##ايدر
الوكيل
محارب
##اثرة
مثلية
مستعار
الاجباري
للتقدم
##واليس
##وصلة
1935،
بوذا
للاسرة
للفكر
السمعة
انساني
ماديا
فوجي
الاهمال
والبحرين
والبرازيل
رستم
الماعز
ارون
اجمالية
صالات
##44
التستوستيرون
العريس
##ومال
بالدي
اسطو
لملك
قدماء
بتجميع
وسنة
المجهرية
المخطوطة
منتزه
العرش،
الالكترونية،
باعتقال
تهيمن
دفعها
ميديا
تورينو
التوابل
لطيف
عميقا
المباراة،
ورفضت
مطبوعة
استحسان
دماغية
ادنبرة
1٪
No
برحلة
براءات
رصاص
صبري
ظرف
كارب
كربون
##der
##لوي
##سح
البالي
الجداول
باحداث
بانخفاض
الولاية،
برهان
لانك
الافراز
بالمسا
مشيرة
بيريز
للقطاع
ميليشيا
معاقل
##rag
ومستشار
ميشال
البخارية
المستمدة
السلافية
تبن
رعاة
لظروف
مايا
##be
##ـى
الدبابة
اورا
وتي
وتجار
وتسليم
يتوجه
للمغرب
وعلاقات
الاجنبية،
سببت
يجيد
المخز
حكمهم
والقرن
المنتظمة
الحلويات
البطارية
لكبار
المفتي
حصيلة
توسعة
النهر،
ناقلة
مصحوبة
بمفرده
بادية
تشرح
لامب
لقطات
بالعلوم
الشعاع
اسك
الاولية،
مقيم
وسيد
فوقها
لحين
دروسا
واستبدال
المهنية،
وضعوا
1915،
الاثاث
طاولة
بالقوات
يعرفه
والخوف
كلاعب
فضيلة
المالوف
اشتملت
##غانستان،
النبيلة
بالبقاء
والاحص
واغنية
العاملون
اسطنبول،
فخري
والملابس
مشاركا
III
التصنيفات
متجانسة
الاستغناء
text
زام
سادت
غسان
فقيه
لري
ميلي
نعلم
وتطبيقات
الوري
تحسنت
يقيس
الضريبي
##ery
نسوية
والنفسية
##ياهو
المشيمة
للنبي
رايس
المطاط
##حولات
وانتصر
الحصاد
وباحث
حزبه
سجنه
البقرة
مسيحيي
الجماهيرية
واسمها
تبعه
النهايي،
التايمز
Mag
حجارة
طوق
كراهية
##غبات
##جيد
والور
العربة
السرا
بالاط
بالخروج
##صلح
محاصرة
وجيمس
ادايها
بشخص
##يلاتها
##ساءل
واحكام
البكتريا
جذع
السطوح
الاحصايي
بالثقافة
القواسم
لمصطلح
للوحدة
ممتدة
بجيشه
لوبيز
شجا
شابه
غلين
لطبيعة
نطاقات
##Cl
##طفي
##؟»
المراكب
وتوسع
ايان
متماثل
ولاد
الراقية
تدافع
اكتمل
##ara
قصوى
الدمج
المعلن
شهرية
لقواعد
البيض،
وضغط
الطرقات
الوقايي
استشعار
##زيغية
مشروعة
ميثيل
الفرضيات
حبيبات
الريحاني
وانجبت
سيث
##وقد
##29
##زاس
الملم
الجيزة
النداء
##بيوت
وبصفة
بلير
##واتهم
وانتهاء
وسيل
احد،
##رافية،
##وثق
والقواعد
المكتشف
للصناعات
للعملية
جهودها
مستقبلية
الادراكية
ابوابها
الانفصالية
Can
bl
صاح
هويته
وظروف
يصدق
##100
##86
والـ
والاماكن
التكم
التفرقة
التاخير
للحديث
القادرة
معطيات
بلدات
والمخرج
##اكاو
مسطحة
واستعمل
وشم
الدمى
وضواحي
الانسداد
انفجرت
الانحناء
المسارح
الحوثيون
حيويا
غنايية
##كامل
##ايو
##سبول
الفورية
الصافي
##وبت
##منستر
المحراب
وفضل
##erc
اقالة
##هله
الديني،
بالتجارة
اهميته
القرويين
الاباما
للعامة
والفتيات
معلنا
القيادي
الفضاء،
واعراض
المهمات
سوءا
رادار
والتقنيات
الميكروبات
يوصى
قحطان
Des
It
بوير
دقيقا
رقيق
كابتن
لقيام
##VD
والاضطرابات
النيت
الصدا
متحم
ابني
والمتم
لهجات
تحكيم
وعناصر
مدارات
الاصطفاء
12،
المثليات
منتقد
قبوله
##ital
موافق
##عاليم
المختص
##ute
الاذى
وتركيب
1821
طلعت
##زيبام
الزهراء
وتعالى
بلك
زغل
ووت
عنهما
الثانى
الانساب
##عروض
ابى
والمشت
والمرافق
##جازي
وقياس
تنج
اثقل
المستوطنة
المجانية
مصداقية
موشرا
تلتها
##ars
حسبما
لشخصية
المنتظم
مضخة
##حنات
لينت
لصاحب
صغير،
المريض،
1834
البومه
الثمينة
الشفرة
باهظة
المتفجرات
للرقابة
##جزين
##سنا
##خام
##انول
للبال
السه
واسب
وتحيط
وبولندا
والمرا
باكتشاف
بمعرفة
تتج
وقذايف
اتسا
احر
احضار
دولته
سلمة
يستعد
القرار،
التعقيم
##فاعلية
الاضلاع
المغربية،
الوقوع
امكانات
مسجدا
للالتحاق
اللوثرية
Er
was
بساتين
ليرة
هواة
الدني
المنز
تحفة
اولويات
احرار
الناشر
##طبخ
المخيمات
والبالغ
مولفا
##ستروم
يخوض
شهدتها
العرضي
الشتات
مطاردة
الصدغي
مبرر
بالمدارس
كمستشار
منصبا
مانديلا
ثياب
سعيا
فكت
لقطع
نبع
للطلبة
الحواس
##ركون
الخبير
##كنت
الليمون
والتاسع
مصابة
لكنيسة
ستقوم
تجريبي
تركوا
منتخبات
1931،
الحمامات
تحقيقها
للخط
نتايجها
يستطيعوا
القمر،
بالخارج
جسيمة
الشايعات
خبز
للجنس
المتضررة
Mod
تارة
##ral
##غال،
والرسوم
السجاد
الجير
يتراس
الارث
للمحت
##عاته
وسان
بالتس
##atur
الكلوية
والهجرة
سيراليون
الشرقيين
الهجومية
ساعده
فبينما
1789
تلتقي
للالعاب
تربى
وتزداد
بقبول
خيرا
غطت
كحل
لورا
لامر
##فهم
##فجار
##رافة
السلكية
معك
##يمار
الكان
الانسي
لديك
البيعة
بعلاقات
##بطن
المشير
##شليم
صحيح،
لمادة
##دونيسيا
والاستفادة
الاحداثيات
##ution
محافظا
##ودينام
مقدارها
تشريعية
وثقافية
امتلكت
زيمبابوي
الجلسات
عوايل
الموب
والوقاية
البحت
واكتشاف
ايج
الامن،
هوغو
التحر
موسسا
التنظيف
لحجم
واستبد
القرصنة
البحريني
##نديين
تنظيمها
النصفي
الجدري
ولذلك،
المركزي،
الدهني
روبين
الفيروسية
والمسيحية
الابداعي
المعاصرة،
مهندسي
دنا
رابعة
غراي
كنانة
التثبيت
للباحثين
بالما
متاحف
الوريدي
##يكات
قاما
ستصبح
كمين
الاشك
والدن
وخطوط
الشريرة
جمجمة
التعايش
وامن
اليمنيين
يوصل
الثلاثة،
الصفوي
المعدني
بالدفاع
شكوى
الرايحة
الاهلية،
فيليبس
لسلطة
الدفاعات
للدموع
الفلزات
ملاءمة
850
ثوان
سوان
##ظيما
الودي
##الفت
للرياسة
بالقلق
النخب
الانفتاح
الرفاهية
متواصلة
لتقدير
يتخ
للموارد
الريبي
اجتاز
المصادقة
والاسبانية
والعاب
تدرك
تدعيم
باراغ
ازالتها
الربو
شعبيا
الباروك
جمعه
فارغة
يهوذا
بالطرق
اوغست
بالزراعة
تحركت
تلميذه
تينيسي
الدببة
مرشحا
الدانوب
القاتلة
تحققت
Mo
del
اينما
ثورية
دري
يوقع
##فقد
النيك
وتقدير
الخفي
استعان
وبور
##يتول
خطيرا
المغنية
المقامة
تستمد
قدراته
لبحث
السياسة،
الذهان
انطوان
للكويت
للطرق
ورييسا
العشبية
الشراعية
مخلفات
فنانة
الايبيرية
الانعكاس
جوهان
ذبح
##ضاب
##قاسم
##سفة
##اييف
بالكتابة
ومقاطعة
ويط
ويوسف
بازل
الناصري
##طياد
ومعهم
تسليط
لجماعة
238
بالاخص
زوجها،
بالحق
كلاين
لكى
والاسم
محمدا
صنعها
تعريفها
تضاريس
وتدور
المشتركة،
للانتقال
##رابلس،
Char
وشقيقه
فيلسوف
خاد
##صلاح
##ظور
##GB
بالوان
الكهن
الصبر
##وبول،
الثبات
بعده،
هيتش
وخطط
الموسسية
المخزن
##ريتا
راسم
القلوب
القلعة،
والانجلي
السادس،
موثوقة
جيفري
موضحا
وزملاوه
التنموية
بالانسحاب
ازاحة
تحي
غراهام
لبار
مكار
##ـان
والجر
معارف
بالقص
المتواصل
لموس
اللان
وجيزة،
ونتايج
للموسسات
بدافع
وحشية
ينكر
لانفسهم
الاشعري
للسنة
خلفي
مرتك
والجزيرة
عقايد
3500
مانع
مطلوبا
##ناهضة
النحو،
مخلوق
العواقب
خزانة
للجنود
الحبيبات
ترشيحه
خلاصة
بباريس
جافة
صغ
غريبا
قميص
لوال
يوه
##راما
##الذي
##يدي،
##وبن
محملة
206
##ضاه
الهيل
الزرع
والعوامل
ستال
##any
مروحية
عملاقة
وضبط
باكستان،
انتشارها
1831
تعريفات
المدرسين
السيارات،
##يتيكت
الحسنة
هرمونات
المشتركين
استبدالها
العاديين
ولعبت
فيزيايية
وليبيا
الحاخام
Bo
تضيق
شراب
فكري
##قصة
##vent
##دقاء
##اتشي
للعض
استعمار
##وتوف
محبة
ابطا
##ثلث
وعثر
وانشات
مصور
والعادات
اختر
والحروب
ترسيخ
الميلان
##ited
ووحدات
الفيصل
اعتبروا
البعوض
وتعديل
نتجت
متجها
برسالة
لجد
ورياض
##ris
##فقا
منزلة
الاهتم
##سبار
الدعا
##برون
وتراجع
الاسهال
2030
الغوري
يتبين
الارهابيين
المعوية
البروج
مايتي
سياسية،
المشبعة
الفروسية
##سطرة
سمكة
المرحل
المحترف
كروية
بفصل
والاسماك
ارسلان
مالكي
مسبقة
هجري
والجنود
لاستخدامه
افتراضية
النزول
البرونزية
بشارع
المقاهي
ماخوذ
وساهمت
تشاهد
Arab
hel
te
توا
جينية
ميان
##حمد
##مها
##سقاء
##ظرا
واضع
اويل
ماهية
بمزيد
وسهولة
وحرق
##ارتن
بقوا
1928،
مهتمة
زوجات
سطحه
جاءوا
للفتيات
و14
الربحية
بفحص
المكتسب
##بانزي
الحمراء،
اللاهوتية
المهاجمين
ناهز
اعلاه،
ونجحت
الوحوش
رشد
##TV
##MP
والايطالية
الحلة
وند
##وحى
##ini
احتج
تخيل
الشعيرات
مغربية
##وزيف
النظرية،
للصلاة
المفترسة
وبرج
ويستعمل
السويد،
##ينتندو
فريدا
المفقود
MP
new
تخلص
صفيحة
كوان
ممد
والابت
البابلية
##لاوي
الجهل
معاذ
الفخر
الدون
وتزيد
ومرافق
الاسم،
ويض
مقيدة
المحاماة
وحالة
تطابق
ارجل
احتساب
ترفيه
للعين
للعاملين
##جيبة
310
الاواني
عرفه
كريمة
النقابة
نوايا
معتقل
##ويضات
واحتلت
الملاكمة
لوكاس
واخذوا
وبنو
ونشرها
فرساي
المرسلة
فلاح
##لن
##me
##سولة
##TC
المدي
التور
وتطل
##اسيد
الصهاينة
ماعدا
اكرم
##وزو
مسيرات
اتفاقات
تصادم
واحده
بارض
المهنيين
يناسب
الليفية
##تاحت
لينكون
والمنتج
التلمي
الاصليين،
والسياحة
النحوية
المشرفة
ترددات
بتمثيل
صاروخية
كواحدة
بدعوى
Dis
National
بخي
عانوا
مجاه
##ضون
والالات
البركة
اوعية
لمجرد
متفوق
والمركبات
ونوف
بمج
اشتد
الخلية،
##وابت
الافراد،
ضررا
بالدول
تسجيله
مسلسلات
فايض
للتصوير
المعيارية
الماركسي
الفيتامينات
وحمض
ووالدته
المنحدرات
والاقليمية
American
خاله
ساكس
شارة
##غف
المتمردة
والطبي
اندمجت
السيسي
بالشيخ
اوبن
لاهاي
##قيما
##كتهم
المنتمين
##اثون
بمجال
اجانب
يجيب
الموسسي
والحماية
##inn
مكانته
والفارسية
الحضانة
ويرمز
نصيحة
المباحث
هيلاري
##فزاز
يعتنق
يشاركون
وعرضه
هيكلية
لنفسها
الكاميرون
وخلايا
والشعراء
تساقط
##وكولاتة
وابلغ
حاضرا
EC
دس
للقص
السكون
السعال
القنيطرة
بالالت
الخيري
بنظرية
والمدير
اجلاء
سبنسر
دونغ
لحملة
ملع
العلاجي
الداير
مخز
جانبها
المنتصر
المفرد
ومتنوعة
لقبول
فيروز
موضوعية
وستين
والزواج
النخا
الواحد،
مدريد،
كليفل
اصابتها
انتصارا
كاثوليكي
الفاطميين
هيوز
ودمرت
يترجم
احيان
مرفق
حتفهم
اقطاب
حبة
كفاء
لصد
لوقا
##34
متضمنة
محمل
سبير
مصارعة
تدريبا
التحصيل
ممارس
للسامية
وصعوبة
##وءات
1932،
وثقافة
راسا
الاعراب
والثورة
كارني
والاعتداء
##وشيما
اصطلاح
للاحصاء
الغزوات
للاعبين
بالمواد
بسن
سريلانكا
لوالده
والقيادة
للزوج
السلي
وتحدد
والمض
فتنة
اخماد
المجاني
فقدوا
ومعركة
لعصر
لنحو
والنوع
المحيطية
جونغ
##يسيوس
النظيفة
ارضها
انطون
1853
ميرك
عايلية
اقامتها
مدربا
البرونز
والاطباء
لتفادي
لمنتخب
الالزامي
جازان
جيوفاني
Net
تغي
حنين
صحتها
وخصص
يار
##de
##جعين
##ظرات
##هاة
##راعة،
علاق
للقلب
النيل،
الشراكات
بلن
المنامة
##احلة
##واجب
للتغلب
مصابي
وجودة
الفتحة
يستمع
##ولوجي،
##ــا
المخزنة
الاحتيال
تخريب
فيرغ
تحويله
الدقيقة،
تفسيرها
السرطانات
البقع
المخلوق
حداثة
الاكاديميين
So
بريم
جدية
شجاعة
غوغ
وتسمح
والمجر
وسين
سبين
الموثر
المعرفة،
بناءا
فنزل
المحتل
عملياتها
النمور
واشجار
قاده
بورقيبة
هاردي
للهيية
شمعون
##ناهية
التقدمية
رياضيا
وتعرضت
##خللها
المتداولة
بلم
تبيع
مقتص
##اوه
الاكلين
الفم،
ومدر
لاكت
الرعاة
اسرتها
وبصورة
##عرج
الغاب
الزباين
##شيته
والارشاد
تلبي
تفشل
فله
النفوس
مولفه
المنتظر
مناعة
الاقتصاد،
##وندو
الاماراتي
والاخيرة
وسلامة
الاطلسي،
البريدية
اندلع
للتصويت
عظمى
المصلين
حيازة
شاملا
والرقص
كواحد
اولمبياد
We
سارية
فرت
كوج
محدث
##ثون
للسب
البايع
النه
استطيع
ويخرج
هوايية
وليا
الزينة
مقسم
##فضيل
الاشعار
الفتوى
الاوربي
نشاتها
متنها
340
370
##بيريا
تنفيذية
مسيول
المقررة
ذكرا
للاغراض
احيانا،
اريتريا
ديترويت
Wind
سيرا
طعن
##ca
##حفاة
##لاقية
الرشد
##وتسكي
##دينين
محقق
ونهاية
انتحار
مصابا
بطارية
##ريدية
للاعضاء
وشدة
256
بقراءة
واقيمت
والادبية
##زعاج
1846
اصحابها
حفظه
استشارة
عايدا
ووصفه
وتخرجت
وتشتمل
الدمشقي
WWE
بالنيابة
7،
Na
صدم
يباع
والقلق
##ساوسة
المنوي
##وكة
##وكمة
##مدان
مقاربة
تنقية
بحرف
بالمجلس
فوقه
تطوع
16،
الاعتقالات
والغناء
المدارس،
فقيل
منافس
سفره
مناقش
والمكسيك
خان،
طلحة
##’’
##هاق
##ولك
##ورتي
للاطفال،
النينجا
وتحديث
ومشت
الانديز
##لال،
##اريب
المنية
المنذر
وحكومة
##اكسة
البيانية
بالتركية
تسليح
المخاطية
اللاكت
يوناني
ازال
1923،
##باطو
يحتوى
للانواع
##راسيا
فعلية
هاو
القنصلية
فمنذ
كينج
نبضات
وذوي
والاصول
والاعتماد
الفيروسي
الهجري،
##وكوند
رمضان،
بوث
حايط
##ling
##تياح
الكرم
اوغلو
##نيو
ثمانين
##لبين
ينادي
100000
المخاطي
التدريبات
الاثنية
خارجها
##هاتف
النوادي
لكوكب
##amil
العظمى،
مواقعها
لصالحه
الحصين
توفرها
يهيمن
خرجوا
جوهرية
المتحالفة
حفص
الكترونات
لطفي
667
للتنظيم
واشترك
مشارف
الراديكالية
اشتركت
وقصص
تسيير
متاثرة
اطلس
قوافل
الايرانية،
##تري
##قايها
##ايدين
السمية
##افيين
19،
##قييد
اللحن
انتماء
المسطحة
المحايدة
الاصيلة
التحميل
##ثمانيين
وشعب
اطباق
طبيبة
التعس
طولون
##els
ويلعب
سميكة
ليند
سفوح
الفقاريات
1847
النجمي
رعايا
المدمجة
الفراش
نحتاج
الاندونيسية
قلاوون
اطروحته
الكساندر
جست
صاف
كيمياء
هاز
الون
فينت
والبد
##بلين
الصويا
الرتب
اللصوص
##وتز
يتس
عشرون
##وانع
النسق
ورحل
الجمارك
حلق
الحيواني
طبيا
القدمين
##حرش
المجموعة،
##ذرز
المختصين
برامجها
ليبدا
اهتزاز
اللعبة،
الهندي،
833
الشريفة
cl
تلاحظ
ريز
غواتيمالا
قماش
لصف
نوا
وشيخ
يراها
##och
##rat
##غز
##ti
##خز
##fl
الملام
التراج
علام
الجواب
معالجات
الشيرازي
الكيت
وتخصص
ومقالات
ويحيط
والمقالات
بتناول
ودرا
لجون
وثالث
##كالمة
الدرامي
الفيضان
بثت
480
كريستين
والبيزن
يكتمل
تريليون
مقدمتها
تقاعده
مضمون
الرفيعة
الرهاين
كمبوديا
di
حسم
دالي
قرات
مدرجة
ياف
المخص
##هاج
التدمير
##ماثيل
##ياك
البظر
الفح
ماكم
متش
##يزية
وعزل
المسن
وفود
المصاحب
والاستخدام
التحمل
فرنسيس
العقول
قضبان
الحكوميين
بالسياسة
فقرات
حسابه
##سلمين،
ترابط
تجعله
يقوده
الكوميدية
الديناميكا
الافغاني
مرحلتين
البييية،
Em
ضح
لقرار
##غيان
##سطنطين
المزي
والافت
التدا
التاش
##لازم
الصاعقة
بلندن
والموسي
وجدة
تعقب
اعقبت
وفرق
تجن
الشرعية،
اعلامي
##واي،
بشارة
لوحدة
اساسيات
شكلوا
المعروضة
العدايية
مكتملة
فلاسفة
1852
يهزم
السيراميك
والاجتماعية،
كهنة
الصباح،
##ثمرين
الدفاعي
اللفظي
بالتصويت
بريستول
التليفزيون
##وكليوت
Rep
اكن
غواصات
مالم
هانت
للي
الجول
وتعيش
##بيح
##وفسك
ذلك؛
##قاطة
لتوحيد
والتخلص
مقاليد
وانهاء
مجاني
##رادشت
وشخص
والسابع
بولونيا
##عاونة
ووكر
ظهره
وتعطي
يرتكز
المفترس
نهايته
1835
ويحصل
جذري
الصدفة
لاربعة
السماء،
الحفرة
الاليفة
للحدود
الممرضة
الموضعي
تشكيلات
##ublic
التحليلات
Sk
center
خالف
طلاء
يدم
الاقطار
والقل
##ريقتين
معقول
الدعاة
الخاطي
استطلاعات
قبلة
سيبا
ابنايهم
المجموعتين
واستعاد
وصيد
بصمة
والفقر
المعلومة
وضعتها
الوحشي
التسارع
2008م
المالكية
الاقتصاديين
معروف،
والاخير
وكنتيجة
لوحظت
الباطن
للكلمة
الوديان
فاقام
مقترحات
السومرية
الاستثمارية
طبر
لعلوم
هبة
وواجه
الاوب
بالرييس
##حديات
##بروك
وجان
تحسب
جنكيز
15،
واحدى
وصاية
المعروض
##غرل
مرتين،
حمير
البنادق
ناديه
##اراغ
##ets
325
تصلح
المفكر
للهواء
##ogle
الامتداد
فوهة
583
ووضعها
اضافيا
الميتافيزي
بتشجيع
للطبقة
الندوات
العيادات
روتش
سرح
يوا
يضر
##قابات
المات
الاوبية
للرك
الحاف
الجيو
واعدم
وترجع
##اسوس
##وبها
ماونت
ابقى
المنته
##ريكيت
بمشروع
تتدفق
والتفاعل
والتوسع
المحميات
مسافر
ليستر
اقص
اضواء
الاحذية
بطون
تفويض
والفواكه
والقمر
افضل،
##وسيوس
وتتطلب
مضيف
العصر،
الاطوار
علاجه
بمعظم
اللاعبون
الكمومية
فيلد
الجدال
التشريحية
المحتملين
لالقاء
الزمان،
##مايهم
ديناميكية
وقبايل
تفسيرا
الثروات
pl
تسمع
حكمة
خانة
زودت
سخر
سعي
غرس
يزل
##دهر
##RE
للطف
الكاذبة
##وقه
الاسير
الغال
بمقتل
عشرية
بحساب
المستدام
وفريد
##وط،
الارضية،
الخطابات
وتنقل
اجتماعا
بخمس
تمكنه
المرحلة،
##ضحك
هاريسون
العصبية،
علاقاتها
وتصوير
مونتانا
بتحسين
مقالاته
نخاع
امبراط
المميزات
استحوذت
بوار
دريك
##روم
##كين،
المفس
المفاوض
والوطن
الحراسة
بالصد
##كلاند
وهبي
متناول
اكياس
والمعارض
للموسم
تقطيع
احدي
الراية
وفحص
الافريقية،
ضدها
الطاعة
المسيطر
التخثر
مقداره
ذوو
والاستثمار
دايما،
البلدة،
مالكوم
ومدارس
منافذ
تخلو
باغلاق
المعياري
البربرية
تحطمت
Ac
جاين
جوسون
غواصة
##67
##LC
للني
##لاين
معنا
وتوحيد
##دييات
والممثل
يتصف
مستعد
ينطق
للتفاوض
موخرة
موسمه
##واله
##طانة
يستقر
العمدة
دمار
الاضافات
جزيين
والاجن
واعرب
عصير
للمنتج
##سلسلات
البلاغة
متميزا
وجنوبا
لطرد
ذهبي
حضره
الباطنية
السعدي
الاكتفاء
فرانشيسكو
فهل
لوزير
##ola
##زود
##ze
##امين،
الاورا
انطاليا
الفراعنة
##يسيس
الرقيقة
استغ
المدخ
جنو
13،
##وصي
وطرح
قاوم
كولينز
العصبي،
حصون
الموسيقى،
1833
اللحظات
النفسيين
العاقل
الاقصى،
التوجهات
لاشعة
وايلد
وهنري
اوكلاه
الكيماوية
الدافعة
الدفيية
«ي
تيري
سالي
قارن
معدة
هيس
يي
##حمت
##ke
والوثايق
الحية،
اللياقة
وقوله
اجناس
اتس
الناض
##صارع
عدوان
الاميرال
انشايه
البروتوكولات
جانفي
صلات
المثلى
فصلا
بذاته
والتعليم،
سلمى
جسور
والشعير
الراديكالي
ليزر
غولدن
ناهيك
واتباعه
تبد
خداع
طاقته
يرك
##yc
##قند
##RA
منشا
والباقي
الحنفية
السخرية
البراكين
متوفر
المنصات
لتقدم
اديسون
تحتها
بتغطية
اوليف
الناقلة
يجذب
##صالحة
التشوهات
وضعهم
1916،
تكافو
وظيفي
##ويدية
والخض
الكاثوليك،
تيزي
كاتالونيا
حضرية
##ستهلاك
التجارة،
##فوقة
##فافيش
##ump
النصية
الاربعينات
كيمياييا
خزانات
سطحية
يخلو
##بترول
اليقظة
فصاعدا
ذكية
زارت
قرض
لخفض
مولي
##زا،
والشكل
لاسبانيا
##واتير
للملكة
وانصار
اغلى
لدورة
لنموذج
اوركسترا
##افظات
وصلاح
ابيات
##ياس،
للاسر
ميج
يلقى
بالعلاقات
ليندا
1838
ديربي
تورنتو
واختبار
لمعايير
بافكار
وسبعين
ليبرالية
المستندة
عسكرية،
الكلاسيكية،
OS
جادة
خاف
خفية
رقي
رفات
سوت
مظل
وثمانية
يعلق
##سول
##95
والخروج
للاض
للياب
الدهر
الشرير
وتوج
ومشاركة
وموخ
الانغ
باعلى
اشعر
فترك
نفسك
تدشين
اذاعية
واستقرار
الاحتجاز
انحناء
مزمن
واتسون
النووي،
معلومة
اكسدة
عصره،
اسسوا
المراعي
##ograph
الموضوع،
ميتا
رودس
الساحقة
موثرا
لاخرى
وديفيد
الصبغ
دواوين
الكانتري
Pal
بسام
غو
وداخل
##حرت
##ديل
المكلف
انسي
العجلات
الحقيق
عامين،
ومحمود
##ويها
متاب
ولع
##تهابات
##ماء،
خطرة
قصير،
بقصر
للعثور
ويترك
الرياضيات،
برنامجها
290
ووعد
تعريفه
Stud
اسابيع،
تركيبها
مدينته
الحنجرة
بالذنب
الايرلنديين
تعويضات
وروساء
الهيكلي
Ma
«في
##وكان
##هيلات
##PC
التايية
القافلة
القاموس
الباليه
##ناوي
واغل
اوصت
وتوكد
ومعل
اسهامات
20٪
18،
اتفاقا
بروح
العلويين
فقدم
تواريخ
بيولوجية
14،
يشك
سياحي
وايجاد
الشعير
مغامرة
التمسك
مراسيم
المراسلات
الجدارية
جيدة،
ربطت
خدمت
اردت
##انديز
##ization
وكمية
الوضوح
طابقين
بتكليف
شقيقتها
ترافق
زعي
قبعة
نغ
وزيت
##ھا
##امي،
التدرج
##ناعه
الجاني
##لالية
بلعب
وناي
للمض
للموت
تتصف
افق
سيي
للتفاعل
والحساب
##ines
المقعد
فرنك
ثلاثماية
المرموقة
النمو،
اشتق
قادته
قطر،
القصر،
لطريقة
##ife
التطرف
الراسمالي
الممرضات
موهبته
زغلول
per
تسب
تربي
دارة
عثمانية
فبعث
وولاية
يـ
##قارب
البساتين
##زيك
بمراقبة
الجنينية
المستندات
التركمان
##طقس
النسوي
الخلايا،
بصعوبة
يعتبرها
المرضى،
تتمحور
غرامة
مغارة
##حميل
متنوع
1836
وتسعى
متتالي
وابرزها
هوفمان
مبدييا
تمل
حور
ركل
عتي
نوق
نقلة
##con
##هوف
##خخة
بالاند
##ويو
الرعي
المتعمد
ويوضح
والمشاكل
بمقد
وقرى
الادخال
##ضمين
##رموز
ودايما
وشراء
تلحق
اقليمي
طاقتها
قضيب
غرانت
الاطول
واشتهرت
حدوثها
البرنامج،
1855
ضمها
##oug
سويسرا،
مفرط
موطنه
الممتازة
توصية
ياتون
بوفون
قوامها
المغتربين
ارمسترونغ
Hist
رماد
غم
##صودة
للامة
القرض
##يمة،
##ودن
##علامة
الاسقفية
الطن
المتلقي
##مرارية
##وتوكول
الغلي
تتوافر
ومنتخب
اشترا
##سكريتية
بالتاريخ
اورانوس
##alth
الايجار
كوني
حياتنا
وصفته
الحزب،
المنتشر
يصلي
واخوه
واجتمع
مقدما
الاسراييليون
روحي
حبس
ويدعم
اقاموا
اللاحقة،
الموصل،
##ction
لاصابة
والقصص
معاهدات
بمحاذاة
Mc
Will
خاتم
هت
##تاب
##RS
المظل
الحال،
الفاخرة
الدرك
واجن
##حتين
##عيته
##دينيا
والمخت
وجي
وسعيد
لدراسات
##طنبول
والنسيج
منتجة
الخطبة
بالانضمام
للمنتجات
للسلوك
ومستشفى
الانجليزي،
رقمي
منشورة
المانغا
تدهورت
دبلوماسي
ويزداد
تجلب
جريان
##cess
##شيش
بالكر
واقر
##كني
##وبات،
##رته،
##ميتها
##نيي
##عبارة
##بعه
مقصورة
تعذر
وسقط
النسويات
والحبوب
الابهر
بجراح
للقراءة
بالقضاء
حكموا
الحبس
كاميرات
قطره
1843
المنتخبين
المعرضة
اليوتيوب
العرفية
وكارل
الوافدين
البويضة
باءت
عطارد
فاول
العجم
الحاملة
##اريو،
محكم
204
##از،
مدعيا
##حادث
منتشر
المرنة
وايز
وطبي
هدسون
الداخل،
المسيحي،
مسووليات
##ters
منتجاتها
ذاع
واحتفظ
بذلت
الكبد،
المدفوعات
##شيونال
Eur
»،
بارسون
طرط
يزن
##بوا
والبيض
السنتين
##وسكي
ومارك
لايران
الطاب
اليهما
ليبي
##التهم
واسعة،
واراضي
##راهقين
اطلاع
##كيليكس
مزاج
نصه
تسببها
لقبيلة
اصدره
استدعي
وتجديد
الكولونيل
الهاتفية
بورتو
بمرحلة
روايتها
الراديوية
ريموند
والموتمرات
Af
Ser
بوريس
خاي
رينو
لفي
##ience
معب
الشهور
##ليوس
اسلاك
متور
متصفح
لتعيين
الهست
الزخارف
اجابة
امازون
بالمعلومات
والدكتوراه
ومعناها
الفتوح
والسادس
للديمقراطية
والخامس
للبناء
لاستضافة
مختصة
الامبراطورية،
تدخلت
تضيف
الطويل،
القصصية
ونقلها
للالهة
مندوب
كنعان
جدي
زيان
سي،
عالج
##غرس
التير
البندق
##عتها،
باقية
اولياء
سلسل
المثليون
قصبة
الاساسي،
نيق
##وشية
كارين
خصومه
طويل،
انفسهم،
وباست
تشارلي
الشريف،
الفصحى
والاكتياب
الميثولوجيا
مفردة
ادوارا
الارجنتينية
اشعاره
صيني
##res
##مانية
والسكر
الدفعة
الكوفي
الذعر
لازم
الصابون
استند
متناس
يتنافس
الاولين
تجس
##اييون
بالترتيب
التنجيم
##اندرا
للعرب
طبعا
محددا
تحديده
ايراني
ويتمتع
تغني
الصحة،
المجازر
والمنت
الحاليين
معتبرا
التشغيلية
العظام،
المسبق
لانتقادات
بوداب
كوينزلاند
الغنايم
مصحوبا
بوليفيا
الاوزون
النيوزيل
تنزانيا
Dev
زد
##وابة
##مارسات
##ايغ
الانكا
غيره،
##ستخبارات
تنبا
وعارض
احس
ليج
وزنا
وزعيم
توكل
والحن
مرنة
الحرفي
##تلات
1924،
والصحف
موازنة
فالع
التقليدي،
وتقنية
التفجيرات
ماريوبول،
لاتمام
لادخال
وانهى
ميتشل
هاميلتون
تشغيلها
نباتي
تصنيعها
بالمسجد
اجراوها
يقدمه
معارضا
بهر
سرك
كاث
##نقي
##خون
المكاسب
##ولكن
العطار
للمي
##يلسوف
الكابل
متطور
الغواص
للمشت
##كومة،
##رادات
بالتساوي
للحالة
اختزال
ملء
المجمعة
مشغ
##arb
الاثنا
وامراة
##فاقس
لكيفية
مرضه
خلفها
قطرات
الجنسين،
واصبحوا
العراقي،
العثمانيين،
قليلا،
قياسها
978
سامراء
##برهنة
وبمساعدة
سينمايية
الفسيولوجية
ارشادات
والوطنية
فريدرش
pp
طنا
كوار
لجل
وسمع
العادية،
القميص
الصفا
محاط
الغزن
##لساء
المجوهرات
الناصرية
الادريسي
الموتم
ارخص
وبعده
للعناصر
التدفية
للدعوة
214
بالاصل
الجزايرية،
الليفي
الليالي
بريان
للصيد
المكان،
الالبومات
##روقة
اعتمادها
احتلالها
لاخراج
المطروحة
ايفانز
الجزار
بالاحرى
المندوب
التشكيلية
مسموح
يوصي
النيابية
وعاصمتها
As
جهل
ظلال
ميري
يوقف
##ger
##الدين
المذبحة
##يند
الابيات
والسك
العصرية
الجرافي
اوبر
بنيران
متساوي
##اج،
##اجيك
بلوت
والموظفين
وجامع
تتدخل
الزرق
مستعدة
ليجد
الموصى
##طينا
##كسون
ستوديو
بيي
المغادرة
بشهادة
كونيتيكت
وثق
مواهب
الاعضاء،
ينتسب
تفاهم
لاغنية
اعتماده
ناشط
والاكس
نايبة
موسكو،
والايمان
الحكاية
البروستاتا
استسلمت
مغادرته
والخضروات
جيز
حرايق
زه
عشت
كرمز
لرفض
مدام
##شغل
##64
والصل
##ماسة
##ستهم
كانزاس
واهمية
##بلات
الانمايية
الهوس
اداب
##ازم
والعصر
بالموافقة
درامي
سياسته
بوخار
232
الاعتدال
فالد
مكتشف
الالبانية
مونستر
رجالات
تتبعها
تحدها
الذهب،
بالاستيلاء
والابداع
يتبعه
اريحا
ممرضة
الموزعة
ترقى
تواجده
الصامتة
اودي
بريك
حطام
كادت
ورجع
##ليس
##mar
##por
المهاد
##ماوي
السحايا
بلورات
##جاذبية
الاوليم
##يفو
سيح
حينذاك
اقطا
بعودة
الاغلاق
يحترم
ترتب
2007م
العصابة
يوسف،
انقضاء
مختص
ايليا
وفرقة
خدماته
ماديسون
بالاتفاق
بركان
تضررت
تاشفين
الفاشلة
واستنادا
والخمسين
،وت
دني
ريفية
شاذ
كقاعدة
لخل
لقر
مراق
##طيم
##عوبات
##RO
الماد
والمادة
العدا
الشيب
الكذب
الانبار
بنتايج
ويسبب
ويكتب
كله،
دونباس
تسلا
المقرب
بالنساء
الايق
ابيه،
بـال
كنايب
يبذل
275
يخاف
##راتيجيات
الكروي
التبانة
ليتل
##اثرين
بالشعر
وترعرع
ليلت
المتردد
مكنت
رصيف
##وكرانيا
##انزستور
البروستات
asp
##قور
##77
المزيج
ماهو
الطينية
##وفينيا
وقبر
المناورة
المغذيات
اجله
القردة
التصريحات
دولة،
مولمة
بالسماح
العصبة
2005م
جانيرو
الثقافة،
كاميرون
علاقاته
روحه
Inter
توجيهات
حاجات
للذوبان
مقبولا
رولز
متطابقة
لاقناع
Fe
ne
اودية
برقية
طوا
طوم
وطاة
##رمان
##ستوس
السيناتور
البكري
معرك
##كن،
امانا
##عاها
للمراقبة
##يكي،
وسياس
المستشفى،
للتحليل
يستلزم
الابحار
اللاع
التشيكية
المحللين
فالس
البروتون
##امرين
ويتمثل
##ade
واختير
لوحاته
ولتح
والطبقة
غابرييل
المقترحات
اسلوبا
شاحنة
المحفوظة
Dr
جاو
##RP
##88
والجمال
والطبيعة
والفساد
للكتب
الفوسفور
لاستر
تمد
الناشي
اغان
الشيون
والحركات
التصريف
المهارة
وامين
وامير
المحتوية
بالحفاظ
نفوذا
باديس
البصرة،
مباشر،
اخبارية
وراثة
اشتراكية
ومهارات
بالالوان
المتنازع
البطيية
الاستثنايية
Lib
##اوها
##فوف
##ظافر
القبطان
##ومير
الدافية
الخداع
الصقر
##قاوي
##ساوى
المنفعة
##يتين،
يتوزع
تتنافس
وقاتل
اتفقت
والاعراض
كمجموعة
##والا
وتمكين
##وايت
عمومية
ويمتلك
بالاحداث
لرصد
بامكانية
العمال،
اوغسطين
مهاجر
مشروب
لمستوى
البنيوية
مرقس
مبارياته
غوردون
Sal
بونت
حربي
سالف
ضغ
كيرك
##لزمات
##وسي،
الطيفي
لموتمر
الليلي
الغارة
والمرت
هيبورن
وقابل
المسيل
وكيلا
مويدا
اقواس
بالتنا
لعمر
مساويا
تبذل
احتفل
##ــي
بيرسي
ملكه
والثامن
للانظمة
علاجا
ومحطات
التناسلي
النمسا،
المريضة
روبرتس
اللحام
سلمت
يفعله
باحثا
شركته
بتقنية
الاثناء،
und
،حيث
بسلام
فذكر
نستخدم
##rol
##فارة
##31
فيع
العطل
الرواق
بعدا
يمسك
بحرب
يعط
المجزرة
الاحم
خلفت
##hed
فالج
البنايية
الليت
##وزيت
الشمسية،
العرض،
الكونجرس
مساعدته
تاثرا
اوتومات
القايمين
وعموما
##زياح
بالذكرى
ويحتاج
صحفيا
بالبلاد
السلطان،
##uction
الطيور،
متواضعة
الاويغور
اللايحة
CP
it
pol
،ت
ازر
تادية
صمت
ميني
##line
##وخذ
الوند
منكم
علو
للسكك
الدعاء
##وبيس
اسات
بموضوع
تقاتل
##يفن
بتربية
ينهي
فتوى
بلغات
بعنف
واستولوا
مرشد
وشخصيات
للعايلات
وثبت
الاعتلال
رسميا،
وهمية
تحمله
ومتوسط
الفيكت
سانتوس
1842
##ada
مسلمون
مبلغا
تسلق
المتساوية
الشبكة،
هلسنكي
Journal
تالف
جيان
حوت
نبتة
هاك
وقاعدة
##شوة
##زار
##٪،
الوتر
القزم
القاذ
بالرق
وتاهل
الغيب
##سلل
بروية
ينب
مختلفتين
ومعها
##وال،
##جرام
وصن
اعلي
مخالف
بالاخر
اليمامة
الرحم،
المطرب
نموها
للغات
يخفف
بالسفر
هاربر
مخترع
قطعان
الفارق
معتبرة
##شنر
حسنا
والمستشفيات
##كاكين
جبيل
النازيون
منطقي
بالثورة
كتلته
دونيتسك،
بالرباط
تراه
توتن
دنيا
زوا
فلكي
فحوصات
كذب
##ضلة
المارة
الاوك
الاوص
السورة
الذهن
ومياه
لمرة
وهدد
الغول
وليلة
تشاب
الرييسيات
يدفن
سلفا
تزوير
ترسم
فاصل
شرسة
شمالا،
المرتزقة
بسقوط
يفرق
واخيه
الادبية،
بروتون
الجزيء
##stit
الاقتباس
بذاتها
للاجهزة
طرحها
المبارزة
والتمثيل
##ney
رفح
المستوطنون
Pe
«ق
،م
اقبال
بدين
بساطة
ودمج
##وكت
##فيل،
##انته
منخف
معاقبة
ومخرج
للمعرفة
ادريان
وعز
##عاتها
اجتاحت
##اكسون
الولي
والدراسة
الاحافير
##لتين
للحرية
الاوركسترا
قلل
اساسها
سمعته
الاعجاب
##ision
##its
قتلهم
##ينغو
العرضية
يصبحوا
فمنهم
للسلطات
جذرية
دمجها
لعلي
والاعتراف
محاكمته
وساعدت
للكلية
لجنوب
ازمير
طالت
فلت
لحي
##work
##96
الحافلة
القري
الخطب
##بيها
##ديت
الاستدامة
احرف
تصاب
الموايل
ستايل
اضحت
عمر،
واستقبل
للاكل
يشرب
عرضية
تخبر
جنوبا،
ميليشيات
تكمل
والكهرباء
السرعات
الطايرة،
الافتاء
السيروتونين
الابتدايية،
موقفها
لمتلازمة
مبتكرة
الباسك
لزوجته
Black
والندوات
